~o
<STREAMINFO> 1 25
<VECSIZE> 25<NULLD><MFCC_D_N_Z_0><DIAGC>
~t "T_a"
<TRANSP> 5
 0.000000e+00 1.000000e+00 0.000000e+00 0.000000e+00 0.000000e+00
 0.000000e+00 5.654270e-01 4.345730e-01 0.000000e+00 0.000000e+00
 0.000000e+00 0.000000e+00 6.514649e-01 3.485351e-01 0.000000e+00
 0.000000e+00 0.000000e+00 0.000000e+00 6.848469e-01 3.151531e-01
 0.000000e+00 0.000000e+00 0.000000e+00 0.000000e+00 0.000000e+00
~t "T_b"
<TRANSP> 5
 0.000000e+00 1.000000e+00 0.000000e+00 0.000000e+00 0.000000e+00
 0.000000e+00 4.095588e-01 5.904412e-01 0.000000e+00 0.000000e+00
 0.000000e+00 0.000000e+00 9.901579e-02 9.009842e-01 0.000000e+00
 0.000000e+00 0.000000e+00 0.000000e+00 4.961984e-01 5.038016e-01
 0.000000e+00 0.000000e+00 0.000000e+00 0.000000e+00 0.000000e+00
~t "T_d"
<TRANSP> 5
 0.000000e+00 1.000000e+00 0.000000e+00 0.000000e+00 0.000000e+00
 0.000000e+00 3.111616e-01 6.888384e-01 0.000000e+00 0.000000e+00
 0.000000e+00 0.000000e+00 1.551878e-02 9.844812e-01 0.000000e+00
 0.000000e+00 0.000000e+00 0.000000e+00 3.476566e-01 6.523435e-01
 0.000000e+00 0.000000e+00 0.000000e+00 0.000000e+00 0.000000e+00
~t "T_e"
<TRANSP> 5
 0.000000e+00 1.000000e+00 0.000000e+00 0.000000e+00 0.000000e+00
 0.000000e+00 5.076675e-01 4.923325e-01 0.000000e+00 0.000000e+00
 0.000000e+00 0.000000e+00 5.177515e-01 4.822485e-01 0.000000e+00
 0.000000e+00 0.000000e+00 0.000000e+00 6.811770e-01 3.188230e-01
 0.000000e+00 0.000000e+00 0.000000e+00 0.000000e+00 0.000000e+00
~t "T_f"
<TRANSP> 5
 0.000000e+00 1.000000e+00 0.000000e+00 0.000000e+00 0.000000e+00
 0.000000e+00 6.852643e-01 3.147357e-01 0.000000e+00 0.000000e+00
 0.000000e+00 0.000000e+00 7.856629e-01 2.143371e-01 0.000000e+00
 0.000000e+00 0.000000e+00 0.000000e+00 5.938960e-01 4.061041e-01
 0.000000e+00 0.000000e+00 0.000000e+00 0.000000e+00 0.000000e+00
~t "T_g"
<TRANSP> 5
 0.000000e+00 1.000000e+00 0.000000e+00 0.000000e+00 0.000000e+00
 0.000000e+00 3.405340e-01 6.594660e-01 0.000000e+00 0.000000e+00
 0.000000e+00 0.000000e+00 4.578124e-02 9.542188e-01 0.000000e+00
 0.000000e+00 0.000000e+00 0.000000e+00 3.231083e-01 6.768917e-01
 0.000000e+00 0.000000e+00 0.000000e+00 0.000000e+00 0.000000e+00
~t "T_i"
<TRANSP> 5
 0.000000e+00 1.000000e+00 0.000000e+00 0.000000e+00 0.000000e+00
 0.000000e+00 5.170451e-01 4.829549e-01 0.000000e+00 0.000000e+00
 0.000000e+00 0.000000e+00 6.309459e-01 3.690541e-01 0.000000e+00
 0.000000e+00 0.000000e+00 0.000000e+00 6.682795e-01 3.317205e-01
 0.000000e+00 0.000000e+00 0.000000e+00 0.000000e+00 0.000000e+00
~t "T_k"
<TRANSP> 5
 0.000000e+00 1.000000e+00 0.000000e+00 0.000000e+00 0.000000e+00
 0.000000e+00 6.813297e-01 3.186703e-01 0.000000e+00 0.000000e+00
 0.000000e+00 0.000000e+00 6.018797e-01 3.981203e-01 0.000000e+00
 0.000000e+00 0.000000e+00 0.000000e+00 4.136040e-01 5.863960e-01
 0.000000e+00 0.000000e+00 0.000000e+00 0.000000e+00 0.000000e+00
~t "T_l"
<TRANSP> 5
 0.000000e+00 1.000000e+00 0.000000e+00 0.000000e+00 0.000000e+00
 0.000000e+00 5.090027e-01 4.909973e-01 0.000000e+00 0.000000e+00
 0.000000e+00 0.000000e+00 4.044158e-01 5.955842e-01 0.000000e+00
 0.000000e+00 0.000000e+00 0.000000e+00 5.084791e-01 4.915209e-01
 0.000000e+00 0.000000e+00 0.000000e+00 0.000000e+00 0.000000e+00
~t "T_m"
<TRANSP> 5
 0.000000e+00 1.000000e+00 0.000000e+00 0.000000e+00 0.000000e+00
 0.000000e+00 5.737399e-01 4.262601e-01 0.000000e+00 0.000000e+00
 0.000000e+00 0.000000e+00 6.908038e-01 3.091963e-01 0.000000e+00
 0.000000e+00 0.000000e+00 0.000000e+00 4.605378e-01 5.394622e-01
 0.000000e+00 0.000000e+00 0.000000e+00 0.000000e+00 0.000000e+00
~t "T_n"
<TRANSP> 5
 0.000000e+00 1.000000e+00 0.000000e+00 0.000000e+00 0.000000e+00
 0.000000e+00 4.755317e-01 5.244683e-01 0.000000e+00 0.000000e+00
 0.000000e+00 0.000000e+00 3.695239e-01 6.304761e-01 0.000000e+00
 0.000000e+00 0.000000e+00 0.000000e+00 6.817065e-01 3.182935e-01
 0.000000e+00 0.000000e+00 0.000000e+00 0.000000e+00 0.000000e+00
~t "T_o"
<TRANSP> 5
 0.000000e+00 1.000000e+00 0.000000e+00 0.000000e+00 0.000000e+00
 0.000000e+00 5.686583e-01 4.313417e-01 0.000000e+00 0.000000e+00
 0.000000e+00 0.000000e+00 6.736301e-01 3.263699e-01 0.000000e+00
 0.000000e+00 0.000000e+00 0.000000e+00 6.645389e-01 3.354611e-01
 0.000000e+00 0.000000e+00 0.000000e+00 0.000000e+00 0.000000e+00
~t "T_p"
<TRANSP> 5
 0.000000e+00 1.000000e+00 0.000000e+00 0.000000e+00 0.000000e+00
 0.000000e+00 7.668359e-01 2.331641e-01 0.000000e+00 0.000000e+00
 0.000000e+00 0.000000e+00 4.194445e-01 5.805555e-01 0.000000e+00
 0.000000e+00 0.000000e+00 0.000000e+00 2.843685e-01 7.156315e-01
 0.000000e+00 0.000000e+00 0.000000e+00 0.000000e+00 0.000000e+00
~t "T_r"
<TRANSP> 5
 0.000000e+00 1.000000e+00 0.000000e+00 0.000000e+00 0.000000e+00
 0.000000e+00 3.861889e-01 6.138111e-01 0.000000e+00 0.000000e+00
 0.000000e+00 0.000000e+00 2.931627e-01 7.068374e-01 0.000000e+00
 0.000000e+00 0.000000e+00 0.000000e+00 4.787138e-01 5.212862e-01
 0.000000e+00 0.000000e+00 0.000000e+00 0.000000e+00 0.000000e+00
~t "T_s"
<TRANSP> 5
 0.000000e+00 1.000000e+00 0.000000e+00 0.000000e+00 0.000000e+00
 0.000000e+00 6.680030e-01 3.319970e-01 0.000000e+00 0.000000e+00
 0.000000e+00 0.000000e+00 7.192664e-01 2.807336e-01 0.000000e+00
 0.000000e+00 0.000000e+00 0.000000e+00 6.015298e-01 3.984702e-01
 0.000000e+00 0.000000e+00 0.000000e+00 0.000000e+00 0.000000e+00
~t "T_t"
<TRANSP> 5
 0.000000e+00 1.000000e+00 0.000000e+00 0.000000e+00 0.000000e+00
 0.000000e+00 7.565950e-01 2.434050e-01 0.000000e+00 0.000000e+00
 0.000000e+00 0.000000e+00 4.870823e-01 5.129177e-01 0.000000e+00
 0.000000e+00 0.000000e+00 0.000000e+00 3.700938e-01 6.299062e-01
 0.000000e+00 0.000000e+00 0.000000e+00 0.000000e+00 0.000000e+00
~t "T_u"
<TRANSP> 5
 0.000000e+00 1.000000e+00 0.000000e+00 0.000000e+00 0.000000e+00
 0.000000e+00 4.640791e-01 5.359209e-01 0.000000e+00 0.000000e+00
 0.000000e+00 0.000000e+00 5.592703e-01 4.407297e-01 0.000000e+00
 0.000000e+00 0.000000e+00 0.000000e+00 6.905125e-01 3.094875e-01
 0.000000e+00 0.000000e+00 0.000000e+00 0.000000e+00 0.000000e+00
~t "T_x"
<TRANSP> 5
 0.000000e+00 1.000000e+00 0.000000e+00 0.000000e+00 0.000000e+00
 0.000000e+00 5.990131e-01 4.009869e-01 0.000000e+00 0.000000e+00
 0.000000e+00 0.000000e+00 5.393361e-01 4.606639e-01 0.000000e+00
 0.000000e+00 0.000000e+00 0.000000e+00 6.428936e-01 3.571064e-01
 0.000000e+00 0.000000e+00 0.000000e+00 0.000000e+00 0.000000e+00
~t "T_ch"
<TRANSP> 5
 0.000000e+00 1.000000e+00 0.000000e+00 0.000000e+00 0.000000e+00
 0.000000e+00 8.472510e-01 1.527490e-01 0.000000e+00 0.000000e+00
 0.000000e+00 0.000000e+00 6.515355e-01 3.484645e-01 0.000000e+00
 0.000000e+00 0.000000e+00 0.000000e+00 5.610204e-01 4.389797e-01
 0.000000e+00 0.000000e+00 0.000000e+00 0.000000e+00 0.000000e+00
~t "T_ll"
<TRANSP> 5
 0.000000e+00 1.000000e+00 0.000000e+00 0.000000e+00 0.000000e+00
 0.000000e+00 8.179959e-01 1.820041e-01 0.000000e+00 0.000000e+00
 0.000000e+00 0.000000e+00 6.592519e-01 3.407481e-01 0.000000e+00
 0.000000e+00 0.000000e+00 0.000000e+00 4.968572e-01 5.031428e-01
 0.000000e+00 0.000000e+00 0.000000e+00 0.000000e+00 0.000000e+00
~t "T_ny"
<TRANSP> 5
 0.000000e+00 1.000000e+00 0.000000e+00 0.000000e+00 0.000000e+00
 0.000000e+00 6.646319e-01 3.353681e-01 0.000000e+00 0.000000e+00
 0.000000e+00 0.000000e+00 7.509221e-01 2.490779e-01 0.000000e+00
 0.000000e+00 0.000000e+00 0.000000e+00 7.467846e-01 2.532154e-01
 0.000000e+00 0.000000e+00 0.000000e+00 0.000000e+00 0.000000e+00
~t "T_rr"
<TRANSP> 5
 0.000000e+00 1.000000e+00 0.000000e+00 0.000000e+00 0.000000e+00
 0.000000e+00 7.080890e-01 2.919110e-01 0.000000e+00 0.000000e+00
 0.000000e+00 0.000000e+00 5.558556e-01 4.441444e-01 0.000000e+00
 0.000000e+00 0.000000e+00 0.000000e+00 6.257657e-01 3.742343e-01
 0.000000e+00 0.000000e+00 0.000000e+00 0.000000e+00 0.000000e+00
~t "T_th"
<TRANSP> 5
 0.000000e+00 1.000000e+00 0.000000e+00 0.000000e+00 0.000000e+00
 0.000000e+00 7.628480e-01 2.371520e-01 0.000000e+00 0.000000e+00
 0.000000e+00 0.000000e+00 8.195905e-01 1.804095e-01 0.000000e+00
 0.000000e+00 0.000000e+00 0.000000e+00 6.832778e-01 3.167222e-01
 0.000000e+00 0.000000e+00 0.000000e+00 0.000000e+00 0.000000e+00
~s "silst"
<MEAN> 25
 -5.792054e+00 2.717204e+00 -1.814743e+00 1.904313e+00 -7.755268e-01 4.340661e+00 2.240840e+00 2.727926e+00 2.411520e+00 2.252077e+00 1.542273e+00 1.296264e+00 -8.366424e-02 -2.919897e-02 -2.070078e-02 4.290173e-02 4.501322e-02 3.132425e-02 2.468282e-02 2.983938e-02 5.519351e-02 1.677348e-02 1.455472e-02 -4.869996e-03 -5.355975e-02
<VARIANCE> 25
 4.136883e+01 3.970055e+01 4.741891e+01 4.374731e+01 3.423976e+01 3.179157e+01 2.914391e+01 3.055142e+01 2.693785e+01 2.231574e+01 2.102162e+01 1.813693e+01 5.707884e-01 1.171163e+00 1.077260e+00 1.212272e+00 1.179819e+00 1.285337e+00 1.365370e+00 1.341894e+00 1.334365e+00 1.240572e+00 1.126475e+00 1.019316e+00 9.500704e-01
<GCONST> 8.859195e+01
~h "a"
<BEGINHMM>
<NUMSTATES> 5
<STATE> 2
<MEAN> 25
 8.084209e+00 -3.246555e+00 -4.886938e+00 -2.890126e+00 -1.922659e+00 -4.591505e+00 -1.062124e+00 -1.533606e+00 -3.011539e+00 -1.419097e+00 7.822737e-01 1.974153e+00 8.531939e-01 -1.219489e+00 -1.591901e+00 -1.511451e+00 -1.099942e+00 -1.081241e+00 3.296968e-01 2.435892e-01 2.131322e-01 7.433307e-01 1.096173e+00 1.076555e+00 1.531909e+00
<VARIANCE> 25
 3.102556e+01 3.982352e+01 4.648204e+01 6.052976e+01 4.865224e+01 5.364120e+01 4.957391e+01 5.206113e+01 4.994263e+01 4.377484e+01 3.566540e+01 3.010361e+01 2.105191e+00 2.133569e+00 2.607650e+00 3.361774e+00 2.917656e+00 3.954443e+00 3.398865e+00 3.319243e+00 3.668817e+00 4.076825e+00 3.093344e+00 2.673295e+00 1.675560e+00
<GCONST> 1.052759e+02
<STATE> 3
<MEAN> 25
 9.462610e+00 -6.897775e+00 -8.743549e+00 -6.083593e+00 -4.604442e+00 -5.470979e+00 1.397076e+00 -2.830499e-01 -1.629562e+00 7.007640e-01 2.659651e+00 3.340820e+00 3.290816e-02 -1.735238e-01 -3.625012e-01 -3.627358e-01 -1.769637e-01 2.254089e-01 4.766614e-01 2.827543e-01 2.371980e-01 1.767752e-01 8.445666e-02 6.974697e-02 8.193482e-02
<VARIANCE> 25
 2.840129e+01 3.570125e+01 4.138834e+01 4.038225e+01 4.118876e+01 4.148624e+01 4.739182e+01 4.747406e+01 4.473821e+01 4.189992e+01 3.449903e+01 2.805832e+01 3.302394e-01 8.424883e-01 9.393210e-01 1.242460e+00 1.324397e+00 1.496400e+00 1.901740e+00 1.780651e+00 1.803969e+00 1.726919e+00 1.430944e+00 1.179275e+00 3.783611e-01
<GCONST> 9.133002e+01
<STATE> 4
<MEAN> 25
 8.177530e+00 -2.680661e+00 -7.293503e+00 -5.932261e+00 -3.758124e+00 -2.794274e+00 1.176165e+00 -3.390664e-01 -1.368642e+00 2.573896e-01 2.133668e+00 3.287408e+00 -4.538044e-01 8.704351e-01 7.276899e-01 4.679444e-01 4.150407e-01 5.706517e-01 -1.937626e-01 -1.382255e-01 1.753797e-02 -1.629017e-01 -2.942949e-01 -3.140077e-01 -8.826797e-01
<VARIANCE> 25
 2.215926e+01 3.099335e+01 3.486272e+01 3.668752e+01 3.283007e+01 3.965223e+01 3.500597e+01 3.826480e+01 3.512437e+01 3.170736e+01 2.563973e+01 2.200531e+01 5.861269e-01 9.910762e-01 1.080531e+00 1.252255e+00 1.395680e+00 1.835312e+00 1.787168e+00 1.826652e+00 1.993582e+00 1.853269e+00 1.609923e+00 1.318195e+00 6.483233e-01
<GCONST> 9.086413e+01
<TRANSP> 5
 0.000000e+00 1.000000e+00 0.000000e+00 0.000000e+00 0.000000e+00
 0.000000e+00 5.654270e-01 4.345730e-01 0.000000e+00 0.000000e+00
 0.000000e+00 0.000000e+00 6.514649e-01 3.485351e-01 0.000000e+00
 0.000000e+00 0.000000e+00 0.000000e+00 6.848469e-01 3.151531e-01
 0.000000e+00 0.000000e+00 0.000000e+00 0.000000e+00 0.000000e+00
<ENDHMM>
~h "e"
<BEGINHMM>
<NUMSTATES> 5
<STATE> 2
<MEAN> 25
 4.917822e+00 -3.046909e+00 -7.860230e-01 1.961976e+00 3.296882e+00 -3.095960e+00 -4.445966e+00 -4.378197e+00 -4.194638e+00 -1.446952e+00 1.146220e-01 1.648807e-01 1.062938e+00 -1.285595e+00 -6.981800e-01 4.423747e-01 5.001229e-01 -1.895295e+00 -1.787762e+00 -1.308817e+00 -1.084860e+00 1.344622e-01 6.617222e-01 3.701210e-01 1.670173e+00
<VARIANCE> 25
 3.577217e+01 3.706077e+01 4.774310e+01 6.015227e+01 4.925949e+01 6.036604e+01 5.010396e+01 4.977269e+01 4.858726e+01 3.950971e+01 3.013842e+01 2.473536e+01 2.384392e+00 2.958043e+00 2.685448e+00 3.858023e+00 3.340221e+00 5.064232e+00 4.063103e+00 3.681123e+00 4.037725e+00 4.174648e+00 3.332788e+00 2.898063e+00 2.226966e+00
<GCONST> 1.068105e+02
<STATE> 3
<MEAN> 25
 7.191195e+00 -7.001473e+00 -2.328277e+00 2.836691e+00 3.888689e+00 -7.911126e+00 -8.482172e+00 -6.657192e+00 -5.470276e+00 -1.285404e-01 1.987994e+00 7.147580e-01 8.514885e-02 -4.249433e-01 -1.496204e-01 2.818093e-01 1.203487e-01 -6.073316e-01 -4.420330e-01 -1.406531e-01 1.603031e-01 5.093133e-01 3.347531e-01 -4.041983e-02 2.952766e-01
<VARIANCE> 25
 2.837927e+01 3.550758e+01 4.376701e+01 6.339727e+01 5.782299e+01 6.153004e+01 4.445435e+01 4.665985e+01 4.438187e+01 4.603452e+01 3.686113e+01 3.249733e+01 5.579238e-01 9.633060e-01 1.396090e+00 1.826277e+00 1.583154e+00 2.003756e+00 1.982185e+00 1.856537e+00 2.013892e+00 2.006657e+00 1.751121e+00 1.508502e+00 5.828047e-01
<GCONST> 9.591582e+01
<STATE> 4
<MEAN> 25
 5.895019e+00 -4.724988e+00 -1.197292e+00 3.906052e+00 3.870449e+00 -6.545651e+00 -8.215060e+00 -6.679025e+00 -4.172563e+00 5.337154e-01 9.279272e-01 -6.742178e-01 -3.232698e-01 7.992764e-01 3.300467e-01 -6.339286e-02 7.912491e-02 1.004552e+00 6.088396e-01 3.772415e-01 3.436322e-01 -1.313366e-01 -2.720630e-01 -1.298955e-01 -7.956876e-01
<VARIANCE> 25
 2.029749e+01 3.066547e+01 3.368494e+01 5.057070e+01 4.296806e+01 5.593891e+01 3.659196e+01 3.710094e+01 4.034227e+01 3.575679e+01 3.262199e+01 2.925796e+01 5.569103e-01 1.011105e+00 1.171097e+00 1.448238e+00 1.440968e+00 2.011663e+00 1.814593e+00 1.739066e+00 1.905525e+00 1.867028e+00 1.539982e+00 1.274082e+00 7.538318e-01
<GCONST> 9.278246e+01
<TRANSP> 5
 0.000000e+00 1.000000e+00 0.000000e+00 0.000000e+00 0.000000e+00
 0.000000e+00 5.076675e-01 4.923325e-01 0.000000e+00 0.000000e+00
 0.000000e+00 0.000000e+00 5.177515e-01 4.822485e-01 0.000000e+00
 0.000000e+00 0.000000e+00 0.000000e+00 6.811770e-01 3.188230e-01
 0.000000e+00 0.000000e+00 0.000000e+00 0.000000e+00 0.000000e+00
<ENDHMM>
~h "i"
<BEGINHMM>
<NUMSTATES> 5
<STATE> 2
<MEAN> 25
 2.824880e+00 -2.961581e+00 4.292364e+00 7.499251e+00 7.346193e+00 -2.067250e+00 -5.297520e+00 -2.873806e+00 -2.378581e+00 -1.973293e+00 -2.520489e+00 -3.736685e+00 1.015099e+00 -9.724852e-01 2.479329e-01 2.179622e+00 1.426837e+00 -2.128228e+00 -2.309814e+00 -3.848035e-01 -7.270547e-01 -7.560874e-01 -6.794949e-01 -8.365397e-01 1.175898e+00
<VARIANCE> 25
 3.374600e+01 3.967356e+01 6.750194e+01 6.375350e+01 5.781096e+01 6.437442e+01 4.980933e+01 4.415491e+01 4.445846e+01 3.540117e+01 3.356274e+01 2.704606e+01 3.132528e+00 4.137255e+00 3.621446e+00 4.487921e+00 4.215056e+00 5.312013e+00 4.005538e+00 3.824685e+00 4.409300e+00 4.209664e+00 3.923692e+00 2.984154e+00 1.617640e+00
<GCONST> 1.086541e+02
<STATE> 3
<MEAN> 25
 3.691633e+00 -6.378765e+00 6.166086e+00 1.236009e+01 7.380941e+00 -9.047977e+00 -9.580333e+00 -1.629763e+00 -3.102339e+00 -4.599288e+00 -4.548250e+00 -5.048493e+00 8.359629e-02 -2.991736e-01 1.296623e-01 4.305927e-01 9.667514e-03 -8.290642e-01 -5.818837e-01 1.603395e-01 8.957740e-02 -1.876646e-01 -1.591199e-01 -1.092843e-01 2.681427e-01
<VARIANCE> 25
 2.149308e+01 3.103732e+01 4.970968e+01 5.873264e+01 7.158559e+01 6.920425e+01 3.966159e+01 4.495304e+01 4.204121e+01 4.275245e+01 4.102441e+01 2.954641e+01 6.639252e-01 9.264812e-01 1.883231e+00 1.858640e+00 1.558079e+00 2.146437e+00 1.929194e+00 2.097977e+00 1.840118e+00 1.884095e+00 1.595546e+00 1.333590e+00 5.259222e-01
<GCONST> 9.574519e+01
<STATE> 4
<MEAN> 25
 4.036044e+00 -4.218312e+00 4.209880e+00 1.037407e+01 7.996428e+00 -6.247262e+00 -9.419474e+00 -3.331409e+00 -2.663913e+00 -2.918104e+00 -3.142705e+00 -4.376024e+00 3.821991e-02 8.336469e-01 -6.000085e-01 -1.181883e+00 -5.675405e-01 1.117856e+00 8.718380e-01 -2.187419e-01 -3.897155e-02 3.511441e-01 4.869802e-01 5.886047e-01 -5.325214e-01
<VARIANCE> 25
 1.972391e+01 3.227742e+01 4.309776e+01 5.167957e+01 5.495691e+01 6.691110e+01 3.850472e+01 4.351723e+01 4.154246e+01 3.556070e+01 3.517086e+01 2.803684e+01 6.999541e-01 1.390189e+00 1.663853e+00 1.824908e+00 1.964548e+00 2.784639e+00 2.501812e+00 2.236512e+00 2.341234e+00 2.148965e+00 1.947036e+00 1.699689e+00 1.056007e+00
<GCONST> 9.730878e+01
<TRANSP> 5
 0.000000e+00 1.000000e+00 0.000000e+00 0.000000e+00 0.000000e+00
 0.000000e+00 5.170451e-01 4.829549e-01 0.000000e+00 0.000000e+00
 0.000000e+00 0.000000e+00 6.309459e-01 3.690541e-01 0.000000e+00
 0.000000e+00 0.000000e+00 0.000000e+00 6.682795e-01 3.317205e-01
 0.000000e+00 0.000000e+00 0.000000e+00 0.000000e+00 0.000000e+00
<ENDHMM>
~h "o"
<BEGINHMM>
<NUMSTATES> 5
<STATE> 2
<MEAN> 25
 8.202134e+00 8.756948e-01 -1.556870e+00 -2.412576e+00 -4.135490e+00 -5.283045e+00 -1.325630e+00 5.514442e-01 -3.256593e+00 -4.464030e+00 -3.179199e+00 -1.018459e+00 8.533680e-01 5.628624e-02 -4.272498e-01 -1.163086e+00 -1.742013e+00 -1.833407e+00 -1.006363e-01 8.327968e-01 2.565329e-01 -1.784475e-01 -2.551433e-01 1.000556e-01 7.841955e-01
<VARIANCE> 25
 2.727819e+01 4.614404e+01 4.546624e+01 5.624189e+01 6.257309e+01 6.102062e+01 4.518742e+01 4.939813e+01 5.469617e+01 4.219932e+01 3.056493e+01 2.847985e+01 1.604221e+00 2.714622e+00 2.414845e+00 3.306103e+00 3.399673e+00 4.293542e+00 4.410888e+00 3.910635e+00 3.812121e+00 3.509329e+00 2.851977e+00 2.694980e+00 1.552250e+00
<GCONST> 1.055529e+02
<STATE> 3
<MEAN> 25
 9.608891e+00 1.841884e+00 -1.624231e+00 -4.843653e+00 -1.056682e+01 -1.047259e+01 -3.275502e-01 4.228262e+00 -8.981493e-01 -3.707518e+00 -3.771726e+00 -1.847208e+00 -1.603226e-01 3.746803e-01 2.492852e-02 -5.283350e-02 -1.316152e-01 2.060792e-01 2.320018e-01 3.473101e-01 4.636069e-01 2.421327e-01 -1.011645e-03 -9.001540e-02 -4.208844e-01
<VARIANCE> 25
 2.191664e+01 3.832346e+01 3.536129e+01 4.552036e+01 5.146196e+01 5.402416e+01 4.532333e+01 4.316967e+01 5.194213e+01 3.791486e+01 2.724122e+01 2.477335e+01 5.759985e-01 1.296905e+00 1.329783e+00 1.436117e+00 2.015944e+00 2.854960e+00 1.984985e+00 2.227589e+00 2.343580e+00 2.045362e+00 1.638120e+00 1.449960e+00 1.066268e+00
<GCONST> 9.576168e+01
<STATE> 4
<MEAN> 25
 5.920141e+00 4.729104e+00 -6.619071e-01 -3.592440e+00 -6.668617e+00 -4.437122e+00 3.776827e-01 3.175261e+00 9.050462e-01 -1.454790e+00 -2.326509e+00 -1.249121e+00 -6.257654e-01 -3.906129e-02 1.678127e-01 4.218079e-01 7.039407e-01 9.980335e-01 2.885799e-01 -2.038472e-01 -1.773957e-02 1.877047e-01 2.155907e-01 8.154663e-02 -5.345345e-01
<VARIANCE> 25
 2.381943e+01 3.168683e+01 3.073319e+01 3.372535e+01 3.205265e+01 4.222814e+01 3.201194e+01 3.300840e+01 3.498757e+01 3.150789e+01 2.243595e+01 1.901501e+01 4.852379e-01 7.335701e-01 1.011674e+00 1.084659e+00 1.496157e+00 1.967000e+00 1.648281e+00 1.688958e+00 1.686677e+00 1.518985e+00 1.305284e+00 1.193857e+00 3.831035e-01
<GCONST> 8.833953e+01
<TRANSP> 5
 0.000000e+00 1.000000e+00 0.000000e+00 0.000000e+00 0.000000e+00
 0.000000e+00 5.686583e-01 4.313417e-01 0.000000e+00 0.000000e+00
 0.000000e+00 0.000000e+00 6.736301e-01 3.263699e-01 0.000000e+00
 0.000000e+00 0.000000e+00 0.000000e+00 6.645389e-01 3.354611e-01
 0.000000e+00 0.000000e+00 0.000000e+00 0.000000e+00 0.000000e+00
<ENDHMM>
~h "u"
<BEGINHMM>
<NUMSTATES> 5
<STATE> 2
<MEAN> 25
 5.841117e+00 4.888117e+00 2.686566e+00 -7.820466e-01 -3.509169e+00 -4.456264e+00 -1.667651e+00 1.072235e+00 -1.711213e+00 -3.398537e+00 -2.842877e+00 -2.182095e+00 1.576147e+00 1.045471e+00 4.197832e-01 -3.047917e-01 -1.355020e+00 -2.229248e+00 -1.097899e+00 2.456878e-01 -2.158980e-01 -6.960759e-01 -8.961666e-01 -8.212398e-01 8.114035e-01
<VARIANCE> 25
 3.111406e+01 4.019774e+01 4.504975e+01 4.146431e+01 4.849731e+01 5.661042e+01 4.281160e+01 4.095763e+01 5.025994e+01 4.244762e+01 3.143690e+01 2.546618e+01 2.317891e+00 3.149550e+00 3.087908e+00 3.151040e+00 3.396149e+00 4.573932e+00 4.195843e+00 4.035922e+00 4.034451e+00 3.409064e+00 3.195040e+00 2.762604e+00 1.784756e+00
<GCONST> 1.055627e+02
<STATE> 3
<MEAN> 25
 8.658910e+00 5.000401e+00 2.954348e+00 -2.671335e+00 -7.457289e+00 -1.043769e+01 -3.682248e+00 2.342003e+00 -1.993913e+00 -4.053403e+00 -3.655970e+00 -3.858294e+00 3.619523e-01 -4.174033e-01 -5.004941e-01 -5.413764e-01 -3.661138e-01 -3.691237e-01 1.985084e-01 6.194838e-01 2.091379e-01 -3.094780e-01 -4.365371e-01 -2.890210e-01 4.863066e-01
<VARIANCE> 25
 1.982055e+01 3.754977e+01 4.485072e+01 4.602500e+01 4.835411e+01 5.230594e+01 4.533890e+01 4.689768e+01 6.356376e+01 4.307386e+01 3.556441e+01 3.444476e+01 5.694164e-01 2.171613e+00 2.316406e+00 1.907328e+00 2.369149e+00 3.386717e+00 2.927253e+00 3.053224e+00 2.962884e+00 2.837181e+00 2.662840e+00 2.209183e+00 9.819031e-01
<GCONST> 1.005687e+02
<STATE> 4
<MEAN> 25
 7.936549e+00 5.316041e+00 2.239468e+00 -2.040418e+00 -5.537446e+00 -6.998611e+00 -2.096663e+00 2.982105e+00 -1.124920e+00 -4.924550e+00 -4.786534e+00 -3.909861e+00 -1.936503e-01 -3.466140e-01 -3.004697e-01 2.804921e-01 7.471921e-01 1.043675e+00 4.173047e-01 -2.147343e-01 -1.894316e-01 -7.248510e-02 1.116081e-02 1.502710e-01 -1.055882e-01
<VARIANCE> 25
 1.968233e+01 3.080829e+01 3.984565e+01 3.763365e+01 3.553752e+01 4.067476e+01 4.069976e+01 3.915368e+01 5.144368e+01 3.819278e+01 3.066512e+01 2.631176e+01 3.753779e-01 1.220878e+00 1.362571e+00 1.493957e+00 2.004738e+00 2.727168e+00 2.026844e+00 2.105258e+00 2.403310e+00 2.200738e+00 1.975419e+00 1.823615e+00 5.097307e-01
<GCONST> 9.394715e+01
<TRANSP> 5
 0.000000e+00 1.000000e+00 0.000000e+00 0.000000e+00 0.000000e+00
 0.000000e+00 4.640791e-01 5.359209e-01 0.000000e+00 0.000000e+00
 0.000000e+00 0.000000e+00 5.592703e-01 4.407297e-01 0.000000e+00
 0.000000e+00 0.000000e+00 0.000000e+00 6.905125e-01 3.094875e-01
 0.000000e+00 0.000000e+00 0.000000e+00 0.000000e+00 0.000000e+00
<ENDHMM>
~h "u-r+a"
<BEGINHMM>
<NUMSTATES> 5
<STATE> 2
<MEAN> 25
 8.643217e+00 -2.787229e+00 -6.224000e+00 -3.124852e+00 1.355937e+00 -3.755785e+00 -4.512966e+00 -3.933424e+00 -2.882520e+00 -2.216112e+00 -7.354643e-01 1.580987e+00 1.561792e-01 8.974332e-01 -3.782570e-01 5.168830e-01 1.252811e+00 1.208448e+00 -3.267309e-01 -2.546778e-01 -2.021774e-01 -5.815746e-01 -5.138835e-01 -2.330100e-02 -1.076871e+00
<VARIANCE> 25
 3.211975e+01 4.498290e+01 5.062462e+01 5.935705e+01 5.828969e+01 5.106108e+01 4.451467e+01 4.801496e+01 4.760433e+01 4.023750e+01 3.850442e+01 3.225385e+01 1.654517e+00 2.112823e+00 2.382579e+00 2.979533e+00 3.407424e+00 4.447104e+00 3.988335e+00 3.638894e+00 3.461148e+00 2.960581e+00 2.838124e+00 2.399935e+00 1.986631e+00
<GCONST> 1.051154e+02
<STATE> 3
<MEAN> 25
 7.898341e+00 6.769122e-01 -5.980435e+00 -1.402799e+00 3.525082e+00 4.491480e-01 -3.918551e+00 -3.587373e+00 -2.649347e+00 -2.842372e+00 -1.689278e+00 1.021962e+00 -7.756338e-01 7.563383e-01 5.502752e-01 8.270113e-01 2.798240e-01 1.325491e+00 7.032835e-01 3.596233e-01 3.082208e-01 -5.154090e-03 -2.048264e-01 -3.199293e-01 -1.361292e+00
<VARIANCE> 25
 2.876068e+01 3.251756e+01 4.847742e+01 5.875251e+01 4.849226e+01 4.357820e+01 4.282160e+01 3.805943e+01 3.575104e+01 3.216047e+01 2.785275e+01 2.531534e+01 1.549412e+00 2.112714e+00 2.763809e+00 3.039823e+00 3.358799e+00 3.590118e+00 3.448425e+00 3.136224e+00 3.408474e+00 2.967985e+00 2.623605e+00 2.237263e+00 1.636310e+00
<GCONST> 1.021613e+02
<STATE> 4
<MEAN> 25
 5.412677e+00 1.833103e+00 -4.028427e+00 -5.085419e-01 2.267809e+00 2.085018e+00 -1.665371e+00 -2.343382e+00 -1.808912e+00 -2.284674e+00 -1.413052e+00 3.313459e-01 -4.867756e-01 -6.988044e-02 4.821670e-01 3.639740e-01 -2.038538e-01 -1.353530e-01 2.935330e-01 3.202356e-01 4.707072e-02 1.700878e-01 1.382703e-01 -1.182176e-01 -2.790100e-01
<VARIANCE> 25
 2.738630e+01 3.117259e+01 4.332304e+01 4.824800e+01 3.927319e+01 3.631243e+01 3.395251e+01 3.381007e+01 3.105561e+01 2.732073e+01 2.547030e+01 2.190276e+01 1.094292e+00 1.505075e+00 2.021805e+00 2.286807e+00 2.216540e+00 2.356158e+00 2.429886e+00 2.174607e+00 2.300617e+00 2.008530e+00 1.813168e+00 1.681972e+00 1.042680e+00
<GCONST> 9.575272e+01
~t "T_r"
<ENDHMM>
~h "u-r+b"
<BEGINHMM>
<NUMSTATES> 5
<STATE> 2
<MEAN> 25
 8.643217e+00 -2.787229e+00 -6.224000e+00 -3.124852e+00 1.355937e+00 -3.755785e+00 -4.512966e+00 -3.933424e+00 -2.882520e+00 -2.216112e+00 -7.354643e-01 1.580987e+00 1.561792e-01 8.974332e-01 -3.782570e-01 5.168830e-01 1.252811e+00 1.208448e+00 -3.267309e-01 -2.546778e-01 -2.021774e-01 -5.815746e-01 -5.138835e-01 -2.330100e-02 -1.076871e+00
<VARIANCE> 25
 3.211975e+01 4.498290e+01 5.062462e+01 5.935705e+01 5.828969e+01 5.106108e+01 4.451467e+01 4.801496e+01 4.760433e+01 4.023750e+01 3.850442e+01 3.225385e+01 1.654517e+00 2.112823e+00 2.382579e+00 2.979533e+00 3.407424e+00 4.447104e+00 3.988335e+00 3.638894e+00 3.461148e+00 2.960581e+00 2.838124e+00 2.399935e+00 1.986631e+00
<GCONST> 1.051154e+02
<STATE> 3
<MEAN> 25
 7.898341e+00 6.769122e-01 -5.980435e+00 -1.402799e+00 3.525082e+00 4.491480e-01 -3.918551e+00 -3.587373e+00 -2.649347e+00 -2.842372e+00 -1.689278e+00 1.021962e+00 -7.756338e-01 7.563383e-01 5.502752e-01 8.270113e-01 2.798240e-01 1.325491e+00 7.032835e-01 3.596233e-01 3.082208e-01 -5.154090e-03 -2.048264e-01 -3.199293e-01 -1.361292e+00
<VARIANCE> 25
 2.876068e+01 3.251756e+01 4.847742e+01 5.875251e+01 4.849226e+01 4.357820e+01 4.282160e+01 3.805943e+01 3.575104e+01 3.216047e+01 2.785275e+01 2.531534e+01 1.549412e+00 2.112714e+00 2.763809e+00 3.039823e+00 3.358799e+00 3.590118e+00 3.448425e+00 3.136224e+00 3.408474e+00 2.967985e+00 2.623605e+00 2.237263e+00 1.636310e+00
<GCONST> 1.021613e+02
<STATE> 4
<MEAN> 25
 5.412677e+00 1.833103e+00 -4.028427e+00 -5.085419e-01 2.267809e+00 2.085018e+00 -1.665371e+00 -2.343382e+00 -1.808912e+00 -2.284674e+00 -1.413052e+00 3.313459e-01 -4.867756e-01 -6.988044e-02 4.821670e-01 3.639740e-01 -2.038538e-01 -1.353530e-01 2.935330e-01 3.202356e-01 4.707072e-02 1.700878e-01 1.382703e-01 -1.182176e-01 -2.790100e-01
<VARIANCE> 25
 2.738630e+01 3.117259e+01 4.332304e+01 4.824800e+01 3.927319e+01 3.631243e+01 3.395251e+01 3.381007e+01 3.105561e+01 2.732073e+01 2.547030e+01 2.190276e+01 1.094292e+00 1.505075e+00 2.021805e+00 2.286807e+00 2.216540e+00 2.356158e+00 2.429886e+00 2.174607e+00 2.300617e+00 2.008530e+00 1.813168e+00 1.681972e+00 1.042680e+00
<GCONST> 9.575272e+01
~t "T_r"
<ENDHMM>
~h "u-r+i"
<BEGINHMM>
<NUMSTATES> 5
<STATE> 2
<MEAN> 25
 8.643217e+00 -2.787229e+00 -6.224000e+00 -3.124852e+00 1.355937e+00 -3.755785e+00 -4.512966e+00 -3.933424e+00 -2.882520e+00 -2.216112e+00 -7.354643e-01 1.580987e+00 1.561792e-01 8.974332e-01 -3.782570e-01 5.168830e-01 1.252811e+00 1.208448e+00 -3.267309e-01 -2.546778e-01 -2.021774e-01 -5.815746e-01 -5.138835e-01 -2.330100e-02 -1.076871e+00
<VARIANCE> 25
 3.211975e+01 4.498290e+01 5.062462e+01 5.935705e+01 5.828969e+01 5.106108e+01 4.451467e+01 4.801496e+01 4.760433e+01 4.023750e+01 3.850442e+01 3.225385e+01 1.654517e+00 2.112823e+00 2.382579e+00 2.979533e+00 3.407424e+00 4.447104e+00 3.988335e+00 3.638894e+00 3.461148e+00 2.960581e+00 2.838124e+00 2.399935e+00 1.986631e+00
<GCONST> 1.051154e+02
<STATE> 3
<MEAN> 25
 7.898341e+00 6.769122e-01 -5.980435e+00 -1.402799e+00 3.525082e+00 4.491480e-01 -3.918551e+00 -3.587373e+00 -2.649347e+00 -2.842372e+00 -1.689278e+00 1.021962e+00 -7.756338e-01 7.563383e-01 5.502752e-01 8.270113e-01 2.798240e-01 1.325491e+00 7.032835e-01 3.596233e-01 3.082208e-01 -5.154090e-03 -2.048264e-01 -3.199293e-01 -1.361292e+00
<VARIANCE> 25
 2.876068e+01 3.251756e+01 4.847742e+01 5.875251e+01 4.849226e+01 4.357820e+01 4.282160e+01 3.805943e+01 3.575104e+01 3.216047e+01 2.785275e+01 2.531534e+01 1.549412e+00 2.112714e+00 2.763809e+00 3.039823e+00 3.358799e+00 3.590118e+00 3.448425e+00 3.136224e+00 3.408474e+00 2.967985e+00 2.623605e+00 2.237263e+00 1.636310e+00
<GCONST> 1.021613e+02
<STATE> 4
<MEAN> 25
 5.412677e+00 1.833103e+00 -4.028427e+00 -5.085419e-01 2.267809e+00 2.085018e+00 -1.665371e+00 -2.343382e+00 -1.808912e+00 -2.284674e+00 -1.413052e+00 3.313459e-01 -4.867756e-01 -6.988044e-02 4.821670e-01 3.639740e-01 -2.038538e-01 -1.353530e-01 2.935330e-01 3.202356e-01 4.707072e-02 1.700878e-01 1.382703e-01 -1.182176e-01 -2.790100e-01
<VARIANCE> 25
 2.738630e+01 3.117259e+01 4.332304e+01 4.824800e+01 3.927319e+01 3.631243e+01 3.395251e+01 3.381007e+01 3.105561e+01 2.732073e+01 2.547030e+01 2.190276e+01 1.094292e+00 1.505075e+00 2.021805e+00 2.286807e+00 2.216540e+00 2.356158e+00 2.429886e+00 2.174607e+00 2.300617e+00 2.008530e+00 1.813168e+00 1.681972e+00 1.042680e+00
<GCONST> 9.575272e+01
~t "T_r"
<ENDHMM>
~h "u-r+m"
<BEGINHMM>
<NUMSTATES> 5
<STATE> 2
<MEAN> 25
 8.643217e+00 -2.787229e+00 -6.224000e+00 -3.124852e+00 1.355937e+00 -3.755785e+00 -4.512966e+00 -3.933424e+00 -2.882520e+00 -2.216112e+00 -7.354643e-01 1.580987e+00 1.561792e-01 8.974332e-01 -3.782570e-01 5.168830e-01 1.252811e+00 1.208448e+00 -3.267309e-01 -2.546778e-01 -2.021774e-01 -5.815746e-01 -5.138835e-01 -2.330100e-02 -1.076871e+00
<VARIANCE> 25
 3.211975e+01 4.498290e+01 5.062462e+01 5.935705e+01 5.828969e+01 5.106108e+01 4.451467e+01 4.801496e+01 4.760433e+01 4.023750e+01 3.850442e+01 3.225385e+01 1.654517e+00 2.112823e+00 2.382579e+00 2.979533e+00 3.407424e+00 4.447104e+00 3.988335e+00 3.638894e+00 3.461148e+00 2.960581e+00 2.838124e+00 2.399935e+00 1.986631e+00
<GCONST> 1.051154e+02
<STATE> 3
<MEAN> 25
 7.898341e+00 6.769122e-01 -5.980435e+00 -1.402799e+00 3.525082e+00 4.491480e-01 -3.918551e+00 -3.587373e+00 -2.649347e+00 -2.842372e+00 -1.689278e+00 1.021962e+00 -7.756338e-01 7.563383e-01 5.502752e-01 8.270113e-01 2.798240e-01 1.325491e+00 7.032835e-01 3.596233e-01 3.082208e-01 -5.154090e-03 -2.048264e-01 -3.199293e-01 -1.361292e+00
<VARIANCE> 25
 2.876068e+01 3.251756e+01 4.847742e+01 5.875251e+01 4.849226e+01 4.357820e+01 4.282160e+01 3.805943e+01 3.575104e+01 3.216047e+01 2.785275e+01 2.531534e+01 1.549412e+00 2.112714e+00 2.763809e+00 3.039823e+00 3.358799e+00 3.590118e+00 3.448425e+00 3.136224e+00 3.408474e+00 2.967985e+00 2.623605e+00 2.237263e+00 1.636310e+00
<GCONST> 1.021613e+02
<STATE> 4
<MEAN> 25
 5.412677e+00 1.833103e+00 -4.028427e+00 -5.085419e-01 2.267809e+00 2.085018e+00 -1.665371e+00 -2.343382e+00 -1.808912e+00 -2.284674e+00 -1.413052e+00 3.313459e-01 -4.867756e-01 -6.988044e-02 4.821670e-01 3.639740e-01 -2.038538e-01 -1.353530e-01 2.935330e-01 3.202356e-01 4.707072e-02 1.700878e-01 1.382703e-01 -1.182176e-01 -2.790100e-01
<VARIANCE> 25
 2.738630e+01 3.117259e+01 4.332304e+01 4.824800e+01 3.927319e+01 3.631243e+01 3.395251e+01 3.381007e+01 3.105561e+01 2.732073e+01 2.547030e+01 2.190276e+01 1.094292e+00 1.505075e+00 2.021805e+00 2.286807e+00 2.216540e+00 2.356158e+00 2.429886e+00 2.174607e+00 2.300617e+00 2.008530e+00 1.813168e+00 1.681972e+00 1.042680e+00
<GCONST> 9.575272e+01
~t "T_r"
<ENDHMM>
~h "u-r+n"
<BEGINHMM>
<NUMSTATES> 5
<STATE> 2
<MEAN> 25
 8.643217e+00 -2.787229e+00 -6.224000e+00 -3.124852e+00 1.355937e+00 -3.755785e+00 -4.512966e+00 -3.933424e+00 -2.882520e+00 -2.216112e+00 -7.354643e-01 1.580987e+00 1.561792e-01 8.974332e-01 -3.782570e-01 5.168830e-01 1.252811e+00 1.208448e+00 -3.267309e-01 -2.546778e-01 -2.021774e-01 -5.815746e-01 -5.138835e-01 -2.330100e-02 -1.076871e+00
<VARIANCE> 25
 3.211975e+01 4.498290e+01 5.062462e+01 5.935705e+01 5.828969e+01 5.106108e+01 4.451467e+01 4.801496e+01 4.760433e+01 4.023750e+01 3.850442e+01 3.225385e+01 1.654517e+00 2.112823e+00 2.382579e+00 2.979533e+00 3.407424e+00 4.447104e+00 3.988335e+00 3.638894e+00 3.461148e+00 2.960581e+00 2.838124e+00 2.399935e+00 1.986631e+00
<GCONST> 1.051154e+02
<STATE> 3
<MEAN> 25
 7.898341e+00 6.769122e-01 -5.980435e+00 -1.402799e+00 3.525082e+00 4.491480e-01 -3.918551e+00 -3.587373e+00 -2.649347e+00 -2.842372e+00 -1.689278e+00 1.021962e+00 -7.756338e-01 7.563383e-01 5.502752e-01 8.270113e-01 2.798240e-01 1.325491e+00 7.032835e-01 3.596233e-01 3.082208e-01 -5.154090e-03 -2.048264e-01 -3.199293e-01 -1.361292e+00
<VARIANCE> 25
 2.876068e+01 3.251756e+01 4.847742e+01 5.875251e+01 4.849226e+01 4.357820e+01 4.282160e+01 3.805943e+01 3.575104e+01 3.216047e+01 2.785275e+01 2.531534e+01 1.549412e+00 2.112714e+00 2.763809e+00 3.039823e+00 3.358799e+00 3.590118e+00 3.448425e+00 3.136224e+00 3.408474e+00 2.967985e+00 2.623605e+00 2.237263e+00 1.636310e+00
<GCONST> 1.021613e+02
<STATE> 4
<MEAN> 25
 5.412677e+00 1.833103e+00 -4.028427e+00 -5.085419e-01 2.267809e+00 2.085018e+00 -1.665371e+00 -2.343382e+00 -1.808912e+00 -2.284674e+00 -1.413052e+00 3.313459e-01 -4.867756e-01 -6.988044e-02 4.821670e-01 3.639740e-01 -2.038538e-01 -1.353530e-01 2.935330e-01 3.202356e-01 4.707072e-02 1.700878e-01 1.382703e-01 -1.182176e-01 -2.790100e-01
<VARIANCE> 25
 2.738630e+01 3.117259e+01 4.332304e+01 4.824800e+01 3.927319e+01 3.631243e+01 3.395251e+01 3.381007e+01 3.105561e+01 2.732073e+01 2.547030e+01 2.190276e+01 1.094292e+00 1.505075e+00 2.021805e+00 2.286807e+00 2.216540e+00 2.356158e+00 2.429886e+00 2.174607e+00 2.300617e+00 2.008530e+00 1.813168e+00 1.681972e+00 1.042680e+00
<GCONST> 9.575272e+01
~t "T_r"
<ENDHMM>
~h "u-r+o"
<BEGINHMM>
<NUMSTATES> 5
<STATE> 2
<MEAN> 25
 8.643217e+00 -2.787229e+00 -6.224000e+00 -3.124852e+00 1.355937e+00 -3.755785e+00 -4.512966e+00 -3.933424e+00 -2.882520e+00 -2.216112e+00 -7.354643e-01 1.580987e+00 1.561792e-01 8.974332e-01 -3.782570e-01 5.168830e-01 1.252811e+00 1.208448e+00 -3.267309e-01 -2.546778e-01 -2.021774e-01 -5.815746e-01 -5.138835e-01 -2.330100e-02 -1.076871e+00
<VARIANCE> 25
 3.211975e+01 4.498290e+01 5.062462e+01 5.935705e+01 5.828969e+01 5.106108e+01 4.451467e+01 4.801496e+01 4.760433e+01 4.023750e+01 3.850442e+01 3.225385e+01 1.654517e+00 2.112823e+00 2.382579e+00 2.979533e+00 3.407424e+00 4.447104e+00 3.988335e+00 3.638894e+00 3.461148e+00 2.960581e+00 2.838124e+00 2.399935e+00 1.986631e+00
<GCONST> 1.051154e+02
<STATE> 3
<MEAN> 25
 7.898341e+00 6.769122e-01 -5.980435e+00 -1.402799e+00 3.525082e+00 4.491480e-01 -3.918551e+00 -3.587373e+00 -2.649347e+00 -2.842372e+00 -1.689278e+00 1.021962e+00 -7.756338e-01 7.563383e-01 5.502752e-01 8.270113e-01 2.798240e-01 1.325491e+00 7.032835e-01 3.596233e-01 3.082208e-01 -5.154090e-03 -2.048264e-01 -3.199293e-01 -1.361292e+00
<VARIANCE> 25
 2.876068e+01 3.251756e+01 4.847742e+01 5.875251e+01 4.849226e+01 4.357820e+01 4.282160e+01 3.805943e+01 3.575104e+01 3.216047e+01 2.785275e+01 2.531534e+01 1.549412e+00 2.112714e+00 2.763809e+00 3.039823e+00 3.358799e+00 3.590118e+00 3.448425e+00 3.136224e+00 3.408474e+00 2.967985e+00 2.623605e+00 2.237263e+00 1.636310e+00
<GCONST> 1.021613e+02
<STATE> 4
<MEAN> 25
 5.412677e+00 1.833103e+00 -4.028427e+00 -5.085419e-01 2.267809e+00 2.085018e+00 -1.665371e+00 -2.343382e+00 -1.808912e+00 -2.284674e+00 -1.413052e+00 3.313459e-01 -4.867756e-01 -6.988044e-02 4.821670e-01 3.639740e-01 -2.038538e-01 -1.353530e-01 2.935330e-01 3.202356e-01 4.707072e-02 1.700878e-01 1.382703e-01 -1.182176e-01 -2.790100e-01
<VARIANCE> 25
 2.738630e+01 3.117259e+01 4.332304e+01 4.824800e+01 3.927319e+01 3.631243e+01 3.395251e+01 3.381007e+01 3.105561e+01 2.732073e+01 2.547030e+01 2.190276e+01 1.094292e+00 1.505075e+00 2.021805e+00 2.286807e+00 2.216540e+00 2.356158e+00 2.429886e+00 2.174607e+00 2.300617e+00 2.008530e+00 1.813168e+00 1.681972e+00 1.042680e+00
<GCONST> 9.575272e+01
~t "T_r"
<ENDHMM>
~h "rr-e+th"
<BEGINHMM>
<NUMSTATES> 5
<STATE> 2
<MEAN> 25
 4.917822e+00 -3.046909e+00 -7.860230e-01 1.961976e+00 3.296882e+00 -3.095960e+00 -4.445966e+00 -4.378197e+00 -4.194638e+00 -1.446952e+00 1.146220e-01 1.648807e-01 1.062938e+00 -1.285595e+00 -6.981800e-01 4.423747e-01 5.001229e-01 -1.895295e+00 -1.787762e+00 -1.308817e+00 -1.084860e+00 1.344622e-01 6.617222e-01 3.701210e-01 1.670173e+00
<VARIANCE> 25
 3.577217e+01 3.706077e+01 4.774310e+01 6.015227e+01 4.925949e+01 6.036604e+01 5.010396e+01 4.977269e+01 4.858726e+01 3.950971e+01 3.013842e+01 2.473536e+01 2.384392e+00 2.958043e+00 2.685448e+00 3.858023e+00 3.340221e+00 5.064232e+00 4.063103e+00 3.681123e+00 4.037725e+00 4.174648e+00 3.332788e+00 2.898063e+00 2.226966e+00
<GCONST> 1.068105e+02
<STATE> 3
<MEAN> 25
 7.191195e+00 -7.001473e+00 -2.328277e+00 2.836691e+00 3.888689e+00 -7.911126e+00 -8.482172e+00 -6.657192e+00 -5.470276e+00 -1.285404e-01 1.987994e+00 7.147580e-01 8.514885e-02 -4.249433e-01 -1.496204e-01 2.818093e-01 1.203487e-01 -6.073316e-01 -4.420330e-01 -1.406531e-01 1.603031e-01 5.093133e-01 3.347531e-01 -4.041983e-02 2.952766e-01
<VARIANCE> 25
 2.837927e+01 3.550758e+01 4.376701e+01 6.339727e+01 5.782299e+01 6.153004e+01 4.445435e+01 4.665985e+01 4.438187e+01 4.603452e+01 3.686113e+01 3.249733e+01 5.579238e-01 9.633060e-01 1.396090e+00 1.826277e+00 1.583154e+00 2.003756e+00 1.982185e+00 1.856537e+00 2.013892e+00 2.006657e+00 1.751121e+00 1.508502e+00 5.828047e-01
<GCONST> 9.591582e+01
<STATE> 4
<MEAN> 25
 5.895019e+00 -4.724988e+00 -1.197292e+00 3.906052e+00 3.870449e+00 -6.545651e+00 -8.215060e+00 -6.679025e+00 -4.172563e+00 5.337154e-01 9.279272e-01 -6.742178e-01 -3.232698e-01 7.992764e-01 3.300467e-01 -6.339286e-02 7.912491e-02 1.004552e+00 6.088396e-01 3.772415e-01 3.436322e-01 -1.313366e-01 -2.720630e-01 -1.298955e-01 -7.956876e-01
<VARIANCE> 25
 2.029749e+01 3.066547e+01 3.368494e+01 5.057070e+01 4.296806e+01 5.593891e+01 3.659196e+01 3.710094e+01 4.034227e+01 3.575679e+01 3.262199e+01 2.925796e+01 5.569103e-01 1.011105e+00 1.171097e+00 1.448238e+00 1.440968e+00 2.011663e+00 1.814593e+00 1.739066e+00 1.905525e+00 1.867028e+00 1.539982e+00 1.274082e+00 7.538318e-01
<GCONST> 9.278246e+01
~t "T_e"
<ENDHMM>
~h "u-s+a"
<BEGINHMM>
<NUMSTATES> 5
<STATE> 2
<MEAN> 25
 -2.672227e+00 -3.270423e+00 1.004953e+01 -4.440532e+00 1.809237e-01 1.463706e+00 2.479738e+00 -8.504221e-01 -6.740083e-01 7.527752e-01 2.025366e-01 -1.215088e-01 -2.952475e+00 -1.081467e+00 2.472686e+00 -1.170398e+00 1.552520e-01 9.225060e-01 1.190610e+00 1.466946e-02 5.599615e-01 4.710526e-01 5.590721e-01 2.782978e-01 2.598815e-01
<VARIANCE> 25
 6.090248e+01 4.096783e+01 9.645750e+01 7.985217e+01 7.116714e+01 6.051644e+01 6.688841e+01 7.043929e+01 5.318323e+01 4.527814e+01 3.572353e+01 2.664364e+01 3.096100e+00 3.809794e+00 4.041855e+00 4.010174e+00 3.633645e+00 4.631847e+00 3.728845e+00 3.332037e+00 3.740141e+00 3.394577e+00 2.906559e+00 2.198195e+00 1.359681e+00
<GCONST> 1.094882e+02
<STATE> 3
<MEAN> 25
 -1.388278e+01 -7.547144e+00 1.724523e+01 -1.016027e+01 5.564176e-01 9.960555e-01 5.586256e+00 -1.188120e+00 5.186584e-01 1.813791e+00 1.467571e+00 5.005577e-01 -2.925702e-01 -1.122364e-01 -2.537486e-01 7.632152e-02 -1.322451e-02 7.181087e-02 4.822661e-02 6.459653e-02 8.100856e-02 3.569933e-02 1.088791e-01 9.543600e-02 -2.908385e-01
<VARIANCE> 25
 7.703424e+01 8.092426e+01 1.181283e+02 1.229016e+02 1.058419e+02 8.350800e+01 7.997587e+01 8.339116e+01 7.095995e+01 5.324371e+01 4.210551e+01 2.871686e+01 2.398076e+00 1.604921e+00 2.021634e+00 2.360392e+00 1.573115e+00 1.834233e+00 1.877151e+00 1.805621e+00 1.722814e+00 1.544063e+00 1.343992e+00 1.183776e+00 8.760858e-01
<GCONST> 1.039959e+02
<STATE> 4
<MEAN> 25
 -6.362659e+00 -4.423155e+00 9.820220e+00 -4.903218e+00 -3.681852e-01 2.570100e+00 3.167925e+00 -5.793936e-01 -8.759587e-02 1.059100e+00 1.291414e+00 8.679242e-01 2.306367e+00 1.451382e+00 -1.806829e+00 1.135726e+00 -1.512867e-01 -5.723754e-03 -1.025580e+00 -6.012088e-02 -4.432604e-01 -4.086378e-01 -5.183563e-01 -1.828476e-01 -1.028221e+00
<VARIANCE> 25
 5.843802e+01 5.417876e+01 7.380061e+01 6.748988e+01 5.934891e+01 5.204456e+01 5.172548e+01 5.419441e+01 4.946672e+01 4.243489e+01 3.060479e+01 2.467298e+01 5.810026e+00 3.654878e+00 3.590863e+00 3.486390e+00 3.299611e+00 3.667934e+00 3.647548e+00 3.210599e+00 3.578302e+00 3.155891e+00 2.695603e+00 2.113597e+00 1.871167e+00
<GCONST> 1.080983e+02
~t "T_s"
<ENDHMM>
~h "u-s+i"
<BEGINHMM>
<NUMSTATES> 5
<STATE> 2
<MEAN> 25
 -2.672227e+00 -3.270423e+00 1.004953e+01 -4.440532e+00 1.809237e-01 1.463706e+00 2.479738e+00 -8.504221e-01 -6.740083e-01 7.527752e-01 2.025366e-01 -1.215088e-01 -2.952475e+00 -1.081467e+00 2.472686e+00 -1.170398e+00 1.552520e-01 9.225060e-01 1.190610e+00 1.466946e-02 5.599615e-01 4.710526e-01 5.590721e-01 2.782978e-01 2.598815e-01
<VARIANCE> 25
 6.090248e+01 4.096783e+01 9.645750e+01 7.985217e+01 7.116714e+01 6.051644e+01 6.688841e+01 7.043929e+01 5.318323e+01 4.527814e+01 3.572353e+01 2.664364e+01 3.096100e+00 3.809794e+00 4.041855e+00 4.010174e+00 3.633645e+00 4.631847e+00 3.728845e+00 3.332037e+00 3.740141e+00 3.394577e+00 2.906559e+00 2.198195e+00 1.359681e+00
<GCONST> 1.094882e+02
<STATE> 3
<MEAN> 25
 -1.388278e+01 -7.547144e+00 1.724523e+01 -1.016027e+01 5.564176e-01 9.960555e-01 5.586256e+00 -1.188120e+00 5.186584e-01 1.813791e+00 1.467571e+00 5.005577e-01 -2.925702e-01 -1.122364e-01 -2.537486e-01 7.632152e-02 -1.322451e-02 7.181087e-02 4.822661e-02 6.459653e-02 8.100856e-02 3.569933e-02 1.088791e-01 9.543600e-02 -2.908385e-01
<VARIANCE> 25
 7.703424e+01 8.092426e+01 1.181283e+02 1.229016e+02 1.058419e+02 8.350800e+01 7.997587e+01 8.339116e+01 7.095995e+01 5.324371e+01 4.210551e+01 2.871686e+01 2.398076e+00 1.604921e+00 2.021634e+00 2.360392e+00 1.573115e+00 1.834233e+00 1.877151e+00 1.805621e+00 1.722814e+00 1.544063e+00 1.343992e+00 1.183776e+00 8.760858e-01
<GCONST> 1.039959e+02
<STATE> 4
<MEAN> 25
 -6.362659e+00 -4.423155e+00 9.820220e+00 -4.903218e+00 -3.681852e-01 2.570100e+00 3.167925e+00 -5.793936e-01 -8.759587e-02 1.059100e+00 1.291414e+00 8.679242e-01 2.306367e+00 1.451382e+00 -1.806829e+00 1.135726e+00 -1.512867e-01 -5.723754e-03 -1.025580e+00 -6.012088e-02 -4.432604e-01 -4.086378e-01 -5.183563e-01 -1.828476e-01 -1.028221e+00
<VARIANCE> 25
 5.843802e+01 5.417876e+01 7.380061e+01 6.748988e+01 5.934891e+01 5.204456e+01 5.172548e+01 5.419441e+01 4.946672e+01 4.243489e+01 3.060479e+01 2.467298e+01 5.810026e+00 3.654878e+00 3.590863e+00 3.486390e+00 3.299611e+00 3.667934e+00 3.647548e+00 3.210599e+00 3.578302e+00 3.155891e+00 2.695603e+00 2.113597e+00 1.871167e+00
<GCONST> 1.080983e+02
~t "T_s"
<ENDHMM>
~h "u-s+k"
<BEGINHMM>
<NUMSTATES> 5
<STATE> 2
<MEAN> 25
 -2.672227e+00 -3.270423e+00 1.004953e+01 -4.440532e+00 1.809237e-01 1.463706e+00 2.479738e+00 -8.504221e-01 -6.740083e-01 7.527752e-01 2.025366e-01 -1.215088e-01 -2.952475e+00 -1.081467e+00 2.472686e+00 -1.170398e+00 1.552520e-01 9.225060e-01 1.190610e+00 1.466946e-02 5.599615e-01 4.710526e-01 5.590721e-01 2.782978e-01 2.598815e-01
<VARIANCE> 25
 6.090248e+01 4.096783e+01 9.645750e+01 7.985217e+01 7.116714e+01 6.051644e+01 6.688841e+01 7.043929e+01 5.318323e+01 4.527814e+01 3.572353e+01 2.664364e+01 3.096100e+00 3.809794e+00 4.041855e+00 4.010174e+00 3.633645e+00 4.631847e+00 3.728845e+00 3.332037e+00 3.740141e+00 3.394577e+00 2.906559e+00 2.198195e+00 1.359681e+00
<GCONST> 1.094882e+02
<STATE> 3
<MEAN> 25
 -1.388278e+01 -7.547144e+00 1.724523e+01 -1.016027e+01 5.564176e-01 9.960555e-01 5.586256e+00 -1.188120e+00 5.186584e-01 1.813791e+00 1.467571e+00 5.005577e-01 -2.925702e-01 -1.122364e-01 -2.537486e-01 7.632152e-02 -1.322451e-02 7.181087e-02 4.822661e-02 6.459653e-02 8.100856e-02 3.569933e-02 1.088791e-01 9.543600e-02 -2.908385e-01
<VARIANCE> 25
 7.703424e+01 8.092426e+01 1.181283e+02 1.229016e+02 1.058419e+02 8.350800e+01 7.997587e+01 8.339116e+01 7.095995e+01 5.324371e+01 4.210551e+01 2.871686e+01 2.398076e+00 1.604921e+00 2.021634e+00 2.360392e+00 1.573115e+00 1.834233e+00 1.877151e+00 1.805621e+00 1.722814e+00 1.544063e+00 1.343992e+00 1.183776e+00 8.760858e-01
<GCONST> 1.039959e+02
<STATE> 4
<MEAN> 25
 -6.362659e+00 -4.423155e+00 9.820220e+00 -4.903218e+00 -3.681852e-01 2.570100e+00 3.167925e+00 -5.793936e-01 -8.759587e-02 1.059100e+00 1.291414e+00 8.679242e-01 2.306367e+00 1.451382e+00 -1.806829e+00 1.135726e+00 -1.512867e-01 -5.723754e-03 -1.025580e+00 -6.012088e-02 -4.432604e-01 -4.086378e-01 -5.183563e-01 -1.828476e-01 -1.028221e+00
<VARIANCE> 25
 5.843802e+01 5.417876e+01 7.380061e+01 6.748988e+01 5.934891e+01 5.204456e+01 5.172548e+01 5.419441e+01 4.946672e+01 4.243489e+01 3.060479e+01 2.467298e+01 5.810026e+00 3.654878e+00 3.590863e+00 3.486390e+00 3.299611e+00 3.667934e+00 3.647548e+00 3.210599e+00 3.578302e+00 3.155891e+00 2.695603e+00 2.113597e+00 1.871167e+00
<GCONST> 1.080983e+02
~t "T_s"
<ENDHMM>
~h "u-s+m"
<BEGINHMM>
<NUMSTATES> 5
<STATE> 2
<MEAN> 25
 -2.672227e+00 -3.270423e+00 1.004953e+01 -4.440532e+00 1.809237e-01 1.463706e+00 2.479738e+00 -8.504221e-01 -6.740083e-01 7.527752e-01 2.025366e-01 -1.215088e-01 -2.952475e+00 -1.081467e+00 2.472686e+00 -1.170398e+00 1.552520e-01 9.225060e-01 1.190610e+00 1.466946e-02 5.599615e-01 4.710526e-01 5.590721e-01 2.782978e-01 2.598815e-01
<VARIANCE> 25
 6.090248e+01 4.096783e+01 9.645750e+01 7.985217e+01 7.116714e+01 6.051644e+01 6.688841e+01 7.043929e+01 5.318323e+01 4.527814e+01 3.572353e+01 2.664364e+01 3.096100e+00 3.809794e+00 4.041855e+00 4.010174e+00 3.633645e+00 4.631847e+00 3.728845e+00 3.332037e+00 3.740141e+00 3.394577e+00 2.906559e+00 2.198195e+00 1.359681e+00
<GCONST> 1.094882e+02
<STATE> 3
<MEAN> 25
 -1.388278e+01 -7.547144e+00 1.724523e+01 -1.016027e+01 5.564176e-01 9.960555e-01 5.586256e+00 -1.188120e+00 5.186584e-01 1.813791e+00 1.467571e+00 5.005577e-01 -2.925702e-01 -1.122364e-01 -2.537486e-01 7.632152e-02 -1.322451e-02 7.181087e-02 4.822661e-02 6.459653e-02 8.100856e-02 3.569933e-02 1.088791e-01 9.543600e-02 -2.908385e-01
<VARIANCE> 25
 7.703424e+01 8.092426e+01 1.181283e+02 1.229016e+02 1.058419e+02 8.350800e+01 7.997587e+01 8.339116e+01 7.095995e+01 5.324371e+01 4.210551e+01 2.871686e+01 2.398076e+00 1.604921e+00 2.021634e+00 2.360392e+00 1.573115e+00 1.834233e+00 1.877151e+00 1.805621e+00 1.722814e+00 1.544063e+00 1.343992e+00 1.183776e+00 8.760858e-01
<GCONST> 1.039959e+02
<STATE> 4
<MEAN> 25
 -6.362659e+00 -4.423155e+00 9.820220e+00 -4.903218e+00 -3.681852e-01 2.570100e+00 3.167925e+00 -5.793936e-01 -8.759587e-02 1.059100e+00 1.291414e+00 8.679242e-01 2.306367e+00 1.451382e+00 -1.806829e+00 1.135726e+00 -1.512867e-01 -5.723754e-03 -1.025580e+00 -6.012088e-02 -4.432604e-01 -4.086378e-01 -5.183563e-01 -1.828476e-01 -1.028221e+00
<VARIANCE> 25
 5.843802e+01 5.417876e+01 7.380061e+01 6.748988e+01 5.934891e+01 5.204456e+01 5.172548e+01 5.419441e+01 4.946672e+01 4.243489e+01 3.060479e+01 2.467298e+01 5.810026e+00 3.654878e+00 3.590863e+00 3.486390e+00 3.299611e+00 3.667934e+00 3.647548e+00 3.210599e+00 3.578302e+00 3.155891e+00 2.695603e+00 2.113597e+00 1.871167e+00
<GCONST> 1.080983e+02
~t "T_s"
<ENDHMM>
~h "u-s+o"
<BEGINHMM>
<NUMSTATES> 5
<STATE> 2
<MEAN> 25
 -2.672227e+00 -3.270423e+00 1.004953e+01 -4.440532e+00 1.809237e-01 1.463706e+00 2.479738e+00 -8.504221e-01 -6.740083e-01 7.527752e-01 2.025366e-01 -1.215088e-01 -2.952475e+00 -1.081467e+00 2.472686e+00 -1.170398e+00 1.552520e-01 9.225060e-01 1.190610e+00 1.466946e-02 5.599615e-01 4.710526e-01 5.590721e-01 2.782978e-01 2.598815e-01
<VARIANCE> 25
 6.090248e+01 4.096783e+01 9.645750e+01 7.985217e+01 7.116714e+01 6.051644e+01 6.688841e+01 7.043929e+01 5.318323e+01 4.527814e+01 3.572353e+01 2.664364e+01 3.096100e+00 3.809794e+00 4.041855e+00 4.010174e+00 3.633645e+00 4.631847e+00 3.728845e+00 3.332037e+00 3.740141e+00 3.394577e+00 2.906559e+00 2.198195e+00 1.359681e+00
<GCONST> 1.094882e+02
<STATE> 3
<MEAN> 25
 -1.388278e+01 -7.547144e+00 1.724523e+01 -1.016027e+01 5.564176e-01 9.960555e-01 5.586256e+00 -1.188120e+00 5.186584e-01 1.813791e+00 1.467571e+00 5.005577e-01 -2.925702e-01 -1.122364e-01 -2.537486e-01 7.632152e-02 -1.322451e-02 7.181087e-02 4.822661e-02 6.459653e-02 8.100856e-02 3.569933e-02 1.088791e-01 9.543600e-02 -2.908385e-01
<VARIANCE> 25
 7.703424e+01 8.092426e+01 1.181283e+02 1.229016e+02 1.058419e+02 8.350800e+01 7.997587e+01 8.339116e+01 7.095995e+01 5.324371e+01 4.210551e+01 2.871686e+01 2.398076e+00 1.604921e+00 2.021634e+00 2.360392e+00 1.573115e+00 1.834233e+00 1.877151e+00 1.805621e+00 1.722814e+00 1.544063e+00 1.343992e+00 1.183776e+00 8.760858e-01
<GCONST> 1.039959e+02
<STATE> 4
<MEAN> 25
 -6.362659e+00 -4.423155e+00 9.820220e+00 -4.903218e+00 -3.681852e-01 2.570100e+00 3.167925e+00 -5.793936e-01 -8.759587e-02 1.059100e+00 1.291414e+00 8.679242e-01 2.306367e+00 1.451382e+00 -1.806829e+00 1.135726e+00 -1.512867e-01 -5.723754e-03 -1.025580e+00 -6.012088e-02 -4.432604e-01 -4.086378e-01 -5.183563e-01 -1.828476e-01 -1.028221e+00
<VARIANCE> 25
 5.843802e+01 5.417876e+01 7.380061e+01 6.748988e+01 5.934891e+01 5.204456e+01 5.172548e+01 5.419441e+01 4.946672e+01 4.243489e+01 3.060479e+01 2.467298e+01 5.810026e+00 3.654878e+00 3.590863e+00 3.486390e+00 3.299611e+00 3.667934e+00 3.647548e+00 3.210599e+00 3.578302e+00 3.155891e+00 2.695603e+00 2.113597e+00 1.871167e+00
<GCONST> 1.080983e+02
~t "T_s"
<ENDHMM>
~h "u-s+t"
<BEGINHMM>
<NUMSTATES> 5
<STATE> 2
<MEAN> 25
 -2.672227e+00 -3.270423e+00 1.004953e+01 -4.440532e+00 1.809237e-01 1.463706e+00 2.479738e+00 -8.504221e-01 -6.740083e-01 7.527752e-01 2.025366e-01 -1.215088e-01 -2.952475e+00 -1.081467e+00 2.472686e+00 -1.170398e+00 1.552520e-01 9.225060e-01 1.190610e+00 1.466946e-02 5.599615e-01 4.710526e-01 5.590721e-01 2.782978e-01 2.598815e-01
<VARIANCE> 25
 6.090248e+01 4.096783e+01 9.645750e+01 7.985217e+01 7.116714e+01 6.051644e+01 6.688841e+01 7.043929e+01 5.318323e+01 4.527814e+01 3.572353e+01 2.664364e+01 3.096100e+00 3.809794e+00 4.041855e+00 4.010174e+00 3.633645e+00 4.631847e+00 3.728845e+00 3.332037e+00 3.740141e+00 3.394577e+00 2.906559e+00 2.198195e+00 1.359681e+00
<GCONST> 1.094882e+02
<STATE> 3
<MEAN> 25
 -1.388278e+01 -7.547144e+00 1.724523e+01 -1.016027e+01 5.564176e-01 9.960555e-01 5.586256e+00 -1.188120e+00 5.186584e-01 1.813791e+00 1.467571e+00 5.005577e-01 -2.925702e-01 -1.122364e-01 -2.537486e-01 7.632152e-02 -1.322451e-02 7.181087e-02 4.822661e-02 6.459653e-02 8.100856e-02 3.569933e-02 1.088791e-01 9.543600e-02 -2.908385e-01
<VARIANCE> 25
 7.703424e+01 8.092426e+01 1.181283e+02 1.229016e+02 1.058419e+02 8.350800e+01 7.997587e+01 8.339116e+01 7.095995e+01 5.324371e+01 4.210551e+01 2.871686e+01 2.398076e+00 1.604921e+00 2.021634e+00 2.360392e+00 1.573115e+00 1.834233e+00 1.877151e+00 1.805621e+00 1.722814e+00 1.544063e+00 1.343992e+00 1.183776e+00 8.760858e-01
<GCONST> 1.039959e+02
<STATE> 4
<MEAN> 25
 -6.362659e+00 -4.423155e+00 9.820220e+00 -4.903218e+00 -3.681852e-01 2.570100e+00 3.167925e+00 -5.793936e-01 -8.759587e-02 1.059100e+00 1.291414e+00 8.679242e-01 2.306367e+00 1.451382e+00 -1.806829e+00 1.135726e+00 -1.512867e-01 -5.723754e-03 -1.025580e+00 -6.012088e-02 -4.432604e-01 -4.086378e-01 -5.183563e-01 -1.828476e-01 -1.028221e+00
<VARIANCE> 25
 5.843802e+01 5.417876e+01 7.380061e+01 6.748988e+01 5.934891e+01 5.204456e+01 5.172548e+01 5.419441e+01 4.946672e+01 4.243489e+01 3.060479e+01 2.467298e+01 5.810026e+00 3.654878e+00 3.590863e+00 3.486390e+00 3.299611e+00 3.667934e+00 3.647548e+00 3.210599e+00 3.578302e+00 3.155891e+00 2.695603e+00 2.113597e+00 1.871167e+00
<GCONST> 1.080983e+02
~t "T_s"
<ENDHMM>
~h "u-s+u"
<BEGINHMM>
<NUMSTATES> 5
<STATE> 2
<MEAN> 25
 -2.672227e+00 -3.270423e+00 1.004953e+01 -4.440532e+00 1.809237e-01 1.463706e+00 2.479738e+00 -8.504221e-01 -6.740083e-01 7.527752e-01 2.025366e-01 -1.215088e-01 -2.952475e+00 -1.081467e+00 2.472686e+00 -1.170398e+00 1.552520e-01 9.225060e-01 1.190610e+00 1.466946e-02 5.599615e-01 4.710526e-01 5.590721e-01 2.782978e-01 2.598815e-01
<VARIANCE> 25
 6.090248e+01 4.096783e+01 9.645750e+01 7.985217e+01 7.116714e+01 6.051644e+01 6.688841e+01 7.043929e+01 5.318323e+01 4.527814e+01 3.572353e+01 2.664364e+01 3.096100e+00 3.809794e+00 4.041855e+00 4.010174e+00 3.633645e+00 4.631847e+00 3.728845e+00 3.332037e+00 3.740141e+00 3.394577e+00 2.906559e+00 2.198195e+00 1.359681e+00
<GCONST> 1.094882e+02
<STATE> 3
<MEAN> 25
 -1.388278e+01 -7.547144e+00 1.724523e+01 -1.016027e+01 5.564176e-01 9.960555e-01 5.586256e+00 -1.188120e+00 5.186584e-01 1.813791e+00 1.467571e+00 5.005577e-01 -2.925702e-01 -1.122364e-01 -2.537486e-01 7.632152e-02 -1.322451e-02 7.181087e-02 4.822661e-02 6.459653e-02 8.100856e-02 3.569933e-02 1.088791e-01 9.543600e-02 -2.908385e-01
<VARIANCE> 25
 7.703424e+01 8.092426e+01 1.181283e+02 1.229016e+02 1.058419e+02 8.350800e+01 7.997587e+01 8.339116e+01 7.095995e+01 5.324371e+01 4.210551e+01 2.871686e+01 2.398076e+00 1.604921e+00 2.021634e+00 2.360392e+00 1.573115e+00 1.834233e+00 1.877151e+00 1.805621e+00 1.722814e+00 1.544063e+00 1.343992e+00 1.183776e+00 8.760858e-01
<GCONST> 1.039959e+02
<STATE> 4
<MEAN> 25
 -6.362659e+00 -4.423155e+00 9.820220e+00 -4.903218e+00 -3.681852e-01 2.570100e+00 3.167925e+00 -5.793936e-01 -8.759587e-02 1.059100e+00 1.291414e+00 8.679242e-01 2.306367e+00 1.451382e+00 -1.806829e+00 1.135726e+00 -1.512867e-01 -5.723754e-03 -1.025580e+00 -6.012088e-02 -4.432604e-01 -4.086378e-01 -5.183563e-01 -1.828476e-01 -1.028221e+00
<VARIANCE> 25
 5.843802e+01 5.417876e+01 7.380061e+01 6.748988e+01 5.934891e+01 5.204456e+01 5.172548e+01 5.419441e+01 4.946672e+01 4.243489e+01 3.060479e+01 2.467298e+01 5.810026e+00 3.654878e+00 3.590863e+00 3.486390e+00 3.299611e+00 3.667934e+00 3.647548e+00 3.210599e+00 3.578302e+00 3.155891e+00 2.695603e+00 2.113597e+00 1.871167e+00
<GCONST> 1.080983e+02
~t "T_s"
<ENDHMM>
~h "s-a+th"
<BEGINHMM>
<NUMSTATES> 5
<STATE> 2
<MEAN> 25
 8.084209e+00 -3.246555e+00 -4.886938e+00 -2.890126e+00 -1.922659e+00 -4.591505e+00 -1.062124e+00 -1.533606e+00 -3.011539e+00 -1.419097e+00 7.822737e-01 1.974153e+00 8.531939e-01 -1.219489e+00 -1.591901e+00 -1.511451e+00 -1.099942e+00 -1.081241e+00 3.296968e-01 2.435892e-01 2.131322e-01 7.433307e-01 1.096173e+00 1.076555e+00 1.531909e+00
<VARIANCE> 25
 3.102556e+01 3.982352e+01 4.648204e+01 6.052976e+01 4.865224e+01 5.364120e+01 4.957391e+01 5.206113e+01 4.994263e+01 4.377484e+01 3.566540e+01 3.010361e+01 2.105191e+00 2.133569e+00 2.607650e+00 3.361774e+00 2.917656e+00 3.954443e+00 3.398865e+00 3.319243e+00 3.668817e+00 4.076825e+00 3.093344e+00 2.673295e+00 1.675560e+00
<GCONST> 1.052759e+02
<STATE> 3
<MEAN> 25
 9.462610e+00 -6.897775e+00 -8.743549e+00 -6.083593e+00 -4.604442e+00 -5.470979e+00 1.397076e+00 -2.830499e-01 -1.629562e+00 7.007640e-01 2.659651e+00 3.340820e+00 3.290816e-02 -1.735238e-01 -3.625012e-01 -3.627358e-01 -1.769637e-01 2.254089e-01 4.766614e-01 2.827543e-01 2.371980e-01 1.767752e-01 8.445666e-02 6.974697e-02 8.193482e-02
<VARIANCE> 25
 2.840129e+01 3.570125e+01 4.138834e+01 4.038225e+01 4.118876e+01 4.148624e+01 4.739182e+01 4.747406e+01 4.473821e+01 4.189992e+01 3.449903e+01 2.805832e+01 3.302394e-01 8.424883e-01 9.393210e-01 1.242460e+00 1.324397e+00 1.496400e+00 1.901740e+00 1.780651e+00 1.803969e+00 1.726919e+00 1.430944e+00 1.179275e+00 3.783611e-01
<GCONST> 9.133002e+01
<STATE> 4
<MEAN> 25
 8.177530e+00 -2.680661e+00 -7.293503e+00 -5.932261e+00 -3.758124e+00 -2.794274e+00 1.176165e+00 -3.390664e-01 -1.368642e+00 2.573896e-01 2.133668e+00 3.287408e+00 -4.538044e-01 8.704351e-01 7.276899e-01 4.679444e-01 4.150407e-01 5.706517e-01 -1.937626e-01 -1.382255e-01 1.753797e-02 -1.629017e-01 -2.942949e-01 -3.140077e-01 -8.826797e-01
<VARIANCE> 25
 2.215926e+01 3.099335e+01 3.486272e+01 3.668752e+01 3.283007e+01 3.965223e+01 3.500597e+01 3.826480e+01 3.512437e+01 3.170736e+01 2.563973e+01 2.200531e+01 5.861269e-01 9.910762e-01 1.080531e+00 1.252255e+00 1.395680e+00 1.835312e+00 1.787168e+00 1.826652e+00 1.993582e+00 1.853269e+00 1.609923e+00 1.318195e+00 6.483233e-01
<GCONST> 9.086413e+01
~t "T_a"
<ENDHMM>
~h "u-t+a"
<BEGINHMM>
<NUMSTATES> 5
<STATE> 2
<MEAN> 25
 -1.105155e+00 3.531708e+00 3.428654e-04 2.035812e+00 1.206108e-01 3.856581e+00 4.077179e-01 -5.965847e-01 8.127027e-01 7.627032e-01 3.199013e-01 6.893349e-02 -6.225701e-01 -2.968751e-01 -4.327019e-01 -2.591668e-01 -4.670320e-01 5.148919e-02 2.475624e-01 2.473967e-01 4.056443e-01 2.193291e-01 2.135402e-01 2.370846e-01 -4.553078e-01
<VARIANCE> 25
 1.757349e+01 1.922104e+01 3.467615e+01 3.267662e+01 2.919297e+01 2.473142e+01 2.491181e+01 2.517140e+01 2.366685e+01 1.964377e+01 1.771473e+01 1.668316e+01 8.811969e-01 1.897543e+00 1.485499e+00 1.704934e+00 1.593071e+00 1.769392e+00 1.715915e+00 1.659040e+00 1.614757e+00 1.490305e+00 1.287322e+00 1.257182e+00 1.985336e+00
<GCONST> 8.922695e+01
<STATE> 3
<MEAN> 25
 -2.661848e+00 -1.497703e+00 5.282218e-02 -3.497691e-01 -1.323973e+00 2.477841e+00 1.625346e+00 -2.516246e-01 1.776590e+00 1.439802e+00 5.119318e-01 3.112603e-01 3.591390e-01 -2.639185e+00 1.089064e+00 -1.295514e+00 3.863864e-02 -1.159161e+00 1.705076e-01 -5.860544e-01 -5.879141e-01 -1.566525e-01 -8.659262e-03 1.297800e-01 3.161201e+00
<VARIANCE> 25
 2.167913e+01 5.237593e+01 4.070385e+01 5.008830e+01 3.684749e+01 3.489187e+01 3.228013e+01 3.020567e+01 2.734658e+01 2.465602e+01 2.112542e+01 1.802548e+01 2.104158e+00 3.082623e+00 3.689658e+00 4.205109e+00 3.861122e+00 3.443296e+00 3.636282e+00 3.397777e+00 3.384237e+00 2.689384e+00 2.275631e+00 2.211970e+00 2.531482e+00
<GCONST> 1.015656e+02
<STATE> 4
<MEAN> 25
 6.725208e-02 -5.150090e+00 3.443682e+00 -2.513680e+00 -2.271353e-01 -2.479110e-01 1.068287e+00 -2.403555e+00 -1.349449e+00 3.935923e-02 2.190253e-01 7.620124e-01 2.674966e+00 -7.274120e-02 -3.204739e-01 3.668221e-01 1.818312e-01 -1.773539e+00 -1.494750e+00 -9.235156e-01 -1.947002e+00 -1.262686e+00 -4.662289e-01 5.305367e-02 2.229213e+00
<VARIANCE> 25
 3.678450e+01 4.006910e+01 4.787255e+01 5.576718e+01 5.168572e+01 4.239035e+01 4.381770e+01 4.481693e+01 4.380044e+01 3.419241e+01 2.507265e+01 1.988425e+01 2.029730e+00 4.721550e+00 4.108329e+00 5.850153e+00 5.617827e+00 4.736856e+00 4.321757e+00 4.812273e+00 4.380567e+00 4.659930e+00 3.916073e+00 3.285652e+00 3.656609e+00
<GCONST> 1.085535e+02
~t "T_t"
<ENDHMM>
~h "u-t+e"
<BEGINHMM>
<NUMSTATES> 5
<STATE> 2
<MEAN> 25
 -1.105155e+00 3.531708e+00 3.428654e-04 2.035812e+00 1.206108e-01 3.856581e+00 4.077179e-01 -5.965847e-01 8.127027e-01 7.627032e-01 3.199013e-01 6.893349e-02 -6.225701e-01 -2.968751e-01 -4.327019e-01 -2.591668e-01 -4.670320e-01 5.148919e-02 2.475624e-01 2.473967e-01 4.056443e-01 2.193291e-01 2.135402e-01 2.370846e-01 -4.553078e-01
<VARIANCE> 25
 1.757349e+01 1.922104e+01 3.467615e+01 3.267662e+01 2.919297e+01 2.473142e+01 2.491181e+01 2.517140e+01 2.366685e+01 1.964377e+01 1.771473e+01 1.668316e+01 8.811969e-01 1.897543e+00 1.485499e+00 1.704934e+00 1.593071e+00 1.769392e+00 1.715915e+00 1.659040e+00 1.614757e+00 1.490305e+00 1.287322e+00 1.257182e+00 1.985336e+00
<GCONST> 8.922695e+01
<STATE> 3
<MEAN> 25
 -2.661848e+00 -1.497703e+00 5.282218e-02 -3.497691e-01 -1.323973e+00 2.477841e+00 1.625346e+00 -2.516246e-01 1.776590e+00 1.439802e+00 5.119318e-01 3.112603e-01 3.591390e-01 -2.639185e+00 1.089064e+00 -1.295514e+00 3.863864e-02 -1.159161e+00 1.705076e-01 -5.860544e-01 -5.879141e-01 -1.566525e-01 -8.659262e-03 1.297800e-01 3.161201e+00
<VARIANCE> 25
 2.167913e+01 5.237593e+01 4.070385e+01 5.008830e+01 3.684749e+01 3.489187e+01 3.228013e+01 3.020567e+01 2.734658e+01 2.465602e+01 2.112542e+01 1.802548e+01 2.104158e+00 3.082623e+00 3.689658e+00 4.205109e+00 3.861122e+00 3.443296e+00 3.636282e+00 3.397777e+00 3.384237e+00 2.689384e+00 2.275631e+00 2.211970e+00 2.531482e+00
<GCONST> 1.015656e+02
<STATE> 4
<MEAN> 25
 6.725208e-02 -5.150090e+00 3.443682e+00 -2.513680e+00 -2.271353e-01 -2.479110e-01 1.068287e+00 -2.403555e+00 -1.349449e+00 3.935923e-02 2.190253e-01 7.620124e-01 2.674966e+00 -7.274120e-02 -3.204739e-01 3.668221e-01 1.818312e-01 -1.773539e+00 -1.494750e+00 -9.235156e-01 -1.947002e+00 -1.262686e+00 -4.662289e-01 5.305367e-02 2.229213e+00
<VARIANCE> 25
 3.678450e+01 4.006910e+01 4.787255e+01 5.576718e+01 5.168572e+01 4.239035e+01 4.381770e+01 4.481693e+01 4.380044e+01 3.419241e+01 2.507265e+01 1.988425e+01 2.029730e+00 4.721550e+00 4.108329e+00 5.850153e+00 5.617827e+00 4.736856e+00 4.321757e+00 4.812273e+00 4.380567e+00 4.659930e+00 3.916073e+00 3.285652e+00 3.656609e+00
<GCONST> 1.085535e+02
~t "T_t"
<ENDHMM>
~h "u-t+i"
<BEGINHMM>
<NUMSTATES> 5
<STATE> 2
<MEAN> 25
 -1.105155e+00 3.531708e+00 3.428654e-04 2.035812e+00 1.206108e-01 3.856581e+00 4.077179e-01 -5.965847e-01 8.127027e-01 7.627032e-01 3.199013e-01 6.893349e-02 -6.225701e-01 -2.968751e-01 -4.327019e-01 -2.591668e-01 -4.670320e-01 5.148919e-02 2.475624e-01 2.473967e-01 4.056443e-01 2.193291e-01 2.135402e-01 2.370846e-01 -4.553078e-01
<VARIANCE> 25
 1.757349e+01 1.922104e+01 3.467615e+01 3.267662e+01 2.919297e+01 2.473142e+01 2.491181e+01 2.517140e+01 2.366685e+01 1.964377e+01 1.771473e+01 1.668316e+01 8.811969e-01 1.897543e+00 1.485499e+00 1.704934e+00 1.593071e+00 1.769392e+00 1.715915e+00 1.659040e+00 1.614757e+00 1.490305e+00 1.287322e+00 1.257182e+00 1.985336e+00
<GCONST> 8.922695e+01
<STATE> 3
<MEAN> 25
 -2.661848e+00 -1.497703e+00 5.282218e-02 -3.497691e-01 -1.323973e+00 2.477841e+00 1.625346e+00 -2.516246e-01 1.776590e+00 1.439802e+00 5.119318e-01 3.112603e-01 3.591390e-01 -2.639185e+00 1.089064e+00 -1.295514e+00 3.863864e-02 -1.159161e+00 1.705076e-01 -5.860544e-01 -5.879141e-01 -1.566525e-01 -8.659262e-03 1.297800e-01 3.161201e+00
<VARIANCE> 25
 2.167913e+01 5.237593e+01 4.070385e+01 5.008830e+01 3.684749e+01 3.489187e+01 3.228013e+01 3.020567e+01 2.734658e+01 2.465602e+01 2.112542e+01 1.802548e+01 2.104158e+00 3.082623e+00 3.689658e+00 4.205109e+00 3.861122e+00 3.443296e+00 3.636282e+00 3.397777e+00 3.384237e+00 2.689384e+00 2.275631e+00 2.211970e+00 2.531482e+00
<GCONST> 1.015656e+02
<STATE> 4
<MEAN> 25
 6.725208e-02 -5.150090e+00 3.443682e+00 -2.513680e+00 -2.271353e-01 -2.479110e-01 1.068287e+00 -2.403555e+00 -1.349449e+00 3.935923e-02 2.190253e-01 7.620124e-01 2.674966e+00 -7.274120e-02 -3.204739e-01 3.668221e-01 1.818312e-01 -1.773539e+00 -1.494750e+00 -9.235156e-01 -1.947002e+00 -1.262686e+00 -4.662289e-01 5.305367e-02 2.229213e+00
<VARIANCE> 25
 3.678450e+01 4.006910e+01 4.787255e+01 5.576718e+01 5.168572e+01 4.239035e+01 4.381770e+01 4.481693e+01 4.380044e+01 3.419241e+01 2.507265e+01 1.988425e+01 2.029730e+00 4.721550e+00 4.108329e+00 5.850153e+00 5.617827e+00 4.736856e+00 4.321757e+00 4.812273e+00 4.380567e+00 4.659930e+00 3.916073e+00 3.285652e+00 3.656609e+00
<GCONST> 1.085535e+02
~t "T_t"
<ENDHMM>
~h "u-t+o"
<BEGINHMM>
<NUMSTATES> 5
<STATE> 2
<MEAN> 25
 -1.105155e+00 3.531708e+00 3.428654e-04 2.035812e+00 1.206108e-01 3.856581e+00 4.077179e-01 -5.965847e-01 8.127027e-01 7.627032e-01 3.199013e-01 6.893349e-02 -6.225701e-01 -2.968751e-01 -4.327019e-01 -2.591668e-01 -4.670320e-01 5.148919e-02 2.475624e-01 2.473967e-01 4.056443e-01 2.193291e-01 2.135402e-01 2.370846e-01 -4.553078e-01
<VARIANCE> 25
 1.757349e+01 1.922104e+01 3.467615e+01 3.267662e+01 2.919297e+01 2.473142e+01 2.491181e+01 2.517140e+01 2.366685e+01 1.964377e+01 1.771473e+01 1.668316e+01 8.811969e-01 1.897543e+00 1.485499e+00 1.704934e+00 1.593071e+00 1.769392e+00 1.715915e+00 1.659040e+00 1.614757e+00 1.490305e+00 1.287322e+00 1.257182e+00 1.985336e+00
<GCONST> 8.922695e+01
<STATE> 3
<MEAN> 25
 -2.661848e+00 -1.497703e+00 5.282218e-02 -3.497691e-01 -1.323973e+00 2.477841e+00 1.625346e+00 -2.516246e-01 1.776590e+00 1.439802e+00 5.119318e-01 3.112603e-01 3.591390e-01 -2.639185e+00 1.089064e+00 -1.295514e+00 3.863864e-02 -1.159161e+00 1.705076e-01 -5.860544e-01 -5.879141e-01 -1.566525e-01 -8.659262e-03 1.297800e-01 3.161201e+00
<VARIANCE> 25
 2.167913e+01 5.237593e+01 4.070385e+01 5.008830e+01 3.684749e+01 3.489187e+01 3.228013e+01 3.020567e+01 2.734658e+01 2.465602e+01 2.112542e+01 1.802548e+01 2.104158e+00 3.082623e+00 3.689658e+00 4.205109e+00 3.861122e+00 3.443296e+00 3.636282e+00 3.397777e+00 3.384237e+00 2.689384e+00 2.275631e+00 2.211970e+00 2.531482e+00
<GCONST> 1.015656e+02
<STATE> 4
<MEAN> 25
 6.725208e-02 -5.150090e+00 3.443682e+00 -2.513680e+00 -2.271353e-01 -2.479110e-01 1.068287e+00 -2.403555e+00 -1.349449e+00 3.935923e-02 2.190253e-01 7.620124e-01 2.674966e+00 -7.274120e-02 -3.204739e-01 3.668221e-01 1.818312e-01 -1.773539e+00 -1.494750e+00 -9.235156e-01 -1.947002e+00 -1.262686e+00 -4.662289e-01 5.305367e-02 2.229213e+00
<VARIANCE> 25
 3.678450e+01 4.006910e+01 4.787255e+01 5.576718e+01 5.168572e+01 4.239035e+01 4.381770e+01 4.481693e+01 4.380044e+01 3.419241e+01 2.507265e+01 1.988425e+01 2.029730e+00 4.721550e+00 4.108329e+00 5.850153e+00 5.617827e+00 4.736856e+00 4.321757e+00 4.812273e+00 4.380567e+00 4.659930e+00 3.916073e+00 3.285652e+00 3.656609e+00
<GCONST> 1.085535e+02
~t "T_t"
<ENDHMM>
~h "k-e+a"
<BEGINHMM>
<NUMSTATES> 5
<STATE> 2
<MEAN> 25
 4.917822e+00 -3.046909e+00 -7.860230e-01 1.961976e+00 3.296882e+00 -3.095960e+00 -4.445966e+00 -4.378197e+00 -4.194638e+00 -1.446952e+00 1.146220e-01 1.648807e-01 1.062938e+00 -1.285595e+00 -6.981800e-01 4.423747e-01 5.001229e-01 -1.895295e+00 -1.787762e+00 -1.308817e+00 -1.084860e+00 1.344622e-01 6.617222e-01 3.701210e-01 1.670173e+00
<VARIANCE> 25
 3.577217e+01 3.706077e+01 4.774310e+01 6.015227e+01 4.925949e+01 6.036604e+01 5.010396e+01 4.977269e+01 4.858726e+01 3.950971e+01 3.013842e+01 2.473536e+01 2.384392e+00 2.958043e+00 2.685448e+00 3.858023e+00 3.340221e+00 5.064232e+00 4.063103e+00 3.681123e+00 4.037725e+00 4.174648e+00 3.332788e+00 2.898063e+00 2.226966e+00
<GCONST> 1.068105e+02
<STATE> 3
<MEAN> 25
 7.191195e+00 -7.001473e+00 -2.328277e+00 2.836691e+00 3.888689e+00 -7.911126e+00 -8.482172e+00 -6.657192e+00 -5.470276e+00 -1.285404e-01 1.987994e+00 7.147580e-01 8.514885e-02 -4.249433e-01 -1.496204e-01 2.818093e-01 1.203487e-01 -6.073316e-01 -4.420330e-01 -1.406531e-01 1.603031e-01 5.093133e-01 3.347531e-01 -4.041983e-02 2.952766e-01
<VARIANCE> 25
 2.837927e+01 3.550758e+01 4.376701e+01 6.339727e+01 5.782299e+01 6.153004e+01 4.445435e+01 4.665985e+01 4.438187e+01 4.603452e+01 3.686113e+01 3.249733e+01 5.579238e-01 9.633060e-01 1.396090e+00 1.826277e+00 1.583154e+00 2.003756e+00 1.982185e+00 1.856537e+00 2.013892e+00 2.006657e+00 1.751121e+00 1.508502e+00 5.828047e-01
<GCONST> 9.591582e+01
<STATE> 4
<MEAN> 25
 5.895019e+00 -4.724988e+00 -1.197292e+00 3.906052e+00 3.870449e+00 -6.545651e+00 -8.215060e+00 -6.679025e+00 -4.172563e+00 5.337154e-01 9.279272e-01 -6.742178e-01 -3.232698e-01 7.992764e-01 3.300467e-01 -6.339286e-02 7.912491e-02 1.004552e+00 6.088396e-01 3.772415e-01 3.436322e-01 -1.313366e-01 -2.720630e-01 -1.298955e-01 -7.956876e-01
<VARIANCE> 25
 2.029749e+01 3.066547e+01 3.368494e+01 5.057070e+01 4.296806e+01 5.593891e+01 3.659196e+01 3.710094e+01 4.034227e+01 3.575679e+01 3.262199e+01 2.925796e+01 5.569103e-01 1.011105e+00 1.171097e+00 1.448238e+00 1.440968e+00 2.011663e+00 1.814593e+00 1.739066e+00 1.905525e+00 1.867028e+00 1.539982e+00 1.274082e+00 7.538318e-01
<GCONST> 9.278246e+01
~t "T_e"
<ENDHMM>
~h "k-e+d"
<BEGINHMM>
<NUMSTATES> 5
<STATE> 2
<MEAN> 25
 4.917822e+00 -3.046909e+00 -7.860230e-01 1.961976e+00 3.296882e+00 -3.095960e+00 -4.445966e+00 -4.378197e+00 -4.194638e+00 -1.446952e+00 1.146220e-01 1.648807e-01 1.062938e+00 -1.285595e+00 -6.981800e-01 4.423747e-01 5.001229e-01 -1.895295e+00 -1.787762e+00 -1.308817e+00 -1.084860e+00 1.344622e-01 6.617222e-01 3.701210e-01 1.670173e+00
<VARIANCE> 25
 3.577217e+01 3.706077e+01 4.774310e+01 6.015227e+01 4.925949e+01 6.036604e+01 5.010396e+01 4.977269e+01 4.858726e+01 3.950971e+01 3.013842e+01 2.473536e+01 2.384392e+00 2.958043e+00 2.685448e+00 3.858023e+00 3.340221e+00 5.064232e+00 4.063103e+00 3.681123e+00 4.037725e+00 4.174648e+00 3.332788e+00 2.898063e+00 2.226966e+00
<GCONST> 1.068105e+02
<STATE> 3
<MEAN> 25
 7.191195e+00 -7.001473e+00 -2.328277e+00 2.836691e+00 3.888689e+00 -7.911126e+00 -8.482172e+00 -6.657192e+00 -5.470276e+00 -1.285404e-01 1.987994e+00 7.147580e-01 8.514885e-02 -4.249433e-01 -1.496204e-01 2.818093e-01 1.203487e-01 -6.073316e-01 -4.420330e-01 -1.406531e-01 1.603031e-01 5.093133e-01 3.347531e-01 -4.041983e-02 2.952766e-01
<VARIANCE> 25
 2.837927e+01 3.550758e+01 4.376701e+01 6.339727e+01 5.782299e+01 6.153004e+01 4.445435e+01 4.665985e+01 4.438187e+01 4.603452e+01 3.686113e+01 3.249733e+01 5.579238e-01 9.633060e-01 1.396090e+00 1.826277e+00 1.583154e+00 2.003756e+00 1.982185e+00 1.856537e+00 2.013892e+00 2.006657e+00 1.751121e+00 1.508502e+00 5.828047e-01
<GCONST> 9.591582e+01
<STATE> 4
<MEAN> 25
 5.895019e+00 -4.724988e+00 -1.197292e+00 3.906052e+00 3.870449e+00 -6.545651e+00 -8.215060e+00 -6.679025e+00 -4.172563e+00 5.337154e-01 9.279272e-01 -6.742178e-01 -3.232698e-01 7.992764e-01 3.300467e-01 -6.339286e-02 7.912491e-02 1.004552e+00 6.088396e-01 3.772415e-01 3.436322e-01 -1.313366e-01 -2.720630e-01 -1.298955e-01 -7.956876e-01
<VARIANCE> 25
 2.029749e+01 3.066547e+01 3.368494e+01 5.057070e+01 4.296806e+01 5.593891e+01 3.659196e+01 3.710094e+01 4.034227e+01 3.575679e+01 3.262199e+01 2.925796e+01 5.569103e-01 1.011105e+00 1.171097e+00 1.448238e+00 1.440968e+00 2.011663e+00 1.814593e+00 1.739066e+00 1.905525e+00 1.867028e+00 1.539982e+00 1.274082e+00 7.538318e-01
<GCONST> 9.278246e+01
~t "T_e"
<ENDHMM>
~h "k-e+r"
<BEGINHMM>
<NUMSTATES> 5
<STATE> 2
<MEAN> 25
 4.917822e+00 -3.046909e+00 -7.860230e-01 1.961976e+00 3.296882e+00 -3.095960e+00 -4.445966e+00 -4.378197e+00 -4.194638e+00 -1.446952e+00 1.146220e-01 1.648807e-01 1.062938e+00 -1.285595e+00 -6.981800e-01 4.423747e-01 5.001229e-01 -1.895295e+00 -1.787762e+00 -1.308817e+00 -1.084860e+00 1.344622e-01 6.617222e-01 3.701210e-01 1.670173e+00
<VARIANCE> 25
 3.577217e+01 3.706077e+01 4.774310e+01 6.015227e+01 4.925949e+01 6.036604e+01 5.010396e+01 4.977269e+01 4.858726e+01 3.950971e+01 3.013842e+01 2.473536e+01 2.384392e+00 2.958043e+00 2.685448e+00 3.858023e+00 3.340221e+00 5.064232e+00 4.063103e+00 3.681123e+00 4.037725e+00 4.174648e+00 3.332788e+00 2.898063e+00 2.226966e+00
<GCONST> 1.068105e+02
<STATE> 3
<MEAN> 25
 7.191195e+00 -7.001473e+00 -2.328277e+00 2.836691e+00 3.888689e+00 -7.911126e+00 -8.482172e+00 -6.657192e+00 -5.470276e+00 -1.285404e-01 1.987994e+00 7.147580e-01 8.514885e-02 -4.249433e-01 -1.496204e-01 2.818093e-01 1.203487e-01 -6.073316e-01 -4.420330e-01 -1.406531e-01 1.603031e-01 5.093133e-01 3.347531e-01 -4.041983e-02 2.952766e-01
<VARIANCE> 25
 2.837927e+01 3.550758e+01 4.376701e+01 6.339727e+01 5.782299e+01 6.153004e+01 4.445435e+01 4.665985e+01 4.438187e+01 4.603452e+01 3.686113e+01 3.249733e+01 5.579238e-01 9.633060e-01 1.396090e+00 1.826277e+00 1.583154e+00 2.003756e+00 1.982185e+00 1.856537e+00 2.013892e+00 2.006657e+00 1.751121e+00 1.508502e+00 5.828047e-01
<GCONST> 9.591582e+01
<STATE> 4
<MEAN> 25
 5.895019e+00 -4.724988e+00 -1.197292e+00 3.906052e+00 3.870449e+00 -6.545651e+00 -8.215060e+00 -6.679025e+00 -4.172563e+00 5.337154e-01 9.279272e-01 -6.742178e-01 -3.232698e-01 7.992764e-01 3.300467e-01 -6.339286e-02 7.912491e-02 1.004552e+00 6.088396e-01 3.772415e-01 3.436322e-01 -1.313366e-01 -2.720630e-01 -1.298955e-01 -7.956876e-01
<VARIANCE> 25
 2.029749e+01 3.066547e+01 3.368494e+01 5.057070e+01 4.296806e+01 5.593891e+01 3.659196e+01 3.710094e+01 4.034227e+01 3.575679e+01 3.262199e+01 2.925796e+01 5.569103e-01 1.011105e+00 1.171097e+00 1.448238e+00 1.440968e+00 2.011663e+00 1.814593e+00 1.739066e+00 1.905525e+00 1.867028e+00 1.539982e+00 1.274082e+00 7.538318e-01
<GCONST> 9.278246e+01
~t "T_e"
<ENDHMM>
~h "k-e+t"
<BEGINHMM>
<NUMSTATES> 5
<STATE> 2
<MEAN> 25
 4.917822e+00 -3.046909e+00 -7.860230e-01 1.961976e+00 3.296882e+00 -3.095960e+00 -4.445966e+00 -4.378197e+00 -4.194638e+00 -1.446952e+00 1.146220e-01 1.648807e-01 1.062938e+00 -1.285595e+00 -6.981800e-01 4.423747e-01 5.001229e-01 -1.895295e+00 -1.787762e+00 -1.308817e+00 -1.084860e+00 1.344622e-01 6.617222e-01 3.701210e-01 1.670173e+00
<VARIANCE> 25
 3.577217e+01 3.706077e+01 4.774310e+01 6.015227e+01 4.925949e+01 6.036604e+01 5.010396e+01 4.977269e+01 4.858726e+01 3.950971e+01 3.013842e+01 2.473536e+01 2.384392e+00 2.958043e+00 2.685448e+00 3.858023e+00 3.340221e+00 5.064232e+00 4.063103e+00 3.681123e+00 4.037725e+00 4.174648e+00 3.332788e+00 2.898063e+00 2.226966e+00
<GCONST> 1.068105e+02
<STATE> 3
<MEAN> 25
 7.191195e+00 -7.001473e+00 -2.328277e+00 2.836691e+00 3.888689e+00 -7.911126e+00 -8.482172e+00 -6.657192e+00 -5.470276e+00 -1.285404e-01 1.987994e+00 7.147580e-01 8.514885e-02 -4.249433e-01 -1.496204e-01 2.818093e-01 1.203487e-01 -6.073316e-01 -4.420330e-01 -1.406531e-01 1.603031e-01 5.093133e-01 3.347531e-01 -4.041983e-02 2.952766e-01
<VARIANCE> 25
 2.837927e+01 3.550758e+01 4.376701e+01 6.339727e+01 5.782299e+01 6.153004e+01 4.445435e+01 4.665985e+01 4.438187e+01 4.603452e+01 3.686113e+01 3.249733e+01 5.579238e-01 9.633060e-01 1.396090e+00 1.826277e+00 1.583154e+00 2.003756e+00 1.982185e+00 1.856537e+00 2.013892e+00 2.006657e+00 1.751121e+00 1.508502e+00 5.828047e-01
<GCONST> 9.591582e+01
<STATE> 4
<MEAN> 25
 5.895019e+00 -4.724988e+00 -1.197292e+00 3.906052e+00 3.870449e+00 -6.545651e+00 -8.215060e+00 -6.679025e+00 -4.172563e+00 5.337154e-01 9.279272e-01 -6.742178e-01 -3.232698e-01 7.992764e-01 3.300467e-01 -6.339286e-02 7.912491e-02 1.004552e+00 6.088396e-01 3.772415e-01 3.436322e-01 -1.313366e-01 -2.720630e-01 -1.298955e-01 -7.956876e-01
<VARIANCE> 25
 2.029749e+01 3.066547e+01 3.368494e+01 5.057070e+01 4.296806e+01 5.593891e+01 3.659196e+01 3.710094e+01 4.034227e+01 3.575679e+01 3.262199e+01 2.925796e+01 5.569103e-01 1.011105e+00 1.171097e+00 1.448238e+00 1.440968e+00 2.011663e+00 1.814593e+00 1.739066e+00 1.905525e+00 1.867028e+00 1.539982e+00 1.274082e+00 7.538318e-01
<GCONST> 9.278246e+01
~t "T_e"
<ENDHMM>
~h "e-k+th"
<BEGINHMM>
<NUMSTATES> 5
<STATE> 2
<MEAN> 25
 -2.312355e-01 1.961118e+00 -8.483832e-01 1.450593e+00 1.457601e+00 2.408843e+00 -4.597814e-01 -1.728608e+00 -1.790877e-01 8.893732e-01 6.985575e-01 -3.931130e-01 -7.720011e-01 -7.842530e-02 -5.205820e-01 -9.070294e-01 -7.591282e-01 3.915028e-01 7.773291e-01 4.507853e-01 3.840126e-01 1.228299e-01 3.643597e-01 2.747205e-01 -4.715713e-01
<VARIANCE> 25
 2.273778e+01 2.853440e+01 3.812323e+01 4.159114e+01 4.112223e+01 3.378465e+01 3.233773e+01 3.354189e+01 3.298198e+01 2.542086e+01 2.348176e+01 2.239305e+01 1.604517e+00 4.217481e+00 2.607781e+00 4.085482e+00 3.966224e+00 4.291962e+00 3.567861e+00 3.176125e+00 3.109658e+00 2.588859e+00 2.471189e+00 2.213985e+00 5.200278e+00
<GCONST> 1.019870e+02
<STATE> 3
<MEAN> 25
 -1.427904e+00 -2.522660e+00 -2.585010e+00 -5.629199e+00 -8.787394e-01 -3.528969e-01 2.678309e+00 -7.877849e-01 7.780784e-01 5.548463e-01 2.357178e+00 4.609265e-01 3.902499e-01 -8.271015e-01 2.816469e-01 -1.033817e+00 -3.860129e-01 -9.675173e-01 2.915441e-01 -2.320813e-02 -3.249466e-01 -1.045423e-01 2.656671e-02 -1.464451e-01 1.487963e+00
<VARIANCE> 25
 2.691691e+01 7.003792e+01 5.256176e+01 6.985202e+01 8.061441e+01 6.468961e+01 6.198301e+01 6.249512e+01 4.851157e+01 4.706096e+01 4.291992e+01 3.999689e+01 2.103719e+00 4.420229e+00 3.587986e+00 5.717131e+00 5.819118e+00 5.228204e+00 4.675033e+00 4.933011e+00 4.070527e+00 3.372667e+00 3.275937e+00 3.025996e+00 4.842046e+00
<GCONST> 1.119947e+02
<STATE> 4
<MEAN> 25
 1.419271e+00 -3.539429e-01 4.778248e-01 -3.932618e+00 -2.930405e+00 -2.244887e+00 1.284940e+00 5.541340e-02 -5.615529e-01 7.321874e-01 8.684695e-01 -6.447970e-01 1.883814e+00 8.443043e-01 8.145797e-01 1.344449e+00 6.578749e-02 -1.397391e+00 -1.716680e+00 -6.972357e-01 -6.383767e-01 -3.624772e-01 -5.773226e-01 -2.933102e-01 8.197570e-01
<VARIANCE> 25
 3.267832e+01 6.014273e+01 4.649751e+01 6.060592e+01 7.995394e+01 5.549017e+01 4.596269e+01 5.674486e+01 4.103881e+01 2.995664e+01 2.814278e+01 2.626648e+01 2.782798e+00 2.967987e+00 2.976174e+00 4.358909e+00 4.870712e+00 5.839102e+00 4.260954e+00 3.580991e+00 3.656567e+00 3.403094e+00 3.130402e+00 2.638721e+00 2.321630e+00
<GCONST> 1.076801e+02
~t "T_k"
<ENDHMM>
~h "sp"
<BEGINHMM>
<NUMSTATES> 3
<STATE> 2
~s "silst"
<TRANSP> 3
 0.000000e+00 2.115920e-01 7.884080e-01
 0.000000e+00 9.172863e-01 8.271369e-02
 0.000000e+00 0.000000e+00 0.000000e+00
<ENDHMM>
~h "x-a+b"
<BEGINHMM>
<NUMSTATES> 5
<STATE> 2
<MEAN> 25
 8.084209e+00 -3.246555e+00 -4.886938e+00 -2.890126e+00 -1.922659e+00 -4.591505e+00 -1.062124e+00 -1.533606e+00 -3.011539e+00 -1.419097e+00 7.822737e-01 1.974153e+00 8.531939e-01 -1.219489e+00 -1.591901e+00 -1.511451e+00 -1.099942e+00 -1.081241e+00 3.296968e-01 2.435892e-01 2.131322e-01 7.433307e-01 1.096173e+00 1.076555e+00 1.531909e+00
<VARIANCE> 25
 3.102556e+01 3.982352e+01 4.648204e+01 6.052976e+01 4.865224e+01 5.364120e+01 4.957391e+01 5.206113e+01 4.994263e+01 4.377484e+01 3.566540e+01 3.010361e+01 2.105191e+00 2.133569e+00 2.607650e+00 3.361774e+00 2.917656e+00 3.954443e+00 3.398865e+00 3.319243e+00 3.668817e+00 4.076825e+00 3.093344e+00 2.673295e+00 1.675560e+00
<GCONST> 1.052759e+02
<STATE> 3
<MEAN> 25
 9.462610e+00 -6.897775e+00 -8.743549e+00 -6.083593e+00 -4.604442e+00 -5.470979e+00 1.397076e+00 -2.830499e-01 -1.629562e+00 7.007640e-01 2.659651e+00 3.340820e+00 3.290816e-02 -1.735238e-01 -3.625012e-01 -3.627358e-01 -1.769637e-01 2.254089e-01 4.766614e-01 2.827543e-01 2.371980e-01 1.767752e-01 8.445666e-02 6.974697e-02 8.193482e-02
<VARIANCE> 25
 2.840129e+01 3.570125e+01 4.138834e+01 4.038225e+01 4.118876e+01 4.148624e+01 4.739182e+01 4.747406e+01 4.473821e+01 4.189992e+01 3.449903e+01 2.805832e+01 3.302394e-01 8.424883e-01 9.393210e-01 1.242460e+00 1.324397e+00 1.496400e+00 1.901740e+00 1.780651e+00 1.803969e+00 1.726919e+00 1.430944e+00 1.179275e+00 3.783611e-01
<GCONST> 9.133002e+01
<STATE> 4
<MEAN> 25
 8.177530e+00 -2.680661e+00 -7.293503e+00 -5.932261e+00 -3.758124e+00 -2.794274e+00 1.176165e+00 -3.390664e-01 -1.368642e+00 2.573896e-01 2.133668e+00 3.287408e+00 -4.538044e-01 8.704351e-01 7.276899e-01 4.679444e-01 4.150407e-01 5.706517e-01 -1.937626e-01 -1.382255e-01 1.753797e-02 -1.629017e-01 -2.942949e-01 -3.140077e-01 -8.826797e-01
<VARIANCE> 25
 2.215926e+01 3.099335e+01 3.486272e+01 3.668752e+01 3.283007e+01 3.965223e+01 3.500597e+01 3.826480e+01 3.512437e+01 3.170736e+01 2.563973e+01 2.200531e+01 5.861269e-01 9.910762e-01 1.080531e+00 1.252255e+00 1.395680e+00 1.835312e+00 1.787168e+00 1.826652e+00 1.993582e+00 1.853269e+00 1.609923e+00 1.318195e+00 6.483233e-01
<GCONST> 9.086413e+01
~t "T_a"
<ENDHMM>
~h "x-a+d"
<BEGINHMM>
<NUMSTATES> 5
<STATE> 2
<MEAN> 25
 8.084209e+00 -3.246555e+00 -4.886938e+00 -2.890126e+00 -1.922659e+00 -4.591505e+00 -1.062124e+00 -1.533606e+00 -3.011539e+00 -1.419097e+00 7.822737e-01 1.974153e+00 8.531939e-01 -1.219489e+00 -1.591901e+00 -1.511451e+00 -1.099942e+00 -1.081241e+00 3.296968e-01 2.435892e-01 2.131322e-01 7.433307e-01 1.096173e+00 1.076555e+00 1.531909e+00
<VARIANCE> 25
 3.102556e+01 3.982352e+01 4.648204e+01 6.052976e+01 4.865224e+01 5.364120e+01 4.957391e+01 5.206113e+01 4.994263e+01 4.377484e+01 3.566540e+01 3.010361e+01 2.105191e+00 2.133569e+00 2.607650e+00 3.361774e+00 2.917656e+00 3.954443e+00 3.398865e+00 3.319243e+00 3.668817e+00 4.076825e+00 3.093344e+00 2.673295e+00 1.675560e+00
<GCONST> 1.052759e+02
<STATE> 3
<MEAN> 25
 9.462610e+00 -6.897775e+00 -8.743549e+00 -6.083593e+00 -4.604442e+00 -5.470979e+00 1.397076e+00 -2.830499e-01 -1.629562e+00 7.007640e-01 2.659651e+00 3.340820e+00 3.290816e-02 -1.735238e-01 -3.625012e-01 -3.627358e-01 -1.769637e-01 2.254089e-01 4.766614e-01 2.827543e-01 2.371980e-01 1.767752e-01 8.445666e-02 6.974697e-02 8.193482e-02
<VARIANCE> 25
 2.840129e+01 3.570125e+01 4.138834e+01 4.038225e+01 4.118876e+01 4.148624e+01 4.739182e+01 4.747406e+01 4.473821e+01 4.189992e+01 3.449903e+01 2.805832e+01 3.302394e-01 8.424883e-01 9.393210e-01 1.242460e+00 1.324397e+00 1.496400e+00 1.901740e+00 1.780651e+00 1.803969e+00 1.726919e+00 1.430944e+00 1.179275e+00 3.783611e-01
<GCONST> 9.133002e+01
<STATE> 4
<MEAN> 25
 8.177530e+00 -2.680661e+00 -7.293503e+00 -5.932261e+00 -3.758124e+00 -2.794274e+00 1.176165e+00 -3.390664e-01 -1.368642e+00 2.573896e-01 2.133668e+00 3.287408e+00 -4.538044e-01 8.704351e-01 7.276899e-01 4.679444e-01 4.150407e-01 5.706517e-01 -1.937626e-01 -1.382255e-01 1.753797e-02 -1.629017e-01 -2.942949e-01 -3.140077e-01 -8.826797e-01
<VARIANCE> 25
 2.215926e+01 3.099335e+01 3.486272e+01 3.668752e+01 3.283007e+01 3.965223e+01 3.500597e+01 3.826480e+01 3.512437e+01 3.170736e+01 2.563973e+01 2.200531e+01 5.861269e-01 9.910762e-01 1.080531e+00 1.252255e+00 1.395680e+00 1.835312e+00 1.787168e+00 1.826652e+00 1.993582e+00 1.853269e+00 1.609923e+00 1.318195e+00 6.483233e-01
<GCONST> 9.086413e+01
~t "T_a"
<ENDHMM>
~h "x-a+n"
<BEGINHMM>
<NUMSTATES> 5
<STATE> 2
<MEAN> 25
 8.084209e+00 -3.246555e+00 -4.886938e+00 -2.890126e+00 -1.922659e+00 -4.591505e+00 -1.062124e+00 -1.533606e+00 -3.011539e+00 -1.419097e+00 7.822737e-01 1.974153e+00 8.531939e-01 -1.219489e+00 -1.591901e+00 -1.511451e+00 -1.099942e+00 -1.081241e+00 3.296968e-01 2.435892e-01 2.131322e-01 7.433307e-01 1.096173e+00 1.076555e+00 1.531909e+00
<VARIANCE> 25
 3.102556e+01 3.982352e+01 4.648204e+01 6.052976e+01 4.865224e+01 5.364120e+01 4.957391e+01 5.206113e+01 4.994263e+01 4.377484e+01 3.566540e+01 3.010361e+01 2.105191e+00 2.133569e+00 2.607650e+00 3.361774e+00 2.917656e+00 3.954443e+00 3.398865e+00 3.319243e+00 3.668817e+00 4.076825e+00 3.093344e+00 2.673295e+00 1.675560e+00
<GCONST> 1.052759e+02
<STATE> 3
<MEAN> 25
 9.462610e+00 -6.897775e+00 -8.743549e+00 -6.083593e+00 -4.604442e+00 -5.470979e+00 1.397076e+00 -2.830499e-01 -1.629562e+00 7.007640e-01 2.659651e+00 3.340820e+00 3.290816e-02 -1.735238e-01 -3.625012e-01 -3.627358e-01 -1.769637e-01 2.254089e-01 4.766614e-01 2.827543e-01 2.371980e-01 1.767752e-01 8.445666e-02 6.974697e-02 8.193482e-02
<VARIANCE> 25
 2.840129e+01 3.570125e+01 4.138834e+01 4.038225e+01 4.118876e+01 4.148624e+01 4.739182e+01 4.747406e+01 4.473821e+01 4.189992e+01 3.449903e+01 2.805832e+01 3.302394e-01 8.424883e-01 9.393210e-01 1.242460e+00 1.324397e+00 1.496400e+00 1.901740e+00 1.780651e+00 1.803969e+00 1.726919e+00 1.430944e+00 1.179275e+00 3.783611e-01
<GCONST> 9.133002e+01
<STATE> 4
<MEAN> 25
 8.177530e+00 -2.680661e+00 -7.293503e+00 -5.932261e+00 -3.758124e+00 -2.794274e+00 1.176165e+00 -3.390664e-01 -1.368642e+00 2.573896e-01 2.133668e+00 3.287408e+00 -4.538044e-01 8.704351e-01 7.276899e-01 4.679444e-01 4.150407e-01 5.706517e-01 -1.937626e-01 -1.382255e-01 1.753797e-02 -1.629017e-01 -2.942949e-01 -3.140077e-01 -8.826797e-01
<VARIANCE> 25
 2.215926e+01 3.099335e+01 3.486272e+01 3.668752e+01 3.283007e+01 3.965223e+01 3.500597e+01 3.826480e+01 3.512437e+01 3.170736e+01 2.563973e+01 2.200531e+01 5.861269e-01 9.910762e-01 1.080531e+00 1.252255e+00 1.395680e+00 1.835312e+00 1.787168e+00 1.826652e+00 1.993582e+00 1.853269e+00 1.609923e+00 1.318195e+00 6.483233e-01
<GCONST> 9.086413e+01
~t "T_a"
<ENDHMM>
~h "x-a+r"
<BEGINHMM>
<NUMSTATES> 5
<STATE> 2
<MEAN> 25
 8.084209e+00 -3.246555e+00 -4.886938e+00 -2.890126e+00 -1.922659e+00 -4.591505e+00 -1.062124e+00 -1.533606e+00 -3.011539e+00 -1.419097e+00 7.822737e-01 1.974153e+00 8.531939e-01 -1.219489e+00 -1.591901e+00 -1.511451e+00 -1.099942e+00 -1.081241e+00 3.296968e-01 2.435892e-01 2.131322e-01 7.433307e-01 1.096173e+00 1.076555e+00 1.531909e+00
<VARIANCE> 25
 3.102556e+01 3.982352e+01 4.648204e+01 6.052976e+01 4.865224e+01 5.364120e+01 4.957391e+01 5.206113e+01 4.994263e+01 4.377484e+01 3.566540e+01 3.010361e+01 2.105191e+00 2.133569e+00 2.607650e+00 3.361774e+00 2.917656e+00 3.954443e+00 3.398865e+00 3.319243e+00 3.668817e+00 4.076825e+00 3.093344e+00 2.673295e+00 1.675560e+00
<GCONST> 1.052759e+02
<STATE> 3
<MEAN> 25
 9.462610e+00 -6.897775e+00 -8.743549e+00 -6.083593e+00 -4.604442e+00 -5.470979e+00 1.397076e+00 -2.830499e-01 -1.629562e+00 7.007640e-01 2.659651e+00 3.340820e+00 3.290816e-02 -1.735238e-01 -3.625012e-01 -3.627358e-01 -1.769637e-01 2.254089e-01 4.766614e-01 2.827543e-01 2.371980e-01 1.767752e-01 8.445666e-02 6.974697e-02 8.193482e-02
<VARIANCE> 25
 2.840129e+01 3.570125e+01 4.138834e+01 4.038225e+01 4.118876e+01 4.148624e+01 4.739182e+01 4.747406e+01 4.473821e+01 4.189992e+01 3.449903e+01 2.805832e+01 3.302394e-01 8.424883e-01 9.393210e-01 1.242460e+00 1.324397e+00 1.496400e+00 1.901740e+00 1.780651e+00 1.803969e+00 1.726919e+00 1.430944e+00 1.179275e+00 3.783611e-01
<GCONST> 9.133002e+01
<STATE> 4
<MEAN> 25
 8.177530e+00 -2.680661e+00 -7.293503e+00 -5.932261e+00 -3.758124e+00 -2.794274e+00 1.176165e+00 -3.390664e-01 -1.368642e+00 2.573896e-01 2.133668e+00 3.287408e+00 -4.538044e-01 8.704351e-01 7.276899e-01 4.679444e-01 4.150407e-01 5.706517e-01 -1.937626e-01 -1.382255e-01 1.753797e-02 -1.629017e-01 -2.942949e-01 -3.140077e-01 -8.826797e-01
<VARIANCE> 25
 2.215926e+01 3.099335e+01 3.486272e+01 3.668752e+01 3.283007e+01 3.965223e+01 3.500597e+01 3.826480e+01 3.512437e+01 3.170736e+01 2.563973e+01 2.200531e+01 5.861269e-01 9.910762e-01 1.080531e+00 1.252255e+00 1.395680e+00 1.835312e+00 1.787168e+00 1.826652e+00 1.993582e+00 1.853269e+00 1.609923e+00 1.318195e+00 6.483233e-01
<GCONST> 9.086413e+01
~t "T_a"
<ENDHMM>
~h "x-a+s"
<BEGINHMM>
<NUMSTATES> 5
<STATE> 2
<MEAN> 25
 8.084209e+00 -3.246555e+00 -4.886938e+00 -2.890126e+00 -1.922659e+00 -4.591505e+00 -1.062124e+00 -1.533606e+00 -3.011539e+00 -1.419097e+00 7.822737e-01 1.974153e+00 8.531939e-01 -1.219489e+00 -1.591901e+00 -1.511451e+00 -1.099942e+00 -1.081241e+00 3.296968e-01 2.435892e-01 2.131322e-01 7.433307e-01 1.096173e+00 1.076555e+00 1.531909e+00
<VARIANCE> 25
 3.102556e+01 3.982352e+01 4.648204e+01 6.052976e+01 4.865224e+01 5.364120e+01 4.957391e+01 5.206113e+01 4.994263e+01 4.377484e+01 3.566540e+01 3.010361e+01 2.105191e+00 2.133569e+00 2.607650e+00 3.361774e+00 2.917656e+00 3.954443e+00 3.398865e+00 3.319243e+00 3.668817e+00 4.076825e+00 3.093344e+00 2.673295e+00 1.675560e+00
<GCONST> 1.052759e+02
<STATE> 3
<MEAN> 25
 9.462610e+00 -6.897775e+00 -8.743549e+00 -6.083593e+00 -4.604442e+00 -5.470979e+00 1.397076e+00 -2.830499e-01 -1.629562e+00 7.007640e-01 2.659651e+00 3.340820e+00 3.290816e-02 -1.735238e-01 -3.625012e-01 -3.627358e-01 -1.769637e-01 2.254089e-01 4.766614e-01 2.827543e-01 2.371980e-01 1.767752e-01 8.445666e-02 6.974697e-02 8.193482e-02
<VARIANCE> 25
 2.840129e+01 3.570125e+01 4.138834e+01 4.038225e+01 4.118876e+01 4.148624e+01 4.739182e+01 4.747406e+01 4.473821e+01 4.189992e+01 3.449903e+01 2.805832e+01 3.302394e-01 8.424883e-01 9.393210e-01 1.242460e+00 1.324397e+00 1.496400e+00 1.901740e+00 1.780651e+00 1.803969e+00 1.726919e+00 1.430944e+00 1.179275e+00 3.783611e-01
<GCONST> 9.133002e+01
<STATE> 4
<MEAN> 25
 8.177530e+00 -2.680661e+00 -7.293503e+00 -5.932261e+00 -3.758124e+00 -2.794274e+00 1.176165e+00 -3.390664e-01 -1.368642e+00 2.573896e-01 2.133668e+00 3.287408e+00 -4.538044e-01 8.704351e-01 7.276899e-01 4.679444e-01 4.150407e-01 5.706517e-01 -1.937626e-01 -1.382255e-01 1.753797e-02 -1.629017e-01 -2.942949e-01 -3.140077e-01 -8.826797e-01
<VARIANCE> 25
 2.215926e+01 3.099335e+01 3.486272e+01 3.668752e+01 3.283007e+01 3.965223e+01 3.500597e+01 3.826480e+01 3.512437e+01 3.170736e+01 2.563973e+01 2.200531e+01 5.861269e-01 9.910762e-01 1.080531e+00 1.252255e+00 1.395680e+00 1.835312e+00 1.787168e+00 1.826652e+00 1.993582e+00 1.853269e+00 1.609923e+00 1.318195e+00 6.483233e-01
<GCONST> 9.086413e+01
~t "T_a"
<ENDHMM>
~h "i-s+rr"
<BEGINHMM>
<NUMSTATES> 5
<STATE> 2
<MEAN> 25
 -2.672227e+00 -3.270423e+00 1.004953e+01 -4.440532e+00 1.809237e-01 1.463706e+00 2.479738e+00 -8.504221e-01 -6.740083e-01 7.527752e-01 2.025366e-01 -1.215088e-01 -2.952475e+00 -1.081467e+00 2.472686e+00 -1.170398e+00 1.552520e-01 9.225060e-01 1.190610e+00 1.466946e-02 5.599615e-01 4.710526e-01 5.590721e-01 2.782978e-01 2.598815e-01
<VARIANCE> 25
 6.090248e+01 4.096783e+01 9.645750e+01 7.985217e+01 7.116714e+01 6.051644e+01 6.688841e+01 7.043929e+01 5.318323e+01 4.527814e+01 3.572353e+01 2.664364e+01 3.096100e+00 3.809794e+00 4.041855e+00 4.010174e+00 3.633645e+00 4.631847e+00 3.728845e+00 3.332037e+00 3.740141e+00 3.394577e+00 2.906559e+00 2.198195e+00 1.359681e+00
<GCONST> 1.094882e+02
<STATE> 3
<MEAN> 25
 -1.388278e+01 -7.547144e+00 1.724523e+01 -1.016027e+01 5.564176e-01 9.960555e-01 5.586256e+00 -1.188120e+00 5.186584e-01 1.813791e+00 1.467571e+00 5.005577e-01 -2.925702e-01 -1.122364e-01 -2.537486e-01 7.632152e-02 -1.322451e-02 7.181087e-02 4.822661e-02 6.459653e-02 8.100856e-02 3.569933e-02 1.088791e-01 9.543600e-02 -2.908385e-01
<VARIANCE> 25
 7.703424e+01 8.092426e+01 1.181283e+02 1.229016e+02 1.058419e+02 8.350800e+01 7.997587e+01 8.339116e+01 7.095995e+01 5.324371e+01 4.210551e+01 2.871686e+01 2.398076e+00 1.604921e+00 2.021634e+00 2.360392e+00 1.573115e+00 1.834233e+00 1.877151e+00 1.805621e+00 1.722814e+00 1.544063e+00 1.343992e+00 1.183776e+00 8.760858e-01
<GCONST> 1.039959e+02
<STATE> 4
<MEAN> 25
 -6.362659e+00 -4.423155e+00 9.820220e+00 -4.903218e+00 -3.681852e-01 2.570100e+00 3.167925e+00 -5.793936e-01 -8.759587e-02 1.059100e+00 1.291414e+00 8.679242e-01 2.306367e+00 1.451382e+00 -1.806829e+00 1.135726e+00 -1.512867e-01 -5.723754e-03 -1.025580e+00 -6.012088e-02 -4.432604e-01 -4.086378e-01 -5.183563e-01 -1.828476e-01 -1.028221e+00
<VARIANCE> 25
 5.843802e+01 5.417876e+01 7.380061e+01 6.748988e+01 5.934891e+01 5.204456e+01 5.172548e+01 5.419441e+01 4.946672e+01 4.243489e+01 3.060479e+01 2.467298e+01 5.810026e+00 3.654878e+00 3.590863e+00 3.486390e+00 3.299611e+00 3.667934e+00 3.647548e+00 3.210599e+00 3.578302e+00 3.155891e+00 2.695603e+00 2.113597e+00 1.871167e+00
<GCONST> 1.080983e+02
~t "T_s"
<ENDHMM>
~h "u-x+e"
<BEGINHMM>
<NUMSTATES> 5
<STATE> 2
<MEAN> 25
 2.710263e+00 3.803773e-02 -6.907156e-01 -1.041780e+00 1.537239e-01 -1.162006e+00 2.299056e+00 2.109332e+00 2.205236e+00 1.629794e+00 5.215285e-01 -4.691647e-01 -8.456972e-01 -5.233524e-01 1.104425e-01 5.402460e-03 -4.407932e-02 9.621610e-01 1.198104e+00 8.795330e-01 4.561717e-01 2.352917e-01 2.905076e-01 1.189582e-01 -4.212725e-01
<VARIANCE> 25
 3.920304e+01 4.778421e+01 4.725491e+01 6.818762e+01 7.707585e+01 4.912231e+01 5.634499e+01 6.323063e+01 4.823575e+01 3.662822e+01 3.850797e+01 3.096796e+01 1.298015e+00 2.392860e+00 2.438280e+00 3.293631e+00 3.234163e+00 3.403000e+00 3.515903e+00 3.329362e+00 3.190387e+00 2.881794e+00 2.616669e+00 2.342538e+00 1.071782e+00
<GCONST> 1.047144e+02
<STATE> 3
<MEAN> 25
 2.389514e+00 -2.823177e+00 -2.314602e+00 -8.071315e-01 -2.019404e+00 5.773649e-01 5.416468e+00 4.644370e+00 2.860189e+00 2.649937e+00 1.474382e+00 2.542869e-01 -1.627480e-01 -5.520325e-02 -3.205924e-02 7.186043e-02 -6.453498e-02 1.446954e-01 8.186971e-02 8.117869e-02 1.478556e-01 8.997992e-02 -1.554686e-02 -1.325583e-02 -1.939255e-01
<VARIANCE> 25
 3.829348e+01 5.292737e+01 6.805369e+01 7.263561e+01 8.785237e+01 4.887428e+01 6.232245e+01 6.020101e+01 4.831543e+01 4.048973e+01 3.702037e+01 2.908707e+01 3.520617e-01 1.059087e+00 1.012969e+00 1.387481e+00 1.552394e+00 1.474724e+00 1.849917e+00 1.636128e+00 1.569952e+00 1.565971e+00 1.455773e+00 1.317901e+00 2.615884e-01
<GCONST> 9.472208e+01
<STATE> 4
<MEAN> 25
 1.113762e+00 -2.202637e-01 5.006220e-01 3.866129e-01 -2.374129e-02 1.004074e+00 2.361394e+00 3.804070e+00 2.446019e+00 2.536371e+00 8.760055e-01 6.529836e-02 2.448174e-01 2.729527e-01 1.612649e-01 -1.038634e-02 -1.484590e-01 -4.305932e-01 -4.565032e-01 -3.415658e-01 -1.851178e-01 -6.116746e-02 -1.175197e-01 -1.012859e-01 1.047176e-01
<VARIANCE> 25
 2.915019e+01 3.153456e+01 3.526095e+01 4.116573e+01 4.410101e+01 3.645945e+01 3.289407e+01 3.666290e+01 3.545974e+01 2.833711e+01 2.363544e+01 1.703545e+01 3.797781e-01 8.875240e-01 8.613486e-01 1.276177e+00 1.478250e+00 1.550803e+00 1.795061e+00 1.668326e+00 1.570326e+00 1.527764e+00 1.397692e+00 1.213788e+00 2.087996e-01
<GCONST> 8.821011e+01
~t "T_x"
<ENDHMM>
~h "u-x+o"
<BEGINHMM>
<NUMSTATES> 5
<STATE> 2
<MEAN> 25
 2.710263e+00 3.803773e-02 -6.907156e-01 -1.041780e+00 1.537239e-01 -1.162006e+00 2.299056e+00 2.109332e+00 2.205236e+00 1.629794e+00 5.215285e-01 -4.691647e-01 -8.456972e-01 -5.233524e-01 1.104425e-01 5.402460e-03 -4.407932e-02 9.621610e-01 1.198104e+00 8.795330e-01 4.561717e-01 2.352917e-01 2.905076e-01 1.189582e-01 -4.212725e-01
<VARIANCE> 25
 3.920304e+01 4.778421e+01 4.725491e+01 6.818762e+01 7.707585e+01 4.912231e+01 5.634499e+01 6.323063e+01 4.823575e+01 3.662822e+01 3.850797e+01 3.096796e+01 1.298015e+00 2.392860e+00 2.438280e+00 3.293631e+00 3.234163e+00 3.403000e+00 3.515903e+00 3.329362e+00 3.190387e+00 2.881794e+00 2.616669e+00 2.342538e+00 1.071782e+00
<GCONST> 1.047144e+02
<STATE> 3
<MEAN> 25
 2.389514e+00 -2.823177e+00 -2.314602e+00 -8.071315e-01 -2.019404e+00 5.773649e-01 5.416468e+00 4.644370e+00 2.860189e+00 2.649937e+00 1.474382e+00 2.542869e-01 -1.627480e-01 -5.520325e-02 -3.205924e-02 7.186043e-02 -6.453498e-02 1.446954e-01 8.186971e-02 8.117869e-02 1.478556e-01 8.997992e-02 -1.554686e-02 -1.325583e-02 -1.939255e-01
<VARIANCE> 25
 3.829348e+01 5.292737e+01 6.805369e+01 7.263561e+01 8.785237e+01 4.887428e+01 6.232245e+01 6.020101e+01 4.831543e+01 4.048973e+01 3.702037e+01 2.908707e+01 3.520617e-01 1.059087e+00 1.012969e+00 1.387481e+00 1.552394e+00 1.474724e+00 1.849917e+00 1.636128e+00 1.569952e+00 1.565971e+00 1.455773e+00 1.317901e+00 2.615884e-01
<GCONST> 9.472208e+01
<STATE> 4
<MEAN> 25
 1.113762e+00 -2.202637e-01 5.006220e-01 3.866129e-01 -2.374129e-02 1.004074e+00 2.361394e+00 3.804070e+00 2.446019e+00 2.536371e+00 8.760055e-01 6.529836e-02 2.448174e-01 2.729527e-01 1.612649e-01 -1.038634e-02 -1.484590e-01 -4.305932e-01 -4.565032e-01 -3.415658e-01 -1.851178e-01 -6.116746e-02 -1.175197e-01 -1.012859e-01 1.047176e-01
<VARIANCE> 25
 2.915019e+01 3.153456e+01 3.526095e+01 4.116573e+01 4.410101e+01 3.645945e+01 3.289407e+01 3.666290e+01 3.545974e+01 2.833711e+01 2.363544e+01 1.703545e+01 3.797781e-01 8.875240e-01 8.613486e-01 1.276177e+00 1.478250e+00 1.550803e+00 1.795061e+00 1.668326e+00 1.570326e+00 1.527764e+00 1.397692e+00 1.213788e+00 2.087996e-01
<GCONST> 8.821011e+01
~t "T_x"
<ENDHMM>
~h "k-i+e"
<BEGINHMM>
<NUMSTATES> 5
<STATE> 2
<MEAN> 25
 2.824880e+00 -2.961581e+00 4.292364e+00 7.499251e+00 7.346193e+00 -2.067250e+00 -5.297520e+00 -2.873806e+00 -2.378581e+00 -1.973293e+00 -2.520489e+00 -3.736685e+00 1.015099e+00 -9.724852e-01 2.479329e-01 2.179622e+00 1.426837e+00 -2.128228e+00 -2.309814e+00 -3.848035e-01 -7.270547e-01 -7.560874e-01 -6.794949e-01 -8.365397e-01 1.175898e+00
<VARIANCE> 25
 3.374600e+01 3.967356e+01 6.750194e+01 6.375350e+01 5.781096e+01 6.437442e+01 4.980933e+01 4.415491e+01 4.445846e+01 3.540117e+01 3.356274e+01 2.704606e+01 3.132528e+00 4.137255e+00 3.621446e+00 4.487921e+00 4.215056e+00 5.312013e+00 4.005538e+00 3.824685e+00 4.409300e+00 4.209664e+00 3.923692e+00 2.984154e+00 1.617640e+00
<GCONST> 1.086541e+02
<STATE> 3
<MEAN> 25
 3.691633e+00 -6.378765e+00 6.166086e+00 1.236009e+01 7.380941e+00 -9.047977e+00 -9.580333e+00 -1.629763e+00 -3.102339e+00 -4.599288e+00 -4.548250e+00 -5.048493e+00 8.359629e-02 -2.991736e-01 1.296623e-01 4.305927e-01 9.667514e-03 -8.290642e-01 -5.818837e-01 1.603395e-01 8.957740e-02 -1.876646e-01 -1.591199e-01 -1.092843e-01 2.681427e-01
<VARIANCE> 25
 2.149308e+01 3.103732e+01 4.970968e+01 5.873264e+01 7.158559e+01 6.920425e+01 3.966159e+01 4.495304e+01 4.204121e+01 4.275245e+01 4.102441e+01 2.954641e+01 6.639252e-01 9.264812e-01 1.883231e+00 1.858640e+00 1.558079e+00 2.146437e+00 1.929194e+00 2.097977e+00 1.840118e+00 1.884095e+00 1.595546e+00 1.333590e+00 5.259222e-01
<GCONST> 9.574519e+01
<STATE> 4
<MEAN> 25
 4.036044e+00 -4.218312e+00 4.209880e+00 1.037407e+01 7.996428e+00 -6.247262e+00 -9.419474e+00 -3.331409e+00 -2.663913e+00 -2.918104e+00 -3.142705e+00 -4.376024e+00 3.821991e-02 8.336469e-01 -6.000085e-01 -1.181883e+00 -5.675405e-01 1.117856e+00 8.718380e-01 -2.187419e-01 -3.897155e-02 3.511441e-01 4.869802e-01 5.886047e-01 -5.325214e-01
<VARIANCE> 25
 1.972391e+01 3.227742e+01 4.309776e+01 5.167957e+01 5.495691e+01 6.691110e+01 3.850472e+01 4.351723e+01 4.154246e+01 3.556070e+01 3.517086e+01 2.803684e+01 6.999541e-01 1.390189e+00 1.663853e+00 1.824908e+00 1.964548e+00 2.784639e+00 2.501812e+00 2.236512e+00 2.341234e+00 2.148965e+00 1.947036e+00 1.699689e+00 1.056007e+00
<GCONST> 9.730878e+01
~t "T_i"
<ENDHMM>
~h "k-i+l"
<BEGINHMM>
<NUMSTATES> 5
<STATE> 2
<MEAN> 25
 2.824880e+00 -2.961581e+00 4.292364e+00 7.499251e+00 7.346193e+00 -2.067250e+00 -5.297520e+00 -2.873806e+00 -2.378581e+00 -1.973293e+00 -2.520489e+00 -3.736685e+00 1.015099e+00 -9.724852e-01 2.479329e-01 2.179622e+00 1.426837e+00 -2.128228e+00 -2.309814e+00 -3.848035e-01 -7.270547e-01 -7.560874e-01 -6.794949e-01 -8.365397e-01 1.175898e+00
<VARIANCE> 25
 3.374600e+01 3.967356e+01 6.750194e+01 6.375350e+01 5.781096e+01 6.437442e+01 4.980933e+01 4.415491e+01 4.445846e+01 3.540117e+01 3.356274e+01 2.704606e+01 3.132528e+00 4.137255e+00 3.621446e+00 4.487921e+00 4.215056e+00 5.312013e+00 4.005538e+00 3.824685e+00 4.409300e+00 4.209664e+00 3.923692e+00 2.984154e+00 1.617640e+00
<GCONST> 1.086541e+02
<STATE> 3
<MEAN> 25
 3.691633e+00 -6.378765e+00 6.166086e+00 1.236009e+01 7.380941e+00 -9.047977e+00 -9.580333e+00 -1.629763e+00 -3.102339e+00 -4.599288e+00 -4.548250e+00 -5.048493e+00 8.359629e-02 -2.991736e-01 1.296623e-01 4.305927e-01 9.667514e-03 -8.290642e-01 -5.818837e-01 1.603395e-01 8.957740e-02 -1.876646e-01 -1.591199e-01 -1.092843e-01 2.681427e-01
<VARIANCE> 25
 2.149308e+01 3.103732e+01 4.970968e+01 5.873264e+01 7.158559e+01 6.920425e+01 3.966159e+01 4.495304e+01 4.204121e+01 4.275245e+01 4.102441e+01 2.954641e+01 6.639252e-01 9.264812e-01 1.883231e+00 1.858640e+00 1.558079e+00 2.146437e+00 1.929194e+00 2.097977e+00 1.840118e+00 1.884095e+00 1.595546e+00 1.333590e+00 5.259222e-01
<GCONST> 9.574519e+01
<STATE> 4
<MEAN> 25
 4.036044e+00 -4.218312e+00 4.209880e+00 1.037407e+01 7.996428e+00 -6.247262e+00 -9.419474e+00 -3.331409e+00 -2.663913e+00 -2.918104e+00 -3.142705e+00 -4.376024e+00 3.821991e-02 8.336469e-01 -6.000085e-01 -1.181883e+00 -5.675405e-01 1.117856e+00 8.718380e-01 -2.187419e-01 -3.897155e-02 3.511441e-01 4.869802e-01 5.886047e-01 -5.325214e-01
<VARIANCE> 25
 1.972391e+01 3.227742e+01 4.309776e+01 5.167957e+01 5.495691e+01 6.691110e+01 3.850472e+01 4.351723e+01 4.154246e+01 3.556070e+01 3.517086e+01 2.803684e+01 6.999541e-01 1.390189e+00 1.663853e+00 1.824908e+00 1.964548e+00 2.784639e+00 2.501812e+00 2.236512e+00 2.341234e+00 2.148965e+00 1.947036e+00 1.699689e+00 1.056007e+00
<GCONST> 9.730878e+01
~t "T_i"
<ENDHMM>
~h "k-i+n"
<BEGINHMM>
<NUMSTATES> 5
<STATE> 2
<MEAN> 25
 2.824880e+00 -2.961581e+00 4.292364e+00 7.499251e+00 7.346193e+00 -2.067250e+00 -5.297520e+00 -2.873806e+00 -2.378581e+00 -1.973293e+00 -2.520489e+00 -3.736685e+00 1.015099e+00 -9.724852e-01 2.479329e-01 2.179622e+00 1.426837e+00 -2.128228e+00 -2.309814e+00 -3.848035e-01 -7.270547e-01 -7.560874e-01 -6.794949e-01 -8.365397e-01 1.175898e+00
<VARIANCE> 25
 3.374600e+01 3.967356e+01 6.750194e+01 6.375350e+01 5.781096e+01 6.437442e+01 4.980933e+01 4.415491e+01 4.445846e+01 3.540117e+01 3.356274e+01 2.704606e+01 3.132528e+00 4.137255e+00 3.621446e+00 4.487921e+00 4.215056e+00 5.312013e+00 4.005538e+00 3.824685e+00 4.409300e+00 4.209664e+00 3.923692e+00 2.984154e+00 1.617640e+00
<GCONST> 1.086541e+02
<STATE> 3
<MEAN> 25
 3.691633e+00 -6.378765e+00 6.166086e+00 1.236009e+01 7.380941e+00 -9.047977e+00 -9.580333e+00 -1.629763e+00 -3.102339e+00 -4.599288e+00 -4.548250e+00 -5.048493e+00 8.359629e-02 -2.991736e-01 1.296623e-01 4.305927e-01 9.667514e-03 -8.290642e-01 -5.818837e-01 1.603395e-01 8.957740e-02 -1.876646e-01 -1.591199e-01 -1.092843e-01 2.681427e-01
<VARIANCE> 25
 2.149308e+01 3.103732e+01 4.970968e+01 5.873264e+01 7.158559e+01 6.920425e+01 3.966159e+01 4.495304e+01 4.204121e+01 4.275245e+01 4.102441e+01 2.954641e+01 6.639252e-01 9.264812e-01 1.883231e+00 1.858640e+00 1.558079e+00 2.146437e+00 1.929194e+00 2.097977e+00 1.840118e+00 1.884095e+00 1.595546e+00 1.333590e+00 5.259222e-01
<GCONST> 9.574519e+01
<STATE> 4
<MEAN> 25
 4.036044e+00 -4.218312e+00 4.209880e+00 1.037407e+01 7.996428e+00 -6.247262e+00 -9.419474e+00 -3.331409e+00 -2.663913e+00 -2.918104e+00 -3.142705e+00 -4.376024e+00 3.821991e-02 8.336469e-01 -6.000085e-01 -1.181883e+00 -5.675405e-01 1.117856e+00 8.718380e-01 -2.187419e-01 -3.897155e-02 3.511441e-01 4.869802e-01 5.886047e-01 -5.325214e-01
<VARIANCE> 25
 1.972391e+01 3.227742e+01 4.309776e+01 5.167957e+01 5.495691e+01 6.691110e+01 3.850472e+01 4.351723e+01 4.154246e+01 3.556070e+01 3.517086e+01 2.803684e+01 6.999541e-01 1.390189e+00 1.663853e+00 1.824908e+00 1.964548e+00 2.784639e+00 2.501812e+00 2.236512e+00 2.341234e+00 2.148965e+00 1.947036e+00 1.699689e+00 1.056007e+00
<GCONST> 9.730878e+01
~t "T_i"
<ENDHMM>
~h "k-i+p"
<BEGINHMM>
<NUMSTATES> 5
<STATE> 2
<MEAN> 25
 2.824880e+00 -2.961581e+00 4.292364e+00 7.499251e+00 7.346193e+00 -2.067250e+00 -5.297520e+00 -2.873806e+00 -2.378581e+00 -1.973293e+00 -2.520489e+00 -3.736685e+00 1.015099e+00 -9.724852e-01 2.479329e-01 2.179622e+00 1.426837e+00 -2.128228e+00 -2.309814e+00 -3.848035e-01 -7.270547e-01 -7.560874e-01 -6.794949e-01 -8.365397e-01 1.175898e+00
<VARIANCE> 25
 3.374600e+01 3.967356e+01 6.750194e+01 6.375350e+01 5.781096e+01 6.437442e+01 4.980933e+01 4.415491e+01 4.445846e+01 3.540117e+01 3.356274e+01 2.704606e+01 3.132528e+00 4.137255e+00 3.621446e+00 4.487921e+00 4.215056e+00 5.312013e+00 4.005538e+00 3.824685e+00 4.409300e+00 4.209664e+00 3.923692e+00 2.984154e+00 1.617640e+00
<GCONST> 1.086541e+02
<STATE> 3
<MEAN> 25
 3.691633e+00 -6.378765e+00 6.166086e+00 1.236009e+01 7.380941e+00 -9.047977e+00 -9.580333e+00 -1.629763e+00 -3.102339e+00 -4.599288e+00 -4.548250e+00 -5.048493e+00 8.359629e-02 -2.991736e-01 1.296623e-01 4.305927e-01 9.667514e-03 -8.290642e-01 -5.818837e-01 1.603395e-01 8.957740e-02 -1.876646e-01 -1.591199e-01 -1.092843e-01 2.681427e-01
<VARIANCE> 25
 2.149308e+01 3.103732e+01 4.970968e+01 5.873264e+01 7.158559e+01 6.920425e+01 3.966159e+01 4.495304e+01 4.204121e+01 4.275245e+01 4.102441e+01 2.954641e+01 6.639252e-01 9.264812e-01 1.883231e+00 1.858640e+00 1.558079e+00 2.146437e+00 1.929194e+00 2.097977e+00 1.840118e+00 1.884095e+00 1.595546e+00 1.333590e+00 5.259222e-01
<GCONST> 9.574519e+01
<STATE> 4
<MEAN> 25
 4.036044e+00 -4.218312e+00 4.209880e+00 1.037407e+01 7.996428e+00 -6.247262e+00 -9.419474e+00 -3.331409e+00 -2.663913e+00 -2.918104e+00 -3.142705e+00 -4.376024e+00 3.821991e-02 8.336469e-01 -6.000085e-01 -1.181883e+00 -5.675405e-01 1.117856e+00 8.718380e-01 -2.187419e-01 -3.897155e-02 3.511441e-01 4.869802e-01 5.886047e-01 -5.325214e-01
<VARIANCE> 25
 1.972391e+01 3.227742e+01 4.309776e+01 5.167957e+01 5.495691e+01 6.691110e+01 3.850472e+01 4.351723e+01 4.154246e+01 3.556070e+01 3.517086e+01 2.803684e+01 6.999541e-01 1.390189e+00 1.663853e+00 1.824908e+00 1.964548e+00 2.784639e+00 2.501812e+00 2.236512e+00 2.341234e+00 2.148965e+00 1.947036e+00 1.699689e+00 1.056007e+00
<GCONST> 9.730878e+01
~t "T_i"
<ENDHMM>
~h "k-i+r"
<BEGINHMM>
<NUMSTATES> 5
<STATE> 2
<MEAN> 25
 2.824880e+00 -2.961581e+00 4.292364e+00 7.499251e+00 7.346193e+00 -2.067250e+00 -5.297520e+00 -2.873806e+00 -2.378581e+00 -1.973293e+00 -2.520489e+00 -3.736685e+00 1.015099e+00 -9.724852e-01 2.479329e-01 2.179622e+00 1.426837e+00 -2.128228e+00 -2.309814e+00 -3.848035e-01 -7.270547e-01 -7.560874e-01 -6.794949e-01 -8.365397e-01 1.175898e+00
<VARIANCE> 25
 3.374600e+01 3.967356e+01 6.750194e+01 6.375350e+01 5.781096e+01 6.437442e+01 4.980933e+01 4.415491e+01 4.445846e+01 3.540117e+01 3.356274e+01 2.704606e+01 3.132528e+00 4.137255e+00 3.621446e+00 4.487921e+00 4.215056e+00 5.312013e+00 4.005538e+00 3.824685e+00 4.409300e+00 4.209664e+00 3.923692e+00 2.984154e+00 1.617640e+00
<GCONST> 1.086541e+02
<STATE> 3
<MEAN> 25
 3.691633e+00 -6.378765e+00 6.166086e+00 1.236009e+01 7.380941e+00 -9.047977e+00 -9.580333e+00 -1.629763e+00 -3.102339e+00 -4.599288e+00 -4.548250e+00 -5.048493e+00 8.359629e-02 -2.991736e-01 1.296623e-01 4.305927e-01 9.667514e-03 -8.290642e-01 -5.818837e-01 1.603395e-01 8.957740e-02 -1.876646e-01 -1.591199e-01 -1.092843e-01 2.681427e-01
<VARIANCE> 25
 2.149308e+01 3.103732e+01 4.970968e+01 5.873264e+01 7.158559e+01 6.920425e+01 3.966159e+01 4.495304e+01 4.204121e+01 4.275245e+01 4.102441e+01 2.954641e+01 6.639252e-01 9.264812e-01 1.883231e+00 1.858640e+00 1.558079e+00 2.146437e+00 1.929194e+00 2.097977e+00 1.840118e+00 1.884095e+00 1.595546e+00 1.333590e+00 5.259222e-01
<GCONST> 9.574519e+01
<STATE> 4
<MEAN> 25
 4.036044e+00 -4.218312e+00 4.209880e+00 1.037407e+01 7.996428e+00 -6.247262e+00 -9.419474e+00 -3.331409e+00 -2.663913e+00 -2.918104e+00 -3.142705e+00 -4.376024e+00 3.821991e-02 8.336469e-01 -6.000085e-01 -1.181883e+00 -5.675405e-01 1.117856e+00 8.718380e-01 -2.187419e-01 -3.897155e-02 3.511441e-01 4.869802e-01 5.886047e-01 -5.325214e-01
<VARIANCE> 25
 1.972391e+01 3.227742e+01 4.309776e+01 5.167957e+01 5.495691e+01 6.691110e+01 3.850472e+01 4.351723e+01 4.154246e+01 3.556070e+01 3.517086e+01 2.803684e+01 6.999541e-01 1.390189e+00 1.663853e+00 1.824908e+00 1.964548e+00 2.784639e+00 2.501812e+00 2.236512e+00 2.341234e+00 2.148965e+00 1.947036e+00 1.699689e+00 1.056007e+00
<GCONST> 9.730878e+01
~t "T_i"
<ENDHMM>
~h "k-i+t"
<BEGINHMM>
<NUMSTATES> 5
<STATE> 2
<MEAN> 25
 2.824880e+00 -2.961581e+00 4.292364e+00 7.499251e+00 7.346193e+00 -2.067250e+00 -5.297520e+00 -2.873806e+00 -2.378581e+00 -1.973293e+00 -2.520489e+00 -3.736685e+00 1.015099e+00 -9.724852e-01 2.479329e-01 2.179622e+00 1.426837e+00 -2.128228e+00 -2.309814e+00 -3.848035e-01 -7.270547e-01 -7.560874e-01 -6.794949e-01 -8.365397e-01 1.175898e+00
<VARIANCE> 25
 3.374600e+01 3.967356e+01 6.750194e+01 6.375350e+01 5.781096e+01 6.437442e+01 4.980933e+01 4.415491e+01 4.445846e+01 3.540117e+01 3.356274e+01 2.704606e+01 3.132528e+00 4.137255e+00 3.621446e+00 4.487921e+00 4.215056e+00 5.312013e+00 4.005538e+00 3.824685e+00 4.409300e+00 4.209664e+00 3.923692e+00 2.984154e+00 1.617640e+00
<GCONST> 1.086541e+02
<STATE> 3
<MEAN> 25
 3.691633e+00 -6.378765e+00 6.166086e+00 1.236009e+01 7.380941e+00 -9.047977e+00 -9.580333e+00 -1.629763e+00 -3.102339e+00 -4.599288e+00 -4.548250e+00 -5.048493e+00 8.359629e-02 -2.991736e-01 1.296623e-01 4.305927e-01 9.667514e-03 -8.290642e-01 -5.818837e-01 1.603395e-01 8.957740e-02 -1.876646e-01 -1.591199e-01 -1.092843e-01 2.681427e-01
<VARIANCE> 25
 2.149308e+01 3.103732e+01 4.970968e+01 5.873264e+01 7.158559e+01 6.920425e+01 3.966159e+01 4.495304e+01 4.204121e+01 4.275245e+01 4.102441e+01 2.954641e+01 6.639252e-01 9.264812e-01 1.883231e+00 1.858640e+00 1.558079e+00 2.146437e+00 1.929194e+00 2.097977e+00 1.840118e+00 1.884095e+00 1.595546e+00 1.333590e+00 5.259222e-01
<GCONST> 9.574519e+01
<STATE> 4
<MEAN> 25
 4.036044e+00 -4.218312e+00 4.209880e+00 1.037407e+01 7.996428e+00 -6.247262e+00 -9.419474e+00 -3.331409e+00 -2.663913e+00 -2.918104e+00 -3.142705e+00 -4.376024e+00 3.821991e-02 8.336469e-01 -6.000085e-01 -1.181883e+00 -5.675405e-01 1.117856e+00 8.718380e-01 -2.187419e-01 -3.897155e-02 3.511441e-01 4.869802e-01 5.886047e-01 -5.325214e-01
<VARIANCE> 25
 1.972391e+01 3.227742e+01 4.309776e+01 5.167957e+01 5.495691e+01 6.691110e+01 3.850472e+01 4.351723e+01 4.154246e+01 3.556070e+01 3.517086e+01 2.803684e+01 6.999541e-01 1.390189e+00 1.663853e+00 1.824908e+00 1.964548e+00 2.784639e+00 2.501812e+00 2.236512e+00 2.341234e+00 2.148965e+00 1.947036e+00 1.699689e+00 1.056007e+00
<GCONST> 9.730878e+01
~t "T_i"
<ENDHMM>
~h "rr+a"
<BEGINHMM>
<NUMSTATES> 5
<STATE> 2
<MEAN> 25
 3.353537e+00 -9.142436e-01 -3.058184e+00 -3.547527e+00 3.143570e+00 1.554105e+00 -1.617299e+00 -1.135031e+00 7.034200e-01 -1.353892e+00 -9.484147e-01 7.906689e-01 3.572667e-01 9.332132e-02 -3.866347e-01 -8.697939e-02 3.757065e-01 2.881039e-01 -9.380478e-02 -1.033477e-01 -1.545185e-01 -3.527187e-01 -1.557336e-01 4.292154e-02 5.196048e-02
<VARIANCE> 25
 4.300015e+01 5.147916e+01 5.414499e+01 6.460785e+01 4.989538e+01 5.407913e+01 4.206803e+01 4.860925e+01 3.790956e+01 3.987109e+01 3.461342e+01 3.103023e+01 2.915508e+00 4.136422e+00 3.340683e+00 3.983831e+00 3.703060e+00 4.642681e+00 3.783070e+00 3.926247e+00 3.502168e+00 3.444017e+00 3.087563e+00 2.842110e+00 3.238592e+00
<GCONST> 1.080909e+02
<STATE> 3
<MEAN> 25
 7.582133e+00 1.247781e+00 -5.329599e+00 -4.675842e+00 2.104177e+00 2.665906e+00 -1.852962e+00 -2.771921e+00 -1.963075e+00 -2.989711e+00 -2.774907e+00 3.743697e-01 9.248909e-01 6.599494e-01 -7.228659e-01 -7.283572e-01 -1.813637e-01 -1.756126e-01 -3.578639e-01 -5.607713e-01 -5.978424e-01 -4.266687e-01 -3.611438e-01 -8.400698e-02 2.693413e-01
<VARIANCE> 25
 2.256667e+01 2.670186e+01 3.456329e+01 4.313871e+01 3.583524e+01 4.206372e+01 3.763231e+01 3.354306e+01 2.742425e+01 2.760290e+01 2.449686e+01 2.322071e+01 8.681712e-01 1.280364e+00 1.529286e+00 1.913779e+00 2.044108e+00 1.849371e+00 1.987761e+00 2.027984e+00 1.732651e+00 1.687739e+00 1.583756e+00 1.522920e+00 7.689877e-01
<GCONST> 9.268141e+01
<STATE> 4
<MEAN> 25
 1.009247e+01 1.486915e+00 -8.246142e+00 -5.120526e+00 2.065458e+00 1.025245e+00 -3.525442e+00 -4.038950e+00 -2.868468e+00 -3.264583e+00 -2.356816e+00 1.102997e+00 1.186399e-01 -2.301981e-01 -1.140983e-01 1.072073e-01 3.884058e-02 -7.065016e-01 -3.659014e-01 -8.380543e-02 -9.820130e-02 1.017236e-01 2.038886e-01 1.326848e-01 3.107538e-01
<VARIANCE> 25
 3.007746e+01 2.656600e+01 4.011358e+01 4.749679e+01 3.734233e+01 3.581827e+01 3.574841e+01 3.924471e+01 3.173490e+01 2.907249e+01 2.628150e+01 2.564830e+01 4.615683e-01 8.872818e-01 9.988760e-01 1.540743e+00 1.448741e+00 1.726679e+00 1.611915e+00 1.678023e+00 1.689305e+00 1.443329e+00 1.524528e+00 1.506498e+00 5.601036e-01
<GCONST> 9.056165e+01
~t "T_rr"
<ENDHMM>
~h "rr+e"
<BEGINHMM>
<NUMSTATES> 5
<STATE> 2
<MEAN> 25
 3.353537e+00 -9.142436e-01 -3.058184e+00 -3.547527e+00 3.143570e+00 1.554105e+00 -1.617299e+00 -1.135031e+00 7.034200e-01 -1.353892e+00 -9.484147e-01 7.906689e-01 3.572667e-01 9.332132e-02 -3.866347e-01 -8.697939e-02 3.757065e-01 2.881039e-01 -9.380478e-02 -1.033477e-01 -1.545185e-01 -3.527187e-01 -1.557336e-01 4.292154e-02 5.196048e-02
<VARIANCE> 25
 4.300015e+01 5.147916e+01 5.414499e+01 6.460785e+01 4.989538e+01 5.407913e+01 4.206803e+01 4.860925e+01 3.790956e+01 3.987109e+01 3.461342e+01 3.103023e+01 2.915508e+00 4.136422e+00 3.340683e+00 3.983831e+00 3.703060e+00 4.642681e+00 3.783070e+00 3.926247e+00 3.502168e+00 3.444017e+00 3.087563e+00 2.842110e+00 3.238592e+00
<GCONST> 1.080909e+02
<STATE> 3
<MEAN> 25
 7.582133e+00 1.247781e+00 -5.329599e+00 -4.675842e+00 2.104177e+00 2.665906e+00 -1.852962e+00 -2.771921e+00 -1.963075e+00 -2.989711e+00 -2.774907e+00 3.743697e-01 9.248909e-01 6.599494e-01 -7.228659e-01 -7.283572e-01 -1.813637e-01 -1.756126e-01 -3.578639e-01 -5.607713e-01 -5.978424e-01 -4.266687e-01 -3.611438e-01 -8.400698e-02 2.693413e-01
<VARIANCE> 25
 2.256667e+01 2.670186e+01 3.456329e+01 4.313871e+01 3.583524e+01 4.206372e+01 3.763231e+01 3.354306e+01 2.742425e+01 2.760290e+01 2.449686e+01 2.322071e+01 8.681712e-01 1.280364e+00 1.529286e+00 1.913779e+00 2.044108e+00 1.849371e+00 1.987761e+00 2.027984e+00 1.732651e+00 1.687739e+00 1.583756e+00 1.522920e+00 7.689877e-01
<GCONST> 9.268141e+01
<STATE> 4
<MEAN> 25
 1.009247e+01 1.486915e+00 -8.246142e+00 -5.120526e+00 2.065458e+00 1.025245e+00 -3.525442e+00 -4.038950e+00 -2.868468e+00 -3.264583e+00 -2.356816e+00 1.102997e+00 1.186399e-01 -2.301981e-01 -1.140983e-01 1.072073e-01 3.884058e-02 -7.065016e-01 -3.659014e-01 -8.380543e-02 -9.820130e-02 1.017236e-01 2.038886e-01 1.326848e-01 3.107538e-01
<VARIANCE> 25
 3.007746e+01 2.656600e+01 4.011358e+01 4.749679e+01 3.734233e+01 3.581827e+01 3.574841e+01 3.924471e+01 3.173490e+01 2.907249e+01 2.628150e+01 2.564830e+01 4.615683e-01 8.872818e-01 9.988760e-01 1.540743e+00 1.448741e+00 1.726679e+00 1.611915e+00 1.678023e+00 1.689305e+00 1.443329e+00 1.524528e+00 1.506498e+00 5.601036e-01
<GCONST> 9.056165e+01
~t "T_rr"
<ENDHMM>
~h "rr+i"
<BEGINHMM>
<NUMSTATES> 5
<STATE> 2
<MEAN> 25
 3.353537e+00 -9.142436e-01 -3.058184e+00 -3.547527e+00 3.143570e+00 1.554105e+00 -1.617299e+00 -1.135031e+00 7.034200e-01 -1.353892e+00 -9.484147e-01 7.906689e-01 3.572667e-01 9.332132e-02 -3.866347e-01 -8.697939e-02 3.757065e-01 2.881039e-01 -9.380478e-02 -1.033477e-01 -1.545185e-01 -3.527187e-01 -1.557336e-01 4.292154e-02 5.196048e-02
<VARIANCE> 25
 4.300015e+01 5.147916e+01 5.414499e+01 6.460785e+01 4.989538e+01 5.407913e+01 4.206803e+01 4.860925e+01 3.790956e+01 3.987109e+01 3.461342e+01 3.103023e+01 2.915508e+00 4.136422e+00 3.340683e+00 3.983831e+00 3.703060e+00 4.642681e+00 3.783070e+00 3.926247e+00 3.502168e+00 3.444017e+00 3.087563e+00 2.842110e+00 3.238592e+00
<GCONST> 1.080909e+02
<STATE> 3
<MEAN> 25
 7.582133e+00 1.247781e+00 -5.329599e+00 -4.675842e+00 2.104177e+00 2.665906e+00 -1.852962e+00 -2.771921e+00 -1.963075e+00 -2.989711e+00 -2.774907e+00 3.743697e-01 9.248909e-01 6.599494e-01 -7.228659e-01 -7.283572e-01 -1.813637e-01 -1.756126e-01 -3.578639e-01 -5.607713e-01 -5.978424e-01 -4.266687e-01 -3.611438e-01 -8.400698e-02 2.693413e-01
<VARIANCE> 25
 2.256667e+01 2.670186e+01 3.456329e+01 4.313871e+01 3.583524e+01 4.206372e+01 3.763231e+01 3.354306e+01 2.742425e+01 2.760290e+01 2.449686e+01 2.322071e+01 8.681712e-01 1.280364e+00 1.529286e+00 1.913779e+00 2.044108e+00 1.849371e+00 1.987761e+00 2.027984e+00 1.732651e+00 1.687739e+00 1.583756e+00 1.522920e+00 7.689877e-01
<GCONST> 9.268141e+01
<STATE> 4
<MEAN> 25
 1.009247e+01 1.486915e+00 -8.246142e+00 -5.120526e+00 2.065458e+00 1.025245e+00 -3.525442e+00 -4.038950e+00 -2.868468e+00 -3.264583e+00 -2.356816e+00 1.102997e+00 1.186399e-01 -2.301981e-01 -1.140983e-01 1.072073e-01 3.884058e-02 -7.065016e-01 -3.659014e-01 -8.380543e-02 -9.820130e-02 1.017236e-01 2.038886e-01 1.326848e-01 3.107538e-01
<VARIANCE> 25
 3.007746e+01 2.656600e+01 4.011358e+01 4.749679e+01 3.734233e+01 3.581827e+01 3.574841e+01 3.924471e+01 3.173490e+01 2.907249e+01 2.628150e+01 2.564830e+01 4.615683e-01 8.872818e-01 9.988760e-01 1.540743e+00 1.448741e+00 1.726679e+00 1.611915e+00 1.678023e+00 1.689305e+00 1.443329e+00 1.524528e+00 1.506498e+00 5.601036e-01
<GCONST> 9.056165e+01
~t "T_rr"
<ENDHMM>
~h "rr+o"
<BEGINHMM>
<NUMSTATES> 5
<STATE> 2
<MEAN> 25
 3.353537e+00 -9.142436e-01 -3.058184e+00 -3.547527e+00 3.143570e+00 1.554105e+00 -1.617299e+00 -1.135031e+00 7.034200e-01 -1.353892e+00 -9.484147e-01 7.906689e-01 3.572667e-01 9.332132e-02 -3.866347e-01 -8.697939e-02 3.757065e-01 2.881039e-01 -9.380478e-02 -1.033477e-01 -1.545185e-01 -3.527187e-01 -1.557336e-01 4.292154e-02 5.196048e-02
<VARIANCE> 25
 4.300015e+01 5.147916e+01 5.414499e+01 6.460785e+01 4.989538e+01 5.407913e+01 4.206803e+01 4.860925e+01 3.790956e+01 3.987109e+01 3.461342e+01 3.103023e+01 2.915508e+00 4.136422e+00 3.340683e+00 3.983831e+00 3.703060e+00 4.642681e+00 3.783070e+00 3.926247e+00 3.502168e+00 3.444017e+00 3.087563e+00 2.842110e+00 3.238592e+00
<GCONST> 1.080909e+02
<STATE> 3
<MEAN> 25
 7.582133e+00 1.247781e+00 -5.329599e+00 -4.675842e+00 2.104177e+00 2.665906e+00 -1.852962e+00 -2.771921e+00 -1.963075e+00 -2.989711e+00 -2.774907e+00 3.743697e-01 9.248909e-01 6.599494e-01 -7.228659e-01 -7.283572e-01 -1.813637e-01 -1.756126e-01 -3.578639e-01 -5.607713e-01 -5.978424e-01 -4.266687e-01 -3.611438e-01 -8.400698e-02 2.693413e-01
<VARIANCE> 25
 2.256667e+01 2.670186e+01 3.456329e+01 4.313871e+01 3.583524e+01 4.206372e+01 3.763231e+01 3.354306e+01 2.742425e+01 2.760290e+01 2.449686e+01 2.322071e+01 8.681712e-01 1.280364e+00 1.529286e+00 1.913779e+00 2.044108e+00 1.849371e+00 1.987761e+00 2.027984e+00 1.732651e+00 1.687739e+00 1.583756e+00 1.522920e+00 7.689877e-01
<GCONST> 9.268141e+01
<STATE> 4
<MEAN> 25
 1.009247e+01 1.486915e+00 -8.246142e+00 -5.120526e+00 2.065458e+00 1.025245e+00 -3.525442e+00 -4.038950e+00 -2.868468e+00 -3.264583e+00 -2.356816e+00 1.102997e+00 1.186399e-01 -2.301981e-01 -1.140983e-01 1.072073e-01 3.884058e-02 -7.065016e-01 -3.659014e-01 -8.380543e-02 -9.820130e-02 1.017236e-01 2.038886e-01 1.326848e-01 3.107538e-01
<VARIANCE> 25
 3.007746e+01 2.656600e+01 4.011358e+01 4.749679e+01 3.734233e+01 3.581827e+01 3.574841e+01 3.924471e+01 3.173490e+01 2.907249e+01 2.628150e+01 2.564830e+01 4.615683e-01 8.872818e-01 9.988760e-01 1.540743e+00 1.448741e+00 1.726679e+00 1.611915e+00 1.678023e+00 1.689305e+00 1.443329e+00 1.524528e+00 1.506498e+00 5.601036e-01
<GCONST> 9.056165e+01
~t "T_rr"
<ENDHMM>
~h "rr+u"
<BEGINHMM>
<NUMSTATES> 5
<STATE> 2
<MEAN> 25
 3.353537e+00 -9.142436e-01 -3.058184e+00 -3.547527e+00 3.143570e+00 1.554105e+00 -1.617299e+00 -1.135031e+00 7.034200e-01 -1.353892e+00 -9.484147e-01 7.906689e-01 3.572667e-01 9.332132e-02 -3.866347e-01 -8.697939e-02 3.757065e-01 2.881039e-01 -9.380478e-02 -1.033477e-01 -1.545185e-01 -3.527187e-01 -1.557336e-01 4.292154e-02 5.196048e-02
<VARIANCE> 25
 4.300015e+01 5.147916e+01 5.414499e+01 6.460785e+01 4.989538e+01 5.407913e+01 4.206803e+01 4.860925e+01 3.790956e+01 3.987109e+01 3.461342e+01 3.103023e+01 2.915508e+00 4.136422e+00 3.340683e+00 3.983831e+00 3.703060e+00 4.642681e+00 3.783070e+00 3.926247e+00 3.502168e+00 3.444017e+00 3.087563e+00 2.842110e+00 3.238592e+00
<GCONST> 1.080909e+02
<STATE> 3
<MEAN> 25
 7.582133e+00 1.247781e+00 -5.329599e+00 -4.675842e+00 2.104177e+00 2.665906e+00 -1.852962e+00 -2.771921e+00 -1.963075e+00 -2.989711e+00 -2.774907e+00 3.743697e-01 9.248909e-01 6.599494e-01 -7.228659e-01 -7.283572e-01 -1.813637e-01 -1.756126e-01 -3.578639e-01 -5.607713e-01 -5.978424e-01 -4.266687e-01 -3.611438e-01 -8.400698e-02 2.693413e-01
<VARIANCE> 25
 2.256667e+01 2.670186e+01 3.456329e+01 4.313871e+01 3.583524e+01 4.206372e+01 3.763231e+01 3.354306e+01 2.742425e+01 2.760290e+01 2.449686e+01 2.322071e+01 8.681712e-01 1.280364e+00 1.529286e+00 1.913779e+00 2.044108e+00 1.849371e+00 1.987761e+00 2.027984e+00 1.732651e+00 1.687739e+00 1.583756e+00 1.522920e+00 7.689877e-01
<GCONST> 9.268141e+01
<STATE> 4
<MEAN> 25
 1.009247e+01 1.486915e+00 -8.246142e+00 -5.120526e+00 2.065458e+00 1.025245e+00 -3.525442e+00 -4.038950e+00 -2.868468e+00 -3.264583e+00 -2.356816e+00 1.102997e+00 1.186399e-01 -2.301981e-01 -1.140983e-01 1.072073e-01 3.884058e-02 -7.065016e-01 -3.659014e-01 -8.380543e-02 -9.820130e-02 1.017236e-01 2.038886e-01 1.326848e-01 3.107538e-01
<VARIANCE> 25
 3.007746e+01 2.656600e+01 4.011358e+01 4.749679e+01 3.734233e+01 3.581827e+01 3.574841e+01 3.924471e+01 3.173490e+01 2.907249e+01 2.628150e+01 2.564830e+01 4.615683e-01 8.872818e-01 9.988760e-01 1.540743e+00 1.448741e+00 1.726679e+00 1.611915e+00 1.678023e+00 1.689305e+00 1.443329e+00 1.524528e+00 1.506498e+00 5.601036e-01
<GCONST> 9.056165e+01
~t "T_rr"
<ENDHMM>
~h "rr-a"
<BEGINHMM>
<NUMSTATES> 5
<STATE> 2
<MEAN> 25
 8.084209e+00 -3.246555e+00 -4.886938e+00 -2.890126e+00 -1.922659e+00 -4.591505e+00 -1.062124e+00 -1.533606e+00 -3.011539e+00 -1.419097e+00 7.822737e-01 1.974153e+00 8.531939e-01 -1.219489e+00 -1.591901e+00 -1.511451e+00 -1.099942e+00 -1.081241e+00 3.296968e-01 2.435892e-01 2.131322e-01 7.433307e-01 1.096173e+00 1.076555e+00 1.531909e+00
<VARIANCE> 25
 3.102556e+01 3.982352e+01 4.648204e+01 6.052976e+01 4.865224e+01 5.364120e+01 4.957391e+01 5.206113e+01 4.994263e+01 4.377484e+01 3.566540e+01 3.010361e+01 2.105191e+00 2.133569e+00 2.607650e+00 3.361774e+00 2.917656e+00 3.954443e+00 3.398865e+00 3.319243e+00 3.668817e+00 4.076825e+00 3.093344e+00 2.673295e+00 1.675560e+00
<GCONST> 1.052759e+02
<STATE> 3
<MEAN> 25
 9.462610e+00 -6.897775e+00 -8.743549e+00 -6.083593e+00 -4.604442e+00 -5.470979e+00 1.397076e+00 -2.830499e-01 -1.629562e+00 7.007640e-01 2.659651e+00 3.340820e+00 3.290816e-02 -1.735238e-01 -3.625012e-01 -3.627358e-01 -1.769637e-01 2.254089e-01 4.766614e-01 2.827543e-01 2.371980e-01 1.767752e-01 8.445666e-02 6.974697e-02 8.193482e-02
<VARIANCE> 25
 2.840129e+01 3.570125e+01 4.138834e+01 4.038225e+01 4.118876e+01 4.148624e+01 4.739182e+01 4.747406e+01 4.473821e+01 4.189992e+01 3.449903e+01 2.805832e+01 3.302394e-01 8.424883e-01 9.393210e-01 1.242460e+00 1.324397e+00 1.496400e+00 1.901740e+00 1.780651e+00 1.803969e+00 1.726919e+00 1.430944e+00 1.179275e+00 3.783611e-01
<GCONST> 9.133002e+01
<STATE> 4
<MEAN> 25
 8.177530e+00 -2.680661e+00 -7.293503e+00 -5.932261e+00 -3.758124e+00 -2.794274e+00 1.176165e+00 -3.390664e-01 -1.368642e+00 2.573896e-01 2.133668e+00 3.287408e+00 -4.538044e-01 8.704351e-01 7.276899e-01 4.679444e-01 4.150407e-01 5.706517e-01 -1.937626e-01 -1.382255e-01 1.753797e-02 -1.629017e-01 -2.942949e-01 -3.140077e-01 -8.826797e-01
<VARIANCE> 25
 2.215926e+01 3.099335e+01 3.486272e+01 3.668752e+01 3.283007e+01 3.965223e+01 3.500597e+01 3.826480e+01 3.512437e+01 3.170736e+01 2.563973e+01 2.200531e+01 5.861269e-01 9.910762e-01 1.080531e+00 1.252255e+00 1.395680e+00 1.835312e+00 1.787168e+00 1.826652e+00 1.993582e+00 1.853269e+00 1.609923e+00 1.318195e+00 6.483233e-01
<GCONST> 9.086413e+01
~t "T_a"
<ENDHMM>
~h "rr-e"
<BEGINHMM>
<NUMSTATES> 5
<STATE> 2
<MEAN> 25
 4.917822e+00 -3.046909e+00 -7.860230e-01 1.961976e+00 3.296882e+00 -3.095960e+00 -4.445966e+00 -4.378197e+00 -4.194638e+00 -1.446952e+00 1.146220e-01 1.648807e-01 1.062938e+00 -1.285595e+00 -6.981800e-01 4.423747e-01 5.001229e-01 -1.895295e+00 -1.787762e+00 -1.308817e+00 -1.084860e+00 1.344622e-01 6.617222e-01 3.701210e-01 1.670173e+00
<VARIANCE> 25
 3.577217e+01 3.706077e+01 4.774310e+01 6.015227e+01 4.925949e+01 6.036604e+01 5.010396e+01 4.977269e+01 4.858726e+01 3.950971e+01 3.013842e+01 2.473536e+01 2.384392e+00 2.958043e+00 2.685448e+00 3.858023e+00 3.340221e+00 5.064232e+00 4.063103e+00 3.681123e+00 4.037725e+00 4.174648e+00 3.332788e+00 2.898063e+00 2.226966e+00
<GCONST> 1.068105e+02
<STATE> 3
<MEAN> 25
 7.191195e+00 -7.001473e+00 -2.328277e+00 2.836691e+00 3.888689e+00 -7.911126e+00 -8.482172e+00 -6.657192e+00 -5.470276e+00 -1.285404e-01 1.987994e+00 7.147580e-01 8.514885e-02 -4.249433e-01 -1.496204e-01 2.818093e-01 1.203487e-01 -6.073316e-01 -4.420330e-01 -1.406531e-01 1.603031e-01 5.093133e-01 3.347531e-01 -4.041983e-02 2.952766e-01
<VARIANCE> 25
 2.837927e+01 3.550758e+01 4.376701e+01 6.339727e+01 5.782299e+01 6.153004e+01 4.445435e+01 4.665985e+01 4.438187e+01 4.603452e+01 3.686113e+01 3.249733e+01 5.579238e-01 9.633060e-01 1.396090e+00 1.826277e+00 1.583154e+00 2.003756e+00 1.982185e+00 1.856537e+00 2.013892e+00 2.006657e+00 1.751121e+00 1.508502e+00 5.828047e-01
<GCONST> 9.591582e+01
<STATE> 4
<MEAN> 25
 5.895019e+00 -4.724988e+00 -1.197292e+00 3.906052e+00 3.870449e+00 -6.545651e+00 -8.215060e+00 -6.679025e+00 -4.172563e+00 5.337154e-01 9.279272e-01 -6.742178e-01 -3.232698e-01 7.992764e-01 3.300467e-01 -6.339286e-02 7.912491e-02 1.004552e+00 6.088396e-01 3.772415e-01 3.436322e-01 -1.313366e-01 -2.720630e-01 -1.298955e-01 -7.956876e-01
<VARIANCE> 25
 2.029749e+01 3.066547e+01 3.368494e+01 5.057070e+01 4.296806e+01 5.593891e+01 3.659196e+01 3.710094e+01 4.034227e+01 3.575679e+01 3.262199e+01 2.925796e+01 5.569103e-01 1.011105e+00 1.171097e+00 1.448238e+00 1.440968e+00 2.011663e+00 1.814593e+00 1.739066e+00 1.905525e+00 1.867028e+00 1.539982e+00 1.274082e+00 7.538318e-01
<GCONST> 9.278246e+01
~t "T_e"
<ENDHMM>
~h "rr-o"
<BEGINHMM>
<NUMSTATES> 5
<STATE> 2
<MEAN> 25
 8.202134e+00 8.756948e-01 -1.556870e+00 -2.412576e+00 -4.135490e+00 -5.283045e+00 -1.325630e+00 5.514442e-01 -3.256593e+00 -4.464030e+00 -3.179199e+00 -1.018459e+00 8.533680e-01 5.628624e-02 -4.272498e-01 -1.163086e+00 -1.742013e+00 -1.833407e+00 -1.006363e-01 8.327968e-01 2.565329e-01 -1.784475e-01 -2.551433e-01 1.000556e-01 7.841955e-01
<VARIANCE> 25
 2.727819e+01 4.614404e+01 4.546624e+01 5.624189e+01 6.257309e+01 6.102062e+01 4.518742e+01 4.939813e+01 5.469617e+01 4.219932e+01 3.056493e+01 2.847985e+01 1.604221e+00 2.714622e+00 2.414845e+00 3.306103e+00 3.399673e+00 4.293542e+00 4.410888e+00 3.910635e+00 3.812121e+00 3.509329e+00 2.851977e+00 2.694980e+00 1.552250e+00
<GCONST> 1.055529e+02
<STATE> 3
<MEAN> 25
 9.608891e+00 1.841884e+00 -1.624231e+00 -4.843653e+00 -1.056682e+01 -1.047259e+01 -3.275502e-01 4.228262e+00 -8.981493e-01 -3.707518e+00 -3.771726e+00 -1.847208e+00 -1.603226e-01 3.746803e-01 2.492852e-02 -5.283350e-02 -1.316152e-01 2.060792e-01 2.320018e-01 3.473101e-01 4.636069e-01 2.421327e-01 -1.011645e-03 -9.001540e-02 -4.208844e-01
<VARIANCE> 25
 2.191664e+01 3.832346e+01 3.536129e+01 4.552036e+01 5.146196e+01 5.402416e+01 4.532333e+01 4.316967e+01 5.194213e+01 3.791486e+01 2.724122e+01 2.477335e+01 5.759985e-01 1.296905e+00 1.329783e+00 1.436117e+00 2.015944e+00 2.854960e+00 1.984985e+00 2.227589e+00 2.343580e+00 2.045362e+00 1.638120e+00 1.449960e+00 1.066268e+00
<GCONST> 9.576168e+01
<STATE> 4
<MEAN> 25
 5.920141e+00 4.729104e+00 -6.619071e-01 -3.592440e+00 -6.668617e+00 -4.437122e+00 3.776827e-01 3.175261e+00 9.050462e-01 -1.454790e+00 -2.326509e+00 -1.249121e+00 -6.257654e-01 -3.906129e-02 1.678127e-01 4.218079e-01 7.039407e-01 9.980335e-01 2.885799e-01 -2.038472e-01 -1.773957e-02 1.877047e-01 2.155907e-01 8.154663e-02 -5.345345e-01
<VARIANCE> 25
 2.381943e+01 3.168683e+01 3.073319e+01 3.372535e+01 3.205265e+01 4.222814e+01 3.201194e+01 3.300840e+01 3.498757e+01 3.150789e+01 2.243595e+01 1.901501e+01 4.852379e-01 7.335701e-01 1.011674e+00 1.084659e+00 1.496157e+00 1.967000e+00 1.648281e+00 1.688958e+00 1.686677e+00 1.518985e+00 1.305284e+00 1.193857e+00 3.831035e-01
<GCONST> 8.833953e+01
~t "T_o"
<ENDHMM>
~h "x-e+d"
<BEGINHMM>
<NUMSTATES> 5
<STATE> 2
<MEAN> 25
 4.917822e+00 -3.046909e+00 -7.860230e-01 1.961976e+00 3.296882e+00 -3.095960e+00 -4.445966e+00 -4.378197e+00 -4.194638e+00 -1.446952e+00 1.146220e-01 1.648807e-01 1.062938e+00 -1.285595e+00 -6.981800e-01 4.423747e-01 5.001229e-01 -1.895295e+00 -1.787762e+00 -1.308817e+00 -1.084860e+00 1.344622e-01 6.617222e-01 3.701210e-01 1.670173e+00
<VARIANCE> 25
 3.577217e+01 3.706077e+01 4.774310e+01 6.015227e+01 4.925949e+01 6.036604e+01 5.010396e+01 4.977269e+01 4.858726e+01 3.950971e+01 3.013842e+01 2.473536e+01 2.384392e+00 2.958043e+00 2.685448e+00 3.858023e+00 3.340221e+00 5.064232e+00 4.063103e+00 3.681123e+00 4.037725e+00 4.174648e+00 3.332788e+00 2.898063e+00 2.226966e+00
<GCONST> 1.068105e+02
<STATE> 3
<MEAN> 25
 7.191195e+00 -7.001473e+00 -2.328277e+00 2.836691e+00 3.888689e+00 -7.911126e+00 -8.482172e+00 -6.657192e+00 -5.470276e+00 -1.285404e-01 1.987994e+00 7.147580e-01 8.514885e-02 -4.249433e-01 -1.496204e-01 2.818093e-01 1.203487e-01 -6.073316e-01 -4.420330e-01 -1.406531e-01 1.603031e-01 5.093133e-01 3.347531e-01 -4.041983e-02 2.952766e-01
<VARIANCE> 25
 2.837927e+01 3.550758e+01 4.376701e+01 6.339727e+01 5.782299e+01 6.153004e+01 4.445435e+01 4.665985e+01 4.438187e+01 4.603452e+01 3.686113e+01 3.249733e+01 5.579238e-01 9.633060e-01 1.396090e+00 1.826277e+00 1.583154e+00 2.003756e+00 1.982185e+00 1.856537e+00 2.013892e+00 2.006657e+00 1.751121e+00 1.508502e+00 5.828047e-01
<GCONST> 9.591582e+01
<STATE> 4
<MEAN> 25
 5.895019e+00 -4.724988e+00 -1.197292e+00 3.906052e+00 3.870449e+00 -6.545651e+00 -8.215060e+00 -6.679025e+00 -4.172563e+00 5.337154e-01 9.279272e-01 -6.742178e-01 -3.232698e-01 7.992764e-01 3.300467e-01 -6.339286e-02 7.912491e-02 1.004552e+00 6.088396e-01 3.772415e-01 3.436322e-01 -1.313366e-01 -2.720630e-01 -1.298955e-01 -7.956876e-01
<VARIANCE> 25
 2.029749e+01 3.066547e+01 3.368494e+01 5.057070e+01 4.296806e+01 5.593891e+01 3.659196e+01 3.710094e+01 4.034227e+01 3.575679e+01 3.262199e+01 2.925796e+01 5.569103e-01 1.011105e+00 1.171097e+00 1.448238e+00 1.440968e+00 2.011663e+00 1.814593e+00 1.739066e+00 1.905525e+00 1.867028e+00 1.539982e+00 1.274082e+00 7.538318e-01
<GCONST> 9.278246e+01
~t "T_e"
<ENDHMM>
~h "x-e+k"
<BEGINHMM>
<NUMSTATES> 5
<STATE> 2
<MEAN> 25
 4.917822e+00 -3.046909e+00 -7.860230e-01 1.961976e+00 3.296882e+00 -3.095960e+00 -4.445966e+00 -4.378197e+00 -4.194638e+00 -1.446952e+00 1.146220e-01 1.648807e-01 1.062938e+00 -1.285595e+00 -6.981800e-01 4.423747e-01 5.001229e-01 -1.895295e+00 -1.787762e+00 -1.308817e+00 -1.084860e+00 1.344622e-01 6.617222e-01 3.701210e-01 1.670173e+00
<VARIANCE> 25
 3.577217e+01 3.706077e+01 4.774310e+01 6.015227e+01 4.925949e+01 6.036604e+01 5.010396e+01 4.977269e+01 4.858726e+01 3.950971e+01 3.013842e+01 2.473536e+01 2.384392e+00 2.958043e+00 2.685448e+00 3.858023e+00 3.340221e+00 5.064232e+00 4.063103e+00 3.681123e+00 4.037725e+00 4.174648e+00 3.332788e+00 2.898063e+00 2.226966e+00
<GCONST> 1.068105e+02
<STATE> 3
<MEAN> 25
 7.191195e+00 -7.001473e+00 -2.328277e+00 2.836691e+00 3.888689e+00 -7.911126e+00 -8.482172e+00 -6.657192e+00 -5.470276e+00 -1.285404e-01 1.987994e+00 7.147580e-01 8.514885e-02 -4.249433e-01 -1.496204e-01 2.818093e-01 1.203487e-01 -6.073316e-01 -4.420330e-01 -1.406531e-01 1.603031e-01 5.093133e-01 3.347531e-01 -4.041983e-02 2.952766e-01
<VARIANCE> 25
 2.837927e+01 3.550758e+01 4.376701e+01 6.339727e+01 5.782299e+01 6.153004e+01 4.445435e+01 4.665985e+01 4.438187e+01 4.603452e+01 3.686113e+01 3.249733e+01 5.579238e-01 9.633060e-01 1.396090e+00 1.826277e+00 1.583154e+00 2.003756e+00 1.982185e+00 1.856537e+00 2.013892e+00 2.006657e+00 1.751121e+00 1.508502e+00 5.828047e-01
<GCONST> 9.591582e+01
<STATE> 4
<MEAN> 25
 5.895019e+00 -4.724988e+00 -1.197292e+00 3.906052e+00 3.870449e+00 -6.545651e+00 -8.215060e+00 -6.679025e+00 -4.172563e+00 5.337154e-01 9.279272e-01 -6.742178e-01 -3.232698e-01 7.992764e-01 3.300467e-01 -6.339286e-02 7.912491e-02 1.004552e+00 6.088396e-01 3.772415e-01 3.436322e-01 -1.313366e-01 -2.720630e-01 -1.298955e-01 -7.956876e-01
<VARIANCE> 25
 2.029749e+01 3.066547e+01 3.368494e+01 5.057070e+01 4.296806e+01 5.593891e+01 3.659196e+01 3.710094e+01 4.034227e+01 3.575679e+01 3.262199e+01 2.925796e+01 5.569103e-01 1.011105e+00 1.171097e+00 1.448238e+00 1.440968e+00 2.011663e+00 1.814593e+00 1.739066e+00 1.905525e+00 1.867028e+00 1.539982e+00 1.274082e+00 7.538318e-01
<GCONST> 9.278246e+01
~t "T_e"
<ENDHMM>
~h "x-e+m"
<BEGINHMM>
<NUMSTATES> 5
<STATE> 2
<MEAN> 25
 4.917822e+00 -3.046909e+00 -7.860230e-01 1.961976e+00 3.296882e+00 -3.095960e+00 -4.445966e+00 -4.378197e+00 -4.194638e+00 -1.446952e+00 1.146220e-01 1.648807e-01 1.062938e+00 -1.285595e+00 -6.981800e-01 4.423747e-01 5.001229e-01 -1.895295e+00 -1.787762e+00 -1.308817e+00 -1.084860e+00 1.344622e-01 6.617222e-01 3.701210e-01 1.670173e+00
<VARIANCE> 25
 3.577217e+01 3.706077e+01 4.774310e+01 6.015227e+01 4.925949e+01 6.036604e+01 5.010396e+01 4.977269e+01 4.858726e+01 3.950971e+01 3.013842e+01 2.473536e+01 2.384392e+00 2.958043e+00 2.685448e+00 3.858023e+00 3.340221e+00 5.064232e+00 4.063103e+00 3.681123e+00 4.037725e+00 4.174648e+00 3.332788e+00 2.898063e+00 2.226966e+00
<GCONST> 1.068105e+02
<STATE> 3
<MEAN> 25
 7.191195e+00 -7.001473e+00 -2.328277e+00 2.836691e+00 3.888689e+00 -7.911126e+00 -8.482172e+00 -6.657192e+00 -5.470276e+00 -1.285404e-01 1.987994e+00 7.147580e-01 8.514885e-02 -4.249433e-01 -1.496204e-01 2.818093e-01 1.203487e-01 -6.073316e-01 -4.420330e-01 -1.406531e-01 1.603031e-01 5.093133e-01 3.347531e-01 -4.041983e-02 2.952766e-01
<VARIANCE> 25
 2.837927e+01 3.550758e+01 4.376701e+01 6.339727e+01 5.782299e+01 6.153004e+01 4.445435e+01 4.665985e+01 4.438187e+01 4.603452e+01 3.686113e+01 3.249733e+01 5.579238e-01 9.633060e-01 1.396090e+00 1.826277e+00 1.583154e+00 2.003756e+00 1.982185e+00 1.856537e+00 2.013892e+00 2.006657e+00 1.751121e+00 1.508502e+00 5.828047e-01
<GCONST> 9.591582e+01
<STATE> 4
<MEAN> 25
 5.895019e+00 -4.724988e+00 -1.197292e+00 3.906052e+00 3.870449e+00 -6.545651e+00 -8.215060e+00 -6.679025e+00 -4.172563e+00 5.337154e-01 9.279272e-01 -6.742178e-01 -3.232698e-01 7.992764e-01 3.300467e-01 -6.339286e-02 7.912491e-02 1.004552e+00 6.088396e-01 3.772415e-01 3.436322e-01 -1.313366e-01 -2.720630e-01 -1.298955e-01 -7.956876e-01
<VARIANCE> 25
 2.029749e+01 3.066547e+01 3.368494e+01 5.057070e+01 4.296806e+01 5.593891e+01 3.659196e+01 3.710094e+01 4.034227e+01 3.575679e+01 3.262199e+01 2.925796e+01 5.569103e-01 1.011105e+00 1.171097e+00 1.448238e+00 1.440968e+00 2.011663e+00 1.814593e+00 1.739066e+00 1.905525e+00 1.867028e+00 1.539982e+00 1.274082e+00 7.538318e-01
<GCONST> 9.278246e+01
~t "T_e"
<ENDHMM>
~h "x-e+n"
<BEGINHMM>
<NUMSTATES> 5
<STATE> 2
<MEAN> 25
 4.917822e+00 -3.046909e+00 -7.860230e-01 1.961976e+00 3.296882e+00 -3.095960e+00 -4.445966e+00 -4.378197e+00 -4.194638e+00 -1.446952e+00 1.146220e-01 1.648807e-01 1.062938e+00 -1.285595e+00 -6.981800e-01 4.423747e-01 5.001229e-01 -1.895295e+00 -1.787762e+00 -1.308817e+00 -1.084860e+00 1.344622e-01 6.617222e-01 3.701210e-01 1.670173e+00
<VARIANCE> 25
 3.577217e+01 3.706077e+01 4.774310e+01 6.015227e+01 4.925949e+01 6.036604e+01 5.010396e+01 4.977269e+01 4.858726e+01 3.950971e+01 3.013842e+01 2.473536e+01 2.384392e+00 2.958043e+00 2.685448e+00 3.858023e+00 3.340221e+00 5.064232e+00 4.063103e+00 3.681123e+00 4.037725e+00 4.174648e+00 3.332788e+00 2.898063e+00 2.226966e+00
<GCONST> 1.068105e+02
<STATE> 3
<MEAN> 25
 7.191195e+00 -7.001473e+00 -2.328277e+00 2.836691e+00 3.888689e+00 -7.911126e+00 -8.482172e+00 -6.657192e+00 -5.470276e+00 -1.285404e-01 1.987994e+00 7.147580e-01 8.514885e-02 -4.249433e-01 -1.496204e-01 2.818093e-01 1.203487e-01 -6.073316e-01 -4.420330e-01 -1.406531e-01 1.603031e-01 5.093133e-01 3.347531e-01 -4.041983e-02 2.952766e-01
<VARIANCE> 25
 2.837927e+01 3.550758e+01 4.376701e+01 6.339727e+01 5.782299e+01 6.153004e+01 4.445435e+01 4.665985e+01 4.438187e+01 4.603452e+01 3.686113e+01 3.249733e+01 5.579238e-01 9.633060e-01 1.396090e+00 1.826277e+00 1.583154e+00 2.003756e+00 1.982185e+00 1.856537e+00 2.013892e+00 2.006657e+00 1.751121e+00 1.508502e+00 5.828047e-01
<GCONST> 9.591582e+01
<STATE> 4
<MEAN> 25
 5.895019e+00 -4.724988e+00 -1.197292e+00 3.906052e+00 3.870449e+00 -6.545651e+00 -8.215060e+00 -6.679025e+00 -4.172563e+00 5.337154e-01 9.279272e-01 -6.742178e-01 -3.232698e-01 7.992764e-01 3.300467e-01 -6.339286e-02 7.912491e-02 1.004552e+00 6.088396e-01 3.772415e-01 3.436322e-01 -1.313366e-01 -2.720630e-01 -1.298955e-01 -7.956876e-01
<VARIANCE> 25
 2.029749e+01 3.066547e+01 3.368494e+01 5.057070e+01 4.296806e+01 5.593891e+01 3.659196e+01 3.710094e+01 4.034227e+01 3.575679e+01 3.262199e+01 2.925796e+01 5.569103e-01 1.011105e+00 1.171097e+00 1.448238e+00 1.440968e+00 2.011663e+00 1.814593e+00 1.739066e+00 1.905525e+00 1.867028e+00 1.539982e+00 1.274082e+00 7.538318e-01
<GCONST> 9.278246e+01
~t "T_e"
<ENDHMM>
~h "x-e+o"
<BEGINHMM>
<NUMSTATES> 5
<STATE> 2
<MEAN> 25
 4.917822e+00 -3.046909e+00 -7.860230e-01 1.961976e+00 3.296882e+00 -3.095960e+00 -4.445966e+00 -4.378197e+00 -4.194638e+00 -1.446952e+00 1.146220e-01 1.648807e-01 1.062938e+00 -1.285595e+00 -6.981800e-01 4.423747e-01 5.001229e-01 -1.895295e+00 -1.787762e+00 -1.308817e+00 -1.084860e+00 1.344622e-01 6.617222e-01 3.701210e-01 1.670173e+00
<VARIANCE> 25
 3.577217e+01 3.706077e+01 4.774310e+01 6.015227e+01 4.925949e+01 6.036604e+01 5.010396e+01 4.977269e+01 4.858726e+01 3.950971e+01 3.013842e+01 2.473536e+01 2.384392e+00 2.958043e+00 2.685448e+00 3.858023e+00 3.340221e+00 5.064232e+00 4.063103e+00 3.681123e+00 4.037725e+00 4.174648e+00 3.332788e+00 2.898063e+00 2.226966e+00
<GCONST> 1.068105e+02
<STATE> 3
<MEAN> 25
 7.191195e+00 -7.001473e+00 -2.328277e+00 2.836691e+00 3.888689e+00 -7.911126e+00 -8.482172e+00 -6.657192e+00 -5.470276e+00 -1.285404e-01 1.987994e+00 7.147580e-01 8.514885e-02 -4.249433e-01 -1.496204e-01 2.818093e-01 1.203487e-01 -6.073316e-01 -4.420330e-01 -1.406531e-01 1.603031e-01 5.093133e-01 3.347531e-01 -4.041983e-02 2.952766e-01
<VARIANCE> 25
 2.837927e+01 3.550758e+01 4.376701e+01 6.339727e+01 5.782299e+01 6.153004e+01 4.445435e+01 4.665985e+01 4.438187e+01 4.603452e+01 3.686113e+01 3.249733e+01 5.579238e-01 9.633060e-01 1.396090e+00 1.826277e+00 1.583154e+00 2.003756e+00 1.982185e+00 1.856537e+00 2.013892e+00 2.006657e+00 1.751121e+00 1.508502e+00 5.828047e-01
<GCONST> 9.591582e+01
<STATE> 4
<MEAN> 25
 5.895019e+00 -4.724988e+00 -1.197292e+00 3.906052e+00 3.870449e+00 -6.545651e+00 -8.215060e+00 -6.679025e+00 -4.172563e+00 5.337154e-01 9.279272e-01 -6.742178e-01 -3.232698e-01 7.992764e-01 3.300467e-01 -6.339286e-02 7.912491e-02 1.004552e+00 6.088396e-01 3.772415e-01 3.436322e-01 -1.313366e-01 -2.720630e-01 -1.298955e-01 -7.956876e-01
<VARIANCE> 25
 2.029749e+01 3.066547e+01 3.368494e+01 5.057070e+01 4.296806e+01 5.593891e+01 3.659196e+01 3.710094e+01 4.034227e+01 3.575679e+01 3.262199e+01 2.925796e+01 5.569103e-01 1.011105e+00 1.171097e+00 1.448238e+00 1.440968e+00 2.011663e+00 1.814593e+00 1.739066e+00 1.905525e+00 1.867028e+00 1.539982e+00 1.274082e+00 7.538318e-01
<GCONST> 9.278246e+01
~t "T_e"
<ENDHMM>
~h "x-e+r"
<BEGINHMM>
<NUMSTATES> 5
<STATE> 2
<MEAN> 25
 4.917822e+00 -3.046909e+00 -7.860230e-01 1.961976e+00 3.296882e+00 -3.095960e+00 -4.445966e+00 -4.378197e+00 -4.194638e+00 -1.446952e+00 1.146220e-01 1.648807e-01 1.062938e+00 -1.285595e+00 -6.981800e-01 4.423747e-01 5.001229e-01 -1.895295e+00 -1.787762e+00 -1.308817e+00 -1.084860e+00 1.344622e-01 6.617222e-01 3.701210e-01 1.670173e+00
<VARIANCE> 25
 3.577217e+01 3.706077e+01 4.774310e+01 6.015227e+01 4.925949e+01 6.036604e+01 5.010396e+01 4.977269e+01 4.858726e+01 3.950971e+01 3.013842e+01 2.473536e+01 2.384392e+00 2.958043e+00 2.685448e+00 3.858023e+00 3.340221e+00 5.064232e+00 4.063103e+00 3.681123e+00 4.037725e+00 4.174648e+00 3.332788e+00 2.898063e+00 2.226966e+00
<GCONST> 1.068105e+02
<STATE> 3
<MEAN> 25
 7.191195e+00 -7.001473e+00 -2.328277e+00 2.836691e+00 3.888689e+00 -7.911126e+00 -8.482172e+00 -6.657192e+00 -5.470276e+00 -1.285404e-01 1.987994e+00 7.147580e-01 8.514885e-02 -4.249433e-01 -1.496204e-01 2.818093e-01 1.203487e-01 -6.073316e-01 -4.420330e-01 -1.406531e-01 1.603031e-01 5.093133e-01 3.347531e-01 -4.041983e-02 2.952766e-01
<VARIANCE> 25
 2.837927e+01 3.550758e+01 4.376701e+01 6.339727e+01 5.782299e+01 6.153004e+01 4.445435e+01 4.665985e+01 4.438187e+01 4.603452e+01 3.686113e+01 3.249733e+01 5.579238e-01 9.633060e-01 1.396090e+00 1.826277e+00 1.583154e+00 2.003756e+00 1.982185e+00 1.856537e+00 2.013892e+00 2.006657e+00 1.751121e+00 1.508502e+00 5.828047e-01
<GCONST> 9.591582e+01
<STATE> 4
<MEAN> 25
 5.895019e+00 -4.724988e+00 -1.197292e+00 3.906052e+00 3.870449e+00 -6.545651e+00 -8.215060e+00 -6.679025e+00 -4.172563e+00 5.337154e-01 9.279272e-01 -6.742178e-01 -3.232698e-01 7.992764e-01 3.300467e-01 -6.339286e-02 7.912491e-02 1.004552e+00 6.088396e-01 3.772415e-01 3.436322e-01 -1.313366e-01 -2.720630e-01 -1.298955e-01 -7.956876e-01
<VARIANCE> 25
 2.029749e+01 3.066547e+01 3.368494e+01 5.057070e+01 4.296806e+01 5.593891e+01 3.659196e+01 3.710094e+01 4.034227e+01 3.575679e+01 3.262199e+01 2.925796e+01 5.569103e-01 1.011105e+00 1.171097e+00 1.448238e+00 1.440968e+00 2.011663e+00 1.814593e+00 1.739066e+00 1.905525e+00 1.867028e+00 1.539982e+00 1.274082e+00 7.538318e-01
<GCONST> 9.278246e+01
~t "T_e"
<ENDHMM>
~h "x-e+t"
<BEGINHMM>
<NUMSTATES> 5
<STATE> 2
<MEAN> 25
 4.917822e+00 -3.046909e+00 -7.860230e-01 1.961976e+00 3.296882e+00 -3.095960e+00 -4.445966e+00 -4.378197e+00 -4.194638e+00 -1.446952e+00 1.146220e-01 1.648807e-01 1.062938e+00 -1.285595e+00 -6.981800e-01 4.423747e-01 5.001229e-01 -1.895295e+00 -1.787762e+00 -1.308817e+00 -1.084860e+00 1.344622e-01 6.617222e-01 3.701210e-01 1.670173e+00
<VARIANCE> 25
 3.577217e+01 3.706077e+01 4.774310e+01 6.015227e+01 4.925949e+01 6.036604e+01 5.010396e+01 4.977269e+01 4.858726e+01 3.950971e+01 3.013842e+01 2.473536e+01 2.384392e+00 2.958043e+00 2.685448e+00 3.858023e+00 3.340221e+00 5.064232e+00 4.063103e+00 3.681123e+00 4.037725e+00 4.174648e+00 3.332788e+00 2.898063e+00 2.226966e+00
<GCONST> 1.068105e+02
<STATE> 3
<MEAN> 25
 7.191195e+00 -7.001473e+00 -2.328277e+00 2.836691e+00 3.888689e+00 -7.911126e+00 -8.482172e+00 -6.657192e+00 -5.470276e+00 -1.285404e-01 1.987994e+00 7.147580e-01 8.514885e-02 -4.249433e-01 -1.496204e-01 2.818093e-01 1.203487e-01 -6.073316e-01 -4.420330e-01 -1.406531e-01 1.603031e-01 5.093133e-01 3.347531e-01 -4.041983e-02 2.952766e-01
<VARIANCE> 25
 2.837927e+01 3.550758e+01 4.376701e+01 6.339727e+01 5.782299e+01 6.153004e+01 4.445435e+01 4.665985e+01 4.438187e+01 4.603452e+01 3.686113e+01 3.249733e+01 5.579238e-01 9.633060e-01 1.396090e+00 1.826277e+00 1.583154e+00 2.003756e+00 1.982185e+00 1.856537e+00 2.013892e+00 2.006657e+00 1.751121e+00 1.508502e+00 5.828047e-01
<GCONST> 9.591582e+01
<STATE> 4
<MEAN> 25
 5.895019e+00 -4.724988e+00 -1.197292e+00 3.906052e+00 3.870449e+00 -6.545651e+00 -8.215060e+00 -6.679025e+00 -4.172563e+00 5.337154e-01 9.279272e-01 -6.742178e-01 -3.232698e-01 7.992764e-01 3.300467e-01 -6.339286e-02 7.912491e-02 1.004552e+00 6.088396e-01 3.772415e-01 3.436322e-01 -1.313366e-01 -2.720630e-01 -1.298955e-01 -7.956876e-01
<VARIANCE> 25
 2.029749e+01 3.066547e+01 3.368494e+01 5.057070e+01 4.296806e+01 5.593891e+01 3.659196e+01 3.710094e+01 4.034227e+01 3.575679e+01 3.262199e+01 2.925796e+01 5.569103e-01 1.011105e+00 1.171097e+00 1.448238e+00 1.440968e+00 2.011663e+00 1.814593e+00 1.739066e+00 1.905525e+00 1.867028e+00 1.539982e+00 1.274082e+00 7.538318e-01
<GCONST> 9.278246e+01
~t "T_e"
<ENDHMM>
~h "u-a+th"
<BEGINHMM>
<NUMSTATES> 5
<STATE> 2
<MEAN> 25
 8.084209e+00 -3.246555e+00 -4.886938e+00 -2.890126e+00 -1.922659e+00 -4.591505e+00 -1.062124e+00 -1.533606e+00 -3.011539e+00 -1.419097e+00 7.822737e-01 1.974153e+00 8.531939e-01 -1.219489e+00 -1.591901e+00 -1.511451e+00 -1.099942e+00 -1.081241e+00 3.296968e-01 2.435892e-01 2.131322e-01 7.433307e-01 1.096173e+00 1.076555e+00 1.531909e+00
<VARIANCE> 25
 3.102556e+01 3.982352e+01 4.648204e+01 6.052976e+01 4.865224e+01 5.364120e+01 4.957391e+01 5.206113e+01 4.994263e+01 4.377484e+01 3.566540e+01 3.010361e+01 2.105191e+00 2.133569e+00 2.607650e+00 3.361774e+00 2.917656e+00 3.954443e+00 3.398865e+00 3.319243e+00 3.668817e+00 4.076825e+00 3.093344e+00 2.673295e+00 1.675560e+00
<GCONST> 1.052759e+02
<STATE> 3
<MEAN> 25
 9.462610e+00 -6.897775e+00 -8.743549e+00 -6.083593e+00 -4.604442e+00 -5.470979e+00 1.397076e+00 -2.830499e-01 -1.629562e+00 7.007640e-01 2.659651e+00 3.340820e+00 3.290816e-02 -1.735238e-01 -3.625012e-01 -3.627358e-01 -1.769637e-01 2.254089e-01 4.766614e-01 2.827543e-01 2.371980e-01 1.767752e-01 8.445666e-02 6.974697e-02 8.193482e-02
<VARIANCE> 25
 2.840129e+01 3.570125e+01 4.138834e+01 4.038225e+01 4.118876e+01 4.148624e+01 4.739182e+01 4.747406e+01 4.473821e+01 4.189992e+01 3.449903e+01 2.805832e+01 3.302394e-01 8.424883e-01 9.393210e-01 1.242460e+00 1.324397e+00 1.496400e+00 1.901740e+00 1.780651e+00 1.803969e+00 1.726919e+00 1.430944e+00 1.179275e+00 3.783611e-01
<GCONST> 9.133002e+01
<STATE> 4
<MEAN> 25
 8.177530e+00 -2.680661e+00 -7.293503e+00 -5.932261e+00 -3.758124e+00 -2.794274e+00 1.176165e+00 -3.390664e-01 -1.368642e+00 2.573896e-01 2.133668e+00 3.287408e+00 -4.538044e-01 8.704351e-01 7.276899e-01 4.679444e-01 4.150407e-01 5.706517e-01 -1.937626e-01 -1.382255e-01 1.753797e-02 -1.629017e-01 -2.942949e-01 -3.140077e-01 -8.826797e-01
<VARIANCE> 25
 2.215926e+01 3.099335e+01 3.486272e+01 3.668752e+01 3.283007e+01 3.965223e+01 3.500597e+01 3.826480e+01 3.512437e+01 3.170736e+01 2.563973e+01 2.200531e+01 5.861269e-01 9.910762e-01 1.080531e+00 1.252255e+00 1.395680e+00 1.835312e+00 1.787168e+00 1.826652e+00 1.993582e+00 1.853269e+00 1.609923e+00 1.318195e+00 6.483233e-01
<GCONST> 9.086413e+01
~t "T_a"
<ENDHMM>
~h "k-l+a"
<BEGINHMM>
<NUMSTATES> 5
<STATE> 2
<MEAN> 25
 6.314451e+00 -2.836339e+00 -2.415431e+00 2.781851e+00 1.947059e+00 -2.800302e+00 -2.661815e+00 -2.324516e+00 -3.876258e+00 -3.683601e+00 -1.570764e+00 7.563966e-02 3.129438e-01 4.277349e-01 7.984434e-01 1.918523e+00 1.017305e+00 4.531452e-01 -1.293264e-01 2.709396e-01 -7.299022e-01 -1.606042e+00 -1.354267e+00 -7.730924e-01 -6.160657e-01
<VARIANCE> 25
 3.768519e+01 4.112976e+01 4.717404e+01 6.522243e+01 4.798243e+01 5.569359e+01 4.089912e+01 4.426613e+01 5.019736e+01 4.535135e+01 3.915966e+01 3.028901e+01 1.699836e+00 1.977105e+00 2.316171e+00 3.031282e+00 2.905935e+00 4.508301e+00 3.719640e+00 4.100824e+00 4.742221e+00 3.786747e+00 3.138241e+00 2.508972e+00 2.132987e+00
<GCONST> 1.056931e+02
<STATE> 3
<MEAN> 25
 7.308776e+00 -2.116291e+00 -5.915496e-01 8.047751e+00 4.512689e+00 -2.649817e+00 -3.380396e+00 -8.267048e-01 -5.005058e+00 -7.383716e+00 -4.765788e+00 -2.091391e+00 -2.042886e-01 4.120783e-01 5.339515e-01 7.017787e-01 3.444184e-01 2.565898e-01 1.210279e-01 4.571145e-01 1.694299e-01 -4.738842e-01 -6.538218e-01 -4.505804e-01 -4.639952e-01
<VARIANCE> 25
 2.202492e+01 3.481960e+01 3.887338e+01 6.391379e+01 4.331805e+01 4.796937e+01 4.158508e+01 4.477020e+01 4.591209e+01 3.888554e+01 3.268353e+01 2.532600e+01 8.968565e-01 1.265179e+00 1.520058e+00 2.136260e+00 1.615692e+00 2.971242e+00 2.029787e+00 2.106359e+00 2.521566e+00 2.456026e+00 1.921850e+00 1.679168e+00 9.447469e-01
<GCONST> 9.704557e+01
<STATE> 4
<MEAN> 25
 5.966500e+00 -3.820904e-01 3.151454e-01 7.105481e+00 4.340966e+00 -1.720254e+00 -3.097861e+00 -7.825651e-01 -3.803820e+00 -6.722578e+00 -5.169729e+00 -2.231982e+00 -1.248948e-01 3.641126e-02 -1.620759e-01 -8.538845e-01 -4.337227e-01 -1.165125e-01 1.175181e-01 -1.721042e-01 8.785849e-02 4.827425e-01 5.441091e-01 3.938914e-01 1.508765e-01
<VARIANCE> 25
 2.100273e+01 3.151579e+01 3.614806e+01 5.096074e+01 3.741170e+01 4.566805e+01 3.924998e+01 3.931923e+01 4.211623e+01 3.813666e+01 3.033226e+01 2.373476e+01 8.690925e-01 1.079303e+00 1.530230e+00 2.250370e+00 1.643832e+00 2.437176e+00 1.802907e+00 2.009850e+00 2.136790e+00 2.217616e+00 1.925478e+00 1.643911e+00 9.747648e-01
<GCONST> 9.523684e+01
~t "T_l"
<ENDHMM>
~h "k-l+e"
<BEGINHMM>
<NUMSTATES> 5
<STATE> 2
<MEAN> 25
 6.314451e+00 -2.836339e+00 -2.415431e+00 2.781851e+00 1.947059e+00 -2.800302e+00 -2.661815e+00 -2.324516e+00 -3.876258e+00 -3.683601e+00 -1.570764e+00 7.563966e-02 3.129438e-01 4.277349e-01 7.984434e-01 1.918523e+00 1.017305e+00 4.531452e-01 -1.293264e-01 2.709396e-01 -7.299022e-01 -1.606042e+00 -1.354267e+00 -7.730924e-01 -6.160657e-01
<VARIANCE> 25
 3.768519e+01 4.112976e+01 4.717404e+01 6.522243e+01 4.798243e+01 5.569359e+01 4.089912e+01 4.426613e+01 5.019736e+01 4.535135e+01 3.915966e+01 3.028901e+01 1.699836e+00 1.977105e+00 2.316171e+00 3.031282e+00 2.905935e+00 4.508301e+00 3.719640e+00 4.100824e+00 4.742221e+00 3.786747e+00 3.138241e+00 2.508972e+00 2.132987e+00
<GCONST> 1.056931e+02
<STATE> 3
<MEAN> 25
 7.308776e+00 -2.116291e+00 -5.915496e-01 8.047751e+00 4.512689e+00 -2.649817e+00 -3.380396e+00 -8.267048e-01 -5.005058e+00 -7.383716e+00 -4.765788e+00 -2.091391e+00 -2.042886e-01 4.120783e-01 5.339515e-01 7.017787e-01 3.444184e-01 2.565898e-01 1.210279e-01 4.571145e-01 1.694299e-01 -4.738842e-01 -6.538218e-01 -4.505804e-01 -4.639952e-01
<VARIANCE> 25
 2.202492e+01 3.481960e+01 3.887338e+01 6.391379e+01 4.331805e+01 4.796937e+01 4.158508e+01 4.477020e+01 4.591209e+01 3.888554e+01 3.268353e+01 2.532600e+01 8.968565e-01 1.265179e+00 1.520058e+00 2.136260e+00 1.615692e+00 2.971242e+00 2.029787e+00 2.106359e+00 2.521566e+00 2.456026e+00 1.921850e+00 1.679168e+00 9.447469e-01
<GCONST> 9.704557e+01
<STATE> 4
<MEAN> 25
 5.966500e+00 -3.820904e-01 3.151454e-01 7.105481e+00 4.340966e+00 -1.720254e+00 -3.097861e+00 -7.825651e-01 -3.803820e+00 -6.722578e+00 -5.169729e+00 -2.231982e+00 -1.248948e-01 3.641126e-02 -1.620759e-01 -8.538845e-01 -4.337227e-01 -1.165125e-01 1.175181e-01 -1.721042e-01 8.785849e-02 4.827425e-01 5.441091e-01 3.938914e-01 1.508765e-01
<VARIANCE> 25
 2.100273e+01 3.151579e+01 3.614806e+01 5.096074e+01 3.741170e+01 4.566805e+01 3.924998e+01 3.931923e+01 4.211623e+01 3.813666e+01 3.033226e+01 2.373476e+01 8.690925e-01 1.079303e+00 1.530230e+00 2.250370e+00 1.643832e+00 2.437176e+00 1.802907e+00 2.009850e+00 2.136790e+00 2.217616e+00 1.925478e+00 1.643911e+00 9.747648e-01
<GCONST> 9.523684e+01
~t "T_l"
<ENDHMM>
~h "k-l+i"
<BEGINHMM>
<NUMSTATES> 5
<STATE> 2
<MEAN> 25
 6.314451e+00 -2.836339e+00 -2.415431e+00 2.781851e+00 1.947059e+00 -2.800302e+00 -2.661815e+00 -2.324516e+00 -3.876258e+00 -3.683601e+00 -1.570764e+00 7.563966e-02 3.129438e-01 4.277349e-01 7.984434e-01 1.918523e+00 1.017305e+00 4.531452e-01 -1.293264e-01 2.709396e-01 -7.299022e-01 -1.606042e+00 -1.354267e+00 -7.730924e-01 -6.160657e-01
<VARIANCE> 25
 3.768519e+01 4.112976e+01 4.717404e+01 6.522243e+01 4.798243e+01 5.569359e+01 4.089912e+01 4.426613e+01 5.019736e+01 4.535135e+01 3.915966e+01 3.028901e+01 1.699836e+00 1.977105e+00 2.316171e+00 3.031282e+00 2.905935e+00 4.508301e+00 3.719640e+00 4.100824e+00 4.742221e+00 3.786747e+00 3.138241e+00 2.508972e+00 2.132987e+00
<GCONST> 1.056931e+02
<STATE> 3
<MEAN> 25
 7.308776e+00 -2.116291e+00 -5.915496e-01 8.047751e+00 4.512689e+00 -2.649817e+00 -3.380396e+00 -8.267048e-01 -5.005058e+00 -7.383716e+00 -4.765788e+00 -2.091391e+00 -2.042886e-01 4.120783e-01 5.339515e-01 7.017787e-01 3.444184e-01 2.565898e-01 1.210279e-01 4.571145e-01 1.694299e-01 -4.738842e-01 -6.538218e-01 -4.505804e-01 -4.639952e-01
<VARIANCE> 25
 2.202492e+01 3.481960e+01 3.887338e+01 6.391379e+01 4.331805e+01 4.796937e+01 4.158508e+01 4.477020e+01 4.591209e+01 3.888554e+01 3.268353e+01 2.532600e+01 8.968565e-01 1.265179e+00 1.520058e+00 2.136260e+00 1.615692e+00 2.971242e+00 2.029787e+00 2.106359e+00 2.521566e+00 2.456026e+00 1.921850e+00 1.679168e+00 9.447469e-01
<GCONST> 9.704557e+01
<STATE> 4
<MEAN> 25
 5.966500e+00 -3.820904e-01 3.151454e-01 7.105481e+00 4.340966e+00 -1.720254e+00 -3.097861e+00 -7.825651e-01 -3.803820e+00 -6.722578e+00 -5.169729e+00 -2.231982e+00 -1.248948e-01 3.641126e-02 -1.620759e-01 -8.538845e-01 -4.337227e-01 -1.165125e-01 1.175181e-01 -1.721042e-01 8.785849e-02 4.827425e-01 5.441091e-01 3.938914e-01 1.508765e-01
<VARIANCE> 25
 2.100273e+01 3.151579e+01 3.614806e+01 5.096074e+01 3.741170e+01 4.566805e+01 3.924998e+01 3.931923e+01 4.211623e+01 3.813666e+01 3.033226e+01 2.373476e+01 8.690925e-01 1.079303e+00 1.530230e+00 2.250370e+00 1.643832e+00 2.437176e+00 1.802907e+00 2.009850e+00 2.136790e+00 2.217616e+00 1.925478e+00 1.643911e+00 9.747648e-01
<GCONST> 9.523684e+01
~t "T_l"
<ENDHMM>
~h "k-l+u"
<BEGINHMM>
<NUMSTATES> 5
<STATE> 2
<MEAN> 25
 6.314451e+00 -2.836339e+00 -2.415431e+00 2.781851e+00 1.947059e+00 -2.800302e+00 -2.661815e+00 -2.324516e+00 -3.876258e+00 -3.683601e+00 -1.570764e+00 7.563966e-02 3.129438e-01 4.277349e-01 7.984434e-01 1.918523e+00 1.017305e+00 4.531452e-01 -1.293264e-01 2.709396e-01 -7.299022e-01 -1.606042e+00 -1.354267e+00 -7.730924e-01 -6.160657e-01
<VARIANCE> 25
 3.768519e+01 4.112976e+01 4.717404e+01 6.522243e+01 4.798243e+01 5.569359e+01 4.089912e+01 4.426613e+01 5.019736e+01 4.535135e+01 3.915966e+01 3.028901e+01 1.699836e+00 1.977105e+00 2.316171e+00 3.031282e+00 2.905935e+00 4.508301e+00 3.719640e+00 4.100824e+00 4.742221e+00 3.786747e+00 3.138241e+00 2.508972e+00 2.132987e+00
<GCONST> 1.056931e+02
<STATE> 3
<MEAN> 25
 7.308776e+00 -2.116291e+00 -5.915496e-01 8.047751e+00 4.512689e+00 -2.649817e+00 -3.380396e+00 -8.267048e-01 -5.005058e+00 -7.383716e+00 -4.765788e+00 -2.091391e+00 -2.042886e-01 4.120783e-01 5.339515e-01 7.017787e-01 3.444184e-01 2.565898e-01 1.210279e-01 4.571145e-01 1.694299e-01 -4.738842e-01 -6.538218e-01 -4.505804e-01 -4.639952e-01
<VARIANCE> 25
 2.202492e+01 3.481960e+01 3.887338e+01 6.391379e+01 4.331805e+01 4.796937e+01 4.158508e+01 4.477020e+01 4.591209e+01 3.888554e+01 3.268353e+01 2.532600e+01 8.968565e-01 1.265179e+00 1.520058e+00 2.136260e+00 1.615692e+00 2.971242e+00 2.029787e+00 2.106359e+00 2.521566e+00 2.456026e+00 1.921850e+00 1.679168e+00 9.447469e-01
<GCONST> 9.704557e+01
<STATE> 4
<MEAN> 25
 5.966500e+00 -3.820904e-01 3.151454e-01 7.105481e+00 4.340966e+00 -1.720254e+00 -3.097861e+00 -7.825651e-01 -3.803820e+00 -6.722578e+00 -5.169729e+00 -2.231982e+00 -1.248948e-01 3.641126e-02 -1.620759e-01 -8.538845e-01 -4.337227e-01 -1.165125e-01 1.175181e-01 -1.721042e-01 8.785849e-02 4.827425e-01 5.441091e-01 3.938914e-01 1.508765e-01
<VARIANCE> 25
 2.100273e+01 3.151579e+01 3.614806e+01 5.096074e+01 3.741170e+01 4.566805e+01 3.924998e+01 3.931923e+01 4.211623e+01 3.813666e+01 3.033226e+01 2.373476e+01 8.690925e-01 1.079303e+00 1.530230e+00 2.250370e+00 1.643832e+00 2.437176e+00 1.802907e+00 2.009850e+00 2.136790e+00 2.217616e+00 1.925478e+00 1.643911e+00 9.747648e-01
<GCONST> 9.523684e+01
~t "T_l"
<ENDHMM>
~h "k-s+th"
<BEGINHMM>
<NUMSTATES> 5
<STATE> 2
<MEAN> 25
 -2.672227e+00 -3.270423e+00 1.004953e+01 -4.440532e+00 1.809237e-01 1.463706e+00 2.479738e+00 -8.504221e-01 -6.740083e-01 7.527752e-01 2.025366e-01 -1.215088e-01 -2.952475e+00 -1.081467e+00 2.472686e+00 -1.170398e+00 1.552520e-01 9.225060e-01 1.190610e+00 1.466946e-02 5.599615e-01 4.710526e-01 5.590721e-01 2.782978e-01 2.598815e-01
<VARIANCE> 25
 6.090248e+01 4.096783e+01 9.645750e+01 7.985217e+01 7.116714e+01 6.051644e+01 6.688841e+01 7.043929e+01 5.318323e+01 4.527814e+01 3.572353e+01 2.664364e+01 3.096100e+00 3.809794e+00 4.041855e+00 4.010174e+00 3.633645e+00 4.631847e+00 3.728845e+00 3.332037e+00 3.740141e+00 3.394577e+00 2.906559e+00 2.198195e+00 1.359681e+00
<GCONST> 1.094882e+02
<STATE> 3
<MEAN> 25
 -1.388278e+01 -7.547144e+00 1.724523e+01 -1.016027e+01 5.564176e-01 9.960555e-01 5.586256e+00 -1.188120e+00 5.186584e-01 1.813791e+00 1.467571e+00 5.005577e-01 -2.925702e-01 -1.122364e-01 -2.537486e-01 7.632152e-02 -1.322451e-02 7.181087e-02 4.822661e-02 6.459653e-02 8.100856e-02 3.569933e-02 1.088791e-01 9.543600e-02 -2.908385e-01
<VARIANCE> 25
 7.703424e+01 8.092426e+01 1.181283e+02 1.229016e+02 1.058419e+02 8.350800e+01 7.997587e+01 8.339116e+01 7.095995e+01 5.324371e+01 4.210551e+01 2.871686e+01 2.398076e+00 1.604921e+00 2.021634e+00 2.360392e+00 1.573115e+00 1.834233e+00 1.877151e+00 1.805621e+00 1.722814e+00 1.544063e+00 1.343992e+00 1.183776e+00 8.760858e-01
<GCONST> 1.039959e+02
<STATE> 4
<MEAN> 25
 -6.362659e+00 -4.423155e+00 9.820220e+00 -4.903218e+00 -3.681852e-01 2.570100e+00 3.167925e+00 -5.793936e-01 -8.759587e-02 1.059100e+00 1.291414e+00 8.679242e-01 2.306367e+00 1.451382e+00 -1.806829e+00 1.135726e+00 -1.512867e-01 -5.723754e-03 -1.025580e+00 -6.012088e-02 -4.432604e-01 -4.086378e-01 -5.183563e-01 -1.828476e-01 -1.028221e+00
<VARIANCE> 25
 5.843802e+01 5.417876e+01 7.380061e+01 6.748988e+01 5.934891e+01 5.204456e+01 5.172548e+01 5.419441e+01 4.946672e+01 4.243489e+01 3.060479e+01 2.467298e+01 5.810026e+00 3.654878e+00 3.590863e+00 3.486390e+00 3.299611e+00 3.667934e+00 3.647548e+00 3.210599e+00 3.578302e+00 3.155891e+00 2.695603e+00 2.113597e+00 1.871167e+00
<GCONST> 1.080983e+02
~t "T_s"
<ENDHMM>
~h "k-n+o"
<BEGINHMM>
<NUMSTATES> 5
<STATE> 2
<MEAN> 25
 7.169885e+00 3.457295e-01 -9.706034e-01 1.822969e+00 2.203207e+00 -1.710077e+00 -1.541217e+00 -6.925409e-01 -3.499932e+00 -2.178467e+00 -7.829415e-01 -1.847775e+00 -1.776564e-01 1.685531e+00 6.899630e-01 1.139801e+00 6.890932e-01 2.057916e+00 4.165332e-01 -6.090450e-01 -1.683788e-01 -9.237592e-02 -7.342267e-01 -1.250047e+00 -1.560356e+00
<VARIANCE> 25
 2.165102e+01 3.528417e+01 4.496836e+01 6.788055e+01 4.849240e+01 5.297578e+01 4.589392e+01 4.388946e+01 4.575230e+01 3.900736e+01 3.414560e+01 3.704768e+01 9.116951e-01 1.700086e+00 1.786228e+00 4.035296e+00 3.243808e+00 3.321929e+00 3.851503e+00 3.338852e+00 3.444288e+00 2.962204e+00 2.780899e+00 2.558904e+00 1.011466e+00
<GCONST> 1.023394e+02
<STATE> 3
<MEAN> 25
 6.451331e+00 3.805457e+00 7.997720e-01 4.104099e+00 3.209973e+00 1.771652e+00 -1.687927e+00 -2.346424e+00 -2.799612e+00 -1.867672e+00 -2.654003e+00 -4.671466e+00 -4.288488e-01 8.661700e-01 6.104125e-01 6.183404e-01 3.940374e-01 1.045232e+00 2.131816e-01 -3.304687e-01 1.941549e-01 1.693209e-01 -3.405662e-01 -4.656930e-01 -8.459170e-01
<VARIANCE> 25
 1.605801e+01 2.327610e+01 3.427949e+01 4.943877e+01 3.551352e+01 4.001220e+01 3.662941e+01 3.266262e+01 4.372853e+01 3.314529e+01 2.653506e+01 2.688600e+01 4.240589e-01 7.692712e-01 1.020777e+00 1.824027e+00 1.598796e+00 1.636005e+00 1.955104e+00 1.795479e+00 2.067024e+00 1.608387e+00 1.611071e+00 1.827414e+00 4.028325e-01
<GCONST> 9.059154e+01
<STATE> 4
<MEAN> 25
 3.843240e+00 4.976631e+00 2.044346e+00 4.405276e+00 3.430595e+00 3.177998e+00 -7.137617e-01 -1.420924e+00 -8.184713e-01 -5.259312e-01 -2.154598e+00 -3.488309e+00 -4.377143e-01 -2.375585e-02 4.742600e-02 -6.740690e-02 -9.708463e-02 1.467522e-01 2.977267e-01 2.026634e-01 7.117245e-02 2.588364e-02 1.424470e-01 2.484765e-01 -3.065790e-01
<VARIANCE> 25
 1.843643e+01 1.784051e+01 2.607419e+01 3.130790e+01 2.558590e+01 2.868715e+01 2.686604e+01 2.596465e+01 3.096772e+01 2.389989e+01 1.980139e+01 1.923713e+01 4.635847e-01 5.872605e-01 8.780912e-01 9.187444e-01 9.726738e-01 1.154603e+00 1.138327e+00 1.124501e+00 1.193445e+00 1.121723e+00 1.058525e+00 1.099325e+00 4.008314e-01
<GCONST> 8.251925e+01
~t "T_n"
<ENDHMM>
~h "x-i+a"
<BEGINHMM>
<NUMSTATES> 5
<STATE> 2
<MEAN> 25
 2.824880e+00 -2.961581e+00 4.292364e+00 7.499251e+00 7.346193e+00 -2.067250e+00 -5.297520e+00 -2.873806e+00 -2.378581e+00 -1.973293e+00 -2.520489e+00 -3.736685e+00 1.015099e+00 -9.724852e-01 2.479329e-01 2.179622e+00 1.426837e+00 -2.128228e+00 -2.309814e+00 -3.848035e-01 -7.270547e-01 -7.560874e-01 -6.794949e-01 -8.365397e-01 1.175898e+00
<VARIANCE> 25
 3.374600e+01 3.967356e+01 6.750194e+01 6.375350e+01 5.781096e+01 6.437442e+01 4.980933e+01 4.415491e+01 4.445846e+01 3.540117e+01 3.356274e+01 2.704606e+01 3.132528e+00 4.137255e+00 3.621446e+00 4.487921e+00 4.215056e+00 5.312013e+00 4.005538e+00 3.824685e+00 4.409300e+00 4.209664e+00 3.923692e+00 2.984154e+00 1.617640e+00
<GCONST> 1.086541e+02
<STATE> 3
<MEAN> 25
 3.691633e+00 -6.378765e+00 6.166086e+00 1.236009e+01 7.380941e+00 -9.047977e+00 -9.580333e+00 -1.629763e+00 -3.102339e+00 -4.599288e+00 -4.548250e+00 -5.048493e+00 8.359629e-02 -2.991736e-01 1.296623e-01 4.305927e-01 9.667514e-03 -8.290642e-01 -5.818837e-01 1.603395e-01 8.957740e-02 -1.876646e-01 -1.591199e-01 -1.092843e-01 2.681427e-01
<VARIANCE> 25
 2.149308e+01 3.103732e+01 4.970968e+01 5.873264e+01 7.158559e+01 6.920425e+01 3.966159e+01 4.495304e+01 4.204121e+01 4.275245e+01 4.102441e+01 2.954641e+01 6.639252e-01 9.264812e-01 1.883231e+00 1.858640e+00 1.558079e+00 2.146437e+00 1.929194e+00 2.097977e+00 1.840118e+00 1.884095e+00 1.595546e+00 1.333590e+00 5.259222e-01
<GCONST> 9.574519e+01
<STATE> 4
<MEAN> 25
 4.036044e+00 -4.218312e+00 4.209880e+00 1.037407e+01 7.996428e+00 -6.247262e+00 -9.419474e+00 -3.331409e+00 -2.663913e+00 -2.918104e+00 -3.142705e+00 -4.376024e+00 3.821991e-02 8.336469e-01 -6.000085e-01 -1.181883e+00 -5.675405e-01 1.117856e+00 8.718380e-01 -2.187419e-01 -3.897155e-02 3.511441e-01 4.869802e-01 5.886047e-01 -5.325214e-01
<VARIANCE> 25
 1.972391e+01 3.227742e+01 4.309776e+01 5.167957e+01 5.495691e+01 6.691110e+01 3.850472e+01 4.351723e+01 4.154246e+01 3.556070e+01 3.517086e+01 2.803684e+01 6.999541e-01 1.390189e+00 1.663853e+00 1.824908e+00 1.964548e+00 2.784639e+00 2.501812e+00 2.236512e+00 2.341234e+00 2.148965e+00 1.947036e+00 1.699689e+00 1.056007e+00
<GCONST> 9.730878e+01
~t "T_i"
<ENDHMM>
~h "x-i+d"
<BEGINHMM>
<NUMSTATES> 5
<STATE> 2
<MEAN> 25
 2.824880e+00 -2.961581e+00 4.292364e+00 7.499251e+00 7.346193e+00 -2.067250e+00 -5.297520e+00 -2.873806e+00 -2.378581e+00 -1.973293e+00 -2.520489e+00 -3.736685e+00 1.015099e+00 -9.724852e-01 2.479329e-01 2.179622e+00 1.426837e+00 -2.128228e+00 -2.309814e+00 -3.848035e-01 -7.270547e-01 -7.560874e-01 -6.794949e-01 -8.365397e-01 1.175898e+00
<VARIANCE> 25
 3.374600e+01 3.967356e+01 6.750194e+01 6.375350e+01 5.781096e+01 6.437442e+01 4.980933e+01 4.415491e+01 4.445846e+01 3.540117e+01 3.356274e+01 2.704606e+01 3.132528e+00 4.137255e+00 3.621446e+00 4.487921e+00 4.215056e+00 5.312013e+00 4.005538e+00 3.824685e+00 4.409300e+00 4.209664e+00 3.923692e+00 2.984154e+00 1.617640e+00
<GCONST> 1.086541e+02
<STATE> 3
<MEAN> 25
 3.691633e+00 -6.378765e+00 6.166086e+00 1.236009e+01 7.380941e+00 -9.047977e+00 -9.580333e+00 -1.629763e+00 -3.102339e+00 -4.599288e+00 -4.548250e+00 -5.048493e+00 8.359629e-02 -2.991736e-01 1.296623e-01 4.305927e-01 9.667514e-03 -8.290642e-01 -5.818837e-01 1.603395e-01 8.957740e-02 -1.876646e-01 -1.591199e-01 -1.092843e-01 2.681427e-01
<VARIANCE> 25
 2.149308e+01 3.103732e+01 4.970968e+01 5.873264e+01 7.158559e+01 6.920425e+01 3.966159e+01 4.495304e+01 4.204121e+01 4.275245e+01 4.102441e+01 2.954641e+01 6.639252e-01 9.264812e-01 1.883231e+00 1.858640e+00 1.558079e+00 2.146437e+00 1.929194e+00 2.097977e+00 1.840118e+00 1.884095e+00 1.595546e+00 1.333590e+00 5.259222e-01
<GCONST> 9.574519e+01
<STATE> 4
<MEAN> 25
 4.036044e+00 -4.218312e+00 4.209880e+00 1.037407e+01 7.996428e+00 -6.247262e+00 -9.419474e+00 -3.331409e+00 -2.663913e+00 -2.918104e+00 -3.142705e+00 -4.376024e+00 3.821991e-02 8.336469e-01 -6.000085e-01 -1.181883e+00 -5.675405e-01 1.117856e+00 8.718380e-01 -2.187419e-01 -3.897155e-02 3.511441e-01 4.869802e-01 5.886047e-01 -5.325214e-01
<VARIANCE> 25
 1.972391e+01 3.227742e+01 4.309776e+01 5.167957e+01 5.495691e+01 6.691110e+01 3.850472e+01 4.351723e+01 4.154246e+01 3.556070e+01 3.517086e+01 2.803684e+01 6.999541e-01 1.390189e+00 1.663853e+00 1.824908e+00 1.964548e+00 2.784639e+00 2.501812e+00 2.236512e+00 2.341234e+00 2.148965e+00 1.947036e+00 1.699689e+00 1.056007e+00
<GCONST> 9.730878e+01
~t "T_i"
<ENDHMM>
~h "x-i+o"
<BEGINHMM>
<NUMSTATES> 5
<STATE> 2
<MEAN> 25
 2.824880e+00 -2.961581e+00 4.292364e+00 7.499251e+00 7.346193e+00 -2.067250e+00 -5.297520e+00 -2.873806e+00 -2.378581e+00 -1.973293e+00 -2.520489e+00 -3.736685e+00 1.015099e+00 -9.724852e-01 2.479329e-01 2.179622e+00 1.426837e+00 -2.128228e+00 -2.309814e+00 -3.848035e-01 -7.270547e-01 -7.560874e-01 -6.794949e-01 -8.365397e-01 1.175898e+00
<VARIANCE> 25
 3.374600e+01 3.967356e+01 6.750194e+01 6.375350e+01 5.781096e+01 6.437442e+01 4.980933e+01 4.415491e+01 4.445846e+01 3.540117e+01 3.356274e+01 2.704606e+01 3.132528e+00 4.137255e+00 3.621446e+00 4.487921e+00 4.215056e+00 5.312013e+00 4.005538e+00 3.824685e+00 4.409300e+00 4.209664e+00 3.923692e+00 2.984154e+00 1.617640e+00
<GCONST> 1.086541e+02
<STATE> 3
<MEAN> 25
 3.691633e+00 -6.378765e+00 6.166086e+00 1.236009e+01 7.380941e+00 -9.047977e+00 -9.580333e+00 -1.629763e+00 -3.102339e+00 -4.599288e+00 -4.548250e+00 -5.048493e+00 8.359629e-02 -2.991736e-01 1.296623e-01 4.305927e-01 9.667514e-03 -8.290642e-01 -5.818837e-01 1.603395e-01 8.957740e-02 -1.876646e-01 -1.591199e-01 -1.092843e-01 2.681427e-01
<VARIANCE> 25
 2.149308e+01 3.103732e+01 4.970968e+01 5.873264e+01 7.158559e+01 6.920425e+01 3.966159e+01 4.495304e+01 4.204121e+01 4.275245e+01 4.102441e+01 2.954641e+01 6.639252e-01 9.264812e-01 1.883231e+00 1.858640e+00 1.558079e+00 2.146437e+00 1.929194e+00 2.097977e+00 1.840118e+00 1.884095e+00 1.595546e+00 1.333590e+00 5.259222e-01
<GCONST> 9.574519e+01
<STATE> 4
<MEAN> 25
 4.036044e+00 -4.218312e+00 4.209880e+00 1.037407e+01 7.996428e+00 -6.247262e+00 -9.419474e+00 -3.331409e+00 -2.663913e+00 -2.918104e+00 -3.142705e+00 -4.376024e+00 3.821991e-02 8.336469e-01 -6.000085e-01 -1.181883e+00 -5.675405e-01 1.117856e+00 8.718380e-01 -2.187419e-01 -3.897155e-02 3.511441e-01 4.869802e-01 5.886047e-01 -5.325214e-01
<VARIANCE> 25
 1.972391e+01 3.227742e+01 4.309776e+01 5.167957e+01 5.495691e+01 6.691110e+01 3.850472e+01 4.351723e+01 4.154246e+01 3.556070e+01 3.517086e+01 2.803684e+01 6.999541e-01 1.390189e+00 1.663853e+00 1.824908e+00 1.964548e+00 2.784639e+00 2.501812e+00 2.236512e+00 2.341234e+00 2.148965e+00 1.947036e+00 1.699689e+00 1.056007e+00
<GCONST> 9.730878e+01
~t "T_i"
<ENDHMM>
~h "x-i+s"
<BEGINHMM>
<NUMSTATES> 5
<STATE> 2
<MEAN> 25
 2.824880e+00 -2.961581e+00 4.292364e+00 7.499251e+00 7.346193e+00 -2.067250e+00 -5.297520e+00 -2.873806e+00 -2.378581e+00 -1.973293e+00 -2.520489e+00 -3.736685e+00 1.015099e+00 -9.724852e-01 2.479329e-01 2.179622e+00 1.426837e+00 -2.128228e+00 -2.309814e+00 -3.848035e-01 -7.270547e-01 -7.560874e-01 -6.794949e-01 -8.365397e-01 1.175898e+00
<VARIANCE> 25
 3.374600e+01 3.967356e+01 6.750194e+01 6.375350e+01 5.781096e+01 6.437442e+01 4.980933e+01 4.415491e+01 4.445846e+01 3.540117e+01 3.356274e+01 2.704606e+01 3.132528e+00 4.137255e+00 3.621446e+00 4.487921e+00 4.215056e+00 5.312013e+00 4.005538e+00 3.824685e+00 4.409300e+00 4.209664e+00 3.923692e+00 2.984154e+00 1.617640e+00
<GCONST> 1.086541e+02
<STATE> 3
<MEAN> 25
 3.691633e+00 -6.378765e+00 6.166086e+00 1.236009e+01 7.380941e+00 -9.047977e+00 -9.580333e+00 -1.629763e+00 -3.102339e+00 -4.599288e+00 -4.548250e+00 -5.048493e+00 8.359629e-02 -2.991736e-01 1.296623e-01 4.305927e-01 9.667514e-03 -8.290642e-01 -5.818837e-01 1.603395e-01 8.957740e-02 -1.876646e-01 -1.591199e-01 -1.092843e-01 2.681427e-01
<VARIANCE> 25
 2.149308e+01 3.103732e+01 4.970968e+01 5.873264e+01 7.158559e+01 6.920425e+01 3.966159e+01 4.495304e+01 4.204121e+01 4.275245e+01 4.102441e+01 2.954641e+01 6.639252e-01 9.264812e-01 1.883231e+00 1.858640e+00 1.558079e+00 2.146437e+00 1.929194e+00 2.097977e+00 1.840118e+00 1.884095e+00 1.595546e+00 1.333590e+00 5.259222e-01
<GCONST> 9.574519e+01
<STATE> 4
<MEAN> 25
 4.036044e+00 -4.218312e+00 4.209880e+00 1.037407e+01 7.996428e+00 -6.247262e+00 -9.419474e+00 -3.331409e+00 -2.663913e+00 -2.918104e+00 -3.142705e+00 -4.376024e+00 3.821991e-02 8.336469e-01 -6.000085e-01 -1.181883e+00 -5.675405e-01 1.117856e+00 8.718380e-01 -2.187419e-01 -3.897155e-02 3.511441e-01 4.869802e-01 5.886047e-01 -5.325214e-01
<VARIANCE> 25
 1.972391e+01 3.227742e+01 4.309776e+01 5.167957e+01 5.495691e+01 6.691110e+01 3.850472e+01 4.351723e+01 4.154246e+01 3.556070e+01 3.517086e+01 2.803684e+01 6.999541e-01 1.390189e+00 1.663853e+00 1.824908e+00 1.964548e+00 2.784639e+00 2.501812e+00 2.236512e+00 2.341234e+00 2.148965e+00 1.947036e+00 1.699689e+00 1.056007e+00
<GCONST> 9.730878e+01
~t "T_i"
<ENDHMM>
~h "k-o+d"
<BEGINHMM>
<NUMSTATES> 5
<STATE> 2
<MEAN> 25
 8.202134e+00 8.756948e-01 -1.556870e+00 -2.412576e+00 -4.135490e+00 -5.283045e+00 -1.325630e+00 5.514442e-01 -3.256593e+00 -4.464030e+00 -3.179199e+00 -1.018459e+00 8.533680e-01 5.628624e-02 -4.272498e-01 -1.163086e+00 -1.742013e+00 -1.833407e+00 -1.006363e-01 8.327968e-01 2.565329e-01 -1.784475e-01 -2.551433e-01 1.000556e-01 7.841955e-01
<VARIANCE> 25
 2.727819e+01 4.614404e+01 4.546624e+01 5.624189e+01 6.257309e+01 6.102062e+01 4.518742e+01 4.939813e+01 5.469617e+01 4.219932e+01 3.056493e+01 2.847985e+01 1.604221e+00 2.714622e+00 2.414845e+00 3.306103e+00 3.399673e+00 4.293542e+00 4.410888e+00 3.910635e+00 3.812121e+00 3.509329e+00 2.851977e+00 2.694980e+00 1.552250e+00
<GCONST> 1.055529e+02
<STATE> 3
<MEAN> 25
 9.608891e+00 1.841884e+00 -1.624231e+00 -4.843653e+00 -1.056682e+01 -1.047259e+01 -3.275502e-01 4.228262e+00 -8.981493e-01 -3.707518e+00 -3.771726e+00 -1.847208e+00 -1.603226e-01 3.746803e-01 2.492852e-02 -5.283350e-02 -1.316152e-01 2.060792e-01 2.320018e-01 3.473101e-01 4.636069e-01 2.421327e-01 -1.011645e-03 -9.001540e-02 -4.208844e-01
<VARIANCE> 25
 2.191664e+01 3.832346e+01 3.536129e+01 4.552036e+01 5.146196e+01 5.402416e+01 4.532333e+01 4.316967e+01 5.194213e+01 3.791486e+01 2.724122e+01 2.477335e+01 5.759985e-01 1.296905e+00 1.329783e+00 1.436117e+00 2.015944e+00 2.854960e+00 1.984985e+00 2.227589e+00 2.343580e+00 2.045362e+00 1.638120e+00 1.449960e+00 1.066268e+00
<GCONST> 9.576168e+01
<STATE> 4
<MEAN> 25
 5.920141e+00 4.729104e+00 -6.619071e-01 -3.592440e+00 -6.668617e+00 -4.437122e+00 3.776827e-01 3.175261e+00 9.050462e-01 -1.454790e+00 -2.326509e+00 -1.249121e+00 -6.257654e-01 -3.906129e-02 1.678127e-01 4.218079e-01 7.039407e-01 9.980335e-01 2.885799e-01 -2.038472e-01 -1.773957e-02 1.877047e-01 2.155907e-01 8.154663e-02 -5.345345e-01
<VARIANCE> 25
 2.381943e+01 3.168683e+01 3.073319e+01 3.372535e+01 3.205265e+01 4.222814e+01 3.201194e+01 3.300840e+01 3.498757e+01 3.150789e+01 2.243595e+01 1.901501e+01 4.852379e-01 7.335701e-01 1.011674e+00 1.084659e+00 1.496157e+00 1.967000e+00 1.648281e+00 1.688958e+00 1.686677e+00 1.518985e+00 1.305284e+00 1.193857e+00 3.831035e-01
<GCONST> 8.833953e+01
~t "T_o"
<ENDHMM>
~h "k-o+k"
<BEGINHMM>
<NUMSTATES> 5
<STATE> 2
<MEAN> 25
 8.202134e+00 8.756948e-01 -1.556870e+00 -2.412576e+00 -4.135490e+00 -5.283045e+00 -1.325630e+00 5.514442e-01 -3.256593e+00 -4.464030e+00 -3.179199e+00 -1.018459e+00 8.533680e-01 5.628624e-02 -4.272498e-01 -1.163086e+00 -1.742013e+00 -1.833407e+00 -1.006363e-01 8.327968e-01 2.565329e-01 -1.784475e-01 -2.551433e-01 1.000556e-01 7.841955e-01
<VARIANCE> 25
 2.727819e+01 4.614404e+01 4.546624e+01 5.624189e+01 6.257309e+01 6.102062e+01 4.518742e+01 4.939813e+01 5.469617e+01 4.219932e+01 3.056493e+01 2.847985e+01 1.604221e+00 2.714622e+00 2.414845e+00 3.306103e+00 3.399673e+00 4.293542e+00 4.410888e+00 3.910635e+00 3.812121e+00 3.509329e+00 2.851977e+00 2.694980e+00 1.552250e+00
<GCONST> 1.055529e+02
<STATE> 3
<MEAN> 25
 9.608891e+00 1.841884e+00 -1.624231e+00 -4.843653e+00 -1.056682e+01 -1.047259e+01 -3.275502e-01 4.228262e+00 -8.981493e-01 -3.707518e+00 -3.771726e+00 -1.847208e+00 -1.603226e-01 3.746803e-01 2.492852e-02 -5.283350e-02 -1.316152e-01 2.060792e-01 2.320018e-01 3.473101e-01 4.636069e-01 2.421327e-01 -1.011645e-03 -9.001540e-02 -4.208844e-01
<VARIANCE> 25
 2.191664e+01 3.832346e+01 3.536129e+01 4.552036e+01 5.146196e+01 5.402416e+01 4.532333e+01 4.316967e+01 5.194213e+01 3.791486e+01 2.724122e+01 2.477335e+01 5.759985e-01 1.296905e+00 1.329783e+00 1.436117e+00 2.015944e+00 2.854960e+00 1.984985e+00 2.227589e+00 2.343580e+00 2.045362e+00 1.638120e+00 1.449960e+00 1.066268e+00
<GCONST> 9.576168e+01
<STATE> 4
<MEAN> 25
 5.920141e+00 4.729104e+00 -6.619071e-01 -3.592440e+00 -6.668617e+00 -4.437122e+00 3.776827e-01 3.175261e+00 9.050462e-01 -1.454790e+00 -2.326509e+00 -1.249121e+00 -6.257654e-01 -3.906129e-02 1.678127e-01 4.218079e-01 7.039407e-01 9.980335e-01 2.885799e-01 -2.038472e-01 -1.773957e-02 1.877047e-01 2.155907e-01 8.154663e-02 -5.345345e-01
<VARIANCE> 25
 2.381943e+01 3.168683e+01 3.073319e+01 3.372535e+01 3.205265e+01 4.222814e+01 3.201194e+01 3.300840e+01 3.498757e+01 3.150789e+01 2.243595e+01 1.901501e+01 4.852379e-01 7.335701e-01 1.011674e+00 1.084659e+00 1.496157e+00 1.967000e+00 1.648281e+00 1.688958e+00 1.686677e+00 1.518985e+00 1.305284e+00 1.193857e+00 3.831035e-01
<GCONST> 8.833953e+01
~t "T_o"
<ENDHMM>
~h "k-o+l"
<BEGINHMM>
<NUMSTATES> 5
<STATE> 2
<MEAN> 25
 8.202134e+00 8.756948e-01 -1.556870e+00 -2.412576e+00 -4.135490e+00 -5.283045e+00 -1.325630e+00 5.514442e-01 -3.256593e+00 -4.464030e+00 -3.179199e+00 -1.018459e+00 8.533680e-01 5.628624e-02 -4.272498e-01 -1.163086e+00 -1.742013e+00 -1.833407e+00 -1.006363e-01 8.327968e-01 2.565329e-01 -1.784475e-01 -2.551433e-01 1.000556e-01 7.841955e-01
<VARIANCE> 25
 2.727819e+01 4.614404e+01 4.546624e+01 5.624189e+01 6.257309e+01 6.102062e+01 4.518742e+01 4.939813e+01 5.469617e+01 4.219932e+01 3.056493e+01 2.847985e+01 1.604221e+00 2.714622e+00 2.414845e+00 3.306103e+00 3.399673e+00 4.293542e+00 4.410888e+00 3.910635e+00 3.812121e+00 3.509329e+00 2.851977e+00 2.694980e+00 1.552250e+00
<GCONST> 1.055529e+02
<STATE> 3
<MEAN> 25
 9.608891e+00 1.841884e+00 -1.624231e+00 -4.843653e+00 -1.056682e+01 -1.047259e+01 -3.275502e-01 4.228262e+00 -8.981493e-01 -3.707518e+00 -3.771726e+00 -1.847208e+00 -1.603226e-01 3.746803e-01 2.492852e-02 -5.283350e-02 -1.316152e-01 2.060792e-01 2.320018e-01 3.473101e-01 4.636069e-01 2.421327e-01 -1.011645e-03 -9.001540e-02 -4.208844e-01
<VARIANCE> 25
 2.191664e+01 3.832346e+01 3.536129e+01 4.552036e+01 5.146196e+01 5.402416e+01 4.532333e+01 4.316967e+01 5.194213e+01 3.791486e+01 2.724122e+01 2.477335e+01 5.759985e-01 1.296905e+00 1.329783e+00 1.436117e+00 2.015944e+00 2.854960e+00 1.984985e+00 2.227589e+00 2.343580e+00 2.045362e+00 1.638120e+00 1.449960e+00 1.066268e+00
<GCONST> 9.576168e+01
<STATE> 4
<MEAN> 25
 5.920141e+00 4.729104e+00 -6.619071e-01 -3.592440e+00 -6.668617e+00 -4.437122e+00 3.776827e-01 3.175261e+00 9.050462e-01 -1.454790e+00 -2.326509e+00 -1.249121e+00 -6.257654e-01 -3.906129e-02 1.678127e-01 4.218079e-01 7.039407e-01 9.980335e-01 2.885799e-01 -2.038472e-01 -1.773957e-02 1.877047e-01 2.155907e-01 8.154663e-02 -5.345345e-01
<VARIANCE> 25
 2.381943e+01 3.168683e+01 3.073319e+01 3.372535e+01 3.205265e+01 4.222814e+01 3.201194e+01 3.300840e+01 3.498757e+01 3.150789e+01 2.243595e+01 1.901501e+01 4.852379e-01 7.335701e-01 1.011674e+00 1.084659e+00 1.496157e+00 1.967000e+00 1.648281e+00 1.688958e+00 1.686677e+00 1.518985e+00 1.305284e+00 1.193857e+00 3.831035e-01
<GCONST> 8.833953e+01
~t "T_o"
<ENDHMM>
~h "k-o+m"
<BEGINHMM>
<NUMSTATES> 5
<STATE> 2
<MEAN> 25
 8.202134e+00 8.756948e-01 -1.556870e+00 -2.412576e+00 -4.135490e+00 -5.283045e+00 -1.325630e+00 5.514442e-01 -3.256593e+00 -4.464030e+00 -3.179199e+00 -1.018459e+00 8.533680e-01 5.628624e-02 -4.272498e-01 -1.163086e+00 -1.742013e+00 -1.833407e+00 -1.006363e-01 8.327968e-01 2.565329e-01 -1.784475e-01 -2.551433e-01 1.000556e-01 7.841955e-01
<VARIANCE> 25
 2.727819e+01 4.614404e+01 4.546624e+01 5.624189e+01 6.257309e+01 6.102062e+01 4.518742e+01 4.939813e+01 5.469617e+01 4.219932e+01 3.056493e+01 2.847985e+01 1.604221e+00 2.714622e+00 2.414845e+00 3.306103e+00 3.399673e+00 4.293542e+00 4.410888e+00 3.910635e+00 3.812121e+00 3.509329e+00 2.851977e+00 2.694980e+00 1.552250e+00
<GCONST> 1.055529e+02
<STATE> 3
<MEAN> 25
 9.608891e+00 1.841884e+00 -1.624231e+00 -4.843653e+00 -1.056682e+01 -1.047259e+01 -3.275502e-01 4.228262e+00 -8.981493e-01 -3.707518e+00 -3.771726e+00 -1.847208e+00 -1.603226e-01 3.746803e-01 2.492852e-02 -5.283350e-02 -1.316152e-01 2.060792e-01 2.320018e-01 3.473101e-01 4.636069e-01 2.421327e-01 -1.011645e-03 -9.001540e-02 -4.208844e-01
<VARIANCE> 25
 2.191664e+01 3.832346e+01 3.536129e+01 4.552036e+01 5.146196e+01 5.402416e+01 4.532333e+01 4.316967e+01 5.194213e+01 3.791486e+01 2.724122e+01 2.477335e+01 5.759985e-01 1.296905e+00 1.329783e+00 1.436117e+00 2.015944e+00 2.854960e+00 1.984985e+00 2.227589e+00 2.343580e+00 2.045362e+00 1.638120e+00 1.449960e+00 1.066268e+00
<GCONST> 9.576168e+01
<STATE> 4
<MEAN> 25
 5.920141e+00 4.729104e+00 -6.619071e-01 -3.592440e+00 -6.668617e+00 -4.437122e+00 3.776827e-01 3.175261e+00 9.050462e-01 -1.454790e+00 -2.326509e+00 -1.249121e+00 -6.257654e-01 -3.906129e-02 1.678127e-01 4.218079e-01 7.039407e-01 9.980335e-01 2.885799e-01 -2.038472e-01 -1.773957e-02 1.877047e-01 2.155907e-01 8.154663e-02 -5.345345e-01
<VARIANCE> 25
 2.381943e+01 3.168683e+01 3.073319e+01 3.372535e+01 3.205265e+01 4.222814e+01 3.201194e+01 3.300840e+01 3.498757e+01 3.150789e+01 2.243595e+01 1.901501e+01 4.852379e-01 7.335701e-01 1.011674e+00 1.084659e+00 1.496157e+00 1.967000e+00 1.648281e+00 1.688958e+00 1.686677e+00 1.518985e+00 1.305284e+00 1.193857e+00 3.831035e-01
<GCONST> 8.833953e+01
~t "T_o"
<ENDHMM>
~h "k-o+n"
<BEGINHMM>
<NUMSTATES> 5
<STATE> 2
<MEAN> 25
 8.202134e+00 8.756948e-01 -1.556870e+00 -2.412576e+00 -4.135490e+00 -5.283045e+00 -1.325630e+00 5.514442e-01 -3.256593e+00 -4.464030e+00 -3.179199e+00 -1.018459e+00 8.533680e-01 5.628624e-02 -4.272498e-01 -1.163086e+00 -1.742013e+00 -1.833407e+00 -1.006363e-01 8.327968e-01 2.565329e-01 -1.784475e-01 -2.551433e-01 1.000556e-01 7.841955e-01
<VARIANCE> 25
 2.727819e+01 4.614404e+01 4.546624e+01 5.624189e+01 6.257309e+01 6.102062e+01 4.518742e+01 4.939813e+01 5.469617e+01 4.219932e+01 3.056493e+01 2.847985e+01 1.604221e+00 2.714622e+00 2.414845e+00 3.306103e+00 3.399673e+00 4.293542e+00 4.410888e+00 3.910635e+00 3.812121e+00 3.509329e+00 2.851977e+00 2.694980e+00 1.552250e+00
<GCONST> 1.055529e+02
<STATE> 3
<MEAN> 25
 9.608891e+00 1.841884e+00 -1.624231e+00 -4.843653e+00 -1.056682e+01 -1.047259e+01 -3.275502e-01 4.228262e+00 -8.981493e-01 -3.707518e+00 -3.771726e+00 -1.847208e+00 -1.603226e-01 3.746803e-01 2.492852e-02 -5.283350e-02 -1.316152e-01 2.060792e-01 2.320018e-01 3.473101e-01 4.636069e-01 2.421327e-01 -1.011645e-03 -9.001540e-02 -4.208844e-01
<VARIANCE> 25
 2.191664e+01 3.832346e+01 3.536129e+01 4.552036e+01 5.146196e+01 5.402416e+01 4.532333e+01 4.316967e+01 5.194213e+01 3.791486e+01 2.724122e+01 2.477335e+01 5.759985e-01 1.296905e+00 1.329783e+00 1.436117e+00 2.015944e+00 2.854960e+00 1.984985e+00 2.227589e+00 2.343580e+00 2.045362e+00 1.638120e+00 1.449960e+00 1.066268e+00
<GCONST> 9.576168e+01
<STATE> 4
<MEAN> 25
 5.920141e+00 4.729104e+00 -6.619071e-01 -3.592440e+00 -6.668617e+00 -4.437122e+00 3.776827e-01 3.175261e+00 9.050462e-01 -1.454790e+00 -2.326509e+00 -1.249121e+00 -6.257654e-01 -3.906129e-02 1.678127e-01 4.218079e-01 7.039407e-01 9.980335e-01 2.885799e-01 -2.038472e-01 -1.773957e-02 1.877047e-01 2.155907e-01 8.154663e-02 -5.345345e-01
<VARIANCE> 25
 2.381943e+01 3.168683e+01 3.073319e+01 3.372535e+01 3.205265e+01 4.222814e+01 3.201194e+01 3.300840e+01 3.498757e+01 3.150789e+01 2.243595e+01 1.901501e+01 4.852379e-01 7.335701e-01 1.011674e+00 1.084659e+00 1.496157e+00 1.967000e+00 1.648281e+00 1.688958e+00 1.686677e+00 1.518985e+00 1.305284e+00 1.193857e+00 3.831035e-01
<GCONST> 8.833953e+01
~t "T_o"
<ENDHMM>
~h "k-o+r"
<BEGINHMM>
<NUMSTATES> 5
<STATE> 2
<MEAN> 25
 8.202134e+00 8.756948e-01 -1.556870e+00 -2.412576e+00 -4.135490e+00 -5.283045e+00 -1.325630e+00 5.514442e-01 -3.256593e+00 -4.464030e+00 -3.179199e+00 -1.018459e+00 8.533680e-01 5.628624e-02 -4.272498e-01 -1.163086e+00 -1.742013e+00 -1.833407e+00 -1.006363e-01 8.327968e-01 2.565329e-01 -1.784475e-01 -2.551433e-01 1.000556e-01 7.841955e-01
<VARIANCE> 25
 2.727819e+01 4.614404e+01 4.546624e+01 5.624189e+01 6.257309e+01 6.102062e+01 4.518742e+01 4.939813e+01 5.469617e+01 4.219932e+01 3.056493e+01 2.847985e+01 1.604221e+00 2.714622e+00 2.414845e+00 3.306103e+00 3.399673e+00 4.293542e+00 4.410888e+00 3.910635e+00 3.812121e+00 3.509329e+00 2.851977e+00 2.694980e+00 1.552250e+00
<GCONST> 1.055529e+02
<STATE> 3
<MEAN> 25
 9.608891e+00 1.841884e+00 -1.624231e+00 -4.843653e+00 -1.056682e+01 -1.047259e+01 -3.275502e-01 4.228262e+00 -8.981493e-01 -3.707518e+00 -3.771726e+00 -1.847208e+00 -1.603226e-01 3.746803e-01 2.492852e-02 -5.283350e-02 -1.316152e-01 2.060792e-01 2.320018e-01 3.473101e-01 4.636069e-01 2.421327e-01 -1.011645e-03 -9.001540e-02 -4.208844e-01
<VARIANCE> 25
 2.191664e+01 3.832346e+01 3.536129e+01 4.552036e+01 5.146196e+01 5.402416e+01 4.532333e+01 4.316967e+01 5.194213e+01 3.791486e+01 2.724122e+01 2.477335e+01 5.759985e-01 1.296905e+00 1.329783e+00 1.436117e+00 2.015944e+00 2.854960e+00 1.984985e+00 2.227589e+00 2.343580e+00 2.045362e+00 1.638120e+00 1.449960e+00 1.066268e+00
<GCONST> 9.576168e+01
<STATE> 4
<MEAN> 25
 5.920141e+00 4.729104e+00 -6.619071e-01 -3.592440e+00 -6.668617e+00 -4.437122e+00 3.776827e-01 3.175261e+00 9.050462e-01 -1.454790e+00 -2.326509e+00 -1.249121e+00 -6.257654e-01 -3.906129e-02 1.678127e-01 4.218079e-01 7.039407e-01 9.980335e-01 2.885799e-01 -2.038472e-01 -1.773957e-02 1.877047e-01 2.155907e-01 8.154663e-02 -5.345345e-01
<VARIANCE> 25
 2.381943e+01 3.168683e+01 3.073319e+01 3.372535e+01 3.205265e+01 4.222814e+01 3.201194e+01 3.300840e+01 3.498757e+01 3.150789e+01 2.243595e+01 1.901501e+01 4.852379e-01 7.335701e-01 1.011674e+00 1.084659e+00 1.496157e+00 1.967000e+00 1.648281e+00 1.688958e+00 1.686677e+00 1.518985e+00 1.305284e+00 1.193857e+00 3.831035e-01
<GCONST> 8.833953e+01
~t "T_o"
<ENDHMM>
~h "k-o+s"
<BEGINHMM>
<NUMSTATES> 5
<STATE> 2
<MEAN> 25
 8.202134e+00 8.756948e-01 -1.556870e+00 -2.412576e+00 -4.135490e+00 -5.283045e+00 -1.325630e+00 5.514442e-01 -3.256593e+00 -4.464030e+00 -3.179199e+00 -1.018459e+00 8.533680e-01 5.628624e-02 -4.272498e-01 -1.163086e+00 -1.742013e+00 -1.833407e+00 -1.006363e-01 8.327968e-01 2.565329e-01 -1.784475e-01 -2.551433e-01 1.000556e-01 7.841955e-01
<VARIANCE> 25
 2.727819e+01 4.614404e+01 4.546624e+01 5.624189e+01 6.257309e+01 6.102062e+01 4.518742e+01 4.939813e+01 5.469617e+01 4.219932e+01 3.056493e+01 2.847985e+01 1.604221e+00 2.714622e+00 2.414845e+00 3.306103e+00 3.399673e+00 4.293542e+00 4.410888e+00 3.910635e+00 3.812121e+00 3.509329e+00 2.851977e+00 2.694980e+00 1.552250e+00
<GCONST> 1.055529e+02
<STATE> 3
<MEAN> 25
 9.608891e+00 1.841884e+00 -1.624231e+00 -4.843653e+00 -1.056682e+01 -1.047259e+01 -3.275502e-01 4.228262e+00 -8.981493e-01 -3.707518e+00 -3.771726e+00 -1.847208e+00 -1.603226e-01 3.746803e-01 2.492852e-02 -5.283350e-02 -1.316152e-01 2.060792e-01 2.320018e-01 3.473101e-01 4.636069e-01 2.421327e-01 -1.011645e-03 -9.001540e-02 -4.208844e-01
<VARIANCE> 25
 2.191664e+01 3.832346e+01 3.536129e+01 4.552036e+01 5.146196e+01 5.402416e+01 4.532333e+01 4.316967e+01 5.194213e+01 3.791486e+01 2.724122e+01 2.477335e+01 5.759985e-01 1.296905e+00 1.329783e+00 1.436117e+00 2.015944e+00 2.854960e+00 1.984985e+00 2.227589e+00 2.343580e+00 2.045362e+00 1.638120e+00 1.449960e+00 1.066268e+00
<GCONST> 9.576168e+01
<STATE> 4
<MEAN> 25
 5.920141e+00 4.729104e+00 -6.619071e-01 -3.592440e+00 -6.668617e+00 -4.437122e+00 3.776827e-01 3.175261e+00 9.050462e-01 -1.454790e+00 -2.326509e+00 -1.249121e+00 -6.257654e-01 -3.906129e-02 1.678127e-01 4.218079e-01 7.039407e-01 9.980335e-01 2.885799e-01 -2.038472e-01 -1.773957e-02 1.877047e-01 2.155907e-01 8.154663e-02 -5.345345e-01
<VARIANCE> 25
 2.381943e+01 3.168683e+01 3.073319e+01 3.372535e+01 3.205265e+01 4.222814e+01 3.201194e+01 3.300840e+01 3.498757e+01 3.150789e+01 2.243595e+01 1.901501e+01 4.852379e-01 7.335701e-01 1.011674e+00 1.084659e+00 1.496157e+00 1.967000e+00 1.648281e+00 1.688958e+00 1.686677e+00 1.518985e+00 1.305284e+00 1.193857e+00 3.831035e-01
<GCONST> 8.833953e+01
~t "T_o"
<ENDHMM>
~h "k-o+x"
<BEGINHMM>
<NUMSTATES> 5
<STATE> 2
<MEAN> 25
 8.202134e+00 8.756948e-01 -1.556870e+00 -2.412576e+00 -4.135490e+00 -5.283045e+00 -1.325630e+00 5.514442e-01 -3.256593e+00 -4.464030e+00 -3.179199e+00 -1.018459e+00 8.533680e-01 5.628624e-02 -4.272498e-01 -1.163086e+00 -1.742013e+00 -1.833407e+00 -1.006363e-01 8.327968e-01 2.565329e-01 -1.784475e-01 -2.551433e-01 1.000556e-01 7.841955e-01
<VARIANCE> 25
 2.727819e+01 4.614404e+01 4.546624e+01 5.624189e+01 6.257309e+01 6.102062e+01 4.518742e+01 4.939813e+01 5.469617e+01 4.219932e+01 3.056493e+01 2.847985e+01 1.604221e+00 2.714622e+00 2.414845e+00 3.306103e+00 3.399673e+00 4.293542e+00 4.410888e+00 3.910635e+00 3.812121e+00 3.509329e+00 2.851977e+00 2.694980e+00 1.552250e+00
<GCONST> 1.055529e+02
<STATE> 3
<MEAN> 25
 9.608891e+00 1.841884e+00 -1.624231e+00 -4.843653e+00 -1.056682e+01 -1.047259e+01 -3.275502e-01 4.228262e+00 -8.981493e-01 -3.707518e+00 -3.771726e+00 -1.847208e+00 -1.603226e-01 3.746803e-01 2.492852e-02 -5.283350e-02 -1.316152e-01 2.060792e-01 2.320018e-01 3.473101e-01 4.636069e-01 2.421327e-01 -1.011645e-03 -9.001540e-02 -4.208844e-01
<VARIANCE> 25
 2.191664e+01 3.832346e+01 3.536129e+01 4.552036e+01 5.146196e+01 5.402416e+01 4.532333e+01 4.316967e+01 5.194213e+01 3.791486e+01 2.724122e+01 2.477335e+01 5.759985e-01 1.296905e+00 1.329783e+00 1.436117e+00 2.015944e+00 2.854960e+00 1.984985e+00 2.227589e+00 2.343580e+00 2.045362e+00 1.638120e+00 1.449960e+00 1.066268e+00
<GCONST> 9.576168e+01
<STATE> 4
<MEAN> 25
 5.920141e+00 4.729104e+00 -6.619071e-01 -3.592440e+00 -6.668617e+00 -4.437122e+00 3.776827e-01 3.175261e+00 9.050462e-01 -1.454790e+00 -2.326509e+00 -1.249121e+00 -6.257654e-01 -3.906129e-02 1.678127e-01 4.218079e-01 7.039407e-01 9.980335e-01 2.885799e-01 -2.038472e-01 -1.773957e-02 1.877047e-01 2.155907e-01 8.154663e-02 -5.345345e-01
<VARIANCE> 25
 2.381943e+01 3.168683e+01 3.073319e+01 3.372535e+01 3.205265e+01 4.222814e+01 3.201194e+01 3.300840e+01 3.498757e+01 3.150789e+01 2.243595e+01 1.901501e+01 4.852379e-01 7.335701e-01 1.011674e+00 1.084659e+00 1.496157e+00 1.967000e+00 1.648281e+00 1.688958e+00 1.686677e+00 1.518985e+00 1.305284e+00 1.193857e+00 3.831035e-01
<GCONST> 8.833953e+01
~t "T_o"
<ENDHMM>
~h "a-rr+a"
<BEGINHMM>
<NUMSTATES> 5
<STATE> 2
<MEAN> 25
 3.353537e+00 -9.142436e-01 -3.058184e+00 -3.547527e+00 3.143570e+00 1.554105e+00 -1.617299e+00 -1.135031e+00 7.034200e-01 -1.353892e+00 -9.484147e-01 7.906689e-01 3.572667e-01 9.332132e-02 -3.866347e-01 -8.697939e-02 3.757065e-01 2.881039e-01 -9.380478e-02 -1.033477e-01 -1.545185e-01 -3.527187e-01 -1.557336e-01 4.292154e-02 5.196048e-02
<VARIANCE> 25
 4.300015e+01 5.147916e+01 5.414499e+01 6.460785e+01 4.989538e+01 5.407913e+01 4.206803e+01 4.860925e+01 3.790956e+01 3.987109e+01 3.461342e+01 3.103023e+01 2.915508e+00 4.136422e+00 3.340683e+00 3.983831e+00 3.703060e+00 4.642681e+00 3.783070e+00 3.926247e+00 3.502168e+00 3.444017e+00 3.087563e+00 2.842110e+00 3.238592e+00
<GCONST> 1.080909e+02
<STATE> 3
<MEAN> 25
 7.582133e+00 1.247781e+00 -5.329599e+00 -4.675842e+00 2.104177e+00 2.665906e+00 -1.852962e+00 -2.771921e+00 -1.963075e+00 -2.989711e+00 -2.774907e+00 3.743697e-01 9.248909e-01 6.599494e-01 -7.228659e-01 -7.283572e-01 -1.813637e-01 -1.756126e-01 -3.578639e-01 -5.607713e-01 -5.978424e-01 -4.266687e-01 -3.611438e-01 -8.400698e-02 2.693413e-01
<VARIANCE> 25
 2.256667e+01 2.670186e+01 3.456329e+01 4.313871e+01 3.583524e+01 4.206372e+01 3.763231e+01 3.354306e+01 2.742425e+01 2.760290e+01 2.449686e+01 2.322071e+01 8.681712e-01 1.280364e+00 1.529286e+00 1.913779e+00 2.044108e+00 1.849371e+00 1.987761e+00 2.027984e+00 1.732651e+00 1.687739e+00 1.583756e+00 1.522920e+00 7.689877e-01
<GCONST> 9.268141e+01
<STATE> 4
<MEAN> 25
 1.009247e+01 1.486915e+00 -8.246142e+00 -5.120526e+00 2.065458e+00 1.025245e+00 -3.525442e+00 -4.038950e+00 -2.868468e+00 -3.264583e+00 -2.356816e+00 1.102997e+00 1.186399e-01 -2.301981e-01 -1.140983e-01 1.072073e-01 3.884058e-02 -7.065016e-01 -3.659014e-01 -8.380543e-02 -9.820130e-02 1.017236e-01 2.038886e-01 1.326848e-01 3.107538e-01
<VARIANCE> 25
 3.007746e+01 2.656600e+01 4.011358e+01 4.749679e+01 3.734233e+01 3.581827e+01 3.574841e+01 3.924471e+01 3.173490e+01 2.907249e+01 2.628150e+01 2.564830e+01 4.615683e-01 8.872818e-01 9.988760e-01 1.540743e+00 1.448741e+00 1.726679e+00 1.611915e+00 1.678023e+00 1.689305e+00 1.443329e+00 1.524528e+00 1.506498e+00 5.601036e-01
<GCONST> 9.056165e+01
~t "T_rr"
<ENDHMM>
~h "a-rr+e"
<BEGINHMM>
<NUMSTATES> 5
<STATE> 2
<MEAN> 25
 3.353537e+00 -9.142436e-01 -3.058184e+00 -3.547527e+00 3.143570e+00 1.554105e+00 -1.617299e+00 -1.135031e+00 7.034200e-01 -1.353892e+00 -9.484147e-01 7.906689e-01 3.572667e-01 9.332132e-02 -3.866347e-01 -8.697939e-02 3.757065e-01 2.881039e-01 -9.380478e-02 -1.033477e-01 -1.545185e-01 -3.527187e-01 -1.557336e-01 4.292154e-02 5.196048e-02
<VARIANCE> 25
 4.300015e+01 5.147916e+01 5.414499e+01 6.460785e+01 4.989538e+01 5.407913e+01 4.206803e+01 4.860925e+01 3.790956e+01 3.987109e+01 3.461342e+01 3.103023e+01 2.915508e+00 4.136422e+00 3.340683e+00 3.983831e+00 3.703060e+00 4.642681e+00 3.783070e+00 3.926247e+00 3.502168e+00 3.444017e+00 3.087563e+00 2.842110e+00 3.238592e+00
<GCONST> 1.080909e+02
<STATE> 3
<MEAN> 25
 7.582133e+00 1.247781e+00 -5.329599e+00 -4.675842e+00 2.104177e+00 2.665906e+00 -1.852962e+00 -2.771921e+00 -1.963075e+00 -2.989711e+00 -2.774907e+00 3.743697e-01 9.248909e-01 6.599494e-01 -7.228659e-01 -7.283572e-01 -1.813637e-01 -1.756126e-01 -3.578639e-01 -5.607713e-01 -5.978424e-01 -4.266687e-01 -3.611438e-01 -8.400698e-02 2.693413e-01
<VARIANCE> 25
 2.256667e+01 2.670186e+01 3.456329e+01 4.313871e+01 3.583524e+01 4.206372e+01 3.763231e+01 3.354306e+01 2.742425e+01 2.760290e+01 2.449686e+01 2.322071e+01 8.681712e-01 1.280364e+00 1.529286e+00 1.913779e+00 2.044108e+00 1.849371e+00 1.987761e+00 2.027984e+00 1.732651e+00 1.687739e+00 1.583756e+00 1.522920e+00 7.689877e-01
<GCONST> 9.268141e+01
<STATE> 4
<MEAN> 25
 1.009247e+01 1.486915e+00 -8.246142e+00 -5.120526e+00 2.065458e+00 1.025245e+00 -3.525442e+00 -4.038950e+00 -2.868468e+00 -3.264583e+00 -2.356816e+00 1.102997e+00 1.186399e-01 -2.301981e-01 -1.140983e-01 1.072073e-01 3.884058e-02 -7.065016e-01 -3.659014e-01 -8.380543e-02 -9.820130e-02 1.017236e-01 2.038886e-01 1.326848e-01 3.107538e-01
<VARIANCE> 25
 3.007746e+01 2.656600e+01 4.011358e+01 4.749679e+01 3.734233e+01 3.581827e+01 3.574841e+01 3.924471e+01 3.173490e+01 2.907249e+01 2.628150e+01 2.564830e+01 4.615683e-01 8.872818e-01 9.988760e-01 1.540743e+00 1.448741e+00 1.726679e+00 1.611915e+00 1.678023e+00 1.689305e+00 1.443329e+00 1.524528e+00 1.506498e+00 5.601036e-01
<GCONST> 9.056165e+01
~t "T_rr"
<ENDHMM>
~h "a-rr+i"
<BEGINHMM>
<NUMSTATES> 5
<STATE> 2
<MEAN> 25
 3.353537e+00 -9.142436e-01 -3.058184e+00 -3.547527e+00 3.143570e+00 1.554105e+00 -1.617299e+00 -1.135031e+00 7.034200e-01 -1.353892e+00 -9.484147e-01 7.906689e-01 3.572667e-01 9.332132e-02 -3.866347e-01 -8.697939e-02 3.757065e-01 2.881039e-01 -9.380478e-02 -1.033477e-01 -1.545185e-01 -3.527187e-01 -1.557336e-01 4.292154e-02 5.196048e-02
<VARIANCE> 25
 4.300015e+01 5.147916e+01 5.414499e+01 6.460785e+01 4.989538e+01 5.407913e+01 4.206803e+01 4.860925e+01 3.790956e+01 3.987109e+01 3.461342e+01 3.103023e+01 2.915508e+00 4.136422e+00 3.340683e+00 3.983831e+00 3.703060e+00 4.642681e+00 3.783070e+00 3.926247e+00 3.502168e+00 3.444017e+00 3.087563e+00 2.842110e+00 3.238592e+00
<GCONST> 1.080909e+02
<STATE> 3
<MEAN> 25
 7.582133e+00 1.247781e+00 -5.329599e+00 -4.675842e+00 2.104177e+00 2.665906e+00 -1.852962e+00 -2.771921e+00 -1.963075e+00 -2.989711e+00 -2.774907e+00 3.743697e-01 9.248909e-01 6.599494e-01 -7.228659e-01 -7.283572e-01 -1.813637e-01 -1.756126e-01 -3.578639e-01 -5.607713e-01 -5.978424e-01 -4.266687e-01 -3.611438e-01 -8.400698e-02 2.693413e-01
<VARIANCE> 25
 2.256667e+01 2.670186e+01 3.456329e+01 4.313871e+01 3.583524e+01 4.206372e+01 3.763231e+01 3.354306e+01 2.742425e+01 2.760290e+01 2.449686e+01 2.322071e+01 8.681712e-01 1.280364e+00 1.529286e+00 1.913779e+00 2.044108e+00 1.849371e+00 1.987761e+00 2.027984e+00 1.732651e+00 1.687739e+00 1.583756e+00 1.522920e+00 7.689877e-01
<GCONST> 9.268141e+01
<STATE> 4
<MEAN> 25
 1.009247e+01 1.486915e+00 -8.246142e+00 -5.120526e+00 2.065458e+00 1.025245e+00 -3.525442e+00 -4.038950e+00 -2.868468e+00 -3.264583e+00 -2.356816e+00 1.102997e+00 1.186399e-01 -2.301981e-01 -1.140983e-01 1.072073e-01 3.884058e-02 -7.065016e-01 -3.659014e-01 -8.380543e-02 -9.820130e-02 1.017236e-01 2.038886e-01 1.326848e-01 3.107538e-01
<VARIANCE> 25
 3.007746e+01 2.656600e+01 4.011358e+01 4.749679e+01 3.734233e+01 3.581827e+01 3.574841e+01 3.924471e+01 3.173490e+01 2.907249e+01 2.628150e+01 2.564830e+01 4.615683e-01 8.872818e-01 9.988760e-01 1.540743e+00 1.448741e+00 1.726679e+00 1.611915e+00 1.678023e+00 1.689305e+00 1.443329e+00 1.524528e+00 1.506498e+00 5.601036e-01
<GCONST> 9.056165e+01
~t "T_rr"
<ENDHMM>
~h "a-rr+o"
<BEGINHMM>
<NUMSTATES> 5
<STATE> 2
<MEAN> 25
 3.353537e+00 -9.142436e-01 -3.058184e+00 -3.547527e+00 3.143570e+00 1.554105e+00 -1.617299e+00 -1.135031e+00 7.034200e-01 -1.353892e+00 -9.484147e-01 7.906689e-01 3.572667e-01 9.332132e-02 -3.866347e-01 -8.697939e-02 3.757065e-01 2.881039e-01 -9.380478e-02 -1.033477e-01 -1.545185e-01 -3.527187e-01 -1.557336e-01 4.292154e-02 5.196048e-02
<VARIANCE> 25
 4.300015e+01 5.147916e+01 5.414499e+01 6.460785e+01 4.989538e+01 5.407913e+01 4.206803e+01 4.860925e+01 3.790956e+01 3.987109e+01 3.461342e+01 3.103023e+01 2.915508e+00 4.136422e+00 3.340683e+00 3.983831e+00 3.703060e+00 4.642681e+00 3.783070e+00 3.926247e+00 3.502168e+00 3.444017e+00 3.087563e+00 2.842110e+00 3.238592e+00
<GCONST> 1.080909e+02
<STATE> 3
<MEAN> 25
 7.582133e+00 1.247781e+00 -5.329599e+00 -4.675842e+00 2.104177e+00 2.665906e+00 -1.852962e+00 -2.771921e+00 -1.963075e+00 -2.989711e+00 -2.774907e+00 3.743697e-01 9.248909e-01 6.599494e-01 -7.228659e-01 -7.283572e-01 -1.813637e-01 -1.756126e-01 -3.578639e-01 -5.607713e-01 -5.978424e-01 -4.266687e-01 -3.611438e-01 -8.400698e-02 2.693413e-01
<VARIANCE> 25
 2.256667e+01 2.670186e+01 3.456329e+01 4.313871e+01 3.583524e+01 4.206372e+01 3.763231e+01 3.354306e+01 2.742425e+01 2.760290e+01 2.449686e+01 2.322071e+01 8.681712e-01 1.280364e+00 1.529286e+00 1.913779e+00 2.044108e+00 1.849371e+00 1.987761e+00 2.027984e+00 1.732651e+00 1.687739e+00 1.583756e+00 1.522920e+00 7.689877e-01
<GCONST> 9.268141e+01
<STATE> 4
<MEAN> 25
 1.009247e+01 1.486915e+00 -8.246142e+00 -5.120526e+00 2.065458e+00 1.025245e+00 -3.525442e+00 -4.038950e+00 -2.868468e+00 -3.264583e+00 -2.356816e+00 1.102997e+00 1.186399e-01 -2.301981e-01 -1.140983e-01 1.072073e-01 3.884058e-02 -7.065016e-01 -3.659014e-01 -8.380543e-02 -9.820130e-02 1.017236e-01 2.038886e-01 1.326848e-01 3.107538e-01
<VARIANCE> 25
 3.007746e+01 2.656600e+01 4.011358e+01 4.749679e+01 3.734233e+01 3.581827e+01 3.574841e+01 3.924471e+01 3.173490e+01 2.907249e+01 2.628150e+01 2.564830e+01 4.615683e-01 8.872818e-01 9.988760e-01 1.540743e+00 1.448741e+00 1.726679e+00 1.611915e+00 1.678023e+00 1.689305e+00 1.443329e+00 1.524528e+00 1.506498e+00 5.601036e-01
<GCONST> 9.056165e+01
~t "T_rr"
<ENDHMM>
~h "a-b+a"
<BEGINHMM>
<NUMSTATES> 5
<STATE> 2
<MEAN> 25
 7.453249e+00 1.854894e+00 -3.055483e+00 1.129761e-01 -5.903215e-01 -2.019453e+00 -9.623871e-01 -2.498531e-01 -2.357596e+00 -3.923417e+00 -3.094668e+00 -1.821743e+00 4.853825e-02 1.296036e+00 3.276203e-01 2.709658e-02 -3.125394e-01 5.880693e-01 7.153720e-01 7.017969e-01 4.376649e-01 -1.752225e-01 -7.070358e-01 -5.481036e-01 -9.195412e-01
<VARIANCE> 25
 3.346801e+01 3.947591e+01 4.344426e+01 5.973069e+01 5.670771e+01 4.925726e+01 3.268375e+01 4.100950e+01 4.737400e+01 3.473342e+01 2.501481e+01 2.451253e+01 1.081666e+00 1.334289e+00 1.641493e+00 2.853810e+00 3.615987e+00 2.742803e+00 2.493510e+00 2.804891e+00 2.849236e+00 2.749629e+00 2.209752e+00 1.999554e+00 1.226195e+00
<GCONST> 9.985339e+01
<STATE> 3
<MEAN> 25
 6.949950e+00 3.740428e+00 -1.714613e+00 3.235494e-01 -9.867709e-01 -1.327352e+00 -1.314925e-01 7.956891e-01 -1.145713e+00 -3.079894e+00 -3.591807e+00 -2.550094e+00 -8.611151e-02 4.030907e-01 1.799360e-01 7.571537e-02 -3.430426e-02 2.170843e-01 1.954542e-01 1.316523e-01 1.675814e-01 3.952383e-02 -1.006096e-01 -8.349357e-02 -3.062887e-01
<VARIANCE> 25
 2.692079e+01 3.626947e+01 4.409764e+01 5.273486e+01 4.805618e+01 4.925530e+01 3.155102e+01 3.594095e+01 4.166383e+01 3.111368e+01 2.364136e+01 2.366270e+01 4.684736e-01 6.017178e-01 8.846315e-01 1.491829e+00 2.014702e+00 1.665077e+00 1.348875e+00 1.519242e+00 1.830568e+00 1.490714e+00 1.216153e+00 1.152516e+00 3.799050e-01
<GCONST> 9.019222e+01
<STATE> 4
<MEAN> 25
 6.578341e+00 4.712523e+00 -1.122386e+00 6.479018e-01 -1.106130e+00 -1.354586e+00 -2.909619e-01 1.025624e+00 -5.704058e-01 -2.493345e+00 -3.110632e+00 -2.025941e+00 1.390214e-01 -3.549204e-01 -1.764275e-01 -3.578497e-02 6.442415e-02 -2.743158e-01 -2.597390e-01 -2.456179e-01 -2.362213e-01 -5.547573e-03 2.503186e-01 3.078200e-01 3.261120e-01
<VARIANCE> 25
 2.816606e+01 3.491276e+01 4.524225e+01 4.909471e+01 4.680241e+01 5.250218e+01 3.074101e+01 3.258335e+01 3.859496e+01 2.864092e+01 2.050313e+01 1.999232e+01 3.488529e-01 7.084572e-01 8.258898e-01 1.390724e+00 1.873912e+00 1.648457e+00 1.367848e+00 1.515477e+00 1.712910e+00 1.390957e+00 1.179897e+00 1.095034e+00 3.408834e-01
<GCONST> 8.892953e+01
~t "T_b"
<ENDHMM>
~h "a-b+e"
<BEGINHMM>
<NUMSTATES> 5
<STATE> 2
<MEAN> 25
 7.453249e+00 1.854894e+00 -3.055483e+00 1.129761e-01 -5.903215e-01 -2.019453e+00 -9.623871e-01 -2.498531e-01 -2.357596e+00 -3.923417e+00 -3.094668e+00 -1.821743e+00 4.853825e-02 1.296036e+00 3.276203e-01 2.709658e-02 -3.125394e-01 5.880693e-01 7.153720e-01 7.017969e-01 4.376649e-01 -1.752225e-01 -7.070358e-01 -5.481036e-01 -9.195412e-01
<VARIANCE> 25
 3.346801e+01 3.947591e+01 4.344426e+01 5.973069e+01 5.670771e+01 4.925726e+01 3.268375e+01 4.100950e+01 4.737400e+01 3.473342e+01 2.501481e+01 2.451253e+01 1.081666e+00 1.334289e+00 1.641493e+00 2.853810e+00 3.615987e+00 2.742803e+00 2.493510e+00 2.804891e+00 2.849236e+00 2.749629e+00 2.209752e+00 1.999554e+00 1.226195e+00
<GCONST> 9.985339e+01
<STATE> 3
<MEAN> 25
 6.949950e+00 3.740428e+00 -1.714613e+00 3.235494e-01 -9.867709e-01 -1.327352e+00 -1.314925e-01 7.956891e-01 -1.145713e+00 -3.079894e+00 -3.591807e+00 -2.550094e+00 -8.611151e-02 4.030907e-01 1.799360e-01 7.571537e-02 -3.430426e-02 2.170843e-01 1.954542e-01 1.316523e-01 1.675814e-01 3.952383e-02 -1.006096e-01 -8.349357e-02 -3.062887e-01
<VARIANCE> 25
 2.692079e+01 3.626947e+01 4.409764e+01 5.273486e+01 4.805618e+01 4.925530e+01 3.155102e+01 3.594095e+01 4.166383e+01 3.111368e+01 2.364136e+01 2.366270e+01 4.684736e-01 6.017178e-01 8.846315e-01 1.491829e+00 2.014702e+00 1.665077e+00 1.348875e+00 1.519242e+00 1.830568e+00 1.490714e+00 1.216153e+00 1.152516e+00 3.799050e-01
<GCONST> 9.019222e+01
<STATE> 4
<MEAN> 25
 6.578341e+00 4.712523e+00 -1.122386e+00 6.479018e-01 -1.106130e+00 -1.354586e+00 -2.909619e-01 1.025624e+00 -5.704058e-01 -2.493345e+00 -3.110632e+00 -2.025941e+00 1.390214e-01 -3.549204e-01 -1.764275e-01 -3.578497e-02 6.442415e-02 -2.743158e-01 -2.597390e-01 -2.456179e-01 -2.362213e-01 -5.547573e-03 2.503186e-01 3.078200e-01 3.261120e-01
<VARIANCE> 25
 2.816606e+01 3.491276e+01 4.524225e+01 4.909471e+01 4.680241e+01 5.250218e+01 3.074101e+01 3.258335e+01 3.859496e+01 2.864092e+01 2.050313e+01 1.999232e+01 3.488529e-01 7.084572e-01 8.258898e-01 1.390724e+00 1.873912e+00 1.648457e+00 1.367848e+00 1.515477e+00 1.712910e+00 1.390957e+00 1.179897e+00 1.095034e+00 3.408834e-01
<GCONST> 8.892953e+01
~t "T_b"
<ENDHMM>
~h "a-b+i"
<BEGINHMM>
<NUMSTATES> 5
<STATE> 2
<MEAN> 25
 7.453249e+00 1.854894e+00 -3.055483e+00 1.129761e-01 -5.903215e-01 -2.019453e+00 -9.623871e-01 -2.498531e-01 -2.357596e+00 -3.923417e+00 -3.094668e+00 -1.821743e+00 4.853825e-02 1.296036e+00 3.276203e-01 2.709658e-02 -3.125394e-01 5.880693e-01 7.153720e-01 7.017969e-01 4.376649e-01 -1.752225e-01 -7.070358e-01 -5.481036e-01 -9.195412e-01
<VARIANCE> 25
 3.346801e+01 3.947591e+01 4.344426e+01 5.973069e+01 5.670771e+01 4.925726e+01 3.268375e+01 4.100950e+01 4.737400e+01 3.473342e+01 2.501481e+01 2.451253e+01 1.081666e+00 1.334289e+00 1.641493e+00 2.853810e+00 3.615987e+00 2.742803e+00 2.493510e+00 2.804891e+00 2.849236e+00 2.749629e+00 2.209752e+00 1.999554e+00 1.226195e+00
<GCONST> 9.985339e+01
<STATE> 3
<MEAN> 25
 6.949950e+00 3.740428e+00 -1.714613e+00 3.235494e-01 -9.867709e-01 -1.327352e+00 -1.314925e-01 7.956891e-01 -1.145713e+00 -3.079894e+00 -3.591807e+00 -2.550094e+00 -8.611151e-02 4.030907e-01 1.799360e-01 7.571537e-02 -3.430426e-02 2.170843e-01 1.954542e-01 1.316523e-01 1.675814e-01 3.952383e-02 -1.006096e-01 -8.349357e-02 -3.062887e-01
<VARIANCE> 25
 2.692079e+01 3.626947e+01 4.409764e+01 5.273486e+01 4.805618e+01 4.925530e+01 3.155102e+01 3.594095e+01 4.166383e+01 3.111368e+01 2.364136e+01 2.366270e+01 4.684736e-01 6.017178e-01 8.846315e-01 1.491829e+00 2.014702e+00 1.665077e+00 1.348875e+00 1.519242e+00 1.830568e+00 1.490714e+00 1.216153e+00 1.152516e+00 3.799050e-01
<GCONST> 9.019222e+01
<STATE> 4
<MEAN> 25
 6.578341e+00 4.712523e+00 -1.122386e+00 6.479018e-01 -1.106130e+00 -1.354586e+00 -2.909619e-01 1.025624e+00 -5.704058e-01 -2.493345e+00 -3.110632e+00 -2.025941e+00 1.390214e-01 -3.549204e-01 -1.764275e-01 -3.578497e-02 6.442415e-02 -2.743158e-01 -2.597390e-01 -2.456179e-01 -2.362213e-01 -5.547573e-03 2.503186e-01 3.078200e-01 3.261120e-01
<VARIANCE> 25
 2.816606e+01 3.491276e+01 4.524225e+01 4.909471e+01 4.680241e+01 5.250218e+01 3.074101e+01 3.258335e+01 3.859496e+01 2.864092e+01 2.050313e+01 1.999232e+01 3.488529e-01 7.084572e-01 8.258898e-01 1.390724e+00 1.873912e+00 1.648457e+00 1.367848e+00 1.515477e+00 1.712910e+00 1.390957e+00 1.179897e+00 1.095034e+00 3.408834e-01
<GCONST> 8.892953e+01
~t "T_b"
<ENDHMM>
~h "a-b+l"
<BEGINHMM>
<NUMSTATES> 5
<STATE> 2
<MEAN> 25
 7.453249e+00 1.854894e+00 -3.055483e+00 1.129761e-01 -5.903215e-01 -2.019453e+00 -9.623871e-01 -2.498531e-01 -2.357596e+00 -3.923417e+00 -3.094668e+00 -1.821743e+00 4.853825e-02 1.296036e+00 3.276203e-01 2.709658e-02 -3.125394e-01 5.880693e-01 7.153720e-01 7.017969e-01 4.376649e-01 -1.752225e-01 -7.070358e-01 -5.481036e-01 -9.195412e-01
<VARIANCE> 25
 3.346801e+01 3.947591e+01 4.344426e+01 5.973069e+01 5.670771e+01 4.925726e+01 3.268375e+01 4.100950e+01 4.737400e+01 3.473342e+01 2.501481e+01 2.451253e+01 1.081666e+00 1.334289e+00 1.641493e+00 2.853810e+00 3.615987e+00 2.742803e+00 2.493510e+00 2.804891e+00 2.849236e+00 2.749629e+00 2.209752e+00 1.999554e+00 1.226195e+00
<GCONST> 9.985339e+01
<STATE> 3
<MEAN> 25
 6.949950e+00 3.740428e+00 -1.714613e+00 3.235494e-01 -9.867709e-01 -1.327352e+00 -1.314925e-01 7.956891e-01 -1.145713e+00 -3.079894e+00 -3.591807e+00 -2.550094e+00 -8.611151e-02 4.030907e-01 1.799360e-01 7.571537e-02 -3.430426e-02 2.170843e-01 1.954542e-01 1.316523e-01 1.675814e-01 3.952383e-02 -1.006096e-01 -8.349357e-02 -3.062887e-01
<VARIANCE> 25
 2.692079e+01 3.626947e+01 4.409764e+01 5.273486e+01 4.805618e+01 4.925530e+01 3.155102e+01 3.594095e+01 4.166383e+01 3.111368e+01 2.364136e+01 2.366270e+01 4.684736e-01 6.017178e-01 8.846315e-01 1.491829e+00 2.014702e+00 1.665077e+00 1.348875e+00 1.519242e+00 1.830568e+00 1.490714e+00 1.216153e+00 1.152516e+00 3.799050e-01
<GCONST> 9.019222e+01
<STATE> 4
<MEAN> 25
 6.578341e+00 4.712523e+00 -1.122386e+00 6.479018e-01 -1.106130e+00 -1.354586e+00 -2.909619e-01 1.025624e+00 -5.704058e-01 -2.493345e+00 -3.110632e+00 -2.025941e+00 1.390214e-01 -3.549204e-01 -1.764275e-01 -3.578497e-02 6.442415e-02 -2.743158e-01 -2.597390e-01 -2.456179e-01 -2.362213e-01 -5.547573e-03 2.503186e-01 3.078200e-01 3.261120e-01
<VARIANCE> 25
 2.816606e+01 3.491276e+01 4.524225e+01 4.909471e+01 4.680241e+01 5.250218e+01 3.074101e+01 3.258335e+01 3.859496e+01 2.864092e+01 2.050313e+01 1.999232e+01 3.488529e-01 7.084572e-01 8.258898e-01 1.390724e+00 1.873912e+00 1.648457e+00 1.367848e+00 1.515477e+00 1.712910e+00 1.390957e+00 1.179897e+00 1.095034e+00 3.408834e-01
<GCONST> 8.892953e+01
~t "T_b"
<ENDHMM>
~h "a-b+o"
<BEGINHMM>
<NUMSTATES> 5
<STATE> 2
<MEAN> 25
 7.453249e+00 1.854894e+00 -3.055483e+00 1.129761e-01 -5.903215e-01 -2.019453e+00 -9.623871e-01 -2.498531e-01 -2.357596e+00 -3.923417e+00 -3.094668e+00 -1.821743e+00 4.853825e-02 1.296036e+00 3.276203e-01 2.709658e-02 -3.125394e-01 5.880693e-01 7.153720e-01 7.017969e-01 4.376649e-01 -1.752225e-01 -7.070358e-01 -5.481036e-01 -9.195412e-01
<VARIANCE> 25
 3.346801e+01 3.947591e+01 4.344426e+01 5.973069e+01 5.670771e+01 4.925726e+01 3.268375e+01 4.100950e+01 4.737400e+01 3.473342e+01 2.501481e+01 2.451253e+01 1.081666e+00 1.334289e+00 1.641493e+00 2.853810e+00 3.615987e+00 2.742803e+00 2.493510e+00 2.804891e+00 2.849236e+00 2.749629e+00 2.209752e+00 1.999554e+00 1.226195e+00
<GCONST> 9.985339e+01
<STATE> 3
<MEAN> 25
 6.949950e+00 3.740428e+00 -1.714613e+00 3.235494e-01 -9.867709e-01 -1.327352e+00 -1.314925e-01 7.956891e-01 -1.145713e+00 -3.079894e+00 -3.591807e+00 -2.550094e+00 -8.611151e-02 4.030907e-01 1.799360e-01 7.571537e-02 -3.430426e-02 2.170843e-01 1.954542e-01 1.316523e-01 1.675814e-01 3.952383e-02 -1.006096e-01 -8.349357e-02 -3.062887e-01
<VARIANCE> 25
 2.692079e+01 3.626947e+01 4.409764e+01 5.273486e+01 4.805618e+01 4.925530e+01 3.155102e+01 3.594095e+01 4.166383e+01 3.111368e+01 2.364136e+01 2.366270e+01 4.684736e-01 6.017178e-01 8.846315e-01 1.491829e+00 2.014702e+00 1.665077e+00 1.348875e+00 1.519242e+00 1.830568e+00 1.490714e+00 1.216153e+00 1.152516e+00 3.799050e-01
<GCONST> 9.019222e+01
<STATE> 4
<MEAN> 25
 6.578341e+00 4.712523e+00 -1.122386e+00 6.479018e-01 -1.106130e+00 -1.354586e+00 -2.909619e-01 1.025624e+00 -5.704058e-01 -2.493345e+00 -3.110632e+00 -2.025941e+00 1.390214e-01 -3.549204e-01 -1.764275e-01 -3.578497e-02 6.442415e-02 -2.743158e-01 -2.597390e-01 -2.456179e-01 -2.362213e-01 -5.547573e-03 2.503186e-01 3.078200e-01 3.261120e-01
<VARIANCE> 25
 2.816606e+01 3.491276e+01 4.524225e+01 4.909471e+01 4.680241e+01 5.250218e+01 3.074101e+01 3.258335e+01 3.859496e+01 2.864092e+01 2.050313e+01 1.999232e+01 3.488529e-01 7.084572e-01 8.258898e-01 1.390724e+00 1.873912e+00 1.648457e+00 1.367848e+00 1.515477e+00 1.712910e+00 1.390957e+00 1.179897e+00 1.095034e+00 3.408834e-01
<GCONST> 8.892953e+01
~t "T_b"
<ENDHMM>
~h "a-b+r"
<BEGINHMM>
<NUMSTATES> 5
<STATE> 2
<MEAN> 25
 7.453249e+00 1.854894e+00 -3.055483e+00 1.129761e-01 -5.903215e-01 -2.019453e+00 -9.623871e-01 -2.498531e-01 -2.357596e+00 -3.923417e+00 -3.094668e+00 -1.821743e+00 4.853825e-02 1.296036e+00 3.276203e-01 2.709658e-02 -3.125394e-01 5.880693e-01 7.153720e-01 7.017969e-01 4.376649e-01 -1.752225e-01 -7.070358e-01 -5.481036e-01 -9.195412e-01
<VARIANCE> 25
 3.346801e+01 3.947591e+01 4.344426e+01 5.973069e+01 5.670771e+01 4.925726e+01 3.268375e+01 4.100950e+01 4.737400e+01 3.473342e+01 2.501481e+01 2.451253e+01 1.081666e+00 1.334289e+00 1.641493e+00 2.853810e+00 3.615987e+00 2.742803e+00 2.493510e+00 2.804891e+00 2.849236e+00 2.749629e+00 2.209752e+00 1.999554e+00 1.226195e+00
<GCONST> 9.985339e+01
<STATE> 3
<MEAN> 25
 6.949950e+00 3.740428e+00 -1.714613e+00 3.235494e-01 -9.867709e-01 -1.327352e+00 -1.314925e-01 7.956891e-01 -1.145713e+00 -3.079894e+00 -3.591807e+00 -2.550094e+00 -8.611151e-02 4.030907e-01 1.799360e-01 7.571537e-02 -3.430426e-02 2.170843e-01 1.954542e-01 1.316523e-01 1.675814e-01 3.952383e-02 -1.006096e-01 -8.349357e-02 -3.062887e-01
<VARIANCE> 25
 2.692079e+01 3.626947e+01 4.409764e+01 5.273486e+01 4.805618e+01 4.925530e+01 3.155102e+01 3.594095e+01 4.166383e+01 3.111368e+01 2.364136e+01 2.366270e+01 4.684736e-01 6.017178e-01 8.846315e-01 1.491829e+00 2.014702e+00 1.665077e+00 1.348875e+00 1.519242e+00 1.830568e+00 1.490714e+00 1.216153e+00 1.152516e+00 3.799050e-01
<GCONST> 9.019222e+01
<STATE> 4
<MEAN> 25
 6.578341e+00 4.712523e+00 -1.122386e+00 6.479018e-01 -1.106130e+00 -1.354586e+00 -2.909619e-01 1.025624e+00 -5.704058e-01 -2.493345e+00 -3.110632e+00 -2.025941e+00 1.390214e-01 -3.549204e-01 -1.764275e-01 -3.578497e-02 6.442415e-02 -2.743158e-01 -2.597390e-01 -2.456179e-01 -2.362213e-01 -5.547573e-03 2.503186e-01 3.078200e-01 3.261120e-01
<VARIANCE> 25
 2.816606e+01 3.491276e+01 4.524225e+01 4.909471e+01 4.680241e+01 5.250218e+01 3.074101e+01 3.258335e+01 3.859496e+01 2.864092e+01 2.050313e+01 1.999232e+01 3.488529e-01 7.084572e-01 8.258898e-01 1.390724e+00 1.873912e+00 1.648457e+00 1.367848e+00 1.515477e+00 1.712910e+00 1.390957e+00 1.179897e+00 1.095034e+00 3.408834e-01
<GCONST> 8.892953e+01
~t "T_b"
<ENDHMM>
~h "a-b+s"
<BEGINHMM>
<NUMSTATES> 5
<STATE> 2
<MEAN> 25
 7.453249e+00 1.854894e+00 -3.055483e+00 1.129761e-01 -5.903215e-01 -2.019453e+00 -9.623871e-01 -2.498531e-01 -2.357596e+00 -3.923417e+00 -3.094668e+00 -1.821743e+00 4.853825e-02 1.296036e+00 3.276203e-01 2.709658e-02 -3.125394e-01 5.880693e-01 7.153720e-01 7.017969e-01 4.376649e-01 -1.752225e-01 -7.070358e-01 -5.481036e-01 -9.195412e-01
<VARIANCE> 25
 3.346801e+01 3.947591e+01 4.344426e+01 5.973069e+01 5.670771e+01 4.925726e+01 3.268375e+01 4.100950e+01 4.737400e+01 3.473342e+01 2.501481e+01 2.451253e+01 1.081666e+00 1.334289e+00 1.641493e+00 2.853810e+00 3.615987e+00 2.742803e+00 2.493510e+00 2.804891e+00 2.849236e+00 2.749629e+00 2.209752e+00 1.999554e+00 1.226195e+00
<GCONST> 9.985339e+01
<STATE> 3
<MEAN> 25
 6.949950e+00 3.740428e+00 -1.714613e+00 3.235494e-01 -9.867709e-01 -1.327352e+00 -1.314925e-01 7.956891e-01 -1.145713e+00 -3.079894e+00 -3.591807e+00 -2.550094e+00 -8.611151e-02 4.030907e-01 1.799360e-01 7.571537e-02 -3.430426e-02 2.170843e-01 1.954542e-01 1.316523e-01 1.675814e-01 3.952383e-02 -1.006096e-01 -8.349357e-02 -3.062887e-01
<VARIANCE> 25
 2.692079e+01 3.626947e+01 4.409764e+01 5.273486e+01 4.805618e+01 4.925530e+01 3.155102e+01 3.594095e+01 4.166383e+01 3.111368e+01 2.364136e+01 2.366270e+01 4.684736e-01 6.017178e-01 8.846315e-01 1.491829e+00 2.014702e+00 1.665077e+00 1.348875e+00 1.519242e+00 1.830568e+00 1.490714e+00 1.216153e+00 1.152516e+00 3.799050e-01
<GCONST> 9.019222e+01
<STATE> 4
<MEAN> 25
 6.578341e+00 4.712523e+00 -1.122386e+00 6.479018e-01 -1.106130e+00 -1.354586e+00 -2.909619e-01 1.025624e+00 -5.704058e-01 -2.493345e+00 -3.110632e+00 -2.025941e+00 1.390214e-01 -3.549204e-01 -1.764275e-01 -3.578497e-02 6.442415e-02 -2.743158e-01 -2.597390e-01 -2.456179e-01 -2.362213e-01 -5.547573e-03 2.503186e-01 3.078200e-01 3.261120e-01
<VARIANCE> 25
 2.816606e+01 3.491276e+01 4.524225e+01 4.909471e+01 4.680241e+01 5.250218e+01 3.074101e+01 3.258335e+01 3.859496e+01 2.864092e+01 2.050313e+01 1.999232e+01 3.488529e-01 7.084572e-01 8.258898e-01 1.390724e+00 1.873912e+00 1.648457e+00 1.367848e+00 1.515477e+00 1.712910e+00 1.390957e+00 1.179897e+00 1.095034e+00 3.408834e-01
<GCONST> 8.892953e+01
~t "T_b"
<ENDHMM>
~h "k-r+a"
<BEGINHMM>
<NUMSTATES> 5
<STATE> 2
<MEAN> 25
 8.643217e+00 -2.787229e+00 -6.224000e+00 -3.124852e+00 1.355937e+00 -3.755785e+00 -4.512966e+00 -3.933424e+00 -2.882520e+00 -2.216112e+00 -7.354643e-01 1.580987e+00 1.561792e-01 8.974332e-01 -3.782570e-01 5.168830e-01 1.252811e+00 1.208448e+00 -3.267309e-01 -2.546778e-01 -2.021774e-01 -5.815746e-01 -5.138835e-01 -2.330100e-02 -1.076871e+00
<VARIANCE> 25
 3.211975e+01 4.498290e+01 5.062462e+01 5.935705e+01 5.828969e+01 5.106108e+01 4.451467e+01 4.801496e+01 4.760433e+01 4.023750e+01 3.850442e+01 3.225385e+01 1.654517e+00 2.112823e+00 2.382579e+00 2.979533e+00 3.407424e+00 4.447104e+00 3.988335e+00 3.638894e+00 3.461148e+00 2.960581e+00 2.838124e+00 2.399935e+00 1.986631e+00
<GCONST> 1.051154e+02
<STATE> 3
<MEAN> 25
 7.898341e+00 6.769122e-01 -5.980435e+00 -1.402799e+00 3.525082e+00 4.491480e-01 -3.918551e+00 -3.587373e+00 -2.649347e+00 -2.842372e+00 -1.689278e+00 1.021962e+00 -7.756338e-01 7.563383e-01 5.502752e-01 8.270113e-01 2.798240e-01 1.325491e+00 7.032835e-01 3.596233e-01 3.082208e-01 -5.154090e-03 -2.048264e-01 -3.199293e-01 -1.361292e+00
<VARIANCE> 25
 2.876068e+01 3.251756e+01 4.847742e+01 5.875251e+01 4.849226e+01 4.357820e+01 4.282160e+01 3.805943e+01 3.575104e+01 3.216047e+01 2.785275e+01 2.531534e+01 1.549412e+00 2.112714e+00 2.763809e+00 3.039823e+00 3.358799e+00 3.590118e+00 3.448425e+00 3.136224e+00 3.408474e+00 2.967985e+00 2.623605e+00 2.237263e+00 1.636310e+00
<GCONST> 1.021613e+02
<STATE> 4
<MEAN> 25
 5.412677e+00 1.833103e+00 -4.028427e+00 -5.085419e-01 2.267809e+00 2.085018e+00 -1.665371e+00 -2.343382e+00 -1.808912e+00 -2.284674e+00 -1.413052e+00 3.313459e-01 -4.867756e-01 -6.988044e-02 4.821670e-01 3.639740e-01 -2.038538e-01 -1.353530e-01 2.935330e-01 3.202356e-01 4.707072e-02 1.700878e-01 1.382703e-01 -1.182176e-01 -2.790100e-01
<VARIANCE> 25
 2.738630e+01 3.117259e+01 4.332304e+01 4.824800e+01 3.927319e+01 3.631243e+01 3.395251e+01 3.381007e+01 3.105561e+01 2.732073e+01 2.547030e+01 2.190276e+01 1.094292e+00 1.505075e+00 2.021805e+00 2.286807e+00 2.216540e+00 2.356158e+00 2.429886e+00 2.174607e+00 2.300617e+00 2.008530e+00 1.813168e+00 1.681972e+00 1.042680e+00
<GCONST> 9.575272e+01
~t "T_r"
<ENDHMM>
~h "k-r+e"
<BEGINHMM>
<NUMSTATES> 5
<STATE> 2
<MEAN> 25
 8.643217e+00 -2.787229e+00 -6.224000e+00 -3.124852e+00 1.355937e+00 -3.755785e+00 -4.512966e+00 -3.933424e+00 -2.882520e+00 -2.216112e+00 -7.354643e-01 1.580987e+00 1.561792e-01 8.974332e-01 -3.782570e-01 5.168830e-01 1.252811e+00 1.208448e+00 -3.267309e-01 -2.546778e-01 -2.021774e-01 -5.815746e-01 -5.138835e-01 -2.330100e-02 -1.076871e+00
<VARIANCE> 25
 3.211975e+01 4.498290e+01 5.062462e+01 5.935705e+01 5.828969e+01 5.106108e+01 4.451467e+01 4.801496e+01 4.760433e+01 4.023750e+01 3.850442e+01 3.225385e+01 1.654517e+00 2.112823e+00 2.382579e+00 2.979533e+00 3.407424e+00 4.447104e+00 3.988335e+00 3.638894e+00 3.461148e+00 2.960581e+00 2.838124e+00 2.399935e+00 1.986631e+00
<GCONST> 1.051154e+02
<STATE> 3
<MEAN> 25
 7.898341e+00 6.769122e-01 -5.980435e+00 -1.402799e+00 3.525082e+00 4.491480e-01 -3.918551e+00 -3.587373e+00 -2.649347e+00 -2.842372e+00 -1.689278e+00 1.021962e+00 -7.756338e-01 7.563383e-01 5.502752e-01 8.270113e-01 2.798240e-01 1.325491e+00 7.032835e-01 3.596233e-01 3.082208e-01 -5.154090e-03 -2.048264e-01 -3.199293e-01 -1.361292e+00
<VARIANCE> 25
 2.876068e+01 3.251756e+01 4.847742e+01 5.875251e+01 4.849226e+01 4.357820e+01 4.282160e+01 3.805943e+01 3.575104e+01 3.216047e+01 2.785275e+01 2.531534e+01 1.549412e+00 2.112714e+00 2.763809e+00 3.039823e+00 3.358799e+00 3.590118e+00 3.448425e+00 3.136224e+00 3.408474e+00 2.967985e+00 2.623605e+00 2.237263e+00 1.636310e+00
<GCONST> 1.021613e+02
<STATE> 4
<MEAN> 25
 5.412677e+00 1.833103e+00 -4.028427e+00 -5.085419e-01 2.267809e+00 2.085018e+00 -1.665371e+00 -2.343382e+00 -1.808912e+00 -2.284674e+00 -1.413052e+00 3.313459e-01 -4.867756e-01 -6.988044e-02 4.821670e-01 3.639740e-01 -2.038538e-01 -1.353530e-01 2.935330e-01 3.202356e-01 4.707072e-02 1.700878e-01 1.382703e-01 -1.182176e-01 -2.790100e-01
<VARIANCE> 25
 2.738630e+01 3.117259e+01 4.332304e+01 4.824800e+01 3.927319e+01 3.631243e+01 3.395251e+01 3.381007e+01 3.105561e+01 2.732073e+01 2.547030e+01 2.190276e+01 1.094292e+00 1.505075e+00 2.021805e+00 2.286807e+00 2.216540e+00 2.356158e+00 2.429886e+00 2.174607e+00 2.300617e+00 2.008530e+00 1.813168e+00 1.681972e+00 1.042680e+00
<GCONST> 9.575272e+01
~t "T_r"
<ENDHMM>
~h "k-r+i"
<BEGINHMM>
<NUMSTATES> 5
<STATE> 2
<MEAN> 25
 8.643217e+00 -2.787229e+00 -6.224000e+00 -3.124852e+00 1.355937e+00 -3.755785e+00 -4.512966e+00 -3.933424e+00 -2.882520e+00 -2.216112e+00 -7.354643e-01 1.580987e+00 1.561792e-01 8.974332e-01 -3.782570e-01 5.168830e-01 1.252811e+00 1.208448e+00 -3.267309e-01 -2.546778e-01 -2.021774e-01 -5.815746e-01 -5.138835e-01 -2.330100e-02 -1.076871e+00
<VARIANCE> 25
 3.211975e+01 4.498290e+01 5.062462e+01 5.935705e+01 5.828969e+01 5.106108e+01 4.451467e+01 4.801496e+01 4.760433e+01 4.023750e+01 3.850442e+01 3.225385e+01 1.654517e+00 2.112823e+00 2.382579e+00 2.979533e+00 3.407424e+00 4.447104e+00 3.988335e+00 3.638894e+00 3.461148e+00 2.960581e+00 2.838124e+00 2.399935e+00 1.986631e+00
<GCONST> 1.051154e+02
<STATE> 3
<MEAN> 25
 7.898341e+00 6.769122e-01 -5.980435e+00 -1.402799e+00 3.525082e+00 4.491480e-01 -3.918551e+00 -3.587373e+00 -2.649347e+00 -2.842372e+00 -1.689278e+00 1.021962e+00 -7.756338e-01 7.563383e-01 5.502752e-01 8.270113e-01 2.798240e-01 1.325491e+00 7.032835e-01 3.596233e-01 3.082208e-01 -5.154090e-03 -2.048264e-01 -3.199293e-01 -1.361292e+00
<VARIANCE> 25
 2.876068e+01 3.251756e+01 4.847742e+01 5.875251e+01 4.849226e+01 4.357820e+01 4.282160e+01 3.805943e+01 3.575104e+01 3.216047e+01 2.785275e+01 2.531534e+01 1.549412e+00 2.112714e+00 2.763809e+00 3.039823e+00 3.358799e+00 3.590118e+00 3.448425e+00 3.136224e+00 3.408474e+00 2.967985e+00 2.623605e+00 2.237263e+00 1.636310e+00
<GCONST> 1.021613e+02
<STATE> 4
<MEAN> 25
 5.412677e+00 1.833103e+00 -4.028427e+00 -5.085419e-01 2.267809e+00 2.085018e+00 -1.665371e+00 -2.343382e+00 -1.808912e+00 -2.284674e+00 -1.413052e+00 3.313459e-01 -4.867756e-01 -6.988044e-02 4.821670e-01 3.639740e-01 -2.038538e-01 -1.353530e-01 2.935330e-01 3.202356e-01 4.707072e-02 1.700878e-01 1.382703e-01 -1.182176e-01 -2.790100e-01
<VARIANCE> 25
 2.738630e+01 3.117259e+01 4.332304e+01 4.824800e+01 3.927319e+01 3.631243e+01 3.395251e+01 3.381007e+01 3.105561e+01 2.732073e+01 2.547030e+01 2.190276e+01 1.094292e+00 1.505075e+00 2.021805e+00 2.286807e+00 2.216540e+00 2.356158e+00 2.429886e+00 2.174607e+00 2.300617e+00 2.008530e+00 1.813168e+00 1.681972e+00 1.042680e+00
<GCONST> 9.575272e+01
~t "T_r"
<ENDHMM>
~h "k-s+a"
<BEGINHMM>
<NUMSTATES> 5
<STATE> 2
<MEAN> 25
 -2.672227e+00 -3.270423e+00 1.004953e+01 -4.440532e+00 1.809237e-01 1.463706e+00 2.479738e+00 -8.504221e-01 -6.740083e-01 7.527752e-01 2.025366e-01 -1.215088e-01 -2.952475e+00 -1.081467e+00 2.472686e+00 -1.170398e+00 1.552520e-01 9.225060e-01 1.190610e+00 1.466946e-02 5.599615e-01 4.710526e-01 5.590721e-01 2.782978e-01 2.598815e-01
<VARIANCE> 25
 6.090248e+01 4.096783e+01 9.645750e+01 7.985217e+01 7.116714e+01 6.051644e+01 6.688841e+01 7.043929e+01 5.318323e+01 4.527814e+01 3.572353e+01 2.664364e+01 3.096100e+00 3.809794e+00 4.041855e+00 4.010174e+00 3.633645e+00 4.631847e+00 3.728845e+00 3.332037e+00 3.740141e+00 3.394577e+00 2.906559e+00 2.198195e+00 1.359681e+00
<GCONST> 1.094882e+02
<STATE> 3
<MEAN> 25
 -1.388278e+01 -7.547144e+00 1.724523e+01 -1.016027e+01 5.564176e-01 9.960555e-01 5.586256e+00 -1.188120e+00 5.186584e-01 1.813791e+00 1.467571e+00 5.005577e-01 -2.925702e-01 -1.122364e-01 -2.537486e-01 7.632152e-02 -1.322451e-02 7.181087e-02 4.822661e-02 6.459653e-02 8.100856e-02 3.569933e-02 1.088791e-01 9.543600e-02 -2.908385e-01
<VARIANCE> 25
 7.703424e+01 8.092426e+01 1.181283e+02 1.229016e+02 1.058419e+02 8.350800e+01 7.997587e+01 8.339116e+01 7.095995e+01 5.324371e+01 4.210551e+01 2.871686e+01 2.398076e+00 1.604921e+00 2.021634e+00 2.360392e+00 1.573115e+00 1.834233e+00 1.877151e+00 1.805621e+00 1.722814e+00 1.544063e+00 1.343992e+00 1.183776e+00 8.760858e-01
<GCONST> 1.039959e+02
<STATE> 4
<MEAN> 25
 -6.362659e+00 -4.423155e+00 9.820220e+00 -4.903218e+00 -3.681852e-01 2.570100e+00 3.167925e+00 -5.793936e-01 -8.759587e-02 1.059100e+00 1.291414e+00 8.679242e-01 2.306367e+00 1.451382e+00 -1.806829e+00 1.135726e+00 -1.512867e-01 -5.723754e-03 -1.025580e+00 -6.012088e-02 -4.432604e-01 -4.086378e-01 -5.183563e-01 -1.828476e-01 -1.028221e+00
<VARIANCE> 25
 5.843802e+01 5.417876e+01 7.380061e+01 6.748988e+01 5.934891e+01 5.204456e+01 5.172548e+01 5.419441e+01 4.946672e+01 4.243489e+01 3.060479e+01 2.467298e+01 5.810026e+00 3.654878e+00 3.590863e+00 3.486390e+00 3.299611e+00 3.667934e+00 3.647548e+00 3.210599e+00 3.578302e+00 3.155891e+00 2.695603e+00 2.113597e+00 1.871167e+00
<GCONST> 1.080983e+02
~t "T_s"
<ENDHMM>
~h "k-s+i"
<BEGINHMM>
<NUMSTATES> 5
<STATE> 2
<MEAN> 25
 -2.672227e+00 -3.270423e+00 1.004953e+01 -4.440532e+00 1.809237e-01 1.463706e+00 2.479738e+00 -8.504221e-01 -6.740083e-01 7.527752e-01 2.025366e-01 -1.215088e-01 -2.952475e+00 -1.081467e+00 2.472686e+00 -1.170398e+00 1.552520e-01 9.225060e-01 1.190610e+00 1.466946e-02 5.599615e-01 4.710526e-01 5.590721e-01 2.782978e-01 2.598815e-01
<VARIANCE> 25
 6.090248e+01 4.096783e+01 9.645750e+01 7.985217e+01 7.116714e+01 6.051644e+01 6.688841e+01 7.043929e+01 5.318323e+01 4.527814e+01 3.572353e+01 2.664364e+01 3.096100e+00 3.809794e+00 4.041855e+00 4.010174e+00 3.633645e+00 4.631847e+00 3.728845e+00 3.332037e+00 3.740141e+00 3.394577e+00 2.906559e+00 2.198195e+00 1.359681e+00
<GCONST> 1.094882e+02
<STATE> 3
<MEAN> 25
 -1.388278e+01 -7.547144e+00 1.724523e+01 -1.016027e+01 5.564176e-01 9.960555e-01 5.586256e+00 -1.188120e+00 5.186584e-01 1.813791e+00 1.467571e+00 5.005577e-01 -2.925702e-01 -1.122364e-01 -2.537486e-01 7.632152e-02 -1.322451e-02 7.181087e-02 4.822661e-02 6.459653e-02 8.100856e-02 3.569933e-02 1.088791e-01 9.543600e-02 -2.908385e-01
<VARIANCE> 25
 7.703424e+01 8.092426e+01 1.181283e+02 1.229016e+02 1.058419e+02 8.350800e+01 7.997587e+01 8.339116e+01 7.095995e+01 5.324371e+01 4.210551e+01 2.871686e+01 2.398076e+00 1.604921e+00 2.021634e+00 2.360392e+00 1.573115e+00 1.834233e+00 1.877151e+00 1.805621e+00 1.722814e+00 1.544063e+00 1.343992e+00 1.183776e+00 8.760858e-01
<GCONST> 1.039959e+02
<STATE> 4
<MEAN> 25
 -6.362659e+00 -4.423155e+00 9.820220e+00 -4.903218e+00 -3.681852e-01 2.570100e+00 3.167925e+00 -5.793936e-01 -8.759587e-02 1.059100e+00 1.291414e+00 8.679242e-01 2.306367e+00 1.451382e+00 -1.806829e+00 1.135726e+00 -1.512867e-01 -5.723754e-03 -1.025580e+00 -6.012088e-02 -4.432604e-01 -4.086378e-01 -5.183563e-01 -1.828476e-01 -1.028221e+00
<VARIANCE> 25
 5.843802e+01 5.417876e+01 7.380061e+01 6.748988e+01 5.934891e+01 5.204456e+01 5.172548e+01 5.419441e+01 4.946672e+01 4.243489e+01 3.060479e+01 2.467298e+01 5.810026e+00 3.654878e+00 3.590863e+00 3.486390e+00 3.299611e+00 3.667934e+00 3.647548e+00 3.210599e+00 3.578302e+00 3.155891e+00 2.695603e+00 2.113597e+00 1.871167e+00
<GCONST> 1.080983e+02
~t "T_s"
<ENDHMM>
~h "k-s+k"
<BEGINHMM>
<NUMSTATES> 5
<STATE> 2
<MEAN> 25
 -2.672227e+00 -3.270423e+00 1.004953e+01 -4.440532e+00 1.809237e-01 1.463706e+00 2.479738e+00 -8.504221e-01 -6.740083e-01 7.527752e-01 2.025366e-01 -1.215088e-01 -2.952475e+00 -1.081467e+00 2.472686e+00 -1.170398e+00 1.552520e-01 9.225060e-01 1.190610e+00 1.466946e-02 5.599615e-01 4.710526e-01 5.590721e-01 2.782978e-01 2.598815e-01
<VARIANCE> 25
 6.090248e+01 4.096783e+01 9.645750e+01 7.985217e+01 7.116714e+01 6.051644e+01 6.688841e+01 7.043929e+01 5.318323e+01 4.527814e+01 3.572353e+01 2.664364e+01 3.096100e+00 3.809794e+00 4.041855e+00 4.010174e+00 3.633645e+00 4.631847e+00 3.728845e+00 3.332037e+00 3.740141e+00 3.394577e+00 2.906559e+00 2.198195e+00 1.359681e+00
<GCONST> 1.094882e+02
<STATE> 3
<MEAN> 25
 -1.388278e+01 -7.547144e+00 1.724523e+01 -1.016027e+01 5.564176e-01 9.960555e-01 5.586256e+00 -1.188120e+00 5.186584e-01 1.813791e+00 1.467571e+00 5.005577e-01 -2.925702e-01 -1.122364e-01 -2.537486e-01 7.632152e-02 -1.322451e-02 7.181087e-02 4.822661e-02 6.459653e-02 8.100856e-02 3.569933e-02 1.088791e-01 9.543600e-02 -2.908385e-01
<VARIANCE> 25
 7.703424e+01 8.092426e+01 1.181283e+02 1.229016e+02 1.058419e+02 8.350800e+01 7.997587e+01 8.339116e+01 7.095995e+01 5.324371e+01 4.210551e+01 2.871686e+01 2.398076e+00 1.604921e+00 2.021634e+00 2.360392e+00 1.573115e+00 1.834233e+00 1.877151e+00 1.805621e+00 1.722814e+00 1.544063e+00 1.343992e+00 1.183776e+00 8.760858e-01
<GCONST> 1.039959e+02
<STATE> 4
<MEAN> 25
 -6.362659e+00 -4.423155e+00 9.820220e+00 -4.903218e+00 -3.681852e-01 2.570100e+00 3.167925e+00 -5.793936e-01 -8.759587e-02 1.059100e+00 1.291414e+00 8.679242e-01 2.306367e+00 1.451382e+00 -1.806829e+00 1.135726e+00 -1.512867e-01 -5.723754e-03 -1.025580e+00 -6.012088e-02 -4.432604e-01 -4.086378e-01 -5.183563e-01 -1.828476e-01 -1.028221e+00
<VARIANCE> 25
 5.843802e+01 5.417876e+01 7.380061e+01 6.748988e+01 5.934891e+01 5.204456e+01 5.172548e+01 5.419441e+01 4.946672e+01 4.243489e+01 3.060479e+01 2.467298e+01 5.810026e+00 3.654878e+00 3.590863e+00 3.486390e+00 3.299611e+00 3.667934e+00 3.647548e+00 3.210599e+00 3.578302e+00 3.155891e+00 2.695603e+00 2.113597e+00 1.871167e+00
<GCONST> 1.080983e+02
~t "T_s"
<ENDHMM>
~h "k-s+p"
<BEGINHMM>
<NUMSTATES> 5
<STATE> 2
<MEAN> 25
 -2.672227e+00 -3.270423e+00 1.004953e+01 -4.440532e+00 1.809237e-01 1.463706e+00 2.479738e+00 -8.504221e-01 -6.740083e-01 7.527752e-01 2.025366e-01 -1.215088e-01 -2.952475e+00 -1.081467e+00 2.472686e+00 -1.170398e+00 1.552520e-01 9.225060e-01 1.190610e+00 1.466946e-02 5.599615e-01 4.710526e-01 5.590721e-01 2.782978e-01 2.598815e-01
<VARIANCE> 25
 6.090248e+01 4.096783e+01 9.645750e+01 7.985217e+01 7.116714e+01 6.051644e+01 6.688841e+01 7.043929e+01 5.318323e+01 4.527814e+01 3.572353e+01 2.664364e+01 3.096100e+00 3.809794e+00 4.041855e+00 4.010174e+00 3.633645e+00 4.631847e+00 3.728845e+00 3.332037e+00 3.740141e+00 3.394577e+00 2.906559e+00 2.198195e+00 1.359681e+00
<GCONST> 1.094882e+02
<STATE> 3
<MEAN> 25
 -1.388278e+01 -7.547144e+00 1.724523e+01 -1.016027e+01 5.564176e-01 9.960555e-01 5.586256e+00 -1.188120e+00 5.186584e-01 1.813791e+00 1.467571e+00 5.005577e-01 -2.925702e-01 -1.122364e-01 -2.537486e-01 7.632152e-02 -1.322451e-02 7.181087e-02 4.822661e-02 6.459653e-02 8.100856e-02 3.569933e-02 1.088791e-01 9.543600e-02 -2.908385e-01
<VARIANCE> 25
 7.703424e+01 8.092426e+01 1.181283e+02 1.229016e+02 1.058419e+02 8.350800e+01 7.997587e+01 8.339116e+01 7.095995e+01 5.324371e+01 4.210551e+01 2.871686e+01 2.398076e+00 1.604921e+00 2.021634e+00 2.360392e+00 1.573115e+00 1.834233e+00 1.877151e+00 1.805621e+00 1.722814e+00 1.544063e+00 1.343992e+00 1.183776e+00 8.760858e-01
<GCONST> 1.039959e+02
<STATE> 4
<MEAN> 25
 -6.362659e+00 -4.423155e+00 9.820220e+00 -4.903218e+00 -3.681852e-01 2.570100e+00 3.167925e+00 -5.793936e-01 -8.759587e-02 1.059100e+00 1.291414e+00 8.679242e-01 2.306367e+00 1.451382e+00 -1.806829e+00 1.135726e+00 -1.512867e-01 -5.723754e-03 -1.025580e+00 -6.012088e-02 -4.432604e-01 -4.086378e-01 -5.183563e-01 -1.828476e-01 -1.028221e+00
<VARIANCE> 25
 5.843802e+01 5.417876e+01 7.380061e+01 6.748988e+01 5.934891e+01 5.204456e+01 5.172548e+01 5.419441e+01 4.946672e+01 4.243489e+01 3.060479e+01 2.467298e+01 5.810026e+00 3.654878e+00 3.590863e+00 3.486390e+00 3.299611e+00 3.667934e+00 3.647548e+00 3.210599e+00 3.578302e+00 3.155891e+00 2.695603e+00 2.113597e+00 1.871167e+00
<GCONST> 1.080983e+02
~t "T_s"
<ENDHMM>
~h "k-s+t"
<BEGINHMM>
<NUMSTATES> 5
<STATE> 2
<MEAN> 25
 -2.672227e+00 -3.270423e+00 1.004953e+01 -4.440532e+00 1.809237e-01 1.463706e+00 2.479738e+00 -8.504221e-01 -6.740083e-01 7.527752e-01 2.025366e-01 -1.215088e-01 -2.952475e+00 -1.081467e+00 2.472686e+00 -1.170398e+00 1.552520e-01 9.225060e-01 1.190610e+00 1.466946e-02 5.599615e-01 4.710526e-01 5.590721e-01 2.782978e-01 2.598815e-01
<VARIANCE> 25
 6.090248e+01 4.096783e+01 9.645750e+01 7.985217e+01 7.116714e+01 6.051644e+01 6.688841e+01 7.043929e+01 5.318323e+01 4.527814e+01 3.572353e+01 2.664364e+01 3.096100e+00 3.809794e+00 4.041855e+00 4.010174e+00 3.633645e+00 4.631847e+00 3.728845e+00 3.332037e+00 3.740141e+00 3.394577e+00 2.906559e+00 2.198195e+00 1.359681e+00
<GCONST> 1.094882e+02
<STATE> 3
<MEAN> 25
 -1.388278e+01 -7.547144e+00 1.724523e+01 -1.016027e+01 5.564176e-01 9.960555e-01 5.586256e+00 -1.188120e+00 5.186584e-01 1.813791e+00 1.467571e+00 5.005577e-01 -2.925702e-01 -1.122364e-01 -2.537486e-01 7.632152e-02 -1.322451e-02 7.181087e-02 4.822661e-02 6.459653e-02 8.100856e-02 3.569933e-02 1.088791e-01 9.543600e-02 -2.908385e-01
<VARIANCE> 25
 7.703424e+01 8.092426e+01 1.181283e+02 1.229016e+02 1.058419e+02 8.350800e+01 7.997587e+01 8.339116e+01 7.095995e+01 5.324371e+01 4.210551e+01 2.871686e+01 2.398076e+00 1.604921e+00 2.021634e+00 2.360392e+00 1.573115e+00 1.834233e+00 1.877151e+00 1.805621e+00 1.722814e+00 1.544063e+00 1.343992e+00 1.183776e+00 8.760858e-01
<GCONST> 1.039959e+02
<STATE> 4
<MEAN> 25
 -6.362659e+00 -4.423155e+00 9.820220e+00 -4.903218e+00 -3.681852e-01 2.570100e+00 3.167925e+00 -5.793936e-01 -8.759587e-02 1.059100e+00 1.291414e+00 8.679242e-01 2.306367e+00 1.451382e+00 -1.806829e+00 1.135726e+00 -1.512867e-01 -5.723754e-03 -1.025580e+00 -6.012088e-02 -4.432604e-01 -4.086378e-01 -5.183563e-01 -1.828476e-01 -1.028221e+00
<VARIANCE> 25
 5.843802e+01 5.417876e+01 7.380061e+01 6.748988e+01 5.934891e+01 5.204456e+01 5.172548e+01 5.419441e+01 4.946672e+01 4.243489e+01 3.060479e+01 2.467298e+01 5.810026e+00 3.654878e+00 3.590863e+00 3.486390e+00 3.299611e+00 3.667934e+00 3.647548e+00 3.210599e+00 3.578302e+00 3.155891e+00 2.695603e+00 2.113597e+00 1.871167e+00
<GCONST> 1.080983e+02
~t "T_s"
<ENDHMM>
~h "a-d+a"
<BEGINHMM>
<NUMSTATES> 5
<STATE> 2
<MEAN> 25
 4.986747e+00 1.173107e+00 -3.532605e-03 -2.869664e-01 -8.792292e-01 -2.943893e-01 -1.157155e-01 -1.781017e+00 -2.767115e+00 -2.582419e+00 -1.706980e+00 -5.448081e-01 -2.492582e-01 7.052330e-01 5.542889e-01 4.937656e-01 3.336083e-01 7.560925e-01 3.487482e-01 9.874161e-02 5.457619e-02 -1.007866e-01 -2.741712e-01 -1.678351e-01 -6.813607e-01
<VARIANCE> 25
 3.575130e+01 4.199368e+01 4.126587e+01 5.860994e+01 5.800882e+01 5.540382e+01 4.170780e+01 4.906739e+01 4.723788e+01 3.940030e+01 2.930230e+01 2.850399e+01 1.251378e+00 1.493562e+00 1.629822e+00 2.081238e+00 2.239027e+00 2.528253e+00 2.284125e+00 2.485779e+00 2.461237e+00 2.372278e+00 2.008663e+00 1.836602e+00 1.659663e+00
<GCONST> 9.990127e+01
<STATE> 3
<MEAN> 25
 4.914427e+00 1.635913e+00 8.481176e-01 5.874320e-01 -1.860407e-01 2.406812e-01 -3.938809e-02 -1.716778e+00 -2.743559e+00 -2.302445e+00 -1.865128e+00 -5.342951e-01 -2.087076e-01 3.739429e-02 2.673025e-01 1.669757e-01 1.145322e-01 1.772111e-01 9.942254e-02 -5.373251e-02 -6.358257e-02 -4.126178e-02 1.807586e-02 1.027398e-01 -1.237136e-01
<VARIANCE> 25
 2.888018e+01 4.287783e+01 4.231509e+01 5.601795e+01 5.643327e+01 5.696796e+01 4.082035e+01 4.643125e+01 4.334551e+01 3.674223e+01 2.845123e+01 2.631162e+01 6.074597e-01 9.825633e-01 1.005929e+00 1.402578e+00 1.643439e+00 1.440409e+00 1.691248e+00 1.775282e+00 1.692227e+00 1.545876e+00 1.368715e+00 1.293374e+00 5.901869e-01
<GCONST> 9.324805e+01
<STATE> 4
<MEAN> 25
 4.336635e+00 1.898943e+00 1.592930e+00 1.054985e+00 7.405771e-02 9.789971e-01 5.451074e-02 -1.993555e+00 -2.809552e+00 -2.274028e+00 -1.686451e+00 -2.280605e-01 4.773585e-02 -5.405355e-01 -1.993422e-02 -3.128903e-02 -5.543578e-02 -4.109922e-01 -2.349472e-01 -2.260227e-01 -2.361541e-01 -3.670364e-05 2.079962e-01 2.329595e-01 4.070511e-01
<VARIANCE> 25
 2.717667e+01 4.477932e+01 4.206721e+01 5.259300e+01 5.149903e+01 5.344878e+01 3.844084e+01 4.642159e+01 4.322847e+01 3.436483e+01 2.569947e+01 2.370034e+01 4.915567e-01 1.268307e+00 9.630365e-01 1.468139e+00 1.692315e+00 1.473882e+00 1.775575e+00 2.010480e+00 1.839599e+00 1.618163e+00 1.409668e+00 1.328542e+00 7.107434e-01
<GCONST> 9.331273e+01
~t "T_d"
<ENDHMM>
~h "a-d+b"
<BEGINHMM>
<NUMSTATES> 5
<STATE> 2
<MEAN> 25
 4.986747e+00 1.173107e+00 -3.532605e-03 -2.869664e-01 -8.792292e-01 -2.943893e-01 -1.157155e-01 -1.781017e+00 -2.767115e+00 -2.582419e+00 -1.706980e+00 -5.448081e-01 -2.492582e-01 7.052330e-01 5.542889e-01 4.937656e-01 3.336083e-01 7.560925e-01 3.487482e-01 9.874161e-02 5.457619e-02 -1.007866e-01 -2.741712e-01 -1.678351e-01 -6.813607e-01
<VARIANCE> 25
 3.575130e+01 4.199368e+01 4.126587e+01 5.860994e+01 5.800882e+01 5.540382e+01 4.170780e+01 4.906739e+01 4.723788e+01 3.940030e+01 2.930230e+01 2.850399e+01 1.251378e+00 1.493562e+00 1.629822e+00 2.081238e+00 2.239027e+00 2.528253e+00 2.284125e+00 2.485779e+00 2.461237e+00 2.372278e+00 2.008663e+00 1.836602e+00 1.659663e+00
<GCONST> 9.990127e+01
<STATE> 3
<MEAN> 25
 4.914427e+00 1.635913e+00 8.481176e-01 5.874320e-01 -1.860407e-01 2.406812e-01 -3.938809e-02 -1.716778e+00 -2.743559e+00 -2.302445e+00 -1.865128e+00 -5.342951e-01 -2.087076e-01 3.739429e-02 2.673025e-01 1.669757e-01 1.145322e-01 1.772111e-01 9.942254e-02 -5.373251e-02 -6.358257e-02 -4.126178e-02 1.807586e-02 1.027398e-01 -1.237136e-01
<VARIANCE> 25
 2.888018e+01 4.287783e+01 4.231509e+01 5.601795e+01 5.643327e+01 5.696796e+01 4.082035e+01 4.643125e+01 4.334551e+01 3.674223e+01 2.845123e+01 2.631162e+01 6.074597e-01 9.825633e-01 1.005929e+00 1.402578e+00 1.643439e+00 1.440409e+00 1.691248e+00 1.775282e+00 1.692227e+00 1.545876e+00 1.368715e+00 1.293374e+00 5.901869e-01
<GCONST> 9.324805e+01
<STATE> 4
<MEAN> 25
 4.336635e+00 1.898943e+00 1.592930e+00 1.054985e+00 7.405771e-02 9.789971e-01 5.451074e-02 -1.993555e+00 -2.809552e+00 -2.274028e+00 -1.686451e+00 -2.280605e-01 4.773585e-02 -5.405355e-01 -1.993422e-02 -3.128903e-02 -5.543578e-02 -4.109922e-01 -2.349472e-01 -2.260227e-01 -2.361541e-01 -3.670364e-05 2.079962e-01 2.329595e-01 4.070511e-01
<VARIANCE> 25
 2.717667e+01 4.477932e+01 4.206721e+01 5.259300e+01 5.149903e+01 5.344878e+01 3.844084e+01 4.642159e+01 4.322847e+01 3.436483e+01 2.569947e+01 2.370034e+01 4.915567e-01 1.268307e+00 9.630365e-01 1.468139e+00 1.692315e+00 1.473882e+00 1.775575e+00 2.010480e+00 1.839599e+00 1.618163e+00 1.409668e+00 1.328542e+00 7.107434e-01
<GCONST> 9.331273e+01
~t "T_d"
<ENDHMM>
~h "a-d+e"
<BEGINHMM>
<NUMSTATES> 5
<STATE> 2
<MEAN> 25
 4.986747e+00 1.173107e+00 -3.532605e-03 -2.869664e-01 -8.792292e-01 -2.943893e-01 -1.157155e-01 -1.781017e+00 -2.767115e+00 -2.582419e+00 -1.706980e+00 -5.448081e-01 -2.492582e-01 7.052330e-01 5.542889e-01 4.937656e-01 3.336083e-01 7.560925e-01 3.487482e-01 9.874161e-02 5.457619e-02 -1.007866e-01 -2.741712e-01 -1.678351e-01 -6.813607e-01
<VARIANCE> 25
 3.575130e+01 4.199368e+01 4.126587e+01 5.860994e+01 5.800882e+01 5.540382e+01 4.170780e+01 4.906739e+01 4.723788e+01 3.940030e+01 2.930230e+01 2.850399e+01 1.251378e+00 1.493562e+00 1.629822e+00 2.081238e+00 2.239027e+00 2.528253e+00 2.284125e+00 2.485779e+00 2.461237e+00 2.372278e+00 2.008663e+00 1.836602e+00 1.659663e+00
<GCONST> 9.990127e+01
<STATE> 3
<MEAN> 25
 4.914427e+00 1.635913e+00 8.481176e-01 5.874320e-01 -1.860407e-01 2.406812e-01 -3.938809e-02 -1.716778e+00 -2.743559e+00 -2.302445e+00 -1.865128e+00 -5.342951e-01 -2.087076e-01 3.739429e-02 2.673025e-01 1.669757e-01 1.145322e-01 1.772111e-01 9.942254e-02 -5.373251e-02 -6.358257e-02 -4.126178e-02 1.807586e-02 1.027398e-01 -1.237136e-01
<VARIANCE> 25
 2.888018e+01 4.287783e+01 4.231509e+01 5.601795e+01 5.643327e+01 5.696796e+01 4.082035e+01 4.643125e+01 4.334551e+01 3.674223e+01 2.845123e+01 2.631162e+01 6.074597e-01 9.825633e-01 1.005929e+00 1.402578e+00 1.643439e+00 1.440409e+00 1.691248e+00 1.775282e+00 1.692227e+00 1.545876e+00 1.368715e+00 1.293374e+00 5.901869e-01
<GCONST> 9.324805e+01
<STATE> 4
<MEAN> 25
 4.336635e+00 1.898943e+00 1.592930e+00 1.054985e+00 7.405771e-02 9.789971e-01 5.451074e-02 -1.993555e+00 -2.809552e+00 -2.274028e+00 -1.686451e+00 -2.280605e-01 4.773585e-02 -5.405355e-01 -1.993422e-02 -3.128903e-02 -5.543578e-02 -4.109922e-01 -2.349472e-01 -2.260227e-01 -2.361541e-01 -3.670364e-05 2.079962e-01 2.329595e-01 4.070511e-01
<VARIANCE> 25
 2.717667e+01 4.477932e+01 4.206721e+01 5.259300e+01 5.149903e+01 5.344878e+01 3.844084e+01 4.642159e+01 4.322847e+01 3.436483e+01 2.569947e+01 2.370034e+01 4.915567e-01 1.268307e+00 9.630365e-01 1.468139e+00 1.692315e+00 1.473882e+00 1.775575e+00 2.010480e+00 1.839599e+00 1.618163e+00 1.409668e+00 1.328542e+00 7.107434e-01
<GCONST> 9.331273e+01
~t "T_d"
<ENDHMM>
~h "a-d+i"
<BEGINHMM>
<NUMSTATES> 5
<STATE> 2
<MEAN> 25
 4.986747e+00 1.173107e+00 -3.532605e-03 -2.869664e-01 -8.792292e-01 -2.943893e-01 -1.157155e-01 -1.781017e+00 -2.767115e+00 -2.582419e+00 -1.706980e+00 -5.448081e-01 -2.492582e-01 7.052330e-01 5.542889e-01 4.937656e-01 3.336083e-01 7.560925e-01 3.487482e-01 9.874161e-02 5.457619e-02 -1.007866e-01 -2.741712e-01 -1.678351e-01 -6.813607e-01
<VARIANCE> 25
 3.575130e+01 4.199368e+01 4.126587e+01 5.860994e+01 5.800882e+01 5.540382e+01 4.170780e+01 4.906739e+01 4.723788e+01 3.940030e+01 2.930230e+01 2.850399e+01 1.251378e+00 1.493562e+00 1.629822e+00 2.081238e+00 2.239027e+00 2.528253e+00 2.284125e+00 2.485779e+00 2.461237e+00 2.372278e+00 2.008663e+00 1.836602e+00 1.659663e+00
<GCONST> 9.990127e+01
<STATE> 3
<MEAN> 25
 4.914427e+00 1.635913e+00 8.481176e-01 5.874320e-01 -1.860407e-01 2.406812e-01 -3.938809e-02 -1.716778e+00 -2.743559e+00 -2.302445e+00 -1.865128e+00 -5.342951e-01 -2.087076e-01 3.739429e-02 2.673025e-01 1.669757e-01 1.145322e-01 1.772111e-01 9.942254e-02 -5.373251e-02 -6.358257e-02 -4.126178e-02 1.807586e-02 1.027398e-01 -1.237136e-01
<VARIANCE> 25
 2.888018e+01 4.287783e+01 4.231509e+01 5.601795e+01 5.643327e+01 5.696796e+01 4.082035e+01 4.643125e+01 4.334551e+01 3.674223e+01 2.845123e+01 2.631162e+01 6.074597e-01 9.825633e-01 1.005929e+00 1.402578e+00 1.643439e+00 1.440409e+00 1.691248e+00 1.775282e+00 1.692227e+00 1.545876e+00 1.368715e+00 1.293374e+00 5.901869e-01
<GCONST> 9.324805e+01
<STATE> 4
<MEAN> 25
 4.336635e+00 1.898943e+00 1.592930e+00 1.054985e+00 7.405771e-02 9.789971e-01 5.451074e-02 -1.993555e+00 -2.809552e+00 -2.274028e+00 -1.686451e+00 -2.280605e-01 4.773585e-02 -5.405355e-01 -1.993422e-02 -3.128903e-02 -5.543578e-02 -4.109922e-01 -2.349472e-01 -2.260227e-01 -2.361541e-01 -3.670364e-05 2.079962e-01 2.329595e-01 4.070511e-01
<VARIANCE> 25
 2.717667e+01 4.477932e+01 4.206721e+01 5.259300e+01 5.149903e+01 5.344878e+01 3.844084e+01 4.642159e+01 4.322847e+01 3.436483e+01 2.569947e+01 2.370034e+01 4.915567e-01 1.268307e+00 9.630365e-01 1.468139e+00 1.692315e+00 1.473882e+00 1.775575e+00 2.010480e+00 1.839599e+00 1.618163e+00 1.409668e+00 1.328542e+00 7.107434e-01
<GCONST> 9.331273e+01
~t "T_d"
<ENDHMM>
~h "a-d+k"
<BEGINHMM>
<NUMSTATES> 5
<STATE> 2
<MEAN> 25
 4.986747e+00 1.173107e+00 -3.532605e-03 -2.869664e-01 -8.792292e-01 -2.943893e-01 -1.157155e-01 -1.781017e+00 -2.767115e+00 -2.582419e+00 -1.706980e+00 -5.448081e-01 -2.492582e-01 7.052330e-01 5.542889e-01 4.937656e-01 3.336083e-01 7.560925e-01 3.487482e-01 9.874161e-02 5.457619e-02 -1.007866e-01 -2.741712e-01 -1.678351e-01 -6.813607e-01
<VARIANCE> 25
 3.575130e+01 4.199368e+01 4.126587e+01 5.860994e+01 5.800882e+01 5.540382e+01 4.170780e+01 4.906739e+01 4.723788e+01 3.940030e+01 2.930230e+01 2.850399e+01 1.251378e+00 1.493562e+00 1.629822e+00 2.081238e+00 2.239027e+00 2.528253e+00 2.284125e+00 2.485779e+00 2.461237e+00 2.372278e+00 2.008663e+00 1.836602e+00 1.659663e+00
<GCONST> 9.990127e+01
<STATE> 3
<MEAN> 25
 4.914427e+00 1.635913e+00 8.481176e-01 5.874320e-01 -1.860407e-01 2.406812e-01 -3.938809e-02 -1.716778e+00 -2.743559e+00 -2.302445e+00 -1.865128e+00 -5.342951e-01 -2.087076e-01 3.739429e-02 2.673025e-01 1.669757e-01 1.145322e-01 1.772111e-01 9.942254e-02 -5.373251e-02 -6.358257e-02 -4.126178e-02 1.807586e-02 1.027398e-01 -1.237136e-01
<VARIANCE> 25
 2.888018e+01 4.287783e+01 4.231509e+01 5.601795e+01 5.643327e+01 5.696796e+01 4.082035e+01 4.643125e+01 4.334551e+01 3.674223e+01 2.845123e+01 2.631162e+01 6.074597e-01 9.825633e-01 1.005929e+00 1.402578e+00 1.643439e+00 1.440409e+00 1.691248e+00 1.775282e+00 1.692227e+00 1.545876e+00 1.368715e+00 1.293374e+00 5.901869e-01
<GCONST> 9.324805e+01
<STATE> 4
<MEAN> 25
 4.336635e+00 1.898943e+00 1.592930e+00 1.054985e+00 7.405771e-02 9.789971e-01 5.451074e-02 -1.993555e+00 -2.809552e+00 -2.274028e+00 -1.686451e+00 -2.280605e-01 4.773585e-02 -5.405355e-01 -1.993422e-02 -3.128903e-02 -5.543578e-02 -4.109922e-01 -2.349472e-01 -2.260227e-01 -2.361541e-01 -3.670364e-05 2.079962e-01 2.329595e-01 4.070511e-01
<VARIANCE> 25
 2.717667e+01 4.477932e+01 4.206721e+01 5.259300e+01 5.149903e+01 5.344878e+01 3.844084e+01 4.642159e+01 4.322847e+01 3.436483e+01 2.569947e+01 2.370034e+01 4.915567e-01 1.268307e+00 9.630365e-01 1.468139e+00 1.692315e+00 1.473882e+00 1.775575e+00 2.010480e+00 1.839599e+00 1.618163e+00 1.409668e+00 1.328542e+00 7.107434e-01
<GCONST> 9.331273e+01
~t "T_d"
<ENDHMM>
~h "a-d+o"
<BEGINHMM>
<NUMSTATES> 5
<STATE> 2
<MEAN> 25
 4.986747e+00 1.173107e+00 -3.532605e-03 -2.869664e-01 -8.792292e-01 -2.943893e-01 -1.157155e-01 -1.781017e+00 -2.767115e+00 -2.582419e+00 -1.706980e+00 -5.448081e-01 -2.492582e-01 7.052330e-01 5.542889e-01 4.937656e-01 3.336083e-01 7.560925e-01 3.487482e-01 9.874161e-02 5.457619e-02 -1.007866e-01 -2.741712e-01 -1.678351e-01 -6.813607e-01
<VARIANCE> 25
 3.575130e+01 4.199368e+01 4.126587e+01 5.860994e+01 5.800882e+01 5.540382e+01 4.170780e+01 4.906739e+01 4.723788e+01 3.940030e+01 2.930230e+01 2.850399e+01 1.251378e+00 1.493562e+00 1.629822e+00 2.081238e+00 2.239027e+00 2.528253e+00 2.284125e+00 2.485779e+00 2.461237e+00 2.372278e+00 2.008663e+00 1.836602e+00 1.659663e+00
<GCONST> 9.990127e+01
<STATE> 3
<MEAN> 25
 4.914427e+00 1.635913e+00 8.481176e-01 5.874320e-01 -1.860407e-01 2.406812e-01 -3.938809e-02 -1.716778e+00 -2.743559e+00 -2.302445e+00 -1.865128e+00 -5.342951e-01 -2.087076e-01 3.739429e-02 2.673025e-01 1.669757e-01 1.145322e-01 1.772111e-01 9.942254e-02 -5.373251e-02 -6.358257e-02 -4.126178e-02 1.807586e-02 1.027398e-01 -1.237136e-01
<VARIANCE> 25
 2.888018e+01 4.287783e+01 4.231509e+01 5.601795e+01 5.643327e+01 5.696796e+01 4.082035e+01 4.643125e+01 4.334551e+01 3.674223e+01 2.845123e+01 2.631162e+01 6.074597e-01 9.825633e-01 1.005929e+00 1.402578e+00 1.643439e+00 1.440409e+00 1.691248e+00 1.775282e+00 1.692227e+00 1.545876e+00 1.368715e+00 1.293374e+00 5.901869e-01
<GCONST> 9.324805e+01
<STATE> 4
<MEAN> 25
 4.336635e+00 1.898943e+00 1.592930e+00 1.054985e+00 7.405771e-02 9.789971e-01 5.451074e-02 -1.993555e+00 -2.809552e+00 -2.274028e+00 -1.686451e+00 -2.280605e-01 4.773585e-02 -5.405355e-01 -1.993422e-02 -3.128903e-02 -5.543578e-02 -4.109922e-01 -2.349472e-01 -2.260227e-01 -2.361541e-01 -3.670364e-05 2.079962e-01 2.329595e-01 4.070511e-01
<VARIANCE> 25
 2.717667e+01 4.477932e+01 4.206721e+01 5.259300e+01 5.149903e+01 5.344878e+01 3.844084e+01 4.642159e+01 4.322847e+01 3.436483e+01 2.569947e+01 2.370034e+01 4.915567e-01 1.268307e+00 9.630365e-01 1.468139e+00 1.692315e+00 1.473882e+00 1.775575e+00 2.010480e+00 1.839599e+00 1.618163e+00 1.409668e+00 1.328542e+00 7.107434e-01
<GCONST> 9.331273e+01
~t "T_d"
<ENDHMM>
~h "a-d+r"
<BEGINHMM>
<NUMSTATES> 5
<STATE> 2
<MEAN> 25
 4.986747e+00 1.173107e+00 -3.532605e-03 -2.869664e-01 -8.792292e-01 -2.943893e-01 -1.157155e-01 -1.781017e+00 -2.767115e+00 -2.582419e+00 -1.706980e+00 -5.448081e-01 -2.492582e-01 7.052330e-01 5.542889e-01 4.937656e-01 3.336083e-01 7.560925e-01 3.487482e-01 9.874161e-02 5.457619e-02 -1.007866e-01 -2.741712e-01 -1.678351e-01 -6.813607e-01
<VARIANCE> 25
 3.575130e+01 4.199368e+01 4.126587e+01 5.860994e+01 5.800882e+01 5.540382e+01 4.170780e+01 4.906739e+01 4.723788e+01 3.940030e+01 2.930230e+01 2.850399e+01 1.251378e+00 1.493562e+00 1.629822e+00 2.081238e+00 2.239027e+00 2.528253e+00 2.284125e+00 2.485779e+00 2.461237e+00 2.372278e+00 2.008663e+00 1.836602e+00 1.659663e+00
<GCONST> 9.990127e+01
<STATE> 3
<MEAN> 25
 4.914427e+00 1.635913e+00 8.481176e-01 5.874320e-01 -1.860407e-01 2.406812e-01 -3.938809e-02 -1.716778e+00 -2.743559e+00 -2.302445e+00 -1.865128e+00 -5.342951e-01 -2.087076e-01 3.739429e-02 2.673025e-01 1.669757e-01 1.145322e-01 1.772111e-01 9.942254e-02 -5.373251e-02 -6.358257e-02 -4.126178e-02 1.807586e-02 1.027398e-01 -1.237136e-01
<VARIANCE> 25
 2.888018e+01 4.287783e+01 4.231509e+01 5.601795e+01 5.643327e+01 5.696796e+01 4.082035e+01 4.643125e+01 4.334551e+01 3.674223e+01 2.845123e+01 2.631162e+01 6.074597e-01 9.825633e-01 1.005929e+00 1.402578e+00 1.643439e+00 1.440409e+00 1.691248e+00 1.775282e+00 1.692227e+00 1.545876e+00 1.368715e+00 1.293374e+00 5.901869e-01
<GCONST> 9.324805e+01
<STATE> 4
<MEAN> 25
 4.336635e+00 1.898943e+00 1.592930e+00 1.054985e+00 7.405771e-02 9.789971e-01 5.451074e-02 -1.993555e+00 -2.809552e+00 -2.274028e+00 -1.686451e+00 -2.280605e-01 4.773585e-02 -5.405355e-01 -1.993422e-02 -3.128903e-02 -5.543578e-02 -4.109922e-01 -2.349472e-01 -2.260227e-01 -2.361541e-01 -3.670364e-05 2.079962e-01 2.329595e-01 4.070511e-01
<VARIANCE> 25
 2.717667e+01 4.477932e+01 4.206721e+01 5.259300e+01 5.149903e+01 5.344878e+01 3.844084e+01 4.642159e+01 4.322847e+01 3.436483e+01 2.569947e+01 2.370034e+01 4.915567e-01 1.268307e+00 9.630365e-01 1.468139e+00 1.692315e+00 1.473882e+00 1.775575e+00 2.010480e+00 1.839599e+00 1.618163e+00 1.409668e+00 1.328542e+00 7.107434e-01
<GCONST> 9.331273e+01
~t "T_d"
<ENDHMM>
~h "a-d+u"
<BEGINHMM>
<NUMSTATES> 5
<STATE> 2
<MEAN> 25
 4.986747e+00 1.173107e+00 -3.532605e-03 -2.869664e-01 -8.792292e-01 -2.943893e-01 -1.157155e-01 -1.781017e+00 -2.767115e+00 -2.582419e+00 -1.706980e+00 -5.448081e-01 -2.492582e-01 7.052330e-01 5.542889e-01 4.937656e-01 3.336083e-01 7.560925e-01 3.487482e-01 9.874161e-02 5.457619e-02 -1.007866e-01 -2.741712e-01 -1.678351e-01 -6.813607e-01
<VARIANCE> 25
 3.575130e+01 4.199368e+01 4.126587e+01 5.860994e+01 5.800882e+01 5.540382e+01 4.170780e+01 4.906739e+01 4.723788e+01 3.940030e+01 2.930230e+01 2.850399e+01 1.251378e+00 1.493562e+00 1.629822e+00 2.081238e+00 2.239027e+00 2.528253e+00 2.284125e+00 2.485779e+00 2.461237e+00 2.372278e+00 2.008663e+00 1.836602e+00 1.659663e+00
<GCONST> 9.990127e+01
<STATE> 3
<MEAN> 25
 4.914427e+00 1.635913e+00 8.481176e-01 5.874320e-01 -1.860407e-01 2.406812e-01 -3.938809e-02 -1.716778e+00 -2.743559e+00 -2.302445e+00 -1.865128e+00 -5.342951e-01 -2.087076e-01 3.739429e-02 2.673025e-01 1.669757e-01 1.145322e-01 1.772111e-01 9.942254e-02 -5.373251e-02 -6.358257e-02 -4.126178e-02 1.807586e-02 1.027398e-01 -1.237136e-01
<VARIANCE> 25
 2.888018e+01 4.287783e+01 4.231509e+01 5.601795e+01 5.643327e+01 5.696796e+01 4.082035e+01 4.643125e+01 4.334551e+01 3.674223e+01 2.845123e+01 2.631162e+01 6.074597e-01 9.825633e-01 1.005929e+00 1.402578e+00 1.643439e+00 1.440409e+00 1.691248e+00 1.775282e+00 1.692227e+00 1.545876e+00 1.368715e+00 1.293374e+00 5.901869e-01
<GCONST> 9.324805e+01
<STATE> 4
<MEAN> 25
 4.336635e+00 1.898943e+00 1.592930e+00 1.054985e+00 7.405771e-02 9.789971e-01 5.451074e-02 -1.993555e+00 -2.809552e+00 -2.274028e+00 -1.686451e+00 -2.280605e-01 4.773585e-02 -5.405355e-01 -1.993422e-02 -3.128903e-02 -5.543578e-02 -4.109922e-01 -2.349472e-01 -2.260227e-01 -2.361541e-01 -3.670364e-05 2.079962e-01 2.329595e-01 4.070511e-01
<VARIANCE> 25
 2.717667e+01 4.477932e+01 4.206721e+01 5.259300e+01 5.149903e+01 5.344878e+01 3.844084e+01 4.642159e+01 4.322847e+01 3.436483e+01 2.569947e+01 2.370034e+01 4.915567e-01 1.268307e+00 9.630365e-01 1.468139e+00 1.692315e+00 1.473882e+00 1.775575e+00 2.010480e+00 1.839599e+00 1.618163e+00 1.409668e+00 1.328542e+00 7.107434e-01
<GCONST> 9.331273e+01
~t "T_d"
<ENDHMM>
~h "a-d+x"
<BEGINHMM>
<NUMSTATES> 5
<STATE> 2
<MEAN> 25
 4.986747e+00 1.173107e+00 -3.532605e-03 -2.869664e-01 -8.792292e-01 -2.943893e-01 -1.157155e-01 -1.781017e+00 -2.767115e+00 -2.582419e+00 -1.706980e+00 -5.448081e-01 -2.492582e-01 7.052330e-01 5.542889e-01 4.937656e-01 3.336083e-01 7.560925e-01 3.487482e-01 9.874161e-02 5.457619e-02 -1.007866e-01 -2.741712e-01 -1.678351e-01 -6.813607e-01
<VARIANCE> 25
 3.575130e+01 4.199368e+01 4.126587e+01 5.860994e+01 5.800882e+01 5.540382e+01 4.170780e+01 4.906739e+01 4.723788e+01 3.940030e+01 2.930230e+01 2.850399e+01 1.251378e+00 1.493562e+00 1.629822e+00 2.081238e+00 2.239027e+00 2.528253e+00 2.284125e+00 2.485779e+00 2.461237e+00 2.372278e+00 2.008663e+00 1.836602e+00 1.659663e+00
<GCONST> 9.990127e+01
<STATE> 3
<MEAN> 25
 4.914427e+00 1.635913e+00 8.481176e-01 5.874320e-01 -1.860407e-01 2.406812e-01 -3.938809e-02 -1.716778e+00 -2.743559e+00 -2.302445e+00 -1.865128e+00 -5.342951e-01 -2.087076e-01 3.739429e-02 2.673025e-01 1.669757e-01 1.145322e-01 1.772111e-01 9.942254e-02 -5.373251e-02 -6.358257e-02 -4.126178e-02 1.807586e-02 1.027398e-01 -1.237136e-01
<VARIANCE> 25
 2.888018e+01 4.287783e+01 4.231509e+01 5.601795e+01 5.643327e+01 5.696796e+01 4.082035e+01 4.643125e+01 4.334551e+01 3.674223e+01 2.845123e+01 2.631162e+01 6.074597e-01 9.825633e-01 1.005929e+00 1.402578e+00 1.643439e+00 1.440409e+00 1.691248e+00 1.775282e+00 1.692227e+00 1.545876e+00 1.368715e+00 1.293374e+00 5.901869e-01
<GCONST> 9.324805e+01
<STATE> 4
<MEAN> 25
 4.336635e+00 1.898943e+00 1.592930e+00 1.054985e+00 7.405771e-02 9.789971e-01 5.451074e-02 -1.993555e+00 -2.809552e+00 -2.274028e+00 -1.686451e+00 -2.280605e-01 4.773585e-02 -5.405355e-01 -1.993422e-02 -3.128903e-02 -5.543578e-02 -4.109922e-01 -2.349472e-01 -2.260227e-01 -2.361541e-01 -3.670364e-05 2.079962e-01 2.329595e-01 4.070511e-01
<VARIANCE> 25
 2.717667e+01 4.477932e+01 4.206721e+01 5.259300e+01 5.149903e+01 5.344878e+01 3.844084e+01 4.642159e+01 4.322847e+01 3.436483e+01 2.569947e+01 2.370034e+01 4.915567e-01 1.268307e+00 9.630365e-01 1.468139e+00 1.692315e+00 1.473882e+00 1.775575e+00 2.010480e+00 1.839599e+00 1.618163e+00 1.409668e+00 1.328542e+00 7.107434e-01
<GCONST> 9.331273e+01
~t "T_d"
<ENDHMM>
~h "k-t+a"
<BEGINHMM>
<NUMSTATES> 5
<STATE> 2
<MEAN> 25
 -1.105155e+00 3.531708e+00 3.428654e-04 2.035812e+00 1.206108e-01 3.856581e+00 4.077179e-01 -5.965847e-01 8.127027e-01 7.627032e-01 3.199013e-01 6.893349e-02 -6.225701e-01 -2.968751e-01 -4.327019e-01 -2.591668e-01 -4.670320e-01 5.148919e-02 2.475624e-01 2.473967e-01 4.056443e-01 2.193291e-01 2.135402e-01 2.370846e-01 -4.553078e-01
<VARIANCE> 25
 1.757349e+01 1.922104e+01 3.467615e+01 3.267662e+01 2.919297e+01 2.473142e+01 2.491181e+01 2.517140e+01 2.366685e+01 1.964377e+01 1.771473e+01 1.668316e+01 8.811969e-01 1.897543e+00 1.485499e+00 1.704934e+00 1.593071e+00 1.769392e+00 1.715915e+00 1.659040e+00 1.614757e+00 1.490305e+00 1.287322e+00 1.257182e+00 1.985336e+00
<GCONST> 8.922695e+01
<STATE> 3
<MEAN> 25
 -2.661848e+00 -1.497703e+00 5.282218e-02 -3.497691e-01 -1.323973e+00 2.477841e+00 1.625346e+00 -2.516246e-01 1.776590e+00 1.439802e+00 5.119318e-01 3.112603e-01 3.591390e-01 -2.639185e+00 1.089064e+00 -1.295514e+00 3.863864e-02 -1.159161e+00 1.705076e-01 -5.860544e-01 -5.879141e-01 -1.566525e-01 -8.659262e-03 1.297800e-01 3.161201e+00
<VARIANCE> 25
 2.167913e+01 5.237593e+01 4.070385e+01 5.008830e+01 3.684749e+01 3.489187e+01 3.228013e+01 3.020567e+01 2.734658e+01 2.465602e+01 2.112542e+01 1.802548e+01 2.104158e+00 3.082623e+00 3.689658e+00 4.205109e+00 3.861122e+00 3.443296e+00 3.636282e+00 3.397777e+00 3.384237e+00 2.689384e+00 2.275631e+00 2.211970e+00 2.531482e+00
<GCONST> 1.015656e+02
<STATE> 4
<MEAN> 25
 6.725208e-02 -5.150090e+00 3.443682e+00 -2.513680e+00 -2.271353e-01 -2.479110e-01 1.068287e+00 -2.403555e+00 -1.349449e+00 3.935923e-02 2.190253e-01 7.620124e-01 2.674966e+00 -7.274120e-02 -3.204739e-01 3.668221e-01 1.818312e-01 -1.773539e+00 -1.494750e+00 -9.235156e-01 -1.947002e+00 -1.262686e+00 -4.662289e-01 5.305367e-02 2.229213e+00
<VARIANCE> 25
 3.678450e+01 4.006910e+01 4.787255e+01 5.576718e+01 5.168572e+01 4.239035e+01 4.381770e+01 4.481693e+01 4.380044e+01 3.419241e+01 2.507265e+01 1.988425e+01 2.029730e+00 4.721550e+00 4.108329e+00 5.850153e+00 5.617827e+00 4.736856e+00 4.321757e+00 4.812273e+00 4.380567e+00 4.659930e+00 3.916073e+00 3.285652e+00 3.656609e+00
<GCONST> 1.085535e+02
~t "T_t"
<ENDHMM>
~h "k-t+i"
<BEGINHMM>
<NUMSTATES> 5
<STATE> 2
<MEAN> 25
 -1.105155e+00 3.531708e+00 3.428654e-04 2.035812e+00 1.206108e-01 3.856581e+00 4.077179e-01 -5.965847e-01 8.127027e-01 7.627032e-01 3.199013e-01 6.893349e-02 -6.225701e-01 -2.968751e-01 -4.327019e-01 -2.591668e-01 -4.670320e-01 5.148919e-02 2.475624e-01 2.473967e-01 4.056443e-01 2.193291e-01 2.135402e-01 2.370846e-01 -4.553078e-01
<VARIANCE> 25
 1.757349e+01 1.922104e+01 3.467615e+01 3.267662e+01 2.919297e+01 2.473142e+01 2.491181e+01 2.517140e+01 2.366685e+01 1.964377e+01 1.771473e+01 1.668316e+01 8.811969e-01 1.897543e+00 1.485499e+00 1.704934e+00 1.593071e+00 1.769392e+00 1.715915e+00 1.659040e+00 1.614757e+00 1.490305e+00 1.287322e+00 1.257182e+00 1.985336e+00
<GCONST> 8.922695e+01
<STATE> 3
<MEAN> 25
 -2.661848e+00 -1.497703e+00 5.282218e-02 -3.497691e-01 -1.323973e+00 2.477841e+00 1.625346e+00 -2.516246e-01 1.776590e+00 1.439802e+00 5.119318e-01 3.112603e-01 3.591390e-01 -2.639185e+00 1.089064e+00 -1.295514e+00 3.863864e-02 -1.159161e+00 1.705076e-01 -5.860544e-01 -5.879141e-01 -1.566525e-01 -8.659262e-03 1.297800e-01 3.161201e+00
<VARIANCE> 25
 2.167913e+01 5.237593e+01 4.070385e+01 5.008830e+01 3.684749e+01 3.489187e+01 3.228013e+01 3.020567e+01 2.734658e+01 2.465602e+01 2.112542e+01 1.802548e+01 2.104158e+00 3.082623e+00 3.689658e+00 4.205109e+00 3.861122e+00 3.443296e+00 3.636282e+00 3.397777e+00 3.384237e+00 2.689384e+00 2.275631e+00 2.211970e+00 2.531482e+00
<GCONST> 1.015656e+02
<STATE> 4
<MEAN> 25
 6.725208e-02 -5.150090e+00 3.443682e+00 -2.513680e+00 -2.271353e-01 -2.479110e-01 1.068287e+00 -2.403555e+00 -1.349449e+00 3.935923e-02 2.190253e-01 7.620124e-01 2.674966e+00 -7.274120e-02 -3.204739e-01 3.668221e-01 1.818312e-01 -1.773539e+00 -1.494750e+00 -9.235156e-01 -1.947002e+00 -1.262686e+00 -4.662289e-01 5.305367e-02 2.229213e+00
<VARIANCE> 25
 3.678450e+01 4.006910e+01 4.787255e+01 5.576718e+01 5.168572e+01 4.239035e+01 4.381770e+01 4.481693e+01 4.380044e+01 3.419241e+01 2.507265e+01 1.988425e+01 2.029730e+00 4.721550e+00 4.108329e+00 5.850153e+00 5.617827e+00 4.736856e+00 4.321757e+00 4.812273e+00 4.380567e+00 4.659930e+00 3.916073e+00 3.285652e+00 3.656609e+00
<GCONST> 1.085535e+02
~t "T_t"
<ENDHMM>
~h "k-t+o"
<BEGINHMM>
<NUMSTATES> 5
<STATE> 2
<MEAN> 25
 -1.105155e+00 3.531708e+00 3.428654e-04 2.035812e+00 1.206108e-01 3.856581e+00 4.077179e-01 -5.965847e-01 8.127027e-01 7.627032e-01 3.199013e-01 6.893349e-02 -6.225701e-01 -2.968751e-01 -4.327019e-01 -2.591668e-01 -4.670320e-01 5.148919e-02 2.475624e-01 2.473967e-01 4.056443e-01 2.193291e-01 2.135402e-01 2.370846e-01 -4.553078e-01
<VARIANCE> 25
 1.757349e+01 1.922104e+01 3.467615e+01 3.267662e+01 2.919297e+01 2.473142e+01 2.491181e+01 2.517140e+01 2.366685e+01 1.964377e+01 1.771473e+01 1.668316e+01 8.811969e-01 1.897543e+00 1.485499e+00 1.704934e+00 1.593071e+00 1.769392e+00 1.715915e+00 1.659040e+00 1.614757e+00 1.490305e+00 1.287322e+00 1.257182e+00 1.985336e+00
<GCONST> 8.922695e+01
<STATE> 3
<MEAN> 25
 -2.661848e+00 -1.497703e+00 5.282218e-02 -3.497691e-01 -1.323973e+00 2.477841e+00 1.625346e+00 -2.516246e-01 1.776590e+00 1.439802e+00 5.119318e-01 3.112603e-01 3.591390e-01 -2.639185e+00 1.089064e+00 -1.295514e+00 3.863864e-02 -1.159161e+00 1.705076e-01 -5.860544e-01 -5.879141e-01 -1.566525e-01 -8.659262e-03 1.297800e-01 3.161201e+00
<VARIANCE> 25
 2.167913e+01 5.237593e+01 4.070385e+01 5.008830e+01 3.684749e+01 3.489187e+01 3.228013e+01 3.020567e+01 2.734658e+01 2.465602e+01 2.112542e+01 1.802548e+01 2.104158e+00 3.082623e+00 3.689658e+00 4.205109e+00 3.861122e+00 3.443296e+00 3.636282e+00 3.397777e+00 3.384237e+00 2.689384e+00 2.275631e+00 2.211970e+00 2.531482e+00
<GCONST> 1.015656e+02
<STATE> 4
<MEAN> 25
 6.725208e-02 -5.150090e+00 3.443682e+00 -2.513680e+00 -2.271353e-01 -2.479110e-01 1.068287e+00 -2.403555e+00 -1.349449e+00 3.935923e-02 2.190253e-01 7.620124e-01 2.674966e+00 -7.274120e-02 -3.204739e-01 3.668221e-01 1.818312e-01 -1.773539e+00 -1.494750e+00 -9.235156e-01 -1.947002e+00 -1.262686e+00 -4.662289e-01 5.305367e-02 2.229213e+00
<VARIANCE> 25
 3.678450e+01 4.006910e+01 4.787255e+01 5.576718e+01 5.168572e+01 4.239035e+01 4.381770e+01 4.481693e+01 4.380044e+01 3.419241e+01 2.507265e+01 1.988425e+01 2.029730e+00 4.721550e+00 4.108329e+00 5.850153e+00 5.617827e+00 4.736856e+00 4.321757e+00 4.812273e+00 4.380567e+00 4.659930e+00 3.916073e+00 3.285652e+00 3.656609e+00
<GCONST> 1.085535e+02
~t "T_t"
<ENDHMM>
~h "k-t+r"
<BEGINHMM>
<NUMSTATES> 5
<STATE> 2
<MEAN> 25
 -1.105155e+00 3.531708e+00 3.428654e-04 2.035812e+00 1.206108e-01 3.856581e+00 4.077179e-01 -5.965847e-01 8.127027e-01 7.627032e-01 3.199013e-01 6.893349e-02 -6.225701e-01 -2.968751e-01 -4.327019e-01 -2.591668e-01 -4.670320e-01 5.148919e-02 2.475624e-01 2.473967e-01 4.056443e-01 2.193291e-01 2.135402e-01 2.370846e-01 -4.553078e-01
<VARIANCE> 25
 1.757349e+01 1.922104e+01 3.467615e+01 3.267662e+01 2.919297e+01 2.473142e+01 2.491181e+01 2.517140e+01 2.366685e+01 1.964377e+01 1.771473e+01 1.668316e+01 8.811969e-01 1.897543e+00 1.485499e+00 1.704934e+00 1.593071e+00 1.769392e+00 1.715915e+00 1.659040e+00 1.614757e+00 1.490305e+00 1.287322e+00 1.257182e+00 1.985336e+00
<GCONST> 8.922695e+01
<STATE> 3
<MEAN> 25
 -2.661848e+00 -1.497703e+00 5.282218e-02 -3.497691e-01 -1.323973e+00 2.477841e+00 1.625346e+00 -2.516246e-01 1.776590e+00 1.439802e+00 5.119318e-01 3.112603e-01 3.591390e-01 -2.639185e+00 1.089064e+00 -1.295514e+00 3.863864e-02 -1.159161e+00 1.705076e-01 -5.860544e-01 -5.879141e-01 -1.566525e-01 -8.659262e-03 1.297800e-01 3.161201e+00
<VARIANCE> 25
 2.167913e+01 5.237593e+01 4.070385e+01 5.008830e+01 3.684749e+01 3.489187e+01 3.228013e+01 3.020567e+01 2.734658e+01 2.465602e+01 2.112542e+01 1.802548e+01 2.104158e+00 3.082623e+00 3.689658e+00 4.205109e+00 3.861122e+00 3.443296e+00 3.636282e+00 3.397777e+00 3.384237e+00 2.689384e+00 2.275631e+00 2.211970e+00 2.531482e+00
<GCONST> 1.015656e+02
<STATE> 4
<MEAN> 25
 6.725208e-02 -5.150090e+00 3.443682e+00 -2.513680e+00 -2.271353e-01 -2.479110e-01 1.068287e+00 -2.403555e+00 -1.349449e+00 3.935923e-02 2.190253e-01 7.620124e-01 2.674966e+00 -7.274120e-02 -3.204739e-01 3.668221e-01 1.818312e-01 -1.773539e+00 -1.494750e+00 -9.235156e-01 -1.947002e+00 -1.262686e+00 -4.662289e-01 5.305367e-02 2.229213e+00
<VARIANCE> 25
 3.678450e+01 4.006910e+01 4.787255e+01 5.576718e+01 5.168572e+01 4.239035e+01 4.381770e+01 4.481693e+01 4.380044e+01 3.419241e+01 2.507265e+01 1.988425e+01 2.029730e+00 4.721550e+00 4.108329e+00 5.850153e+00 5.617827e+00 4.736856e+00 4.321757e+00 4.812273e+00 4.380567e+00 4.659930e+00 3.916073e+00 3.285652e+00 3.656609e+00
<GCONST> 1.085535e+02
~t "T_t"
<ENDHMM>
~h "k-t+u"
<BEGINHMM>
<NUMSTATES> 5
<STATE> 2
<MEAN> 25
 -1.105155e+00 3.531708e+00 3.428654e-04 2.035812e+00 1.206108e-01 3.856581e+00 4.077179e-01 -5.965847e-01 8.127027e-01 7.627032e-01 3.199013e-01 6.893349e-02 -6.225701e-01 -2.968751e-01 -4.327019e-01 -2.591668e-01 -4.670320e-01 5.148919e-02 2.475624e-01 2.473967e-01 4.056443e-01 2.193291e-01 2.135402e-01 2.370846e-01 -4.553078e-01
<VARIANCE> 25
 1.757349e+01 1.922104e+01 3.467615e+01 3.267662e+01 2.919297e+01 2.473142e+01 2.491181e+01 2.517140e+01 2.366685e+01 1.964377e+01 1.771473e+01 1.668316e+01 8.811969e-01 1.897543e+00 1.485499e+00 1.704934e+00 1.593071e+00 1.769392e+00 1.715915e+00 1.659040e+00 1.614757e+00 1.490305e+00 1.287322e+00 1.257182e+00 1.985336e+00
<GCONST> 8.922695e+01
<STATE> 3
<MEAN> 25
 -2.661848e+00 -1.497703e+00 5.282218e-02 -3.497691e-01 -1.323973e+00 2.477841e+00 1.625346e+00 -2.516246e-01 1.776590e+00 1.439802e+00 5.119318e-01 3.112603e-01 3.591390e-01 -2.639185e+00 1.089064e+00 -1.295514e+00 3.863864e-02 -1.159161e+00 1.705076e-01 -5.860544e-01 -5.879141e-01 -1.566525e-01 -8.659262e-03 1.297800e-01 3.161201e+00
<VARIANCE> 25
 2.167913e+01 5.237593e+01 4.070385e+01 5.008830e+01 3.684749e+01 3.489187e+01 3.228013e+01 3.020567e+01 2.734658e+01 2.465602e+01 2.112542e+01 1.802548e+01 2.104158e+00 3.082623e+00 3.689658e+00 4.205109e+00 3.861122e+00 3.443296e+00 3.636282e+00 3.397777e+00 3.384237e+00 2.689384e+00 2.275631e+00 2.211970e+00 2.531482e+00
<GCONST> 1.015656e+02
<STATE> 4
<MEAN> 25
 6.725208e-02 -5.150090e+00 3.443682e+00 -2.513680e+00 -2.271353e-01 -2.479110e-01 1.068287e+00 -2.403555e+00 -1.349449e+00 3.935923e-02 2.190253e-01 7.620124e-01 2.674966e+00 -7.274120e-02 -3.204739e-01 3.668221e-01 1.818312e-01 -1.773539e+00 -1.494750e+00 -9.235156e-01 -1.947002e+00 -1.262686e+00 -4.662289e-01 5.305367e-02 2.229213e+00
<VARIANCE> 25
 3.678450e+01 4.006910e+01 4.787255e+01 5.576718e+01 5.168572e+01 4.239035e+01 4.381770e+01 4.481693e+01 4.380044e+01 3.419241e+01 2.507265e+01 1.988425e+01 2.029730e+00 4.721550e+00 4.108329e+00 5.850153e+00 5.617827e+00 4.736856e+00 4.321757e+00 4.812273e+00 4.380567e+00 4.659930e+00 3.916073e+00 3.285652e+00 3.656609e+00
<GCONST> 1.085535e+02
~t "T_t"
<ENDHMM>
~h "x-o+b"
<BEGINHMM>
<NUMSTATES> 5
<STATE> 2
<MEAN> 25
 8.202134e+00 8.756948e-01 -1.556870e+00 -2.412576e+00 -4.135490e+00 -5.283045e+00 -1.325630e+00 5.514442e-01 -3.256593e+00 -4.464030e+00 -3.179199e+00 -1.018459e+00 8.533680e-01 5.628624e-02 -4.272498e-01 -1.163086e+00 -1.742013e+00 -1.833407e+00 -1.006363e-01 8.327968e-01 2.565329e-01 -1.784475e-01 -2.551433e-01 1.000556e-01 7.841955e-01
<VARIANCE> 25
 2.727819e+01 4.614404e+01 4.546624e+01 5.624189e+01 6.257309e+01 6.102062e+01 4.518742e+01 4.939813e+01 5.469617e+01 4.219932e+01 3.056493e+01 2.847985e+01 1.604221e+00 2.714622e+00 2.414845e+00 3.306103e+00 3.399673e+00 4.293542e+00 4.410888e+00 3.910635e+00 3.812121e+00 3.509329e+00 2.851977e+00 2.694980e+00 1.552250e+00
<GCONST> 1.055529e+02
<STATE> 3
<MEAN> 25
 9.608891e+00 1.841884e+00 -1.624231e+00 -4.843653e+00 -1.056682e+01 -1.047259e+01 -3.275502e-01 4.228262e+00 -8.981493e-01 -3.707518e+00 -3.771726e+00 -1.847208e+00 -1.603226e-01 3.746803e-01 2.492852e-02 -5.283350e-02 -1.316152e-01 2.060792e-01 2.320018e-01 3.473101e-01 4.636069e-01 2.421327e-01 -1.011645e-03 -9.001540e-02 -4.208844e-01
<VARIANCE> 25
 2.191664e+01 3.832346e+01 3.536129e+01 4.552036e+01 5.146196e+01 5.402416e+01 4.532333e+01 4.316967e+01 5.194213e+01 3.791486e+01 2.724122e+01 2.477335e+01 5.759985e-01 1.296905e+00 1.329783e+00 1.436117e+00 2.015944e+00 2.854960e+00 1.984985e+00 2.227589e+00 2.343580e+00 2.045362e+00 1.638120e+00 1.449960e+00 1.066268e+00
<GCONST> 9.576168e+01
<STATE> 4
<MEAN> 25
 5.920141e+00 4.729104e+00 -6.619071e-01 -3.592440e+00 -6.668617e+00 -4.437122e+00 3.776827e-01 3.175261e+00 9.050462e-01 -1.454790e+00 -2.326509e+00 -1.249121e+00 -6.257654e-01 -3.906129e-02 1.678127e-01 4.218079e-01 7.039407e-01 9.980335e-01 2.885799e-01 -2.038472e-01 -1.773957e-02 1.877047e-01 2.155907e-01 8.154663e-02 -5.345345e-01
<VARIANCE> 25
 2.381943e+01 3.168683e+01 3.073319e+01 3.372535e+01 3.205265e+01 4.222814e+01 3.201194e+01 3.300840e+01 3.498757e+01 3.150789e+01 2.243595e+01 1.901501e+01 4.852379e-01 7.335701e-01 1.011674e+00 1.084659e+00 1.496157e+00 1.967000e+00 1.648281e+00 1.688958e+00 1.686677e+00 1.518985e+00 1.305284e+00 1.193857e+00 3.831035e-01
<GCONST> 8.833953e+01
~t "T_o"
<ENDHMM>
~h "a-e+l"
<BEGINHMM>
<NUMSTATES> 5
<STATE> 2
<MEAN> 25
 4.917822e+00 -3.046909e+00 -7.860230e-01 1.961976e+00 3.296882e+00 -3.095960e+00 -4.445966e+00 -4.378197e+00 -4.194638e+00 -1.446952e+00 1.146220e-01 1.648807e-01 1.062938e+00 -1.285595e+00 -6.981800e-01 4.423747e-01 5.001229e-01 -1.895295e+00 -1.787762e+00 -1.308817e+00 -1.084860e+00 1.344622e-01 6.617222e-01 3.701210e-01 1.670173e+00
<VARIANCE> 25
 3.577217e+01 3.706077e+01 4.774310e+01 6.015227e+01 4.925949e+01 6.036604e+01 5.010396e+01 4.977269e+01 4.858726e+01 3.950971e+01 3.013842e+01 2.473536e+01 2.384392e+00 2.958043e+00 2.685448e+00 3.858023e+00 3.340221e+00 5.064232e+00 4.063103e+00 3.681123e+00 4.037725e+00 4.174648e+00 3.332788e+00 2.898063e+00 2.226966e+00
<GCONST> 1.068105e+02
<STATE> 3
<MEAN> 25
 7.191195e+00 -7.001473e+00 -2.328277e+00 2.836691e+00 3.888689e+00 -7.911126e+00 -8.482172e+00 -6.657192e+00 -5.470276e+00 -1.285404e-01 1.987994e+00 7.147580e-01 8.514885e-02 -4.249433e-01 -1.496204e-01 2.818093e-01 1.203487e-01 -6.073316e-01 -4.420330e-01 -1.406531e-01 1.603031e-01 5.093133e-01 3.347531e-01 -4.041983e-02 2.952766e-01
<VARIANCE> 25
 2.837927e+01 3.550758e+01 4.376701e+01 6.339727e+01 5.782299e+01 6.153004e+01 4.445435e+01 4.665985e+01 4.438187e+01 4.603452e+01 3.686113e+01 3.249733e+01 5.579238e-01 9.633060e-01 1.396090e+00 1.826277e+00 1.583154e+00 2.003756e+00 1.982185e+00 1.856537e+00 2.013892e+00 2.006657e+00 1.751121e+00 1.508502e+00 5.828047e-01
<GCONST> 9.591582e+01
<STATE> 4
<MEAN> 25
 5.895019e+00 -4.724988e+00 -1.197292e+00 3.906052e+00 3.870449e+00 -6.545651e+00 -8.215060e+00 -6.679025e+00 -4.172563e+00 5.337154e-01 9.279272e-01 -6.742178e-01 -3.232698e-01 7.992764e-01 3.300467e-01 -6.339286e-02 7.912491e-02 1.004552e+00 6.088396e-01 3.772415e-01 3.436322e-01 -1.313366e-01 -2.720630e-01 -1.298955e-01 -7.956876e-01
<VARIANCE> 25
 2.029749e+01 3.066547e+01 3.368494e+01 5.057070e+01 4.296806e+01 5.593891e+01 3.659196e+01 3.710094e+01 4.034227e+01 3.575679e+01 3.262199e+01 2.925796e+01 5.569103e-01 1.011105e+00 1.171097e+00 1.448238e+00 1.440968e+00 2.011663e+00 1.814593e+00 1.739066e+00 1.905525e+00 1.867028e+00 1.539982e+00 1.274082e+00 7.538318e-01
<GCONST> 9.278246e+01
~t "T_e"
<ENDHMM>
~h "x-o+r"
<BEGINHMM>
<NUMSTATES> 5
<STATE> 2
<MEAN> 25
 8.202134e+00 8.756948e-01 -1.556870e+00 -2.412576e+00 -4.135490e+00 -5.283045e+00 -1.325630e+00 5.514442e-01 -3.256593e+00 -4.464030e+00 -3.179199e+00 -1.018459e+00 8.533680e-01 5.628624e-02 -4.272498e-01 -1.163086e+00 -1.742013e+00 -1.833407e+00 -1.006363e-01 8.327968e-01 2.565329e-01 -1.784475e-01 -2.551433e-01 1.000556e-01 7.841955e-01
<VARIANCE> 25
 2.727819e+01 4.614404e+01 4.546624e+01 5.624189e+01 6.257309e+01 6.102062e+01 4.518742e+01 4.939813e+01 5.469617e+01 4.219932e+01 3.056493e+01 2.847985e+01 1.604221e+00 2.714622e+00 2.414845e+00 3.306103e+00 3.399673e+00 4.293542e+00 4.410888e+00 3.910635e+00 3.812121e+00 3.509329e+00 2.851977e+00 2.694980e+00 1.552250e+00
<GCONST> 1.055529e+02
<STATE> 3
<MEAN> 25
 9.608891e+00 1.841884e+00 -1.624231e+00 -4.843653e+00 -1.056682e+01 -1.047259e+01 -3.275502e-01 4.228262e+00 -8.981493e-01 -3.707518e+00 -3.771726e+00 -1.847208e+00 -1.603226e-01 3.746803e-01 2.492852e-02 -5.283350e-02 -1.316152e-01 2.060792e-01 2.320018e-01 3.473101e-01 4.636069e-01 2.421327e-01 -1.011645e-03 -9.001540e-02 -4.208844e-01
<VARIANCE> 25
 2.191664e+01 3.832346e+01 3.536129e+01 4.552036e+01 5.146196e+01 5.402416e+01 4.532333e+01 4.316967e+01 5.194213e+01 3.791486e+01 2.724122e+01 2.477335e+01 5.759985e-01 1.296905e+00 1.329783e+00 1.436117e+00 2.015944e+00 2.854960e+00 1.984985e+00 2.227589e+00 2.343580e+00 2.045362e+00 1.638120e+00 1.449960e+00 1.066268e+00
<GCONST> 9.576168e+01
<STATE> 4
<MEAN> 25
 5.920141e+00 4.729104e+00 -6.619071e-01 -3.592440e+00 -6.668617e+00 -4.437122e+00 3.776827e-01 3.175261e+00 9.050462e-01 -1.454790e+00 -2.326509e+00 -1.249121e+00 -6.257654e-01 -3.906129e-02 1.678127e-01 4.218079e-01 7.039407e-01 9.980335e-01 2.885799e-01 -2.038472e-01 -1.773957e-02 1.877047e-01 2.155907e-01 8.154663e-02 -5.345345e-01
<VARIANCE> 25
 2.381943e+01 3.168683e+01 3.073319e+01 3.372535e+01 3.205265e+01 4.222814e+01 3.201194e+01 3.300840e+01 3.498757e+01 3.150789e+01 2.243595e+01 1.901501e+01 4.852379e-01 7.335701e-01 1.011674e+00 1.084659e+00 1.496157e+00 1.967000e+00 1.648281e+00 1.688958e+00 1.686677e+00 1.518985e+00 1.305284e+00 1.193857e+00 3.831035e-01
<GCONST> 8.833953e+01
~t "T_o"
<ENDHMM>
~h "x-o+s"
<BEGINHMM>
<NUMSTATES> 5
<STATE> 2
<MEAN> 25
 8.202134e+00 8.756948e-01 -1.556870e+00 -2.412576e+00 -4.135490e+00 -5.283045e+00 -1.325630e+00 5.514442e-01 -3.256593e+00 -4.464030e+00 -3.179199e+00 -1.018459e+00 8.533680e-01 5.628624e-02 -4.272498e-01 -1.163086e+00 -1.742013e+00 -1.833407e+00 -1.006363e-01 8.327968e-01 2.565329e-01 -1.784475e-01 -2.551433e-01 1.000556e-01 7.841955e-01
<VARIANCE> 25
 2.727819e+01 4.614404e+01 4.546624e+01 5.624189e+01 6.257309e+01 6.102062e+01 4.518742e+01 4.939813e+01 5.469617e+01 4.219932e+01 3.056493e+01 2.847985e+01 1.604221e+00 2.714622e+00 2.414845e+00 3.306103e+00 3.399673e+00 4.293542e+00 4.410888e+00 3.910635e+00 3.812121e+00 3.509329e+00 2.851977e+00 2.694980e+00 1.552250e+00
<GCONST> 1.055529e+02
<STATE> 3
<MEAN> 25
 9.608891e+00 1.841884e+00 -1.624231e+00 -4.843653e+00 -1.056682e+01 -1.047259e+01 -3.275502e-01 4.228262e+00 -8.981493e-01 -3.707518e+00 -3.771726e+00 -1.847208e+00 -1.603226e-01 3.746803e-01 2.492852e-02 -5.283350e-02 -1.316152e-01 2.060792e-01 2.320018e-01 3.473101e-01 4.636069e-01 2.421327e-01 -1.011645e-03 -9.001540e-02 -4.208844e-01
<VARIANCE> 25
 2.191664e+01 3.832346e+01 3.536129e+01 4.552036e+01 5.146196e+01 5.402416e+01 4.532333e+01 4.316967e+01 5.194213e+01 3.791486e+01 2.724122e+01 2.477335e+01 5.759985e-01 1.296905e+00 1.329783e+00 1.436117e+00 2.015944e+00 2.854960e+00 1.984985e+00 2.227589e+00 2.343580e+00 2.045362e+00 1.638120e+00 1.449960e+00 1.066268e+00
<GCONST> 9.576168e+01
<STATE> 4
<MEAN> 25
 5.920141e+00 4.729104e+00 -6.619071e-01 -3.592440e+00 -6.668617e+00 -4.437122e+00 3.776827e-01 3.175261e+00 9.050462e-01 -1.454790e+00 -2.326509e+00 -1.249121e+00 -6.257654e-01 -3.906129e-02 1.678127e-01 4.218079e-01 7.039407e-01 9.980335e-01 2.885799e-01 -2.038472e-01 -1.773957e-02 1.877047e-01 2.155907e-01 8.154663e-02 -5.345345e-01
<VARIANCE> 25
 2.381943e+01 3.168683e+01 3.073319e+01 3.372535e+01 3.205265e+01 4.222814e+01 3.201194e+01 3.300840e+01 3.498757e+01 3.150789e+01 2.243595e+01 1.901501e+01 4.852379e-01 7.335701e-01 1.011674e+00 1.084659e+00 1.496157e+00 1.967000e+00 1.648281e+00 1.688958e+00 1.686677e+00 1.518985e+00 1.305284e+00 1.193857e+00 3.831035e-01
<GCONST> 8.833953e+01
~t "T_o"
<ENDHMM>
~h "x-o+t"
<BEGINHMM>
<NUMSTATES> 5
<STATE> 2
<MEAN> 25
 8.202134e+00 8.756948e-01 -1.556870e+00 -2.412576e+00 -4.135490e+00 -5.283045e+00 -1.325630e+00 5.514442e-01 -3.256593e+00 -4.464030e+00 -3.179199e+00 -1.018459e+00 8.533680e-01 5.628624e-02 -4.272498e-01 -1.163086e+00 -1.742013e+00 -1.833407e+00 -1.006363e-01 8.327968e-01 2.565329e-01 -1.784475e-01 -2.551433e-01 1.000556e-01 7.841955e-01
<VARIANCE> 25
 2.727819e+01 4.614404e+01 4.546624e+01 5.624189e+01 6.257309e+01 6.102062e+01 4.518742e+01 4.939813e+01 5.469617e+01 4.219932e+01 3.056493e+01 2.847985e+01 1.604221e+00 2.714622e+00 2.414845e+00 3.306103e+00 3.399673e+00 4.293542e+00 4.410888e+00 3.910635e+00 3.812121e+00 3.509329e+00 2.851977e+00 2.694980e+00 1.552250e+00
<GCONST> 1.055529e+02
<STATE> 3
<MEAN> 25
 9.608891e+00 1.841884e+00 -1.624231e+00 -4.843653e+00 -1.056682e+01 -1.047259e+01 -3.275502e-01 4.228262e+00 -8.981493e-01 -3.707518e+00 -3.771726e+00 -1.847208e+00 -1.603226e-01 3.746803e-01 2.492852e-02 -5.283350e-02 -1.316152e-01 2.060792e-01 2.320018e-01 3.473101e-01 4.636069e-01 2.421327e-01 -1.011645e-03 -9.001540e-02 -4.208844e-01
<VARIANCE> 25
 2.191664e+01 3.832346e+01 3.536129e+01 4.552036e+01 5.146196e+01 5.402416e+01 4.532333e+01 4.316967e+01 5.194213e+01 3.791486e+01 2.724122e+01 2.477335e+01 5.759985e-01 1.296905e+00 1.329783e+00 1.436117e+00 2.015944e+00 2.854960e+00 1.984985e+00 2.227589e+00 2.343580e+00 2.045362e+00 1.638120e+00 1.449960e+00 1.066268e+00
<GCONST> 9.576168e+01
<STATE> 4
<MEAN> 25
 5.920141e+00 4.729104e+00 -6.619071e-01 -3.592440e+00 -6.668617e+00 -4.437122e+00 3.776827e-01 3.175261e+00 9.050462e-01 -1.454790e+00 -2.326509e+00 -1.249121e+00 -6.257654e-01 -3.906129e-02 1.678127e-01 4.218079e-01 7.039407e-01 9.980335e-01 2.885799e-01 -2.038472e-01 -1.773957e-02 1.877047e-01 2.155907e-01 8.154663e-02 -5.345345e-01
<VARIANCE> 25
 2.381943e+01 3.168683e+01 3.073319e+01 3.372535e+01 3.205265e+01 4.222814e+01 3.201194e+01 3.300840e+01 3.498757e+01 3.150789e+01 2.243595e+01 1.901501e+01 4.852379e-01 7.335701e-01 1.011674e+00 1.084659e+00 1.496157e+00 1.967000e+00 1.648281e+00 1.688958e+00 1.686677e+00 1.518985e+00 1.305284e+00 1.193857e+00 3.831035e-01
<GCONST> 8.833953e+01
~t "T_o"
<ENDHMM>
~h "k-u+a"
<BEGINHMM>
<NUMSTATES> 5
<STATE> 2
<MEAN> 25
 5.841117e+00 4.888117e+00 2.686566e+00 -7.820466e-01 -3.509169e+00 -4.456264e+00 -1.667651e+00 1.072235e+00 -1.711213e+00 -3.398537e+00 -2.842877e+00 -2.182095e+00 1.576147e+00 1.045471e+00 4.197832e-01 -3.047917e-01 -1.355020e+00 -2.229248e+00 -1.097899e+00 2.456878e-01 -2.158980e-01 -6.960759e-01 -8.961666e-01 -8.212398e-01 8.114035e-01
<VARIANCE> 25
 3.111406e+01 4.019774e+01 4.504975e+01 4.146431e+01 4.849731e+01 5.661042e+01 4.281160e+01 4.095763e+01 5.025994e+01 4.244762e+01 3.143690e+01 2.546618e+01 2.317891e+00 3.149550e+00 3.087908e+00 3.151040e+00 3.396149e+00 4.573932e+00 4.195843e+00 4.035922e+00 4.034451e+00 3.409064e+00 3.195040e+00 2.762604e+00 1.784756e+00
<GCONST> 1.055627e+02
<STATE> 3
<MEAN> 25
 8.658910e+00 5.000401e+00 2.954348e+00 -2.671335e+00 -7.457289e+00 -1.043769e+01 -3.682248e+00 2.342003e+00 -1.993913e+00 -4.053403e+00 -3.655970e+00 -3.858294e+00 3.619523e-01 -4.174033e-01 -5.004941e-01 -5.413764e-01 -3.661138e-01 -3.691237e-01 1.985084e-01 6.194838e-01 2.091379e-01 -3.094780e-01 -4.365371e-01 -2.890210e-01 4.863066e-01
<VARIANCE> 25
 1.982055e+01 3.754977e+01 4.485072e+01 4.602500e+01 4.835411e+01 5.230594e+01 4.533890e+01 4.689768e+01 6.356376e+01 4.307386e+01 3.556441e+01 3.444476e+01 5.694164e-01 2.171613e+00 2.316406e+00 1.907328e+00 2.369149e+00 3.386717e+00 2.927253e+00 3.053224e+00 2.962884e+00 2.837181e+00 2.662840e+00 2.209183e+00 9.819031e-01
<GCONST> 1.005687e+02
<STATE> 4
<MEAN> 25
 7.936549e+00 5.316041e+00 2.239468e+00 -2.040418e+00 -5.537446e+00 -6.998611e+00 -2.096663e+00 2.982105e+00 -1.124920e+00 -4.924550e+00 -4.786534e+00 -3.909861e+00 -1.936503e-01 -3.466140e-01 -3.004697e-01 2.804921e-01 7.471921e-01 1.043675e+00 4.173047e-01 -2.147343e-01 -1.894316e-01 -7.248510e-02 1.116081e-02 1.502710e-01 -1.055882e-01
<VARIANCE> 25
 1.968233e+01 3.080829e+01 3.984565e+01 3.763365e+01 3.553752e+01 4.067476e+01 4.069976e+01 3.915368e+01 5.144368e+01 3.819278e+01 3.066512e+01 2.631176e+01 3.753779e-01 1.220878e+00 1.362571e+00 1.493957e+00 2.004738e+00 2.727168e+00 2.026844e+00 2.105258e+00 2.403310e+00 2.200738e+00 1.975419e+00 1.823615e+00 5.097307e-01
<GCONST> 9.394715e+01
~t "T_u"
<ENDHMM>
~h "k-u+b"
<BEGINHMM>
<NUMSTATES> 5
<STATE> 2
<MEAN> 25
 5.841117e+00 4.888117e+00 2.686566e+00 -7.820466e-01 -3.509169e+00 -4.456264e+00 -1.667651e+00 1.072235e+00 -1.711213e+00 -3.398537e+00 -2.842877e+00 -2.182095e+00 1.576147e+00 1.045471e+00 4.197832e-01 -3.047917e-01 -1.355020e+00 -2.229248e+00 -1.097899e+00 2.456878e-01 -2.158980e-01 -6.960759e-01 -8.961666e-01 -8.212398e-01 8.114035e-01
<VARIANCE> 25
 3.111406e+01 4.019774e+01 4.504975e+01 4.146431e+01 4.849731e+01 5.661042e+01 4.281160e+01 4.095763e+01 5.025994e+01 4.244762e+01 3.143690e+01 2.546618e+01 2.317891e+00 3.149550e+00 3.087908e+00 3.151040e+00 3.396149e+00 4.573932e+00 4.195843e+00 4.035922e+00 4.034451e+00 3.409064e+00 3.195040e+00 2.762604e+00 1.784756e+00
<GCONST> 1.055627e+02
<STATE> 3
<MEAN> 25
 8.658910e+00 5.000401e+00 2.954348e+00 -2.671335e+00 -7.457289e+00 -1.043769e+01 -3.682248e+00 2.342003e+00 -1.993913e+00 -4.053403e+00 -3.655970e+00 -3.858294e+00 3.619523e-01 -4.174033e-01 -5.004941e-01 -5.413764e-01 -3.661138e-01 -3.691237e-01 1.985084e-01 6.194838e-01 2.091379e-01 -3.094780e-01 -4.365371e-01 -2.890210e-01 4.863066e-01
<VARIANCE> 25
 1.982055e+01 3.754977e+01 4.485072e+01 4.602500e+01 4.835411e+01 5.230594e+01 4.533890e+01 4.689768e+01 6.356376e+01 4.307386e+01 3.556441e+01 3.444476e+01 5.694164e-01 2.171613e+00 2.316406e+00 1.907328e+00 2.369149e+00 3.386717e+00 2.927253e+00 3.053224e+00 2.962884e+00 2.837181e+00 2.662840e+00 2.209183e+00 9.819031e-01
<GCONST> 1.005687e+02
<STATE> 4
<MEAN> 25
 7.936549e+00 5.316041e+00 2.239468e+00 -2.040418e+00 -5.537446e+00 -6.998611e+00 -2.096663e+00 2.982105e+00 -1.124920e+00 -4.924550e+00 -4.786534e+00 -3.909861e+00 -1.936503e-01 -3.466140e-01 -3.004697e-01 2.804921e-01 7.471921e-01 1.043675e+00 4.173047e-01 -2.147343e-01 -1.894316e-01 -7.248510e-02 1.116081e-02 1.502710e-01 -1.055882e-01
<VARIANCE> 25
 1.968233e+01 3.080829e+01 3.984565e+01 3.763365e+01 3.553752e+01 4.067476e+01 4.069976e+01 3.915368e+01 5.144368e+01 3.819278e+01 3.066512e+01 2.631176e+01 3.753779e-01 1.220878e+00 1.362571e+00 1.493957e+00 2.004738e+00 2.727168e+00 2.026844e+00 2.105258e+00 2.403310e+00 2.200738e+00 1.975419e+00 1.823615e+00 5.097307e-01
<GCONST> 9.394715e+01
~t "T_u"
<ENDHMM>
~h "k-u+e"
<BEGINHMM>
<NUMSTATES> 5
<STATE> 2
<MEAN> 25
 5.841117e+00 4.888117e+00 2.686566e+00 -7.820466e-01 -3.509169e+00 -4.456264e+00 -1.667651e+00 1.072235e+00 -1.711213e+00 -3.398537e+00 -2.842877e+00 -2.182095e+00 1.576147e+00 1.045471e+00 4.197832e-01 -3.047917e-01 -1.355020e+00 -2.229248e+00 -1.097899e+00 2.456878e-01 -2.158980e-01 -6.960759e-01 -8.961666e-01 -8.212398e-01 8.114035e-01
<VARIANCE> 25
 3.111406e+01 4.019774e+01 4.504975e+01 4.146431e+01 4.849731e+01 5.661042e+01 4.281160e+01 4.095763e+01 5.025994e+01 4.244762e+01 3.143690e+01 2.546618e+01 2.317891e+00 3.149550e+00 3.087908e+00 3.151040e+00 3.396149e+00 4.573932e+00 4.195843e+00 4.035922e+00 4.034451e+00 3.409064e+00 3.195040e+00 2.762604e+00 1.784756e+00
<GCONST> 1.055627e+02
<STATE> 3
<MEAN> 25
 8.658910e+00 5.000401e+00 2.954348e+00 -2.671335e+00 -7.457289e+00 -1.043769e+01 -3.682248e+00 2.342003e+00 -1.993913e+00 -4.053403e+00 -3.655970e+00 -3.858294e+00 3.619523e-01 -4.174033e-01 -5.004941e-01 -5.413764e-01 -3.661138e-01 -3.691237e-01 1.985084e-01 6.194838e-01 2.091379e-01 -3.094780e-01 -4.365371e-01 -2.890210e-01 4.863066e-01
<VARIANCE> 25
 1.982055e+01 3.754977e+01 4.485072e+01 4.602500e+01 4.835411e+01 5.230594e+01 4.533890e+01 4.689768e+01 6.356376e+01 4.307386e+01 3.556441e+01 3.444476e+01 5.694164e-01 2.171613e+00 2.316406e+00 1.907328e+00 2.369149e+00 3.386717e+00 2.927253e+00 3.053224e+00 2.962884e+00 2.837181e+00 2.662840e+00 2.209183e+00 9.819031e-01
<GCONST> 1.005687e+02
<STATE> 4
<MEAN> 25
 7.936549e+00 5.316041e+00 2.239468e+00 -2.040418e+00 -5.537446e+00 -6.998611e+00 -2.096663e+00 2.982105e+00 -1.124920e+00 -4.924550e+00 -4.786534e+00 -3.909861e+00 -1.936503e-01 -3.466140e-01 -3.004697e-01 2.804921e-01 7.471921e-01 1.043675e+00 4.173047e-01 -2.147343e-01 -1.894316e-01 -7.248510e-02 1.116081e-02 1.502710e-01 -1.055882e-01
<VARIANCE> 25
 1.968233e+01 3.080829e+01 3.984565e+01 3.763365e+01 3.553752e+01 4.067476e+01 4.069976e+01 3.915368e+01 5.144368e+01 3.819278e+01 3.066512e+01 2.631176e+01 3.753779e-01 1.220878e+00 1.362571e+00 1.493957e+00 2.004738e+00 2.727168e+00 2.026844e+00 2.105258e+00 2.403310e+00 2.200738e+00 1.975419e+00 1.823615e+00 5.097307e-01
<GCONST> 9.394715e+01
~t "T_u"
<ENDHMM>
~h "k-u+l"
<BEGINHMM>
<NUMSTATES> 5
<STATE> 2
<MEAN> 25
 5.841117e+00 4.888117e+00 2.686566e+00 -7.820466e-01 -3.509169e+00 -4.456264e+00 -1.667651e+00 1.072235e+00 -1.711213e+00 -3.398537e+00 -2.842877e+00 -2.182095e+00 1.576147e+00 1.045471e+00 4.197832e-01 -3.047917e-01 -1.355020e+00 -2.229248e+00 -1.097899e+00 2.456878e-01 -2.158980e-01 -6.960759e-01 -8.961666e-01 -8.212398e-01 8.114035e-01
<VARIANCE> 25
 3.111406e+01 4.019774e+01 4.504975e+01 4.146431e+01 4.849731e+01 5.661042e+01 4.281160e+01 4.095763e+01 5.025994e+01 4.244762e+01 3.143690e+01 2.546618e+01 2.317891e+00 3.149550e+00 3.087908e+00 3.151040e+00 3.396149e+00 4.573932e+00 4.195843e+00 4.035922e+00 4.034451e+00 3.409064e+00 3.195040e+00 2.762604e+00 1.784756e+00
<GCONST> 1.055627e+02
<STATE> 3
<MEAN> 25
 8.658910e+00 5.000401e+00 2.954348e+00 -2.671335e+00 -7.457289e+00 -1.043769e+01 -3.682248e+00 2.342003e+00 -1.993913e+00 -4.053403e+00 -3.655970e+00 -3.858294e+00 3.619523e-01 -4.174033e-01 -5.004941e-01 -5.413764e-01 -3.661138e-01 -3.691237e-01 1.985084e-01 6.194838e-01 2.091379e-01 -3.094780e-01 -4.365371e-01 -2.890210e-01 4.863066e-01
<VARIANCE> 25
 1.982055e+01 3.754977e+01 4.485072e+01 4.602500e+01 4.835411e+01 5.230594e+01 4.533890e+01 4.689768e+01 6.356376e+01 4.307386e+01 3.556441e+01 3.444476e+01 5.694164e-01 2.171613e+00 2.316406e+00 1.907328e+00 2.369149e+00 3.386717e+00 2.927253e+00 3.053224e+00 2.962884e+00 2.837181e+00 2.662840e+00 2.209183e+00 9.819031e-01
<GCONST> 1.005687e+02
<STATE> 4
<MEAN> 25
 7.936549e+00 5.316041e+00 2.239468e+00 -2.040418e+00 -5.537446e+00 -6.998611e+00 -2.096663e+00 2.982105e+00 -1.124920e+00 -4.924550e+00 -4.786534e+00 -3.909861e+00 -1.936503e-01 -3.466140e-01 -3.004697e-01 2.804921e-01 7.471921e-01 1.043675e+00 4.173047e-01 -2.147343e-01 -1.894316e-01 -7.248510e-02 1.116081e-02 1.502710e-01 -1.055882e-01
<VARIANCE> 25
 1.968233e+01 3.080829e+01 3.984565e+01 3.763365e+01 3.553752e+01 4.067476e+01 4.069976e+01 3.915368e+01 5.144368e+01 3.819278e+01 3.066512e+01 2.631176e+01 3.753779e-01 1.220878e+00 1.362571e+00 1.493957e+00 2.004738e+00 2.727168e+00 2.026844e+00 2.105258e+00 2.403310e+00 2.200738e+00 1.975419e+00 1.823615e+00 5.097307e-01
<GCONST> 9.394715e+01
~t "T_u"
<ENDHMM>
~h "k-u+m"
<BEGINHMM>
<NUMSTATES> 5
<STATE> 2
<MEAN> 25
 5.841117e+00 4.888117e+00 2.686566e+00 -7.820466e-01 -3.509169e+00 -4.456264e+00 -1.667651e+00 1.072235e+00 -1.711213e+00 -3.398537e+00 -2.842877e+00 -2.182095e+00 1.576147e+00 1.045471e+00 4.197832e-01 -3.047917e-01 -1.355020e+00 -2.229248e+00 -1.097899e+00 2.456878e-01 -2.158980e-01 -6.960759e-01 -8.961666e-01 -8.212398e-01 8.114035e-01
<VARIANCE> 25
 3.111406e+01 4.019774e+01 4.504975e+01 4.146431e+01 4.849731e+01 5.661042e+01 4.281160e+01 4.095763e+01 5.025994e+01 4.244762e+01 3.143690e+01 2.546618e+01 2.317891e+00 3.149550e+00 3.087908e+00 3.151040e+00 3.396149e+00 4.573932e+00 4.195843e+00 4.035922e+00 4.034451e+00 3.409064e+00 3.195040e+00 2.762604e+00 1.784756e+00
<GCONST> 1.055627e+02
<STATE> 3
<MEAN> 25
 8.658910e+00 5.000401e+00 2.954348e+00 -2.671335e+00 -7.457289e+00 -1.043769e+01 -3.682248e+00 2.342003e+00 -1.993913e+00 -4.053403e+00 -3.655970e+00 -3.858294e+00 3.619523e-01 -4.174033e-01 -5.004941e-01 -5.413764e-01 -3.661138e-01 -3.691237e-01 1.985084e-01 6.194838e-01 2.091379e-01 -3.094780e-01 -4.365371e-01 -2.890210e-01 4.863066e-01
<VARIANCE> 25
 1.982055e+01 3.754977e+01 4.485072e+01 4.602500e+01 4.835411e+01 5.230594e+01 4.533890e+01 4.689768e+01 6.356376e+01 4.307386e+01 3.556441e+01 3.444476e+01 5.694164e-01 2.171613e+00 2.316406e+00 1.907328e+00 2.369149e+00 3.386717e+00 2.927253e+00 3.053224e+00 2.962884e+00 2.837181e+00 2.662840e+00 2.209183e+00 9.819031e-01
<GCONST> 1.005687e+02
<STATE> 4
<MEAN> 25
 7.936549e+00 5.316041e+00 2.239468e+00 -2.040418e+00 -5.537446e+00 -6.998611e+00 -2.096663e+00 2.982105e+00 -1.124920e+00 -4.924550e+00 -4.786534e+00 -3.909861e+00 -1.936503e-01 -3.466140e-01 -3.004697e-01 2.804921e-01 7.471921e-01 1.043675e+00 4.173047e-01 -2.147343e-01 -1.894316e-01 -7.248510e-02 1.116081e-02 1.502710e-01 -1.055882e-01
<VARIANCE> 25
 1.968233e+01 3.080829e+01 3.984565e+01 3.763365e+01 3.553752e+01 4.067476e+01 4.069976e+01 3.915368e+01 5.144368e+01 3.819278e+01 3.066512e+01 2.631176e+01 3.753779e-01 1.220878e+00 1.362571e+00 1.493957e+00 2.004738e+00 2.727168e+00 2.026844e+00 2.105258e+00 2.403310e+00 2.200738e+00 1.975419e+00 1.823615e+00 5.097307e-01
<GCONST> 9.394715e+01
~t "T_u"
<ENDHMM>
~h "k-u+p"
<BEGINHMM>
<NUMSTATES> 5
<STATE> 2
<MEAN> 25
 5.841117e+00 4.888117e+00 2.686566e+00 -7.820466e-01 -3.509169e+00 -4.456264e+00 -1.667651e+00 1.072235e+00 -1.711213e+00 -3.398537e+00 -2.842877e+00 -2.182095e+00 1.576147e+00 1.045471e+00 4.197832e-01 -3.047917e-01 -1.355020e+00 -2.229248e+00 -1.097899e+00 2.456878e-01 -2.158980e-01 -6.960759e-01 -8.961666e-01 -8.212398e-01 8.114035e-01
<VARIANCE> 25
 3.111406e+01 4.019774e+01 4.504975e+01 4.146431e+01 4.849731e+01 5.661042e+01 4.281160e+01 4.095763e+01 5.025994e+01 4.244762e+01 3.143690e+01 2.546618e+01 2.317891e+00 3.149550e+00 3.087908e+00 3.151040e+00 3.396149e+00 4.573932e+00 4.195843e+00 4.035922e+00 4.034451e+00 3.409064e+00 3.195040e+00 2.762604e+00 1.784756e+00
<GCONST> 1.055627e+02
<STATE> 3
<MEAN> 25
 8.658910e+00 5.000401e+00 2.954348e+00 -2.671335e+00 -7.457289e+00 -1.043769e+01 -3.682248e+00 2.342003e+00 -1.993913e+00 -4.053403e+00 -3.655970e+00 -3.858294e+00 3.619523e-01 -4.174033e-01 -5.004941e-01 -5.413764e-01 -3.661138e-01 -3.691237e-01 1.985084e-01 6.194838e-01 2.091379e-01 -3.094780e-01 -4.365371e-01 -2.890210e-01 4.863066e-01
<VARIANCE> 25
 1.982055e+01 3.754977e+01 4.485072e+01 4.602500e+01 4.835411e+01 5.230594e+01 4.533890e+01 4.689768e+01 6.356376e+01 4.307386e+01 3.556441e+01 3.444476e+01 5.694164e-01 2.171613e+00 2.316406e+00 1.907328e+00 2.369149e+00 3.386717e+00 2.927253e+00 3.053224e+00 2.962884e+00 2.837181e+00 2.662840e+00 2.209183e+00 9.819031e-01
<GCONST> 1.005687e+02
<STATE> 4
<MEAN> 25
 7.936549e+00 5.316041e+00 2.239468e+00 -2.040418e+00 -5.537446e+00 -6.998611e+00 -2.096663e+00 2.982105e+00 -1.124920e+00 -4.924550e+00 -4.786534e+00 -3.909861e+00 -1.936503e-01 -3.466140e-01 -3.004697e-01 2.804921e-01 7.471921e-01 1.043675e+00 4.173047e-01 -2.147343e-01 -1.894316e-01 -7.248510e-02 1.116081e-02 1.502710e-01 -1.055882e-01
<VARIANCE> 25
 1.968233e+01 3.080829e+01 3.984565e+01 3.763365e+01 3.553752e+01 4.067476e+01 4.069976e+01 3.915368e+01 5.144368e+01 3.819278e+01 3.066512e+01 2.631176e+01 3.753779e-01 1.220878e+00 1.362571e+00 1.493957e+00 2.004738e+00 2.727168e+00 2.026844e+00 2.105258e+00 2.403310e+00 2.200738e+00 1.975419e+00 1.823615e+00 5.097307e-01
<GCONST> 9.394715e+01
~t "T_u"
<ENDHMM>
~h "k-u+r"
<BEGINHMM>
<NUMSTATES> 5
<STATE> 2
<MEAN> 25
 5.841117e+00 4.888117e+00 2.686566e+00 -7.820466e-01 -3.509169e+00 -4.456264e+00 -1.667651e+00 1.072235e+00 -1.711213e+00 -3.398537e+00 -2.842877e+00 -2.182095e+00 1.576147e+00 1.045471e+00 4.197832e-01 -3.047917e-01 -1.355020e+00 -2.229248e+00 -1.097899e+00 2.456878e-01 -2.158980e-01 -6.960759e-01 -8.961666e-01 -8.212398e-01 8.114035e-01
<VARIANCE> 25
 3.111406e+01 4.019774e+01 4.504975e+01 4.146431e+01 4.849731e+01 5.661042e+01 4.281160e+01 4.095763e+01 5.025994e+01 4.244762e+01 3.143690e+01 2.546618e+01 2.317891e+00 3.149550e+00 3.087908e+00 3.151040e+00 3.396149e+00 4.573932e+00 4.195843e+00 4.035922e+00 4.034451e+00 3.409064e+00 3.195040e+00 2.762604e+00 1.784756e+00
<GCONST> 1.055627e+02
<STATE> 3
<MEAN> 25
 8.658910e+00 5.000401e+00 2.954348e+00 -2.671335e+00 -7.457289e+00 -1.043769e+01 -3.682248e+00 2.342003e+00 -1.993913e+00 -4.053403e+00 -3.655970e+00 -3.858294e+00 3.619523e-01 -4.174033e-01 -5.004941e-01 -5.413764e-01 -3.661138e-01 -3.691237e-01 1.985084e-01 6.194838e-01 2.091379e-01 -3.094780e-01 -4.365371e-01 -2.890210e-01 4.863066e-01
<VARIANCE> 25
 1.982055e+01 3.754977e+01 4.485072e+01 4.602500e+01 4.835411e+01 5.230594e+01 4.533890e+01 4.689768e+01 6.356376e+01 4.307386e+01 3.556441e+01 3.444476e+01 5.694164e-01 2.171613e+00 2.316406e+00 1.907328e+00 2.369149e+00 3.386717e+00 2.927253e+00 3.053224e+00 2.962884e+00 2.837181e+00 2.662840e+00 2.209183e+00 9.819031e-01
<GCONST> 1.005687e+02
<STATE> 4
<MEAN> 25
 7.936549e+00 5.316041e+00 2.239468e+00 -2.040418e+00 -5.537446e+00 -6.998611e+00 -2.096663e+00 2.982105e+00 -1.124920e+00 -4.924550e+00 -4.786534e+00 -3.909861e+00 -1.936503e-01 -3.466140e-01 -3.004697e-01 2.804921e-01 7.471921e-01 1.043675e+00 4.173047e-01 -2.147343e-01 -1.894316e-01 -7.248510e-02 1.116081e-02 1.502710e-01 -1.055882e-01
<VARIANCE> 25
 1.968233e+01 3.080829e+01 3.984565e+01 3.763365e+01 3.553752e+01 4.067476e+01 4.069976e+01 3.915368e+01 5.144368e+01 3.819278e+01 3.066512e+01 2.631176e+01 3.753779e-01 1.220878e+00 1.362571e+00 1.493957e+00 2.004738e+00 2.727168e+00 2.026844e+00 2.105258e+00 2.403310e+00 2.200738e+00 1.975419e+00 1.823615e+00 5.097307e-01
<GCONST> 9.394715e+01
~t "T_u"
<ENDHMM>
~h "k-u+s"
<BEGINHMM>
<NUMSTATES> 5
<STATE> 2
<MEAN> 25
 5.841117e+00 4.888117e+00 2.686566e+00 -7.820466e-01 -3.509169e+00 -4.456264e+00 -1.667651e+00 1.072235e+00 -1.711213e+00 -3.398537e+00 -2.842877e+00 -2.182095e+00 1.576147e+00 1.045471e+00 4.197832e-01 -3.047917e-01 -1.355020e+00 -2.229248e+00 -1.097899e+00 2.456878e-01 -2.158980e-01 -6.960759e-01 -8.961666e-01 -8.212398e-01 8.114035e-01
<VARIANCE> 25
 3.111406e+01 4.019774e+01 4.504975e+01 4.146431e+01 4.849731e+01 5.661042e+01 4.281160e+01 4.095763e+01 5.025994e+01 4.244762e+01 3.143690e+01 2.546618e+01 2.317891e+00 3.149550e+00 3.087908e+00 3.151040e+00 3.396149e+00 4.573932e+00 4.195843e+00 4.035922e+00 4.034451e+00 3.409064e+00 3.195040e+00 2.762604e+00 1.784756e+00
<GCONST> 1.055627e+02
<STATE> 3
<MEAN> 25
 8.658910e+00 5.000401e+00 2.954348e+00 -2.671335e+00 -7.457289e+00 -1.043769e+01 -3.682248e+00 2.342003e+00 -1.993913e+00 -4.053403e+00 -3.655970e+00 -3.858294e+00 3.619523e-01 -4.174033e-01 -5.004941e-01 -5.413764e-01 -3.661138e-01 -3.691237e-01 1.985084e-01 6.194838e-01 2.091379e-01 -3.094780e-01 -4.365371e-01 -2.890210e-01 4.863066e-01
<VARIANCE> 25
 1.982055e+01 3.754977e+01 4.485072e+01 4.602500e+01 4.835411e+01 5.230594e+01 4.533890e+01 4.689768e+01 6.356376e+01 4.307386e+01 3.556441e+01 3.444476e+01 5.694164e-01 2.171613e+00 2.316406e+00 1.907328e+00 2.369149e+00 3.386717e+00 2.927253e+00 3.053224e+00 2.962884e+00 2.837181e+00 2.662840e+00 2.209183e+00 9.819031e-01
<GCONST> 1.005687e+02
<STATE> 4
<MEAN> 25
 7.936549e+00 5.316041e+00 2.239468e+00 -2.040418e+00 -5.537446e+00 -6.998611e+00 -2.096663e+00 2.982105e+00 -1.124920e+00 -4.924550e+00 -4.786534e+00 -3.909861e+00 -1.936503e-01 -3.466140e-01 -3.004697e-01 2.804921e-01 7.471921e-01 1.043675e+00 4.173047e-01 -2.147343e-01 -1.894316e-01 -7.248510e-02 1.116081e-02 1.502710e-01 -1.055882e-01
<VARIANCE> 25
 1.968233e+01 3.080829e+01 3.984565e+01 3.763365e+01 3.553752e+01 4.067476e+01 4.069976e+01 3.915368e+01 5.144368e+01 3.819278e+01 3.066512e+01 2.631176e+01 3.753779e-01 1.220878e+00 1.362571e+00 1.493957e+00 2.004738e+00 2.727168e+00 2.026844e+00 2.105258e+00 2.403310e+00 2.200738e+00 1.975419e+00 1.823615e+00 5.097307e-01
<GCONST> 9.394715e+01
~t "T_u"
<ENDHMM>
~h "k-u+t"
<BEGINHMM>
<NUMSTATES> 5
<STATE> 2
<MEAN> 25
 5.841117e+00 4.888117e+00 2.686566e+00 -7.820466e-01 -3.509169e+00 -4.456264e+00 -1.667651e+00 1.072235e+00 -1.711213e+00 -3.398537e+00 -2.842877e+00 -2.182095e+00 1.576147e+00 1.045471e+00 4.197832e-01 -3.047917e-01 -1.355020e+00 -2.229248e+00 -1.097899e+00 2.456878e-01 -2.158980e-01 -6.960759e-01 -8.961666e-01 -8.212398e-01 8.114035e-01
<VARIANCE> 25
 3.111406e+01 4.019774e+01 4.504975e+01 4.146431e+01 4.849731e+01 5.661042e+01 4.281160e+01 4.095763e+01 5.025994e+01 4.244762e+01 3.143690e+01 2.546618e+01 2.317891e+00 3.149550e+00 3.087908e+00 3.151040e+00 3.396149e+00 4.573932e+00 4.195843e+00 4.035922e+00 4.034451e+00 3.409064e+00 3.195040e+00 2.762604e+00 1.784756e+00
<GCONST> 1.055627e+02
<STATE> 3
<MEAN> 25
 8.658910e+00 5.000401e+00 2.954348e+00 -2.671335e+00 -7.457289e+00 -1.043769e+01 -3.682248e+00 2.342003e+00 -1.993913e+00 -4.053403e+00 -3.655970e+00 -3.858294e+00 3.619523e-01 -4.174033e-01 -5.004941e-01 -5.413764e-01 -3.661138e-01 -3.691237e-01 1.985084e-01 6.194838e-01 2.091379e-01 -3.094780e-01 -4.365371e-01 -2.890210e-01 4.863066e-01
<VARIANCE> 25
 1.982055e+01 3.754977e+01 4.485072e+01 4.602500e+01 4.835411e+01 5.230594e+01 4.533890e+01 4.689768e+01 6.356376e+01 4.307386e+01 3.556441e+01 3.444476e+01 5.694164e-01 2.171613e+00 2.316406e+00 1.907328e+00 2.369149e+00 3.386717e+00 2.927253e+00 3.053224e+00 2.962884e+00 2.837181e+00 2.662840e+00 2.209183e+00 9.819031e-01
<GCONST> 1.005687e+02
<STATE> 4
<MEAN> 25
 7.936549e+00 5.316041e+00 2.239468e+00 -2.040418e+00 -5.537446e+00 -6.998611e+00 -2.096663e+00 2.982105e+00 -1.124920e+00 -4.924550e+00 -4.786534e+00 -3.909861e+00 -1.936503e-01 -3.466140e-01 -3.004697e-01 2.804921e-01 7.471921e-01 1.043675e+00 4.173047e-01 -2.147343e-01 -1.894316e-01 -7.248510e-02 1.116081e-02 1.502710e-01 -1.055882e-01
<VARIANCE> 25
 1.968233e+01 3.080829e+01 3.984565e+01 3.763365e+01 3.553752e+01 4.067476e+01 4.069976e+01 3.915368e+01 5.144368e+01 3.819278e+01 3.066512e+01 2.631176e+01 3.753779e-01 1.220878e+00 1.362571e+00 1.493957e+00 2.004738e+00 2.727168e+00 2.026844e+00 2.105258e+00 2.403310e+00 2.200738e+00 1.975419e+00 1.823615e+00 5.097307e-01
<GCONST> 9.394715e+01
~t "T_u"
<ENDHMM>
~h "o-b+th"
<BEGINHMM>
<NUMSTATES> 5
<STATE> 2
<MEAN> 25
 7.453249e+00 1.854894e+00 -3.055483e+00 1.129761e-01 -5.903215e-01 -2.019453e+00 -9.623871e-01 -2.498531e-01 -2.357596e+00 -3.923417e+00 -3.094668e+00 -1.821743e+00 4.853825e-02 1.296036e+00 3.276203e-01 2.709658e-02 -3.125394e-01 5.880693e-01 7.153720e-01 7.017969e-01 4.376649e-01 -1.752225e-01 -7.070358e-01 -5.481036e-01 -9.195412e-01
<VARIANCE> 25
 3.346801e+01 3.947591e+01 4.344426e+01 5.973069e+01 5.670771e+01 4.925726e+01 3.268375e+01 4.100950e+01 4.737400e+01 3.473342e+01 2.501481e+01 2.451253e+01 1.081666e+00 1.334289e+00 1.641493e+00 2.853810e+00 3.615987e+00 2.742803e+00 2.493510e+00 2.804891e+00 2.849236e+00 2.749629e+00 2.209752e+00 1.999554e+00 1.226195e+00
<GCONST> 9.985339e+01
<STATE> 3
<MEAN> 25
 6.949950e+00 3.740428e+00 -1.714613e+00 3.235494e-01 -9.867709e-01 -1.327352e+00 -1.314925e-01 7.956891e-01 -1.145713e+00 -3.079894e+00 -3.591807e+00 -2.550094e+00 -8.611151e-02 4.030907e-01 1.799360e-01 7.571537e-02 -3.430426e-02 2.170843e-01 1.954542e-01 1.316523e-01 1.675814e-01 3.952383e-02 -1.006096e-01 -8.349357e-02 -3.062887e-01
<VARIANCE> 25
 2.692079e+01 3.626947e+01 4.409764e+01 5.273486e+01 4.805618e+01 4.925530e+01 3.155102e+01 3.594095e+01 4.166383e+01 3.111368e+01 2.364136e+01 2.366270e+01 4.684736e-01 6.017178e-01 8.846315e-01 1.491829e+00 2.014702e+00 1.665077e+00 1.348875e+00 1.519242e+00 1.830568e+00 1.490714e+00 1.216153e+00 1.152516e+00 3.799050e-01
<GCONST> 9.019222e+01
<STATE> 4
<MEAN> 25
 6.578341e+00 4.712523e+00 -1.122386e+00 6.479018e-01 -1.106130e+00 -1.354586e+00 -2.909619e-01 1.025624e+00 -5.704058e-01 -2.493345e+00 -3.110632e+00 -2.025941e+00 1.390214e-01 -3.549204e-01 -1.764275e-01 -3.578497e-02 6.442415e-02 -2.743158e-01 -2.597390e-01 -2.456179e-01 -2.362213e-01 -5.547573e-03 2.503186e-01 3.078200e-01 3.261120e-01
<VARIANCE> 25
 2.816606e+01 3.491276e+01 4.524225e+01 4.909471e+01 4.680241e+01 5.250218e+01 3.074101e+01 3.258335e+01 3.859496e+01 2.864092e+01 2.050313e+01 1.999232e+01 3.488529e-01 7.084572e-01 8.258898e-01 1.390724e+00 1.873912e+00 1.648457e+00 1.367848e+00 1.515477e+00 1.712910e+00 1.390957e+00 1.179897e+00 1.095034e+00 3.408834e-01
<GCONST> 8.892953e+01
~t "T_b"
<ENDHMM>
~h "a-f+i"
<BEGINHMM>
<NUMSTATES> 5
<STATE> 2
<MEAN> 25
 -2.921499e+00 2.216532e+00 1.683841e+00 -2.246150e+00 4.969630e+00 -5.509380e-01 3.351402e+00 -1.211751e+00 2.223065e+00 -4.889780e-01 1.141946e+00 -2.723400e-01 -3.091264e+00 -2.187721e-01 5.649842e-01 -7.482041e-01 7.319014e-01 2.992108e-01 1.346503e+00 -2.772227e-01 7.784485e-01 2.630200e-02 4.751500e-01 2.915594e-01 -1.593239e-01
<VARIANCE> 25
 5.889521e+01 3.254332e+01 4.898185e+01 6.740195e+01 6.829653e+01 4.811531e+01 5.360291e+01 4.290142e+01 4.377955e+01 3.534988e+01 2.978639e+01 2.594387e+01 3.113435e+00 3.501048e+00 2.947656e+00 3.883082e+00 3.471006e+00 4.806132e+00 4.554536e+00 3.170251e+00 3.424818e+00 3.097497e+00 3.020186e+00 2.207278e+00 1.658051e+00
<GCONST> 1.065149e+02
<STATE> 3
<MEAN> 25
 -1.204405e+01 -6.315144e-01 2.378402e+00 -5.487898e+00 7.831375e+00 -1.741687e+00 5.601410e+00 -2.383173e+00 3.250614e+00 -9.547754e-01 1.631793e+00 1.689934e-01 -7.918698e-02 -6.822809e-01 -2.811957e-01 -3.029425e-01 8.794511e-02 1.254451e-01 9.581987e-02 4.164742e-02 1.511693e-03 2.448684e-02 2.112143e-02 4.153352e-02 1.406359e-01
<VARIANCE> 25
 3.955381e+01 4.454638e+01 5.203875e+01 7.429533e+01 6.271706e+01 6.759596e+01 5.966618e+01 5.088220e+01 5.673976e+01 3.983142e+01 3.692179e+01 2.523423e+01 2.031468e+00 1.413474e+00 1.044568e+00 1.424712e+00 1.410816e+00 1.579707e+00 1.480687e+00 1.560026e+00 1.360781e+00 1.167955e+00 1.157101e+00 9.813937e-01 6.439654e-01
<GCONST> 9.585310e+01
<STATE> 4
<MEAN> 25
 -4.610052e+00 -1.518341e+00 7.515143e-01 -5.277138e+00 4.724607e+00 -2.217829e-01 4.041139e+00 -1.100402e+00 2.596362e+00 -3.536729e-01 1.306920e+00 1.224594e-01 4.275613e+00 1.174036e+00 -3.978401e-01 9.296944e-01 -1.436768e+00 -6.998600e-01 -2.286903e+00 -1.079536e-01 -9.768302e-01 -2.019849e-01 -8.412417e-01 -6.099735e-01 2.728841e-02
<VARIANCE> 25
 5.717005e+01 4.372955e+01 3.685680e+01 5.787862e+01 6.797121e+01 5.627831e+01 4.502947e+01 4.687963e+01 4.114095e+01 3.671113e+01 2.842795e+01 2.193906e+01 3.158249e+00 3.584108e+00 3.416423e+00 5.561674e+00 5.552020e+00 6.572505e+00 4.474904e+00 3.591626e+00 4.049541e+00 3.179907e+00 3.182887e+00 2.428447e+00 1.252232e+00
<GCONST> 1.076670e+02
~t "T_f"
<ENDHMM>
~h "a-f+o"
<BEGINHMM>
<NUMSTATES> 5
<STATE> 2
<MEAN> 25
 -2.921499e+00 2.216532e+00 1.683841e+00 -2.246150e+00 4.969630e+00 -5.509380e-01 3.351402e+00 -1.211751e+00 2.223065e+00 -4.889780e-01 1.141946e+00 -2.723400e-01 -3.091264e+00 -2.187721e-01 5.649842e-01 -7.482041e-01 7.319014e-01 2.992108e-01 1.346503e+00 -2.772227e-01 7.784485e-01 2.630200e-02 4.751500e-01 2.915594e-01 -1.593239e-01
<VARIANCE> 25
 5.889521e+01 3.254332e+01 4.898185e+01 6.740195e+01 6.829653e+01 4.811531e+01 5.360291e+01 4.290142e+01 4.377955e+01 3.534988e+01 2.978639e+01 2.594387e+01 3.113435e+00 3.501048e+00 2.947656e+00 3.883082e+00 3.471006e+00 4.806132e+00 4.554536e+00 3.170251e+00 3.424818e+00 3.097497e+00 3.020186e+00 2.207278e+00 1.658051e+00
<GCONST> 1.065149e+02
<STATE> 3
<MEAN> 25
 -1.204405e+01 -6.315144e-01 2.378402e+00 -5.487898e+00 7.831375e+00 -1.741687e+00 5.601410e+00 -2.383173e+00 3.250614e+00 -9.547754e-01 1.631793e+00 1.689934e-01 -7.918698e-02 -6.822809e-01 -2.811957e-01 -3.029425e-01 8.794511e-02 1.254451e-01 9.581987e-02 4.164742e-02 1.511693e-03 2.448684e-02 2.112143e-02 4.153352e-02 1.406359e-01
<VARIANCE> 25
 3.955381e+01 4.454638e+01 5.203875e+01 7.429533e+01 6.271706e+01 6.759596e+01 5.966618e+01 5.088220e+01 5.673976e+01 3.983142e+01 3.692179e+01 2.523423e+01 2.031468e+00 1.413474e+00 1.044568e+00 1.424712e+00 1.410816e+00 1.579707e+00 1.480687e+00 1.560026e+00 1.360781e+00 1.167955e+00 1.157101e+00 9.813937e-01 6.439654e-01
<GCONST> 9.585310e+01
<STATE> 4
<MEAN> 25
 -4.610052e+00 -1.518341e+00 7.515143e-01 -5.277138e+00 4.724607e+00 -2.217829e-01 4.041139e+00 -1.100402e+00 2.596362e+00 -3.536729e-01 1.306920e+00 1.224594e-01 4.275613e+00 1.174036e+00 -3.978401e-01 9.296944e-01 -1.436768e+00 -6.998600e-01 -2.286903e+00 -1.079536e-01 -9.768302e-01 -2.019849e-01 -8.412417e-01 -6.099735e-01 2.728841e-02
<VARIANCE> 25
 5.717005e+01 4.372955e+01 3.685680e+01 5.787862e+01 6.797121e+01 5.627831e+01 4.502947e+01 4.687963e+01 4.114095e+01 3.671113e+01 2.842795e+01 2.193906e+01 3.158249e+00 3.584108e+00 3.416423e+00 5.561674e+00 5.552020e+00 6.572505e+00 4.474904e+00 3.591626e+00 4.049541e+00 3.179907e+00 3.182887e+00 2.428447e+00 1.252232e+00
<GCONST> 1.076670e+02
~t "T_f"
<ENDHMM>
~h "a-l+rr"
<BEGINHMM>
<NUMSTATES> 5
<STATE> 2
<MEAN> 25
 6.314451e+00 -2.836339e+00 -2.415431e+00 2.781851e+00 1.947059e+00 -2.800302e+00 -2.661815e+00 -2.324516e+00 -3.876258e+00 -3.683601e+00 -1.570764e+00 7.563966e-02 3.129438e-01 4.277349e-01 7.984434e-01 1.918523e+00 1.017305e+00 4.531452e-01 -1.293264e-01 2.709396e-01 -7.299022e-01 -1.606042e+00 -1.354267e+00 -7.730924e-01 -6.160657e-01
<VARIANCE> 25
 3.768519e+01 4.112976e+01 4.717404e+01 6.522243e+01 4.798243e+01 5.569359e+01 4.089912e+01 4.426613e+01 5.019736e+01 4.535135e+01 3.915966e+01 3.028901e+01 1.699836e+00 1.977105e+00 2.316171e+00 3.031282e+00 2.905935e+00 4.508301e+00 3.719640e+00 4.100824e+00 4.742221e+00 3.786747e+00 3.138241e+00 2.508972e+00 2.132987e+00
<GCONST> 1.056931e+02
<STATE> 3
<MEAN> 25
 7.308776e+00 -2.116291e+00 -5.915496e-01 8.047751e+00 4.512689e+00 -2.649817e+00 -3.380396e+00 -8.267048e-01 -5.005058e+00 -7.383716e+00 -4.765788e+00 -2.091391e+00 -2.042886e-01 4.120783e-01 5.339515e-01 7.017787e-01 3.444184e-01 2.565898e-01 1.210279e-01 4.571145e-01 1.694299e-01 -4.738842e-01 -6.538218e-01 -4.505804e-01 -4.639952e-01
<VARIANCE> 25
 2.202492e+01 3.481960e+01 3.887338e+01 6.391379e+01 4.331805e+01 4.796937e+01 4.158508e+01 4.477020e+01 4.591209e+01 3.888554e+01 3.268353e+01 2.532600e+01 8.968565e-01 1.265179e+00 1.520058e+00 2.136260e+00 1.615692e+00 2.971242e+00 2.029787e+00 2.106359e+00 2.521566e+00 2.456026e+00 1.921850e+00 1.679168e+00 9.447469e-01
<GCONST> 9.704557e+01
<STATE> 4
<MEAN> 25
 5.966500e+00 -3.820904e-01 3.151454e-01 7.105481e+00 4.340966e+00 -1.720254e+00 -3.097861e+00 -7.825651e-01 -3.803820e+00 -6.722578e+00 -5.169729e+00 -2.231982e+00 -1.248948e-01 3.641126e-02 -1.620759e-01 -8.538845e-01 -4.337227e-01 -1.165125e-01 1.175181e-01 -1.721042e-01 8.785849e-02 4.827425e-01 5.441091e-01 3.938914e-01 1.508765e-01
<VARIANCE> 25
 2.100273e+01 3.151579e+01 3.614806e+01 5.096074e+01 3.741170e+01 4.566805e+01 3.924998e+01 3.931923e+01 4.211623e+01 3.813666e+01 3.033226e+01 2.373476e+01 8.690925e-01 1.079303e+00 1.530230e+00 2.250370e+00 1.643832e+00 2.437176e+00 1.802907e+00 2.009850e+00 2.136790e+00 2.217616e+00 1.925478e+00 1.643911e+00 9.747648e-01
<GCONST> 9.523684e+01
~t "T_l"
<ENDHMM>
~h "a-l+th"
<BEGINHMM>
<NUMSTATES> 5
<STATE> 2
<MEAN> 25
 6.314451e+00 -2.836339e+00 -2.415431e+00 2.781851e+00 1.947059e+00 -2.800302e+00 -2.661815e+00 -2.324516e+00 -3.876258e+00 -3.683601e+00 -1.570764e+00 7.563966e-02 3.129438e-01 4.277349e-01 7.984434e-01 1.918523e+00 1.017305e+00 4.531452e-01 -1.293264e-01 2.709396e-01 -7.299022e-01 -1.606042e+00 -1.354267e+00 -7.730924e-01 -6.160657e-01
<VARIANCE> 25
 3.768519e+01 4.112976e+01 4.717404e+01 6.522243e+01 4.798243e+01 5.569359e+01 4.089912e+01 4.426613e+01 5.019736e+01 4.535135e+01 3.915966e+01 3.028901e+01 1.699836e+00 1.977105e+00 2.316171e+00 3.031282e+00 2.905935e+00 4.508301e+00 3.719640e+00 4.100824e+00 4.742221e+00 3.786747e+00 3.138241e+00 2.508972e+00 2.132987e+00
<GCONST> 1.056931e+02
<STATE> 3
<MEAN> 25
 7.308776e+00 -2.116291e+00 -5.915496e-01 8.047751e+00 4.512689e+00 -2.649817e+00 -3.380396e+00 -8.267048e-01 -5.005058e+00 -7.383716e+00 -4.765788e+00 -2.091391e+00 -2.042886e-01 4.120783e-01 5.339515e-01 7.017787e-01 3.444184e-01 2.565898e-01 1.210279e-01 4.571145e-01 1.694299e-01 -4.738842e-01 -6.538218e-01 -4.505804e-01 -4.639952e-01
<VARIANCE> 25
 2.202492e+01 3.481960e+01 3.887338e+01 6.391379e+01 4.331805e+01 4.796937e+01 4.158508e+01 4.477020e+01 4.591209e+01 3.888554e+01 3.268353e+01 2.532600e+01 8.968565e-01 1.265179e+00 1.520058e+00 2.136260e+00 1.615692e+00 2.971242e+00 2.029787e+00 2.106359e+00 2.521566e+00 2.456026e+00 1.921850e+00 1.679168e+00 9.447469e-01
<GCONST> 9.704557e+01
<STATE> 4
<MEAN> 25
 5.966500e+00 -3.820904e-01 3.151454e-01 7.105481e+00 4.340966e+00 -1.720254e+00 -3.097861e+00 -7.825651e-01 -3.803820e+00 -6.722578e+00 -5.169729e+00 -2.231982e+00 -1.248948e-01 3.641126e-02 -1.620759e-01 -8.538845e-01 -4.337227e-01 -1.165125e-01 1.175181e-01 -1.721042e-01 8.785849e-02 4.827425e-01 5.441091e-01 3.938914e-01 1.508765e-01
<VARIANCE> 25
 2.100273e+01 3.151579e+01 3.614806e+01 5.096074e+01 3.741170e+01 4.566805e+01 3.924998e+01 3.931923e+01 4.211623e+01 3.813666e+01 3.033226e+01 2.373476e+01 8.690925e-01 1.079303e+00 1.530230e+00 2.250370e+00 1.643832e+00 2.437176e+00 1.802907e+00 2.009850e+00 2.136790e+00 2.217616e+00 1.925478e+00 1.643911e+00 9.747648e-01
<GCONST> 9.523684e+01
~t "T_l"
<ENDHMM>
~h "n-a+b"
<BEGINHMM>
<NUMSTATES> 5
<STATE> 2
<MEAN> 25
 8.084209e+00 -3.246555e+00 -4.886938e+00 -2.890126e+00 -1.922659e+00 -4.591505e+00 -1.062124e+00 -1.533606e+00 -3.011539e+00 -1.419097e+00 7.822737e-01 1.974153e+00 8.531939e-01 -1.219489e+00 -1.591901e+00 -1.511451e+00 -1.099942e+00 -1.081241e+00 3.296968e-01 2.435892e-01 2.131322e-01 7.433307e-01 1.096173e+00 1.076555e+00 1.531909e+00
<VARIANCE> 25
 3.102556e+01 3.982352e+01 4.648204e+01 6.052976e+01 4.865224e+01 5.364120e+01 4.957391e+01 5.206113e+01 4.994263e+01 4.377484e+01 3.566540e+01 3.010361e+01 2.105191e+00 2.133569e+00 2.607650e+00 3.361774e+00 2.917656e+00 3.954443e+00 3.398865e+00 3.319243e+00 3.668817e+00 4.076825e+00 3.093344e+00 2.673295e+00 1.675560e+00
<GCONST> 1.052759e+02
<STATE> 3
<MEAN> 25
 9.462610e+00 -6.897775e+00 -8.743549e+00 -6.083593e+00 -4.604442e+00 -5.470979e+00 1.397076e+00 -2.830499e-01 -1.629562e+00 7.007640e-01 2.659651e+00 3.340820e+00 3.290816e-02 -1.735238e-01 -3.625012e-01 -3.627358e-01 -1.769637e-01 2.254089e-01 4.766614e-01 2.827543e-01 2.371980e-01 1.767752e-01 8.445666e-02 6.974697e-02 8.193482e-02
<VARIANCE> 25
 2.840129e+01 3.570125e+01 4.138834e+01 4.038225e+01 4.118876e+01 4.148624e+01 4.739182e+01 4.747406e+01 4.473821e+01 4.189992e+01 3.449903e+01 2.805832e+01 3.302394e-01 8.424883e-01 9.393210e-01 1.242460e+00 1.324397e+00 1.496400e+00 1.901740e+00 1.780651e+00 1.803969e+00 1.726919e+00 1.430944e+00 1.179275e+00 3.783611e-01
<GCONST> 9.133002e+01
<STATE> 4
<MEAN> 25
 8.177530e+00 -2.680661e+00 -7.293503e+00 -5.932261e+00 -3.758124e+00 -2.794274e+00 1.176165e+00 -3.390664e-01 -1.368642e+00 2.573896e-01 2.133668e+00 3.287408e+00 -4.538044e-01 8.704351e-01 7.276899e-01 4.679444e-01 4.150407e-01 5.706517e-01 -1.937626e-01 -1.382255e-01 1.753797e-02 -1.629017e-01 -2.942949e-01 -3.140077e-01 -8.826797e-01
<VARIANCE> 25
 2.215926e+01 3.099335e+01 3.486272e+01 3.668752e+01 3.283007e+01 3.965223e+01 3.500597e+01 3.826480e+01 3.512437e+01 3.170736e+01 2.563973e+01 2.200531e+01 5.861269e-01 9.910762e-01 1.080531e+00 1.252255e+00 1.395680e+00 1.835312e+00 1.787168e+00 1.826652e+00 1.993582e+00 1.853269e+00 1.609923e+00 1.318195e+00 6.483233e-01
<GCONST> 9.086413e+01
~t "T_a"
<ENDHMM>
~h "n-a+d"
<BEGINHMM>
<NUMSTATES> 5
<STATE> 2
<MEAN> 25
 8.084209e+00 -3.246555e+00 -4.886938e+00 -2.890126e+00 -1.922659e+00 -4.591505e+00 -1.062124e+00 -1.533606e+00 -3.011539e+00 -1.419097e+00 7.822737e-01 1.974153e+00 8.531939e-01 -1.219489e+00 -1.591901e+00 -1.511451e+00 -1.099942e+00 -1.081241e+00 3.296968e-01 2.435892e-01 2.131322e-01 7.433307e-01 1.096173e+00 1.076555e+00 1.531909e+00
<VARIANCE> 25
 3.102556e+01 3.982352e+01 4.648204e+01 6.052976e+01 4.865224e+01 5.364120e+01 4.957391e+01 5.206113e+01 4.994263e+01 4.377484e+01 3.566540e+01 3.010361e+01 2.105191e+00 2.133569e+00 2.607650e+00 3.361774e+00 2.917656e+00 3.954443e+00 3.398865e+00 3.319243e+00 3.668817e+00 4.076825e+00 3.093344e+00 2.673295e+00 1.675560e+00
<GCONST> 1.052759e+02
<STATE> 3
<MEAN> 25
 9.462610e+00 -6.897775e+00 -8.743549e+00 -6.083593e+00 -4.604442e+00 -5.470979e+00 1.397076e+00 -2.830499e-01 -1.629562e+00 7.007640e-01 2.659651e+00 3.340820e+00 3.290816e-02 -1.735238e-01 -3.625012e-01 -3.627358e-01 -1.769637e-01 2.254089e-01 4.766614e-01 2.827543e-01 2.371980e-01 1.767752e-01 8.445666e-02 6.974697e-02 8.193482e-02
<VARIANCE> 25
 2.840129e+01 3.570125e+01 4.138834e+01 4.038225e+01 4.118876e+01 4.148624e+01 4.739182e+01 4.747406e+01 4.473821e+01 4.189992e+01 3.449903e+01 2.805832e+01 3.302394e-01 8.424883e-01 9.393210e-01 1.242460e+00 1.324397e+00 1.496400e+00 1.901740e+00 1.780651e+00 1.803969e+00 1.726919e+00 1.430944e+00 1.179275e+00 3.783611e-01
<GCONST> 9.133002e+01
<STATE> 4
<MEAN> 25
 8.177530e+00 -2.680661e+00 -7.293503e+00 -5.932261e+00 -3.758124e+00 -2.794274e+00 1.176165e+00 -3.390664e-01 -1.368642e+00 2.573896e-01 2.133668e+00 3.287408e+00 -4.538044e-01 8.704351e-01 7.276899e-01 4.679444e-01 4.150407e-01 5.706517e-01 -1.937626e-01 -1.382255e-01 1.753797e-02 -1.629017e-01 -2.942949e-01 -3.140077e-01 -8.826797e-01
<VARIANCE> 25
 2.215926e+01 3.099335e+01 3.486272e+01 3.668752e+01 3.283007e+01 3.965223e+01 3.500597e+01 3.826480e+01 3.512437e+01 3.170736e+01 2.563973e+01 2.200531e+01 5.861269e-01 9.910762e-01 1.080531e+00 1.252255e+00 1.395680e+00 1.835312e+00 1.787168e+00 1.826652e+00 1.993582e+00 1.853269e+00 1.609923e+00 1.318195e+00 6.483233e-01
<GCONST> 9.086413e+01
~t "T_a"
<ENDHMM>
~h "n-a+g"
<BEGINHMM>
<NUMSTATES> 5
<STATE> 2
<MEAN> 25
 8.084209e+00 -3.246555e+00 -4.886938e+00 -2.890126e+00 -1.922659e+00 -4.591505e+00 -1.062124e+00 -1.533606e+00 -3.011539e+00 -1.419097e+00 7.822737e-01 1.974153e+00 8.531939e-01 -1.219489e+00 -1.591901e+00 -1.511451e+00 -1.099942e+00 -1.081241e+00 3.296968e-01 2.435892e-01 2.131322e-01 7.433307e-01 1.096173e+00 1.076555e+00 1.531909e+00
<VARIANCE> 25
 3.102556e+01 3.982352e+01 4.648204e+01 6.052976e+01 4.865224e+01 5.364120e+01 4.957391e+01 5.206113e+01 4.994263e+01 4.377484e+01 3.566540e+01 3.010361e+01 2.105191e+00 2.133569e+00 2.607650e+00 3.361774e+00 2.917656e+00 3.954443e+00 3.398865e+00 3.319243e+00 3.668817e+00 4.076825e+00 3.093344e+00 2.673295e+00 1.675560e+00
<GCONST> 1.052759e+02
<STATE> 3
<MEAN> 25
 9.462610e+00 -6.897775e+00 -8.743549e+00 -6.083593e+00 -4.604442e+00 -5.470979e+00 1.397076e+00 -2.830499e-01 -1.629562e+00 7.007640e-01 2.659651e+00 3.340820e+00 3.290816e-02 -1.735238e-01 -3.625012e-01 -3.627358e-01 -1.769637e-01 2.254089e-01 4.766614e-01 2.827543e-01 2.371980e-01 1.767752e-01 8.445666e-02 6.974697e-02 8.193482e-02
<VARIANCE> 25
 2.840129e+01 3.570125e+01 4.138834e+01 4.038225e+01 4.118876e+01 4.148624e+01 4.739182e+01 4.747406e+01 4.473821e+01 4.189992e+01 3.449903e+01 2.805832e+01 3.302394e-01 8.424883e-01 9.393210e-01 1.242460e+00 1.324397e+00 1.496400e+00 1.901740e+00 1.780651e+00 1.803969e+00 1.726919e+00 1.430944e+00 1.179275e+00 3.783611e-01
<GCONST> 9.133002e+01
<STATE> 4
<MEAN> 25
 8.177530e+00 -2.680661e+00 -7.293503e+00 -5.932261e+00 -3.758124e+00 -2.794274e+00 1.176165e+00 -3.390664e-01 -1.368642e+00 2.573896e-01 2.133668e+00 3.287408e+00 -4.538044e-01 8.704351e-01 7.276899e-01 4.679444e-01 4.150407e-01 5.706517e-01 -1.937626e-01 -1.382255e-01 1.753797e-02 -1.629017e-01 -2.942949e-01 -3.140077e-01 -8.826797e-01
<VARIANCE> 25
 2.215926e+01 3.099335e+01 3.486272e+01 3.668752e+01 3.283007e+01 3.965223e+01 3.500597e+01 3.826480e+01 3.512437e+01 3.170736e+01 2.563973e+01 2.200531e+01 5.861269e-01 9.910762e-01 1.080531e+00 1.252255e+00 1.395680e+00 1.835312e+00 1.787168e+00 1.826652e+00 1.993582e+00 1.853269e+00 1.609923e+00 1.318195e+00 6.483233e-01
<GCONST> 9.086413e+01
~t "T_a"
<ENDHMM>
~h "n-a+k"
<BEGINHMM>
<NUMSTATES> 5
<STATE> 2
<MEAN> 25
 8.084209e+00 -3.246555e+00 -4.886938e+00 -2.890126e+00 -1.922659e+00 -4.591505e+00 -1.062124e+00 -1.533606e+00 -3.011539e+00 -1.419097e+00 7.822737e-01 1.974153e+00 8.531939e-01 -1.219489e+00 -1.591901e+00 -1.511451e+00 -1.099942e+00 -1.081241e+00 3.296968e-01 2.435892e-01 2.131322e-01 7.433307e-01 1.096173e+00 1.076555e+00 1.531909e+00
<VARIANCE> 25
 3.102556e+01 3.982352e+01 4.648204e+01 6.052976e+01 4.865224e+01 5.364120e+01 4.957391e+01 5.206113e+01 4.994263e+01 4.377484e+01 3.566540e+01 3.010361e+01 2.105191e+00 2.133569e+00 2.607650e+00 3.361774e+00 2.917656e+00 3.954443e+00 3.398865e+00 3.319243e+00 3.668817e+00 4.076825e+00 3.093344e+00 2.673295e+00 1.675560e+00
<GCONST> 1.052759e+02
<STATE> 3
<MEAN> 25
 9.462610e+00 -6.897775e+00 -8.743549e+00 -6.083593e+00 -4.604442e+00 -5.470979e+00 1.397076e+00 -2.830499e-01 -1.629562e+00 7.007640e-01 2.659651e+00 3.340820e+00 3.290816e-02 -1.735238e-01 -3.625012e-01 -3.627358e-01 -1.769637e-01 2.254089e-01 4.766614e-01 2.827543e-01 2.371980e-01 1.767752e-01 8.445666e-02 6.974697e-02 8.193482e-02
<VARIANCE> 25
 2.840129e+01 3.570125e+01 4.138834e+01 4.038225e+01 4.118876e+01 4.148624e+01 4.739182e+01 4.747406e+01 4.473821e+01 4.189992e+01 3.449903e+01 2.805832e+01 3.302394e-01 8.424883e-01 9.393210e-01 1.242460e+00 1.324397e+00 1.496400e+00 1.901740e+00 1.780651e+00 1.803969e+00 1.726919e+00 1.430944e+00 1.179275e+00 3.783611e-01
<GCONST> 9.133002e+01
<STATE> 4
<MEAN> 25
 8.177530e+00 -2.680661e+00 -7.293503e+00 -5.932261e+00 -3.758124e+00 -2.794274e+00 1.176165e+00 -3.390664e-01 -1.368642e+00 2.573896e-01 2.133668e+00 3.287408e+00 -4.538044e-01 8.704351e-01 7.276899e-01 4.679444e-01 4.150407e-01 5.706517e-01 -1.937626e-01 -1.382255e-01 1.753797e-02 -1.629017e-01 -2.942949e-01 -3.140077e-01 -8.826797e-01
<VARIANCE> 25
 2.215926e+01 3.099335e+01 3.486272e+01 3.668752e+01 3.283007e+01 3.965223e+01 3.500597e+01 3.826480e+01 3.512437e+01 3.170736e+01 2.563973e+01 2.200531e+01 5.861269e-01 9.910762e-01 1.080531e+00 1.252255e+00 1.395680e+00 1.835312e+00 1.787168e+00 1.826652e+00 1.993582e+00 1.853269e+00 1.609923e+00 1.318195e+00 6.483233e-01
<GCONST> 9.086413e+01
~t "T_a"
<ENDHMM>
~h "n-a+l"
<BEGINHMM>
<NUMSTATES> 5
<STATE> 2
<MEAN> 25
 8.084209e+00 -3.246555e+00 -4.886938e+00 -2.890126e+00 -1.922659e+00 -4.591505e+00 -1.062124e+00 -1.533606e+00 -3.011539e+00 -1.419097e+00 7.822737e-01 1.974153e+00 8.531939e-01 -1.219489e+00 -1.591901e+00 -1.511451e+00 -1.099942e+00 -1.081241e+00 3.296968e-01 2.435892e-01 2.131322e-01 7.433307e-01 1.096173e+00 1.076555e+00 1.531909e+00
<VARIANCE> 25
 3.102556e+01 3.982352e+01 4.648204e+01 6.052976e+01 4.865224e+01 5.364120e+01 4.957391e+01 5.206113e+01 4.994263e+01 4.377484e+01 3.566540e+01 3.010361e+01 2.105191e+00 2.133569e+00 2.607650e+00 3.361774e+00 2.917656e+00 3.954443e+00 3.398865e+00 3.319243e+00 3.668817e+00 4.076825e+00 3.093344e+00 2.673295e+00 1.675560e+00
<GCONST> 1.052759e+02
<STATE> 3
<MEAN> 25
 9.462610e+00 -6.897775e+00 -8.743549e+00 -6.083593e+00 -4.604442e+00 -5.470979e+00 1.397076e+00 -2.830499e-01 -1.629562e+00 7.007640e-01 2.659651e+00 3.340820e+00 3.290816e-02 -1.735238e-01 -3.625012e-01 -3.627358e-01 -1.769637e-01 2.254089e-01 4.766614e-01 2.827543e-01 2.371980e-01 1.767752e-01 8.445666e-02 6.974697e-02 8.193482e-02
<VARIANCE> 25
 2.840129e+01 3.570125e+01 4.138834e+01 4.038225e+01 4.118876e+01 4.148624e+01 4.739182e+01 4.747406e+01 4.473821e+01 4.189992e+01 3.449903e+01 2.805832e+01 3.302394e-01 8.424883e-01 9.393210e-01 1.242460e+00 1.324397e+00 1.496400e+00 1.901740e+00 1.780651e+00 1.803969e+00 1.726919e+00 1.430944e+00 1.179275e+00 3.783611e-01
<GCONST> 9.133002e+01
<STATE> 4
<MEAN> 25
 8.177530e+00 -2.680661e+00 -7.293503e+00 -5.932261e+00 -3.758124e+00 -2.794274e+00 1.176165e+00 -3.390664e-01 -1.368642e+00 2.573896e-01 2.133668e+00 3.287408e+00 -4.538044e-01 8.704351e-01 7.276899e-01 4.679444e-01 4.150407e-01 5.706517e-01 -1.937626e-01 -1.382255e-01 1.753797e-02 -1.629017e-01 -2.942949e-01 -3.140077e-01 -8.826797e-01
<VARIANCE> 25
 2.215926e+01 3.099335e+01 3.486272e+01 3.668752e+01 3.283007e+01 3.965223e+01 3.500597e+01 3.826480e+01 3.512437e+01 3.170736e+01 2.563973e+01 2.200531e+01 5.861269e-01 9.910762e-01 1.080531e+00 1.252255e+00 1.395680e+00 1.835312e+00 1.787168e+00 1.826652e+00 1.993582e+00 1.853269e+00 1.609923e+00 1.318195e+00 6.483233e-01
<GCONST> 9.086413e+01
~t "T_a"
<ENDHMM>
~h "n-a+n"
<BEGINHMM>
<NUMSTATES> 5
<STATE> 2
<MEAN> 25
 8.084209e+00 -3.246555e+00 -4.886938e+00 -2.890126e+00 -1.922659e+00 -4.591505e+00 -1.062124e+00 -1.533606e+00 -3.011539e+00 -1.419097e+00 7.822737e-01 1.974153e+00 8.531939e-01 -1.219489e+00 -1.591901e+00 -1.511451e+00 -1.099942e+00 -1.081241e+00 3.296968e-01 2.435892e-01 2.131322e-01 7.433307e-01 1.096173e+00 1.076555e+00 1.531909e+00
<VARIANCE> 25
 3.102556e+01 3.982352e+01 4.648204e+01 6.052976e+01 4.865224e+01 5.364120e+01 4.957391e+01 5.206113e+01 4.994263e+01 4.377484e+01 3.566540e+01 3.010361e+01 2.105191e+00 2.133569e+00 2.607650e+00 3.361774e+00 2.917656e+00 3.954443e+00 3.398865e+00 3.319243e+00 3.668817e+00 4.076825e+00 3.093344e+00 2.673295e+00 1.675560e+00
<GCONST> 1.052759e+02
<STATE> 3
<MEAN> 25
 9.462610e+00 -6.897775e+00 -8.743549e+00 -6.083593e+00 -4.604442e+00 -5.470979e+00 1.397076e+00 -2.830499e-01 -1.629562e+00 7.007640e-01 2.659651e+00 3.340820e+00 3.290816e-02 -1.735238e-01 -3.625012e-01 -3.627358e-01 -1.769637e-01 2.254089e-01 4.766614e-01 2.827543e-01 2.371980e-01 1.767752e-01 8.445666e-02 6.974697e-02 8.193482e-02
<VARIANCE> 25
 2.840129e+01 3.570125e+01 4.138834e+01 4.038225e+01 4.118876e+01 4.148624e+01 4.739182e+01 4.747406e+01 4.473821e+01 4.189992e+01 3.449903e+01 2.805832e+01 3.302394e-01 8.424883e-01 9.393210e-01 1.242460e+00 1.324397e+00 1.496400e+00 1.901740e+00 1.780651e+00 1.803969e+00 1.726919e+00 1.430944e+00 1.179275e+00 3.783611e-01
<GCONST> 9.133002e+01
<STATE> 4
<MEAN> 25
 8.177530e+00 -2.680661e+00 -7.293503e+00 -5.932261e+00 -3.758124e+00 -2.794274e+00 1.176165e+00 -3.390664e-01 -1.368642e+00 2.573896e-01 2.133668e+00 3.287408e+00 -4.538044e-01 8.704351e-01 7.276899e-01 4.679444e-01 4.150407e-01 5.706517e-01 -1.937626e-01 -1.382255e-01 1.753797e-02 -1.629017e-01 -2.942949e-01 -3.140077e-01 -8.826797e-01
<VARIANCE> 25
 2.215926e+01 3.099335e+01 3.486272e+01 3.668752e+01 3.283007e+01 3.965223e+01 3.500597e+01 3.826480e+01 3.512437e+01 3.170736e+01 2.563973e+01 2.200531e+01 5.861269e-01 9.910762e-01 1.080531e+00 1.252255e+00 1.395680e+00 1.835312e+00 1.787168e+00 1.826652e+00 1.993582e+00 1.853269e+00 1.609923e+00 1.318195e+00 6.483233e-01
<GCONST> 9.086413e+01
~t "T_a"
<ENDHMM>
~h "n-a+r"
<BEGINHMM>
<NUMSTATES> 5
<STATE> 2
<MEAN> 25
 8.084209e+00 -3.246555e+00 -4.886938e+00 -2.890126e+00 -1.922659e+00 -4.591505e+00 -1.062124e+00 -1.533606e+00 -3.011539e+00 -1.419097e+00 7.822737e-01 1.974153e+00 8.531939e-01 -1.219489e+00 -1.591901e+00 -1.511451e+00 -1.099942e+00 -1.081241e+00 3.296968e-01 2.435892e-01 2.131322e-01 7.433307e-01 1.096173e+00 1.076555e+00 1.531909e+00
<VARIANCE> 25
 3.102556e+01 3.982352e+01 4.648204e+01 6.052976e+01 4.865224e+01 5.364120e+01 4.957391e+01 5.206113e+01 4.994263e+01 4.377484e+01 3.566540e+01 3.010361e+01 2.105191e+00 2.133569e+00 2.607650e+00 3.361774e+00 2.917656e+00 3.954443e+00 3.398865e+00 3.319243e+00 3.668817e+00 4.076825e+00 3.093344e+00 2.673295e+00 1.675560e+00
<GCONST> 1.052759e+02
<STATE> 3
<MEAN> 25
 9.462610e+00 -6.897775e+00 -8.743549e+00 -6.083593e+00 -4.604442e+00 -5.470979e+00 1.397076e+00 -2.830499e-01 -1.629562e+00 7.007640e-01 2.659651e+00 3.340820e+00 3.290816e-02 -1.735238e-01 -3.625012e-01 -3.627358e-01 -1.769637e-01 2.254089e-01 4.766614e-01 2.827543e-01 2.371980e-01 1.767752e-01 8.445666e-02 6.974697e-02 8.193482e-02
<VARIANCE> 25
 2.840129e+01 3.570125e+01 4.138834e+01 4.038225e+01 4.118876e+01 4.148624e+01 4.739182e+01 4.747406e+01 4.473821e+01 4.189992e+01 3.449903e+01 2.805832e+01 3.302394e-01 8.424883e-01 9.393210e-01 1.242460e+00 1.324397e+00 1.496400e+00 1.901740e+00 1.780651e+00 1.803969e+00 1.726919e+00 1.430944e+00 1.179275e+00 3.783611e-01
<GCONST> 9.133002e+01
<STATE> 4
<MEAN> 25
 8.177530e+00 -2.680661e+00 -7.293503e+00 -5.932261e+00 -3.758124e+00 -2.794274e+00 1.176165e+00 -3.390664e-01 -1.368642e+00 2.573896e-01 2.133668e+00 3.287408e+00 -4.538044e-01 8.704351e-01 7.276899e-01 4.679444e-01 4.150407e-01 5.706517e-01 -1.937626e-01 -1.382255e-01 1.753797e-02 -1.629017e-01 -2.942949e-01 -3.140077e-01 -8.826797e-01
<VARIANCE> 25
 2.215926e+01 3.099335e+01 3.486272e+01 3.668752e+01 3.283007e+01 3.965223e+01 3.500597e+01 3.826480e+01 3.512437e+01 3.170736e+01 2.563973e+01 2.200531e+01 5.861269e-01 9.910762e-01 1.080531e+00 1.252255e+00 1.395680e+00 1.835312e+00 1.787168e+00 1.826652e+00 1.993582e+00 1.853269e+00 1.609923e+00 1.318195e+00 6.483233e-01
<GCONST> 9.086413e+01
~t "T_a"
<ENDHMM>
~h "n-a+s"
<BEGINHMM>
<NUMSTATES> 5
<STATE> 2
<MEAN> 25
 8.084209e+00 -3.246555e+00 -4.886938e+00 -2.890126e+00 -1.922659e+00 -4.591505e+00 -1.062124e+00 -1.533606e+00 -3.011539e+00 -1.419097e+00 7.822737e-01 1.974153e+00 8.531939e-01 -1.219489e+00 -1.591901e+00 -1.511451e+00 -1.099942e+00 -1.081241e+00 3.296968e-01 2.435892e-01 2.131322e-01 7.433307e-01 1.096173e+00 1.076555e+00 1.531909e+00
<VARIANCE> 25
 3.102556e+01 3.982352e+01 4.648204e+01 6.052976e+01 4.865224e+01 5.364120e+01 4.957391e+01 5.206113e+01 4.994263e+01 4.377484e+01 3.566540e+01 3.010361e+01 2.105191e+00 2.133569e+00 2.607650e+00 3.361774e+00 2.917656e+00 3.954443e+00 3.398865e+00 3.319243e+00 3.668817e+00 4.076825e+00 3.093344e+00 2.673295e+00 1.675560e+00
<GCONST> 1.052759e+02
<STATE> 3
<MEAN> 25
 9.462610e+00 -6.897775e+00 -8.743549e+00 -6.083593e+00 -4.604442e+00 -5.470979e+00 1.397076e+00 -2.830499e-01 -1.629562e+00 7.007640e-01 2.659651e+00 3.340820e+00 3.290816e-02 -1.735238e-01 -3.625012e-01 -3.627358e-01 -1.769637e-01 2.254089e-01 4.766614e-01 2.827543e-01 2.371980e-01 1.767752e-01 8.445666e-02 6.974697e-02 8.193482e-02
<VARIANCE> 25
 2.840129e+01 3.570125e+01 4.138834e+01 4.038225e+01 4.118876e+01 4.148624e+01 4.739182e+01 4.747406e+01 4.473821e+01 4.189992e+01 3.449903e+01 2.805832e+01 3.302394e-01 8.424883e-01 9.393210e-01 1.242460e+00 1.324397e+00 1.496400e+00 1.901740e+00 1.780651e+00 1.803969e+00 1.726919e+00 1.430944e+00 1.179275e+00 3.783611e-01
<GCONST> 9.133002e+01
<STATE> 4
<MEAN> 25
 8.177530e+00 -2.680661e+00 -7.293503e+00 -5.932261e+00 -3.758124e+00 -2.794274e+00 1.176165e+00 -3.390664e-01 -1.368642e+00 2.573896e-01 2.133668e+00 3.287408e+00 -4.538044e-01 8.704351e-01 7.276899e-01 4.679444e-01 4.150407e-01 5.706517e-01 -1.937626e-01 -1.382255e-01 1.753797e-02 -1.629017e-01 -2.942949e-01 -3.140077e-01 -8.826797e-01
<VARIANCE> 25
 2.215926e+01 3.099335e+01 3.486272e+01 3.668752e+01 3.283007e+01 3.965223e+01 3.500597e+01 3.826480e+01 3.512437e+01 3.170736e+01 2.563973e+01 2.200531e+01 5.861269e-01 9.910762e-01 1.080531e+00 1.252255e+00 1.395680e+00 1.835312e+00 1.787168e+00 1.826652e+00 1.993582e+00 1.853269e+00 1.609923e+00 1.318195e+00 6.483233e-01
<GCONST> 9.086413e+01
~t "T_a"
<ENDHMM>
~h "n-a+t"
<BEGINHMM>
<NUMSTATES> 5
<STATE> 2
<MEAN> 25
 8.084209e+00 -3.246555e+00 -4.886938e+00 -2.890126e+00 -1.922659e+00 -4.591505e+00 -1.062124e+00 -1.533606e+00 -3.011539e+00 -1.419097e+00 7.822737e-01 1.974153e+00 8.531939e-01 -1.219489e+00 -1.591901e+00 -1.511451e+00 -1.099942e+00 -1.081241e+00 3.296968e-01 2.435892e-01 2.131322e-01 7.433307e-01 1.096173e+00 1.076555e+00 1.531909e+00
<VARIANCE> 25
 3.102556e+01 3.982352e+01 4.648204e+01 6.052976e+01 4.865224e+01 5.364120e+01 4.957391e+01 5.206113e+01 4.994263e+01 4.377484e+01 3.566540e+01 3.010361e+01 2.105191e+00 2.133569e+00 2.607650e+00 3.361774e+00 2.917656e+00 3.954443e+00 3.398865e+00 3.319243e+00 3.668817e+00 4.076825e+00 3.093344e+00 2.673295e+00 1.675560e+00
<GCONST> 1.052759e+02
<STATE> 3
<MEAN> 25
 9.462610e+00 -6.897775e+00 -8.743549e+00 -6.083593e+00 -4.604442e+00 -5.470979e+00 1.397076e+00 -2.830499e-01 -1.629562e+00 7.007640e-01 2.659651e+00 3.340820e+00 3.290816e-02 -1.735238e-01 -3.625012e-01 -3.627358e-01 -1.769637e-01 2.254089e-01 4.766614e-01 2.827543e-01 2.371980e-01 1.767752e-01 8.445666e-02 6.974697e-02 8.193482e-02
<VARIANCE> 25
 2.840129e+01 3.570125e+01 4.138834e+01 4.038225e+01 4.118876e+01 4.148624e+01 4.739182e+01 4.747406e+01 4.473821e+01 4.189992e+01 3.449903e+01 2.805832e+01 3.302394e-01 8.424883e-01 9.393210e-01 1.242460e+00 1.324397e+00 1.496400e+00 1.901740e+00 1.780651e+00 1.803969e+00 1.726919e+00 1.430944e+00 1.179275e+00 3.783611e-01
<GCONST> 9.133002e+01
<STATE> 4
<MEAN> 25
 8.177530e+00 -2.680661e+00 -7.293503e+00 -5.932261e+00 -3.758124e+00 -2.794274e+00 1.176165e+00 -3.390664e-01 -1.368642e+00 2.573896e-01 2.133668e+00 3.287408e+00 -4.538044e-01 8.704351e-01 7.276899e-01 4.679444e-01 4.150407e-01 5.706517e-01 -1.937626e-01 -1.382255e-01 1.753797e-02 -1.629017e-01 -2.942949e-01 -3.140077e-01 -8.826797e-01
<VARIANCE> 25
 2.215926e+01 3.099335e+01 3.486272e+01 3.668752e+01 3.283007e+01 3.965223e+01 3.500597e+01 3.826480e+01 3.512437e+01 3.170736e+01 2.563973e+01 2.200531e+01 5.861269e-01 9.910762e-01 1.080531e+00 1.252255e+00 1.395680e+00 1.835312e+00 1.787168e+00 1.826652e+00 1.993582e+00 1.853269e+00 1.609923e+00 1.318195e+00 6.483233e-01
<GCONST> 9.086413e+01
~t "T_a"
<ENDHMM>
~h "a-g+a"
<BEGINHMM>
<NUMSTATES> 5
<STATE> 2
<MEAN> 25
 4.635559e+00 5.363365e-01 8.743733e-02 3.524290e-01 2.229798e+00 -1.743833e+00 -1.579602e+00 -2.043766e+00 -2.718624e+00 -2.152016e+00 -2.397058e+00 -2.887682e+00 -4.716252e-02 1.557592e-01 -1.047090e-03 -1.243150e-01 -1.916994e-01 4.209527e-03 1.893945e-01 -1.626682e-01 -2.188310e-01 -1.203275e-01 1.739263e-01 9.188620e-02 -8.254285e-02
<VARIANCE> 25
 3.401551e+01 4.746745e+01 6.590588e+01 6.888592e+01 6.231248e+01 4.789571e+01 4.945169e+01 4.794329e+01 4.512083e+01 4.021106e+01 3.828913e+01 3.100824e+01 1.276815e+00 2.578767e+00 2.202086e+00 2.691261e+00 3.435740e+00 3.242736e+00 3.975471e+00 4.328651e+00 3.473794e+00 3.157657e+00 2.566085e+00 2.366839e+00 2.285003e+00
<GCONST> 1.053621e+02
<STATE> 3
<MEAN> 25
 5.764225e+00 3.891699e-01 -5.608481e-01 1.503215e+00 2.225826e+00 -2.072252e+00 -2.398549e+00 -2.813673e+00 -3.874879e+00 -2.397335e+00 -1.524217e+00 -2.210126e+00 3.092694e-01 -2.237352e-01 -3.254337e-01 -4.003477e-01 -4.933417e-01 -6.627559e-01 -2.823527e-01 -4.113862e-01 -2.297902e-01 5.927902e-03 3.290078e-01 4.026391e-01 4.842063e-01
<VARIANCE> 25
 3.381005e+01 4.374036e+01 6.482644e+01 5.705393e+01 5.706469e+01 4.893034e+01 4.398737e+01 4.758787e+01 4.533967e+01 4.081097e+01 3.519007e+01 3.081927e+01 1.034496e+00 2.682821e+00 2.113194e+00 2.702207e+00 3.681077e+00 3.302796e+00 3.798752e+00 4.138144e+00 3.182972e+00 2.662963e+00 2.501869e+00 2.575583e+00 2.035024e+00
<GCONST> 1.042816e+02
<STATE> 4
<MEAN> 25
 5.245019e+00 -7.963865e-01 -1.977029e+00 -2.131719e-01 1.307271e+00 -3.815542e+00 -2.609585e+00 -4.350823e+00 -2.867312e+00 -1.488320e+00 -1.081758e-02 -1.045275e+00 3.514531e-01 -1.762642e-01 -2.754835e-01 -4.325965e-01 -5.898843e-01 -6.183972e-01 -2.581686e-01 -1.215939e-01 8.153636e-02 1.697690e-01 2.150972e-01 3.137886e-01 3.792997e-01
<VARIANCE> 25
 4.054366e+01 6.239736e+01 6.931887e+01 6.282769e+01 6.256241e+01 5.861941e+01 4.958038e+01 5.950143e+01 6.179900e+01 4.873711e+01 4.745664e+01 4.696631e+01 9.160993e-01 2.332375e+00 2.254871e+00 2.718161e+00 3.564646e+00 3.590911e+00 3.101396e+00 3.462668e+00 3.134885e+00 2.632264e+00 2.810844e+00 2.733017e+00 1.779732e+00
<GCONST> 1.062998e+02
~t "T_g"
<ENDHMM>
~h "a-g+n"
<BEGINHMM>
<NUMSTATES> 5
<STATE> 2
<MEAN> 25
 4.635559e+00 5.363365e-01 8.743733e-02 3.524290e-01 2.229798e+00 -1.743833e+00 -1.579602e+00 -2.043766e+00 -2.718624e+00 -2.152016e+00 -2.397058e+00 -2.887682e+00 -4.716252e-02 1.557592e-01 -1.047090e-03 -1.243150e-01 -1.916994e-01 4.209527e-03 1.893945e-01 -1.626682e-01 -2.188310e-01 -1.203275e-01 1.739263e-01 9.188620e-02 -8.254285e-02
<VARIANCE> 25
 3.401551e+01 4.746745e+01 6.590588e+01 6.888592e+01 6.231248e+01 4.789571e+01 4.945169e+01 4.794329e+01 4.512083e+01 4.021106e+01 3.828913e+01 3.100824e+01 1.276815e+00 2.578767e+00 2.202086e+00 2.691261e+00 3.435740e+00 3.242736e+00 3.975471e+00 4.328651e+00 3.473794e+00 3.157657e+00 2.566085e+00 2.366839e+00 2.285003e+00
<GCONST> 1.053621e+02
<STATE> 3
<MEAN> 25
 5.764225e+00 3.891699e-01 -5.608481e-01 1.503215e+00 2.225826e+00 -2.072252e+00 -2.398549e+00 -2.813673e+00 -3.874879e+00 -2.397335e+00 -1.524217e+00 -2.210126e+00 3.092694e-01 -2.237352e-01 -3.254337e-01 -4.003477e-01 -4.933417e-01 -6.627559e-01 -2.823527e-01 -4.113862e-01 -2.297902e-01 5.927902e-03 3.290078e-01 4.026391e-01 4.842063e-01
<VARIANCE> 25
 3.381005e+01 4.374036e+01 6.482644e+01 5.705393e+01 5.706469e+01 4.893034e+01 4.398737e+01 4.758787e+01 4.533967e+01 4.081097e+01 3.519007e+01 3.081927e+01 1.034496e+00 2.682821e+00 2.113194e+00 2.702207e+00 3.681077e+00 3.302796e+00 3.798752e+00 4.138144e+00 3.182972e+00 2.662963e+00 2.501869e+00 2.575583e+00 2.035024e+00
<GCONST> 1.042816e+02
<STATE> 4
<MEAN> 25
 5.245019e+00 -7.963865e-01 -1.977029e+00 -2.131719e-01 1.307271e+00 -3.815542e+00 -2.609585e+00 -4.350823e+00 -2.867312e+00 -1.488320e+00 -1.081758e-02 -1.045275e+00 3.514531e-01 -1.762642e-01 -2.754835e-01 -4.325965e-01 -5.898843e-01 -6.183972e-01 -2.581686e-01 -1.215939e-01 8.153636e-02 1.697690e-01 2.150972e-01 3.137886e-01 3.792997e-01
<VARIANCE> 25
 4.054366e+01 6.239736e+01 6.931887e+01 6.282769e+01 6.256241e+01 5.861941e+01 4.958038e+01 5.950143e+01 6.179900e+01 4.873711e+01 4.745664e+01 4.696631e+01 9.160993e-01 2.332375e+00 2.254871e+00 2.718161e+00 3.564646e+00 3.590911e+00 3.101396e+00 3.462668e+00 3.134885e+00 2.632264e+00 2.810844e+00 2.733017e+00 1.779732e+00
<GCONST> 1.062998e+02
~t "T_g"
<ENDHMM>
~h "a-g+o"
<BEGINHMM>
<NUMSTATES> 5
<STATE> 2
<MEAN> 25
 4.635559e+00 5.363365e-01 8.743733e-02 3.524290e-01 2.229798e+00 -1.743833e+00 -1.579602e+00 -2.043766e+00 -2.718624e+00 -2.152016e+00 -2.397058e+00 -2.887682e+00 -4.716252e-02 1.557592e-01 -1.047090e-03 -1.243150e-01 -1.916994e-01 4.209527e-03 1.893945e-01 -1.626682e-01 -2.188310e-01 -1.203275e-01 1.739263e-01 9.188620e-02 -8.254285e-02
<VARIANCE> 25
 3.401551e+01 4.746745e+01 6.590588e+01 6.888592e+01 6.231248e+01 4.789571e+01 4.945169e+01 4.794329e+01 4.512083e+01 4.021106e+01 3.828913e+01 3.100824e+01 1.276815e+00 2.578767e+00 2.202086e+00 2.691261e+00 3.435740e+00 3.242736e+00 3.975471e+00 4.328651e+00 3.473794e+00 3.157657e+00 2.566085e+00 2.366839e+00 2.285003e+00
<GCONST> 1.053621e+02
<STATE> 3
<MEAN> 25
 5.764225e+00 3.891699e-01 -5.608481e-01 1.503215e+00 2.225826e+00 -2.072252e+00 -2.398549e+00 -2.813673e+00 -3.874879e+00 -2.397335e+00 -1.524217e+00 -2.210126e+00 3.092694e-01 -2.237352e-01 -3.254337e-01 -4.003477e-01 -4.933417e-01 -6.627559e-01 -2.823527e-01 -4.113862e-01 -2.297902e-01 5.927902e-03 3.290078e-01 4.026391e-01 4.842063e-01
<VARIANCE> 25
 3.381005e+01 4.374036e+01 6.482644e+01 5.705393e+01 5.706469e+01 4.893034e+01 4.398737e+01 4.758787e+01 4.533967e+01 4.081097e+01 3.519007e+01 3.081927e+01 1.034496e+00 2.682821e+00 2.113194e+00 2.702207e+00 3.681077e+00 3.302796e+00 3.798752e+00 4.138144e+00 3.182972e+00 2.662963e+00 2.501869e+00 2.575583e+00 2.035024e+00
<GCONST> 1.042816e+02
<STATE> 4
<MEAN> 25
 5.245019e+00 -7.963865e-01 -1.977029e+00 -2.131719e-01 1.307271e+00 -3.815542e+00 -2.609585e+00 -4.350823e+00 -2.867312e+00 -1.488320e+00 -1.081758e-02 -1.045275e+00 3.514531e-01 -1.762642e-01 -2.754835e-01 -4.325965e-01 -5.898843e-01 -6.183972e-01 -2.581686e-01 -1.215939e-01 8.153636e-02 1.697690e-01 2.150972e-01 3.137886e-01 3.792997e-01
<VARIANCE> 25
 4.054366e+01 6.239736e+01 6.931887e+01 6.282769e+01 6.256241e+01 5.861941e+01 4.958038e+01 5.950143e+01 6.179900e+01 4.873711e+01 4.745664e+01 4.696631e+01 9.160993e-01 2.332375e+00 2.254871e+00 2.718161e+00 3.564646e+00 3.590911e+00 3.101396e+00 3.462668e+00 3.134885e+00 2.632264e+00 2.810844e+00 2.733017e+00 1.779732e+00
<GCONST> 1.062998e+02
~t "T_g"
<ENDHMM>
~h "a-g+r"
<BEGINHMM>
<NUMSTATES> 5
<STATE> 2
<MEAN> 25
 4.635559e+00 5.363365e-01 8.743733e-02 3.524290e-01 2.229798e+00 -1.743833e+00 -1.579602e+00 -2.043766e+00 -2.718624e+00 -2.152016e+00 -2.397058e+00 -2.887682e+00 -4.716252e-02 1.557592e-01 -1.047090e-03 -1.243150e-01 -1.916994e-01 4.209527e-03 1.893945e-01 -1.626682e-01 -2.188310e-01 -1.203275e-01 1.739263e-01 9.188620e-02 -8.254285e-02
<VARIANCE> 25
 3.401551e+01 4.746745e+01 6.590588e+01 6.888592e+01 6.231248e+01 4.789571e+01 4.945169e+01 4.794329e+01 4.512083e+01 4.021106e+01 3.828913e+01 3.100824e+01 1.276815e+00 2.578767e+00 2.202086e+00 2.691261e+00 3.435740e+00 3.242736e+00 3.975471e+00 4.328651e+00 3.473794e+00 3.157657e+00 2.566085e+00 2.366839e+00 2.285003e+00
<GCONST> 1.053621e+02
<STATE> 3
<MEAN> 25
 5.764225e+00 3.891699e-01 -5.608481e-01 1.503215e+00 2.225826e+00 -2.072252e+00 -2.398549e+00 -2.813673e+00 -3.874879e+00 -2.397335e+00 -1.524217e+00 -2.210126e+00 3.092694e-01 -2.237352e-01 -3.254337e-01 -4.003477e-01 -4.933417e-01 -6.627559e-01 -2.823527e-01 -4.113862e-01 -2.297902e-01 5.927902e-03 3.290078e-01 4.026391e-01 4.842063e-01
<VARIANCE> 25
 3.381005e+01 4.374036e+01 6.482644e+01 5.705393e+01 5.706469e+01 4.893034e+01 4.398737e+01 4.758787e+01 4.533967e+01 4.081097e+01 3.519007e+01 3.081927e+01 1.034496e+00 2.682821e+00 2.113194e+00 2.702207e+00 3.681077e+00 3.302796e+00 3.798752e+00 4.138144e+00 3.182972e+00 2.662963e+00 2.501869e+00 2.575583e+00 2.035024e+00
<GCONST> 1.042816e+02
<STATE> 4
<MEAN> 25
 5.245019e+00 -7.963865e-01 -1.977029e+00 -2.131719e-01 1.307271e+00 -3.815542e+00 -2.609585e+00 -4.350823e+00 -2.867312e+00 -1.488320e+00 -1.081758e-02 -1.045275e+00 3.514531e-01 -1.762642e-01 -2.754835e-01 -4.325965e-01 -5.898843e-01 -6.183972e-01 -2.581686e-01 -1.215939e-01 8.153636e-02 1.697690e-01 2.150972e-01 3.137886e-01 3.792997e-01
<VARIANCE> 25
 4.054366e+01 6.239736e+01 6.931887e+01 6.282769e+01 6.256241e+01 5.861941e+01 4.958038e+01 5.950143e+01 6.179900e+01 4.873711e+01 4.745664e+01 4.696631e+01 9.160993e-01 2.332375e+00 2.254871e+00 2.718161e+00 3.564646e+00 3.590911e+00 3.101396e+00 3.462668e+00 3.134885e+00 2.632264e+00 2.810844e+00 2.733017e+00 1.779732e+00
<GCONST> 1.062998e+02
~t "T_g"
<ENDHMM>
~h "a-g+u"
<BEGINHMM>
<NUMSTATES> 5
<STATE> 2
<MEAN> 25
 4.635559e+00 5.363365e-01 8.743733e-02 3.524290e-01 2.229798e+00 -1.743833e+00 -1.579602e+00 -2.043766e+00 -2.718624e+00 -2.152016e+00 -2.397058e+00 -2.887682e+00 -4.716252e-02 1.557592e-01 -1.047090e-03 -1.243150e-01 -1.916994e-01 4.209527e-03 1.893945e-01 -1.626682e-01 -2.188310e-01 -1.203275e-01 1.739263e-01 9.188620e-02 -8.254285e-02
<VARIANCE> 25
 3.401551e+01 4.746745e+01 6.590588e+01 6.888592e+01 6.231248e+01 4.789571e+01 4.945169e+01 4.794329e+01 4.512083e+01 4.021106e+01 3.828913e+01 3.100824e+01 1.276815e+00 2.578767e+00 2.202086e+00 2.691261e+00 3.435740e+00 3.242736e+00 3.975471e+00 4.328651e+00 3.473794e+00 3.157657e+00 2.566085e+00 2.366839e+00 2.285003e+00
<GCONST> 1.053621e+02
<STATE> 3
<MEAN> 25
 5.764225e+00 3.891699e-01 -5.608481e-01 1.503215e+00 2.225826e+00 -2.072252e+00 -2.398549e+00 -2.813673e+00 -3.874879e+00 -2.397335e+00 -1.524217e+00 -2.210126e+00 3.092694e-01 -2.237352e-01 -3.254337e-01 -4.003477e-01 -4.933417e-01 -6.627559e-01 -2.823527e-01 -4.113862e-01 -2.297902e-01 5.927902e-03 3.290078e-01 4.026391e-01 4.842063e-01
<VARIANCE> 25
 3.381005e+01 4.374036e+01 6.482644e+01 5.705393e+01 5.706469e+01 4.893034e+01 4.398737e+01 4.758787e+01 4.533967e+01 4.081097e+01 3.519007e+01 3.081927e+01 1.034496e+00 2.682821e+00 2.113194e+00 2.702207e+00 3.681077e+00 3.302796e+00 3.798752e+00 4.138144e+00 3.182972e+00 2.662963e+00 2.501869e+00 2.575583e+00 2.035024e+00
<GCONST> 1.042816e+02
<STATE> 4
<MEAN> 25
 5.245019e+00 -7.963865e-01 -1.977029e+00 -2.131719e-01 1.307271e+00 -3.815542e+00 -2.609585e+00 -4.350823e+00 -2.867312e+00 -1.488320e+00 -1.081758e-02 -1.045275e+00 3.514531e-01 -1.762642e-01 -2.754835e-01 -4.325965e-01 -5.898843e-01 -6.183972e-01 -2.581686e-01 -1.215939e-01 8.153636e-02 1.697690e-01 2.150972e-01 3.137886e-01 3.792997e-01
<VARIANCE> 25
 4.054366e+01 6.239736e+01 6.931887e+01 6.282769e+01 6.256241e+01 5.861941e+01 4.958038e+01 5.950143e+01 6.179900e+01 4.873711e+01 4.745664e+01 4.696631e+01 9.160993e-01 2.332375e+00 2.254871e+00 2.718161e+00 3.564646e+00 3.590911e+00 3.101396e+00 3.462668e+00 3.134885e+00 2.632264e+00 2.810844e+00 2.733017e+00 1.779732e+00
<GCONST> 1.062998e+02
~t "T_g"
<ENDHMM>
~h "n-b+a"
<BEGINHMM>
<NUMSTATES> 5
<STATE> 2
<MEAN> 25
 7.453249e+00 1.854894e+00 -3.055483e+00 1.129761e-01 -5.903215e-01 -2.019453e+00 -9.623871e-01 -2.498531e-01 -2.357596e+00 -3.923417e+00 -3.094668e+00 -1.821743e+00 4.853825e-02 1.296036e+00 3.276203e-01 2.709658e-02 -3.125394e-01 5.880693e-01 7.153720e-01 7.017969e-01 4.376649e-01 -1.752225e-01 -7.070358e-01 -5.481036e-01 -9.195412e-01
<VARIANCE> 25
 3.346801e+01 3.947591e+01 4.344426e+01 5.973069e+01 5.670771e+01 4.925726e+01 3.268375e+01 4.100950e+01 4.737400e+01 3.473342e+01 2.501481e+01 2.451253e+01 1.081666e+00 1.334289e+00 1.641493e+00 2.853810e+00 3.615987e+00 2.742803e+00 2.493510e+00 2.804891e+00 2.849236e+00 2.749629e+00 2.209752e+00 1.999554e+00 1.226195e+00
<GCONST> 9.985339e+01
<STATE> 3
<MEAN> 25
 6.949950e+00 3.740428e+00 -1.714613e+00 3.235494e-01 -9.867709e-01 -1.327352e+00 -1.314925e-01 7.956891e-01 -1.145713e+00 -3.079894e+00 -3.591807e+00 -2.550094e+00 -8.611151e-02 4.030907e-01 1.799360e-01 7.571537e-02 -3.430426e-02 2.170843e-01 1.954542e-01 1.316523e-01 1.675814e-01 3.952383e-02 -1.006096e-01 -8.349357e-02 -3.062887e-01
<VARIANCE> 25
 2.692079e+01 3.626947e+01 4.409764e+01 5.273486e+01 4.805618e+01 4.925530e+01 3.155102e+01 3.594095e+01 4.166383e+01 3.111368e+01 2.364136e+01 2.366270e+01 4.684736e-01 6.017178e-01 8.846315e-01 1.491829e+00 2.014702e+00 1.665077e+00 1.348875e+00 1.519242e+00 1.830568e+00 1.490714e+00 1.216153e+00 1.152516e+00 3.799050e-01
<GCONST> 9.019222e+01
<STATE> 4
<MEAN> 25
 6.578341e+00 4.712523e+00 -1.122386e+00 6.479018e-01 -1.106130e+00 -1.354586e+00 -2.909619e-01 1.025624e+00 -5.704058e-01 -2.493345e+00 -3.110632e+00 -2.025941e+00 1.390214e-01 -3.549204e-01 -1.764275e-01 -3.578497e-02 6.442415e-02 -2.743158e-01 -2.597390e-01 -2.456179e-01 -2.362213e-01 -5.547573e-03 2.503186e-01 3.078200e-01 3.261120e-01
<VARIANCE> 25
 2.816606e+01 3.491276e+01 4.524225e+01 4.909471e+01 4.680241e+01 5.250218e+01 3.074101e+01 3.258335e+01 3.859496e+01 2.864092e+01 2.050313e+01 1.999232e+01 3.488529e-01 7.084572e-01 8.258898e-01 1.390724e+00 1.873912e+00 1.648457e+00 1.367848e+00 1.515477e+00 1.712910e+00 1.390957e+00 1.179897e+00 1.095034e+00 3.408834e-01
<GCONST> 8.892953e+01
~t "T_b"
<ENDHMM>
~h "n-b+e"
<BEGINHMM>
<NUMSTATES> 5
<STATE> 2
<MEAN> 25
 7.453249e+00 1.854894e+00 -3.055483e+00 1.129761e-01 -5.903215e-01 -2.019453e+00 -9.623871e-01 -2.498531e-01 -2.357596e+00 -3.923417e+00 -3.094668e+00 -1.821743e+00 4.853825e-02 1.296036e+00 3.276203e-01 2.709658e-02 -3.125394e-01 5.880693e-01 7.153720e-01 7.017969e-01 4.376649e-01 -1.752225e-01 -7.070358e-01 -5.481036e-01 -9.195412e-01
<VARIANCE> 25
 3.346801e+01 3.947591e+01 4.344426e+01 5.973069e+01 5.670771e+01 4.925726e+01 3.268375e+01 4.100950e+01 4.737400e+01 3.473342e+01 2.501481e+01 2.451253e+01 1.081666e+00 1.334289e+00 1.641493e+00 2.853810e+00 3.615987e+00 2.742803e+00 2.493510e+00 2.804891e+00 2.849236e+00 2.749629e+00 2.209752e+00 1.999554e+00 1.226195e+00
<GCONST> 9.985339e+01
<STATE> 3
<MEAN> 25
 6.949950e+00 3.740428e+00 -1.714613e+00 3.235494e-01 -9.867709e-01 -1.327352e+00 -1.314925e-01 7.956891e-01 -1.145713e+00 -3.079894e+00 -3.591807e+00 -2.550094e+00 -8.611151e-02 4.030907e-01 1.799360e-01 7.571537e-02 -3.430426e-02 2.170843e-01 1.954542e-01 1.316523e-01 1.675814e-01 3.952383e-02 -1.006096e-01 -8.349357e-02 -3.062887e-01
<VARIANCE> 25
 2.692079e+01 3.626947e+01 4.409764e+01 5.273486e+01 4.805618e+01 4.925530e+01 3.155102e+01 3.594095e+01 4.166383e+01 3.111368e+01 2.364136e+01 2.366270e+01 4.684736e-01 6.017178e-01 8.846315e-01 1.491829e+00 2.014702e+00 1.665077e+00 1.348875e+00 1.519242e+00 1.830568e+00 1.490714e+00 1.216153e+00 1.152516e+00 3.799050e-01
<GCONST> 9.019222e+01
<STATE> 4
<MEAN> 25
 6.578341e+00 4.712523e+00 -1.122386e+00 6.479018e-01 -1.106130e+00 -1.354586e+00 -2.909619e-01 1.025624e+00 -5.704058e-01 -2.493345e+00 -3.110632e+00 -2.025941e+00 1.390214e-01 -3.549204e-01 -1.764275e-01 -3.578497e-02 6.442415e-02 -2.743158e-01 -2.597390e-01 -2.456179e-01 -2.362213e-01 -5.547573e-03 2.503186e-01 3.078200e-01 3.261120e-01
<VARIANCE> 25
 2.816606e+01 3.491276e+01 4.524225e+01 4.909471e+01 4.680241e+01 5.250218e+01 3.074101e+01 3.258335e+01 3.859496e+01 2.864092e+01 2.050313e+01 1.999232e+01 3.488529e-01 7.084572e-01 8.258898e-01 1.390724e+00 1.873912e+00 1.648457e+00 1.367848e+00 1.515477e+00 1.712910e+00 1.390957e+00 1.179897e+00 1.095034e+00 3.408834e-01
<GCONST> 8.892953e+01
~t "T_b"
<ENDHMM>
~h "n-b+i"
<BEGINHMM>
<NUMSTATES> 5
<STATE> 2
<MEAN> 25
 7.453249e+00 1.854894e+00 -3.055483e+00 1.129761e-01 -5.903215e-01 -2.019453e+00 -9.623871e-01 -2.498531e-01 -2.357596e+00 -3.923417e+00 -3.094668e+00 -1.821743e+00 4.853825e-02 1.296036e+00 3.276203e-01 2.709658e-02 -3.125394e-01 5.880693e-01 7.153720e-01 7.017969e-01 4.376649e-01 -1.752225e-01 -7.070358e-01 -5.481036e-01 -9.195412e-01
<VARIANCE> 25
 3.346801e+01 3.947591e+01 4.344426e+01 5.973069e+01 5.670771e+01 4.925726e+01 3.268375e+01 4.100950e+01 4.737400e+01 3.473342e+01 2.501481e+01 2.451253e+01 1.081666e+00 1.334289e+00 1.641493e+00 2.853810e+00 3.615987e+00 2.742803e+00 2.493510e+00 2.804891e+00 2.849236e+00 2.749629e+00 2.209752e+00 1.999554e+00 1.226195e+00
<GCONST> 9.985339e+01
<STATE> 3
<MEAN> 25
 6.949950e+00 3.740428e+00 -1.714613e+00 3.235494e-01 -9.867709e-01 -1.327352e+00 -1.314925e-01 7.956891e-01 -1.145713e+00 -3.079894e+00 -3.591807e+00 -2.550094e+00 -8.611151e-02 4.030907e-01 1.799360e-01 7.571537e-02 -3.430426e-02 2.170843e-01 1.954542e-01 1.316523e-01 1.675814e-01 3.952383e-02 -1.006096e-01 -8.349357e-02 -3.062887e-01
<VARIANCE> 25
 2.692079e+01 3.626947e+01 4.409764e+01 5.273486e+01 4.805618e+01 4.925530e+01 3.155102e+01 3.594095e+01 4.166383e+01 3.111368e+01 2.364136e+01 2.366270e+01 4.684736e-01 6.017178e-01 8.846315e-01 1.491829e+00 2.014702e+00 1.665077e+00 1.348875e+00 1.519242e+00 1.830568e+00 1.490714e+00 1.216153e+00 1.152516e+00 3.799050e-01
<GCONST> 9.019222e+01
<STATE> 4
<MEAN> 25
 6.578341e+00 4.712523e+00 -1.122386e+00 6.479018e-01 -1.106130e+00 -1.354586e+00 -2.909619e-01 1.025624e+00 -5.704058e-01 -2.493345e+00 -3.110632e+00 -2.025941e+00 1.390214e-01 -3.549204e-01 -1.764275e-01 -3.578497e-02 6.442415e-02 -2.743158e-01 -2.597390e-01 -2.456179e-01 -2.362213e-01 -5.547573e-03 2.503186e-01 3.078200e-01 3.261120e-01
<VARIANCE> 25
 2.816606e+01 3.491276e+01 4.524225e+01 4.909471e+01 4.680241e+01 5.250218e+01 3.074101e+01 3.258335e+01 3.859496e+01 2.864092e+01 2.050313e+01 1.999232e+01 3.488529e-01 7.084572e-01 8.258898e-01 1.390724e+00 1.873912e+00 1.648457e+00 1.367848e+00 1.515477e+00 1.712910e+00 1.390957e+00 1.179897e+00 1.095034e+00 3.408834e-01
<GCONST> 8.892953e+01
~t "T_b"
<ENDHMM>
~h "n-b+o"
<BEGINHMM>
<NUMSTATES> 5
<STATE> 2
<MEAN> 25
 7.453249e+00 1.854894e+00 -3.055483e+00 1.129761e-01 -5.903215e-01 -2.019453e+00 -9.623871e-01 -2.498531e-01 -2.357596e+00 -3.923417e+00 -3.094668e+00 -1.821743e+00 4.853825e-02 1.296036e+00 3.276203e-01 2.709658e-02 -3.125394e-01 5.880693e-01 7.153720e-01 7.017969e-01 4.376649e-01 -1.752225e-01 -7.070358e-01 -5.481036e-01 -9.195412e-01
<VARIANCE> 25
 3.346801e+01 3.947591e+01 4.344426e+01 5.973069e+01 5.670771e+01 4.925726e+01 3.268375e+01 4.100950e+01 4.737400e+01 3.473342e+01 2.501481e+01 2.451253e+01 1.081666e+00 1.334289e+00 1.641493e+00 2.853810e+00 3.615987e+00 2.742803e+00 2.493510e+00 2.804891e+00 2.849236e+00 2.749629e+00 2.209752e+00 1.999554e+00 1.226195e+00
<GCONST> 9.985339e+01
<STATE> 3
<MEAN> 25
 6.949950e+00 3.740428e+00 -1.714613e+00 3.235494e-01 -9.867709e-01 -1.327352e+00 -1.314925e-01 7.956891e-01 -1.145713e+00 -3.079894e+00 -3.591807e+00 -2.550094e+00 -8.611151e-02 4.030907e-01 1.799360e-01 7.571537e-02 -3.430426e-02 2.170843e-01 1.954542e-01 1.316523e-01 1.675814e-01 3.952383e-02 -1.006096e-01 -8.349357e-02 -3.062887e-01
<VARIANCE> 25
 2.692079e+01 3.626947e+01 4.409764e+01 5.273486e+01 4.805618e+01 4.925530e+01 3.155102e+01 3.594095e+01 4.166383e+01 3.111368e+01 2.364136e+01 2.366270e+01 4.684736e-01 6.017178e-01 8.846315e-01 1.491829e+00 2.014702e+00 1.665077e+00 1.348875e+00 1.519242e+00 1.830568e+00 1.490714e+00 1.216153e+00 1.152516e+00 3.799050e-01
<GCONST> 9.019222e+01
<STATE> 4
<MEAN> 25
 6.578341e+00 4.712523e+00 -1.122386e+00 6.479018e-01 -1.106130e+00 -1.354586e+00 -2.909619e-01 1.025624e+00 -5.704058e-01 -2.493345e+00 -3.110632e+00 -2.025941e+00 1.390214e-01 -3.549204e-01 -1.764275e-01 -3.578497e-02 6.442415e-02 -2.743158e-01 -2.597390e-01 -2.456179e-01 -2.362213e-01 -5.547573e-03 2.503186e-01 3.078200e-01 3.261120e-01
<VARIANCE> 25
 2.816606e+01 3.491276e+01 4.524225e+01 4.909471e+01 4.680241e+01 5.250218e+01 3.074101e+01 3.258335e+01 3.859496e+01 2.864092e+01 2.050313e+01 1.999232e+01 3.488529e-01 7.084572e-01 8.258898e-01 1.390724e+00 1.873912e+00 1.648457e+00 1.367848e+00 1.515477e+00 1.712910e+00 1.390957e+00 1.179897e+00 1.095034e+00 3.408834e-01
<GCONST> 8.892953e+01
~t "T_b"
<ENDHMM>
~h "a-i+b"
<BEGINHMM>
<NUMSTATES> 5
<STATE> 2
<MEAN> 25
 2.824880e+00 -2.961581e+00 4.292364e+00 7.499251e+00 7.346193e+00 -2.067250e+00 -5.297520e+00 -2.873806e+00 -2.378581e+00 -1.973293e+00 -2.520489e+00 -3.736685e+00 1.015099e+00 -9.724852e-01 2.479329e-01 2.179622e+00 1.426837e+00 -2.128228e+00 -2.309814e+00 -3.848035e-01 -7.270547e-01 -7.560874e-01 -6.794949e-01 -8.365397e-01 1.175898e+00
<VARIANCE> 25
 3.374600e+01 3.967356e+01 6.750194e+01 6.375350e+01 5.781096e+01 6.437442e+01 4.980933e+01 4.415491e+01 4.445846e+01 3.540117e+01 3.356274e+01 2.704606e+01 3.132528e+00 4.137255e+00 3.621446e+00 4.487921e+00 4.215056e+00 5.312013e+00 4.005538e+00 3.824685e+00 4.409300e+00 4.209664e+00 3.923692e+00 2.984154e+00 1.617640e+00
<GCONST> 1.086541e+02
<STATE> 3
<MEAN> 25
 3.691633e+00 -6.378765e+00 6.166086e+00 1.236009e+01 7.380941e+00 -9.047977e+00 -9.580333e+00 -1.629763e+00 -3.102339e+00 -4.599288e+00 -4.548250e+00 -5.048493e+00 8.359629e-02 -2.991736e-01 1.296623e-01 4.305927e-01 9.667514e-03 -8.290642e-01 -5.818837e-01 1.603395e-01 8.957740e-02 -1.876646e-01 -1.591199e-01 -1.092843e-01 2.681427e-01
<VARIANCE> 25
 2.149308e+01 3.103732e+01 4.970968e+01 5.873264e+01 7.158559e+01 6.920425e+01 3.966159e+01 4.495304e+01 4.204121e+01 4.275245e+01 4.102441e+01 2.954641e+01 6.639252e-01 9.264812e-01 1.883231e+00 1.858640e+00 1.558079e+00 2.146437e+00 1.929194e+00 2.097977e+00 1.840118e+00 1.884095e+00 1.595546e+00 1.333590e+00 5.259222e-01
<GCONST> 9.574519e+01
<STATE> 4
<MEAN> 25
 4.036044e+00 -4.218312e+00 4.209880e+00 1.037407e+01 7.996428e+00 -6.247262e+00 -9.419474e+00 -3.331409e+00 -2.663913e+00 -2.918104e+00 -3.142705e+00 -4.376024e+00 3.821991e-02 8.336469e-01 -6.000085e-01 -1.181883e+00 -5.675405e-01 1.117856e+00 8.718380e-01 -2.187419e-01 -3.897155e-02 3.511441e-01 4.869802e-01 5.886047e-01 -5.325214e-01
<VARIANCE> 25
 1.972391e+01 3.227742e+01 4.309776e+01 5.167957e+01 5.495691e+01 6.691110e+01 3.850472e+01 4.351723e+01 4.154246e+01 3.556070e+01 3.517086e+01 2.803684e+01 6.999541e-01 1.390189e+00 1.663853e+00 1.824908e+00 1.964548e+00 2.784639e+00 2.501812e+00 2.236512e+00 2.341234e+00 2.148965e+00 1.947036e+00 1.699689e+00 1.056007e+00
<GCONST> 9.730878e+01
~t "T_i"
<ENDHMM>
~h "a-i+l"
<BEGINHMM>
<NUMSTATES> 5
<STATE> 2
<MEAN> 25
 2.824880e+00 -2.961581e+00 4.292364e+00 7.499251e+00 7.346193e+00 -2.067250e+00 -5.297520e+00 -2.873806e+00 -2.378581e+00 -1.973293e+00 -2.520489e+00 -3.736685e+00 1.015099e+00 -9.724852e-01 2.479329e-01 2.179622e+00 1.426837e+00 -2.128228e+00 -2.309814e+00 -3.848035e-01 -7.270547e-01 -7.560874e-01 -6.794949e-01 -8.365397e-01 1.175898e+00
<VARIANCE> 25
 3.374600e+01 3.967356e+01 6.750194e+01 6.375350e+01 5.781096e+01 6.437442e+01 4.980933e+01 4.415491e+01 4.445846e+01 3.540117e+01 3.356274e+01 2.704606e+01 3.132528e+00 4.137255e+00 3.621446e+00 4.487921e+00 4.215056e+00 5.312013e+00 4.005538e+00 3.824685e+00 4.409300e+00 4.209664e+00 3.923692e+00 2.984154e+00 1.617640e+00
<GCONST> 1.086541e+02
<STATE> 3
<MEAN> 25
 3.691633e+00 -6.378765e+00 6.166086e+00 1.236009e+01 7.380941e+00 -9.047977e+00 -9.580333e+00 -1.629763e+00 -3.102339e+00 -4.599288e+00 -4.548250e+00 -5.048493e+00 8.359629e-02 -2.991736e-01 1.296623e-01 4.305927e-01 9.667514e-03 -8.290642e-01 -5.818837e-01 1.603395e-01 8.957740e-02 -1.876646e-01 -1.591199e-01 -1.092843e-01 2.681427e-01
<VARIANCE> 25
 2.149308e+01 3.103732e+01 4.970968e+01 5.873264e+01 7.158559e+01 6.920425e+01 3.966159e+01 4.495304e+01 4.204121e+01 4.275245e+01 4.102441e+01 2.954641e+01 6.639252e-01 9.264812e-01 1.883231e+00 1.858640e+00 1.558079e+00 2.146437e+00 1.929194e+00 2.097977e+00 1.840118e+00 1.884095e+00 1.595546e+00 1.333590e+00 5.259222e-01
<GCONST> 9.574519e+01
<STATE> 4
<MEAN> 25
 4.036044e+00 -4.218312e+00 4.209880e+00 1.037407e+01 7.996428e+00 -6.247262e+00 -9.419474e+00 -3.331409e+00 -2.663913e+00 -2.918104e+00 -3.142705e+00 -4.376024e+00 3.821991e-02 8.336469e-01 -6.000085e-01 -1.181883e+00 -5.675405e-01 1.117856e+00 8.718380e-01 -2.187419e-01 -3.897155e-02 3.511441e-01 4.869802e-01 5.886047e-01 -5.325214e-01
<VARIANCE> 25
 1.972391e+01 3.227742e+01 4.309776e+01 5.167957e+01 5.495691e+01 6.691110e+01 3.850472e+01 4.351723e+01 4.154246e+01 3.556070e+01 3.517086e+01 2.803684e+01 6.999541e-01 1.390189e+00 1.663853e+00 1.824908e+00 1.964548e+00 2.784639e+00 2.501812e+00 2.236512e+00 2.341234e+00 2.148965e+00 1.947036e+00 1.699689e+00 1.056007e+00
<GCONST> 9.730878e+01
~t "T_i"
<ENDHMM>
~h "a-i+s"
<BEGINHMM>
<NUMSTATES> 5
<STATE> 2
<MEAN> 25
 2.824880e+00 -2.961581e+00 4.292364e+00 7.499251e+00 7.346193e+00 -2.067250e+00 -5.297520e+00 -2.873806e+00 -2.378581e+00 -1.973293e+00 -2.520489e+00 -3.736685e+00 1.015099e+00 -9.724852e-01 2.479329e-01 2.179622e+00 1.426837e+00 -2.128228e+00 -2.309814e+00 -3.848035e-01 -7.270547e-01 -7.560874e-01 -6.794949e-01 -8.365397e-01 1.175898e+00
<VARIANCE> 25
 3.374600e+01 3.967356e+01 6.750194e+01 6.375350e+01 5.781096e+01 6.437442e+01 4.980933e+01 4.415491e+01 4.445846e+01 3.540117e+01 3.356274e+01 2.704606e+01 3.132528e+00 4.137255e+00 3.621446e+00 4.487921e+00 4.215056e+00 5.312013e+00 4.005538e+00 3.824685e+00 4.409300e+00 4.209664e+00 3.923692e+00 2.984154e+00 1.617640e+00
<GCONST> 1.086541e+02
<STATE> 3
<MEAN> 25
 3.691633e+00 -6.378765e+00 6.166086e+00 1.236009e+01 7.380941e+00 -9.047977e+00 -9.580333e+00 -1.629763e+00 -3.102339e+00 -4.599288e+00 -4.548250e+00 -5.048493e+00 8.359629e-02 -2.991736e-01 1.296623e-01 4.305927e-01 9.667514e-03 -8.290642e-01 -5.818837e-01 1.603395e-01 8.957740e-02 -1.876646e-01 -1.591199e-01 -1.092843e-01 2.681427e-01
<VARIANCE> 25
 2.149308e+01 3.103732e+01 4.970968e+01 5.873264e+01 7.158559e+01 6.920425e+01 3.966159e+01 4.495304e+01 4.204121e+01 4.275245e+01 4.102441e+01 2.954641e+01 6.639252e-01 9.264812e-01 1.883231e+00 1.858640e+00 1.558079e+00 2.146437e+00 1.929194e+00 2.097977e+00 1.840118e+00 1.884095e+00 1.595546e+00 1.333590e+00 5.259222e-01
<GCONST> 9.574519e+01
<STATE> 4
<MEAN> 25
 4.036044e+00 -4.218312e+00 4.209880e+00 1.037407e+01 7.996428e+00 -6.247262e+00 -9.419474e+00 -3.331409e+00 -2.663913e+00 -2.918104e+00 -3.142705e+00 -4.376024e+00 3.821991e-02 8.336469e-01 -6.000085e-01 -1.181883e+00 -5.675405e-01 1.117856e+00 8.718380e-01 -2.187419e-01 -3.897155e-02 3.511441e-01 4.869802e-01 5.886047e-01 -5.325214e-01
<VARIANCE> 25
 1.972391e+01 3.227742e+01 4.309776e+01 5.167957e+01 5.495691e+01 6.691110e+01 3.850472e+01 4.351723e+01 4.154246e+01 3.556070e+01 3.517086e+01 2.803684e+01 6.999541e-01 1.390189e+00 1.663853e+00 1.824908e+00 1.964548e+00 2.784639e+00 2.501812e+00 2.236512e+00 2.341234e+00 2.148965e+00 1.947036e+00 1.699689e+00 1.056007e+00
<GCONST> 9.730878e+01
~t "T_i"
<ENDHMM>
~h "n-d+a"
<BEGINHMM>
<NUMSTATES> 5
<STATE> 2
<MEAN> 25
 4.986747e+00 1.173107e+00 -3.532605e-03 -2.869664e-01 -8.792292e-01 -2.943893e-01 -1.157155e-01 -1.781017e+00 -2.767115e+00 -2.582419e+00 -1.706980e+00 -5.448081e-01 -2.492582e-01 7.052330e-01 5.542889e-01 4.937656e-01 3.336083e-01 7.560925e-01 3.487482e-01 9.874161e-02 5.457619e-02 -1.007866e-01 -2.741712e-01 -1.678351e-01 -6.813607e-01
<VARIANCE> 25
 3.575130e+01 4.199368e+01 4.126587e+01 5.860994e+01 5.800882e+01 5.540382e+01 4.170780e+01 4.906739e+01 4.723788e+01 3.940030e+01 2.930230e+01 2.850399e+01 1.251378e+00 1.493562e+00 1.629822e+00 2.081238e+00 2.239027e+00 2.528253e+00 2.284125e+00 2.485779e+00 2.461237e+00 2.372278e+00 2.008663e+00 1.836602e+00 1.659663e+00
<GCONST> 9.990127e+01
<STATE> 3
<MEAN> 25
 4.914427e+00 1.635913e+00 8.481176e-01 5.874320e-01 -1.860407e-01 2.406812e-01 -3.938809e-02 -1.716778e+00 -2.743559e+00 -2.302445e+00 -1.865128e+00 -5.342951e-01 -2.087076e-01 3.739429e-02 2.673025e-01 1.669757e-01 1.145322e-01 1.772111e-01 9.942254e-02 -5.373251e-02 -6.358257e-02 -4.126178e-02 1.807586e-02 1.027398e-01 -1.237136e-01
<VARIANCE> 25
 2.888018e+01 4.287783e+01 4.231509e+01 5.601795e+01 5.643327e+01 5.696796e+01 4.082035e+01 4.643125e+01 4.334551e+01 3.674223e+01 2.845123e+01 2.631162e+01 6.074597e-01 9.825633e-01 1.005929e+00 1.402578e+00 1.643439e+00 1.440409e+00 1.691248e+00 1.775282e+00 1.692227e+00 1.545876e+00 1.368715e+00 1.293374e+00 5.901869e-01
<GCONST> 9.324805e+01
<STATE> 4
<MEAN> 25
 4.336635e+00 1.898943e+00 1.592930e+00 1.054985e+00 7.405771e-02 9.789971e-01 5.451074e-02 -1.993555e+00 -2.809552e+00 -2.274028e+00 -1.686451e+00 -2.280605e-01 4.773585e-02 -5.405355e-01 -1.993422e-02 -3.128903e-02 -5.543578e-02 -4.109922e-01 -2.349472e-01 -2.260227e-01 -2.361541e-01 -3.670364e-05 2.079962e-01 2.329595e-01 4.070511e-01
<VARIANCE> 25
 2.717667e+01 4.477932e+01 4.206721e+01 5.259300e+01 5.149903e+01 5.344878e+01 3.844084e+01 4.642159e+01 4.322847e+01 3.436483e+01 2.569947e+01 2.370034e+01 4.915567e-01 1.268307e+00 9.630365e-01 1.468139e+00 1.692315e+00 1.473882e+00 1.775575e+00 2.010480e+00 1.839599e+00 1.618163e+00 1.409668e+00 1.328542e+00 7.107434e-01
<GCONST> 9.331273e+01
~t "T_d"
<ENDHMM>
~h "n-d+e"
<BEGINHMM>
<NUMSTATES> 5
<STATE> 2
<MEAN> 25
 4.986747e+00 1.173107e+00 -3.532605e-03 -2.869664e-01 -8.792292e-01 -2.943893e-01 -1.157155e-01 -1.781017e+00 -2.767115e+00 -2.582419e+00 -1.706980e+00 -5.448081e-01 -2.492582e-01 7.052330e-01 5.542889e-01 4.937656e-01 3.336083e-01 7.560925e-01 3.487482e-01 9.874161e-02 5.457619e-02 -1.007866e-01 -2.741712e-01 -1.678351e-01 -6.813607e-01
<VARIANCE> 25
 3.575130e+01 4.199368e+01 4.126587e+01 5.860994e+01 5.800882e+01 5.540382e+01 4.170780e+01 4.906739e+01 4.723788e+01 3.940030e+01 2.930230e+01 2.850399e+01 1.251378e+00 1.493562e+00 1.629822e+00 2.081238e+00 2.239027e+00 2.528253e+00 2.284125e+00 2.485779e+00 2.461237e+00 2.372278e+00 2.008663e+00 1.836602e+00 1.659663e+00
<GCONST> 9.990127e+01
<STATE> 3
<MEAN> 25
 4.914427e+00 1.635913e+00 8.481176e-01 5.874320e-01 -1.860407e-01 2.406812e-01 -3.938809e-02 -1.716778e+00 -2.743559e+00 -2.302445e+00 -1.865128e+00 -5.342951e-01 -2.087076e-01 3.739429e-02 2.673025e-01 1.669757e-01 1.145322e-01 1.772111e-01 9.942254e-02 -5.373251e-02 -6.358257e-02 -4.126178e-02 1.807586e-02 1.027398e-01 -1.237136e-01
<VARIANCE> 25
 2.888018e+01 4.287783e+01 4.231509e+01 5.601795e+01 5.643327e+01 5.696796e+01 4.082035e+01 4.643125e+01 4.334551e+01 3.674223e+01 2.845123e+01 2.631162e+01 6.074597e-01 9.825633e-01 1.005929e+00 1.402578e+00 1.643439e+00 1.440409e+00 1.691248e+00 1.775282e+00 1.692227e+00 1.545876e+00 1.368715e+00 1.293374e+00 5.901869e-01
<GCONST> 9.324805e+01
<STATE> 4
<MEAN> 25
 4.336635e+00 1.898943e+00 1.592930e+00 1.054985e+00 7.405771e-02 9.789971e-01 5.451074e-02 -1.993555e+00 -2.809552e+00 -2.274028e+00 -1.686451e+00 -2.280605e-01 4.773585e-02 -5.405355e-01 -1.993422e-02 -3.128903e-02 -5.543578e-02 -4.109922e-01 -2.349472e-01 -2.260227e-01 -2.361541e-01 -3.670364e-05 2.079962e-01 2.329595e-01 4.070511e-01
<VARIANCE> 25
 2.717667e+01 4.477932e+01 4.206721e+01 5.259300e+01 5.149903e+01 5.344878e+01 3.844084e+01 4.642159e+01 4.322847e+01 3.436483e+01 2.569947e+01 2.370034e+01 4.915567e-01 1.268307e+00 9.630365e-01 1.468139e+00 1.692315e+00 1.473882e+00 1.775575e+00 2.010480e+00 1.839599e+00 1.618163e+00 1.409668e+00 1.328542e+00 7.107434e-01
<GCONST> 9.331273e+01
~t "T_d"
<ENDHMM>
~h "n-d+i"
<BEGINHMM>
<NUMSTATES> 5
<STATE> 2
<MEAN> 25
 4.986747e+00 1.173107e+00 -3.532605e-03 -2.869664e-01 -8.792292e-01 -2.943893e-01 -1.157155e-01 -1.781017e+00 -2.767115e+00 -2.582419e+00 -1.706980e+00 -5.448081e-01 -2.492582e-01 7.052330e-01 5.542889e-01 4.937656e-01 3.336083e-01 7.560925e-01 3.487482e-01 9.874161e-02 5.457619e-02 -1.007866e-01 -2.741712e-01 -1.678351e-01 -6.813607e-01
<VARIANCE> 25
 3.575130e+01 4.199368e+01 4.126587e+01 5.860994e+01 5.800882e+01 5.540382e+01 4.170780e+01 4.906739e+01 4.723788e+01 3.940030e+01 2.930230e+01 2.850399e+01 1.251378e+00 1.493562e+00 1.629822e+00 2.081238e+00 2.239027e+00 2.528253e+00 2.284125e+00 2.485779e+00 2.461237e+00 2.372278e+00 2.008663e+00 1.836602e+00 1.659663e+00
<GCONST> 9.990127e+01
<STATE> 3
<MEAN> 25
 4.914427e+00 1.635913e+00 8.481176e-01 5.874320e-01 -1.860407e-01 2.406812e-01 -3.938809e-02 -1.716778e+00 -2.743559e+00 -2.302445e+00 -1.865128e+00 -5.342951e-01 -2.087076e-01 3.739429e-02 2.673025e-01 1.669757e-01 1.145322e-01 1.772111e-01 9.942254e-02 -5.373251e-02 -6.358257e-02 -4.126178e-02 1.807586e-02 1.027398e-01 -1.237136e-01
<VARIANCE> 25
 2.888018e+01 4.287783e+01 4.231509e+01 5.601795e+01 5.643327e+01 5.696796e+01 4.082035e+01 4.643125e+01 4.334551e+01 3.674223e+01 2.845123e+01 2.631162e+01 6.074597e-01 9.825633e-01 1.005929e+00 1.402578e+00 1.643439e+00 1.440409e+00 1.691248e+00 1.775282e+00 1.692227e+00 1.545876e+00 1.368715e+00 1.293374e+00 5.901869e-01
<GCONST> 9.324805e+01
<STATE> 4
<MEAN> 25
 4.336635e+00 1.898943e+00 1.592930e+00 1.054985e+00 7.405771e-02 9.789971e-01 5.451074e-02 -1.993555e+00 -2.809552e+00 -2.274028e+00 -1.686451e+00 -2.280605e-01 4.773585e-02 -5.405355e-01 -1.993422e-02 -3.128903e-02 -5.543578e-02 -4.109922e-01 -2.349472e-01 -2.260227e-01 -2.361541e-01 -3.670364e-05 2.079962e-01 2.329595e-01 4.070511e-01
<VARIANCE> 25
 2.717667e+01 4.477932e+01 4.206721e+01 5.259300e+01 5.149903e+01 5.344878e+01 3.844084e+01 4.642159e+01 4.322847e+01 3.436483e+01 2.569947e+01 2.370034e+01 4.915567e-01 1.268307e+00 9.630365e-01 1.468139e+00 1.692315e+00 1.473882e+00 1.775575e+00 2.010480e+00 1.839599e+00 1.618163e+00 1.409668e+00 1.328542e+00 7.107434e-01
<GCONST> 9.331273e+01
~t "T_d"
<ENDHMM>
~h "n-d+o"
<BEGINHMM>
<NUMSTATES> 5
<STATE> 2
<MEAN> 25
 4.986747e+00 1.173107e+00 -3.532605e-03 -2.869664e-01 -8.792292e-01 -2.943893e-01 -1.157155e-01 -1.781017e+00 -2.767115e+00 -2.582419e+00 -1.706980e+00 -5.448081e-01 -2.492582e-01 7.052330e-01 5.542889e-01 4.937656e-01 3.336083e-01 7.560925e-01 3.487482e-01 9.874161e-02 5.457619e-02 -1.007866e-01 -2.741712e-01 -1.678351e-01 -6.813607e-01
<VARIANCE> 25
 3.575130e+01 4.199368e+01 4.126587e+01 5.860994e+01 5.800882e+01 5.540382e+01 4.170780e+01 4.906739e+01 4.723788e+01 3.940030e+01 2.930230e+01 2.850399e+01 1.251378e+00 1.493562e+00 1.629822e+00 2.081238e+00 2.239027e+00 2.528253e+00 2.284125e+00 2.485779e+00 2.461237e+00 2.372278e+00 2.008663e+00 1.836602e+00 1.659663e+00
<GCONST> 9.990127e+01
<STATE> 3
<MEAN> 25
 4.914427e+00 1.635913e+00 8.481176e-01 5.874320e-01 -1.860407e-01 2.406812e-01 -3.938809e-02 -1.716778e+00 -2.743559e+00 -2.302445e+00 -1.865128e+00 -5.342951e-01 -2.087076e-01 3.739429e-02 2.673025e-01 1.669757e-01 1.145322e-01 1.772111e-01 9.942254e-02 -5.373251e-02 -6.358257e-02 -4.126178e-02 1.807586e-02 1.027398e-01 -1.237136e-01
<VARIANCE> 25
 2.888018e+01 4.287783e+01 4.231509e+01 5.601795e+01 5.643327e+01 5.696796e+01 4.082035e+01 4.643125e+01 4.334551e+01 3.674223e+01 2.845123e+01 2.631162e+01 6.074597e-01 9.825633e-01 1.005929e+00 1.402578e+00 1.643439e+00 1.440409e+00 1.691248e+00 1.775282e+00 1.692227e+00 1.545876e+00 1.368715e+00 1.293374e+00 5.901869e-01
<GCONST> 9.324805e+01
<STATE> 4
<MEAN> 25
 4.336635e+00 1.898943e+00 1.592930e+00 1.054985e+00 7.405771e-02 9.789971e-01 5.451074e-02 -1.993555e+00 -2.809552e+00 -2.274028e+00 -1.686451e+00 -2.280605e-01 4.773585e-02 -5.405355e-01 -1.993422e-02 -3.128903e-02 -5.543578e-02 -4.109922e-01 -2.349472e-01 -2.260227e-01 -2.361541e-01 -3.670364e-05 2.079962e-01 2.329595e-01 4.070511e-01
<VARIANCE> 25
 2.717667e+01 4.477932e+01 4.206721e+01 5.259300e+01 5.149903e+01 5.344878e+01 3.844084e+01 4.642159e+01 4.322847e+01 3.436483e+01 2.569947e+01 2.370034e+01 4.915567e-01 1.268307e+00 9.630365e-01 1.468139e+00 1.692315e+00 1.473882e+00 1.775575e+00 2.010480e+00 1.839599e+00 1.618163e+00 1.409668e+00 1.328542e+00 7.107434e-01
<GCONST> 9.331273e+01
~t "T_d"
<ENDHMM>
~h "n-d+r"
<BEGINHMM>
<NUMSTATES> 5
<STATE> 2
<MEAN> 25
 4.986747e+00 1.173107e+00 -3.532605e-03 -2.869664e-01 -8.792292e-01 -2.943893e-01 -1.157155e-01 -1.781017e+00 -2.767115e+00 -2.582419e+00 -1.706980e+00 -5.448081e-01 -2.492582e-01 7.052330e-01 5.542889e-01 4.937656e-01 3.336083e-01 7.560925e-01 3.487482e-01 9.874161e-02 5.457619e-02 -1.007866e-01 -2.741712e-01 -1.678351e-01 -6.813607e-01
<VARIANCE> 25
 3.575130e+01 4.199368e+01 4.126587e+01 5.860994e+01 5.800882e+01 5.540382e+01 4.170780e+01 4.906739e+01 4.723788e+01 3.940030e+01 2.930230e+01 2.850399e+01 1.251378e+00 1.493562e+00 1.629822e+00 2.081238e+00 2.239027e+00 2.528253e+00 2.284125e+00 2.485779e+00 2.461237e+00 2.372278e+00 2.008663e+00 1.836602e+00 1.659663e+00
<GCONST> 9.990127e+01
<STATE> 3
<MEAN> 25
 4.914427e+00 1.635913e+00 8.481176e-01 5.874320e-01 -1.860407e-01 2.406812e-01 -3.938809e-02 -1.716778e+00 -2.743559e+00 -2.302445e+00 -1.865128e+00 -5.342951e-01 -2.087076e-01 3.739429e-02 2.673025e-01 1.669757e-01 1.145322e-01 1.772111e-01 9.942254e-02 -5.373251e-02 -6.358257e-02 -4.126178e-02 1.807586e-02 1.027398e-01 -1.237136e-01
<VARIANCE> 25
 2.888018e+01 4.287783e+01 4.231509e+01 5.601795e+01 5.643327e+01 5.696796e+01 4.082035e+01 4.643125e+01 4.334551e+01 3.674223e+01 2.845123e+01 2.631162e+01 6.074597e-01 9.825633e-01 1.005929e+00 1.402578e+00 1.643439e+00 1.440409e+00 1.691248e+00 1.775282e+00 1.692227e+00 1.545876e+00 1.368715e+00 1.293374e+00 5.901869e-01
<GCONST> 9.324805e+01
<STATE> 4
<MEAN> 25
 4.336635e+00 1.898943e+00 1.592930e+00 1.054985e+00 7.405771e-02 9.789971e-01 5.451074e-02 -1.993555e+00 -2.809552e+00 -2.274028e+00 -1.686451e+00 -2.280605e-01 4.773585e-02 -5.405355e-01 -1.993422e-02 -3.128903e-02 -5.543578e-02 -4.109922e-01 -2.349472e-01 -2.260227e-01 -2.361541e-01 -3.670364e-05 2.079962e-01 2.329595e-01 4.070511e-01
<VARIANCE> 25
 2.717667e+01 4.477932e+01 4.206721e+01 5.259300e+01 5.149903e+01 5.344878e+01 3.844084e+01 4.642159e+01 4.322847e+01 3.436483e+01 2.569947e+01 2.370034e+01 4.915567e-01 1.268307e+00 9.630365e-01 1.468139e+00 1.692315e+00 1.473882e+00 1.775575e+00 2.010480e+00 1.839599e+00 1.618163e+00 1.409668e+00 1.328542e+00 7.107434e-01
<GCONST> 9.331273e+01
~t "T_d"
<ENDHMM>
~h "n-d+u"
<BEGINHMM>
<NUMSTATES> 5
<STATE> 2
<MEAN> 25
 4.986747e+00 1.173107e+00 -3.532605e-03 -2.869664e-01 -8.792292e-01 -2.943893e-01 -1.157155e-01 -1.781017e+00 -2.767115e+00 -2.582419e+00 -1.706980e+00 -5.448081e-01 -2.492582e-01 7.052330e-01 5.542889e-01 4.937656e-01 3.336083e-01 7.560925e-01 3.487482e-01 9.874161e-02 5.457619e-02 -1.007866e-01 -2.741712e-01 -1.678351e-01 -6.813607e-01
<VARIANCE> 25
 3.575130e+01 4.199368e+01 4.126587e+01 5.860994e+01 5.800882e+01 5.540382e+01 4.170780e+01 4.906739e+01 4.723788e+01 3.940030e+01 2.930230e+01 2.850399e+01 1.251378e+00 1.493562e+00 1.629822e+00 2.081238e+00 2.239027e+00 2.528253e+00 2.284125e+00 2.485779e+00 2.461237e+00 2.372278e+00 2.008663e+00 1.836602e+00 1.659663e+00
<GCONST> 9.990127e+01
<STATE> 3
<MEAN> 25
 4.914427e+00 1.635913e+00 8.481176e-01 5.874320e-01 -1.860407e-01 2.406812e-01 -3.938809e-02 -1.716778e+00 -2.743559e+00 -2.302445e+00 -1.865128e+00 -5.342951e-01 -2.087076e-01 3.739429e-02 2.673025e-01 1.669757e-01 1.145322e-01 1.772111e-01 9.942254e-02 -5.373251e-02 -6.358257e-02 -4.126178e-02 1.807586e-02 1.027398e-01 -1.237136e-01
<VARIANCE> 25
 2.888018e+01 4.287783e+01 4.231509e+01 5.601795e+01 5.643327e+01 5.696796e+01 4.082035e+01 4.643125e+01 4.334551e+01 3.674223e+01 2.845123e+01 2.631162e+01 6.074597e-01 9.825633e-01 1.005929e+00 1.402578e+00 1.643439e+00 1.440409e+00 1.691248e+00 1.775282e+00 1.692227e+00 1.545876e+00 1.368715e+00 1.293374e+00 5.901869e-01
<GCONST> 9.324805e+01
<STATE> 4
<MEAN> 25
 4.336635e+00 1.898943e+00 1.592930e+00 1.054985e+00 7.405771e-02 9.789971e-01 5.451074e-02 -1.993555e+00 -2.809552e+00 -2.274028e+00 -1.686451e+00 -2.280605e-01 4.773585e-02 -5.405355e-01 -1.993422e-02 -3.128903e-02 -5.543578e-02 -4.109922e-01 -2.349472e-01 -2.260227e-01 -2.361541e-01 -3.670364e-05 2.079962e-01 2.329595e-01 4.070511e-01
<VARIANCE> 25
 2.717667e+01 4.477932e+01 4.206721e+01 5.259300e+01 5.149903e+01 5.344878e+01 3.844084e+01 4.642159e+01 4.322847e+01 3.436483e+01 2.569947e+01 2.370034e+01 4.915567e-01 1.268307e+00 9.630365e-01 1.468139e+00 1.692315e+00 1.473882e+00 1.775575e+00 2.010480e+00 1.839599e+00 1.618163e+00 1.409668e+00 1.328542e+00 7.107434e-01
<GCONST> 9.331273e+01
~t "T_d"
<ENDHMM>
~h "n-e+a"
<BEGINHMM>
<NUMSTATES> 5
<STATE> 2
<MEAN> 25
 4.917822e+00 -3.046909e+00 -7.860230e-01 1.961976e+00 3.296882e+00 -3.095960e+00 -4.445966e+00 -4.378197e+00 -4.194638e+00 -1.446952e+00 1.146220e-01 1.648807e-01 1.062938e+00 -1.285595e+00 -6.981800e-01 4.423747e-01 5.001229e-01 -1.895295e+00 -1.787762e+00 -1.308817e+00 -1.084860e+00 1.344622e-01 6.617222e-01 3.701210e-01 1.670173e+00
<VARIANCE> 25
 3.577217e+01 3.706077e+01 4.774310e+01 6.015227e+01 4.925949e+01 6.036604e+01 5.010396e+01 4.977269e+01 4.858726e+01 3.950971e+01 3.013842e+01 2.473536e+01 2.384392e+00 2.958043e+00 2.685448e+00 3.858023e+00 3.340221e+00 5.064232e+00 4.063103e+00 3.681123e+00 4.037725e+00 4.174648e+00 3.332788e+00 2.898063e+00 2.226966e+00
<GCONST> 1.068105e+02
<STATE> 3
<MEAN> 25
 7.191195e+00 -7.001473e+00 -2.328277e+00 2.836691e+00 3.888689e+00 -7.911126e+00 -8.482172e+00 -6.657192e+00 -5.470276e+00 -1.285404e-01 1.987994e+00 7.147580e-01 8.514885e-02 -4.249433e-01 -1.496204e-01 2.818093e-01 1.203487e-01 -6.073316e-01 -4.420330e-01 -1.406531e-01 1.603031e-01 5.093133e-01 3.347531e-01 -4.041983e-02 2.952766e-01
<VARIANCE> 25
 2.837927e+01 3.550758e+01 4.376701e+01 6.339727e+01 5.782299e+01 6.153004e+01 4.445435e+01 4.665985e+01 4.438187e+01 4.603452e+01 3.686113e+01 3.249733e+01 5.579238e-01 9.633060e-01 1.396090e+00 1.826277e+00 1.583154e+00 2.003756e+00 1.982185e+00 1.856537e+00 2.013892e+00 2.006657e+00 1.751121e+00 1.508502e+00 5.828047e-01
<GCONST> 9.591582e+01
<STATE> 4
<MEAN> 25
 5.895019e+00 -4.724988e+00 -1.197292e+00 3.906052e+00 3.870449e+00 -6.545651e+00 -8.215060e+00 -6.679025e+00 -4.172563e+00 5.337154e-01 9.279272e-01 -6.742178e-01 -3.232698e-01 7.992764e-01 3.300467e-01 -6.339286e-02 7.912491e-02 1.004552e+00 6.088396e-01 3.772415e-01 3.436322e-01 -1.313366e-01 -2.720630e-01 -1.298955e-01 -7.956876e-01
<VARIANCE> 25
 2.029749e+01 3.066547e+01 3.368494e+01 5.057070e+01 4.296806e+01 5.593891e+01 3.659196e+01 3.710094e+01 4.034227e+01 3.575679e+01 3.262199e+01 2.925796e+01 5.569103e-01 1.011105e+00 1.171097e+00 1.448238e+00 1.440968e+00 2.011663e+00 1.814593e+00 1.739066e+00 1.905525e+00 1.867028e+00 1.539982e+00 1.274082e+00 7.538318e-01
<GCONST> 9.278246e+01
~t "T_e"
<ENDHMM>
~h "n-e+g"
<BEGINHMM>
<NUMSTATES> 5
<STATE> 2
<MEAN> 25
 4.917822e+00 -3.046909e+00 -7.860230e-01 1.961976e+00 3.296882e+00 -3.095960e+00 -4.445966e+00 -4.378197e+00 -4.194638e+00 -1.446952e+00 1.146220e-01 1.648807e-01 1.062938e+00 -1.285595e+00 -6.981800e-01 4.423747e-01 5.001229e-01 -1.895295e+00 -1.787762e+00 -1.308817e+00 -1.084860e+00 1.344622e-01 6.617222e-01 3.701210e-01 1.670173e+00
<VARIANCE> 25
 3.577217e+01 3.706077e+01 4.774310e+01 6.015227e+01 4.925949e+01 6.036604e+01 5.010396e+01 4.977269e+01 4.858726e+01 3.950971e+01 3.013842e+01 2.473536e+01 2.384392e+00 2.958043e+00 2.685448e+00 3.858023e+00 3.340221e+00 5.064232e+00 4.063103e+00 3.681123e+00 4.037725e+00 4.174648e+00 3.332788e+00 2.898063e+00 2.226966e+00
<GCONST> 1.068105e+02
<STATE> 3
<MEAN> 25
 7.191195e+00 -7.001473e+00 -2.328277e+00 2.836691e+00 3.888689e+00 -7.911126e+00 -8.482172e+00 -6.657192e+00 -5.470276e+00 -1.285404e-01 1.987994e+00 7.147580e-01 8.514885e-02 -4.249433e-01 -1.496204e-01 2.818093e-01 1.203487e-01 -6.073316e-01 -4.420330e-01 -1.406531e-01 1.603031e-01 5.093133e-01 3.347531e-01 -4.041983e-02 2.952766e-01
<VARIANCE> 25
 2.837927e+01 3.550758e+01 4.376701e+01 6.339727e+01 5.782299e+01 6.153004e+01 4.445435e+01 4.665985e+01 4.438187e+01 4.603452e+01 3.686113e+01 3.249733e+01 5.579238e-01 9.633060e-01 1.396090e+00 1.826277e+00 1.583154e+00 2.003756e+00 1.982185e+00 1.856537e+00 2.013892e+00 2.006657e+00 1.751121e+00 1.508502e+00 5.828047e-01
<GCONST> 9.591582e+01
<STATE> 4
<MEAN> 25
 5.895019e+00 -4.724988e+00 -1.197292e+00 3.906052e+00 3.870449e+00 -6.545651e+00 -8.215060e+00 -6.679025e+00 -4.172563e+00 5.337154e-01 9.279272e-01 -6.742178e-01 -3.232698e-01 7.992764e-01 3.300467e-01 -6.339286e-02 7.912491e-02 1.004552e+00 6.088396e-01 3.772415e-01 3.436322e-01 -1.313366e-01 -2.720630e-01 -1.298955e-01 -7.956876e-01
<VARIANCE> 25
 2.029749e+01 3.066547e+01 3.368494e+01 5.057070e+01 4.296806e+01 5.593891e+01 3.659196e+01 3.710094e+01 4.034227e+01 3.575679e+01 3.262199e+01 2.925796e+01 5.569103e-01 1.011105e+00 1.171097e+00 1.448238e+00 1.440968e+00 2.011663e+00 1.814593e+00 1.739066e+00 1.905525e+00 1.867028e+00 1.539982e+00 1.274082e+00 7.538318e-01
<GCONST> 9.278246e+01
~t "T_e"
<ENDHMM>
~h "n-e+m"
<BEGINHMM>
<NUMSTATES> 5
<STATE> 2
<MEAN> 25
 4.917822e+00 -3.046909e+00 -7.860230e-01 1.961976e+00 3.296882e+00 -3.095960e+00 -4.445966e+00 -4.378197e+00 -4.194638e+00 -1.446952e+00 1.146220e-01 1.648807e-01 1.062938e+00 -1.285595e+00 -6.981800e-01 4.423747e-01 5.001229e-01 -1.895295e+00 -1.787762e+00 -1.308817e+00 -1.084860e+00 1.344622e-01 6.617222e-01 3.701210e-01 1.670173e+00
<VARIANCE> 25
 3.577217e+01 3.706077e+01 4.774310e+01 6.015227e+01 4.925949e+01 6.036604e+01 5.010396e+01 4.977269e+01 4.858726e+01 3.950971e+01 3.013842e+01 2.473536e+01 2.384392e+00 2.958043e+00 2.685448e+00 3.858023e+00 3.340221e+00 5.064232e+00 4.063103e+00 3.681123e+00 4.037725e+00 4.174648e+00 3.332788e+00 2.898063e+00 2.226966e+00
<GCONST> 1.068105e+02
<STATE> 3
<MEAN> 25
 7.191195e+00 -7.001473e+00 -2.328277e+00 2.836691e+00 3.888689e+00 -7.911126e+00 -8.482172e+00 -6.657192e+00 -5.470276e+00 -1.285404e-01 1.987994e+00 7.147580e-01 8.514885e-02 -4.249433e-01 -1.496204e-01 2.818093e-01 1.203487e-01 -6.073316e-01 -4.420330e-01 -1.406531e-01 1.603031e-01 5.093133e-01 3.347531e-01 -4.041983e-02 2.952766e-01
<VARIANCE> 25
 2.837927e+01 3.550758e+01 4.376701e+01 6.339727e+01 5.782299e+01 6.153004e+01 4.445435e+01 4.665985e+01 4.438187e+01 4.603452e+01 3.686113e+01 3.249733e+01 5.579238e-01 9.633060e-01 1.396090e+00 1.826277e+00 1.583154e+00 2.003756e+00 1.982185e+00 1.856537e+00 2.013892e+00 2.006657e+00 1.751121e+00 1.508502e+00 5.828047e-01
<GCONST> 9.591582e+01
<STATE> 4
<MEAN> 25
 5.895019e+00 -4.724988e+00 -1.197292e+00 3.906052e+00 3.870449e+00 -6.545651e+00 -8.215060e+00 -6.679025e+00 -4.172563e+00 5.337154e-01 9.279272e-01 -6.742178e-01 -3.232698e-01 7.992764e-01 3.300467e-01 -6.339286e-02 7.912491e-02 1.004552e+00 6.088396e-01 3.772415e-01 3.436322e-01 -1.313366e-01 -2.720630e-01 -1.298955e-01 -7.956876e-01
<VARIANCE> 25
 2.029749e+01 3.066547e+01 3.368494e+01 5.057070e+01 4.296806e+01 5.593891e+01 3.659196e+01 3.710094e+01 4.034227e+01 3.575679e+01 3.262199e+01 2.925796e+01 5.569103e-01 1.011105e+00 1.171097e+00 1.448238e+00 1.440968e+00 2.011663e+00 1.814593e+00 1.739066e+00 1.905525e+00 1.867028e+00 1.539982e+00 1.274082e+00 7.538318e-01
<GCONST> 9.278246e+01
~t "T_e"
<ENDHMM>
~h "n-e+n"
<BEGINHMM>
<NUMSTATES> 5
<STATE> 2
<MEAN> 25
 4.917822e+00 -3.046909e+00 -7.860230e-01 1.961976e+00 3.296882e+00 -3.095960e+00 -4.445966e+00 -4.378197e+00 -4.194638e+00 -1.446952e+00 1.146220e-01 1.648807e-01 1.062938e+00 -1.285595e+00 -6.981800e-01 4.423747e-01 5.001229e-01 -1.895295e+00 -1.787762e+00 -1.308817e+00 -1.084860e+00 1.344622e-01 6.617222e-01 3.701210e-01 1.670173e+00
<VARIANCE> 25
 3.577217e+01 3.706077e+01 4.774310e+01 6.015227e+01 4.925949e+01 6.036604e+01 5.010396e+01 4.977269e+01 4.858726e+01 3.950971e+01 3.013842e+01 2.473536e+01 2.384392e+00 2.958043e+00 2.685448e+00 3.858023e+00 3.340221e+00 5.064232e+00 4.063103e+00 3.681123e+00 4.037725e+00 4.174648e+00 3.332788e+00 2.898063e+00 2.226966e+00
<GCONST> 1.068105e+02
<STATE> 3
<MEAN> 25
 7.191195e+00 -7.001473e+00 -2.328277e+00 2.836691e+00 3.888689e+00 -7.911126e+00 -8.482172e+00 -6.657192e+00 -5.470276e+00 -1.285404e-01 1.987994e+00 7.147580e-01 8.514885e-02 -4.249433e-01 -1.496204e-01 2.818093e-01 1.203487e-01 -6.073316e-01 -4.420330e-01 -1.406531e-01 1.603031e-01 5.093133e-01 3.347531e-01 -4.041983e-02 2.952766e-01
<VARIANCE> 25
 2.837927e+01 3.550758e+01 4.376701e+01 6.339727e+01 5.782299e+01 6.153004e+01 4.445435e+01 4.665985e+01 4.438187e+01 4.603452e+01 3.686113e+01 3.249733e+01 5.579238e-01 9.633060e-01 1.396090e+00 1.826277e+00 1.583154e+00 2.003756e+00 1.982185e+00 1.856537e+00 2.013892e+00 2.006657e+00 1.751121e+00 1.508502e+00 5.828047e-01
<GCONST> 9.591582e+01
<STATE> 4
<MEAN> 25
 5.895019e+00 -4.724988e+00 -1.197292e+00 3.906052e+00 3.870449e+00 -6.545651e+00 -8.215060e+00 -6.679025e+00 -4.172563e+00 5.337154e-01 9.279272e-01 -6.742178e-01 -3.232698e-01 7.992764e-01 3.300467e-01 -6.339286e-02 7.912491e-02 1.004552e+00 6.088396e-01 3.772415e-01 3.436322e-01 -1.313366e-01 -2.720630e-01 -1.298955e-01 -7.956876e-01
<VARIANCE> 25
 2.029749e+01 3.066547e+01 3.368494e+01 5.057070e+01 4.296806e+01 5.593891e+01 3.659196e+01 3.710094e+01 4.034227e+01 3.575679e+01 3.262199e+01 2.925796e+01 5.569103e-01 1.011105e+00 1.171097e+00 1.448238e+00 1.440968e+00 2.011663e+00 1.814593e+00 1.739066e+00 1.905525e+00 1.867028e+00 1.539982e+00 1.274082e+00 7.538318e-01
<GCONST> 9.278246e+01
~t "T_e"
<ENDHMM>
~h "n-e+r"
<BEGINHMM>
<NUMSTATES> 5
<STATE> 2
<MEAN> 25
 4.917822e+00 -3.046909e+00 -7.860230e-01 1.961976e+00 3.296882e+00 -3.095960e+00 -4.445966e+00 -4.378197e+00 -4.194638e+00 -1.446952e+00 1.146220e-01 1.648807e-01 1.062938e+00 -1.285595e+00 -6.981800e-01 4.423747e-01 5.001229e-01 -1.895295e+00 -1.787762e+00 -1.308817e+00 -1.084860e+00 1.344622e-01 6.617222e-01 3.701210e-01 1.670173e+00
<VARIANCE> 25
 3.577217e+01 3.706077e+01 4.774310e+01 6.015227e+01 4.925949e+01 6.036604e+01 5.010396e+01 4.977269e+01 4.858726e+01 3.950971e+01 3.013842e+01 2.473536e+01 2.384392e+00 2.958043e+00 2.685448e+00 3.858023e+00 3.340221e+00 5.064232e+00 4.063103e+00 3.681123e+00 4.037725e+00 4.174648e+00 3.332788e+00 2.898063e+00 2.226966e+00
<GCONST> 1.068105e+02
<STATE> 3
<MEAN> 25
 7.191195e+00 -7.001473e+00 -2.328277e+00 2.836691e+00 3.888689e+00 -7.911126e+00 -8.482172e+00 -6.657192e+00 -5.470276e+00 -1.285404e-01 1.987994e+00 7.147580e-01 8.514885e-02 -4.249433e-01 -1.496204e-01 2.818093e-01 1.203487e-01 -6.073316e-01 -4.420330e-01 -1.406531e-01 1.603031e-01 5.093133e-01 3.347531e-01 -4.041983e-02 2.952766e-01
<VARIANCE> 25
 2.837927e+01 3.550758e+01 4.376701e+01 6.339727e+01 5.782299e+01 6.153004e+01 4.445435e+01 4.665985e+01 4.438187e+01 4.603452e+01 3.686113e+01 3.249733e+01 5.579238e-01 9.633060e-01 1.396090e+00 1.826277e+00 1.583154e+00 2.003756e+00 1.982185e+00 1.856537e+00 2.013892e+00 2.006657e+00 1.751121e+00 1.508502e+00 5.828047e-01
<GCONST> 9.591582e+01
<STATE> 4
<MEAN> 25
 5.895019e+00 -4.724988e+00 -1.197292e+00 3.906052e+00 3.870449e+00 -6.545651e+00 -8.215060e+00 -6.679025e+00 -4.172563e+00 5.337154e-01 9.279272e-01 -6.742178e-01 -3.232698e-01 7.992764e-01 3.300467e-01 -6.339286e-02 7.912491e-02 1.004552e+00 6.088396e-01 3.772415e-01 3.436322e-01 -1.313366e-01 -2.720630e-01 -1.298955e-01 -7.956876e-01
<VARIANCE> 25
 2.029749e+01 3.066547e+01 3.368494e+01 5.057070e+01 4.296806e+01 5.593891e+01 3.659196e+01 3.710094e+01 4.034227e+01 3.575679e+01 3.262199e+01 2.925796e+01 5.569103e-01 1.011105e+00 1.171097e+00 1.448238e+00 1.440968e+00 2.011663e+00 1.814593e+00 1.739066e+00 1.905525e+00 1.867028e+00 1.539982e+00 1.274082e+00 7.538318e-01
<GCONST> 9.278246e+01
~t "T_e"
<ENDHMM>
~h "n-e+s"
<BEGINHMM>
<NUMSTATES> 5
<STATE> 2
<MEAN> 25
 4.917822e+00 -3.046909e+00 -7.860230e-01 1.961976e+00 3.296882e+00 -3.095960e+00 -4.445966e+00 -4.378197e+00 -4.194638e+00 -1.446952e+00 1.146220e-01 1.648807e-01 1.062938e+00 -1.285595e+00 -6.981800e-01 4.423747e-01 5.001229e-01 -1.895295e+00 -1.787762e+00 -1.308817e+00 -1.084860e+00 1.344622e-01 6.617222e-01 3.701210e-01 1.670173e+00
<VARIANCE> 25
 3.577217e+01 3.706077e+01 4.774310e+01 6.015227e+01 4.925949e+01 6.036604e+01 5.010396e+01 4.977269e+01 4.858726e+01 3.950971e+01 3.013842e+01 2.473536e+01 2.384392e+00 2.958043e+00 2.685448e+00 3.858023e+00 3.340221e+00 5.064232e+00 4.063103e+00 3.681123e+00 4.037725e+00 4.174648e+00 3.332788e+00 2.898063e+00 2.226966e+00
<GCONST> 1.068105e+02
<STATE> 3
<MEAN> 25
 7.191195e+00 -7.001473e+00 -2.328277e+00 2.836691e+00 3.888689e+00 -7.911126e+00 -8.482172e+00 -6.657192e+00 -5.470276e+00 -1.285404e-01 1.987994e+00 7.147580e-01 8.514885e-02 -4.249433e-01 -1.496204e-01 2.818093e-01 1.203487e-01 -6.073316e-01 -4.420330e-01 -1.406531e-01 1.603031e-01 5.093133e-01 3.347531e-01 -4.041983e-02 2.952766e-01
<VARIANCE> 25
 2.837927e+01 3.550758e+01 4.376701e+01 6.339727e+01 5.782299e+01 6.153004e+01 4.445435e+01 4.665985e+01 4.438187e+01 4.603452e+01 3.686113e+01 3.249733e+01 5.579238e-01 9.633060e-01 1.396090e+00 1.826277e+00 1.583154e+00 2.003756e+00 1.982185e+00 1.856537e+00 2.013892e+00 2.006657e+00 1.751121e+00 1.508502e+00 5.828047e-01
<GCONST> 9.591582e+01
<STATE> 4
<MEAN> 25
 5.895019e+00 -4.724988e+00 -1.197292e+00 3.906052e+00 3.870449e+00 -6.545651e+00 -8.215060e+00 -6.679025e+00 -4.172563e+00 5.337154e-01 9.279272e-01 -6.742178e-01 -3.232698e-01 7.992764e-01 3.300467e-01 -6.339286e-02 7.912491e-02 1.004552e+00 6.088396e-01 3.772415e-01 3.436322e-01 -1.313366e-01 -2.720630e-01 -1.298955e-01 -7.956876e-01
<VARIANCE> 25
 2.029749e+01 3.066547e+01 3.368494e+01 5.057070e+01 4.296806e+01 5.593891e+01 3.659196e+01 3.710094e+01 4.034227e+01 3.575679e+01 3.262199e+01 2.925796e+01 5.569103e-01 1.011105e+00 1.171097e+00 1.448238e+00 1.440968e+00 2.011663e+00 1.814593e+00 1.739066e+00 1.905525e+00 1.867028e+00 1.539982e+00 1.274082e+00 7.538318e-01
<GCONST> 9.278246e+01
~t "T_e"
<ENDHMM>
~h "n-e+t"
<BEGINHMM>
<NUMSTATES> 5
<STATE> 2
<MEAN> 25
 4.917822e+00 -3.046909e+00 -7.860230e-01 1.961976e+00 3.296882e+00 -3.095960e+00 -4.445966e+00 -4.378197e+00 -4.194638e+00 -1.446952e+00 1.146220e-01 1.648807e-01 1.062938e+00 -1.285595e+00 -6.981800e-01 4.423747e-01 5.001229e-01 -1.895295e+00 -1.787762e+00 -1.308817e+00 -1.084860e+00 1.344622e-01 6.617222e-01 3.701210e-01 1.670173e+00
<VARIANCE> 25
 3.577217e+01 3.706077e+01 4.774310e+01 6.015227e+01 4.925949e+01 6.036604e+01 5.010396e+01 4.977269e+01 4.858726e+01 3.950971e+01 3.013842e+01 2.473536e+01 2.384392e+00 2.958043e+00 2.685448e+00 3.858023e+00 3.340221e+00 5.064232e+00 4.063103e+00 3.681123e+00 4.037725e+00 4.174648e+00 3.332788e+00 2.898063e+00 2.226966e+00
<GCONST> 1.068105e+02
<STATE> 3
<MEAN> 25
 7.191195e+00 -7.001473e+00 -2.328277e+00 2.836691e+00 3.888689e+00 -7.911126e+00 -8.482172e+00 -6.657192e+00 -5.470276e+00 -1.285404e-01 1.987994e+00 7.147580e-01 8.514885e-02 -4.249433e-01 -1.496204e-01 2.818093e-01 1.203487e-01 -6.073316e-01 -4.420330e-01 -1.406531e-01 1.603031e-01 5.093133e-01 3.347531e-01 -4.041983e-02 2.952766e-01
<VARIANCE> 25
 2.837927e+01 3.550758e+01 4.376701e+01 6.339727e+01 5.782299e+01 6.153004e+01 4.445435e+01 4.665985e+01 4.438187e+01 4.603452e+01 3.686113e+01 3.249733e+01 5.579238e-01 9.633060e-01 1.396090e+00 1.826277e+00 1.583154e+00 2.003756e+00 1.982185e+00 1.856537e+00 2.013892e+00 2.006657e+00 1.751121e+00 1.508502e+00 5.828047e-01
<GCONST> 9.591582e+01
<STATE> 4
<MEAN> 25
 5.895019e+00 -4.724988e+00 -1.197292e+00 3.906052e+00 3.870449e+00 -6.545651e+00 -8.215060e+00 -6.679025e+00 -4.172563e+00 5.337154e-01 9.279272e-01 -6.742178e-01 -3.232698e-01 7.992764e-01 3.300467e-01 -6.339286e-02 7.912491e-02 1.004552e+00 6.088396e-01 3.772415e-01 3.436322e-01 -1.313366e-01 -2.720630e-01 -1.298955e-01 -7.956876e-01
<VARIANCE> 25
 2.029749e+01 3.066547e+01 3.368494e+01 5.057070e+01 4.296806e+01 5.593891e+01 3.659196e+01 3.710094e+01 4.034227e+01 3.575679e+01 3.262199e+01 2.925796e+01 5.569103e-01 1.011105e+00 1.171097e+00 1.448238e+00 1.440968e+00 2.011663e+00 1.814593e+00 1.739066e+00 1.905525e+00 1.867028e+00 1.539982e+00 1.274082e+00 7.538318e-01
<GCONST> 9.278246e+01
~t "T_e"
<ENDHMM>
~h "a-k+a"
<BEGINHMM>
<NUMSTATES> 5
<STATE> 2
<MEAN> 25
 -2.312355e-01 1.961118e+00 -8.483832e-01 1.450593e+00 1.457601e+00 2.408843e+00 -4.597814e-01 -1.728608e+00 -1.790877e-01 8.893732e-01 6.985575e-01 -3.931130e-01 -7.720011e-01 -7.842530e-02 -5.205820e-01 -9.070294e-01 -7.591282e-01 3.915028e-01 7.773291e-01 4.507853e-01 3.840126e-01 1.228299e-01 3.643597e-01 2.747205e-01 -4.715713e-01
<VARIANCE> 25
 2.273778e+01 2.853440e+01 3.812323e+01 4.159114e+01 4.112223e+01 3.378465e+01 3.233773e+01 3.354189e+01 3.298198e+01 2.542086e+01 2.348176e+01 2.239305e+01 1.604517e+00 4.217481e+00 2.607781e+00 4.085482e+00 3.966224e+00 4.291962e+00 3.567861e+00 3.176125e+00 3.109658e+00 2.588859e+00 2.471189e+00 2.213985e+00 5.200278e+00
<GCONST> 1.019870e+02
<STATE> 3
<MEAN> 25
 -1.427904e+00 -2.522660e+00 -2.585010e+00 -5.629199e+00 -8.787394e-01 -3.528969e-01 2.678309e+00 -7.877849e-01 7.780784e-01 5.548463e-01 2.357178e+00 4.609265e-01 3.902499e-01 -8.271015e-01 2.816469e-01 -1.033817e+00 -3.860129e-01 -9.675173e-01 2.915441e-01 -2.320813e-02 -3.249466e-01 -1.045423e-01 2.656671e-02 -1.464451e-01 1.487963e+00
<VARIANCE> 25
 2.691691e+01 7.003792e+01 5.256176e+01 6.985202e+01 8.061441e+01 6.468961e+01 6.198301e+01 6.249512e+01 4.851157e+01 4.706096e+01 4.291992e+01 3.999689e+01 2.103719e+00 4.420229e+00 3.587986e+00 5.717131e+00 5.819118e+00 5.228204e+00 4.675033e+00 4.933011e+00 4.070527e+00 3.372667e+00 3.275937e+00 3.025996e+00 4.842046e+00
<GCONST> 1.119947e+02
<STATE> 4
<MEAN> 25
 1.419271e+00 -3.539429e-01 4.778248e-01 -3.932618e+00 -2.930405e+00 -2.244887e+00 1.284940e+00 5.541340e-02 -5.615529e-01 7.321874e-01 8.684695e-01 -6.447970e-01 1.883814e+00 8.443043e-01 8.145797e-01 1.344449e+00 6.578749e-02 -1.397391e+00 -1.716680e+00 -6.972357e-01 -6.383767e-01 -3.624772e-01 -5.773226e-01 -2.933102e-01 8.197570e-01
<VARIANCE> 25
 3.267832e+01 6.014273e+01 4.649751e+01 6.060592e+01 7.995394e+01 5.549017e+01 4.596269e+01 5.674486e+01 4.103881e+01 2.995664e+01 2.814278e+01 2.626648e+01 2.782798e+00 2.967987e+00 2.976174e+00 4.358909e+00 4.870712e+00 5.839102e+00 4.260954e+00 3.580991e+00 3.656567e+00 3.403094e+00 3.130402e+00 2.638721e+00 2.321630e+00
<GCONST> 1.076801e+02
~t "T_k"
<ENDHMM>
~h "x-u+d"
<BEGINHMM>
<NUMSTATES> 5
<STATE> 2
<MEAN> 25
 5.841117e+00 4.888117e+00 2.686566e+00 -7.820466e-01 -3.509169e+00 -4.456264e+00 -1.667651e+00 1.072235e+00 -1.711213e+00 -3.398537e+00 -2.842877e+00 -2.182095e+00 1.576147e+00 1.045471e+00 4.197832e-01 -3.047917e-01 -1.355020e+00 -2.229248e+00 -1.097899e+00 2.456878e-01 -2.158980e-01 -6.960759e-01 -8.961666e-01 -8.212398e-01 8.114035e-01
<VARIANCE> 25
 3.111406e+01 4.019774e+01 4.504975e+01 4.146431e+01 4.849731e+01 5.661042e+01 4.281160e+01 4.095763e+01 5.025994e+01 4.244762e+01 3.143690e+01 2.546618e+01 2.317891e+00 3.149550e+00 3.087908e+00 3.151040e+00 3.396149e+00 4.573932e+00 4.195843e+00 4.035922e+00 4.034451e+00 3.409064e+00 3.195040e+00 2.762604e+00 1.784756e+00
<GCONST> 1.055627e+02
<STATE> 3
<MEAN> 25
 8.658910e+00 5.000401e+00 2.954348e+00 -2.671335e+00 -7.457289e+00 -1.043769e+01 -3.682248e+00 2.342003e+00 -1.993913e+00 -4.053403e+00 -3.655970e+00 -3.858294e+00 3.619523e-01 -4.174033e-01 -5.004941e-01 -5.413764e-01 -3.661138e-01 -3.691237e-01 1.985084e-01 6.194838e-01 2.091379e-01 -3.094780e-01 -4.365371e-01 -2.890210e-01 4.863066e-01
<VARIANCE> 25
 1.982055e+01 3.754977e+01 4.485072e+01 4.602500e+01 4.835411e+01 5.230594e+01 4.533890e+01 4.689768e+01 6.356376e+01 4.307386e+01 3.556441e+01 3.444476e+01 5.694164e-01 2.171613e+00 2.316406e+00 1.907328e+00 2.369149e+00 3.386717e+00 2.927253e+00 3.053224e+00 2.962884e+00 2.837181e+00 2.662840e+00 2.209183e+00 9.819031e-01
<GCONST> 1.005687e+02
<STATE> 4
<MEAN> 25
 7.936549e+00 5.316041e+00 2.239468e+00 -2.040418e+00 -5.537446e+00 -6.998611e+00 -2.096663e+00 2.982105e+00 -1.124920e+00 -4.924550e+00 -4.786534e+00 -3.909861e+00 -1.936503e-01 -3.466140e-01 -3.004697e-01 2.804921e-01 7.471921e-01 1.043675e+00 4.173047e-01 -2.147343e-01 -1.894316e-01 -7.248510e-02 1.116081e-02 1.502710e-01 -1.055882e-01
<VARIANCE> 25
 1.968233e+01 3.080829e+01 3.984565e+01 3.763365e+01 3.553752e+01 4.067476e+01 4.069976e+01 3.915368e+01 5.144368e+01 3.819278e+01 3.066512e+01 2.631176e+01 3.753779e-01 1.220878e+00 1.362571e+00 1.493957e+00 2.004738e+00 2.727168e+00 2.026844e+00 2.105258e+00 2.403310e+00 2.200738e+00 1.975419e+00 1.823615e+00 5.097307e-01
<GCONST> 9.394715e+01
~t "T_u"
<ENDHMM>
~h "x-u+g"
<BEGINHMM>
<NUMSTATES> 5
<STATE> 2
<MEAN> 25
 5.841117e+00 4.888117e+00 2.686566e+00 -7.820466e-01 -3.509169e+00 -4.456264e+00 -1.667651e+00 1.072235e+00 -1.711213e+00 -3.398537e+00 -2.842877e+00 -2.182095e+00 1.576147e+00 1.045471e+00 4.197832e-01 -3.047917e-01 -1.355020e+00 -2.229248e+00 -1.097899e+00 2.456878e-01 -2.158980e-01 -6.960759e-01 -8.961666e-01 -8.212398e-01 8.114035e-01
<VARIANCE> 25
 3.111406e+01 4.019774e+01 4.504975e+01 4.146431e+01 4.849731e+01 5.661042e+01 4.281160e+01 4.095763e+01 5.025994e+01 4.244762e+01 3.143690e+01 2.546618e+01 2.317891e+00 3.149550e+00 3.087908e+00 3.151040e+00 3.396149e+00 4.573932e+00 4.195843e+00 4.035922e+00 4.034451e+00 3.409064e+00 3.195040e+00 2.762604e+00 1.784756e+00
<GCONST> 1.055627e+02
<STATE> 3
<MEAN> 25
 8.658910e+00 5.000401e+00 2.954348e+00 -2.671335e+00 -7.457289e+00 -1.043769e+01 -3.682248e+00 2.342003e+00 -1.993913e+00 -4.053403e+00 -3.655970e+00 -3.858294e+00 3.619523e-01 -4.174033e-01 -5.004941e-01 -5.413764e-01 -3.661138e-01 -3.691237e-01 1.985084e-01 6.194838e-01 2.091379e-01 -3.094780e-01 -4.365371e-01 -2.890210e-01 4.863066e-01
<VARIANCE> 25
 1.982055e+01 3.754977e+01 4.485072e+01 4.602500e+01 4.835411e+01 5.230594e+01 4.533890e+01 4.689768e+01 6.356376e+01 4.307386e+01 3.556441e+01 3.444476e+01 5.694164e-01 2.171613e+00 2.316406e+00 1.907328e+00 2.369149e+00 3.386717e+00 2.927253e+00 3.053224e+00 2.962884e+00 2.837181e+00 2.662840e+00 2.209183e+00 9.819031e-01
<GCONST> 1.005687e+02
<STATE> 4
<MEAN> 25
 7.936549e+00 5.316041e+00 2.239468e+00 -2.040418e+00 -5.537446e+00 -6.998611e+00 -2.096663e+00 2.982105e+00 -1.124920e+00 -4.924550e+00 -4.786534e+00 -3.909861e+00 -1.936503e-01 -3.466140e-01 -3.004697e-01 2.804921e-01 7.471921e-01 1.043675e+00 4.173047e-01 -2.147343e-01 -1.894316e-01 -7.248510e-02 1.116081e-02 1.502710e-01 -1.055882e-01
<VARIANCE> 25
 1.968233e+01 3.080829e+01 3.984565e+01 3.763365e+01 3.553752e+01 4.067476e+01 4.069976e+01 3.915368e+01 5.144368e+01 3.819278e+01 3.066512e+01 2.631176e+01 3.753779e-01 1.220878e+00 1.362571e+00 1.493957e+00 2.004738e+00 2.727168e+00 2.026844e+00 2.105258e+00 2.403310e+00 2.200738e+00 1.975419e+00 1.823615e+00 5.097307e-01
<GCONST> 9.394715e+01
~t "T_u"
<ENDHMM>
~h "a-k+e"
<BEGINHMM>
<NUMSTATES> 5
<STATE> 2
<MEAN> 25
 -2.312355e-01 1.961118e+00 -8.483832e-01 1.450593e+00 1.457601e+00 2.408843e+00 -4.597814e-01 -1.728608e+00 -1.790877e-01 8.893732e-01 6.985575e-01 -3.931130e-01 -7.720011e-01 -7.842530e-02 -5.205820e-01 -9.070294e-01 -7.591282e-01 3.915028e-01 7.773291e-01 4.507853e-01 3.840126e-01 1.228299e-01 3.643597e-01 2.747205e-01 -4.715713e-01
<VARIANCE> 25
 2.273778e+01 2.853440e+01 3.812323e+01 4.159114e+01 4.112223e+01 3.378465e+01 3.233773e+01 3.354189e+01 3.298198e+01 2.542086e+01 2.348176e+01 2.239305e+01 1.604517e+00 4.217481e+00 2.607781e+00 4.085482e+00 3.966224e+00 4.291962e+00 3.567861e+00 3.176125e+00 3.109658e+00 2.588859e+00 2.471189e+00 2.213985e+00 5.200278e+00
<GCONST> 1.019870e+02
<STATE> 3
<MEAN> 25
 -1.427904e+00 -2.522660e+00 -2.585010e+00 -5.629199e+00 -8.787394e-01 -3.528969e-01 2.678309e+00 -7.877849e-01 7.780784e-01 5.548463e-01 2.357178e+00 4.609265e-01 3.902499e-01 -8.271015e-01 2.816469e-01 -1.033817e+00 -3.860129e-01 -9.675173e-01 2.915441e-01 -2.320813e-02 -3.249466e-01 -1.045423e-01 2.656671e-02 -1.464451e-01 1.487963e+00
<VARIANCE> 25
 2.691691e+01 7.003792e+01 5.256176e+01 6.985202e+01 8.061441e+01 6.468961e+01 6.198301e+01 6.249512e+01 4.851157e+01 4.706096e+01 4.291992e+01 3.999689e+01 2.103719e+00 4.420229e+00 3.587986e+00 5.717131e+00 5.819118e+00 5.228204e+00 4.675033e+00 4.933011e+00 4.070527e+00 3.372667e+00 3.275937e+00 3.025996e+00 4.842046e+00
<GCONST> 1.119947e+02
<STATE> 4
<MEAN> 25
 1.419271e+00 -3.539429e-01 4.778248e-01 -3.932618e+00 -2.930405e+00 -2.244887e+00 1.284940e+00 5.541340e-02 -5.615529e-01 7.321874e-01 8.684695e-01 -6.447970e-01 1.883814e+00 8.443043e-01 8.145797e-01 1.344449e+00 6.578749e-02 -1.397391e+00 -1.716680e+00 -6.972357e-01 -6.383767e-01 -3.624772e-01 -5.773226e-01 -2.933102e-01 8.197570e-01
<VARIANCE> 25
 3.267832e+01 6.014273e+01 4.649751e+01 6.060592e+01 7.995394e+01 5.549017e+01 4.596269e+01 5.674486e+01 4.103881e+01 2.995664e+01 2.814278e+01 2.626648e+01 2.782798e+00 2.967987e+00 2.976174e+00 4.358909e+00 4.870712e+00 5.839102e+00 4.260954e+00 3.580991e+00 3.656567e+00 3.403094e+00 3.130402e+00 2.638721e+00 2.321630e+00
<GCONST> 1.076801e+02
~t "T_k"
<ENDHMM>
~h "a-k+i"
<BEGINHMM>
<NUMSTATES> 5
<STATE> 2
<MEAN> 25
 -2.312355e-01 1.961118e+00 -8.483832e-01 1.450593e+00 1.457601e+00 2.408843e+00 -4.597814e-01 -1.728608e+00 -1.790877e-01 8.893732e-01 6.985575e-01 -3.931130e-01 -7.720011e-01 -7.842530e-02 -5.205820e-01 -9.070294e-01 -7.591282e-01 3.915028e-01 7.773291e-01 4.507853e-01 3.840126e-01 1.228299e-01 3.643597e-01 2.747205e-01 -4.715713e-01
<VARIANCE> 25
 2.273778e+01 2.853440e+01 3.812323e+01 4.159114e+01 4.112223e+01 3.378465e+01 3.233773e+01 3.354189e+01 3.298198e+01 2.542086e+01 2.348176e+01 2.239305e+01 1.604517e+00 4.217481e+00 2.607781e+00 4.085482e+00 3.966224e+00 4.291962e+00 3.567861e+00 3.176125e+00 3.109658e+00 2.588859e+00 2.471189e+00 2.213985e+00 5.200278e+00
<GCONST> 1.019870e+02
<STATE> 3
<MEAN> 25
 -1.427904e+00 -2.522660e+00 -2.585010e+00 -5.629199e+00 -8.787394e-01 -3.528969e-01 2.678309e+00 -7.877849e-01 7.780784e-01 5.548463e-01 2.357178e+00 4.609265e-01 3.902499e-01 -8.271015e-01 2.816469e-01 -1.033817e+00 -3.860129e-01 -9.675173e-01 2.915441e-01 -2.320813e-02 -3.249466e-01 -1.045423e-01 2.656671e-02 -1.464451e-01 1.487963e+00
<VARIANCE> 25
 2.691691e+01 7.003792e+01 5.256176e+01 6.985202e+01 8.061441e+01 6.468961e+01 6.198301e+01 6.249512e+01 4.851157e+01 4.706096e+01 4.291992e+01 3.999689e+01 2.103719e+00 4.420229e+00 3.587986e+00 5.717131e+00 5.819118e+00 5.228204e+00 4.675033e+00 4.933011e+00 4.070527e+00 3.372667e+00 3.275937e+00 3.025996e+00 4.842046e+00
<GCONST> 1.119947e+02
<STATE> 4
<MEAN> 25
 1.419271e+00 -3.539429e-01 4.778248e-01 -3.932618e+00 -2.930405e+00 -2.244887e+00 1.284940e+00 5.541340e-02 -5.615529e-01 7.321874e-01 8.684695e-01 -6.447970e-01 1.883814e+00 8.443043e-01 8.145797e-01 1.344449e+00 6.578749e-02 -1.397391e+00 -1.716680e+00 -6.972357e-01 -6.383767e-01 -3.624772e-01 -5.773226e-01 -2.933102e-01 8.197570e-01
<VARIANCE> 25
 3.267832e+01 6.014273e+01 4.649751e+01 6.060592e+01 7.995394e+01 5.549017e+01 4.596269e+01 5.674486e+01 4.103881e+01 2.995664e+01 2.814278e+01 2.626648e+01 2.782798e+00 2.967987e+00 2.976174e+00 4.358909e+00 4.870712e+00 5.839102e+00 4.260954e+00 3.580991e+00 3.656567e+00 3.403094e+00 3.130402e+00 2.638721e+00 2.321630e+00
<GCONST> 1.076801e+02
~t "T_k"
<ENDHMM>
~h "x-u+l"
<BEGINHMM>
<NUMSTATES> 5
<STATE> 2
<MEAN> 25
 5.841117e+00 4.888117e+00 2.686566e+00 -7.820466e-01 -3.509169e+00 -4.456264e+00 -1.667651e+00 1.072235e+00 -1.711213e+00 -3.398537e+00 -2.842877e+00 -2.182095e+00 1.576147e+00 1.045471e+00 4.197832e-01 -3.047917e-01 -1.355020e+00 -2.229248e+00 -1.097899e+00 2.456878e-01 -2.158980e-01 -6.960759e-01 -8.961666e-01 -8.212398e-01 8.114035e-01
<VARIANCE> 25
 3.111406e+01 4.019774e+01 4.504975e+01 4.146431e+01 4.849731e+01 5.661042e+01 4.281160e+01 4.095763e+01 5.025994e+01 4.244762e+01 3.143690e+01 2.546618e+01 2.317891e+00 3.149550e+00 3.087908e+00 3.151040e+00 3.396149e+00 4.573932e+00 4.195843e+00 4.035922e+00 4.034451e+00 3.409064e+00 3.195040e+00 2.762604e+00 1.784756e+00
<GCONST> 1.055627e+02
<STATE> 3
<MEAN> 25
 8.658910e+00 5.000401e+00 2.954348e+00 -2.671335e+00 -7.457289e+00 -1.043769e+01 -3.682248e+00 2.342003e+00 -1.993913e+00 -4.053403e+00 -3.655970e+00 -3.858294e+00 3.619523e-01 -4.174033e-01 -5.004941e-01 -5.413764e-01 -3.661138e-01 -3.691237e-01 1.985084e-01 6.194838e-01 2.091379e-01 -3.094780e-01 -4.365371e-01 -2.890210e-01 4.863066e-01
<VARIANCE> 25
 1.982055e+01 3.754977e+01 4.485072e+01 4.602500e+01 4.835411e+01 5.230594e+01 4.533890e+01 4.689768e+01 6.356376e+01 4.307386e+01 3.556441e+01 3.444476e+01 5.694164e-01 2.171613e+00 2.316406e+00 1.907328e+00 2.369149e+00 3.386717e+00 2.927253e+00 3.053224e+00 2.962884e+00 2.837181e+00 2.662840e+00 2.209183e+00 9.819031e-01
<GCONST> 1.005687e+02
<STATE> 4
<MEAN> 25
 7.936549e+00 5.316041e+00 2.239468e+00 -2.040418e+00 -5.537446e+00 -6.998611e+00 -2.096663e+00 2.982105e+00 -1.124920e+00 -4.924550e+00 -4.786534e+00 -3.909861e+00 -1.936503e-01 -3.466140e-01 -3.004697e-01 2.804921e-01 7.471921e-01 1.043675e+00 4.173047e-01 -2.147343e-01 -1.894316e-01 -7.248510e-02 1.116081e-02 1.502710e-01 -1.055882e-01
<VARIANCE> 25
 1.968233e+01 3.080829e+01 3.984565e+01 3.763365e+01 3.553752e+01 4.067476e+01 4.069976e+01 3.915368e+01 5.144368e+01 3.819278e+01 3.066512e+01 2.631176e+01 3.753779e-01 1.220878e+00 1.362571e+00 1.493957e+00 2.004738e+00 2.727168e+00 2.026844e+00 2.105258e+00 2.403310e+00 2.200738e+00 1.975419e+00 1.823615e+00 5.097307e-01
<GCONST> 9.394715e+01
~t "T_u"
<ENDHMM>
~h "a-k+o"
<BEGINHMM>
<NUMSTATES> 5
<STATE> 2
<MEAN> 25
 -2.312355e-01 1.961118e+00 -8.483832e-01 1.450593e+00 1.457601e+00 2.408843e+00 -4.597814e-01 -1.728608e+00 -1.790877e-01 8.893732e-01 6.985575e-01 -3.931130e-01 -7.720011e-01 -7.842530e-02 -5.205820e-01 -9.070294e-01 -7.591282e-01 3.915028e-01 7.773291e-01 4.507853e-01 3.840126e-01 1.228299e-01 3.643597e-01 2.747205e-01 -4.715713e-01
<VARIANCE> 25
 2.273778e+01 2.853440e+01 3.812323e+01 4.159114e+01 4.112223e+01 3.378465e+01 3.233773e+01 3.354189e+01 3.298198e+01 2.542086e+01 2.348176e+01 2.239305e+01 1.604517e+00 4.217481e+00 2.607781e+00 4.085482e+00 3.966224e+00 4.291962e+00 3.567861e+00 3.176125e+00 3.109658e+00 2.588859e+00 2.471189e+00 2.213985e+00 5.200278e+00
<GCONST> 1.019870e+02
<STATE> 3
<MEAN> 25
 -1.427904e+00 -2.522660e+00 -2.585010e+00 -5.629199e+00 -8.787394e-01 -3.528969e-01 2.678309e+00 -7.877849e-01 7.780784e-01 5.548463e-01 2.357178e+00 4.609265e-01 3.902499e-01 -8.271015e-01 2.816469e-01 -1.033817e+00 -3.860129e-01 -9.675173e-01 2.915441e-01 -2.320813e-02 -3.249466e-01 -1.045423e-01 2.656671e-02 -1.464451e-01 1.487963e+00
<VARIANCE> 25
 2.691691e+01 7.003792e+01 5.256176e+01 6.985202e+01 8.061441e+01 6.468961e+01 6.198301e+01 6.249512e+01 4.851157e+01 4.706096e+01 4.291992e+01 3.999689e+01 2.103719e+00 4.420229e+00 3.587986e+00 5.717131e+00 5.819118e+00 5.228204e+00 4.675033e+00 4.933011e+00 4.070527e+00 3.372667e+00 3.275937e+00 3.025996e+00 4.842046e+00
<GCONST> 1.119947e+02
<STATE> 4
<MEAN> 25
 1.419271e+00 -3.539429e-01 4.778248e-01 -3.932618e+00 -2.930405e+00 -2.244887e+00 1.284940e+00 5.541340e-02 -5.615529e-01 7.321874e-01 8.684695e-01 -6.447970e-01 1.883814e+00 8.443043e-01 8.145797e-01 1.344449e+00 6.578749e-02 -1.397391e+00 -1.716680e+00 -6.972357e-01 -6.383767e-01 -3.624772e-01 -5.773226e-01 -2.933102e-01 8.197570e-01
<VARIANCE> 25
 3.267832e+01 6.014273e+01 4.649751e+01 6.060592e+01 7.995394e+01 5.549017e+01 4.596269e+01 5.674486e+01 4.103881e+01 2.995664e+01 2.814278e+01 2.626648e+01 2.782798e+00 2.967987e+00 2.976174e+00 4.358909e+00 4.870712e+00 5.839102e+00 4.260954e+00 3.580991e+00 3.656567e+00 3.403094e+00 3.130402e+00 2.638721e+00 2.321630e+00
<GCONST> 1.076801e+02
~t "T_k"
<ENDHMM>
~h "a-k+s"
<BEGINHMM>
<NUMSTATES> 5
<STATE> 2
<MEAN> 25
 -2.312355e-01 1.961118e+00 -8.483832e-01 1.450593e+00 1.457601e+00 2.408843e+00 -4.597814e-01 -1.728608e+00 -1.790877e-01 8.893732e-01 6.985575e-01 -3.931130e-01 -7.720011e-01 -7.842530e-02 -5.205820e-01 -9.070294e-01 -7.591282e-01 3.915028e-01 7.773291e-01 4.507853e-01 3.840126e-01 1.228299e-01 3.643597e-01 2.747205e-01 -4.715713e-01
<VARIANCE> 25
 2.273778e+01 2.853440e+01 3.812323e+01 4.159114e+01 4.112223e+01 3.378465e+01 3.233773e+01 3.354189e+01 3.298198e+01 2.542086e+01 2.348176e+01 2.239305e+01 1.604517e+00 4.217481e+00 2.607781e+00 4.085482e+00 3.966224e+00 4.291962e+00 3.567861e+00 3.176125e+00 3.109658e+00 2.588859e+00 2.471189e+00 2.213985e+00 5.200278e+00
<GCONST> 1.019870e+02
<STATE> 3
<MEAN> 25
 -1.427904e+00 -2.522660e+00 -2.585010e+00 -5.629199e+00 -8.787394e-01 -3.528969e-01 2.678309e+00 -7.877849e-01 7.780784e-01 5.548463e-01 2.357178e+00 4.609265e-01 3.902499e-01 -8.271015e-01 2.816469e-01 -1.033817e+00 -3.860129e-01 -9.675173e-01 2.915441e-01 -2.320813e-02 -3.249466e-01 -1.045423e-01 2.656671e-02 -1.464451e-01 1.487963e+00
<VARIANCE> 25
 2.691691e+01 7.003792e+01 5.256176e+01 6.985202e+01 8.061441e+01 6.468961e+01 6.198301e+01 6.249512e+01 4.851157e+01 4.706096e+01 4.291992e+01 3.999689e+01 2.103719e+00 4.420229e+00 3.587986e+00 5.717131e+00 5.819118e+00 5.228204e+00 4.675033e+00 4.933011e+00 4.070527e+00 3.372667e+00 3.275937e+00 3.025996e+00 4.842046e+00
<GCONST> 1.119947e+02
<STATE> 4
<MEAN> 25
 1.419271e+00 -3.539429e-01 4.778248e-01 -3.932618e+00 -2.930405e+00 -2.244887e+00 1.284940e+00 5.541340e-02 -5.615529e-01 7.321874e-01 8.684695e-01 -6.447970e-01 1.883814e+00 8.443043e-01 8.145797e-01 1.344449e+00 6.578749e-02 -1.397391e+00 -1.716680e+00 -6.972357e-01 -6.383767e-01 -3.624772e-01 -5.773226e-01 -2.933102e-01 8.197570e-01
<VARIANCE> 25
 3.267832e+01 6.014273e+01 4.649751e+01 6.060592e+01 7.995394e+01 5.549017e+01 4.596269e+01 5.674486e+01 4.103881e+01 2.995664e+01 2.814278e+01 2.626648e+01 2.782798e+00 2.967987e+00 2.976174e+00 4.358909e+00 4.870712e+00 5.839102e+00 4.260954e+00 3.580991e+00 3.656567e+00 3.403094e+00 3.130402e+00 2.638721e+00 2.321630e+00
<GCONST> 1.076801e+02
~t "T_k"
<ENDHMM>
~h "a-k+t"
<BEGINHMM>
<NUMSTATES> 5
<STATE> 2
<MEAN> 25
 -2.312355e-01 1.961118e+00 -8.483832e-01 1.450593e+00 1.457601e+00 2.408843e+00 -4.597814e-01 -1.728608e+00 -1.790877e-01 8.893732e-01 6.985575e-01 -3.931130e-01 -7.720011e-01 -7.842530e-02 -5.205820e-01 -9.070294e-01 -7.591282e-01 3.915028e-01 7.773291e-01 4.507853e-01 3.840126e-01 1.228299e-01 3.643597e-01 2.747205e-01 -4.715713e-01
<VARIANCE> 25
 2.273778e+01 2.853440e+01 3.812323e+01 4.159114e+01 4.112223e+01 3.378465e+01 3.233773e+01 3.354189e+01 3.298198e+01 2.542086e+01 2.348176e+01 2.239305e+01 1.604517e+00 4.217481e+00 2.607781e+00 4.085482e+00 3.966224e+00 4.291962e+00 3.567861e+00 3.176125e+00 3.109658e+00 2.588859e+00 2.471189e+00 2.213985e+00 5.200278e+00
<GCONST> 1.019870e+02
<STATE> 3
<MEAN> 25
 -1.427904e+00 -2.522660e+00 -2.585010e+00 -5.629199e+00 -8.787394e-01 -3.528969e-01 2.678309e+00 -7.877849e-01 7.780784e-01 5.548463e-01 2.357178e+00 4.609265e-01 3.902499e-01 -8.271015e-01 2.816469e-01 -1.033817e+00 -3.860129e-01 -9.675173e-01 2.915441e-01 -2.320813e-02 -3.249466e-01 -1.045423e-01 2.656671e-02 -1.464451e-01 1.487963e+00
<VARIANCE> 25
 2.691691e+01 7.003792e+01 5.256176e+01 6.985202e+01 8.061441e+01 6.468961e+01 6.198301e+01 6.249512e+01 4.851157e+01 4.706096e+01 4.291992e+01 3.999689e+01 2.103719e+00 4.420229e+00 3.587986e+00 5.717131e+00 5.819118e+00 5.228204e+00 4.675033e+00 4.933011e+00 4.070527e+00 3.372667e+00 3.275937e+00 3.025996e+00 4.842046e+00
<GCONST> 1.119947e+02
<STATE> 4
<MEAN> 25
 1.419271e+00 -3.539429e-01 4.778248e-01 -3.932618e+00 -2.930405e+00 -2.244887e+00 1.284940e+00 5.541340e-02 -5.615529e-01 7.321874e-01 8.684695e-01 -6.447970e-01 1.883814e+00 8.443043e-01 8.145797e-01 1.344449e+00 6.578749e-02 -1.397391e+00 -1.716680e+00 -6.972357e-01 -6.383767e-01 -3.624772e-01 -5.773226e-01 -2.933102e-01 8.197570e-01
<VARIANCE> 25
 3.267832e+01 6.014273e+01 4.649751e+01 6.060592e+01 7.995394e+01 5.549017e+01 4.596269e+01 5.674486e+01 4.103881e+01 2.995664e+01 2.814278e+01 2.626648e+01 2.782798e+00 2.967987e+00 2.976174e+00 4.358909e+00 4.870712e+00 5.839102e+00 4.260954e+00 3.580991e+00 3.656567e+00 3.403094e+00 3.130402e+00 2.638721e+00 2.321630e+00
<GCONST> 1.076801e+02
~t "T_k"
<ENDHMM>
~h "a-k+u"
<BEGINHMM>
<NUMSTATES> 5
<STATE> 2
<MEAN> 25
 -2.312355e-01 1.961118e+00 -8.483832e-01 1.450593e+00 1.457601e+00 2.408843e+00 -4.597814e-01 -1.728608e+00 -1.790877e-01 8.893732e-01 6.985575e-01 -3.931130e-01 -7.720011e-01 -7.842530e-02 -5.205820e-01 -9.070294e-01 -7.591282e-01 3.915028e-01 7.773291e-01 4.507853e-01 3.840126e-01 1.228299e-01 3.643597e-01 2.747205e-01 -4.715713e-01
<VARIANCE> 25
 2.273778e+01 2.853440e+01 3.812323e+01 4.159114e+01 4.112223e+01 3.378465e+01 3.233773e+01 3.354189e+01 3.298198e+01 2.542086e+01 2.348176e+01 2.239305e+01 1.604517e+00 4.217481e+00 2.607781e+00 4.085482e+00 3.966224e+00 4.291962e+00 3.567861e+00 3.176125e+00 3.109658e+00 2.588859e+00 2.471189e+00 2.213985e+00 5.200278e+00
<GCONST> 1.019870e+02
<STATE> 3
<MEAN> 25
 -1.427904e+00 -2.522660e+00 -2.585010e+00 -5.629199e+00 -8.787394e-01 -3.528969e-01 2.678309e+00 -7.877849e-01 7.780784e-01 5.548463e-01 2.357178e+00 4.609265e-01 3.902499e-01 -8.271015e-01 2.816469e-01 -1.033817e+00 -3.860129e-01 -9.675173e-01 2.915441e-01 -2.320813e-02 -3.249466e-01 -1.045423e-01 2.656671e-02 -1.464451e-01 1.487963e+00
<VARIANCE> 25
 2.691691e+01 7.003792e+01 5.256176e+01 6.985202e+01 8.061441e+01 6.468961e+01 6.198301e+01 6.249512e+01 4.851157e+01 4.706096e+01 4.291992e+01 3.999689e+01 2.103719e+00 4.420229e+00 3.587986e+00 5.717131e+00 5.819118e+00 5.228204e+00 4.675033e+00 4.933011e+00 4.070527e+00 3.372667e+00 3.275937e+00 3.025996e+00 4.842046e+00
<GCONST> 1.119947e+02
<STATE> 4
<MEAN> 25
 1.419271e+00 -3.539429e-01 4.778248e-01 -3.932618e+00 -2.930405e+00 -2.244887e+00 1.284940e+00 5.541340e-02 -5.615529e-01 7.321874e-01 8.684695e-01 -6.447970e-01 1.883814e+00 8.443043e-01 8.145797e-01 1.344449e+00 6.578749e-02 -1.397391e+00 -1.716680e+00 -6.972357e-01 -6.383767e-01 -3.624772e-01 -5.773226e-01 -2.933102e-01 8.197570e-01
<VARIANCE> 25
 3.267832e+01 6.014273e+01 4.649751e+01 6.060592e+01 7.995394e+01 5.549017e+01 4.596269e+01 5.674486e+01 4.103881e+01 2.995664e+01 2.814278e+01 2.626648e+01 2.782798e+00 2.967987e+00 2.976174e+00 4.358909e+00 4.870712e+00 5.839102e+00 4.260954e+00 3.580991e+00 3.656567e+00 3.403094e+00 3.130402e+00 2.638721e+00 2.321630e+00
<GCONST> 1.076801e+02
~t "T_k"
<ENDHMM>
~h "n-f+a"
<BEGINHMM>
<NUMSTATES> 5
<STATE> 2
<MEAN> 25
 -2.921499e+00 2.216532e+00 1.683841e+00 -2.246150e+00 4.969630e+00 -5.509380e-01 3.351402e+00 -1.211751e+00 2.223065e+00 -4.889780e-01 1.141946e+00 -2.723400e-01 -3.091264e+00 -2.187721e-01 5.649842e-01 -7.482041e-01 7.319014e-01 2.992108e-01 1.346503e+00 -2.772227e-01 7.784485e-01 2.630200e-02 4.751500e-01 2.915594e-01 -1.593239e-01
<VARIANCE> 25
 5.889521e+01 3.254332e+01 4.898185e+01 6.740195e+01 6.829653e+01 4.811531e+01 5.360291e+01 4.290142e+01 4.377955e+01 3.534988e+01 2.978639e+01 2.594387e+01 3.113435e+00 3.501048e+00 2.947656e+00 3.883082e+00 3.471006e+00 4.806132e+00 4.554536e+00 3.170251e+00 3.424818e+00 3.097497e+00 3.020186e+00 2.207278e+00 1.658051e+00
<GCONST> 1.065149e+02
<STATE> 3
<MEAN> 25
 -1.204405e+01 -6.315144e-01 2.378402e+00 -5.487898e+00 7.831375e+00 -1.741687e+00 5.601410e+00 -2.383173e+00 3.250614e+00 -9.547754e-01 1.631793e+00 1.689934e-01 -7.918698e-02 -6.822809e-01 -2.811957e-01 -3.029425e-01 8.794511e-02 1.254451e-01 9.581987e-02 4.164742e-02 1.511693e-03 2.448684e-02 2.112143e-02 4.153352e-02 1.406359e-01
<VARIANCE> 25
 3.955381e+01 4.454638e+01 5.203875e+01 7.429533e+01 6.271706e+01 6.759596e+01 5.966618e+01 5.088220e+01 5.673976e+01 3.983142e+01 3.692179e+01 2.523423e+01 2.031468e+00 1.413474e+00 1.044568e+00 1.424712e+00 1.410816e+00 1.579707e+00 1.480687e+00 1.560026e+00 1.360781e+00 1.167955e+00 1.157101e+00 9.813937e-01 6.439654e-01
<GCONST> 9.585310e+01
<STATE> 4
<MEAN> 25
 -4.610052e+00 -1.518341e+00 7.515143e-01 -5.277138e+00 4.724607e+00 -2.217829e-01 4.041139e+00 -1.100402e+00 2.596362e+00 -3.536729e-01 1.306920e+00 1.224594e-01 4.275613e+00 1.174036e+00 -3.978401e-01 9.296944e-01 -1.436768e+00 -6.998600e-01 -2.286903e+00 -1.079536e-01 -9.768302e-01 -2.019849e-01 -8.412417e-01 -6.099735e-01 2.728841e-02
<VARIANCE> 25
 5.717005e+01 4.372955e+01 3.685680e+01 5.787862e+01 6.797121e+01 5.627831e+01 4.502947e+01 4.687963e+01 4.114095e+01 3.671113e+01 2.842795e+01 2.193906e+01 3.158249e+00 3.584108e+00 3.416423e+00 5.561674e+00 5.552020e+00 6.572505e+00 4.474904e+00 3.591626e+00 4.049541e+00 3.179907e+00 3.182887e+00 2.428447e+00 1.252232e+00
<GCONST> 1.076670e+02
~t "T_f"
<ENDHMM>
~h "n-f+l"
<BEGINHMM>
<NUMSTATES> 5
<STATE> 2
<MEAN> 25
 -2.921499e+00 2.216532e+00 1.683841e+00 -2.246150e+00 4.969630e+00 -5.509380e-01 3.351402e+00 -1.211751e+00 2.223065e+00 -4.889780e-01 1.141946e+00 -2.723400e-01 -3.091264e+00 -2.187721e-01 5.649842e-01 -7.482041e-01 7.319014e-01 2.992108e-01 1.346503e+00 -2.772227e-01 7.784485e-01 2.630200e-02 4.751500e-01 2.915594e-01 -1.593239e-01
<VARIANCE> 25
 5.889521e+01 3.254332e+01 4.898185e+01 6.740195e+01 6.829653e+01 4.811531e+01 5.360291e+01 4.290142e+01 4.377955e+01 3.534988e+01 2.978639e+01 2.594387e+01 3.113435e+00 3.501048e+00 2.947656e+00 3.883082e+00 3.471006e+00 4.806132e+00 4.554536e+00 3.170251e+00 3.424818e+00 3.097497e+00 3.020186e+00 2.207278e+00 1.658051e+00
<GCONST> 1.065149e+02
<STATE> 3
<MEAN> 25
 -1.204405e+01 -6.315144e-01 2.378402e+00 -5.487898e+00 7.831375e+00 -1.741687e+00 5.601410e+00 -2.383173e+00 3.250614e+00 -9.547754e-01 1.631793e+00 1.689934e-01 -7.918698e-02 -6.822809e-01 -2.811957e-01 -3.029425e-01 8.794511e-02 1.254451e-01 9.581987e-02 4.164742e-02 1.511693e-03 2.448684e-02 2.112143e-02 4.153352e-02 1.406359e-01
<VARIANCE> 25
 3.955381e+01 4.454638e+01 5.203875e+01 7.429533e+01 6.271706e+01 6.759596e+01 5.966618e+01 5.088220e+01 5.673976e+01 3.983142e+01 3.692179e+01 2.523423e+01 2.031468e+00 1.413474e+00 1.044568e+00 1.424712e+00 1.410816e+00 1.579707e+00 1.480687e+00 1.560026e+00 1.360781e+00 1.167955e+00 1.157101e+00 9.813937e-01 6.439654e-01
<GCONST> 9.585310e+01
<STATE> 4
<MEAN> 25
 -4.610052e+00 -1.518341e+00 7.515143e-01 -5.277138e+00 4.724607e+00 -2.217829e-01 4.041139e+00 -1.100402e+00 2.596362e+00 -3.536729e-01 1.306920e+00 1.224594e-01 4.275613e+00 1.174036e+00 -3.978401e-01 9.296944e-01 -1.436768e+00 -6.998600e-01 -2.286903e+00 -1.079536e-01 -9.768302e-01 -2.019849e-01 -8.412417e-01 -6.099735e-01 2.728841e-02
<VARIANCE> 25
 5.717005e+01 4.372955e+01 3.685680e+01 5.787862e+01 6.797121e+01 5.627831e+01 4.502947e+01 4.687963e+01 4.114095e+01 3.671113e+01 2.842795e+01 2.193906e+01 3.158249e+00 3.584108e+00 3.416423e+00 5.561674e+00 5.552020e+00 6.572505e+00 4.474904e+00 3.591626e+00 4.049541e+00 3.179907e+00 3.182887e+00 2.428447e+00 1.252232e+00
<GCONST> 1.076670e+02
~t "T_f"
<ENDHMM>
~h "n-f+o"
<BEGINHMM>
<NUMSTATES> 5
<STATE> 2
<MEAN> 25
 -2.921499e+00 2.216532e+00 1.683841e+00 -2.246150e+00 4.969630e+00 -5.509380e-01 3.351402e+00 -1.211751e+00 2.223065e+00 -4.889780e-01 1.141946e+00 -2.723400e-01 -3.091264e+00 -2.187721e-01 5.649842e-01 -7.482041e-01 7.319014e-01 2.992108e-01 1.346503e+00 -2.772227e-01 7.784485e-01 2.630200e-02 4.751500e-01 2.915594e-01 -1.593239e-01
<VARIANCE> 25
 5.889521e+01 3.254332e+01 4.898185e+01 6.740195e+01 6.829653e+01 4.811531e+01 5.360291e+01 4.290142e+01 4.377955e+01 3.534988e+01 2.978639e+01 2.594387e+01 3.113435e+00 3.501048e+00 2.947656e+00 3.883082e+00 3.471006e+00 4.806132e+00 4.554536e+00 3.170251e+00 3.424818e+00 3.097497e+00 3.020186e+00 2.207278e+00 1.658051e+00
<GCONST> 1.065149e+02
<STATE> 3
<MEAN> 25
 -1.204405e+01 -6.315144e-01 2.378402e+00 -5.487898e+00 7.831375e+00 -1.741687e+00 5.601410e+00 -2.383173e+00 3.250614e+00 -9.547754e-01 1.631793e+00 1.689934e-01 -7.918698e-02 -6.822809e-01 -2.811957e-01 -3.029425e-01 8.794511e-02 1.254451e-01 9.581987e-02 4.164742e-02 1.511693e-03 2.448684e-02 2.112143e-02 4.153352e-02 1.406359e-01
<VARIANCE> 25
 3.955381e+01 4.454638e+01 5.203875e+01 7.429533e+01 6.271706e+01 6.759596e+01 5.966618e+01 5.088220e+01 5.673976e+01 3.983142e+01 3.692179e+01 2.523423e+01 2.031468e+00 1.413474e+00 1.044568e+00 1.424712e+00 1.410816e+00 1.579707e+00 1.480687e+00 1.560026e+00 1.360781e+00 1.167955e+00 1.157101e+00 9.813937e-01 6.439654e-01
<GCONST> 9.585310e+01
<STATE> 4
<MEAN> 25
 -4.610052e+00 -1.518341e+00 7.515143e-01 -5.277138e+00 4.724607e+00 -2.217829e-01 4.041139e+00 -1.100402e+00 2.596362e+00 -3.536729e-01 1.306920e+00 1.224594e-01 4.275613e+00 1.174036e+00 -3.978401e-01 9.296944e-01 -1.436768e+00 -6.998600e-01 -2.286903e+00 -1.079536e-01 -9.768302e-01 -2.019849e-01 -8.412417e-01 -6.099735e-01 2.728841e-02
<VARIANCE> 25
 5.717005e+01 4.372955e+01 3.685680e+01 5.787862e+01 6.797121e+01 5.627831e+01 4.502947e+01 4.687963e+01 4.114095e+01 3.671113e+01 2.842795e+01 2.193906e+01 3.158249e+00 3.584108e+00 3.416423e+00 5.561674e+00 5.552020e+00 6.572505e+00 4.474904e+00 3.591626e+00 4.049541e+00 3.179907e+00 3.182887e+00 2.428447e+00 1.252232e+00
<GCONST> 1.076670e+02
~t "T_f"
<ENDHMM>
~h "n-f+u"
<BEGINHMM>
<NUMSTATES> 5
<STATE> 2
<MEAN> 25
 -2.921499e+00 2.216532e+00 1.683841e+00 -2.246150e+00 4.969630e+00 -5.509380e-01 3.351402e+00 -1.211751e+00 2.223065e+00 -4.889780e-01 1.141946e+00 -2.723400e-01 -3.091264e+00 -2.187721e-01 5.649842e-01 -7.482041e-01 7.319014e-01 2.992108e-01 1.346503e+00 -2.772227e-01 7.784485e-01 2.630200e-02 4.751500e-01 2.915594e-01 -1.593239e-01
<VARIANCE> 25
 5.889521e+01 3.254332e+01 4.898185e+01 6.740195e+01 6.829653e+01 4.811531e+01 5.360291e+01 4.290142e+01 4.377955e+01 3.534988e+01 2.978639e+01 2.594387e+01 3.113435e+00 3.501048e+00 2.947656e+00 3.883082e+00 3.471006e+00 4.806132e+00 4.554536e+00 3.170251e+00 3.424818e+00 3.097497e+00 3.020186e+00 2.207278e+00 1.658051e+00
<GCONST> 1.065149e+02
<STATE> 3
<MEAN> 25
 -1.204405e+01 -6.315144e-01 2.378402e+00 -5.487898e+00 7.831375e+00 -1.741687e+00 5.601410e+00 -2.383173e+00 3.250614e+00 -9.547754e-01 1.631793e+00 1.689934e-01 -7.918698e-02 -6.822809e-01 -2.811957e-01 -3.029425e-01 8.794511e-02 1.254451e-01 9.581987e-02 4.164742e-02 1.511693e-03 2.448684e-02 2.112143e-02 4.153352e-02 1.406359e-01
<VARIANCE> 25
 3.955381e+01 4.454638e+01 5.203875e+01 7.429533e+01 6.271706e+01 6.759596e+01 5.966618e+01 5.088220e+01 5.673976e+01 3.983142e+01 3.692179e+01 2.523423e+01 2.031468e+00 1.413474e+00 1.044568e+00 1.424712e+00 1.410816e+00 1.579707e+00 1.480687e+00 1.560026e+00 1.360781e+00 1.167955e+00 1.157101e+00 9.813937e-01 6.439654e-01
<GCONST> 9.585310e+01
<STATE> 4
<MEAN> 25
 -4.610052e+00 -1.518341e+00 7.515143e-01 -5.277138e+00 4.724607e+00 -2.217829e-01 4.041139e+00 -1.100402e+00 2.596362e+00 -3.536729e-01 1.306920e+00 1.224594e-01 4.275613e+00 1.174036e+00 -3.978401e-01 9.296944e-01 -1.436768e+00 -6.998600e-01 -2.286903e+00 -1.079536e-01 -9.768302e-01 -2.019849e-01 -8.412417e-01 -6.099735e-01 2.728841e-02
<VARIANCE> 25
 5.717005e+01 4.372955e+01 3.685680e+01 5.787862e+01 6.797121e+01 5.627831e+01 4.502947e+01 4.687963e+01 4.114095e+01 3.671113e+01 2.842795e+01 2.193906e+01 3.158249e+00 3.584108e+00 3.416423e+00 5.561674e+00 5.552020e+00 6.572505e+00 4.474904e+00 3.591626e+00 4.049541e+00 3.179907e+00 3.182887e+00 2.428447e+00 1.252232e+00
<GCONST> 1.076670e+02
~t "T_f"
<ENDHMM>
~h "a-l+a"
<BEGINHMM>
<NUMSTATES> 5
<STATE> 2
<MEAN> 25
 6.314451e+00 -2.836339e+00 -2.415431e+00 2.781851e+00 1.947059e+00 -2.800302e+00 -2.661815e+00 -2.324516e+00 -3.876258e+00 -3.683601e+00 -1.570764e+00 7.563966e-02 3.129438e-01 4.277349e-01 7.984434e-01 1.918523e+00 1.017305e+00 4.531452e-01 -1.293264e-01 2.709396e-01 -7.299022e-01 -1.606042e+00 -1.354267e+00 -7.730924e-01 -6.160657e-01
<VARIANCE> 25
 3.768519e+01 4.112976e+01 4.717404e+01 6.522243e+01 4.798243e+01 5.569359e+01 4.089912e+01 4.426613e+01 5.019736e+01 4.535135e+01 3.915966e+01 3.028901e+01 1.699836e+00 1.977105e+00 2.316171e+00 3.031282e+00 2.905935e+00 4.508301e+00 3.719640e+00 4.100824e+00 4.742221e+00 3.786747e+00 3.138241e+00 2.508972e+00 2.132987e+00
<GCONST> 1.056931e+02
<STATE> 3
<MEAN> 25
 7.308776e+00 -2.116291e+00 -5.915496e-01 8.047751e+00 4.512689e+00 -2.649817e+00 -3.380396e+00 -8.267048e-01 -5.005058e+00 -7.383716e+00 -4.765788e+00 -2.091391e+00 -2.042886e-01 4.120783e-01 5.339515e-01 7.017787e-01 3.444184e-01 2.565898e-01 1.210279e-01 4.571145e-01 1.694299e-01 -4.738842e-01 -6.538218e-01 -4.505804e-01 -4.639952e-01
<VARIANCE> 25
 2.202492e+01 3.481960e+01 3.887338e+01 6.391379e+01 4.331805e+01 4.796937e+01 4.158508e+01 4.477020e+01 4.591209e+01 3.888554e+01 3.268353e+01 2.532600e+01 8.968565e-01 1.265179e+00 1.520058e+00 2.136260e+00 1.615692e+00 2.971242e+00 2.029787e+00 2.106359e+00 2.521566e+00 2.456026e+00 1.921850e+00 1.679168e+00 9.447469e-01
<GCONST> 9.704557e+01
<STATE> 4
<MEAN> 25
 5.966500e+00 -3.820904e-01 3.151454e-01 7.105481e+00 4.340966e+00 -1.720254e+00 -3.097861e+00 -7.825651e-01 -3.803820e+00 -6.722578e+00 -5.169729e+00 -2.231982e+00 -1.248948e-01 3.641126e-02 -1.620759e-01 -8.538845e-01 -4.337227e-01 -1.165125e-01 1.175181e-01 -1.721042e-01 8.785849e-02 4.827425e-01 5.441091e-01 3.938914e-01 1.508765e-01
<VARIANCE> 25
 2.100273e+01 3.151579e+01 3.614806e+01 5.096074e+01 3.741170e+01 4.566805e+01 3.924998e+01 3.931923e+01 4.211623e+01 3.813666e+01 3.033226e+01 2.373476e+01 8.690925e-01 1.079303e+00 1.530230e+00 2.250370e+00 1.643832e+00 2.437176e+00 1.802907e+00 2.009850e+00 2.136790e+00 2.217616e+00 1.925478e+00 1.643911e+00 9.747648e-01
<GCONST> 9.523684e+01
~t "T_l"
<ENDHMM>
~h "a-l+b"
<BEGINHMM>
<NUMSTATES> 5
<STATE> 2
<MEAN> 25
 6.314451e+00 -2.836339e+00 -2.415431e+00 2.781851e+00 1.947059e+00 -2.800302e+00 -2.661815e+00 -2.324516e+00 -3.876258e+00 -3.683601e+00 -1.570764e+00 7.563966e-02 3.129438e-01 4.277349e-01 7.984434e-01 1.918523e+00 1.017305e+00 4.531452e-01 -1.293264e-01 2.709396e-01 -7.299022e-01 -1.606042e+00 -1.354267e+00 -7.730924e-01 -6.160657e-01
<VARIANCE> 25
 3.768519e+01 4.112976e+01 4.717404e+01 6.522243e+01 4.798243e+01 5.569359e+01 4.089912e+01 4.426613e+01 5.019736e+01 4.535135e+01 3.915966e+01 3.028901e+01 1.699836e+00 1.977105e+00 2.316171e+00 3.031282e+00 2.905935e+00 4.508301e+00 3.719640e+00 4.100824e+00 4.742221e+00 3.786747e+00 3.138241e+00 2.508972e+00 2.132987e+00
<GCONST> 1.056931e+02
<STATE> 3
<MEAN> 25
 7.308776e+00 -2.116291e+00 -5.915496e-01 8.047751e+00 4.512689e+00 -2.649817e+00 -3.380396e+00 -8.267048e-01 -5.005058e+00 -7.383716e+00 -4.765788e+00 -2.091391e+00 -2.042886e-01 4.120783e-01 5.339515e-01 7.017787e-01 3.444184e-01 2.565898e-01 1.210279e-01 4.571145e-01 1.694299e-01 -4.738842e-01 -6.538218e-01 -4.505804e-01 -4.639952e-01
<VARIANCE> 25
 2.202492e+01 3.481960e+01 3.887338e+01 6.391379e+01 4.331805e+01 4.796937e+01 4.158508e+01 4.477020e+01 4.591209e+01 3.888554e+01 3.268353e+01 2.532600e+01 8.968565e-01 1.265179e+00 1.520058e+00 2.136260e+00 1.615692e+00 2.971242e+00 2.029787e+00 2.106359e+00 2.521566e+00 2.456026e+00 1.921850e+00 1.679168e+00 9.447469e-01
<GCONST> 9.704557e+01
<STATE> 4
<MEAN> 25
 5.966500e+00 -3.820904e-01 3.151454e-01 7.105481e+00 4.340966e+00 -1.720254e+00 -3.097861e+00 -7.825651e-01 -3.803820e+00 -6.722578e+00 -5.169729e+00 -2.231982e+00 -1.248948e-01 3.641126e-02 -1.620759e-01 -8.538845e-01 -4.337227e-01 -1.165125e-01 1.175181e-01 -1.721042e-01 8.785849e-02 4.827425e-01 5.441091e-01 3.938914e-01 1.508765e-01
<VARIANCE> 25
 2.100273e+01 3.151579e+01 3.614806e+01 5.096074e+01 3.741170e+01 4.566805e+01 3.924998e+01 3.931923e+01 4.211623e+01 3.813666e+01 3.033226e+01 2.373476e+01 8.690925e-01 1.079303e+00 1.530230e+00 2.250370e+00 1.643832e+00 2.437176e+00 1.802907e+00 2.009850e+00 2.136790e+00 2.217616e+00 1.925478e+00 1.643911e+00 9.747648e-01
<GCONST> 9.523684e+01
~t "T_l"
<ENDHMM>
~h "a-l+d"
<BEGINHMM>
<NUMSTATES> 5
<STATE> 2
<MEAN> 25
 6.314451e+00 -2.836339e+00 -2.415431e+00 2.781851e+00 1.947059e+00 -2.800302e+00 -2.661815e+00 -2.324516e+00 -3.876258e+00 -3.683601e+00 -1.570764e+00 7.563966e-02 3.129438e-01 4.277349e-01 7.984434e-01 1.918523e+00 1.017305e+00 4.531452e-01 -1.293264e-01 2.709396e-01 -7.299022e-01 -1.606042e+00 -1.354267e+00 -7.730924e-01 -6.160657e-01
<VARIANCE> 25
 3.768519e+01 4.112976e+01 4.717404e+01 6.522243e+01 4.798243e+01 5.569359e+01 4.089912e+01 4.426613e+01 5.019736e+01 4.535135e+01 3.915966e+01 3.028901e+01 1.699836e+00 1.977105e+00 2.316171e+00 3.031282e+00 2.905935e+00 4.508301e+00 3.719640e+00 4.100824e+00 4.742221e+00 3.786747e+00 3.138241e+00 2.508972e+00 2.132987e+00
<GCONST> 1.056931e+02
<STATE> 3
<MEAN> 25
 7.308776e+00 -2.116291e+00 -5.915496e-01 8.047751e+00 4.512689e+00 -2.649817e+00 -3.380396e+00 -8.267048e-01 -5.005058e+00 -7.383716e+00 -4.765788e+00 -2.091391e+00 -2.042886e-01 4.120783e-01 5.339515e-01 7.017787e-01 3.444184e-01 2.565898e-01 1.210279e-01 4.571145e-01 1.694299e-01 -4.738842e-01 -6.538218e-01 -4.505804e-01 -4.639952e-01
<VARIANCE> 25
 2.202492e+01 3.481960e+01 3.887338e+01 6.391379e+01 4.331805e+01 4.796937e+01 4.158508e+01 4.477020e+01 4.591209e+01 3.888554e+01 3.268353e+01 2.532600e+01 8.968565e-01 1.265179e+00 1.520058e+00 2.136260e+00 1.615692e+00 2.971242e+00 2.029787e+00 2.106359e+00 2.521566e+00 2.456026e+00 1.921850e+00 1.679168e+00 9.447469e-01
<GCONST> 9.704557e+01
<STATE> 4
<MEAN> 25
 5.966500e+00 -3.820904e-01 3.151454e-01 7.105481e+00 4.340966e+00 -1.720254e+00 -3.097861e+00 -7.825651e-01 -3.803820e+00 -6.722578e+00 -5.169729e+00 -2.231982e+00 -1.248948e-01 3.641126e-02 -1.620759e-01 -8.538845e-01 -4.337227e-01 -1.165125e-01 1.175181e-01 -1.721042e-01 8.785849e-02 4.827425e-01 5.441091e-01 3.938914e-01 1.508765e-01
<VARIANCE> 25
 2.100273e+01 3.151579e+01 3.614806e+01 5.096074e+01 3.741170e+01 4.566805e+01 3.924998e+01 3.931923e+01 4.211623e+01 3.813666e+01 3.033226e+01 2.373476e+01 8.690925e-01 1.079303e+00 1.530230e+00 2.250370e+00 1.643832e+00 2.437176e+00 1.802907e+00 2.009850e+00 2.136790e+00 2.217616e+00 1.925478e+00 1.643911e+00 9.747648e-01
<GCONST> 9.523684e+01
~t "T_l"
<ENDHMM>
~h "a-l+e"
<BEGINHMM>
<NUMSTATES> 5
<STATE> 2
<MEAN> 25
 6.314451e+00 -2.836339e+00 -2.415431e+00 2.781851e+00 1.947059e+00 -2.800302e+00 -2.661815e+00 -2.324516e+00 -3.876258e+00 -3.683601e+00 -1.570764e+00 7.563966e-02 3.129438e-01 4.277349e-01 7.984434e-01 1.918523e+00 1.017305e+00 4.531452e-01 -1.293264e-01 2.709396e-01 -7.299022e-01 -1.606042e+00 -1.354267e+00 -7.730924e-01 -6.160657e-01
<VARIANCE> 25
 3.768519e+01 4.112976e+01 4.717404e+01 6.522243e+01 4.798243e+01 5.569359e+01 4.089912e+01 4.426613e+01 5.019736e+01 4.535135e+01 3.915966e+01 3.028901e+01 1.699836e+00 1.977105e+00 2.316171e+00 3.031282e+00 2.905935e+00 4.508301e+00 3.719640e+00 4.100824e+00 4.742221e+00 3.786747e+00 3.138241e+00 2.508972e+00 2.132987e+00
<GCONST> 1.056931e+02
<STATE> 3
<MEAN> 25
 7.308776e+00 -2.116291e+00 -5.915496e-01 8.047751e+00 4.512689e+00 -2.649817e+00 -3.380396e+00 -8.267048e-01 -5.005058e+00 -7.383716e+00 -4.765788e+00 -2.091391e+00 -2.042886e-01 4.120783e-01 5.339515e-01 7.017787e-01 3.444184e-01 2.565898e-01 1.210279e-01 4.571145e-01 1.694299e-01 -4.738842e-01 -6.538218e-01 -4.505804e-01 -4.639952e-01
<VARIANCE> 25
 2.202492e+01 3.481960e+01 3.887338e+01 6.391379e+01 4.331805e+01 4.796937e+01 4.158508e+01 4.477020e+01 4.591209e+01 3.888554e+01 3.268353e+01 2.532600e+01 8.968565e-01 1.265179e+00 1.520058e+00 2.136260e+00 1.615692e+00 2.971242e+00 2.029787e+00 2.106359e+00 2.521566e+00 2.456026e+00 1.921850e+00 1.679168e+00 9.447469e-01
<GCONST> 9.704557e+01
<STATE> 4
<MEAN> 25
 5.966500e+00 -3.820904e-01 3.151454e-01 7.105481e+00 4.340966e+00 -1.720254e+00 -3.097861e+00 -7.825651e-01 -3.803820e+00 -6.722578e+00 -5.169729e+00 -2.231982e+00 -1.248948e-01 3.641126e-02 -1.620759e-01 -8.538845e-01 -4.337227e-01 -1.165125e-01 1.175181e-01 -1.721042e-01 8.785849e-02 4.827425e-01 5.441091e-01 3.938914e-01 1.508765e-01
<VARIANCE> 25
 2.100273e+01 3.151579e+01 3.614806e+01 5.096074e+01 3.741170e+01 4.566805e+01 3.924998e+01 3.931923e+01 4.211623e+01 3.813666e+01 3.033226e+01 2.373476e+01 8.690925e-01 1.079303e+00 1.530230e+00 2.250370e+00 1.643832e+00 2.437176e+00 1.802907e+00 2.009850e+00 2.136790e+00 2.217616e+00 1.925478e+00 1.643911e+00 9.747648e-01
<GCONST> 9.523684e+01
~t "T_l"
<ENDHMM>
~h "a-l+g"
<BEGINHMM>
<NUMSTATES> 5
<STATE> 2
<MEAN> 25
 6.314451e+00 -2.836339e+00 -2.415431e+00 2.781851e+00 1.947059e+00 -2.800302e+00 -2.661815e+00 -2.324516e+00 -3.876258e+00 -3.683601e+00 -1.570764e+00 7.563966e-02 3.129438e-01 4.277349e-01 7.984434e-01 1.918523e+00 1.017305e+00 4.531452e-01 -1.293264e-01 2.709396e-01 -7.299022e-01 -1.606042e+00 -1.354267e+00 -7.730924e-01 -6.160657e-01
<VARIANCE> 25
 3.768519e+01 4.112976e+01 4.717404e+01 6.522243e+01 4.798243e+01 5.569359e+01 4.089912e+01 4.426613e+01 5.019736e+01 4.535135e+01 3.915966e+01 3.028901e+01 1.699836e+00 1.977105e+00 2.316171e+00 3.031282e+00 2.905935e+00 4.508301e+00 3.719640e+00 4.100824e+00 4.742221e+00 3.786747e+00 3.138241e+00 2.508972e+00 2.132987e+00
<GCONST> 1.056931e+02
<STATE> 3
<MEAN> 25
 7.308776e+00 -2.116291e+00 -5.915496e-01 8.047751e+00 4.512689e+00 -2.649817e+00 -3.380396e+00 -8.267048e-01 -5.005058e+00 -7.383716e+00 -4.765788e+00 -2.091391e+00 -2.042886e-01 4.120783e-01 5.339515e-01 7.017787e-01 3.444184e-01 2.565898e-01 1.210279e-01 4.571145e-01 1.694299e-01 -4.738842e-01 -6.538218e-01 -4.505804e-01 -4.639952e-01
<VARIANCE> 25
 2.202492e+01 3.481960e+01 3.887338e+01 6.391379e+01 4.331805e+01 4.796937e+01 4.158508e+01 4.477020e+01 4.591209e+01 3.888554e+01 3.268353e+01 2.532600e+01 8.968565e-01 1.265179e+00 1.520058e+00 2.136260e+00 1.615692e+00 2.971242e+00 2.029787e+00 2.106359e+00 2.521566e+00 2.456026e+00 1.921850e+00 1.679168e+00 9.447469e-01
<GCONST> 9.704557e+01
<STATE> 4
<MEAN> 25
 5.966500e+00 -3.820904e-01 3.151454e-01 7.105481e+00 4.340966e+00 -1.720254e+00 -3.097861e+00 -7.825651e-01 -3.803820e+00 -6.722578e+00 -5.169729e+00 -2.231982e+00 -1.248948e-01 3.641126e-02 -1.620759e-01 -8.538845e-01 -4.337227e-01 -1.165125e-01 1.175181e-01 -1.721042e-01 8.785849e-02 4.827425e-01 5.441091e-01 3.938914e-01 1.508765e-01
<VARIANCE> 25
 2.100273e+01 3.151579e+01 3.614806e+01 5.096074e+01 3.741170e+01 4.566805e+01 3.924998e+01 3.931923e+01 4.211623e+01 3.813666e+01 3.033226e+01 2.373476e+01 8.690925e-01 1.079303e+00 1.530230e+00 2.250370e+00 1.643832e+00 2.437176e+00 1.802907e+00 2.009850e+00 2.136790e+00 2.217616e+00 1.925478e+00 1.643911e+00 9.747648e-01
<GCONST> 9.523684e+01
~t "T_l"
<ENDHMM>
~h "a-l+i"
<BEGINHMM>
<NUMSTATES> 5
<STATE> 2
<MEAN> 25
 6.314451e+00 -2.836339e+00 -2.415431e+00 2.781851e+00 1.947059e+00 -2.800302e+00 -2.661815e+00 -2.324516e+00 -3.876258e+00 -3.683601e+00 -1.570764e+00 7.563966e-02 3.129438e-01 4.277349e-01 7.984434e-01 1.918523e+00 1.017305e+00 4.531452e-01 -1.293264e-01 2.709396e-01 -7.299022e-01 -1.606042e+00 -1.354267e+00 -7.730924e-01 -6.160657e-01
<VARIANCE> 25
 3.768519e+01 4.112976e+01 4.717404e+01 6.522243e+01 4.798243e+01 5.569359e+01 4.089912e+01 4.426613e+01 5.019736e+01 4.535135e+01 3.915966e+01 3.028901e+01 1.699836e+00 1.977105e+00 2.316171e+00 3.031282e+00 2.905935e+00 4.508301e+00 3.719640e+00 4.100824e+00 4.742221e+00 3.786747e+00 3.138241e+00 2.508972e+00 2.132987e+00
<GCONST> 1.056931e+02
<STATE> 3
<MEAN> 25
 7.308776e+00 -2.116291e+00 -5.915496e-01 8.047751e+00 4.512689e+00 -2.649817e+00 -3.380396e+00 -8.267048e-01 -5.005058e+00 -7.383716e+00 -4.765788e+00 -2.091391e+00 -2.042886e-01 4.120783e-01 5.339515e-01 7.017787e-01 3.444184e-01 2.565898e-01 1.210279e-01 4.571145e-01 1.694299e-01 -4.738842e-01 -6.538218e-01 -4.505804e-01 -4.639952e-01
<VARIANCE> 25
 2.202492e+01 3.481960e+01 3.887338e+01 6.391379e+01 4.331805e+01 4.796937e+01 4.158508e+01 4.477020e+01 4.591209e+01 3.888554e+01 3.268353e+01 2.532600e+01 8.968565e-01 1.265179e+00 1.520058e+00 2.136260e+00 1.615692e+00 2.971242e+00 2.029787e+00 2.106359e+00 2.521566e+00 2.456026e+00 1.921850e+00 1.679168e+00 9.447469e-01
<GCONST> 9.704557e+01
<STATE> 4
<MEAN> 25
 5.966500e+00 -3.820904e-01 3.151454e-01 7.105481e+00 4.340966e+00 -1.720254e+00 -3.097861e+00 -7.825651e-01 -3.803820e+00 -6.722578e+00 -5.169729e+00 -2.231982e+00 -1.248948e-01 3.641126e-02 -1.620759e-01 -8.538845e-01 -4.337227e-01 -1.165125e-01 1.175181e-01 -1.721042e-01 8.785849e-02 4.827425e-01 5.441091e-01 3.938914e-01 1.508765e-01
<VARIANCE> 25
 2.100273e+01 3.151579e+01 3.614806e+01 5.096074e+01 3.741170e+01 4.566805e+01 3.924998e+01 3.931923e+01 4.211623e+01 3.813666e+01 3.033226e+01 2.373476e+01 8.690925e-01 1.079303e+00 1.530230e+00 2.250370e+00 1.643832e+00 2.437176e+00 1.802907e+00 2.009850e+00 2.136790e+00 2.217616e+00 1.925478e+00 1.643911e+00 9.747648e-01
<GCONST> 9.523684e+01
~t "T_l"
<ENDHMM>
~h "a-l+k"
<BEGINHMM>
<NUMSTATES> 5
<STATE> 2
<MEAN> 25
 6.314451e+00 -2.836339e+00 -2.415431e+00 2.781851e+00 1.947059e+00 -2.800302e+00 -2.661815e+00 -2.324516e+00 -3.876258e+00 -3.683601e+00 -1.570764e+00 7.563966e-02 3.129438e-01 4.277349e-01 7.984434e-01 1.918523e+00 1.017305e+00 4.531452e-01 -1.293264e-01 2.709396e-01 -7.299022e-01 -1.606042e+00 -1.354267e+00 -7.730924e-01 -6.160657e-01
<VARIANCE> 25
 3.768519e+01 4.112976e+01 4.717404e+01 6.522243e+01 4.798243e+01 5.569359e+01 4.089912e+01 4.426613e+01 5.019736e+01 4.535135e+01 3.915966e+01 3.028901e+01 1.699836e+00 1.977105e+00 2.316171e+00 3.031282e+00 2.905935e+00 4.508301e+00 3.719640e+00 4.100824e+00 4.742221e+00 3.786747e+00 3.138241e+00 2.508972e+00 2.132987e+00
<GCONST> 1.056931e+02
<STATE> 3
<MEAN> 25
 7.308776e+00 -2.116291e+00 -5.915496e-01 8.047751e+00 4.512689e+00 -2.649817e+00 -3.380396e+00 -8.267048e-01 -5.005058e+00 -7.383716e+00 -4.765788e+00 -2.091391e+00 -2.042886e-01 4.120783e-01 5.339515e-01 7.017787e-01 3.444184e-01 2.565898e-01 1.210279e-01 4.571145e-01 1.694299e-01 -4.738842e-01 -6.538218e-01 -4.505804e-01 -4.639952e-01
<VARIANCE> 25
 2.202492e+01 3.481960e+01 3.887338e+01 6.391379e+01 4.331805e+01 4.796937e+01 4.158508e+01 4.477020e+01 4.591209e+01 3.888554e+01 3.268353e+01 2.532600e+01 8.968565e-01 1.265179e+00 1.520058e+00 2.136260e+00 1.615692e+00 2.971242e+00 2.029787e+00 2.106359e+00 2.521566e+00 2.456026e+00 1.921850e+00 1.679168e+00 9.447469e-01
<GCONST> 9.704557e+01
<STATE> 4
<MEAN> 25
 5.966500e+00 -3.820904e-01 3.151454e-01 7.105481e+00 4.340966e+00 -1.720254e+00 -3.097861e+00 -7.825651e-01 -3.803820e+00 -6.722578e+00 -5.169729e+00 -2.231982e+00 -1.248948e-01 3.641126e-02 -1.620759e-01 -8.538845e-01 -4.337227e-01 -1.165125e-01 1.175181e-01 -1.721042e-01 8.785849e-02 4.827425e-01 5.441091e-01 3.938914e-01 1.508765e-01
<VARIANCE> 25
 2.100273e+01 3.151579e+01 3.614806e+01 5.096074e+01 3.741170e+01 4.566805e+01 3.924998e+01 3.931923e+01 4.211623e+01 3.813666e+01 3.033226e+01 2.373476e+01 8.690925e-01 1.079303e+00 1.530230e+00 2.250370e+00 1.643832e+00 2.437176e+00 1.802907e+00 2.009850e+00 2.136790e+00 2.217616e+00 1.925478e+00 1.643911e+00 9.747648e-01
<GCONST> 9.523684e+01
~t "T_l"
<ENDHMM>
~h "a-l+m"
<BEGINHMM>
<NUMSTATES> 5
<STATE> 2
<MEAN> 25
 6.314451e+00 -2.836339e+00 -2.415431e+00 2.781851e+00 1.947059e+00 -2.800302e+00 -2.661815e+00 -2.324516e+00 -3.876258e+00 -3.683601e+00 -1.570764e+00 7.563966e-02 3.129438e-01 4.277349e-01 7.984434e-01 1.918523e+00 1.017305e+00 4.531452e-01 -1.293264e-01 2.709396e-01 -7.299022e-01 -1.606042e+00 -1.354267e+00 -7.730924e-01 -6.160657e-01
<VARIANCE> 25
 3.768519e+01 4.112976e+01 4.717404e+01 6.522243e+01 4.798243e+01 5.569359e+01 4.089912e+01 4.426613e+01 5.019736e+01 4.535135e+01 3.915966e+01 3.028901e+01 1.699836e+00 1.977105e+00 2.316171e+00 3.031282e+00 2.905935e+00 4.508301e+00 3.719640e+00 4.100824e+00 4.742221e+00 3.786747e+00 3.138241e+00 2.508972e+00 2.132987e+00
<GCONST> 1.056931e+02
<STATE> 3
<MEAN> 25
 7.308776e+00 -2.116291e+00 -5.915496e-01 8.047751e+00 4.512689e+00 -2.649817e+00 -3.380396e+00 -8.267048e-01 -5.005058e+00 -7.383716e+00 -4.765788e+00 -2.091391e+00 -2.042886e-01 4.120783e-01 5.339515e-01 7.017787e-01 3.444184e-01 2.565898e-01 1.210279e-01 4.571145e-01 1.694299e-01 -4.738842e-01 -6.538218e-01 -4.505804e-01 -4.639952e-01
<VARIANCE> 25
 2.202492e+01 3.481960e+01 3.887338e+01 6.391379e+01 4.331805e+01 4.796937e+01 4.158508e+01 4.477020e+01 4.591209e+01 3.888554e+01 3.268353e+01 2.532600e+01 8.968565e-01 1.265179e+00 1.520058e+00 2.136260e+00 1.615692e+00 2.971242e+00 2.029787e+00 2.106359e+00 2.521566e+00 2.456026e+00 1.921850e+00 1.679168e+00 9.447469e-01
<GCONST> 9.704557e+01
<STATE> 4
<MEAN> 25
 5.966500e+00 -3.820904e-01 3.151454e-01 7.105481e+00 4.340966e+00 -1.720254e+00 -3.097861e+00 -7.825651e-01 -3.803820e+00 -6.722578e+00 -5.169729e+00 -2.231982e+00 -1.248948e-01 3.641126e-02 -1.620759e-01 -8.538845e-01 -4.337227e-01 -1.165125e-01 1.175181e-01 -1.721042e-01 8.785849e-02 4.827425e-01 5.441091e-01 3.938914e-01 1.508765e-01
<VARIANCE> 25
 2.100273e+01 3.151579e+01 3.614806e+01 5.096074e+01 3.741170e+01 4.566805e+01 3.924998e+01 3.931923e+01 4.211623e+01 3.813666e+01 3.033226e+01 2.373476e+01 8.690925e-01 1.079303e+00 1.530230e+00 2.250370e+00 1.643832e+00 2.437176e+00 1.802907e+00 2.009850e+00 2.136790e+00 2.217616e+00 1.925478e+00 1.643911e+00 9.747648e-01
<GCONST> 9.523684e+01
~t "T_l"
<ENDHMM>
~h "a-l+o"
<BEGINHMM>
<NUMSTATES> 5
<STATE> 2
<MEAN> 25
 6.314451e+00 -2.836339e+00 -2.415431e+00 2.781851e+00 1.947059e+00 -2.800302e+00 -2.661815e+00 -2.324516e+00 -3.876258e+00 -3.683601e+00 -1.570764e+00 7.563966e-02 3.129438e-01 4.277349e-01 7.984434e-01 1.918523e+00 1.017305e+00 4.531452e-01 -1.293264e-01 2.709396e-01 -7.299022e-01 -1.606042e+00 -1.354267e+00 -7.730924e-01 -6.160657e-01
<VARIANCE> 25
 3.768519e+01 4.112976e+01 4.717404e+01 6.522243e+01 4.798243e+01 5.569359e+01 4.089912e+01 4.426613e+01 5.019736e+01 4.535135e+01 3.915966e+01 3.028901e+01 1.699836e+00 1.977105e+00 2.316171e+00 3.031282e+00 2.905935e+00 4.508301e+00 3.719640e+00 4.100824e+00 4.742221e+00 3.786747e+00 3.138241e+00 2.508972e+00 2.132987e+00
<GCONST> 1.056931e+02
<STATE> 3
<MEAN> 25
 7.308776e+00 -2.116291e+00 -5.915496e-01 8.047751e+00 4.512689e+00 -2.649817e+00 -3.380396e+00 -8.267048e-01 -5.005058e+00 -7.383716e+00 -4.765788e+00 -2.091391e+00 -2.042886e-01 4.120783e-01 5.339515e-01 7.017787e-01 3.444184e-01 2.565898e-01 1.210279e-01 4.571145e-01 1.694299e-01 -4.738842e-01 -6.538218e-01 -4.505804e-01 -4.639952e-01
<VARIANCE> 25
 2.202492e+01 3.481960e+01 3.887338e+01 6.391379e+01 4.331805e+01 4.796937e+01 4.158508e+01 4.477020e+01 4.591209e+01 3.888554e+01 3.268353e+01 2.532600e+01 8.968565e-01 1.265179e+00 1.520058e+00 2.136260e+00 1.615692e+00 2.971242e+00 2.029787e+00 2.106359e+00 2.521566e+00 2.456026e+00 1.921850e+00 1.679168e+00 9.447469e-01
<GCONST> 9.704557e+01
<STATE> 4
<MEAN> 25
 5.966500e+00 -3.820904e-01 3.151454e-01 7.105481e+00 4.340966e+00 -1.720254e+00 -3.097861e+00 -7.825651e-01 -3.803820e+00 -6.722578e+00 -5.169729e+00 -2.231982e+00 -1.248948e-01 3.641126e-02 -1.620759e-01 -8.538845e-01 -4.337227e-01 -1.165125e-01 1.175181e-01 -1.721042e-01 8.785849e-02 4.827425e-01 5.441091e-01 3.938914e-01 1.508765e-01
<VARIANCE> 25
 2.100273e+01 3.151579e+01 3.614806e+01 5.096074e+01 3.741170e+01 4.566805e+01 3.924998e+01 3.931923e+01 4.211623e+01 3.813666e+01 3.033226e+01 2.373476e+01 8.690925e-01 1.079303e+00 1.530230e+00 2.250370e+00 1.643832e+00 2.437176e+00 1.802907e+00 2.009850e+00 2.136790e+00 2.217616e+00 1.925478e+00 1.643911e+00 9.747648e-01
<GCONST> 9.523684e+01
~t "T_l"
<ENDHMM>
~h "a-l+s"
<BEGINHMM>
<NUMSTATES> 5
<STATE> 2
<MEAN> 25
 6.314451e+00 -2.836339e+00 -2.415431e+00 2.781851e+00 1.947059e+00 -2.800302e+00 -2.661815e+00 -2.324516e+00 -3.876258e+00 -3.683601e+00 -1.570764e+00 7.563966e-02 3.129438e-01 4.277349e-01 7.984434e-01 1.918523e+00 1.017305e+00 4.531452e-01 -1.293264e-01 2.709396e-01 -7.299022e-01 -1.606042e+00 -1.354267e+00 -7.730924e-01 -6.160657e-01
<VARIANCE> 25
 3.768519e+01 4.112976e+01 4.717404e+01 6.522243e+01 4.798243e+01 5.569359e+01 4.089912e+01 4.426613e+01 5.019736e+01 4.535135e+01 3.915966e+01 3.028901e+01 1.699836e+00 1.977105e+00 2.316171e+00 3.031282e+00 2.905935e+00 4.508301e+00 3.719640e+00 4.100824e+00 4.742221e+00 3.786747e+00 3.138241e+00 2.508972e+00 2.132987e+00
<GCONST> 1.056931e+02
<STATE> 3
<MEAN> 25
 7.308776e+00 -2.116291e+00 -5.915496e-01 8.047751e+00 4.512689e+00 -2.649817e+00 -3.380396e+00 -8.267048e-01 -5.005058e+00 -7.383716e+00 -4.765788e+00 -2.091391e+00 -2.042886e-01 4.120783e-01 5.339515e-01 7.017787e-01 3.444184e-01 2.565898e-01 1.210279e-01 4.571145e-01 1.694299e-01 -4.738842e-01 -6.538218e-01 -4.505804e-01 -4.639952e-01
<VARIANCE> 25
 2.202492e+01 3.481960e+01 3.887338e+01 6.391379e+01 4.331805e+01 4.796937e+01 4.158508e+01 4.477020e+01 4.591209e+01 3.888554e+01 3.268353e+01 2.532600e+01 8.968565e-01 1.265179e+00 1.520058e+00 2.136260e+00 1.615692e+00 2.971242e+00 2.029787e+00 2.106359e+00 2.521566e+00 2.456026e+00 1.921850e+00 1.679168e+00 9.447469e-01
<GCONST> 9.704557e+01
<STATE> 4
<MEAN> 25
 5.966500e+00 -3.820904e-01 3.151454e-01 7.105481e+00 4.340966e+00 -1.720254e+00 -3.097861e+00 -7.825651e-01 -3.803820e+00 -6.722578e+00 -5.169729e+00 -2.231982e+00 -1.248948e-01 3.641126e-02 -1.620759e-01 -8.538845e-01 -4.337227e-01 -1.165125e-01 1.175181e-01 -1.721042e-01 8.785849e-02 4.827425e-01 5.441091e-01 3.938914e-01 1.508765e-01
<VARIANCE> 25
 2.100273e+01 3.151579e+01 3.614806e+01 5.096074e+01 3.741170e+01 4.566805e+01 3.924998e+01 3.931923e+01 4.211623e+01 3.813666e+01 3.033226e+01 2.373476e+01 8.690925e-01 1.079303e+00 1.530230e+00 2.250370e+00 1.643832e+00 2.437176e+00 1.802907e+00 2.009850e+00 2.136790e+00 2.217616e+00 1.925478e+00 1.643911e+00 9.747648e-01
<GCONST> 9.523684e+01
~t "T_l"
<ENDHMM>
~h "a-l+t"
<BEGINHMM>
<NUMSTATES> 5
<STATE> 2
<MEAN> 25
 6.314451e+00 -2.836339e+00 -2.415431e+00 2.781851e+00 1.947059e+00 -2.800302e+00 -2.661815e+00 -2.324516e+00 -3.876258e+00 -3.683601e+00 -1.570764e+00 7.563966e-02 3.129438e-01 4.277349e-01 7.984434e-01 1.918523e+00 1.017305e+00 4.531452e-01 -1.293264e-01 2.709396e-01 -7.299022e-01 -1.606042e+00 -1.354267e+00 -7.730924e-01 -6.160657e-01
<VARIANCE> 25
 3.768519e+01 4.112976e+01 4.717404e+01 6.522243e+01 4.798243e+01 5.569359e+01 4.089912e+01 4.426613e+01 5.019736e+01 4.535135e+01 3.915966e+01 3.028901e+01 1.699836e+00 1.977105e+00 2.316171e+00 3.031282e+00 2.905935e+00 4.508301e+00 3.719640e+00 4.100824e+00 4.742221e+00 3.786747e+00 3.138241e+00 2.508972e+00 2.132987e+00
<GCONST> 1.056931e+02
<STATE> 3
<MEAN> 25
 7.308776e+00 -2.116291e+00 -5.915496e-01 8.047751e+00 4.512689e+00 -2.649817e+00 -3.380396e+00 -8.267048e-01 -5.005058e+00 -7.383716e+00 -4.765788e+00 -2.091391e+00 -2.042886e-01 4.120783e-01 5.339515e-01 7.017787e-01 3.444184e-01 2.565898e-01 1.210279e-01 4.571145e-01 1.694299e-01 -4.738842e-01 -6.538218e-01 -4.505804e-01 -4.639952e-01
<VARIANCE> 25
 2.202492e+01 3.481960e+01 3.887338e+01 6.391379e+01 4.331805e+01 4.796937e+01 4.158508e+01 4.477020e+01 4.591209e+01 3.888554e+01 3.268353e+01 2.532600e+01 8.968565e-01 1.265179e+00 1.520058e+00 2.136260e+00 1.615692e+00 2.971242e+00 2.029787e+00 2.106359e+00 2.521566e+00 2.456026e+00 1.921850e+00 1.679168e+00 9.447469e-01
<GCONST> 9.704557e+01
<STATE> 4
<MEAN> 25
 5.966500e+00 -3.820904e-01 3.151454e-01 7.105481e+00 4.340966e+00 -1.720254e+00 -3.097861e+00 -7.825651e-01 -3.803820e+00 -6.722578e+00 -5.169729e+00 -2.231982e+00 -1.248948e-01 3.641126e-02 -1.620759e-01 -8.538845e-01 -4.337227e-01 -1.165125e-01 1.175181e-01 -1.721042e-01 8.785849e-02 4.827425e-01 5.441091e-01 3.938914e-01 1.508765e-01
<VARIANCE> 25
 2.100273e+01 3.151579e+01 3.614806e+01 5.096074e+01 3.741170e+01 4.566805e+01 3.924998e+01 3.931923e+01 4.211623e+01 3.813666e+01 3.033226e+01 2.373476e+01 8.690925e-01 1.079303e+00 1.530230e+00 2.250370e+00 1.643832e+00 2.437176e+00 1.802907e+00 2.009850e+00 2.136790e+00 2.217616e+00 1.925478e+00 1.643911e+00 9.747648e-01
<GCONST> 9.523684e+01
~t "T_l"
<ENDHMM>
~h "a-l+u"
<BEGINHMM>
<NUMSTATES> 5
<STATE> 2
<MEAN> 25
 6.314451e+00 -2.836339e+00 -2.415431e+00 2.781851e+00 1.947059e+00 -2.800302e+00 -2.661815e+00 -2.324516e+00 -3.876258e+00 -3.683601e+00 -1.570764e+00 7.563966e-02 3.129438e-01 4.277349e-01 7.984434e-01 1.918523e+00 1.017305e+00 4.531452e-01 -1.293264e-01 2.709396e-01 -7.299022e-01 -1.606042e+00 -1.354267e+00 -7.730924e-01 -6.160657e-01
<VARIANCE> 25
 3.768519e+01 4.112976e+01 4.717404e+01 6.522243e+01 4.798243e+01 5.569359e+01 4.089912e+01 4.426613e+01 5.019736e+01 4.535135e+01 3.915966e+01 3.028901e+01 1.699836e+00 1.977105e+00 2.316171e+00 3.031282e+00 2.905935e+00 4.508301e+00 3.719640e+00 4.100824e+00 4.742221e+00 3.786747e+00 3.138241e+00 2.508972e+00 2.132987e+00
<GCONST> 1.056931e+02
<STATE> 3
<MEAN> 25
 7.308776e+00 -2.116291e+00 -5.915496e-01 8.047751e+00 4.512689e+00 -2.649817e+00 -3.380396e+00 -8.267048e-01 -5.005058e+00 -7.383716e+00 -4.765788e+00 -2.091391e+00 -2.042886e-01 4.120783e-01 5.339515e-01 7.017787e-01 3.444184e-01 2.565898e-01 1.210279e-01 4.571145e-01 1.694299e-01 -4.738842e-01 -6.538218e-01 -4.505804e-01 -4.639952e-01
<VARIANCE> 25
 2.202492e+01 3.481960e+01 3.887338e+01 6.391379e+01 4.331805e+01 4.796937e+01 4.158508e+01 4.477020e+01 4.591209e+01 3.888554e+01 3.268353e+01 2.532600e+01 8.968565e-01 1.265179e+00 1.520058e+00 2.136260e+00 1.615692e+00 2.971242e+00 2.029787e+00 2.106359e+00 2.521566e+00 2.456026e+00 1.921850e+00 1.679168e+00 9.447469e-01
<GCONST> 9.704557e+01
<STATE> 4
<MEAN> 25
 5.966500e+00 -3.820904e-01 3.151454e-01 7.105481e+00 4.340966e+00 -1.720254e+00 -3.097861e+00 -7.825651e-01 -3.803820e+00 -6.722578e+00 -5.169729e+00 -2.231982e+00 -1.248948e-01 3.641126e-02 -1.620759e-01 -8.538845e-01 -4.337227e-01 -1.165125e-01 1.175181e-01 -1.721042e-01 8.785849e-02 4.827425e-01 5.441091e-01 3.938914e-01 1.508765e-01
<VARIANCE> 25
 2.100273e+01 3.151579e+01 3.614806e+01 5.096074e+01 3.741170e+01 4.566805e+01 3.924998e+01 3.931923e+01 4.211623e+01 3.813666e+01 3.033226e+01 2.373476e+01 8.690925e-01 1.079303e+00 1.530230e+00 2.250370e+00 1.643832e+00 2.437176e+00 1.802907e+00 2.009850e+00 2.136790e+00 2.217616e+00 1.925478e+00 1.643911e+00 9.747648e-01
<GCONST> 9.523684e+01
~t "T_l"
<ENDHMM>
~h "n-g+l"
<BEGINHMM>
<NUMSTATES> 5
<STATE> 2
<MEAN> 25
 4.635559e+00 5.363365e-01 8.743733e-02 3.524290e-01 2.229798e+00 -1.743833e+00 -1.579602e+00 -2.043766e+00 -2.718624e+00 -2.152016e+00 -2.397058e+00 -2.887682e+00 -4.716252e-02 1.557592e-01 -1.047090e-03 -1.243150e-01 -1.916994e-01 4.209527e-03 1.893945e-01 -1.626682e-01 -2.188310e-01 -1.203275e-01 1.739263e-01 9.188620e-02 -8.254285e-02
<VARIANCE> 25
 3.401551e+01 4.746745e+01 6.590588e+01 6.888592e+01 6.231248e+01 4.789571e+01 4.945169e+01 4.794329e+01 4.512083e+01 4.021106e+01 3.828913e+01 3.100824e+01 1.276815e+00 2.578767e+00 2.202086e+00 2.691261e+00 3.435740e+00 3.242736e+00 3.975471e+00 4.328651e+00 3.473794e+00 3.157657e+00 2.566085e+00 2.366839e+00 2.285003e+00
<GCONST> 1.053621e+02
<STATE> 3
<MEAN> 25
 5.764225e+00 3.891699e-01 -5.608481e-01 1.503215e+00 2.225826e+00 -2.072252e+00 -2.398549e+00 -2.813673e+00 -3.874879e+00 -2.397335e+00 -1.524217e+00 -2.210126e+00 3.092694e-01 -2.237352e-01 -3.254337e-01 -4.003477e-01 -4.933417e-01 -6.627559e-01 -2.823527e-01 -4.113862e-01 -2.297902e-01 5.927902e-03 3.290078e-01 4.026391e-01 4.842063e-01
<VARIANCE> 25
 3.381005e+01 4.374036e+01 6.482644e+01 5.705393e+01 5.706469e+01 4.893034e+01 4.398737e+01 4.758787e+01 4.533967e+01 4.081097e+01 3.519007e+01 3.081927e+01 1.034496e+00 2.682821e+00 2.113194e+00 2.702207e+00 3.681077e+00 3.302796e+00 3.798752e+00 4.138144e+00 3.182972e+00 2.662963e+00 2.501869e+00 2.575583e+00 2.035024e+00
<GCONST> 1.042816e+02
<STATE> 4
<MEAN> 25
 5.245019e+00 -7.963865e-01 -1.977029e+00 -2.131719e-01 1.307271e+00 -3.815542e+00 -2.609585e+00 -4.350823e+00 -2.867312e+00 -1.488320e+00 -1.081758e-02 -1.045275e+00 3.514531e-01 -1.762642e-01 -2.754835e-01 -4.325965e-01 -5.898843e-01 -6.183972e-01 -2.581686e-01 -1.215939e-01 8.153636e-02 1.697690e-01 2.150972e-01 3.137886e-01 3.792997e-01
<VARIANCE> 25
 4.054366e+01 6.239736e+01 6.931887e+01 6.282769e+01 6.256241e+01 5.861941e+01 4.958038e+01 5.950143e+01 6.179900e+01 4.873711e+01 4.745664e+01 4.696631e+01 9.160993e-01 2.332375e+00 2.254871e+00 2.718161e+00 3.564646e+00 3.590911e+00 3.101396e+00 3.462668e+00 3.134885e+00 2.632264e+00 2.810844e+00 2.733017e+00 1.779732e+00
<GCONST> 1.062998e+02
~t "T_g"
<ENDHMM>
~h "n-g+o"
<BEGINHMM>
<NUMSTATES> 5
<STATE> 2
<MEAN> 25
 4.635559e+00 5.363365e-01 8.743733e-02 3.524290e-01 2.229798e+00 -1.743833e+00 -1.579602e+00 -2.043766e+00 -2.718624e+00 -2.152016e+00 -2.397058e+00 -2.887682e+00 -4.716252e-02 1.557592e-01 -1.047090e-03 -1.243150e-01 -1.916994e-01 4.209527e-03 1.893945e-01 -1.626682e-01 -2.188310e-01 -1.203275e-01 1.739263e-01 9.188620e-02 -8.254285e-02
<VARIANCE> 25
 3.401551e+01 4.746745e+01 6.590588e+01 6.888592e+01 6.231248e+01 4.789571e+01 4.945169e+01 4.794329e+01 4.512083e+01 4.021106e+01 3.828913e+01 3.100824e+01 1.276815e+00 2.578767e+00 2.202086e+00 2.691261e+00 3.435740e+00 3.242736e+00 3.975471e+00 4.328651e+00 3.473794e+00 3.157657e+00 2.566085e+00 2.366839e+00 2.285003e+00
<GCONST> 1.053621e+02
<STATE> 3
<MEAN> 25
 5.764225e+00 3.891699e-01 -5.608481e-01 1.503215e+00 2.225826e+00 -2.072252e+00 -2.398549e+00 -2.813673e+00 -3.874879e+00 -2.397335e+00 -1.524217e+00 -2.210126e+00 3.092694e-01 -2.237352e-01 -3.254337e-01 -4.003477e-01 -4.933417e-01 -6.627559e-01 -2.823527e-01 -4.113862e-01 -2.297902e-01 5.927902e-03 3.290078e-01 4.026391e-01 4.842063e-01
<VARIANCE> 25
 3.381005e+01 4.374036e+01 6.482644e+01 5.705393e+01 5.706469e+01 4.893034e+01 4.398737e+01 4.758787e+01 4.533967e+01 4.081097e+01 3.519007e+01 3.081927e+01 1.034496e+00 2.682821e+00 2.113194e+00 2.702207e+00 3.681077e+00 3.302796e+00 3.798752e+00 4.138144e+00 3.182972e+00 2.662963e+00 2.501869e+00 2.575583e+00 2.035024e+00
<GCONST> 1.042816e+02
<STATE> 4
<MEAN> 25
 5.245019e+00 -7.963865e-01 -1.977029e+00 -2.131719e-01 1.307271e+00 -3.815542e+00 -2.609585e+00 -4.350823e+00 -2.867312e+00 -1.488320e+00 -1.081758e-02 -1.045275e+00 3.514531e-01 -1.762642e-01 -2.754835e-01 -4.325965e-01 -5.898843e-01 -6.183972e-01 -2.581686e-01 -1.215939e-01 8.153636e-02 1.697690e-01 2.150972e-01 3.137886e-01 3.792997e-01
<VARIANCE> 25
 4.054366e+01 6.239736e+01 6.931887e+01 6.282769e+01 6.256241e+01 5.861941e+01 4.958038e+01 5.950143e+01 6.179900e+01 4.873711e+01 4.745664e+01 4.696631e+01 9.160993e-01 2.332375e+00 2.254871e+00 2.718161e+00 3.564646e+00 3.590911e+00 3.101396e+00 3.462668e+00 3.134885e+00 2.632264e+00 2.810844e+00 2.733017e+00 1.779732e+00
<GCONST> 1.062998e+02
~t "T_g"
<ENDHMM>
~h "n-g+r"
<BEGINHMM>
<NUMSTATES> 5
<STATE> 2
<MEAN> 25
 4.635559e+00 5.363365e-01 8.743733e-02 3.524290e-01 2.229798e+00 -1.743833e+00 -1.579602e+00 -2.043766e+00 -2.718624e+00 -2.152016e+00 -2.397058e+00 -2.887682e+00 -4.716252e-02 1.557592e-01 -1.047090e-03 -1.243150e-01 -1.916994e-01 4.209527e-03 1.893945e-01 -1.626682e-01 -2.188310e-01 -1.203275e-01 1.739263e-01 9.188620e-02 -8.254285e-02
<VARIANCE> 25
 3.401551e+01 4.746745e+01 6.590588e+01 6.888592e+01 6.231248e+01 4.789571e+01 4.945169e+01 4.794329e+01 4.512083e+01 4.021106e+01 3.828913e+01 3.100824e+01 1.276815e+00 2.578767e+00 2.202086e+00 2.691261e+00 3.435740e+00 3.242736e+00 3.975471e+00 4.328651e+00 3.473794e+00 3.157657e+00 2.566085e+00 2.366839e+00 2.285003e+00
<GCONST> 1.053621e+02
<STATE> 3
<MEAN> 25
 5.764225e+00 3.891699e-01 -5.608481e-01 1.503215e+00 2.225826e+00 -2.072252e+00 -2.398549e+00 -2.813673e+00 -3.874879e+00 -2.397335e+00 -1.524217e+00 -2.210126e+00 3.092694e-01 -2.237352e-01 -3.254337e-01 -4.003477e-01 -4.933417e-01 -6.627559e-01 -2.823527e-01 -4.113862e-01 -2.297902e-01 5.927902e-03 3.290078e-01 4.026391e-01 4.842063e-01
<VARIANCE> 25
 3.381005e+01 4.374036e+01 6.482644e+01 5.705393e+01 5.706469e+01 4.893034e+01 4.398737e+01 4.758787e+01 4.533967e+01 4.081097e+01 3.519007e+01 3.081927e+01 1.034496e+00 2.682821e+00 2.113194e+00 2.702207e+00 3.681077e+00 3.302796e+00 3.798752e+00 4.138144e+00 3.182972e+00 2.662963e+00 2.501869e+00 2.575583e+00 2.035024e+00
<GCONST> 1.042816e+02
<STATE> 4
<MEAN> 25
 5.245019e+00 -7.963865e-01 -1.977029e+00 -2.131719e-01 1.307271e+00 -3.815542e+00 -2.609585e+00 -4.350823e+00 -2.867312e+00 -1.488320e+00 -1.081758e-02 -1.045275e+00 3.514531e-01 -1.762642e-01 -2.754835e-01 -4.325965e-01 -5.898843e-01 -6.183972e-01 -2.581686e-01 -1.215939e-01 8.153636e-02 1.697690e-01 2.150972e-01 3.137886e-01 3.792997e-01
<VARIANCE> 25
 4.054366e+01 6.239736e+01 6.931887e+01 6.282769e+01 6.256241e+01 5.861941e+01 4.958038e+01 5.950143e+01 6.179900e+01 4.873711e+01 4.745664e+01 4.696631e+01 9.160993e-01 2.332375e+00 2.254871e+00 2.718161e+00 3.564646e+00 3.590911e+00 3.101396e+00 3.462668e+00 3.134885e+00 2.632264e+00 2.810844e+00 2.733017e+00 1.779732e+00
<GCONST> 1.062998e+02
~t "T_g"
<ENDHMM>
~h "n-g+u"
<BEGINHMM>
<NUMSTATES> 5
<STATE> 2
<MEAN> 25
 4.635559e+00 5.363365e-01 8.743733e-02 3.524290e-01 2.229798e+00 -1.743833e+00 -1.579602e+00 -2.043766e+00 -2.718624e+00 -2.152016e+00 -2.397058e+00 -2.887682e+00 -4.716252e-02 1.557592e-01 -1.047090e-03 -1.243150e-01 -1.916994e-01 4.209527e-03 1.893945e-01 -1.626682e-01 -2.188310e-01 -1.203275e-01 1.739263e-01 9.188620e-02 -8.254285e-02
<VARIANCE> 25
 3.401551e+01 4.746745e+01 6.590588e+01 6.888592e+01 6.231248e+01 4.789571e+01 4.945169e+01 4.794329e+01 4.512083e+01 4.021106e+01 3.828913e+01 3.100824e+01 1.276815e+00 2.578767e+00 2.202086e+00 2.691261e+00 3.435740e+00 3.242736e+00 3.975471e+00 4.328651e+00 3.473794e+00 3.157657e+00 2.566085e+00 2.366839e+00 2.285003e+00
<GCONST> 1.053621e+02
<STATE> 3
<MEAN> 25
 5.764225e+00 3.891699e-01 -5.608481e-01 1.503215e+00 2.225826e+00 -2.072252e+00 -2.398549e+00 -2.813673e+00 -3.874879e+00 -2.397335e+00 -1.524217e+00 -2.210126e+00 3.092694e-01 -2.237352e-01 -3.254337e-01 -4.003477e-01 -4.933417e-01 -6.627559e-01 -2.823527e-01 -4.113862e-01 -2.297902e-01 5.927902e-03 3.290078e-01 4.026391e-01 4.842063e-01
<VARIANCE> 25
 3.381005e+01 4.374036e+01 6.482644e+01 5.705393e+01 5.706469e+01 4.893034e+01 4.398737e+01 4.758787e+01 4.533967e+01 4.081097e+01 3.519007e+01 3.081927e+01 1.034496e+00 2.682821e+00 2.113194e+00 2.702207e+00 3.681077e+00 3.302796e+00 3.798752e+00 4.138144e+00 3.182972e+00 2.662963e+00 2.501869e+00 2.575583e+00 2.035024e+00
<GCONST> 1.042816e+02
<STATE> 4
<MEAN> 25
 5.245019e+00 -7.963865e-01 -1.977029e+00 -2.131719e-01 1.307271e+00 -3.815542e+00 -2.609585e+00 -4.350823e+00 -2.867312e+00 -1.488320e+00 -1.081758e-02 -1.045275e+00 3.514531e-01 -1.762642e-01 -2.754835e-01 -4.325965e-01 -5.898843e-01 -6.183972e-01 -2.581686e-01 -1.215939e-01 8.153636e-02 1.697690e-01 2.150972e-01 3.137886e-01 3.792997e-01
<VARIANCE> 25
 4.054366e+01 6.239736e+01 6.931887e+01 6.282769e+01 6.256241e+01 5.861941e+01 4.958038e+01 5.950143e+01 6.179900e+01 4.873711e+01 4.745664e+01 4.696631e+01 9.160993e-01 2.332375e+00 2.254871e+00 2.718161e+00 3.564646e+00 3.590911e+00 3.101396e+00 3.462668e+00 3.134885e+00 2.632264e+00 2.810844e+00 2.733017e+00 1.779732e+00
<GCONST> 1.062998e+02
~t "T_g"
<ENDHMM>
~h "a-m+a"
<BEGINHMM>
<NUMSTATES> 5
<STATE> 2
<MEAN> 25
 7.548775e+00 2.607854e+00 -2.102983e+00 4.346527e-01 8.082584e-01 9.021307e-01 6.144225e-01 8.268155e-01 -1.237094e+00 -2.310319e+00 -2.608431e+00 -3.108366e+00 -1.797019e-01 1.273914e+00 7.998855e-01 1.091742e+00 7.315946e-01 1.888878e+00 1.063340e+00 1.975945e-01 -9.558619e-02 -2.353920e-01 -8.953397e-01 -1.563288e+00 -1.207566e+00
<VARIANCE> 25
 2.775693e+01 3.253825e+01 4.646520e+01 5.028252e+01 4.394492e+01 4.523094e+01 3.715427e+01 3.382478e+01 4.342428e+01 3.434188e+01 2.442644e+01 3.211829e+01 1.185310e+00 1.893670e+00 1.789684e+00 3.486195e+00 3.584235e+00 3.238808e+00 3.284998e+00 2.704141e+00 3.304344e+00 3.214128e+00 2.384440e+00 2.359962e+00 1.375406e+00
<GCONST> 1.008971e+02
<STATE> 3
<MEAN> 25
 6.220848e+00 4.772701e+00 5.252566e-01 2.877606e+00 2.598014e+00 3.498492e+00 1.213324e+00 6.923475e-01 -7.689387e-01 -1.961661e+00 -3.632575e+00 -5.278195e+00 -7.126752e-02 8.531751e-02 1.286000e-01 1.251273e-01 1.169438e-01 2.010717e-01 1.808041e-01 4.610286e-02 -8.495778e-03 -3.835244e-02 -1.209151e-01 -2.196753e-01 -6.887542e-02
<VARIANCE> 25
 1.855869e+01 1.867837e+01 3.135711e+01 3.267927e+01 3.053080e+01 3.023534e+01 3.066374e+01 2.707565e+01 4.045082e+01 3.238166e+01 2.111422e+01 2.286841e+01 2.486276e-01 4.200025e-01 5.990037e-01 7.999274e-01 8.217130e-01 9.086192e-01 9.282346e-01 9.278805e-01 1.016802e+00 9.133210e-01 8.226467e-01 9.005458e-01 2.172809e-01
<GCONST> 8.029716e+01
<STATE> 4
<MEAN> 25
 6.860100e+00 4.454634e+00 4.674924e-02 2.128716e+00 1.891875e+00 3.227122e+00 1.878703e+00 1.082704e+00 -8.831809e-01 -1.881544e+00 -3.649952e+00 -5.456431e+00 3.623773e-01 -6.383294e-01 -6.348953e-01 -9.845536e-01 -7.848371e-01 -1.462937e+00 -6.459333e-01 7.814296e-02 -9.017757e-02 -7.700860e-02 5.040931e-01 1.155138e+00 8.107449e-01
<VARIANCE> 25
 1.989024e+01 2.237800e+01 3.543090e+01 3.925693e+01 3.831349e+01 3.554395e+01 3.319180e+01 2.993235e+01 4.311877e+01 3.359512e+01 2.268687e+01 2.678186e+01 5.137467e-01 1.101111e+00 1.252599e+00 2.638350e+00 2.525054e+00 2.299931e+00 2.038847e+00 1.819399e+00 1.983290e+00 1.852884e+00 1.639309e+00 1.938033e+00 6.037184e-01
<GCONST> 9.273713e+01
~t "T_m"
<ENDHMM>
~h "a-m+b"
<BEGINHMM>
<NUMSTATES> 5
<STATE> 2
<MEAN> 25
 7.548775e+00 2.607854e+00 -2.102983e+00 4.346527e-01 8.082584e-01 9.021307e-01 6.144225e-01 8.268155e-01 -1.237094e+00 -2.310319e+00 -2.608431e+00 -3.108366e+00 -1.797019e-01 1.273914e+00 7.998855e-01 1.091742e+00 7.315946e-01 1.888878e+00 1.063340e+00 1.975945e-01 -9.558619e-02 -2.353920e-01 -8.953397e-01 -1.563288e+00 -1.207566e+00
<VARIANCE> 25
 2.775693e+01 3.253825e+01 4.646520e+01 5.028252e+01 4.394492e+01 4.523094e+01 3.715427e+01 3.382478e+01 4.342428e+01 3.434188e+01 2.442644e+01 3.211829e+01 1.185310e+00 1.893670e+00 1.789684e+00 3.486195e+00 3.584235e+00 3.238808e+00 3.284998e+00 2.704141e+00 3.304344e+00 3.214128e+00 2.384440e+00 2.359962e+00 1.375406e+00
<GCONST> 1.008971e+02
<STATE> 3
<MEAN> 25
 6.220848e+00 4.772701e+00 5.252566e-01 2.877606e+00 2.598014e+00 3.498492e+00 1.213324e+00 6.923475e-01 -7.689387e-01 -1.961661e+00 -3.632575e+00 -5.278195e+00 -7.126752e-02 8.531751e-02 1.286000e-01 1.251273e-01 1.169438e-01 2.010717e-01 1.808041e-01 4.610286e-02 -8.495778e-03 -3.835244e-02 -1.209151e-01 -2.196753e-01 -6.887542e-02
<VARIANCE> 25
 1.855869e+01 1.867837e+01 3.135711e+01 3.267927e+01 3.053080e+01 3.023534e+01 3.066374e+01 2.707565e+01 4.045082e+01 3.238166e+01 2.111422e+01 2.286841e+01 2.486276e-01 4.200025e-01 5.990037e-01 7.999274e-01 8.217130e-01 9.086192e-01 9.282346e-01 9.278805e-01 1.016802e+00 9.133210e-01 8.226467e-01 9.005458e-01 2.172809e-01
<GCONST> 8.029716e+01
<STATE> 4
<MEAN> 25
 6.860100e+00 4.454634e+00 4.674924e-02 2.128716e+00 1.891875e+00 3.227122e+00 1.878703e+00 1.082704e+00 -8.831809e-01 -1.881544e+00 -3.649952e+00 -5.456431e+00 3.623773e-01 -6.383294e-01 -6.348953e-01 -9.845536e-01 -7.848371e-01 -1.462937e+00 -6.459333e-01 7.814296e-02 -9.017757e-02 -7.700860e-02 5.040931e-01 1.155138e+00 8.107449e-01
<VARIANCE> 25
 1.989024e+01 2.237800e+01 3.543090e+01 3.925693e+01 3.831349e+01 3.554395e+01 3.319180e+01 2.993235e+01 4.311877e+01 3.359512e+01 2.268687e+01 2.678186e+01 5.137467e-01 1.101111e+00 1.252599e+00 2.638350e+00 2.525054e+00 2.299931e+00 2.038847e+00 1.819399e+00 1.983290e+00 1.852884e+00 1.639309e+00 1.938033e+00 6.037184e-01
<GCONST> 9.273713e+01
~t "T_m"
<ENDHMM>
~h "a-m+e"
<BEGINHMM>
<NUMSTATES> 5
<STATE> 2
<MEAN> 25
 7.548775e+00 2.607854e+00 -2.102983e+00 4.346527e-01 8.082584e-01 9.021307e-01 6.144225e-01 8.268155e-01 -1.237094e+00 -2.310319e+00 -2.608431e+00 -3.108366e+00 -1.797019e-01 1.273914e+00 7.998855e-01 1.091742e+00 7.315946e-01 1.888878e+00 1.063340e+00 1.975945e-01 -9.558619e-02 -2.353920e-01 -8.953397e-01 -1.563288e+00 -1.207566e+00
<VARIANCE> 25
 2.775693e+01 3.253825e+01 4.646520e+01 5.028252e+01 4.394492e+01 4.523094e+01 3.715427e+01 3.382478e+01 4.342428e+01 3.434188e+01 2.442644e+01 3.211829e+01 1.185310e+00 1.893670e+00 1.789684e+00 3.486195e+00 3.584235e+00 3.238808e+00 3.284998e+00 2.704141e+00 3.304344e+00 3.214128e+00 2.384440e+00 2.359962e+00 1.375406e+00
<GCONST> 1.008971e+02
<STATE> 3
<MEAN> 25
 6.220848e+00 4.772701e+00 5.252566e-01 2.877606e+00 2.598014e+00 3.498492e+00 1.213324e+00 6.923475e-01 -7.689387e-01 -1.961661e+00 -3.632575e+00 -5.278195e+00 -7.126752e-02 8.531751e-02 1.286000e-01 1.251273e-01 1.169438e-01 2.010717e-01 1.808041e-01 4.610286e-02 -8.495778e-03 -3.835244e-02 -1.209151e-01 -2.196753e-01 -6.887542e-02
<VARIANCE> 25
 1.855869e+01 1.867837e+01 3.135711e+01 3.267927e+01 3.053080e+01 3.023534e+01 3.066374e+01 2.707565e+01 4.045082e+01 3.238166e+01 2.111422e+01 2.286841e+01 2.486276e-01 4.200025e-01 5.990037e-01 7.999274e-01 8.217130e-01 9.086192e-01 9.282346e-01 9.278805e-01 1.016802e+00 9.133210e-01 8.226467e-01 9.005458e-01 2.172809e-01
<GCONST> 8.029716e+01
<STATE> 4
<MEAN> 25
 6.860100e+00 4.454634e+00 4.674924e-02 2.128716e+00 1.891875e+00 3.227122e+00 1.878703e+00 1.082704e+00 -8.831809e-01 -1.881544e+00 -3.649952e+00 -5.456431e+00 3.623773e-01 -6.383294e-01 -6.348953e-01 -9.845536e-01 -7.848371e-01 -1.462937e+00 -6.459333e-01 7.814296e-02 -9.017757e-02 -7.700860e-02 5.040931e-01 1.155138e+00 8.107449e-01
<VARIANCE> 25
 1.989024e+01 2.237800e+01 3.543090e+01 3.925693e+01 3.831349e+01 3.554395e+01 3.319180e+01 2.993235e+01 4.311877e+01 3.359512e+01 2.268687e+01 2.678186e+01 5.137467e-01 1.101111e+00 1.252599e+00 2.638350e+00 2.525054e+00 2.299931e+00 2.038847e+00 1.819399e+00 1.983290e+00 1.852884e+00 1.639309e+00 1.938033e+00 6.037184e-01
<GCONST> 9.273713e+01
~t "T_m"
<ENDHMM>
~h "a-m+i"
<BEGINHMM>
<NUMSTATES> 5
<STATE> 2
<MEAN> 25
 7.548775e+00 2.607854e+00 -2.102983e+00 4.346527e-01 8.082584e-01 9.021307e-01 6.144225e-01 8.268155e-01 -1.237094e+00 -2.310319e+00 -2.608431e+00 -3.108366e+00 -1.797019e-01 1.273914e+00 7.998855e-01 1.091742e+00 7.315946e-01 1.888878e+00 1.063340e+00 1.975945e-01 -9.558619e-02 -2.353920e-01 -8.953397e-01 -1.563288e+00 -1.207566e+00
<VARIANCE> 25
 2.775693e+01 3.253825e+01 4.646520e+01 5.028252e+01 4.394492e+01 4.523094e+01 3.715427e+01 3.382478e+01 4.342428e+01 3.434188e+01 2.442644e+01 3.211829e+01 1.185310e+00 1.893670e+00 1.789684e+00 3.486195e+00 3.584235e+00 3.238808e+00 3.284998e+00 2.704141e+00 3.304344e+00 3.214128e+00 2.384440e+00 2.359962e+00 1.375406e+00
<GCONST> 1.008971e+02
<STATE> 3
<MEAN> 25
 6.220848e+00 4.772701e+00 5.252566e-01 2.877606e+00 2.598014e+00 3.498492e+00 1.213324e+00 6.923475e-01 -7.689387e-01 -1.961661e+00 -3.632575e+00 -5.278195e+00 -7.126752e-02 8.531751e-02 1.286000e-01 1.251273e-01 1.169438e-01 2.010717e-01 1.808041e-01 4.610286e-02 -8.495778e-03 -3.835244e-02 -1.209151e-01 -2.196753e-01 -6.887542e-02
<VARIANCE> 25
 1.855869e+01 1.867837e+01 3.135711e+01 3.267927e+01 3.053080e+01 3.023534e+01 3.066374e+01 2.707565e+01 4.045082e+01 3.238166e+01 2.111422e+01 2.286841e+01 2.486276e-01 4.200025e-01 5.990037e-01 7.999274e-01 8.217130e-01 9.086192e-01 9.282346e-01 9.278805e-01 1.016802e+00 9.133210e-01 8.226467e-01 9.005458e-01 2.172809e-01
<GCONST> 8.029716e+01
<STATE> 4
<MEAN> 25
 6.860100e+00 4.454634e+00 4.674924e-02 2.128716e+00 1.891875e+00 3.227122e+00 1.878703e+00 1.082704e+00 -8.831809e-01 -1.881544e+00 -3.649952e+00 -5.456431e+00 3.623773e-01 -6.383294e-01 -6.348953e-01 -9.845536e-01 -7.848371e-01 -1.462937e+00 -6.459333e-01 7.814296e-02 -9.017757e-02 -7.700860e-02 5.040931e-01 1.155138e+00 8.107449e-01
<VARIANCE> 25
 1.989024e+01 2.237800e+01 3.543090e+01 3.925693e+01 3.831349e+01 3.554395e+01 3.319180e+01 2.993235e+01 4.311877e+01 3.359512e+01 2.268687e+01 2.678186e+01 5.137467e-01 1.101111e+00 1.252599e+00 2.638350e+00 2.525054e+00 2.299931e+00 2.038847e+00 1.819399e+00 1.983290e+00 1.852884e+00 1.639309e+00 1.938033e+00 6.037184e-01
<GCONST> 9.273713e+01
~t "T_m"
<ENDHMM>
~h "a-m+o"
<BEGINHMM>
<NUMSTATES> 5
<STATE> 2
<MEAN> 25
 7.548775e+00 2.607854e+00 -2.102983e+00 4.346527e-01 8.082584e-01 9.021307e-01 6.144225e-01 8.268155e-01 -1.237094e+00 -2.310319e+00 -2.608431e+00 -3.108366e+00 -1.797019e-01 1.273914e+00 7.998855e-01 1.091742e+00 7.315946e-01 1.888878e+00 1.063340e+00 1.975945e-01 -9.558619e-02 -2.353920e-01 -8.953397e-01 -1.563288e+00 -1.207566e+00
<VARIANCE> 25
 2.775693e+01 3.253825e+01 4.646520e+01 5.028252e+01 4.394492e+01 4.523094e+01 3.715427e+01 3.382478e+01 4.342428e+01 3.434188e+01 2.442644e+01 3.211829e+01 1.185310e+00 1.893670e+00 1.789684e+00 3.486195e+00 3.584235e+00 3.238808e+00 3.284998e+00 2.704141e+00 3.304344e+00 3.214128e+00 2.384440e+00 2.359962e+00 1.375406e+00
<GCONST> 1.008971e+02
<STATE> 3
<MEAN> 25
 6.220848e+00 4.772701e+00 5.252566e-01 2.877606e+00 2.598014e+00 3.498492e+00 1.213324e+00 6.923475e-01 -7.689387e-01 -1.961661e+00 -3.632575e+00 -5.278195e+00 -7.126752e-02 8.531751e-02 1.286000e-01 1.251273e-01 1.169438e-01 2.010717e-01 1.808041e-01 4.610286e-02 -8.495778e-03 -3.835244e-02 -1.209151e-01 -2.196753e-01 -6.887542e-02
<VARIANCE> 25
 1.855869e+01 1.867837e+01 3.135711e+01 3.267927e+01 3.053080e+01 3.023534e+01 3.066374e+01 2.707565e+01 4.045082e+01 3.238166e+01 2.111422e+01 2.286841e+01 2.486276e-01 4.200025e-01 5.990037e-01 7.999274e-01 8.217130e-01 9.086192e-01 9.282346e-01 9.278805e-01 1.016802e+00 9.133210e-01 8.226467e-01 9.005458e-01 2.172809e-01
<GCONST> 8.029716e+01
<STATE> 4
<MEAN> 25
 6.860100e+00 4.454634e+00 4.674924e-02 2.128716e+00 1.891875e+00 3.227122e+00 1.878703e+00 1.082704e+00 -8.831809e-01 -1.881544e+00 -3.649952e+00 -5.456431e+00 3.623773e-01 -6.383294e-01 -6.348953e-01 -9.845536e-01 -7.848371e-01 -1.462937e+00 -6.459333e-01 7.814296e-02 -9.017757e-02 -7.700860e-02 5.040931e-01 1.155138e+00 8.107449e-01
<VARIANCE> 25
 1.989024e+01 2.237800e+01 3.543090e+01 3.925693e+01 3.831349e+01 3.554395e+01 3.319180e+01 2.993235e+01 4.311877e+01 3.359512e+01 2.268687e+01 2.678186e+01 5.137467e-01 1.101111e+00 1.252599e+00 2.638350e+00 2.525054e+00 2.299931e+00 2.038847e+00 1.819399e+00 1.983290e+00 1.852884e+00 1.639309e+00 1.938033e+00 6.037184e-01
<GCONST> 9.273713e+01
~t "T_m"
<ENDHMM>
~h "a-m+p"
<BEGINHMM>
<NUMSTATES> 5
<STATE> 2
<MEAN> 25
 7.548775e+00 2.607854e+00 -2.102983e+00 4.346527e-01 8.082584e-01 9.021307e-01 6.144225e-01 8.268155e-01 -1.237094e+00 -2.310319e+00 -2.608431e+00 -3.108366e+00 -1.797019e-01 1.273914e+00 7.998855e-01 1.091742e+00 7.315946e-01 1.888878e+00 1.063340e+00 1.975945e-01 -9.558619e-02 -2.353920e-01 -8.953397e-01 -1.563288e+00 -1.207566e+00
<VARIANCE> 25
 2.775693e+01 3.253825e+01 4.646520e+01 5.028252e+01 4.394492e+01 4.523094e+01 3.715427e+01 3.382478e+01 4.342428e+01 3.434188e+01 2.442644e+01 3.211829e+01 1.185310e+00 1.893670e+00 1.789684e+00 3.486195e+00 3.584235e+00 3.238808e+00 3.284998e+00 2.704141e+00 3.304344e+00 3.214128e+00 2.384440e+00 2.359962e+00 1.375406e+00
<GCONST> 1.008971e+02
<STATE> 3
<MEAN> 25
 6.220848e+00 4.772701e+00 5.252566e-01 2.877606e+00 2.598014e+00 3.498492e+00 1.213324e+00 6.923475e-01 -7.689387e-01 -1.961661e+00 -3.632575e+00 -5.278195e+00 -7.126752e-02 8.531751e-02 1.286000e-01 1.251273e-01 1.169438e-01 2.010717e-01 1.808041e-01 4.610286e-02 -8.495778e-03 -3.835244e-02 -1.209151e-01 -2.196753e-01 -6.887542e-02
<VARIANCE> 25
 1.855869e+01 1.867837e+01 3.135711e+01 3.267927e+01 3.053080e+01 3.023534e+01 3.066374e+01 2.707565e+01 4.045082e+01 3.238166e+01 2.111422e+01 2.286841e+01 2.486276e-01 4.200025e-01 5.990037e-01 7.999274e-01 8.217130e-01 9.086192e-01 9.282346e-01 9.278805e-01 1.016802e+00 9.133210e-01 8.226467e-01 9.005458e-01 2.172809e-01
<GCONST> 8.029716e+01
<STATE> 4
<MEAN> 25
 6.860100e+00 4.454634e+00 4.674924e-02 2.128716e+00 1.891875e+00 3.227122e+00 1.878703e+00 1.082704e+00 -8.831809e-01 -1.881544e+00 -3.649952e+00 -5.456431e+00 3.623773e-01 -6.383294e-01 -6.348953e-01 -9.845536e-01 -7.848371e-01 -1.462937e+00 -6.459333e-01 7.814296e-02 -9.017757e-02 -7.700860e-02 5.040931e-01 1.155138e+00 8.107449e-01
<VARIANCE> 25
 1.989024e+01 2.237800e+01 3.543090e+01 3.925693e+01 3.831349e+01 3.554395e+01 3.319180e+01 2.993235e+01 4.311877e+01 3.359512e+01 2.268687e+01 2.678186e+01 5.137467e-01 1.101111e+00 1.252599e+00 2.638350e+00 2.525054e+00 2.299931e+00 2.038847e+00 1.819399e+00 1.983290e+00 1.852884e+00 1.639309e+00 1.938033e+00 6.037184e-01
<GCONST> 9.273713e+01
~t "T_m"
<ENDHMM>
~h "a-n+a"
<BEGINHMM>
<NUMSTATES> 5
<STATE> 2
<MEAN> 25
 7.169885e+00 3.457295e-01 -9.706034e-01 1.822969e+00 2.203207e+00 -1.710077e+00 -1.541217e+00 -6.925409e-01 -3.499932e+00 -2.178467e+00 -7.829415e-01 -1.847775e+00 -1.776564e-01 1.685531e+00 6.899630e-01 1.139801e+00 6.890932e-01 2.057916e+00 4.165332e-01 -6.090450e-01 -1.683788e-01 -9.237592e-02 -7.342267e-01 -1.250047e+00 -1.560356e+00
<VARIANCE> 25
 2.165102e+01 3.528417e+01 4.496836e+01 6.788055e+01 4.849240e+01 5.297578e+01 4.589392e+01 4.388946e+01 4.575230e+01 3.900736e+01 3.414560e+01 3.704768e+01 9.116951e-01 1.700086e+00 1.786228e+00 4.035296e+00 3.243808e+00 3.321929e+00 3.851503e+00 3.338852e+00 3.444288e+00 2.962204e+00 2.780899e+00 2.558904e+00 1.011466e+00
<GCONST> 1.023394e+02
<STATE> 3
<MEAN> 25
 6.451331e+00 3.805457e+00 7.997720e-01 4.104099e+00 3.209973e+00 1.771652e+00 -1.687927e+00 -2.346424e+00 -2.799612e+00 -1.867672e+00 -2.654003e+00 -4.671466e+00 -4.288488e-01 8.661700e-01 6.104125e-01 6.183404e-01 3.940374e-01 1.045232e+00 2.131816e-01 -3.304687e-01 1.941549e-01 1.693209e-01 -3.405662e-01 -4.656930e-01 -8.459170e-01
<VARIANCE> 25
 1.605801e+01 2.327610e+01 3.427949e+01 4.943877e+01 3.551352e+01 4.001220e+01 3.662941e+01 3.266262e+01 4.372853e+01 3.314529e+01 2.653506e+01 2.688600e+01 4.240589e-01 7.692712e-01 1.020777e+00 1.824027e+00 1.598796e+00 1.636005e+00 1.955104e+00 1.795479e+00 2.067024e+00 1.608387e+00 1.611071e+00 1.827414e+00 4.028325e-01
<GCONST> 9.059154e+01
<STATE> 4
<MEAN> 25
 3.843240e+00 4.976631e+00 2.044346e+00 4.405276e+00 3.430595e+00 3.177998e+00 -7.137617e-01 -1.420924e+00 -8.184713e-01 -5.259312e-01 -2.154598e+00 -3.488309e+00 -4.377143e-01 -2.375585e-02 4.742600e-02 -6.740690e-02 -9.708463e-02 1.467522e-01 2.977267e-01 2.026634e-01 7.117245e-02 2.588364e-02 1.424470e-01 2.484765e-01 -3.065790e-01
<VARIANCE> 25
 1.843643e+01 1.784051e+01 2.607419e+01 3.130790e+01 2.558590e+01 2.868715e+01 2.686604e+01 2.596465e+01 3.096772e+01 2.389989e+01 1.980139e+01 1.923713e+01 4.635847e-01 5.872605e-01 8.780912e-01 9.187444e-01 9.726738e-01 1.154603e+00 1.138327e+00 1.124501e+00 1.193445e+00 1.121723e+00 1.058525e+00 1.099325e+00 4.008314e-01
<GCONST> 8.251925e+01
~t "T_n"
<ENDHMM>
~h "a-n+d"
<BEGINHMM>
<NUMSTATES> 5
<STATE> 2
<MEAN> 25
 7.169885e+00 3.457295e-01 -9.706034e-01 1.822969e+00 2.203207e+00 -1.710077e+00 -1.541217e+00 -6.925409e-01 -3.499932e+00 -2.178467e+00 -7.829415e-01 -1.847775e+00 -1.776564e-01 1.685531e+00 6.899630e-01 1.139801e+00 6.890932e-01 2.057916e+00 4.165332e-01 -6.090450e-01 -1.683788e-01 -9.237592e-02 -7.342267e-01 -1.250047e+00 -1.560356e+00
<VARIANCE> 25
 2.165102e+01 3.528417e+01 4.496836e+01 6.788055e+01 4.849240e+01 5.297578e+01 4.589392e+01 4.388946e+01 4.575230e+01 3.900736e+01 3.414560e+01 3.704768e+01 9.116951e-01 1.700086e+00 1.786228e+00 4.035296e+00 3.243808e+00 3.321929e+00 3.851503e+00 3.338852e+00 3.444288e+00 2.962204e+00 2.780899e+00 2.558904e+00 1.011466e+00
<GCONST> 1.023394e+02
<STATE> 3
<MEAN> 25
 6.451331e+00 3.805457e+00 7.997720e-01 4.104099e+00 3.209973e+00 1.771652e+00 -1.687927e+00 -2.346424e+00 -2.799612e+00 -1.867672e+00 -2.654003e+00 -4.671466e+00 -4.288488e-01 8.661700e-01 6.104125e-01 6.183404e-01 3.940374e-01 1.045232e+00 2.131816e-01 -3.304687e-01 1.941549e-01 1.693209e-01 -3.405662e-01 -4.656930e-01 -8.459170e-01
<VARIANCE> 25
 1.605801e+01 2.327610e+01 3.427949e+01 4.943877e+01 3.551352e+01 4.001220e+01 3.662941e+01 3.266262e+01 4.372853e+01 3.314529e+01 2.653506e+01 2.688600e+01 4.240589e-01 7.692712e-01 1.020777e+00 1.824027e+00 1.598796e+00 1.636005e+00 1.955104e+00 1.795479e+00 2.067024e+00 1.608387e+00 1.611071e+00 1.827414e+00 4.028325e-01
<GCONST> 9.059154e+01
<STATE> 4
<MEAN> 25
 3.843240e+00 4.976631e+00 2.044346e+00 4.405276e+00 3.430595e+00 3.177998e+00 -7.137617e-01 -1.420924e+00 -8.184713e-01 -5.259312e-01 -2.154598e+00 -3.488309e+00 -4.377143e-01 -2.375585e-02 4.742600e-02 -6.740690e-02 -9.708463e-02 1.467522e-01 2.977267e-01 2.026634e-01 7.117245e-02 2.588364e-02 1.424470e-01 2.484765e-01 -3.065790e-01
<VARIANCE> 25
 1.843643e+01 1.784051e+01 2.607419e+01 3.130790e+01 2.558590e+01 2.868715e+01 2.686604e+01 2.596465e+01 3.096772e+01 2.389989e+01 1.980139e+01 1.923713e+01 4.635847e-01 5.872605e-01 8.780912e-01 9.187444e-01 9.726738e-01 1.154603e+00 1.138327e+00 1.124501e+00 1.193445e+00 1.121723e+00 1.058525e+00 1.099325e+00 4.008314e-01
<GCONST> 8.251925e+01
~t "T_n"
<ENDHMM>
~h "a-n+e"
<BEGINHMM>
<NUMSTATES> 5
<STATE> 2
<MEAN> 25
 7.169885e+00 3.457295e-01 -9.706034e-01 1.822969e+00 2.203207e+00 -1.710077e+00 -1.541217e+00 -6.925409e-01 -3.499932e+00 -2.178467e+00 -7.829415e-01 -1.847775e+00 -1.776564e-01 1.685531e+00 6.899630e-01 1.139801e+00 6.890932e-01 2.057916e+00 4.165332e-01 -6.090450e-01 -1.683788e-01 -9.237592e-02 -7.342267e-01 -1.250047e+00 -1.560356e+00
<VARIANCE> 25
 2.165102e+01 3.528417e+01 4.496836e+01 6.788055e+01 4.849240e+01 5.297578e+01 4.589392e+01 4.388946e+01 4.575230e+01 3.900736e+01 3.414560e+01 3.704768e+01 9.116951e-01 1.700086e+00 1.786228e+00 4.035296e+00 3.243808e+00 3.321929e+00 3.851503e+00 3.338852e+00 3.444288e+00 2.962204e+00 2.780899e+00 2.558904e+00 1.011466e+00
<GCONST> 1.023394e+02
<STATE> 3
<MEAN> 25
 6.451331e+00 3.805457e+00 7.997720e-01 4.104099e+00 3.209973e+00 1.771652e+00 -1.687927e+00 -2.346424e+00 -2.799612e+00 -1.867672e+00 -2.654003e+00 -4.671466e+00 -4.288488e-01 8.661700e-01 6.104125e-01 6.183404e-01 3.940374e-01 1.045232e+00 2.131816e-01 -3.304687e-01 1.941549e-01 1.693209e-01 -3.405662e-01 -4.656930e-01 -8.459170e-01
<VARIANCE> 25
 1.605801e+01 2.327610e+01 3.427949e+01 4.943877e+01 3.551352e+01 4.001220e+01 3.662941e+01 3.266262e+01 4.372853e+01 3.314529e+01 2.653506e+01 2.688600e+01 4.240589e-01 7.692712e-01 1.020777e+00 1.824027e+00 1.598796e+00 1.636005e+00 1.955104e+00 1.795479e+00 2.067024e+00 1.608387e+00 1.611071e+00 1.827414e+00 4.028325e-01
<GCONST> 9.059154e+01
<STATE> 4
<MEAN> 25
 3.843240e+00 4.976631e+00 2.044346e+00 4.405276e+00 3.430595e+00 3.177998e+00 -7.137617e-01 -1.420924e+00 -8.184713e-01 -5.259312e-01 -2.154598e+00 -3.488309e+00 -4.377143e-01 -2.375585e-02 4.742600e-02 -6.740690e-02 -9.708463e-02 1.467522e-01 2.977267e-01 2.026634e-01 7.117245e-02 2.588364e-02 1.424470e-01 2.484765e-01 -3.065790e-01
<VARIANCE> 25
 1.843643e+01 1.784051e+01 2.607419e+01 3.130790e+01 2.558590e+01 2.868715e+01 2.686604e+01 2.596465e+01 3.096772e+01 2.389989e+01 1.980139e+01 1.923713e+01 4.635847e-01 5.872605e-01 8.780912e-01 9.187444e-01 9.726738e-01 1.154603e+00 1.138327e+00 1.124501e+00 1.193445e+00 1.121723e+00 1.058525e+00 1.099325e+00 4.008314e-01
<GCONST> 8.251925e+01
~t "T_n"
<ENDHMM>
~h "a-n+f"
<BEGINHMM>
<NUMSTATES> 5
<STATE> 2
<MEAN> 25
 7.169885e+00 3.457295e-01 -9.706034e-01 1.822969e+00 2.203207e+00 -1.710077e+00 -1.541217e+00 -6.925409e-01 -3.499932e+00 -2.178467e+00 -7.829415e-01 -1.847775e+00 -1.776564e-01 1.685531e+00 6.899630e-01 1.139801e+00 6.890932e-01 2.057916e+00 4.165332e-01 -6.090450e-01 -1.683788e-01 -9.237592e-02 -7.342267e-01 -1.250047e+00 -1.560356e+00
<VARIANCE> 25
 2.165102e+01 3.528417e+01 4.496836e+01 6.788055e+01 4.849240e+01 5.297578e+01 4.589392e+01 4.388946e+01 4.575230e+01 3.900736e+01 3.414560e+01 3.704768e+01 9.116951e-01 1.700086e+00 1.786228e+00 4.035296e+00 3.243808e+00 3.321929e+00 3.851503e+00 3.338852e+00 3.444288e+00 2.962204e+00 2.780899e+00 2.558904e+00 1.011466e+00
<GCONST> 1.023394e+02
<STATE> 3
<MEAN> 25
 6.451331e+00 3.805457e+00 7.997720e-01 4.104099e+00 3.209973e+00 1.771652e+00 -1.687927e+00 -2.346424e+00 -2.799612e+00 -1.867672e+00 -2.654003e+00 -4.671466e+00 -4.288488e-01 8.661700e-01 6.104125e-01 6.183404e-01 3.940374e-01 1.045232e+00 2.131816e-01 -3.304687e-01 1.941549e-01 1.693209e-01 -3.405662e-01 -4.656930e-01 -8.459170e-01
<VARIANCE> 25
 1.605801e+01 2.327610e+01 3.427949e+01 4.943877e+01 3.551352e+01 4.001220e+01 3.662941e+01 3.266262e+01 4.372853e+01 3.314529e+01 2.653506e+01 2.688600e+01 4.240589e-01 7.692712e-01 1.020777e+00 1.824027e+00 1.598796e+00 1.636005e+00 1.955104e+00 1.795479e+00 2.067024e+00 1.608387e+00 1.611071e+00 1.827414e+00 4.028325e-01
<GCONST> 9.059154e+01
<STATE> 4
<MEAN> 25
 3.843240e+00 4.976631e+00 2.044346e+00 4.405276e+00 3.430595e+00 3.177998e+00 -7.137617e-01 -1.420924e+00 -8.184713e-01 -5.259312e-01 -2.154598e+00 -3.488309e+00 -4.377143e-01 -2.375585e-02 4.742600e-02 -6.740690e-02 -9.708463e-02 1.467522e-01 2.977267e-01 2.026634e-01 7.117245e-02 2.588364e-02 1.424470e-01 2.484765e-01 -3.065790e-01
<VARIANCE> 25
 1.843643e+01 1.784051e+01 2.607419e+01 3.130790e+01 2.558590e+01 2.868715e+01 2.686604e+01 2.596465e+01 3.096772e+01 2.389989e+01 1.980139e+01 1.923713e+01 4.635847e-01 5.872605e-01 8.780912e-01 9.187444e-01 9.726738e-01 1.154603e+00 1.138327e+00 1.124501e+00 1.193445e+00 1.121723e+00 1.058525e+00 1.099325e+00 4.008314e-01
<GCONST> 8.251925e+01
~t "T_n"
<ENDHMM>
~h "a-n+g"
<BEGINHMM>
<NUMSTATES> 5
<STATE> 2
<MEAN> 25
 7.169885e+00 3.457295e-01 -9.706034e-01 1.822969e+00 2.203207e+00 -1.710077e+00 -1.541217e+00 -6.925409e-01 -3.499932e+00 -2.178467e+00 -7.829415e-01 -1.847775e+00 -1.776564e-01 1.685531e+00 6.899630e-01 1.139801e+00 6.890932e-01 2.057916e+00 4.165332e-01 -6.090450e-01 -1.683788e-01 -9.237592e-02 -7.342267e-01 -1.250047e+00 -1.560356e+00
<VARIANCE> 25
 2.165102e+01 3.528417e+01 4.496836e+01 6.788055e+01 4.849240e+01 5.297578e+01 4.589392e+01 4.388946e+01 4.575230e+01 3.900736e+01 3.414560e+01 3.704768e+01 9.116951e-01 1.700086e+00 1.786228e+00 4.035296e+00 3.243808e+00 3.321929e+00 3.851503e+00 3.338852e+00 3.444288e+00 2.962204e+00 2.780899e+00 2.558904e+00 1.011466e+00
<GCONST> 1.023394e+02
<STATE> 3
<MEAN> 25
 6.451331e+00 3.805457e+00 7.997720e-01 4.104099e+00 3.209973e+00 1.771652e+00 -1.687927e+00 -2.346424e+00 -2.799612e+00 -1.867672e+00 -2.654003e+00 -4.671466e+00 -4.288488e-01 8.661700e-01 6.104125e-01 6.183404e-01 3.940374e-01 1.045232e+00 2.131816e-01 -3.304687e-01 1.941549e-01 1.693209e-01 -3.405662e-01 -4.656930e-01 -8.459170e-01
<VARIANCE> 25
 1.605801e+01 2.327610e+01 3.427949e+01 4.943877e+01 3.551352e+01 4.001220e+01 3.662941e+01 3.266262e+01 4.372853e+01 3.314529e+01 2.653506e+01 2.688600e+01 4.240589e-01 7.692712e-01 1.020777e+00 1.824027e+00 1.598796e+00 1.636005e+00 1.955104e+00 1.795479e+00 2.067024e+00 1.608387e+00 1.611071e+00 1.827414e+00 4.028325e-01
<GCONST> 9.059154e+01
<STATE> 4
<MEAN> 25
 3.843240e+00 4.976631e+00 2.044346e+00 4.405276e+00 3.430595e+00 3.177998e+00 -7.137617e-01 -1.420924e+00 -8.184713e-01 -5.259312e-01 -2.154598e+00 -3.488309e+00 -4.377143e-01 -2.375585e-02 4.742600e-02 -6.740690e-02 -9.708463e-02 1.467522e-01 2.977267e-01 2.026634e-01 7.117245e-02 2.588364e-02 1.424470e-01 2.484765e-01 -3.065790e-01
<VARIANCE> 25
 1.843643e+01 1.784051e+01 2.607419e+01 3.130790e+01 2.558590e+01 2.868715e+01 2.686604e+01 2.596465e+01 3.096772e+01 2.389989e+01 1.980139e+01 1.923713e+01 4.635847e-01 5.872605e-01 8.780912e-01 9.187444e-01 9.726738e-01 1.154603e+00 1.138327e+00 1.124501e+00 1.193445e+00 1.121723e+00 1.058525e+00 1.099325e+00 4.008314e-01
<GCONST> 8.251925e+01
~t "T_n"
<ENDHMM>
~h "a-n+i"
<BEGINHMM>
<NUMSTATES> 5
<STATE> 2
<MEAN> 25
 7.169885e+00 3.457295e-01 -9.706034e-01 1.822969e+00 2.203207e+00 -1.710077e+00 -1.541217e+00 -6.925409e-01 -3.499932e+00 -2.178467e+00 -7.829415e-01 -1.847775e+00 -1.776564e-01 1.685531e+00 6.899630e-01 1.139801e+00 6.890932e-01 2.057916e+00 4.165332e-01 -6.090450e-01 -1.683788e-01 -9.237592e-02 -7.342267e-01 -1.250047e+00 -1.560356e+00
<VARIANCE> 25
 2.165102e+01 3.528417e+01 4.496836e+01 6.788055e+01 4.849240e+01 5.297578e+01 4.589392e+01 4.388946e+01 4.575230e+01 3.900736e+01 3.414560e+01 3.704768e+01 9.116951e-01 1.700086e+00 1.786228e+00 4.035296e+00 3.243808e+00 3.321929e+00 3.851503e+00 3.338852e+00 3.444288e+00 2.962204e+00 2.780899e+00 2.558904e+00 1.011466e+00
<GCONST> 1.023394e+02
<STATE> 3
<MEAN> 25
 6.451331e+00 3.805457e+00 7.997720e-01 4.104099e+00 3.209973e+00 1.771652e+00 -1.687927e+00 -2.346424e+00 -2.799612e+00 -1.867672e+00 -2.654003e+00 -4.671466e+00 -4.288488e-01 8.661700e-01 6.104125e-01 6.183404e-01 3.940374e-01 1.045232e+00 2.131816e-01 -3.304687e-01 1.941549e-01 1.693209e-01 -3.405662e-01 -4.656930e-01 -8.459170e-01
<VARIANCE> 25
 1.605801e+01 2.327610e+01 3.427949e+01 4.943877e+01 3.551352e+01 4.001220e+01 3.662941e+01 3.266262e+01 4.372853e+01 3.314529e+01 2.653506e+01 2.688600e+01 4.240589e-01 7.692712e-01 1.020777e+00 1.824027e+00 1.598796e+00 1.636005e+00 1.955104e+00 1.795479e+00 2.067024e+00 1.608387e+00 1.611071e+00 1.827414e+00 4.028325e-01
<GCONST> 9.059154e+01
<STATE> 4
<MEAN> 25
 3.843240e+00 4.976631e+00 2.044346e+00 4.405276e+00 3.430595e+00 3.177998e+00 -7.137617e-01 -1.420924e+00 -8.184713e-01 -5.259312e-01 -2.154598e+00 -3.488309e+00 -4.377143e-01 -2.375585e-02 4.742600e-02 -6.740690e-02 -9.708463e-02 1.467522e-01 2.977267e-01 2.026634e-01 7.117245e-02 2.588364e-02 1.424470e-01 2.484765e-01 -3.065790e-01
<VARIANCE> 25
 1.843643e+01 1.784051e+01 2.607419e+01 3.130790e+01 2.558590e+01 2.868715e+01 2.686604e+01 2.596465e+01 3.096772e+01 2.389989e+01 1.980139e+01 1.923713e+01 4.635847e-01 5.872605e-01 8.780912e-01 9.187444e-01 9.726738e-01 1.154603e+00 1.138327e+00 1.124501e+00 1.193445e+00 1.121723e+00 1.058525e+00 1.099325e+00 4.008314e-01
<GCONST> 8.251925e+01
~t "T_n"
<ENDHMM>
~h "a-n+k"
<BEGINHMM>
<NUMSTATES> 5
<STATE> 2
<MEAN> 25
 7.169885e+00 3.457295e-01 -9.706034e-01 1.822969e+00 2.203207e+00 -1.710077e+00 -1.541217e+00 -6.925409e-01 -3.499932e+00 -2.178467e+00 -7.829415e-01 -1.847775e+00 -1.776564e-01 1.685531e+00 6.899630e-01 1.139801e+00 6.890932e-01 2.057916e+00 4.165332e-01 -6.090450e-01 -1.683788e-01 -9.237592e-02 -7.342267e-01 -1.250047e+00 -1.560356e+00
<VARIANCE> 25
 2.165102e+01 3.528417e+01 4.496836e+01 6.788055e+01 4.849240e+01 5.297578e+01 4.589392e+01 4.388946e+01 4.575230e+01 3.900736e+01 3.414560e+01 3.704768e+01 9.116951e-01 1.700086e+00 1.786228e+00 4.035296e+00 3.243808e+00 3.321929e+00 3.851503e+00 3.338852e+00 3.444288e+00 2.962204e+00 2.780899e+00 2.558904e+00 1.011466e+00
<GCONST> 1.023394e+02
<STATE> 3
<MEAN> 25
 6.451331e+00 3.805457e+00 7.997720e-01 4.104099e+00 3.209973e+00 1.771652e+00 -1.687927e+00 -2.346424e+00 -2.799612e+00 -1.867672e+00 -2.654003e+00 -4.671466e+00 -4.288488e-01 8.661700e-01 6.104125e-01 6.183404e-01 3.940374e-01 1.045232e+00 2.131816e-01 -3.304687e-01 1.941549e-01 1.693209e-01 -3.405662e-01 -4.656930e-01 -8.459170e-01
<VARIANCE> 25
 1.605801e+01 2.327610e+01 3.427949e+01 4.943877e+01 3.551352e+01 4.001220e+01 3.662941e+01 3.266262e+01 4.372853e+01 3.314529e+01 2.653506e+01 2.688600e+01 4.240589e-01 7.692712e-01 1.020777e+00 1.824027e+00 1.598796e+00 1.636005e+00 1.955104e+00 1.795479e+00 2.067024e+00 1.608387e+00 1.611071e+00 1.827414e+00 4.028325e-01
<GCONST> 9.059154e+01
<STATE> 4
<MEAN> 25
 3.843240e+00 4.976631e+00 2.044346e+00 4.405276e+00 3.430595e+00 3.177998e+00 -7.137617e-01 -1.420924e+00 -8.184713e-01 -5.259312e-01 -2.154598e+00 -3.488309e+00 -4.377143e-01 -2.375585e-02 4.742600e-02 -6.740690e-02 -9.708463e-02 1.467522e-01 2.977267e-01 2.026634e-01 7.117245e-02 2.588364e-02 1.424470e-01 2.484765e-01 -3.065790e-01
<VARIANCE> 25
 1.843643e+01 1.784051e+01 2.607419e+01 3.130790e+01 2.558590e+01 2.868715e+01 2.686604e+01 2.596465e+01 3.096772e+01 2.389989e+01 1.980139e+01 1.923713e+01 4.635847e-01 5.872605e-01 8.780912e-01 9.187444e-01 9.726738e-01 1.154603e+00 1.138327e+00 1.124501e+00 1.193445e+00 1.121723e+00 1.058525e+00 1.099325e+00 4.008314e-01
<GCONST> 8.251925e+01
~t "T_n"
<ENDHMM>
~h "a-n+o"
<BEGINHMM>
<NUMSTATES> 5
<STATE> 2
<MEAN> 25
 7.169885e+00 3.457295e-01 -9.706034e-01 1.822969e+00 2.203207e+00 -1.710077e+00 -1.541217e+00 -6.925409e-01 -3.499932e+00 -2.178467e+00 -7.829415e-01 -1.847775e+00 -1.776564e-01 1.685531e+00 6.899630e-01 1.139801e+00 6.890932e-01 2.057916e+00 4.165332e-01 -6.090450e-01 -1.683788e-01 -9.237592e-02 -7.342267e-01 -1.250047e+00 -1.560356e+00
<VARIANCE> 25
 2.165102e+01 3.528417e+01 4.496836e+01 6.788055e+01 4.849240e+01 5.297578e+01 4.589392e+01 4.388946e+01 4.575230e+01 3.900736e+01 3.414560e+01 3.704768e+01 9.116951e-01 1.700086e+00 1.786228e+00 4.035296e+00 3.243808e+00 3.321929e+00 3.851503e+00 3.338852e+00 3.444288e+00 2.962204e+00 2.780899e+00 2.558904e+00 1.011466e+00
<GCONST> 1.023394e+02
<STATE> 3
<MEAN> 25
 6.451331e+00 3.805457e+00 7.997720e-01 4.104099e+00 3.209973e+00 1.771652e+00 -1.687927e+00 -2.346424e+00 -2.799612e+00 -1.867672e+00 -2.654003e+00 -4.671466e+00 -4.288488e-01 8.661700e-01 6.104125e-01 6.183404e-01 3.940374e-01 1.045232e+00 2.131816e-01 -3.304687e-01 1.941549e-01 1.693209e-01 -3.405662e-01 -4.656930e-01 -8.459170e-01
<VARIANCE> 25
 1.605801e+01 2.327610e+01 3.427949e+01 4.943877e+01 3.551352e+01 4.001220e+01 3.662941e+01 3.266262e+01 4.372853e+01 3.314529e+01 2.653506e+01 2.688600e+01 4.240589e-01 7.692712e-01 1.020777e+00 1.824027e+00 1.598796e+00 1.636005e+00 1.955104e+00 1.795479e+00 2.067024e+00 1.608387e+00 1.611071e+00 1.827414e+00 4.028325e-01
<GCONST> 9.059154e+01
<STATE> 4
<MEAN> 25
 3.843240e+00 4.976631e+00 2.044346e+00 4.405276e+00 3.430595e+00 3.177998e+00 -7.137617e-01 -1.420924e+00 -8.184713e-01 -5.259312e-01 -2.154598e+00 -3.488309e+00 -4.377143e-01 -2.375585e-02 4.742600e-02 -6.740690e-02 -9.708463e-02 1.467522e-01 2.977267e-01 2.026634e-01 7.117245e-02 2.588364e-02 1.424470e-01 2.484765e-01 -3.065790e-01
<VARIANCE> 25
 1.843643e+01 1.784051e+01 2.607419e+01 3.130790e+01 2.558590e+01 2.868715e+01 2.686604e+01 2.596465e+01 3.096772e+01 2.389989e+01 1.980139e+01 1.923713e+01 4.635847e-01 5.872605e-01 8.780912e-01 9.187444e-01 9.726738e-01 1.154603e+00 1.138327e+00 1.124501e+00 1.193445e+00 1.121723e+00 1.058525e+00 1.099325e+00 4.008314e-01
<GCONST> 8.251925e+01
~t "T_n"
<ENDHMM>
~h "a-n+s"
<BEGINHMM>
<NUMSTATES> 5
<STATE> 2
<MEAN> 25
 7.169885e+00 3.457295e-01 -9.706034e-01 1.822969e+00 2.203207e+00 -1.710077e+00 -1.541217e+00 -6.925409e-01 -3.499932e+00 -2.178467e+00 -7.829415e-01 -1.847775e+00 -1.776564e-01 1.685531e+00 6.899630e-01 1.139801e+00 6.890932e-01 2.057916e+00 4.165332e-01 -6.090450e-01 -1.683788e-01 -9.237592e-02 -7.342267e-01 -1.250047e+00 -1.560356e+00
<VARIANCE> 25
 2.165102e+01 3.528417e+01 4.496836e+01 6.788055e+01 4.849240e+01 5.297578e+01 4.589392e+01 4.388946e+01 4.575230e+01 3.900736e+01 3.414560e+01 3.704768e+01 9.116951e-01 1.700086e+00 1.786228e+00 4.035296e+00 3.243808e+00 3.321929e+00 3.851503e+00 3.338852e+00 3.444288e+00 2.962204e+00 2.780899e+00 2.558904e+00 1.011466e+00
<GCONST> 1.023394e+02
<STATE> 3
<MEAN> 25
 6.451331e+00 3.805457e+00 7.997720e-01 4.104099e+00 3.209973e+00 1.771652e+00 -1.687927e+00 -2.346424e+00 -2.799612e+00 -1.867672e+00 -2.654003e+00 -4.671466e+00 -4.288488e-01 8.661700e-01 6.104125e-01 6.183404e-01 3.940374e-01 1.045232e+00 2.131816e-01 -3.304687e-01 1.941549e-01 1.693209e-01 -3.405662e-01 -4.656930e-01 -8.459170e-01
<VARIANCE> 25
 1.605801e+01 2.327610e+01 3.427949e+01 4.943877e+01 3.551352e+01 4.001220e+01 3.662941e+01 3.266262e+01 4.372853e+01 3.314529e+01 2.653506e+01 2.688600e+01 4.240589e-01 7.692712e-01 1.020777e+00 1.824027e+00 1.598796e+00 1.636005e+00 1.955104e+00 1.795479e+00 2.067024e+00 1.608387e+00 1.611071e+00 1.827414e+00 4.028325e-01
<GCONST> 9.059154e+01
<STATE> 4
<MEAN> 25
 3.843240e+00 4.976631e+00 2.044346e+00 4.405276e+00 3.430595e+00 3.177998e+00 -7.137617e-01 -1.420924e+00 -8.184713e-01 -5.259312e-01 -2.154598e+00 -3.488309e+00 -4.377143e-01 -2.375585e-02 4.742600e-02 -6.740690e-02 -9.708463e-02 1.467522e-01 2.977267e-01 2.026634e-01 7.117245e-02 2.588364e-02 1.424470e-01 2.484765e-01 -3.065790e-01
<VARIANCE> 25
 1.843643e+01 1.784051e+01 2.607419e+01 3.130790e+01 2.558590e+01 2.868715e+01 2.686604e+01 2.596465e+01 3.096772e+01 2.389989e+01 1.980139e+01 1.923713e+01 4.635847e-01 5.872605e-01 8.780912e-01 9.187444e-01 9.726738e-01 1.154603e+00 1.138327e+00 1.124501e+00 1.193445e+00 1.121723e+00 1.058525e+00 1.099325e+00 4.008314e-01
<GCONST> 8.251925e+01
~t "T_n"
<ENDHMM>
~h "a-n+t"
<BEGINHMM>
<NUMSTATES> 5
<STATE> 2
<MEAN> 25
 7.169885e+00 3.457295e-01 -9.706034e-01 1.822969e+00 2.203207e+00 -1.710077e+00 -1.541217e+00 -6.925409e-01 -3.499932e+00 -2.178467e+00 -7.829415e-01 -1.847775e+00 -1.776564e-01 1.685531e+00 6.899630e-01 1.139801e+00 6.890932e-01 2.057916e+00 4.165332e-01 -6.090450e-01 -1.683788e-01 -9.237592e-02 -7.342267e-01 -1.250047e+00 -1.560356e+00
<VARIANCE> 25
 2.165102e+01 3.528417e+01 4.496836e+01 6.788055e+01 4.849240e+01 5.297578e+01 4.589392e+01 4.388946e+01 4.575230e+01 3.900736e+01 3.414560e+01 3.704768e+01 9.116951e-01 1.700086e+00 1.786228e+00 4.035296e+00 3.243808e+00 3.321929e+00 3.851503e+00 3.338852e+00 3.444288e+00 2.962204e+00 2.780899e+00 2.558904e+00 1.011466e+00
<GCONST> 1.023394e+02
<STATE> 3
<MEAN> 25
 6.451331e+00 3.805457e+00 7.997720e-01 4.104099e+00 3.209973e+00 1.771652e+00 -1.687927e+00 -2.346424e+00 -2.799612e+00 -1.867672e+00 -2.654003e+00 -4.671466e+00 -4.288488e-01 8.661700e-01 6.104125e-01 6.183404e-01 3.940374e-01 1.045232e+00 2.131816e-01 -3.304687e-01 1.941549e-01 1.693209e-01 -3.405662e-01 -4.656930e-01 -8.459170e-01
<VARIANCE> 25
 1.605801e+01 2.327610e+01 3.427949e+01 4.943877e+01 3.551352e+01 4.001220e+01 3.662941e+01 3.266262e+01 4.372853e+01 3.314529e+01 2.653506e+01 2.688600e+01 4.240589e-01 7.692712e-01 1.020777e+00 1.824027e+00 1.598796e+00 1.636005e+00 1.955104e+00 1.795479e+00 2.067024e+00 1.608387e+00 1.611071e+00 1.827414e+00 4.028325e-01
<GCONST> 9.059154e+01
<STATE> 4
<MEAN> 25
 3.843240e+00 4.976631e+00 2.044346e+00 4.405276e+00 3.430595e+00 3.177998e+00 -7.137617e-01 -1.420924e+00 -8.184713e-01 -5.259312e-01 -2.154598e+00 -3.488309e+00 -4.377143e-01 -2.375585e-02 4.742600e-02 -6.740690e-02 -9.708463e-02 1.467522e-01 2.977267e-01 2.026634e-01 7.117245e-02 2.588364e-02 1.424470e-01 2.484765e-01 -3.065790e-01
<VARIANCE> 25
 1.843643e+01 1.784051e+01 2.607419e+01 3.130790e+01 2.558590e+01 2.868715e+01 2.686604e+01 2.596465e+01 3.096772e+01 2.389989e+01 1.980139e+01 1.923713e+01 4.635847e-01 5.872605e-01 8.780912e-01 9.187444e-01 9.726738e-01 1.154603e+00 1.138327e+00 1.124501e+00 1.193445e+00 1.121723e+00 1.058525e+00 1.099325e+00 4.008314e-01
<GCONST> 8.251925e+01
~t "T_n"
<ENDHMM>
~h "a-n+u"
<BEGINHMM>
<NUMSTATES> 5
<STATE> 2
<MEAN> 25
 7.169885e+00 3.457295e-01 -9.706034e-01 1.822969e+00 2.203207e+00 -1.710077e+00 -1.541217e+00 -6.925409e-01 -3.499932e+00 -2.178467e+00 -7.829415e-01 -1.847775e+00 -1.776564e-01 1.685531e+00 6.899630e-01 1.139801e+00 6.890932e-01 2.057916e+00 4.165332e-01 -6.090450e-01 -1.683788e-01 -9.237592e-02 -7.342267e-01 -1.250047e+00 -1.560356e+00
<VARIANCE> 25
 2.165102e+01 3.528417e+01 4.496836e+01 6.788055e+01 4.849240e+01 5.297578e+01 4.589392e+01 4.388946e+01 4.575230e+01 3.900736e+01 3.414560e+01 3.704768e+01 9.116951e-01 1.700086e+00 1.786228e+00 4.035296e+00 3.243808e+00 3.321929e+00 3.851503e+00 3.338852e+00 3.444288e+00 2.962204e+00 2.780899e+00 2.558904e+00 1.011466e+00
<GCONST> 1.023394e+02
<STATE> 3
<MEAN> 25
 6.451331e+00 3.805457e+00 7.997720e-01 4.104099e+00 3.209973e+00 1.771652e+00 -1.687927e+00 -2.346424e+00 -2.799612e+00 -1.867672e+00 -2.654003e+00 -4.671466e+00 -4.288488e-01 8.661700e-01 6.104125e-01 6.183404e-01 3.940374e-01 1.045232e+00 2.131816e-01 -3.304687e-01 1.941549e-01 1.693209e-01 -3.405662e-01 -4.656930e-01 -8.459170e-01
<VARIANCE> 25
 1.605801e+01 2.327610e+01 3.427949e+01 4.943877e+01 3.551352e+01 4.001220e+01 3.662941e+01 3.266262e+01 4.372853e+01 3.314529e+01 2.653506e+01 2.688600e+01 4.240589e-01 7.692712e-01 1.020777e+00 1.824027e+00 1.598796e+00 1.636005e+00 1.955104e+00 1.795479e+00 2.067024e+00 1.608387e+00 1.611071e+00 1.827414e+00 4.028325e-01
<GCONST> 9.059154e+01
<STATE> 4
<MEAN> 25
 3.843240e+00 4.976631e+00 2.044346e+00 4.405276e+00 3.430595e+00 3.177998e+00 -7.137617e-01 -1.420924e+00 -8.184713e-01 -5.259312e-01 -2.154598e+00 -3.488309e+00 -4.377143e-01 -2.375585e-02 4.742600e-02 -6.740690e-02 -9.708463e-02 1.467522e-01 2.977267e-01 2.026634e-01 7.117245e-02 2.588364e-02 1.424470e-01 2.484765e-01 -3.065790e-01
<VARIANCE> 25
 1.843643e+01 1.784051e+01 2.607419e+01 3.130790e+01 2.558590e+01 2.868715e+01 2.686604e+01 2.596465e+01 3.096772e+01 2.389989e+01 1.980139e+01 1.923713e+01 4.635847e-01 5.872605e-01 8.780912e-01 9.187444e-01 9.726738e-01 1.154603e+00 1.138327e+00 1.124501e+00 1.193445e+00 1.121723e+00 1.058525e+00 1.099325e+00 4.008314e-01
<GCONST> 8.251925e+01
~t "T_n"
<ENDHMM>
~h "n-o+ch"
<BEGINHMM>
<NUMSTATES> 5
<STATE> 2
<MEAN> 25
 8.202134e+00 8.756948e-01 -1.556870e+00 -2.412576e+00 -4.135490e+00 -5.283045e+00 -1.325630e+00 5.514442e-01 -3.256593e+00 -4.464030e+00 -3.179199e+00 -1.018459e+00 8.533680e-01 5.628624e-02 -4.272498e-01 -1.163086e+00 -1.742013e+00 -1.833407e+00 -1.006363e-01 8.327968e-01 2.565329e-01 -1.784475e-01 -2.551433e-01 1.000556e-01 7.841955e-01
<VARIANCE> 25
 2.727819e+01 4.614404e+01 4.546624e+01 5.624189e+01 6.257309e+01 6.102062e+01 4.518742e+01 4.939813e+01 5.469617e+01 4.219932e+01 3.056493e+01 2.847985e+01 1.604221e+00 2.714622e+00 2.414845e+00 3.306103e+00 3.399673e+00 4.293542e+00 4.410888e+00 3.910635e+00 3.812121e+00 3.509329e+00 2.851977e+00 2.694980e+00 1.552250e+00
<GCONST> 1.055529e+02
<STATE> 3
<MEAN> 25
 9.608891e+00 1.841884e+00 -1.624231e+00 -4.843653e+00 -1.056682e+01 -1.047259e+01 -3.275502e-01 4.228262e+00 -8.981493e-01 -3.707518e+00 -3.771726e+00 -1.847208e+00 -1.603226e-01 3.746803e-01 2.492852e-02 -5.283350e-02 -1.316152e-01 2.060792e-01 2.320018e-01 3.473101e-01 4.636069e-01 2.421327e-01 -1.011645e-03 -9.001540e-02 -4.208844e-01
<VARIANCE> 25
 2.191664e+01 3.832346e+01 3.536129e+01 4.552036e+01 5.146196e+01 5.402416e+01 4.532333e+01 4.316967e+01 5.194213e+01 3.791486e+01 2.724122e+01 2.477335e+01 5.759985e-01 1.296905e+00 1.329783e+00 1.436117e+00 2.015944e+00 2.854960e+00 1.984985e+00 2.227589e+00 2.343580e+00 2.045362e+00 1.638120e+00 1.449960e+00 1.066268e+00
<GCONST> 9.576168e+01
<STATE> 4
<MEAN> 25
 5.920141e+00 4.729104e+00 -6.619071e-01 -3.592440e+00 -6.668617e+00 -4.437122e+00 3.776827e-01 3.175261e+00 9.050462e-01 -1.454790e+00 -2.326509e+00 -1.249121e+00 -6.257654e-01 -3.906129e-02 1.678127e-01 4.218079e-01 7.039407e-01 9.980335e-01 2.885799e-01 -2.038472e-01 -1.773957e-02 1.877047e-01 2.155907e-01 8.154663e-02 -5.345345e-01
<VARIANCE> 25
 2.381943e+01 3.168683e+01 3.073319e+01 3.372535e+01 3.205265e+01 4.222814e+01 3.201194e+01 3.300840e+01 3.498757e+01 3.150789e+01 2.243595e+01 1.901501e+01 4.852379e-01 7.335701e-01 1.011674e+00 1.084659e+00 1.496157e+00 1.967000e+00 1.648281e+00 1.688958e+00 1.686677e+00 1.518985e+00 1.305284e+00 1.193857e+00 3.831035e-01
<GCONST> 8.833953e+01
~t "T_o"
<ENDHMM>
~h "n-i+d"
<BEGINHMM>
<NUMSTATES> 5
<STATE> 2
<MEAN> 25
 2.824880e+00 -2.961581e+00 4.292364e+00 7.499251e+00 7.346193e+00 -2.067250e+00 -5.297520e+00 -2.873806e+00 -2.378581e+00 -1.973293e+00 -2.520489e+00 -3.736685e+00 1.015099e+00 -9.724852e-01 2.479329e-01 2.179622e+00 1.426837e+00 -2.128228e+00 -2.309814e+00 -3.848035e-01 -7.270547e-01 -7.560874e-01 -6.794949e-01 -8.365397e-01 1.175898e+00
<VARIANCE> 25
 3.374600e+01 3.967356e+01 6.750194e+01 6.375350e+01 5.781096e+01 6.437442e+01 4.980933e+01 4.415491e+01 4.445846e+01 3.540117e+01 3.356274e+01 2.704606e+01 3.132528e+00 4.137255e+00 3.621446e+00 4.487921e+00 4.215056e+00 5.312013e+00 4.005538e+00 3.824685e+00 4.409300e+00 4.209664e+00 3.923692e+00 2.984154e+00 1.617640e+00
<GCONST> 1.086541e+02
<STATE> 3
<MEAN> 25
 3.691633e+00 -6.378765e+00 6.166086e+00 1.236009e+01 7.380941e+00 -9.047977e+00 -9.580333e+00 -1.629763e+00 -3.102339e+00 -4.599288e+00 -4.548250e+00 -5.048493e+00 8.359629e-02 -2.991736e-01 1.296623e-01 4.305927e-01 9.667514e-03 -8.290642e-01 -5.818837e-01 1.603395e-01 8.957740e-02 -1.876646e-01 -1.591199e-01 -1.092843e-01 2.681427e-01
<VARIANCE> 25
 2.149308e+01 3.103732e+01 4.970968e+01 5.873264e+01 7.158559e+01 6.920425e+01 3.966159e+01 4.495304e+01 4.204121e+01 4.275245e+01 4.102441e+01 2.954641e+01 6.639252e-01 9.264812e-01 1.883231e+00 1.858640e+00 1.558079e+00 2.146437e+00 1.929194e+00 2.097977e+00 1.840118e+00 1.884095e+00 1.595546e+00 1.333590e+00 5.259222e-01
<GCONST> 9.574519e+01
<STATE> 4
<MEAN> 25
 4.036044e+00 -4.218312e+00 4.209880e+00 1.037407e+01 7.996428e+00 -6.247262e+00 -9.419474e+00 -3.331409e+00 -2.663913e+00 -2.918104e+00 -3.142705e+00 -4.376024e+00 3.821991e-02 8.336469e-01 -6.000085e-01 -1.181883e+00 -5.675405e-01 1.117856e+00 8.718380e-01 -2.187419e-01 -3.897155e-02 3.511441e-01 4.869802e-01 5.886047e-01 -5.325214e-01
<VARIANCE> 25
 1.972391e+01 3.227742e+01 4.309776e+01 5.167957e+01 5.495691e+01 6.691110e+01 3.850472e+01 4.351723e+01 4.154246e+01 3.556070e+01 3.517086e+01 2.803684e+01 6.999541e-01 1.390189e+00 1.663853e+00 1.824908e+00 1.964548e+00 2.784639e+00 2.501812e+00 2.236512e+00 2.341234e+00 2.148965e+00 1.947036e+00 1.699689e+00 1.056007e+00
<GCONST> 9.730878e+01
~t "T_i"
<ENDHMM>
~h "n-i+f"
<BEGINHMM>
<NUMSTATES> 5
<STATE> 2
<MEAN> 25
 2.824880e+00 -2.961581e+00 4.292364e+00 7.499251e+00 7.346193e+00 -2.067250e+00 -5.297520e+00 -2.873806e+00 -2.378581e+00 -1.973293e+00 -2.520489e+00 -3.736685e+00 1.015099e+00 -9.724852e-01 2.479329e-01 2.179622e+00 1.426837e+00 -2.128228e+00 -2.309814e+00 -3.848035e-01 -7.270547e-01 -7.560874e-01 -6.794949e-01 -8.365397e-01 1.175898e+00
<VARIANCE> 25
 3.374600e+01 3.967356e+01 6.750194e+01 6.375350e+01 5.781096e+01 6.437442e+01 4.980933e+01 4.415491e+01 4.445846e+01 3.540117e+01 3.356274e+01 2.704606e+01 3.132528e+00 4.137255e+00 3.621446e+00 4.487921e+00 4.215056e+00 5.312013e+00 4.005538e+00 3.824685e+00 4.409300e+00 4.209664e+00 3.923692e+00 2.984154e+00 1.617640e+00
<GCONST> 1.086541e+02
<STATE> 3
<MEAN> 25
 3.691633e+00 -6.378765e+00 6.166086e+00 1.236009e+01 7.380941e+00 -9.047977e+00 -9.580333e+00 -1.629763e+00 -3.102339e+00 -4.599288e+00 -4.548250e+00 -5.048493e+00 8.359629e-02 -2.991736e-01 1.296623e-01 4.305927e-01 9.667514e-03 -8.290642e-01 -5.818837e-01 1.603395e-01 8.957740e-02 -1.876646e-01 -1.591199e-01 -1.092843e-01 2.681427e-01
<VARIANCE> 25
 2.149308e+01 3.103732e+01 4.970968e+01 5.873264e+01 7.158559e+01 6.920425e+01 3.966159e+01 4.495304e+01 4.204121e+01 4.275245e+01 4.102441e+01 2.954641e+01 6.639252e-01 9.264812e-01 1.883231e+00 1.858640e+00 1.558079e+00 2.146437e+00 1.929194e+00 2.097977e+00 1.840118e+00 1.884095e+00 1.595546e+00 1.333590e+00 5.259222e-01
<GCONST> 9.574519e+01
<STATE> 4
<MEAN> 25
 4.036044e+00 -4.218312e+00 4.209880e+00 1.037407e+01 7.996428e+00 -6.247262e+00 -9.419474e+00 -3.331409e+00 -2.663913e+00 -2.918104e+00 -3.142705e+00 -4.376024e+00 3.821991e-02 8.336469e-01 -6.000085e-01 -1.181883e+00 -5.675405e-01 1.117856e+00 8.718380e-01 -2.187419e-01 -3.897155e-02 3.511441e-01 4.869802e-01 5.886047e-01 -5.325214e-01
<VARIANCE> 25
 1.972391e+01 3.227742e+01 4.309776e+01 5.167957e+01 5.495691e+01 6.691110e+01 3.850472e+01 4.351723e+01 4.154246e+01 3.556070e+01 3.517086e+01 2.803684e+01 6.999541e-01 1.390189e+00 1.663853e+00 1.824908e+00 1.964548e+00 2.784639e+00 2.501812e+00 2.236512e+00 2.341234e+00 2.148965e+00 1.947036e+00 1.699689e+00 1.056007e+00
<GCONST> 9.730878e+01
~t "T_i"
<ENDHMM>
~h "n-i+k"
<BEGINHMM>
<NUMSTATES> 5
<STATE> 2
<MEAN> 25
 2.824880e+00 -2.961581e+00 4.292364e+00 7.499251e+00 7.346193e+00 -2.067250e+00 -5.297520e+00 -2.873806e+00 -2.378581e+00 -1.973293e+00 -2.520489e+00 -3.736685e+00 1.015099e+00 -9.724852e-01 2.479329e-01 2.179622e+00 1.426837e+00 -2.128228e+00 -2.309814e+00 -3.848035e-01 -7.270547e-01 -7.560874e-01 -6.794949e-01 -8.365397e-01 1.175898e+00
<VARIANCE> 25
 3.374600e+01 3.967356e+01 6.750194e+01 6.375350e+01 5.781096e+01 6.437442e+01 4.980933e+01 4.415491e+01 4.445846e+01 3.540117e+01 3.356274e+01 2.704606e+01 3.132528e+00 4.137255e+00 3.621446e+00 4.487921e+00 4.215056e+00 5.312013e+00 4.005538e+00 3.824685e+00 4.409300e+00 4.209664e+00 3.923692e+00 2.984154e+00 1.617640e+00
<GCONST> 1.086541e+02
<STATE> 3
<MEAN> 25
 3.691633e+00 -6.378765e+00 6.166086e+00 1.236009e+01 7.380941e+00 -9.047977e+00 -9.580333e+00 -1.629763e+00 -3.102339e+00 -4.599288e+00 -4.548250e+00 -5.048493e+00 8.359629e-02 -2.991736e-01 1.296623e-01 4.305927e-01 9.667514e-03 -8.290642e-01 -5.818837e-01 1.603395e-01 8.957740e-02 -1.876646e-01 -1.591199e-01 -1.092843e-01 2.681427e-01
<VARIANCE> 25
 2.149308e+01 3.103732e+01 4.970968e+01 5.873264e+01 7.158559e+01 6.920425e+01 3.966159e+01 4.495304e+01 4.204121e+01 4.275245e+01 4.102441e+01 2.954641e+01 6.639252e-01 9.264812e-01 1.883231e+00 1.858640e+00 1.558079e+00 2.146437e+00 1.929194e+00 2.097977e+00 1.840118e+00 1.884095e+00 1.595546e+00 1.333590e+00 5.259222e-01
<GCONST> 9.574519e+01
<STATE> 4
<MEAN> 25
 4.036044e+00 -4.218312e+00 4.209880e+00 1.037407e+01 7.996428e+00 -6.247262e+00 -9.419474e+00 -3.331409e+00 -2.663913e+00 -2.918104e+00 -3.142705e+00 -4.376024e+00 3.821991e-02 8.336469e-01 -6.000085e-01 -1.181883e+00 -5.675405e-01 1.117856e+00 8.718380e-01 -2.187419e-01 -3.897155e-02 3.511441e-01 4.869802e-01 5.886047e-01 -5.325214e-01
<VARIANCE> 25
 1.972391e+01 3.227742e+01 4.309776e+01 5.167957e+01 5.495691e+01 6.691110e+01 3.850472e+01 4.351723e+01 4.154246e+01 3.556070e+01 3.517086e+01 2.803684e+01 6.999541e-01 1.390189e+00 1.663853e+00 1.824908e+00 1.964548e+00 2.784639e+00 2.501812e+00 2.236512e+00 2.341234e+00 2.148965e+00 1.947036e+00 1.699689e+00 1.056007e+00
<GCONST> 9.730878e+01
~t "T_i"
<ENDHMM>
~h "n-i+m"
<BEGINHMM>
<NUMSTATES> 5
<STATE> 2
<MEAN> 25
 2.824880e+00 -2.961581e+00 4.292364e+00 7.499251e+00 7.346193e+00 -2.067250e+00 -5.297520e+00 -2.873806e+00 -2.378581e+00 -1.973293e+00 -2.520489e+00 -3.736685e+00 1.015099e+00 -9.724852e-01 2.479329e-01 2.179622e+00 1.426837e+00 -2.128228e+00 -2.309814e+00 -3.848035e-01 -7.270547e-01 -7.560874e-01 -6.794949e-01 -8.365397e-01 1.175898e+00
<VARIANCE> 25
 3.374600e+01 3.967356e+01 6.750194e+01 6.375350e+01 5.781096e+01 6.437442e+01 4.980933e+01 4.415491e+01 4.445846e+01 3.540117e+01 3.356274e+01 2.704606e+01 3.132528e+00 4.137255e+00 3.621446e+00 4.487921e+00 4.215056e+00 5.312013e+00 4.005538e+00 3.824685e+00 4.409300e+00 4.209664e+00 3.923692e+00 2.984154e+00 1.617640e+00
<GCONST> 1.086541e+02
<STATE> 3
<MEAN> 25
 3.691633e+00 -6.378765e+00 6.166086e+00 1.236009e+01 7.380941e+00 -9.047977e+00 -9.580333e+00 -1.629763e+00 -3.102339e+00 -4.599288e+00 -4.548250e+00 -5.048493e+00 8.359629e-02 -2.991736e-01 1.296623e-01 4.305927e-01 9.667514e-03 -8.290642e-01 -5.818837e-01 1.603395e-01 8.957740e-02 -1.876646e-01 -1.591199e-01 -1.092843e-01 2.681427e-01
<VARIANCE> 25
 2.149308e+01 3.103732e+01 4.970968e+01 5.873264e+01 7.158559e+01 6.920425e+01 3.966159e+01 4.495304e+01 4.204121e+01 4.275245e+01 4.102441e+01 2.954641e+01 6.639252e-01 9.264812e-01 1.883231e+00 1.858640e+00 1.558079e+00 2.146437e+00 1.929194e+00 2.097977e+00 1.840118e+00 1.884095e+00 1.595546e+00 1.333590e+00 5.259222e-01
<GCONST> 9.574519e+01
<STATE> 4
<MEAN> 25
 4.036044e+00 -4.218312e+00 4.209880e+00 1.037407e+01 7.996428e+00 -6.247262e+00 -9.419474e+00 -3.331409e+00 -2.663913e+00 -2.918104e+00 -3.142705e+00 -4.376024e+00 3.821991e-02 8.336469e-01 -6.000085e-01 -1.181883e+00 -5.675405e-01 1.117856e+00 8.718380e-01 -2.187419e-01 -3.897155e-02 3.511441e-01 4.869802e-01 5.886047e-01 -5.325214e-01
<VARIANCE> 25
 1.972391e+01 3.227742e+01 4.309776e+01 5.167957e+01 5.495691e+01 6.691110e+01 3.850472e+01 4.351723e+01 4.154246e+01 3.556070e+01 3.517086e+01 2.803684e+01 6.999541e-01 1.390189e+00 1.663853e+00 1.824908e+00 1.964548e+00 2.784639e+00 2.501812e+00 2.236512e+00 2.341234e+00 2.148965e+00 1.947036e+00 1.699689e+00 1.056007e+00
<GCONST> 9.730878e+01
~t "T_i"
<ENDHMM>
~h "n-i+n"
<BEGINHMM>
<NUMSTATES> 5
<STATE> 2
<MEAN> 25
 2.824880e+00 -2.961581e+00 4.292364e+00 7.499251e+00 7.346193e+00 -2.067250e+00 -5.297520e+00 -2.873806e+00 -2.378581e+00 -1.973293e+00 -2.520489e+00 -3.736685e+00 1.015099e+00 -9.724852e-01 2.479329e-01 2.179622e+00 1.426837e+00 -2.128228e+00 -2.309814e+00 -3.848035e-01 -7.270547e-01 -7.560874e-01 -6.794949e-01 -8.365397e-01 1.175898e+00
<VARIANCE> 25
 3.374600e+01 3.967356e+01 6.750194e+01 6.375350e+01 5.781096e+01 6.437442e+01 4.980933e+01 4.415491e+01 4.445846e+01 3.540117e+01 3.356274e+01 2.704606e+01 3.132528e+00 4.137255e+00 3.621446e+00 4.487921e+00 4.215056e+00 5.312013e+00 4.005538e+00 3.824685e+00 4.409300e+00 4.209664e+00 3.923692e+00 2.984154e+00 1.617640e+00
<GCONST> 1.086541e+02
<STATE> 3
<MEAN> 25
 3.691633e+00 -6.378765e+00 6.166086e+00 1.236009e+01 7.380941e+00 -9.047977e+00 -9.580333e+00 -1.629763e+00 -3.102339e+00 -4.599288e+00 -4.548250e+00 -5.048493e+00 8.359629e-02 -2.991736e-01 1.296623e-01 4.305927e-01 9.667514e-03 -8.290642e-01 -5.818837e-01 1.603395e-01 8.957740e-02 -1.876646e-01 -1.591199e-01 -1.092843e-01 2.681427e-01
<VARIANCE> 25
 2.149308e+01 3.103732e+01 4.970968e+01 5.873264e+01 7.158559e+01 6.920425e+01 3.966159e+01 4.495304e+01 4.204121e+01 4.275245e+01 4.102441e+01 2.954641e+01 6.639252e-01 9.264812e-01 1.883231e+00 1.858640e+00 1.558079e+00 2.146437e+00 1.929194e+00 2.097977e+00 1.840118e+00 1.884095e+00 1.595546e+00 1.333590e+00 5.259222e-01
<GCONST> 9.574519e+01
<STATE> 4
<MEAN> 25
 4.036044e+00 -4.218312e+00 4.209880e+00 1.037407e+01 7.996428e+00 -6.247262e+00 -9.419474e+00 -3.331409e+00 -2.663913e+00 -2.918104e+00 -3.142705e+00 -4.376024e+00 3.821991e-02 8.336469e-01 -6.000085e-01 -1.181883e+00 -5.675405e-01 1.117856e+00 8.718380e-01 -2.187419e-01 -3.897155e-02 3.511441e-01 4.869802e-01 5.886047e-01 -5.325214e-01
<VARIANCE> 25
 1.972391e+01 3.227742e+01 4.309776e+01 5.167957e+01 5.495691e+01 6.691110e+01 3.850472e+01 4.351723e+01 4.154246e+01 3.556070e+01 3.517086e+01 2.803684e+01 6.999541e-01 1.390189e+00 1.663853e+00 1.824908e+00 1.964548e+00 2.784639e+00 2.501812e+00 2.236512e+00 2.341234e+00 2.148965e+00 1.947036e+00 1.699689e+00 1.056007e+00
<GCONST> 9.730878e+01
~t "T_i"
<ENDHMM>
~h "n-i+r"
<BEGINHMM>
<NUMSTATES> 5
<STATE> 2
<MEAN> 25
 2.824880e+00 -2.961581e+00 4.292364e+00 7.499251e+00 7.346193e+00 -2.067250e+00 -5.297520e+00 -2.873806e+00 -2.378581e+00 -1.973293e+00 -2.520489e+00 -3.736685e+00 1.015099e+00 -9.724852e-01 2.479329e-01 2.179622e+00 1.426837e+00 -2.128228e+00 -2.309814e+00 -3.848035e-01 -7.270547e-01 -7.560874e-01 -6.794949e-01 -8.365397e-01 1.175898e+00
<VARIANCE> 25
 3.374600e+01 3.967356e+01 6.750194e+01 6.375350e+01 5.781096e+01 6.437442e+01 4.980933e+01 4.415491e+01 4.445846e+01 3.540117e+01 3.356274e+01 2.704606e+01 3.132528e+00 4.137255e+00 3.621446e+00 4.487921e+00 4.215056e+00 5.312013e+00 4.005538e+00 3.824685e+00 4.409300e+00 4.209664e+00 3.923692e+00 2.984154e+00 1.617640e+00
<GCONST> 1.086541e+02
<STATE> 3
<MEAN> 25
 3.691633e+00 -6.378765e+00 6.166086e+00 1.236009e+01 7.380941e+00 -9.047977e+00 -9.580333e+00 -1.629763e+00 -3.102339e+00 -4.599288e+00 -4.548250e+00 -5.048493e+00 8.359629e-02 -2.991736e-01 1.296623e-01 4.305927e-01 9.667514e-03 -8.290642e-01 -5.818837e-01 1.603395e-01 8.957740e-02 -1.876646e-01 -1.591199e-01 -1.092843e-01 2.681427e-01
<VARIANCE> 25
 2.149308e+01 3.103732e+01 4.970968e+01 5.873264e+01 7.158559e+01 6.920425e+01 3.966159e+01 4.495304e+01 4.204121e+01 4.275245e+01 4.102441e+01 2.954641e+01 6.639252e-01 9.264812e-01 1.883231e+00 1.858640e+00 1.558079e+00 2.146437e+00 1.929194e+00 2.097977e+00 1.840118e+00 1.884095e+00 1.595546e+00 1.333590e+00 5.259222e-01
<GCONST> 9.574519e+01
<STATE> 4
<MEAN> 25
 4.036044e+00 -4.218312e+00 4.209880e+00 1.037407e+01 7.996428e+00 -6.247262e+00 -9.419474e+00 -3.331409e+00 -2.663913e+00 -2.918104e+00 -3.142705e+00 -4.376024e+00 3.821991e-02 8.336469e-01 -6.000085e-01 -1.181883e+00 -5.675405e-01 1.117856e+00 8.718380e-01 -2.187419e-01 -3.897155e-02 3.511441e-01 4.869802e-01 5.886047e-01 -5.325214e-01
<VARIANCE> 25
 1.972391e+01 3.227742e+01 4.309776e+01 5.167957e+01 5.495691e+01 6.691110e+01 3.850472e+01 4.351723e+01 4.154246e+01 3.556070e+01 3.517086e+01 2.803684e+01 6.999541e-01 1.390189e+00 1.663853e+00 1.824908e+00 1.964548e+00 2.784639e+00 2.501812e+00 2.236512e+00 2.341234e+00 2.148965e+00 1.947036e+00 1.699689e+00 1.056007e+00
<GCONST> 9.730878e+01
~t "T_i"
<ENDHMM>
~h "n-i+t"
<BEGINHMM>
<NUMSTATES> 5
<STATE> 2
<MEAN> 25
 2.824880e+00 -2.961581e+00 4.292364e+00 7.499251e+00 7.346193e+00 -2.067250e+00 -5.297520e+00 -2.873806e+00 -2.378581e+00 -1.973293e+00 -2.520489e+00 -3.736685e+00 1.015099e+00 -9.724852e-01 2.479329e-01 2.179622e+00 1.426837e+00 -2.128228e+00 -2.309814e+00 -3.848035e-01 -7.270547e-01 -7.560874e-01 -6.794949e-01 -8.365397e-01 1.175898e+00
<VARIANCE> 25
 3.374600e+01 3.967356e+01 6.750194e+01 6.375350e+01 5.781096e+01 6.437442e+01 4.980933e+01 4.415491e+01 4.445846e+01 3.540117e+01 3.356274e+01 2.704606e+01 3.132528e+00 4.137255e+00 3.621446e+00 4.487921e+00 4.215056e+00 5.312013e+00 4.005538e+00 3.824685e+00 4.409300e+00 4.209664e+00 3.923692e+00 2.984154e+00 1.617640e+00
<GCONST> 1.086541e+02
<STATE> 3
<MEAN> 25
 3.691633e+00 -6.378765e+00 6.166086e+00 1.236009e+01 7.380941e+00 -9.047977e+00 -9.580333e+00 -1.629763e+00 -3.102339e+00 -4.599288e+00 -4.548250e+00 -5.048493e+00 8.359629e-02 -2.991736e-01 1.296623e-01 4.305927e-01 9.667514e-03 -8.290642e-01 -5.818837e-01 1.603395e-01 8.957740e-02 -1.876646e-01 -1.591199e-01 -1.092843e-01 2.681427e-01
<VARIANCE> 25
 2.149308e+01 3.103732e+01 4.970968e+01 5.873264e+01 7.158559e+01 6.920425e+01 3.966159e+01 4.495304e+01 4.204121e+01 4.275245e+01 4.102441e+01 2.954641e+01 6.639252e-01 9.264812e-01 1.883231e+00 1.858640e+00 1.558079e+00 2.146437e+00 1.929194e+00 2.097977e+00 1.840118e+00 1.884095e+00 1.595546e+00 1.333590e+00 5.259222e-01
<GCONST> 9.574519e+01
<STATE> 4
<MEAN> 25
 4.036044e+00 -4.218312e+00 4.209880e+00 1.037407e+01 7.996428e+00 -6.247262e+00 -9.419474e+00 -3.331409e+00 -2.663913e+00 -2.918104e+00 -3.142705e+00 -4.376024e+00 3.821991e-02 8.336469e-01 -6.000085e-01 -1.181883e+00 -5.675405e-01 1.117856e+00 8.718380e-01 -2.187419e-01 -3.897155e-02 3.511441e-01 4.869802e-01 5.886047e-01 -5.325214e-01
<VARIANCE> 25
 1.972391e+01 3.227742e+01 4.309776e+01 5.167957e+01 5.495691e+01 6.691110e+01 3.850472e+01 4.351723e+01 4.154246e+01 3.556070e+01 3.517086e+01 2.803684e+01 6.999541e-01 1.390189e+00 1.663853e+00 1.824908e+00 1.964548e+00 2.784639e+00 2.501812e+00 2.236512e+00 2.341234e+00 2.148965e+00 1.947036e+00 1.699689e+00 1.056007e+00
<GCONST> 9.730878e+01
~t "T_i"
<ENDHMM>
~h "n-o+th"
<BEGINHMM>
<NUMSTATES> 5
<STATE> 2
<MEAN> 25
 8.202134e+00 8.756948e-01 -1.556870e+00 -2.412576e+00 -4.135490e+00 -5.283045e+00 -1.325630e+00 5.514442e-01 -3.256593e+00 -4.464030e+00 -3.179199e+00 -1.018459e+00 8.533680e-01 5.628624e-02 -4.272498e-01 -1.163086e+00 -1.742013e+00 -1.833407e+00 -1.006363e-01 8.327968e-01 2.565329e-01 -1.784475e-01 -2.551433e-01 1.000556e-01 7.841955e-01
<VARIANCE> 25
 2.727819e+01 4.614404e+01 4.546624e+01 5.624189e+01 6.257309e+01 6.102062e+01 4.518742e+01 4.939813e+01 5.469617e+01 4.219932e+01 3.056493e+01 2.847985e+01 1.604221e+00 2.714622e+00 2.414845e+00 3.306103e+00 3.399673e+00 4.293542e+00 4.410888e+00 3.910635e+00 3.812121e+00 3.509329e+00 2.851977e+00 2.694980e+00 1.552250e+00
<GCONST> 1.055529e+02
<STATE> 3
<MEAN> 25
 9.608891e+00 1.841884e+00 -1.624231e+00 -4.843653e+00 -1.056682e+01 -1.047259e+01 -3.275502e-01 4.228262e+00 -8.981493e-01 -3.707518e+00 -3.771726e+00 -1.847208e+00 -1.603226e-01 3.746803e-01 2.492852e-02 -5.283350e-02 -1.316152e-01 2.060792e-01 2.320018e-01 3.473101e-01 4.636069e-01 2.421327e-01 -1.011645e-03 -9.001540e-02 -4.208844e-01
<VARIANCE> 25
 2.191664e+01 3.832346e+01 3.536129e+01 4.552036e+01 5.146196e+01 5.402416e+01 4.532333e+01 4.316967e+01 5.194213e+01 3.791486e+01 2.724122e+01 2.477335e+01 5.759985e-01 1.296905e+00 1.329783e+00 1.436117e+00 2.015944e+00 2.854960e+00 1.984985e+00 2.227589e+00 2.343580e+00 2.045362e+00 1.638120e+00 1.449960e+00 1.066268e+00
<GCONST> 9.576168e+01
<STATE> 4
<MEAN> 25
 5.920141e+00 4.729104e+00 -6.619071e-01 -3.592440e+00 -6.668617e+00 -4.437122e+00 3.776827e-01 3.175261e+00 9.050462e-01 -1.454790e+00 -2.326509e+00 -1.249121e+00 -6.257654e-01 -3.906129e-02 1.678127e-01 4.218079e-01 7.039407e-01 9.980335e-01 2.885799e-01 -2.038472e-01 -1.773957e-02 1.877047e-01 2.155907e-01 8.154663e-02 -5.345345e-01
<VARIANCE> 25
 2.381943e+01 3.168683e+01 3.073319e+01 3.372535e+01 3.205265e+01 4.222814e+01 3.201194e+01 3.300840e+01 3.498757e+01 3.150789e+01 2.243595e+01 1.901501e+01 4.852379e-01 7.335701e-01 1.011674e+00 1.084659e+00 1.496157e+00 1.967000e+00 1.648281e+00 1.688958e+00 1.686677e+00 1.518985e+00 1.305284e+00 1.193857e+00 3.831035e-01
<GCONST> 8.833953e+01
~t "T_o"
<ENDHMM>
~h "e-rr+a"
<BEGINHMM>
<NUMSTATES> 5
<STATE> 2
<MEAN> 25
 3.353537e+00 -9.142436e-01 -3.058184e+00 -3.547527e+00 3.143570e+00 1.554105e+00 -1.617299e+00 -1.135031e+00 7.034200e-01 -1.353892e+00 -9.484147e-01 7.906689e-01 3.572667e-01 9.332132e-02 -3.866347e-01 -8.697939e-02 3.757065e-01 2.881039e-01 -9.380478e-02 -1.033477e-01 -1.545185e-01 -3.527187e-01 -1.557336e-01 4.292154e-02 5.196048e-02
<VARIANCE> 25
 4.300015e+01 5.147916e+01 5.414499e+01 6.460785e+01 4.989538e+01 5.407913e+01 4.206803e+01 4.860925e+01 3.790956e+01 3.987109e+01 3.461342e+01 3.103023e+01 2.915508e+00 4.136422e+00 3.340683e+00 3.983831e+00 3.703060e+00 4.642681e+00 3.783070e+00 3.926247e+00 3.502168e+00 3.444017e+00 3.087563e+00 2.842110e+00 3.238592e+00
<GCONST> 1.080909e+02
<STATE> 3
<MEAN> 25
 7.582133e+00 1.247781e+00 -5.329599e+00 -4.675842e+00 2.104177e+00 2.665906e+00 -1.852962e+00 -2.771921e+00 -1.963075e+00 -2.989711e+00 -2.774907e+00 3.743697e-01 9.248909e-01 6.599494e-01 -7.228659e-01 -7.283572e-01 -1.813637e-01 -1.756126e-01 -3.578639e-01 -5.607713e-01 -5.978424e-01 -4.266687e-01 -3.611438e-01 -8.400698e-02 2.693413e-01
<VARIANCE> 25
 2.256667e+01 2.670186e+01 3.456329e+01 4.313871e+01 3.583524e+01 4.206372e+01 3.763231e+01 3.354306e+01 2.742425e+01 2.760290e+01 2.449686e+01 2.322071e+01 8.681712e-01 1.280364e+00 1.529286e+00 1.913779e+00 2.044108e+00 1.849371e+00 1.987761e+00 2.027984e+00 1.732651e+00 1.687739e+00 1.583756e+00 1.522920e+00 7.689877e-01
<GCONST> 9.268141e+01
<STATE> 4
<MEAN> 25
 1.009247e+01 1.486915e+00 -8.246142e+00 -5.120526e+00 2.065458e+00 1.025245e+00 -3.525442e+00 -4.038950e+00 -2.868468e+00 -3.264583e+00 -2.356816e+00 1.102997e+00 1.186399e-01 -2.301981e-01 -1.140983e-01 1.072073e-01 3.884058e-02 -7.065016e-01 -3.659014e-01 -8.380543e-02 -9.820130e-02 1.017236e-01 2.038886e-01 1.326848e-01 3.107538e-01
<VARIANCE> 25
 3.007746e+01 2.656600e+01 4.011358e+01 4.749679e+01 3.734233e+01 3.581827e+01 3.574841e+01 3.924471e+01 3.173490e+01 2.907249e+01 2.628150e+01 2.564830e+01 4.615683e-01 8.872818e-01 9.988760e-01 1.540743e+00 1.448741e+00 1.726679e+00 1.611915e+00 1.678023e+00 1.689305e+00 1.443329e+00 1.524528e+00 1.506498e+00 5.601036e-01
<GCONST> 9.056165e+01
~t "T_rr"
<ENDHMM>
~h "a-o+r"
<BEGINHMM>
<NUMSTATES> 5
<STATE> 2
<MEAN> 25
 8.202134e+00 8.756948e-01 -1.556870e+00 -2.412576e+00 -4.135490e+00 -5.283045e+00 -1.325630e+00 5.514442e-01 -3.256593e+00 -4.464030e+00 -3.179199e+00 -1.018459e+00 8.533680e-01 5.628624e-02 -4.272498e-01 -1.163086e+00 -1.742013e+00 -1.833407e+00 -1.006363e-01 8.327968e-01 2.565329e-01 -1.784475e-01 -2.551433e-01 1.000556e-01 7.841955e-01
<VARIANCE> 25
 2.727819e+01 4.614404e+01 4.546624e+01 5.624189e+01 6.257309e+01 6.102062e+01 4.518742e+01 4.939813e+01 5.469617e+01 4.219932e+01 3.056493e+01 2.847985e+01 1.604221e+00 2.714622e+00 2.414845e+00 3.306103e+00 3.399673e+00 4.293542e+00 4.410888e+00 3.910635e+00 3.812121e+00 3.509329e+00 2.851977e+00 2.694980e+00 1.552250e+00
<GCONST> 1.055529e+02
<STATE> 3
<MEAN> 25
 9.608891e+00 1.841884e+00 -1.624231e+00 -4.843653e+00 -1.056682e+01 -1.047259e+01 -3.275502e-01 4.228262e+00 -8.981493e-01 -3.707518e+00 -3.771726e+00 -1.847208e+00 -1.603226e-01 3.746803e-01 2.492852e-02 -5.283350e-02 -1.316152e-01 2.060792e-01 2.320018e-01 3.473101e-01 4.636069e-01 2.421327e-01 -1.011645e-03 -9.001540e-02 -4.208844e-01
<VARIANCE> 25
 2.191664e+01 3.832346e+01 3.536129e+01 4.552036e+01 5.146196e+01 5.402416e+01 4.532333e+01 4.316967e+01 5.194213e+01 3.791486e+01 2.724122e+01 2.477335e+01 5.759985e-01 1.296905e+00 1.329783e+00 1.436117e+00 2.015944e+00 2.854960e+00 1.984985e+00 2.227589e+00 2.343580e+00 2.045362e+00 1.638120e+00 1.449960e+00 1.066268e+00
<GCONST> 9.576168e+01
<STATE> 4
<MEAN> 25
 5.920141e+00 4.729104e+00 -6.619071e-01 -3.592440e+00 -6.668617e+00 -4.437122e+00 3.776827e-01 3.175261e+00 9.050462e-01 -1.454790e+00 -2.326509e+00 -1.249121e+00 -6.257654e-01 -3.906129e-02 1.678127e-01 4.218079e-01 7.039407e-01 9.980335e-01 2.885799e-01 -2.038472e-01 -1.773957e-02 1.877047e-01 2.155907e-01 8.154663e-02 -5.345345e-01
<VARIANCE> 25
 2.381943e+01 3.168683e+01 3.073319e+01 3.372535e+01 3.205265e+01 4.222814e+01 3.201194e+01 3.300840e+01 3.498757e+01 3.150789e+01 2.243595e+01 1.901501e+01 4.852379e-01 7.335701e-01 1.011674e+00 1.084659e+00 1.496157e+00 1.967000e+00 1.648281e+00 1.688958e+00 1.686677e+00 1.518985e+00 1.305284e+00 1.193857e+00 3.831035e-01
<GCONST> 8.833953e+01
~t "T_o"
<ENDHMM>
~h "a-p+a"
<BEGINHMM>
<NUMSTATES> 5
<STATE> 2
<MEAN> 25
 7.273674e-01 4.419045e+00 -1.642455e+00 1.125738e+00 -3.522553e-01 3.235282e+00 2.746772e-01 -5.568021e-02 1.165696e+00 4.750603e-01 9.688855e-02 3.759823e-01 -8.011376e-01 -8.197273e-02 6.961958e-03 -1.358314e-02 -1.177142e-01 3.702320e-01 1.830292e-01 5.311110e-02 2.254074e-01 2.447188e-01 2.399417e-01 2.407473e-01 -6.623852e-01
<VARIANCE> 25
 2.401776e+01 1.960782e+01 3.718217e+01 3.054975e+01 2.808158e+01 2.605350e+01 2.362480e+01 2.559509e+01 2.385701e+01 1.987996e+01 1.746951e+01 1.688129e+01 1.269404e+00 2.086987e+00 1.529043e+00 1.657745e+00 1.625266e+00 2.383349e+00 1.826928e+00 1.767557e+00 1.704675e+00 1.489995e+00 1.377780e+00 1.354460e+00 2.792160e+00
<GCONST> 9.099888e+01
<STATE> 3
<MEAN> 25
 -1.337869e+00 1.035469e+00 -7.838042e-01 -9.290963e-03 5.556262e-02 3.594203e+00 2.027818e+00 8.199463e-01 2.073685e+00 1.473826e+00 6.019089e-01 8.898576e-01 1.765188e+00 -1.028808e+00 4.021101e-02 -1.068706e+00 -5.371588e-02 -1.240200e+00 7.556494e-02 4.608671e-03 -3.994851e-01 -4.938613e-01 -4.782575e-01 -1.913889e-01 2.907336e+00
<VARIANCE> 25
 1.897703e+01 2.944050e+01 3.749300e+01 3.170806e+01 2.703956e+01 2.659766e+01 2.663577e+01 2.555534e+01 2.200160e+01 1.974789e+01 1.681893e+01 1.572850e+01 2.443307e+00 3.570506e+00 3.745036e+00 3.115236e+00 4.571411e+00 3.674390e+00 3.286592e+00 3.199915e+00 3.096100e+00 2.349700e+00 2.032326e+00 1.843453e+00 2.755321e+00
<GCONST> 9.822238e+01
<STATE> 4
<MEAN> 25
 5.176690e+00 1.157645e+00 -1.488065e+00 -2.820636e+00 -1.278942e+00 -5.157562e-01 5.626150e-01 4.191951e-01 5.586421e-01 -7.193927e-01 -1.273285e+00 -1.231566e-01 2.950639e+00 -2.090072e-01 -1.097889e+00 -1.007010e+00 -7.686905e-01 -2.226063e+00 -1.336651e+00 -5.428960e-01 -8.846589e-01 -9.306594e-01 -6.750229e-01 -2.558869e-01 2.670755e+00
<VARIANCE> 25
 3.736500e+01 4.107451e+01 4.575256e+01 4.207091e+01 4.778902e+01 4.715288e+01 3.255062e+01 3.267081e+01 3.013973e+01 2.514127e+01 1.985579e+01 1.664416e+01 2.039635e+00 5.257606e+00 4.280380e+00 5.203839e+00 6.958500e+00 6.059873e+00 4.287543e+00 4.485157e+00 4.812220e+00 3.423693e+00 3.071751e+00 2.633017e+00 2.926000e+00
<GCONST> 1.061059e+02
~t "T_p"
<ENDHMM>
~h "a-p+e"
<BEGINHMM>
<NUMSTATES> 5
<STATE> 2
<MEAN> 25
 7.273674e-01 4.419045e+00 -1.642455e+00 1.125738e+00 -3.522553e-01 3.235282e+00 2.746772e-01 -5.568021e-02 1.165696e+00 4.750603e-01 9.688855e-02 3.759823e-01 -8.011376e-01 -8.197273e-02 6.961958e-03 -1.358314e-02 -1.177142e-01 3.702320e-01 1.830292e-01 5.311110e-02 2.254074e-01 2.447188e-01 2.399417e-01 2.407473e-01 -6.623852e-01
<VARIANCE> 25
 2.401776e+01 1.960782e+01 3.718217e+01 3.054975e+01 2.808158e+01 2.605350e+01 2.362480e+01 2.559509e+01 2.385701e+01 1.987996e+01 1.746951e+01 1.688129e+01 1.269404e+00 2.086987e+00 1.529043e+00 1.657745e+00 1.625266e+00 2.383349e+00 1.826928e+00 1.767557e+00 1.704675e+00 1.489995e+00 1.377780e+00 1.354460e+00 2.792160e+00
<GCONST> 9.099888e+01
<STATE> 3
<MEAN> 25
 -1.337869e+00 1.035469e+00 -7.838042e-01 -9.290963e-03 5.556262e-02 3.594203e+00 2.027818e+00 8.199463e-01 2.073685e+00 1.473826e+00 6.019089e-01 8.898576e-01 1.765188e+00 -1.028808e+00 4.021101e-02 -1.068706e+00 -5.371588e-02 -1.240200e+00 7.556494e-02 4.608671e-03 -3.994851e-01 -4.938613e-01 -4.782575e-01 -1.913889e-01 2.907336e+00
<VARIANCE> 25
 1.897703e+01 2.944050e+01 3.749300e+01 3.170806e+01 2.703956e+01 2.659766e+01 2.663577e+01 2.555534e+01 2.200160e+01 1.974789e+01 1.681893e+01 1.572850e+01 2.443307e+00 3.570506e+00 3.745036e+00 3.115236e+00 4.571411e+00 3.674390e+00 3.286592e+00 3.199915e+00 3.096100e+00 2.349700e+00 2.032326e+00 1.843453e+00 2.755321e+00
<GCONST> 9.822238e+01
<STATE> 4
<MEAN> 25
 5.176690e+00 1.157645e+00 -1.488065e+00 -2.820636e+00 -1.278942e+00 -5.157562e-01 5.626150e-01 4.191951e-01 5.586421e-01 -7.193927e-01 -1.273285e+00 -1.231566e-01 2.950639e+00 -2.090072e-01 -1.097889e+00 -1.007010e+00 -7.686905e-01 -2.226063e+00 -1.336651e+00 -5.428960e-01 -8.846589e-01 -9.306594e-01 -6.750229e-01 -2.558869e-01 2.670755e+00
<VARIANCE> 25
 3.736500e+01 4.107451e+01 4.575256e+01 4.207091e+01 4.778902e+01 4.715288e+01 3.255062e+01 3.267081e+01 3.013973e+01 2.514127e+01 1.985579e+01 1.664416e+01 2.039635e+00 5.257606e+00 4.280380e+00 5.203839e+00 6.958500e+00 6.059873e+00 4.287543e+00 4.485157e+00 4.812220e+00 3.423693e+00 3.071751e+00 2.633017e+00 2.926000e+00
<GCONST> 1.061059e+02
~t "T_p"
<ENDHMM>
~h "a-p+i"
<BEGINHMM>
<NUMSTATES> 5
<STATE> 2
<MEAN> 25
 7.273674e-01 4.419045e+00 -1.642455e+00 1.125738e+00 -3.522553e-01 3.235282e+00 2.746772e-01 -5.568021e-02 1.165696e+00 4.750603e-01 9.688855e-02 3.759823e-01 -8.011376e-01 -8.197273e-02 6.961958e-03 -1.358314e-02 -1.177142e-01 3.702320e-01 1.830292e-01 5.311110e-02 2.254074e-01 2.447188e-01 2.399417e-01 2.407473e-01 -6.623852e-01
<VARIANCE> 25
 2.401776e+01 1.960782e+01 3.718217e+01 3.054975e+01 2.808158e+01 2.605350e+01 2.362480e+01 2.559509e+01 2.385701e+01 1.987996e+01 1.746951e+01 1.688129e+01 1.269404e+00 2.086987e+00 1.529043e+00 1.657745e+00 1.625266e+00 2.383349e+00 1.826928e+00 1.767557e+00 1.704675e+00 1.489995e+00 1.377780e+00 1.354460e+00 2.792160e+00
<GCONST> 9.099888e+01
<STATE> 3
<MEAN> 25
 -1.337869e+00 1.035469e+00 -7.838042e-01 -9.290963e-03 5.556262e-02 3.594203e+00 2.027818e+00 8.199463e-01 2.073685e+00 1.473826e+00 6.019089e-01 8.898576e-01 1.765188e+00 -1.028808e+00 4.021101e-02 -1.068706e+00 -5.371588e-02 -1.240200e+00 7.556494e-02 4.608671e-03 -3.994851e-01 -4.938613e-01 -4.782575e-01 -1.913889e-01 2.907336e+00
<VARIANCE> 25
 1.897703e+01 2.944050e+01 3.749300e+01 3.170806e+01 2.703956e+01 2.659766e+01 2.663577e+01 2.555534e+01 2.200160e+01 1.974789e+01 1.681893e+01 1.572850e+01 2.443307e+00 3.570506e+00 3.745036e+00 3.115236e+00 4.571411e+00 3.674390e+00 3.286592e+00 3.199915e+00 3.096100e+00 2.349700e+00 2.032326e+00 1.843453e+00 2.755321e+00
<GCONST> 9.822238e+01
<STATE> 4
<MEAN> 25
 5.176690e+00 1.157645e+00 -1.488065e+00 -2.820636e+00 -1.278942e+00 -5.157562e-01 5.626150e-01 4.191951e-01 5.586421e-01 -7.193927e-01 -1.273285e+00 -1.231566e-01 2.950639e+00 -2.090072e-01 -1.097889e+00 -1.007010e+00 -7.686905e-01 -2.226063e+00 -1.336651e+00 -5.428960e-01 -8.846589e-01 -9.306594e-01 -6.750229e-01 -2.558869e-01 2.670755e+00
<VARIANCE> 25
 3.736500e+01 4.107451e+01 4.575256e+01 4.207091e+01 4.778902e+01 4.715288e+01 3.255062e+01 3.267081e+01 3.013973e+01 2.514127e+01 1.985579e+01 1.664416e+01 2.039635e+00 5.257606e+00 4.280380e+00 5.203839e+00 6.958500e+00 6.059873e+00 4.287543e+00 4.485157e+00 4.812220e+00 3.423693e+00 3.071751e+00 2.633017e+00 2.926000e+00
<GCONST> 1.061059e+02
~t "T_p"
<ENDHMM>
~h "a-p+r"
<BEGINHMM>
<NUMSTATES> 5
<STATE> 2
<MEAN> 25
 7.273674e-01 4.419045e+00 -1.642455e+00 1.125738e+00 -3.522553e-01 3.235282e+00 2.746772e-01 -5.568021e-02 1.165696e+00 4.750603e-01 9.688855e-02 3.759823e-01 -8.011376e-01 -8.197273e-02 6.961958e-03 -1.358314e-02 -1.177142e-01 3.702320e-01 1.830292e-01 5.311110e-02 2.254074e-01 2.447188e-01 2.399417e-01 2.407473e-01 -6.623852e-01
<VARIANCE> 25
 2.401776e+01 1.960782e+01 3.718217e+01 3.054975e+01 2.808158e+01 2.605350e+01 2.362480e+01 2.559509e+01 2.385701e+01 1.987996e+01 1.746951e+01 1.688129e+01 1.269404e+00 2.086987e+00 1.529043e+00 1.657745e+00 1.625266e+00 2.383349e+00 1.826928e+00 1.767557e+00 1.704675e+00 1.489995e+00 1.377780e+00 1.354460e+00 2.792160e+00
<GCONST> 9.099888e+01
<STATE> 3
<MEAN> 25
 -1.337869e+00 1.035469e+00 -7.838042e-01 -9.290963e-03 5.556262e-02 3.594203e+00 2.027818e+00 8.199463e-01 2.073685e+00 1.473826e+00 6.019089e-01 8.898576e-01 1.765188e+00 -1.028808e+00 4.021101e-02 -1.068706e+00 -5.371588e-02 -1.240200e+00 7.556494e-02 4.608671e-03 -3.994851e-01 -4.938613e-01 -4.782575e-01 -1.913889e-01 2.907336e+00
<VARIANCE> 25
 1.897703e+01 2.944050e+01 3.749300e+01 3.170806e+01 2.703956e+01 2.659766e+01 2.663577e+01 2.555534e+01 2.200160e+01 1.974789e+01 1.681893e+01 1.572850e+01 2.443307e+00 3.570506e+00 3.745036e+00 3.115236e+00 4.571411e+00 3.674390e+00 3.286592e+00 3.199915e+00 3.096100e+00 2.349700e+00 2.032326e+00 1.843453e+00 2.755321e+00
<GCONST> 9.822238e+01
<STATE> 4
<MEAN> 25
 5.176690e+00 1.157645e+00 -1.488065e+00 -2.820636e+00 -1.278942e+00 -5.157562e-01 5.626150e-01 4.191951e-01 5.586421e-01 -7.193927e-01 -1.273285e+00 -1.231566e-01 2.950639e+00 -2.090072e-01 -1.097889e+00 -1.007010e+00 -7.686905e-01 -2.226063e+00 -1.336651e+00 -5.428960e-01 -8.846589e-01 -9.306594e-01 -6.750229e-01 -2.558869e-01 2.670755e+00
<VARIANCE> 25
 3.736500e+01 4.107451e+01 4.575256e+01 4.207091e+01 4.778902e+01 4.715288e+01 3.255062e+01 3.267081e+01 3.013973e+01 2.514127e+01 1.985579e+01 1.664416e+01 2.039635e+00 5.257606e+00 4.280380e+00 5.203839e+00 6.958500e+00 6.059873e+00 4.287543e+00 4.485157e+00 4.812220e+00 3.423693e+00 3.071751e+00 2.633017e+00 2.926000e+00
<GCONST> 1.061059e+02
~t "T_p"
<ENDHMM>
~h "n-k+a"
<BEGINHMM>
<NUMSTATES> 5
<STATE> 2
<MEAN> 25
 -2.312355e-01 1.961118e+00 -8.483832e-01 1.450593e+00 1.457601e+00 2.408843e+00 -4.597814e-01 -1.728608e+00 -1.790877e-01 8.893732e-01 6.985575e-01 -3.931130e-01 -7.720011e-01 -7.842530e-02 -5.205820e-01 -9.070294e-01 -7.591282e-01 3.915028e-01 7.773291e-01 4.507853e-01 3.840126e-01 1.228299e-01 3.643597e-01 2.747205e-01 -4.715713e-01
<VARIANCE> 25
 2.273778e+01 2.853440e+01 3.812323e+01 4.159114e+01 4.112223e+01 3.378465e+01 3.233773e+01 3.354189e+01 3.298198e+01 2.542086e+01 2.348176e+01 2.239305e+01 1.604517e+00 4.217481e+00 2.607781e+00 4.085482e+00 3.966224e+00 4.291962e+00 3.567861e+00 3.176125e+00 3.109658e+00 2.588859e+00 2.471189e+00 2.213985e+00 5.200278e+00
<GCONST> 1.019870e+02
<STATE> 3
<MEAN> 25
 -1.427904e+00 -2.522660e+00 -2.585010e+00 -5.629199e+00 -8.787394e-01 -3.528969e-01 2.678309e+00 -7.877849e-01 7.780784e-01 5.548463e-01 2.357178e+00 4.609265e-01 3.902499e-01 -8.271015e-01 2.816469e-01 -1.033817e+00 -3.860129e-01 -9.675173e-01 2.915441e-01 -2.320813e-02 -3.249466e-01 -1.045423e-01 2.656671e-02 -1.464451e-01 1.487963e+00
<VARIANCE> 25
 2.691691e+01 7.003792e+01 5.256176e+01 6.985202e+01 8.061441e+01 6.468961e+01 6.198301e+01 6.249512e+01 4.851157e+01 4.706096e+01 4.291992e+01 3.999689e+01 2.103719e+00 4.420229e+00 3.587986e+00 5.717131e+00 5.819118e+00 5.228204e+00 4.675033e+00 4.933011e+00 4.070527e+00 3.372667e+00 3.275937e+00 3.025996e+00 4.842046e+00
<GCONST> 1.119947e+02
<STATE> 4
<MEAN> 25
 1.419271e+00 -3.539429e-01 4.778248e-01 -3.932618e+00 -2.930405e+00 -2.244887e+00 1.284940e+00 5.541340e-02 -5.615529e-01 7.321874e-01 8.684695e-01 -6.447970e-01 1.883814e+00 8.443043e-01 8.145797e-01 1.344449e+00 6.578749e-02 -1.397391e+00 -1.716680e+00 -6.972357e-01 -6.383767e-01 -3.624772e-01 -5.773226e-01 -2.933102e-01 8.197570e-01
<VARIANCE> 25
 3.267832e+01 6.014273e+01 4.649751e+01 6.060592e+01 7.995394e+01 5.549017e+01 4.596269e+01 5.674486e+01 4.103881e+01 2.995664e+01 2.814278e+01 2.626648e+01 2.782798e+00 2.967987e+00 2.976174e+00 4.358909e+00 4.870712e+00 5.839102e+00 4.260954e+00 3.580991e+00 3.656567e+00 3.403094e+00 3.130402e+00 2.638721e+00 2.321630e+00
<GCONST> 1.076801e+02
~t "T_k"
<ENDHMM>
~h "n-k+e"
<BEGINHMM>
<NUMSTATES> 5
<STATE> 2
<MEAN> 25
 -2.312355e-01 1.961118e+00 -8.483832e-01 1.450593e+00 1.457601e+00 2.408843e+00 -4.597814e-01 -1.728608e+00 -1.790877e-01 8.893732e-01 6.985575e-01 -3.931130e-01 -7.720011e-01 -7.842530e-02 -5.205820e-01 -9.070294e-01 -7.591282e-01 3.915028e-01 7.773291e-01 4.507853e-01 3.840126e-01 1.228299e-01 3.643597e-01 2.747205e-01 -4.715713e-01
<VARIANCE> 25
 2.273778e+01 2.853440e+01 3.812323e+01 4.159114e+01 4.112223e+01 3.378465e+01 3.233773e+01 3.354189e+01 3.298198e+01 2.542086e+01 2.348176e+01 2.239305e+01 1.604517e+00 4.217481e+00 2.607781e+00 4.085482e+00 3.966224e+00 4.291962e+00 3.567861e+00 3.176125e+00 3.109658e+00 2.588859e+00 2.471189e+00 2.213985e+00 5.200278e+00
<GCONST> 1.019870e+02
<STATE> 3
<MEAN> 25
 -1.427904e+00 -2.522660e+00 -2.585010e+00 -5.629199e+00 -8.787394e-01 -3.528969e-01 2.678309e+00 -7.877849e-01 7.780784e-01 5.548463e-01 2.357178e+00 4.609265e-01 3.902499e-01 -8.271015e-01 2.816469e-01 -1.033817e+00 -3.860129e-01 -9.675173e-01 2.915441e-01 -2.320813e-02 -3.249466e-01 -1.045423e-01 2.656671e-02 -1.464451e-01 1.487963e+00
<VARIANCE> 25
 2.691691e+01 7.003792e+01 5.256176e+01 6.985202e+01 8.061441e+01 6.468961e+01 6.198301e+01 6.249512e+01 4.851157e+01 4.706096e+01 4.291992e+01 3.999689e+01 2.103719e+00 4.420229e+00 3.587986e+00 5.717131e+00 5.819118e+00 5.228204e+00 4.675033e+00 4.933011e+00 4.070527e+00 3.372667e+00 3.275937e+00 3.025996e+00 4.842046e+00
<GCONST> 1.119947e+02
<STATE> 4
<MEAN> 25
 1.419271e+00 -3.539429e-01 4.778248e-01 -3.932618e+00 -2.930405e+00 -2.244887e+00 1.284940e+00 5.541340e-02 -5.615529e-01 7.321874e-01 8.684695e-01 -6.447970e-01 1.883814e+00 8.443043e-01 8.145797e-01 1.344449e+00 6.578749e-02 -1.397391e+00 -1.716680e+00 -6.972357e-01 -6.383767e-01 -3.624772e-01 -5.773226e-01 -2.933102e-01 8.197570e-01
<VARIANCE> 25
 3.267832e+01 6.014273e+01 4.649751e+01 6.060592e+01 7.995394e+01 5.549017e+01 4.596269e+01 5.674486e+01 4.103881e+01 2.995664e+01 2.814278e+01 2.626648e+01 2.782798e+00 2.967987e+00 2.976174e+00 4.358909e+00 4.870712e+00 5.839102e+00 4.260954e+00 3.580991e+00 3.656567e+00 3.403094e+00 3.130402e+00 2.638721e+00 2.321630e+00
<GCONST> 1.076801e+02
~t "T_k"
<ENDHMM>
~h "n-k+i"
<BEGINHMM>
<NUMSTATES> 5
<STATE> 2
<MEAN> 25
 -2.312355e-01 1.961118e+00 -8.483832e-01 1.450593e+00 1.457601e+00 2.408843e+00 -4.597814e-01 -1.728608e+00 -1.790877e-01 8.893732e-01 6.985575e-01 -3.931130e-01 -7.720011e-01 -7.842530e-02 -5.205820e-01 -9.070294e-01 -7.591282e-01 3.915028e-01 7.773291e-01 4.507853e-01 3.840126e-01 1.228299e-01 3.643597e-01 2.747205e-01 -4.715713e-01
<VARIANCE> 25
 2.273778e+01 2.853440e+01 3.812323e+01 4.159114e+01 4.112223e+01 3.378465e+01 3.233773e+01 3.354189e+01 3.298198e+01 2.542086e+01 2.348176e+01 2.239305e+01 1.604517e+00 4.217481e+00 2.607781e+00 4.085482e+00 3.966224e+00 4.291962e+00 3.567861e+00 3.176125e+00 3.109658e+00 2.588859e+00 2.471189e+00 2.213985e+00 5.200278e+00
<GCONST> 1.019870e+02
<STATE> 3
<MEAN> 25
 -1.427904e+00 -2.522660e+00 -2.585010e+00 -5.629199e+00 -8.787394e-01 -3.528969e-01 2.678309e+00 -7.877849e-01 7.780784e-01 5.548463e-01 2.357178e+00 4.609265e-01 3.902499e-01 -8.271015e-01 2.816469e-01 -1.033817e+00 -3.860129e-01 -9.675173e-01 2.915441e-01 -2.320813e-02 -3.249466e-01 -1.045423e-01 2.656671e-02 -1.464451e-01 1.487963e+00
<VARIANCE> 25
 2.691691e+01 7.003792e+01 5.256176e+01 6.985202e+01 8.061441e+01 6.468961e+01 6.198301e+01 6.249512e+01 4.851157e+01 4.706096e+01 4.291992e+01 3.999689e+01 2.103719e+00 4.420229e+00 3.587986e+00 5.717131e+00 5.819118e+00 5.228204e+00 4.675033e+00 4.933011e+00 4.070527e+00 3.372667e+00 3.275937e+00 3.025996e+00 4.842046e+00
<GCONST> 1.119947e+02
<STATE> 4
<MEAN> 25
 1.419271e+00 -3.539429e-01 4.778248e-01 -3.932618e+00 -2.930405e+00 -2.244887e+00 1.284940e+00 5.541340e-02 -5.615529e-01 7.321874e-01 8.684695e-01 -6.447970e-01 1.883814e+00 8.443043e-01 8.145797e-01 1.344449e+00 6.578749e-02 -1.397391e+00 -1.716680e+00 -6.972357e-01 -6.383767e-01 -3.624772e-01 -5.773226e-01 -2.933102e-01 8.197570e-01
<VARIANCE> 25
 3.267832e+01 6.014273e+01 4.649751e+01 6.060592e+01 7.995394e+01 5.549017e+01 4.596269e+01 5.674486e+01 4.103881e+01 2.995664e+01 2.814278e+01 2.626648e+01 2.782798e+00 2.967987e+00 2.976174e+00 4.358909e+00 4.870712e+00 5.839102e+00 4.260954e+00 3.580991e+00 3.656567e+00 3.403094e+00 3.130402e+00 2.638721e+00 2.321630e+00
<GCONST> 1.076801e+02
~t "T_k"
<ENDHMM>
~h "n-k+l"
<BEGINHMM>
<NUMSTATES> 5
<STATE> 2
<MEAN> 25
 -2.312355e-01 1.961118e+00 -8.483832e-01 1.450593e+00 1.457601e+00 2.408843e+00 -4.597814e-01 -1.728608e+00 -1.790877e-01 8.893732e-01 6.985575e-01 -3.931130e-01 -7.720011e-01 -7.842530e-02 -5.205820e-01 -9.070294e-01 -7.591282e-01 3.915028e-01 7.773291e-01 4.507853e-01 3.840126e-01 1.228299e-01 3.643597e-01 2.747205e-01 -4.715713e-01
<VARIANCE> 25
 2.273778e+01 2.853440e+01 3.812323e+01 4.159114e+01 4.112223e+01 3.378465e+01 3.233773e+01 3.354189e+01 3.298198e+01 2.542086e+01 2.348176e+01 2.239305e+01 1.604517e+00 4.217481e+00 2.607781e+00 4.085482e+00 3.966224e+00 4.291962e+00 3.567861e+00 3.176125e+00 3.109658e+00 2.588859e+00 2.471189e+00 2.213985e+00 5.200278e+00
<GCONST> 1.019870e+02
<STATE> 3
<MEAN> 25
 -1.427904e+00 -2.522660e+00 -2.585010e+00 -5.629199e+00 -8.787394e-01 -3.528969e-01 2.678309e+00 -7.877849e-01 7.780784e-01 5.548463e-01 2.357178e+00 4.609265e-01 3.902499e-01 -8.271015e-01 2.816469e-01 -1.033817e+00 -3.860129e-01 -9.675173e-01 2.915441e-01 -2.320813e-02 -3.249466e-01 -1.045423e-01 2.656671e-02 -1.464451e-01 1.487963e+00
<VARIANCE> 25
 2.691691e+01 7.003792e+01 5.256176e+01 6.985202e+01 8.061441e+01 6.468961e+01 6.198301e+01 6.249512e+01 4.851157e+01 4.706096e+01 4.291992e+01 3.999689e+01 2.103719e+00 4.420229e+00 3.587986e+00 5.717131e+00 5.819118e+00 5.228204e+00 4.675033e+00 4.933011e+00 4.070527e+00 3.372667e+00 3.275937e+00 3.025996e+00 4.842046e+00
<GCONST> 1.119947e+02
<STATE> 4
<MEAN> 25
 1.419271e+00 -3.539429e-01 4.778248e-01 -3.932618e+00 -2.930405e+00 -2.244887e+00 1.284940e+00 5.541340e-02 -5.615529e-01 7.321874e-01 8.684695e-01 -6.447970e-01 1.883814e+00 8.443043e-01 8.145797e-01 1.344449e+00 6.578749e-02 -1.397391e+00 -1.716680e+00 -6.972357e-01 -6.383767e-01 -3.624772e-01 -5.773226e-01 -2.933102e-01 8.197570e-01
<VARIANCE> 25
 3.267832e+01 6.014273e+01 4.649751e+01 6.060592e+01 7.995394e+01 5.549017e+01 4.596269e+01 5.674486e+01 4.103881e+01 2.995664e+01 2.814278e+01 2.626648e+01 2.782798e+00 2.967987e+00 2.976174e+00 4.358909e+00 4.870712e+00 5.839102e+00 4.260954e+00 3.580991e+00 3.656567e+00 3.403094e+00 3.130402e+00 2.638721e+00 2.321630e+00
<GCONST> 1.076801e+02
~t "T_k"
<ENDHMM>
~h "n-k+o"
<BEGINHMM>
<NUMSTATES> 5
<STATE> 2
<MEAN> 25
 -2.312355e-01 1.961118e+00 -8.483832e-01 1.450593e+00 1.457601e+00 2.408843e+00 -4.597814e-01 -1.728608e+00 -1.790877e-01 8.893732e-01 6.985575e-01 -3.931130e-01 -7.720011e-01 -7.842530e-02 -5.205820e-01 -9.070294e-01 -7.591282e-01 3.915028e-01 7.773291e-01 4.507853e-01 3.840126e-01 1.228299e-01 3.643597e-01 2.747205e-01 -4.715713e-01
<VARIANCE> 25
 2.273778e+01 2.853440e+01 3.812323e+01 4.159114e+01 4.112223e+01 3.378465e+01 3.233773e+01 3.354189e+01 3.298198e+01 2.542086e+01 2.348176e+01 2.239305e+01 1.604517e+00 4.217481e+00 2.607781e+00 4.085482e+00 3.966224e+00 4.291962e+00 3.567861e+00 3.176125e+00 3.109658e+00 2.588859e+00 2.471189e+00 2.213985e+00 5.200278e+00
<GCONST> 1.019870e+02
<STATE> 3
<MEAN> 25
 -1.427904e+00 -2.522660e+00 -2.585010e+00 -5.629199e+00 -8.787394e-01 -3.528969e-01 2.678309e+00 -7.877849e-01 7.780784e-01 5.548463e-01 2.357178e+00 4.609265e-01 3.902499e-01 -8.271015e-01 2.816469e-01 -1.033817e+00 -3.860129e-01 -9.675173e-01 2.915441e-01 -2.320813e-02 -3.249466e-01 -1.045423e-01 2.656671e-02 -1.464451e-01 1.487963e+00
<VARIANCE> 25
 2.691691e+01 7.003792e+01 5.256176e+01 6.985202e+01 8.061441e+01 6.468961e+01 6.198301e+01 6.249512e+01 4.851157e+01 4.706096e+01 4.291992e+01 3.999689e+01 2.103719e+00 4.420229e+00 3.587986e+00 5.717131e+00 5.819118e+00 5.228204e+00 4.675033e+00 4.933011e+00 4.070527e+00 3.372667e+00 3.275937e+00 3.025996e+00 4.842046e+00
<GCONST> 1.119947e+02
<STATE> 4
<MEAN> 25
 1.419271e+00 -3.539429e-01 4.778248e-01 -3.932618e+00 -2.930405e+00 -2.244887e+00 1.284940e+00 5.541340e-02 -5.615529e-01 7.321874e-01 8.684695e-01 -6.447970e-01 1.883814e+00 8.443043e-01 8.145797e-01 1.344449e+00 6.578749e-02 -1.397391e+00 -1.716680e+00 -6.972357e-01 -6.383767e-01 -3.624772e-01 -5.773226e-01 -2.933102e-01 8.197570e-01
<VARIANCE> 25
 3.267832e+01 6.014273e+01 4.649751e+01 6.060592e+01 7.995394e+01 5.549017e+01 4.596269e+01 5.674486e+01 4.103881e+01 2.995664e+01 2.814278e+01 2.626648e+01 2.782798e+00 2.967987e+00 2.976174e+00 4.358909e+00 4.870712e+00 5.839102e+00 4.260954e+00 3.580991e+00 3.656567e+00 3.403094e+00 3.130402e+00 2.638721e+00 2.321630e+00
<GCONST> 1.076801e+02
~t "T_k"
<ENDHMM>
~h "n-k+u"
<BEGINHMM>
<NUMSTATES> 5
<STATE> 2
<MEAN> 25
 -2.312355e-01 1.961118e+00 -8.483832e-01 1.450593e+00 1.457601e+00 2.408843e+00 -4.597814e-01 -1.728608e+00 -1.790877e-01 8.893732e-01 6.985575e-01 -3.931130e-01 -7.720011e-01 -7.842530e-02 -5.205820e-01 -9.070294e-01 -7.591282e-01 3.915028e-01 7.773291e-01 4.507853e-01 3.840126e-01 1.228299e-01 3.643597e-01 2.747205e-01 -4.715713e-01
<VARIANCE> 25
 2.273778e+01 2.853440e+01 3.812323e+01 4.159114e+01 4.112223e+01 3.378465e+01 3.233773e+01 3.354189e+01 3.298198e+01 2.542086e+01 2.348176e+01 2.239305e+01 1.604517e+00 4.217481e+00 2.607781e+00 4.085482e+00 3.966224e+00 4.291962e+00 3.567861e+00 3.176125e+00 3.109658e+00 2.588859e+00 2.471189e+00 2.213985e+00 5.200278e+00
<GCONST> 1.019870e+02
<STATE> 3
<MEAN> 25
 -1.427904e+00 -2.522660e+00 -2.585010e+00 -5.629199e+00 -8.787394e-01 -3.528969e-01 2.678309e+00 -7.877849e-01 7.780784e-01 5.548463e-01 2.357178e+00 4.609265e-01 3.902499e-01 -8.271015e-01 2.816469e-01 -1.033817e+00 -3.860129e-01 -9.675173e-01 2.915441e-01 -2.320813e-02 -3.249466e-01 -1.045423e-01 2.656671e-02 -1.464451e-01 1.487963e+00
<VARIANCE> 25
 2.691691e+01 7.003792e+01 5.256176e+01 6.985202e+01 8.061441e+01 6.468961e+01 6.198301e+01 6.249512e+01 4.851157e+01 4.706096e+01 4.291992e+01 3.999689e+01 2.103719e+00 4.420229e+00 3.587986e+00 5.717131e+00 5.819118e+00 5.228204e+00 4.675033e+00 4.933011e+00 4.070527e+00 3.372667e+00 3.275937e+00 3.025996e+00 4.842046e+00
<GCONST> 1.119947e+02
<STATE> 4
<MEAN> 25
 1.419271e+00 -3.539429e-01 4.778248e-01 -3.932618e+00 -2.930405e+00 -2.244887e+00 1.284940e+00 5.541340e-02 -5.615529e-01 7.321874e-01 8.684695e-01 -6.447970e-01 1.883814e+00 8.443043e-01 8.145797e-01 1.344449e+00 6.578749e-02 -1.397391e+00 -1.716680e+00 -6.972357e-01 -6.383767e-01 -3.624772e-01 -5.773226e-01 -2.933102e-01 8.197570e-01
<VARIANCE> 25
 3.267832e+01 6.014273e+01 4.649751e+01 6.060592e+01 7.995394e+01 5.549017e+01 4.596269e+01 5.674486e+01 4.103881e+01 2.995664e+01 2.814278e+01 2.626648e+01 2.782798e+00 2.967987e+00 2.976174e+00 4.358909e+00 4.870712e+00 5.839102e+00 4.260954e+00 3.580991e+00 3.656567e+00 3.403094e+00 3.130402e+00 2.638721e+00 2.321630e+00
<GCONST> 1.076801e+02
~t "T_k"
<ENDHMM>
~h "a-r+a"
<BEGINHMM>
<NUMSTATES> 5
<STATE> 2
<MEAN> 25
 8.643217e+00 -2.787229e+00 -6.224000e+00 -3.124852e+00 1.355937e+00 -3.755785e+00 -4.512966e+00 -3.933424e+00 -2.882520e+00 -2.216112e+00 -7.354643e-01 1.580987e+00 1.561792e-01 8.974332e-01 -3.782570e-01 5.168830e-01 1.252811e+00 1.208448e+00 -3.267309e-01 -2.546778e-01 -2.021774e-01 -5.815746e-01 -5.138835e-01 -2.330100e-02 -1.076871e+00
<VARIANCE> 25
 3.211975e+01 4.498290e+01 5.062462e+01 5.935705e+01 5.828969e+01 5.106108e+01 4.451467e+01 4.801496e+01 4.760433e+01 4.023750e+01 3.850442e+01 3.225385e+01 1.654517e+00 2.112823e+00 2.382579e+00 2.979533e+00 3.407424e+00 4.447104e+00 3.988335e+00 3.638894e+00 3.461148e+00 2.960581e+00 2.838124e+00 2.399935e+00 1.986631e+00
<GCONST> 1.051154e+02
<STATE> 3
<MEAN> 25
 7.898341e+00 6.769122e-01 -5.980435e+00 -1.402799e+00 3.525082e+00 4.491480e-01 -3.918551e+00 -3.587373e+00 -2.649347e+00 -2.842372e+00 -1.689278e+00 1.021962e+00 -7.756338e-01 7.563383e-01 5.502752e-01 8.270113e-01 2.798240e-01 1.325491e+00 7.032835e-01 3.596233e-01 3.082208e-01 -5.154090e-03 -2.048264e-01 -3.199293e-01 -1.361292e+00
<VARIANCE> 25
 2.876068e+01 3.251756e+01 4.847742e+01 5.875251e+01 4.849226e+01 4.357820e+01 4.282160e+01 3.805943e+01 3.575104e+01 3.216047e+01 2.785275e+01 2.531534e+01 1.549412e+00 2.112714e+00 2.763809e+00 3.039823e+00 3.358799e+00 3.590118e+00 3.448425e+00 3.136224e+00 3.408474e+00 2.967985e+00 2.623605e+00 2.237263e+00 1.636310e+00
<GCONST> 1.021613e+02
<STATE> 4
<MEAN> 25
 5.412677e+00 1.833103e+00 -4.028427e+00 -5.085419e-01 2.267809e+00 2.085018e+00 -1.665371e+00 -2.343382e+00 -1.808912e+00 -2.284674e+00 -1.413052e+00 3.313459e-01 -4.867756e-01 -6.988044e-02 4.821670e-01 3.639740e-01 -2.038538e-01 -1.353530e-01 2.935330e-01 3.202356e-01 4.707072e-02 1.700878e-01 1.382703e-01 -1.182176e-01 -2.790100e-01
<VARIANCE> 25
 2.738630e+01 3.117259e+01 4.332304e+01 4.824800e+01 3.927319e+01 3.631243e+01 3.395251e+01 3.381007e+01 3.105561e+01 2.732073e+01 2.547030e+01 2.190276e+01 1.094292e+00 1.505075e+00 2.021805e+00 2.286807e+00 2.216540e+00 2.356158e+00 2.429886e+00 2.174607e+00 2.300617e+00 2.008530e+00 1.813168e+00 1.681972e+00 1.042680e+00
<GCONST> 9.575272e+01
~t "T_r"
<ENDHMM>
~h "a-r+b"
<BEGINHMM>
<NUMSTATES> 5
<STATE> 2
<MEAN> 25
 8.643217e+00 -2.787229e+00 -6.224000e+00 -3.124852e+00 1.355937e+00 -3.755785e+00 -4.512966e+00 -3.933424e+00 -2.882520e+00 -2.216112e+00 -7.354643e-01 1.580987e+00 1.561792e-01 8.974332e-01 -3.782570e-01 5.168830e-01 1.252811e+00 1.208448e+00 -3.267309e-01 -2.546778e-01 -2.021774e-01 -5.815746e-01 -5.138835e-01 -2.330100e-02 -1.076871e+00
<VARIANCE> 25
 3.211975e+01 4.498290e+01 5.062462e+01 5.935705e+01 5.828969e+01 5.106108e+01 4.451467e+01 4.801496e+01 4.760433e+01 4.023750e+01 3.850442e+01 3.225385e+01 1.654517e+00 2.112823e+00 2.382579e+00 2.979533e+00 3.407424e+00 4.447104e+00 3.988335e+00 3.638894e+00 3.461148e+00 2.960581e+00 2.838124e+00 2.399935e+00 1.986631e+00
<GCONST> 1.051154e+02
<STATE> 3
<MEAN> 25
 7.898341e+00 6.769122e-01 -5.980435e+00 -1.402799e+00 3.525082e+00 4.491480e-01 -3.918551e+00 -3.587373e+00 -2.649347e+00 -2.842372e+00 -1.689278e+00 1.021962e+00 -7.756338e-01 7.563383e-01 5.502752e-01 8.270113e-01 2.798240e-01 1.325491e+00 7.032835e-01 3.596233e-01 3.082208e-01 -5.154090e-03 -2.048264e-01 -3.199293e-01 -1.361292e+00
<VARIANCE> 25
 2.876068e+01 3.251756e+01 4.847742e+01 5.875251e+01 4.849226e+01 4.357820e+01 4.282160e+01 3.805943e+01 3.575104e+01 3.216047e+01 2.785275e+01 2.531534e+01 1.549412e+00 2.112714e+00 2.763809e+00 3.039823e+00 3.358799e+00 3.590118e+00 3.448425e+00 3.136224e+00 3.408474e+00 2.967985e+00 2.623605e+00 2.237263e+00 1.636310e+00
<GCONST> 1.021613e+02
<STATE> 4
<MEAN> 25
 5.412677e+00 1.833103e+00 -4.028427e+00 -5.085419e-01 2.267809e+00 2.085018e+00 -1.665371e+00 -2.343382e+00 -1.808912e+00 -2.284674e+00 -1.413052e+00 3.313459e-01 -4.867756e-01 -6.988044e-02 4.821670e-01 3.639740e-01 -2.038538e-01 -1.353530e-01 2.935330e-01 3.202356e-01 4.707072e-02 1.700878e-01 1.382703e-01 -1.182176e-01 -2.790100e-01
<VARIANCE> 25
 2.738630e+01 3.117259e+01 4.332304e+01 4.824800e+01 3.927319e+01 3.631243e+01 3.395251e+01 3.381007e+01 3.105561e+01 2.732073e+01 2.547030e+01 2.190276e+01 1.094292e+00 1.505075e+00 2.021805e+00 2.286807e+00 2.216540e+00 2.356158e+00 2.429886e+00 2.174607e+00 2.300617e+00 2.008530e+00 1.813168e+00 1.681972e+00 1.042680e+00
<GCONST> 9.575272e+01
~t "T_r"
<ENDHMM>
~h "a-r+d"
<BEGINHMM>
<NUMSTATES> 5
<STATE> 2
<MEAN> 25
 8.643217e+00 -2.787229e+00 -6.224000e+00 -3.124852e+00 1.355937e+00 -3.755785e+00 -4.512966e+00 -3.933424e+00 -2.882520e+00 -2.216112e+00 -7.354643e-01 1.580987e+00 1.561792e-01 8.974332e-01 -3.782570e-01 5.168830e-01 1.252811e+00 1.208448e+00 -3.267309e-01 -2.546778e-01 -2.021774e-01 -5.815746e-01 -5.138835e-01 -2.330100e-02 -1.076871e+00
<VARIANCE> 25
 3.211975e+01 4.498290e+01 5.062462e+01 5.935705e+01 5.828969e+01 5.106108e+01 4.451467e+01 4.801496e+01 4.760433e+01 4.023750e+01 3.850442e+01 3.225385e+01 1.654517e+00 2.112823e+00 2.382579e+00 2.979533e+00 3.407424e+00 4.447104e+00 3.988335e+00 3.638894e+00 3.461148e+00 2.960581e+00 2.838124e+00 2.399935e+00 1.986631e+00
<GCONST> 1.051154e+02
<STATE> 3
<MEAN> 25
 7.898341e+00 6.769122e-01 -5.980435e+00 -1.402799e+00 3.525082e+00 4.491480e-01 -3.918551e+00 -3.587373e+00 -2.649347e+00 -2.842372e+00 -1.689278e+00 1.021962e+00 -7.756338e-01 7.563383e-01 5.502752e-01 8.270113e-01 2.798240e-01 1.325491e+00 7.032835e-01 3.596233e-01 3.082208e-01 -5.154090e-03 -2.048264e-01 -3.199293e-01 -1.361292e+00
<VARIANCE> 25
 2.876068e+01 3.251756e+01 4.847742e+01 5.875251e+01 4.849226e+01 4.357820e+01 4.282160e+01 3.805943e+01 3.575104e+01 3.216047e+01 2.785275e+01 2.531534e+01 1.549412e+00 2.112714e+00 2.763809e+00 3.039823e+00 3.358799e+00 3.590118e+00 3.448425e+00 3.136224e+00 3.408474e+00 2.967985e+00 2.623605e+00 2.237263e+00 1.636310e+00
<GCONST> 1.021613e+02
<STATE> 4
<MEAN> 25
 5.412677e+00 1.833103e+00 -4.028427e+00 -5.085419e-01 2.267809e+00 2.085018e+00 -1.665371e+00 -2.343382e+00 -1.808912e+00 -2.284674e+00 -1.413052e+00 3.313459e-01 -4.867756e-01 -6.988044e-02 4.821670e-01 3.639740e-01 -2.038538e-01 -1.353530e-01 2.935330e-01 3.202356e-01 4.707072e-02 1.700878e-01 1.382703e-01 -1.182176e-01 -2.790100e-01
<VARIANCE> 25
 2.738630e+01 3.117259e+01 4.332304e+01 4.824800e+01 3.927319e+01 3.631243e+01 3.395251e+01 3.381007e+01 3.105561e+01 2.732073e+01 2.547030e+01 2.190276e+01 1.094292e+00 1.505075e+00 2.021805e+00 2.286807e+00 2.216540e+00 2.356158e+00 2.429886e+00 2.174607e+00 2.300617e+00 2.008530e+00 1.813168e+00 1.681972e+00 1.042680e+00
<GCONST> 9.575272e+01
~t "T_r"
<ENDHMM>
~h "a-r+e"
<BEGINHMM>
<NUMSTATES> 5
<STATE> 2
<MEAN> 25
 8.643217e+00 -2.787229e+00 -6.224000e+00 -3.124852e+00 1.355937e+00 -3.755785e+00 -4.512966e+00 -3.933424e+00 -2.882520e+00 -2.216112e+00 -7.354643e-01 1.580987e+00 1.561792e-01 8.974332e-01 -3.782570e-01 5.168830e-01 1.252811e+00 1.208448e+00 -3.267309e-01 -2.546778e-01 -2.021774e-01 -5.815746e-01 -5.138835e-01 -2.330100e-02 -1.076871e+00
<VARIANCE> 25
 3.211975e+01 4.498290e+01 5.062462e+01 5.935705e+01 5.828969e+01 5.106108e+01 4.451467e+01 4.801496e+01 4.760433e+01 4.023750e+01 3.850442e+01 3.225385e+01 1.654517e+00 2.112823e+00 2.382579e+00 2.979533e+00 3.407424e+00 4.447104e+00 3.988335e+00 3.638894e+00 3.461148e+00 2.960581e+00 2.838124e+00 2.399935e+00 1.986631e+00
<GCONST> 1.051154e+02
<STATE> 3
<MEAN> 25
 7.898341e+00 6.769122e-01 -5.980435e+00 -1.402799e+00 3.525082e+00 4.491480e-01 -3.918551e+00 -3.587373e+00 -2.649347e+00 -2.842372e+00 -1.689278e+00 1.021962e+00 -7.756338e-01 7.563383e-01 5.502752e-01 8.270113e-01 2.798240e-01 1.325491e+00 7.032835e-01 3.596233e-01 3.082208e-01 -5.154090e-03 -2.048264e-01 -3.199293e-01 -1.361292e+00
<VARIANCE> 25
 2.876068e+01 3.251756e+01 4.847742e+01 5.875251e+01 4.849226e+01 4.357820e+01 4.282160e+01 3.805943e+01 3.575104e+01 3.216047e+01 2.785275e+01 2.531534e+01 1.549412e+00 2.112714e+00 2.763809e+00 3.039823e+00 3.358799e+00 3.590118e+00 3.448425e+00 3.136224e+00 3.408474e+00 2.967985e+00 2.623605e+00 2.237263e+00 1.636310e+00
<GCONST> 1.021613e+02
<STATE> 4
<MEAN> 25
 5.412677e+00 1.833103e+00 -4.028427e+00 -5.085419e-01 2.267809e+00 2.085018e+00 -1.665371e+00 -2.343382e+00 -1.808912e+00 -2.284674e+00 -1.413052e+00 3.313459e-01 -4.867756e-01 -6.988044e-02 4.821670e-01 3.639740e-01 -2.038538e-01 -1.353530e-01 2.935330e-01 3.202356e-01 4.707072e-02 1.700878e-01 1.382703e-01 -1.182176e-01 -2.790100e-01
<VARIANCE> 25
 2.738630e+01 3.117259e+01 4.332304e+01 4.824800e+01 3.927319e+01 3.631243e+01 3.395251e+01 3.381007e+01 3.105561e+01 2.732073e+01 2.547030e+01 2.190276e+01 1.094292e+00 1.505075e+00 2.021805e+00 2.286807e+00 2.216540e+00 2.356158e+00 2.429886e+00 2.174607e+00 2.300617e+00 2.008530e+00 1.813168e+00 1.681972e+00 1.042680e+00
<GCONST> 9.575272e+01
~t "T_r"
<ENDHMM>
~h "a-r+g"
<BEGINHMM>
<NUMSTATES> 5
<STATE> 2
<MEAN> 25
 8.643217e+00 -2.787229e+00 -6.224000e+00 -3.124852e+00 1.355937e+00 -3.755785e+00 -4.512966e+00 -3.933424e+00 -2.882520e+00 -2.216112e+00 -7.354643e-01 1.580987e+00 1.561792e-01 8.974332e-01 -3.782570e-01 5.168830e-01 1.252811e+00 1.208448e+00 -3.267309e-01 -2.546778e-01 -2.021774e-01 -5.815746e-01 -5.138835e-01 -2.330100e-02 -1.076871e+00
<VARIANCE> 25
 3.211975e+01 4.498290e+01 5.062462e+01 5.935705e+01 5.828969e+01 5.106108e+01 4.451467e+01 4.801496e+01 4.760433e+01 4.023750e+01 3.850442e+01 3.225385e+01 1.654517e+00 2.112823e+00 2.382579e+00 2.979533e+00 3.407424e+00 4.447104e+00 3.988335e+00 3.638894e+00 3.461148e+00 2.960581e+00 2.838124e+00 2.399935e+00 1.986631e+00
<GCONST> 1.051154e+02
<STATE> 3
<MEAN> 25
 7.898341e+00 6.769122e-01 -5.980435e+00 -1.402799e+00 3.525082e+00 4.491480e-01 -3.918551e+00 -3.587373e+00 -2.649347e+00 -2.842372e+00 -1.689278e+00 1.021962e+00 -7.756338e-01 7.563383e-01 5.502752e-01 8.270113e-01 2.798240e-01 1.325491e+00 7.032835e-01 3.596233e-01 3.082208e-01 -5.154090e-03 -2.048264e-01 -3.199293e-01 -1.361292e+00
<VARIANCE> 25
 2.876068e+01 3.251756e+01 4.847742e+01 5.875251e+01 4.849226e+01 4.357820e+01 4.282160e+01 3.805943e+01 3.575104e+01 3.216047e+01 2.785275e+01 2.531534e+01 1.549412e+00 2.112714e+00 2.763809e+00 3.039823e+00 3.358799e+00 3.590118e+00 3.448425e+00 3.136224e+00 3.408474e+00 2.967985e+00 2.623605e+00 2.237263e+00 1.636310e+00
<GCONST> 1.021613e+02
<STATE> 4
<MEAN> 25
 5.412677e+00 1.833103e+00 -4.028427e+00 -5.085419e-01 2.267809e+00 2.085018e+00 -1.665371e+00 -2.343382e+00 -1.808912e+00 -2.284674e+00 -1.413052e+00 3.313459e-01 -4.867756e-01 -6.988044e-02 4.821670e-01 3.639740e-01 -2.038538e-01 -1.353530e-01 2.935330e-01 3.202356e-01 4.707072e-02 1.700878e-01 1.382703e-01 -1.182176e-01 -2.790100e-01
<VARIANCE> 25
 2.738630e+01 3.117259e+01 4.332304e+01 4.824800e+01 3.927319e+01 3.631243e+01 3.395251e+01 3.381007e+01 3.105561e+01 2.732073e+01 2.547030e+01 2.190276e+01 1.094292e+00 1.505075e+00 2.021805e+00 2.286807e+00 2.216540e+00 2.356158e+00 2.429886e+00 2.174607e+00 2.300617e+00 2.008530e+00 1.813168e+00 1.681972e+00 1.042680e+00
<GCONST> 9.575272e+01
~t "T_r"
<ENDHMM>
~h "a-r+i"
<BEGINHMM>
<NUMSTATES> 5
<STATE> 2
<MEAN> 25
 8.643217e+00 -2.787229e+00 -6.224000e+00 -3.124852e+00 1.355937e+00 -3.755785e+00 -4.512966e+00 -3.933424e+00 -2.882520e+00 -2.216112e+00 -7.354643e-01 1.580987e+00 1.561792e-01 8.974332e-01 -3.782570e-01 5.168830e-01 1.252811e+00 1.208448e+00 -3.267309e-01 -2.546778e-01 -2.021774e-01 -5.815746e-01 -5.138835e-01 -2.330100e-02 -1.076871e+00
<VARIANCE> 25
 3.211975e+01 4.498290e+01 5.062462e+01 5.935705e+01 5.828969e+01 5.106108e+01 4.451467e+01 4.801496e+01 4.760433e+01 4.023750e+01 3.850442e+01 3.225385e+01 1.654517e+00 2.112823e+00 2.382579e+00 2.979533e+00 3.407424e+00 4.447104e+00 3.988335e+00 3.638894e+00 3.461148e+00 2.960581e+00 2.838124e+00 2.399935e+00 1.986631e+00
<GCONST> 1.051154e+02
<STATE> 3
<MEAN> 25
 7.898341e+00 6.769122e-01 -5.980435e+00 -1.402799e+00 3.525082e+00 4.491480e-01 -3.918551e+00 -3.587373e+00 -2.649347e+00 -2.842372e+00 -1.689278e+00 1.021962e+00 -7.756338e-01 7.563383e-01 5.502752e-01 8.270113e-01 2.798240e-01 1.325491e+00 7.032835e-01 3.596233e-01 3.082208e-01 -5.154090e-03 -2.048264e-01 -3.199293e-01 -1.361292e+00
<VARIANCE> 25
 2.876068e+01 3.251756e+01 4.847742e+01 5.875251e+01 4.849226e+01 4.357820e+01 4.282160e+01 3.805943e+01 3.575104e+01 3.216047e+01 2.785275e+01 2.531534e+01 1.549412e+00 2.112714e+00 2.763809e+00 3.039823e+00 3.358799e+00 3.590118e+00 3.448425e+00 3.136224e+00 3.408474e+00 2.967985e+00 2.623605e+00 2.237263e+00 1.636310e+00
<GCONST> 1.021613e+02
<STATE> 4
<MEAN> 25
 5.412677e+00 1.833103e+00 -4.028427e+00 -5.085419e-01 2.267809e+00 2.085018e+00 -1.665371e+00 -2.343382e+00 -1.808912e+00 -2.284674e+00 -1.413052e+00 3.313459e-01 -4.867756e-01 -6.988044e-02 4.821670e-01 3.639740e-01 -2.038538e-01 -1.353530e-01 2.935330e-01 3.202356e-01 4.707072e-02 1.700878e-01 1.382703e-01 -1.182176e-01 -2.790100e-01
<VARIANCE> 25
 2.738630e+01 3.117259e+01 4.332304e+01 4.824800e+01 3.927319e+01 3.631243e+01 3.395251e+01 3.381007e+01 3.105561e+01 2.732073e+01 2.547030e+01 2.190276e+01 1.094292e+00 1.505075e+00 2.021805e+00 2.286807e+00 2.216540e+00 2.356158e+00 2.429886e+00 2.174607e+00 2.300617e+00 2.008530e+00 1.813168e+00 1.681972e+00 1.042680e+00
<GCONST> 9.575272e+01
~t "T_r"
<ENDHMM>
~h "a-r+k"
<BEGINHMM>
<NUMSTATES> 5
<STATE> 2
<MEAN> 25
 8.643217e+00 -2.787229e+00 -6.224000e+00 -3.124852e+00 1.355937e+00 -3.755785e+00 -4.512966e+00 -3.933424e+00 -2.882520e+00 -2.216112e+00 -7.354643e-01 1.580987e+00 1.561792e-01 8.974332e-01 -3.782570e-01 5.168830e-01 1.252811e+00 1.208448e+00 -3.267309e-01 -2.546778e-01 -2.021774e-01 -5.815746e-01 -5.138835e-01 -2.330100e-02 -1.076871e+00
<VARIANCE> 25
 3.211975e+01 4.498290e+01 5.062462e+01 5.935705e+01 5.828969e+01 5.106108e+01 4.451467e+01 4.801496e+01 4.760433e+01 4.023750e+01 3.850442e+01 3.225385e+01 1.654517e+00 2.112823e+00 2.382579e+00 2.979533e+00 3.407424e+00 4.447104e+00 3.988335e+00 3.638894e+00 3.461148e+00 2.960581e+00 2.838124e+00 2.399935e+00 1.986631e+00
<GCONST> 1.051154e+02
<STATE> 3
<MEAN> 25
 7.898341e+00 6.769122e-01 -5.980435e+00 -1.402799e+00 3.525082e+00 4.491480e-01 -3.918551e+00 -3.587373e+00 -2.649347e+00 -2.842372e+00 -1.689278e+00 1.021962e+00 -7.756338e-01 7.563383e-01 5.502752e-01 8.270113e-01 2.798240e-01 1.325491e+00 7.032835e-01 3.596233e-01 3.082208e-01 -5.154090e-03 -2.048264e-01 -3.199293e-01 -1.361292e+00
<VARIANCE> 25
 2.876068e+01 3.251756e+01 4.847742e+01 5.875251e+01 4.849226e+01 4.357820e+01 4.282160e+01 3.805943e+01 3.575104e+01 3.216047e+01 2.785275e+01 2.531534e+01 1.549412e+00 2.112714e+00 2.763809e+00 3.039823e+00 3.358799e+00 3.590118e+00 3.448425e+00 3.136224e+00 3.408474e+00 2.967985e+00 2.623605e+00 2.237263e+00 1.636310e+00
<GCONST> 1.021613e+02
<STATE> 4
<MEAN> 25
 5.412677e+00 1.833103e+00 -4.028427e+00 -5.085419e-01 2.267809e+00 2.085018e+00 -1.665371e+00 -2.343382e+00 -1.808912e+00 -2.284674e+00 -1.413052e+00 3.313459e-01 -4.867756e-01 -6.988044e-02 4.821670e-01 3.639740e-01 -2.038538e-01 -1.353530e-01 2.935330e-01 3.202356e-01 4.707072e-02 1.700878e-01 1.382703e-01 -1.182176e-01 -2.790100e-01
<VARIANCE> 25
 2.738630e+01 3.117259e+01 4.332304e+01 4.824800e+01 3.927319e+01 3.631243e+01 3.395251e+01 3.381007e+01 3.105561e+01 2.732073e+01 2.547030e+01 2.190276e+01 1.094292e+00 1.505075e+00 2.021805e+00 2.286807e+00 2.216540e+00 2.356158e+00 2.429886e+00 2.174607e+00 2.300617e+00 2.008530e+00 1.813168e+00 1.681972e+00 1.042680e+00
<GCONST> 9.575272e+01
~t "T_r"
<ENDHMM>
~h "a-r+l"
<BEGINHMM>
<NUMSTATES> 5
<STATE> 2
<MEAN> 25
 8.643217e+00 -2.787229e+00 -6.224000e+00 -3.124852e+00 1.355937e+00 -3.755785e+00 -4.512966e+00 -3.933424e+00 -2.882520e+00 -2.216112e+00 -7.354643e-01 1.580987e+00 1.561792e-01 8.974332e-01 -3.782570e-01 5.168830e-01 1.252811e+00 1.208448e+00 -3.267309e-01 -2.546778e-01 -2.021774e-01 -5.815746e-01 -5.138835e-01 -2.330100e-02 -1.076871e+00
<VARIANCE> 25
 3.211975e+01 4.498290e+01 5.062462e+01 5.935705e+01 5.828969e+01 5.106108e+01 4.451467e+01 4.801496e+01 4.760433e+01 4.023750e+01 3.850442e+01 3.225385e+01 1.654517e+00 2.112823e+00 2.382579e+00 2.979533e+00 3.407424e+00 4.447104e+00 3.988335e+00 3.638894e+00 3.461148e+00 2.960581e+00 2.838124e+00 2.399935e+00 1.986631e+00
<GCONST> 1.051154e+02
<STATE> 3
<MEAN> 25
 7.898341e+00 6.769122e-01 -5.980435e+00 -1.402799e+00 3.525082e+00 4.491480e-01 -3.918551e+00 -3.587373e+00 -2.649347e+00 -2.842372e+00 -1.689278e+00 1.021962e+00 -7.756338e-01 7.563383e-01 5.502752e-01 8.270113e-01 2.798240e-01 1.325491e+00 7.032835e-01 3.596233e-01 3.082208e-01 -5.154090e-03 -2.048264e-01 -3.199293e-01 -1.361292e+00
<VARIANCE> 25
 2.876068e+01 3.251756e+01 4.847742e+01 5.875251e+01 4.849226e+01 4.357820e+01 4.282160e+01 3.805943e+01 3.575104e+01 3.216047e+01 2.785275e+01 2.531534e+01 1.549412e+00 2.112714e+00 2.763809e+00 3.039823e+00 3.358799e+00 3.590118e+00 3.448425e+00 3.136224e+00 3.408474e+00 2.967985e+00 2.623605e+00 2.237263e+00 1.636310e+00
<GCONST> 1.021613e+02
<STATE> 4
<MEAN> 25
 5.412677e+00 1.833103e+00 -4.028427e+00 -5.085419e-01 2.267809e+00 2.085018e+00 -1.665371e+00 -2.343382e+00 -1.808912e+00 -2.284674e+00 -1.413052e+00 3.313459e-01 -4.867756e-01 -6.988044e-02 4.821670e-01 3.639740e-01 -2.038538e-01 -1.353530e-01 2.935330e-01 3.202356e-01 4.707072e-02 1.700878e-01 1.382703e-01 -1.182176e-01 -2.790100e-01
<VARIANCE> 25
 2.738630e+01 3.117259e+01 4.332304e+01 4.824800e+01 3.927319e+01 3.631243e+01 3.395251e+01 3.381007e+01 3.105561e+01 2.732073e+01 2.547030e+01 2.190276e+01 1.094292e+00 1.505075e+00 2.021805e+00 2.286807e+00 2.216540e+00 2.356158e+00 2.429886e+00 2.174607e+00 2.300617e+00 2.008530e+00 1.813168e+00 1.681972e+00 1.042680e+00
<GCONST> 9.575272e+01
~t "T_r"
<ENDHMM>
~h "a-r+m"
<BEGINHMM>
<NUMSTATES> 5
<STATE> 2
<MEAN> 25
 8.643217e+00 -2.787229e+00 -6.224000e+00 -3.124852e+00 1.355937e+00 -3.755785e+00 -4.512966e+00 -3.933424e+00 -2.882520e+00 -2.216112e+00 -7.354643e-01 1.580987e+00 1.561792e-01 8.974332e-01 -3.782570e-01 5.168830e-01 1.252811e+00 1.208448e+00 -3.267309e-01 -2.546778e-01 -2.021774e-01 -5.815746e-01 -5.138835e-01 -2.330100e-02 -1.076871e+00
<VARIANCE> 25
 3.211975e+01 4.498290e+01 5.062462e+01 5.935705e+01 5.828969e+01 5.106108e+01 4.451467e+01 4.801496e+01 4.760433e+01 4.023750e+01 3.850442e+01 3.225385e+01 1.654517e+00 2.112823e+00 2.382579e+00 2.979533e+00 3.407424e+00 4.447104e+00 3.988335e+00 3.638894e+00 3.461148e+00 2.960581e+00 2.838124e+00 2.399935e+00 1.986631e+00
<GCONST> 1.051154e+02
<STATE> 3
<MEAN> 25
 7.898341e+00 6.769122e-01 -5.980435e+00 -1.402799e+00 3.525082e+00 4.491480e-01 -3.918551e+00 -3.587373e+00 -2.649347e+00 -2.842372e+00 -1.689278e+00 1.021962e+00 -7.756338e-01 7.563383e-01 5.502752e-01 8.270113e-01 2.798240e-01 1.325491e+00 7.032835e-01 3.596233e-01 3.082208e-01 -5.154090e-03 -2.048264e-01 -3.199293e-01 -1.361292e+00
<VARIANCE> 25
 2.876068e+01 3.251756e+01 4.847742e+01 5.875251e+01 4.849226e+01 4.357820e+01 4.282160e+01 3.805943e+01 3.575104e+01 3.216047e+01 2.785275e+01 2.531534e+01 1.549412e+00 2.112714e+00 2.763809e+00 3.039823e+00 3.358799e+00 3.590118e+00 3.448425e+00 3.136224e+00 3.408474e+00 2.967985e+00 2.623605e+00 2.237263e+00 1.636310e+00
<GCONST> 1.021613e+02
<STATE> 4
<MEAN> 25
 5.412677e+00 1.833103e+00 -4.028427e+00 -5.085419e-01 2.267809e+00 2.085018e+00 -1.665371e+00 -2.343382e+00 -1.808912e+00 -2.284674e+00 -1.413052e+00 3.313459e-01 -4.867756e-01 -6.988044e-02 4.821670e-01 3.639740e-01 -2.038538e-01 -1.353530e-01 2.935330e-01 3.202356e-01 4.707072e-02 1.700878e-01 1.382703e-01 -1.182176e-01 -2.790100e-01
<VARIANCE> 25
 2.738630e+01 3.117259e+01 4.332304e+01 4.824800e+01 3.927319e+01 3.631243e+01 3.395251e+01 3.381007e+01 3.105561e+01 2.732073e+01 2.547030e+01 2.190276e+01 1.094292e+00 1.505075e+00 2.021805e+00 2.286807e+00 2.216540e+00 2.356158e+00 2.429886e+00 2.174607e+00 2.300617e+00 2.008530e+00 1.813168e+00 1.681972e+00 1.042680e+00
<GCONST> 9.575272e+01
~t "T_r"
<ENDHMM>
~h "a-r+o"
<BEGINHMM>
<NUMSTATES> 5
<STATE> 2
<MEAN> 25
 8.643217e+00 -2.787229e+00 -6.224000e+00 -3.124852e+00 1.355937e+00 -3.755785e+00 -4.512966e+00 -3.933424e+00 -2.882520e+00 -2.216112e+00 -7.354643e-01 1.580987e+00 1.561792e-01 8.974332e-01 -3.782570e-01 5.168830e-01 1.252811e+00 1.208448e+00 -3.267309e-01 -2.546778e-01 -2.021774e-01 -5.815746e-01 -5.138835e-01 -2.330100e-02 -1.076871e+00
<VARIANCE> 25
 3.211975e+01 4.498290e+01 5.062462e+01 5.935705e+01 5.828969e+01 5.106108e+01 4.451467e+01 4.801496e+01 4.760433e+01 4.023750e+01 3.850442e+01 3.225385e+01 1.654517e+00 2.112823e+00 2.382579e+00 2.979533e+00 3.407424e+00 4.447104e+00 3.988335e+00 3.638894e+00 3.461148e+00 2.960581e+00 2.838124e+00 2.399935e+00 1.986631e+00
<GCONST> 1.051154e+02
<STATE> 3
<MEAN> 25
 7.898341e+00 6.769122e-01 -5.980435e+00 -1.402799e+00 3.525082e+00 4.491480e-01 -3.918551e+00 -3.587373e+00 -2.649347e+00 -2.842372e+00 -1.689278e+00 1.021962e+00 -7.756338e-01 7.563383e-01 5.502752e-01 8.270113e-01 2.798240e-01 1.325491e+00 7.032835e-01 3.596233e-01 3.082208e-01 -5.154090e-03 -2.048264e-01 -3.199293e-01 -1.361292e+00
<VARIANCE> 25
 2.876068e+01 3.251756e+01 4.847742e+01 5.875251e+01 4.849226e+01 4.357820e+01 4.282160e+01 3.805943e+01 3.575104e+01 3.216047e+01 2.785275e+01 2.531534e+01 1.549412e+00 2.112714e+00 2.763809e+00 3.039823e+00 3.358799e+00 3.590118e+00 3.448425e+00 3.136224e+00 3.408474e+00 2.967985e+00 2.623605e+00 2.237263e+00 1.636310e+00
<GCONST> 1.021613e+02
<STATE> 4
<MEAN> 25
 5.412677e+00 1.833103e+00 -4.028427e+00 -5.085419e-01 2.267809e+00 2.085018e+00 -1.665371e+00 -2.343382e+00 -1.808912e+00 -2.284674e+00 -1.413052e+00 3.313459e-01 -4.867756e-01 -6.988044e-02 4.821670e-01 3.639740e-01 -2.038538e-01 -1.353530e-01 2.935330e-01 3.202356e-01 4.707072e-02 1.700878e-01 1.382703e-01 -1.182176e-01 -2.790100e-01
<VARIANCE> 25
 2.738630e+01 3.117259e+01 4.332304e+01 4.824800e+01 3.927319e+01 3.631243e+01 3.395251e+01 3.381007e+01 3.105561e+01 2.732073e+01 2.547030e+01 2.190276e+01 1.094292e+00 1.505075e+00 2.021805e+00 2.286807e+00 2.216540e+00 2.356158e+00 2.429886e+00 2.174607e+00 2.300617e+00 2.008530e+00 1.813168e+00 1.681972e+00 1.042680e+00
<GCONST> 9.575272e+01
~t "T_r"
<ENDHMM>
~h "a-r+p"
<BEGINHMM>
<NUMSTATES> 5
<STATE> 2
<MEAN> 25
 8.643217e+00 -2.787229e+00 -6.224000e+00 -3.124852e+00 1.355937e+00 -3.755785e+00 -4.512966e+00 -3.933424e+00 -2.882520e+00 -2.216112e+00 -7.354643e-01 1.580987e+00 1.561792e-01 8.974332e-01 -3.782570e-01 5.168830e-01 1.252811e+00 1.208448e+00 -3.267309e-01 -2.546778e-01 -2.021774e-01 -5.815746e-01 -5.138835e-01 -2.330100e-02 -1.076871e+00
<VARIANCE> 25
 3.211975e+01 4.498290e+01 5.062462e+01 5.935705e+01 5.828969e+01 5.106108e+01 4.451467e+01 4.801496e+01 4.760433e+01 4.023750e+01 3.850442e+01 3.225385e+01 1.654517e+00 2.112823e+00 2.382579e+00 2.979533e+00 3.407424e+00 4.447104e+00 3.988335e+00 3.638894e+00 3.461148e+00 2.960581e+00 2.838124e+00 2.399935e+00 1.986631e+00
<GCONST> 1.051154e+02
<STATE> 3
<MEAN> 25
 7.898341e+00 6.769122e-01 -5.980435e+00 -1.402799e+00 3.525082e+00 4.491480e-01 -3.918551e+00 -3.587373e+00 -2.649347e+00 -2.842372e+00 -1.689278e+00 1.021962e+00 -7.756338e-01 7.563383e-01 5.502752e-01 8.270113e-01 2.798240e-01 1.325491e+00 7.032835e-01 3.596233e-01 3.082208e-01 -5.154090e-03 -2.048264e-01 -3.199293e-01 -1.361292e+00
<VARIANCE> 25
 2.876068e+01 3.251756e+01 4.847742e+01 5.875251e+01 4.849226e+01 4.357820e+01 4.282160e+01 3.805943e+01 3.575104e+01 3.216047e+01 2.785275e+01 2.531534e+01 1.549412e+00 2.112714e+00 2.763809e+00 3.039823e+00 3.358799e+00 3.590118e+00 3.448425e+00 3.136224e+00 3.408474e+00 2.967985e+00 2.623605e+00 2.237263e+00 1.636310e+00
<GCONST> 1.021613e+02
<STATE> 4
<MEAN> 25
 5.412677e+00 1.833103e+00 -4.028427e+00 -5.085419e-01 2.267809e+00 2.085018e+00 -1.665371e+00 -2.343382e+00 -1.808912e+00 -2.284674e+00 -1.413052e+00 3.313459e-01 -4.867756e-01 -6.988044e-02 4.821670e-01 3.639740e-01 -2.038538e-01 -1.353530e-01 2.935330e-01 3.202356e-01 4.707072e-02 1.700878e-01 1.382703e-01 -1.182176e-01 -2.790100e-01
<VARIANCE> 25
 2.738630e+01 3.117259e+01 4.332304e+01 4.824800e+01 3.927319e+01 3.631243e+01 3.395251e+01 3.381007e+01 3.105561e+01 2.732073e+01 2.547030e+01 2.190276e+01 1.094292e+00 1.505075e+00 2.021805e+00 2.286807e+00 2.216540e+00 2.356158e+00 2.429886e+00 2.174607e+00 2.300617e+00 2.008530e+00 1.813168e+00 1.681972e+00 1.042680e+00
<GCONST> 9.575272e+01
~t "T_r"
<ENDHMM>
~h "a-r+s"
<BEGINHMM>
<NUMSTATES> 5
<STATE> 2
<MEAN> 25
 8.643217e+00 -2.787229e+00 -6.224000e+00 -3.124852e+00 1.355937e+00 -3.755785e+00 -4.512966e+00 -3.933424e+00 -2.882520e+00 -2.216112e+00 -7.354643e-01 1.580987e+00 1.561792e-01 8.974332e-01 -3.782570e-01 5.168830e-01 1.252811e+00 1.208448e+00 -3.267309e-01 -2.546778e-01 -2.021774e-01 -5.815746e-01 -5.138835e-01 -2.330100e-02 -1.076871e+00
<VARIANCE> 25
 3.211975e+01 4.498290e+01 5.062462e+01 5.935705e+01 5.828969e+01 5.106108e+01 4.451467e+01 4.801496e+01 4.760433e+01 4.023750e+01 3.850442e+01 3.225385e+01 1.654517e+00 2.112823e+00 2.382579e+00 2.979533e+00 3.407424e+00 4.447104e+00 3.988335e+00 3.638894e+00 3.461148e+00 2.960581e+00 2.838124e+00 2.399935e+00 1.986631e+00
<GCONST> 1.051154e+02
<STATE> 3
<MEAN> 25
 7.898341e+00 6.769122e-01 -5.980435e+00 -1.402799e+00 3.525082e+00 4.491480e-01 -3.918551e+00 -3.587373e+00 -2.649347e+00 -2.842372e+00 -1.689278e+00 1.021962e+00 -7.756338e-01 7.563383e-01 5.502752e-01 8.270113e-01 2.798240e-01 1.325491e+00 7.032835e-01 3.596233e-01 3.082208e-01 -5.154090e-03 -2.048264e-01 -3.199293e-01 -1.361292e+00
<VARIANCE> 25
 2.876068e+01 3.251756e+01 4.847742e+01 5.875251e+01 4.849226e+01 4.357820e+01 4.282160e+01 3.805943e+01 3.575104e+01 3.216047e+01 2.785275e+01 2.531534e+01 1.549412e+00 2.112714e+00 2.763809e+00 3.039823e+00 3.358799e+00 3.590118e+00 3.448425e+00 3.136224e+00 3.408474e+00 2.967985e+00 2.623605e+00 2.237263e+00 1.636310e+00
<GCONST> 1.021613e+02
<STATE> 4
<MEAN> 25
 5.412677e+00 1.833103e+00 -4.028427e+00 -5.085419e-01 2.267809e+00 2.085018e+00 -1.665371e+00 -2.343382e+00 -1.808912e+00 -2.284674e+00 -1.413052e+00 3.313459e-01 -4.867756e-01 -6.988044e-02 4.821670e-01 3.639740e-01 -2.038538e-01 -1.353530e-01 2.935330e-01 3.202356e-01 4.707072e-02 1.700878e-01 1.382703e-01 -1.182176e-01 -2.790100e-01
<VARIANCE> 25
 2.738630e+01 3.117259e+01 4.332304e+01 4.824800e+01 3.927319e+01 3.631243e+01 3.395251e+01 3.381007e+01 3.105561e+01 2.732073e+01 2.547030e+01 2.190276e+01 1.094292e+00 1.505075e+00 2.021805e+00 2.286807e+00 2.216540e+00 2.356158e+00 2.429886e+00 2.174607e+00 2.300617e+00 2.008530e+00 1.813168e+00 1.681972e+00 1.042680e+00
<GCONST> 9.575272e+01
~t "T_r"
<ENDHMM>
~h "a-r+t"
<BEGINHMM>
<NUMSTATES> 5
<STATE> 2
<MEAN> 25
 8.643217e+00 -2.787229e+00 -6.224000e+00 -3.124852e+00 1.355937e+00 -3.755785e+00 -4.512966e+00 -3.933424e+00 -2.882520e+00 -2.216112e+00 -7.354643e-01 1.580987e+00 1.561792e-01 8.974332e-01 -3.782570e-01 5.168830e-01 1.252811e+00 1.208448e+00 -3.267309e-01 -2.546778e-01 -2.021774e-01 -5.815746e-01 -5.138835e-01 -2.330100e-02 -1.076871e+00
<VARIANCE> 25
 3.211975e+01 4.498290e+01 5.062462e+01 5.935705e+01 5.828969e+01 5.106108e+01 4.451467e+01 4.801496e+01 4.760433e+01 4.023750e+01 3.850442e+01 3.225385e+01 1.654517e+00 2.112823e+00 2.382579e+00 2.979533e+00 3.407424e+00 4.447104e+00 3.988335e+00 3.638894e+00 3.461148e+00 2.960581e+00 2.838124e+00 2.399935e+00 1.986631e+00
<GCONST> 1.051154e+02
<STATE> 3
<MEAN> 25
 7.898341e+00 6.769122e-01 -5.980435e+00 -1.402799e+00 3.525082e+00 4.491480e-01 -3.918551e+00 -3.587373e+00 -2.649347e+00 -2.842372e+00 -1.689278e+00 1.021962e+00 -7.756338e-01 7.563383e-01 5.502752e-01 8.270113e-01 2.798240e-01 1.325491e+00 7.032835e-01 3.596233e-01 3.082208e-01 -5.154090e-03 -2.048264e-01 -3.199293e-01 -1.361292e+00
<VARIANCE> 25
 2.876068e+01 3.251756e+01 4.847742e+01 5.875251e+01 4.849226e+01 4.357820e+01 4.282160e+01 3.805943e+01 3.575104e+01 3.216047e+01 2.785275e+01 2.531534e+01 1.549412e+00 2.112714e+00 2.763809e+00 3.039823e+00 3.358799e+00 3.590118e+00 3.448425e+00 3.136224e+00 3.408474e+00 2.967985e+00 2.623605e+00 2.237263e+00 1.636310e+00
<GCONST> 1.021613e+02
<STATE> 4
<MEAN> 25
 5.412677e+00 1.833103e+00 -4.028427e+00 -5.085419e-01 2.267809e+00 2.085018e+00 -1.665371e+00 -2.343382e+00 -1.808912e+00 -2.284674e+00 -1.413052e+00 3.313459e-01 -4.867756e-01 -6.988044e-02 4.821670e-01 3.639740e-01 -2.038538e-01 -1.353530e-01 2.935330e-01 3.202356e-01 4.707072e-02 1.700878e-01 1.382703e-01 -1.182176e-01 -2.790100e-01
<VARIANCE> 25
 2.738630e+01 3.117259e+01 4.332304e+01 4.824800e+01 3.927319e+01 3.631243e+01 3.395251e+01 3.381007e+01 3.105561e+01 2.732073e+01 2.547030e+01 2.190276e+01 1.094292e+00 1.505075e+00 2.021805e+00 2.286807e+00 2.216540e+00 2.356158e+00 2.429886e+00 2.174607e+00 2.300617e+00 2.008530e+00 1.813168e+00 1.681972e+00 1.042680e+00
<GCONST> 9.575272e+01
~t "T_r"
<ENDHMM>
~h "n-m+e"
<BEGINHMM>
<NUMSTATES> 5
<STATE> 2
<MEAN> 25
 7.548775e+00 2.607854e+00 -2.102983e+00 4.346527e-01 8.082584e-01 9.021307e-01 6.144225e-01 8.268155e-01 -1.237094e+00 -2.310319e+00 -2.608431e+00 -3.108366e+00 -1.797019e-01 1.273914e+00 7.998855e-01 1.091742e+00 7.315946e-01 1.888878e+00 1.063340e+00 1.975945e-01 -9.558619e-02 -2.353920e-01 -8.953397e-01 -1.563288e+00 -1.207566e+00
<VARIANCE> 25
 2.775693e+01 3.253825e+01 4.646520e+01 5.028252e+01 4.394492e+01 4.523094e+01 3.715427e+01 3.382478e+01 4.342428e+01 3.434188e+01 2.442644e+01 3.211829e+01 1.185310e+00 1.893670e+00 1.789684e+00 3.486195e+00 3.584235e+00 3.238808e+00 3.284998e+00 2.704141e+00 3.304344e+00 3.214128e+00 2.384440e+00 2.359962e+00 1.375406e+00
<GCONST> 1.008971e+02
<STATE> 3
<MEAN> 25
 6.220848e+00 4.772701e+00 5.252566e-01 2.877606e+00 2.598014e+00 3.498492e+00 1.213324e+00 6.923475e-01 -7.689387e-01 -1.961661e+00 -3.632575e+00 -5.278195e+00 -7.126752e-02 8.531751e-02 1.286000e-01 1.251273e-01 1.169438e-01 2.010717e-01 1.808041e-01 4.610286e-02 -8.495778e-03 -3.835244e-02 -1.209151e-01 -2.196753e-01 -6.887542e-02
<VARIANCE> 25
 1.855869e+01 1.867837e+01 3.135711e+01 3.267927e+01 3.053080e+01 3.023534e+01 3.066374e+01 2.707565e+01 4.045082e+01 3.238166e+01 2.111422e+01 2.286841e+01 2.486276e-01 4.200025e-01 5.990037e-01 7.999274e-01 8.217130e-01 9.086192e-01 9.282346e-01 9.278805e-01 1.016802e+00 9.133210e-01 8.226467e-01 9.005458e-01 2.172809e-01
<GCONST> 8.029716e+01
<STATE> 4
<MEAN> 25
 6.860100e+00 4.454634e+00 4.674924e-02 2.128716e+00 1.891875e+00 3.227122e+00 1.878703e+00 1.082704e+00 -8.831809e-01 -1.881544e+00 -3.649952e+00 -5.456431e+00 3.623773e-01 -6.383294e-01 -6.348953e-01 -9.845536e-01 -7.848371e-01 -1.462937e+00 -6.459333e-01 7.814296e-02 -9.017757e-02 -7.700860e-02 5.040931e-01 1.155138e+00 8.107449e-01
<VARIANCE> 25
 1.989024e+01 2.237800e+01 3.543090e+01 3.925693e+01 3.831349e+01 3.554395e+01 3.319180e+01 2.993235e+01 4.311877e+01 3.359512e+01 2.268687e+01 2.678186e+01 5.137467e-01 1.101111e+00 1.252599e+00 2.638350e+00 2.525054e+00 2.299931e+00 2.038847e+00 1.819399e+00 1.983290e+00 1.852884e+00 1.639309e+00 1.938033e+00 6.037184e-01
<GCONST> 9.273713e+01
~t "T_m"
<ENDHMM>
~h "a-s+a"
<BEGINHMM>
<NUMSTATES> 5
<STATE> 2
<MEAN> 25
 -2.672227e+00 -3.270423e+00 1.004953e+01 -4.440532e+00 1.809237e-01 1.463706e+00 2.479738e+00 -8.504221e-01 -6.740083e-01 7.527752e-01 2.025366e-01 -1.215088e-01 -2.952475e+00 -1.081467e+00 2.472686e+00 -1.170398e+00 1.552520e-01 9.225060e-01 1.190610e+00 1.466946e-02 5.599615e-01 4.710526e-01 5.590721e-01 2.782978e-01 2.598815e-01
<VARIANCE> 25
 6.090248e+01 4.096783e+01 9.645750e+01 7.985217e+01 7.116714e+01 6.051644e+01 6.688841e+01 7.043929e+01 5.318323e+01 4.527814e+01 3.572353e+01 2.664364e+01 3.096100e+00 3.809794e+00 4.041855e+00 4.010174e+00 3.633645e+00 4.631847e+00 3.728845e+00 3.332037e+00 3.740141e+00 3.394577e+00 2.906559e+00 2.198195e+00 1.359681e+00
<GCONST> 1.094882e+02
<STATE> 3
<MEAN> 25
 -1.388278e+01 -7.547144e+00 1.724523e+01 -1.016027e+01 5.564176e-01 9.960555e-01 5.586256e+00 -1.188120e+00 5.186584e-01 1.813791e+00 1.467571e+00 5.005577e-01 -2.925702e-01 -1.122364e-01 -2.537486e-01 7.632152e-02 -1.322451e-02 7.181087e-02 4.822661e-02 6.459653e-02 8.100856e-02 3.569933e-02 1.088791e-01 9.543600e-02 -2.908385e-01
<VARIANCE> 25
 7.703424e+01 8.092426e+01 1.181283e+02 1.229016e+02 1.058419e+02 8.350800e+01 7.997587e+01 8.339116e+01 7.095995e+01 5.324371e+01 4.210551e+01 2.871686e+01 2.398076e+00 1.604921e+00 2.021634e+00 2.360392e+00 1.573115e+00 1.834233e+00 1.877151e+00 1.805621e+00 1.722814e+00 1.544063e+00 1.343992e+00 1.183776e+00 8.760858e-01
<GCONST> 1.039959e+02
<STATE> 4
<MEAN> 25
 -6.362659e+00 -4.423155e+00 9.820220e+00 -4.903218e+00 -3.681852e-01 2.570100e+00 3.167925e+00 -5.793936e-01 -8.759587e-02 1.059100e+00 1.291414e+00 8.679242e-01 2.306367e+00 1.451382e+00 -1.806829e+00 1.135726e+00 -1.512867e-01 -5.723754e-03 -1.025580e+00 -6.012088e-02 -4.432604e-01 -4.086378e-01 -5.183563e-01 -1.828476e-01 -1.028221e+00
<VARIANCE> 25
 5.843802e+01 5.417876e+01 7.380061e+01 6.748988e+01 5.934891e+01 5.204456e+01 5.172548e+01 5.419441e+01 4.946672e+01 4.243489e+01 3.060479e+01 2.467298e+01 5.810026e+00 3.654878e+00 3.590863e+00 3.486390e+00 3.299611e+00 3.667934e+00 3.647548e+00 3.210599e+00 3.578302e+00 3.155891e+00 2.695603e+00 2.113597e+00 1.871167e+00
<GCONST> 1.080983e+02
~t "T_s"
<ENDHMM>
~h "a-s+e"
<BEGINHMM>
<NUMSTATES> 5
<STATE> 2
<MEAN> 25
 -2.672227e+00 -3.270423e+00 1.004953e+01 -4.440532e+00 1.809237e-01 1.463706e+00 2.479738e+00 -8.504221e-01 -6.740083e-01 7.527752e-01 2.025366e-01 -1.215088e-01 -2.952475e+00 -1.081467e+00 2.472686e+00 -1.170398e+00 1.552520e-01 9.225060e-01 1.190610e+00 1.466946e-02 5.599615e-01 4.710526e-01 5.590721e-01 2.782978e-01 2.598815e-01
<VARIANCE> 25
 6.090248e+01 4.096783e+01 9.645750e+01 7.985217e+01 7.116714e+01 6.051644e+01 6.688841e+01 7.043929e+01 5.318323e+01 4.527814e+01 3.572353e+01 2.664364e+01 3.096100e+00 3.809794e+00 4.041855e+00 4.010174e+00 3.633645e+00 4.631847e+00 3.728845e+00 3.332037e+00 3.740141e+00 3.394577e+00 2.906559e+00 2.198195e+00 1.359681e+00
<GCONST> 1.094882e+02
<STATE> 3
<MEAN> 25
 -1.388278e+01 -7.547144e+00 1.724523e+01 -1.016027e+01 5.564176e-01 9.960555e-01 5.586256e+00 -1.188120e+00 5.186584e-01 1.813791e+00 1.467571e+00 5.005577e-01 -2.925702e-01 -1.122364e-01 -2.537486e-01 7.632152e-02 -1.322451e-02 7.181087e-02 4.822661e-02 6.459653e-02 8.100856e-02 3.569933e-02 1.088791e-01 9.543600e-02 -2.908385e-01
<VARIANCE> 25
 7.703424e+01 8.092426e+01 1.181283e+02 1.229016e+02 1.058419e+02 8.350800e+01 7.997587e+01 8.339116e+01 7.095995e+01 5.324371e+01 4.210551e+01 2.871686e+01 2.398076e+00 1.604921e+00 2.021634e+00 2.360392e+00 1.573115e+00 1.834233e+00 1.877151e+00 1.805621e+00 1.722814e+00 1.544063e+00 1.343992e+00 1.183776e+00 8.760858e-01
<GCONST> 1.039959e+02
<STATE> 4
<MEAN> 25
 -6.362659e+00 -4.423155e+00 9.820220e+00 -4.903218e+00 -3.681852e-01 2.570100e+00 3.167925e+00 -5.793936e-01 -8.759587e-02 1.059100e+00 1.291414e+00 8.679242e-01 2.306367e+00 1.451382e+00 -1.806829e+00 1.135726e+00 -1.512867e-01 -5.723754e-03 -1.025580e+00 -6.012088e-02 -4.432604e-01 -4.086378e-01 -5.183563e-01 -1.828476e-01 -1.028221e+00
<VARIANCE> 25
 5.843802e+01 5.417876e+01 7.380061e+01 6.748988e+01 5.934891e+01 5.204456e+01 5.172548e+01 5.419441e+01 4.946672e+01 4.243489e+01 3.060479e+01 2.467298e+01 5.810026e+00 3.654878e+00 3.590863e+00 3.486390e+00 3.299611e+00 3.667934e+00 3.647548e+00 3.210599e+00 3.578302e+00 3.155891e+00 2.695603e+00 2.113597e+00 1.871167e+00
<GCONST> 1.080983e+02
~t "T_s"
<ENDHMM>
~h "a-s+i"
<BEGINHMM>
<NUMSTATES> 5
<STATE> 2
<MEAN> 25
 -2.672227e+00 -3.270423e+00 1.004953e+01 -4.440532e+00 1.809237e-01 1.463706e+00 2.479738e+00 -8.504221e-01 -6.740083e-01 7.527752e-01 2.025366e-01 -1.215088e-01 -2.952475e+00 -1.081467e+00 2.472686e+00 -1.170398e+00 1.552520e-01 9.225060e-01 1.190610e+00 1.466946e-02 5.599615e-01 4.710526e-01 5.590721e-01 2.782978e-01 2.598815e-01
<VARIANCE> 25
 6.090248e+01 4.096783e+01 9.645750e+01 7.985217e+01 7.116714e+01 6.051644e+01 6.688841e+01 7.043929e+01 5.318323e+01 4.527814e+01 3.572353e+01 2.664364e+01 3.096100e+00 3.809794e+00 4.041855e+00 4.010174e+00 3.633645e+00 4.631847e+00 3.728845e+00 3.332037e+00 3.740141e+00 3.394577e+00 2.906559e+00 2.198195e+00 1.359681e+00
<GCONST> 1.094882e+02
<STATE> 3
<MEAN> 25
 -1.388278e+01 -7.547144e+00 1.724523e+01 -1.016027e+01 5.564176e-01 9.960555e-01 5.586256e+00 -1.188120e+00 5.186584e-01 1.813791e+00 1.467571e+00 5.005577e-01 -2.925702e-01 -1.122364e-01 -2.537486e-01 7.632152e-02 -1.322451e-02 7.181087e-02 4.822661e-02 6.459653e-02 8.100856e-02 3.569933e-02 1.088791e-01 9.543600e-02 -2.908385e-01
<VARIANCE> 25
 7.703424e+01 8.092426e+01 1.181283e+02 1.229016e+02 1.058419e+02 8.350800e+01 7.997587e+01 8.339116e+01 7.095995e+01 5.324371e+01 4.210551e+01 2.871686e+01 2.398076e+00 1.604921e+00 2.021634e+00 2.360392e+00 1.573115e+00 1.834233e+00 1.877151e+00 1.805621e+00 1.722814e+00 1.544063e+00 1.343992e+00 1.183776e+00 8.760858e-01
<GCONST> 1.039959e+02
<STATE> 4
<MEAN> 25
 -6.362659e+00 -4.423155e+00 9.820220e+00 -4.903218e+00 -3.681852e-01 2.570100e+00 3.167925e+00 -5.793936e-01 -8.759587e-02 1.059100e+00 1.291414e+00 8.679242e-01 2.306367e+00 1.451382e+00 -1.806829e+00 1.135726e+00 -1.512867e-01 -5.723754e-03 -1.025580e+00 -6.012088e-02 -4.432604e-01 -4.086378e-01 -5.183563e-01 -1.828476e-01 -1.028221e+00
<VARIANCE> 25
 5.843802e+01 5.417876e+01 7.380061e+01 6.748988e+01 5.934891e+01 5.204456e+01 5.172548e+01 5.419441e+01 4.946672e+01 4.243489e+01 3.060479e+01 2.467298e+01 5.810026e+00 3.654878e+00 3.590863e+00 3.486390e+00 3.299611e+00 3.667934e+00 3.647548e+00 3.210599e+00 3.578302e+00 3.155891e+00 2.695603e+00 2.113597e+00 1.871167e+00
<GCONST> 1.080983e+02
~t "T_s"
<ENDHMM>
~h "a-s+n"
<BEGINHMM>
<NUMSTATES> 5
<STATE> 2
<MEAN> 25
 -2.672227e+00 -3.270423e+00 1.004953e+01 -4.440532e+00 1.809237e-01 1.463706e+00 2.479738e+00 -8.504221e-01 -6.740083e-01 7.527752e-01 2.025366e-01 -1.215088e-01 -2.952475e+00 -1.081467e+00 2.472686e+00 -1.170398e+00 1.552520e-01 9.225060e-01 1.190610e+00 1.466946e-02 5.599615e-01 4.710526e-01 5.590721e-01 2.782978e-01 2.598815e-01
<VARIANCE> 25
 6.090248e+01 4.096783e+01 9.645750e+01 7.985217e+01 7.116714e+01 6.051644e+01 6.688841e+01 7.043929e+01 5.318323e+01 4.527814e+01 3.572353e+01 2.664364e+01 3.096100e+00 3.809794e+00 4.041855e+00 4.010174e+00 3.633645e+00 4.631847e+00 3.728845e+00 3.332037e+00 3.740141e+00 3.394577e+00 2.906559e+00 2.198195e+00 1.359681e+00
<GCONST> 1.094882e+02
<STATE> 3
<MEAN> 25
 -1.388278e+01 -7.547144e+00 1.724523e+01 -1.016027e+01 5.564176e-01 9.960555e-01 5.586256e+00 -1.188120e+00 5.186584e-01 1.813791e+00 1.467571e+00 5.005577e-01 -2.925702e-01 -1.122364e-01 -2.537486e-01 7.632152e-02 -1.322451e-02 7.181087e-02 4.822661e-02 6.459653e-02 8.100856e-02 3.569933e-02 1.088791e-01 9.543600e-02 -2.908385e-01
<VARIANCE> 25
 7.703424e+01 8.092426e+01 1.181283e+02 1.229016e+02 1.058419e+02 8.350800e+01 7.997587e+01 8.339116e+01 7.095995e+01 5.324371e+01 4.210551e+01 2.871686e+01 2.398076e+00 1.604921e+00 2.021634e+00 2.360392e+00 1.573115e+00 1.834233e+00 1.877151e+00 1.805621e+00 1.722814e+00 1.544063e+00 1.343992e+00 1.183776e+00 8.760858e-01
<GCONST> 1.039959e+02
<STATE> 4
<MEAN> 25
 -6.362659e+00 -4.423155e+00 9.820220e+00 -4.903218e+00 -3.681852e-01 2.570100e+00 3.167925e+00 -5.793936e-01 -8.759587e-02 1.059100e+00 1.291414e+00 8.679242e-01 2.306367e+00 1.451382e+00 -1.806829e+00 1.135726e+00 -1.512867e-01 -5.723754e-03 -1.025580e+00 -6.012088e-02 -4.432604e-01 -4.086378e-01 -5.183563e-01 -1.828476e-01 -1.028221e+00
<VARIANCE> 25
 5.843802e+01 5.417876e+01 7.380061e+01 6.748988e+01 5.934891e+01 5.204456e+01 5.172548e+01 5.419441e+01 4.946672e+01 4.243489e+01 3.060479e+01 2.467298e+01 5.810026e+00 3.654878e+00 3.590863e+00 3.486390e+00 3.299611e+00 3.667934e+00 3.647548e+00 3.210599e+00 3.578302e+00 3.155891e+00 2.695603e+00 2.113597e+00 1.871167e+00
<GCONST> 1.080983e+02
~t "T_s"
<ENDHMM>
~h "a-s+o"
<BEGINHMM>
<NUMSTATES> 5
<STATE> 2
<MEAN> 25
 -2.672227e+00 -3.270423e+00 1.004953e+01 -4.440532e+00 1.809237e-01 1.463706e+00 2.479738e+00 -8.504221e-01 -6.740083e-01 7.527752e-01 2.025366e-01 -1.215088e-01 -2.952475e+00 -1.081467e+00 2.472686e+00 -1.170398e+00 1.552520e-01 9.225060e-01 1.190610e+00 1.466946e-02 5.599615e-01 4.710526e-01 5.590721e-01 2.782978e-01 2.598815e-01
<VARIANCE> 25
 6.090248e+01 4.096783e+01 9.645750e+01 7.985217e+01 7.116714e+01 6.051644e+01 6.688841e+01 7.043929e+01 5.318323e+01 4.527814e+01 3.572353e+01 2.664364e+01 3.096100e+00 3.809794e+00 4.041855e+00 4.010174e+00 3.633645e+00 4.631847e+00 3.728845e+00 3.332037e+00 3.740141e+00 3.394577e+00 2.906559e+00 2.198195e+00 1.359681e+00
<GCONST> 1.094882e+02
<STATE> 3
<MEAN> 25
 -1.388278e+01 -7.547144e+00 1.724523e+01 -1.016027e+01 5.564176e-01 9.960555e-01 5.586256e+00 -1.188120e+00 5.186584e-01 1.813791e+00 1.467571e+00 5.005577e-01 -2.925702e-01 -1.122364e-01 -2.537486e-01 7.632152e-02 -1.322451e-02 7.181087e-02 4.822661e-02 6.459653e-02 8.100856e-02 3.569933e-02 1.088791e-01 9.543600e-02 -2.908385e-01
<VARIANCE> 25
 7.703424e+01 8.092426e+01 1.181283e+02 1.229016e+02 1.058419e+02 8.350800e+01 7.997587e+01 8.339116e+01 7.095995e+01 5.324371e+01 4.210551e+01 2.871686e+01 2.398076e+00 1.604921e+00 2.021634e+00 2.360392e+00 1.573115e+00 1.834233e+00 1.877151e+00 1.805621e+00 1.722814e+00 1.544063e+00 1.343992e+00 1.183776e+00 8.760858e-01
<GCONST> 1.039959e+02
<STATE> 4
<MEAN> 25
 -6.362659e+00 -4.423155e+00 9.820220e+00 -4.903218e+00 -3.681852e-01 2.570100e+00 3.167925e+00 -5.793936e-01 -8.759587e-02 1.059100e+00 1.291414e+00 8.679242e-01 2.306367e+00 1.451382e+00 -1.806829e+00 1.135726e+00 -1.512867e-01 -5.723754e-03 -1.025580e+00 -6.012088e-02 -4.432604e-01 -4.086378e-01 -5.183563e-01 -1.828476e-01 -1.028221e+00
<VARIANCE> 25
 5.843802e+01 5.417876e+01 7.380061e+01 6.748988e+01 5.934891e+01 5.204456e+01 5.172548e+01 5.419441e+01 4.946672e+01 4.243489e+01 3.060479e+01 2.467298e+01 5.810026e+00 3.654878e+00 3.590863e+00 3.486390e+00 3.299611e+00 3.667934e+00 3.647548e+00 3.210599e+00 3.578302e+00 3.155891e+00 2.695603e+00 2.113597e+00 1.871167e+00
<GCONST> 1.080983e+02
~t "T_s"
<ENDHMM>
~h "a-s+p"
<BEGINHMM>
<NUMSTATES> 5
<STATE> 2
<MEAN> 25
 -2.672227e+00 -3.270423e+00 1.004953e+01 -4.440532e+00 1.809237e-01 1.463706e+00 2.479738e+00 -8.504221e-01 -6.740083e-01 7.527752e-01 2.025366e-01 -1.215088e-01 -2.952475e+00 -1.081467e+00 2.472686e+00 -1.170398e+00 1.552520e-01 9.225060e-01 1.190610e+00 1.466946e-02 5.599615e-01 4.710526e-01 5.590721e-01 2.782978e-01 2.598815e-01
<VARIANCE> 25
 6.090248e+01 4.096783e+01 9.645750e+01 7.985217e+01 7.116714e+01 6.051644e+01 6.688841e+01 7.043929e+01 5.318323e+01 4.527814e+01 3.572353e+01 2.664364e+01 3.096100e+00 3.809794e+00 4.041855e+00 4.010174e+00 3.633645e+00 4.631847e+00 3.728845e+00 3.332037e+00 3.740141e+00 3.394577e+00 2.906559e+00 2.198195e+00 1.359681e+00
<GCONST> 1.094882e+02
<STATE> 3
<MEAN> 25
 -1.388278e+01 -7.547144e+00 1.724523e+01 -1.016027e+01 5.564176e-01 9.960555e-01 5.586256e+00 -1.188120e+00 5.186584e-01 1.813791e+00 1.467571e+00 5.005577e-01 -2.925702e-01 -1.122364e-01 -2.537486e-01 7.632152e-02 -1.322451e-02 7.181087e-02 4.822661e-02 6.459653e-02 8.100856e-02 3.569933e-02 1.088791e-01 9.543600e-02 -2.908385e-01
<VARIANCE> 25
 7.703424e+01 8.092426e+01 1.181283e+02 1.229016e+02 1.058419e+02 8.350800e+01 7.997587e+01 8.339116e+01 7.095995e+01 5.324371e+01 4.210551e+01 2.871686e+01 2.398076e+00 1.604921e+00 2.021634e+00 2.360392e+00 1.573115e+00 1.834233e+00 1.877151e+00 1.805621e+00 1.722814e+00 1.544063e+00 1.343992e+00 1.183776e+00 8.760858e-01
<GCONST> 1.039959e+02
<STATE> 4
<MEAN> 25
 -6.362659e+00 -4.423155e+00 9.820220e+00 -4.903218e+00 -3.681852e-01 2.570100e+00 3.167925e+00 -5.793936e-01 -8.759587e-02 1.059100e+00 1.291414e+00 8.679242e-01 2.306367e+00 1.451382e+00 -1.806829e+00 1.135726e+00 -1.512867e-01 -5.723754e-03 -1.025580e+00 -6.012088e-02 -4.432604e-01 -4.086378e-01 -5.183563e-01 -1.828476e-01 -1.028221e+00
<VARIANCE> 25
 5.843802e+01 5.417876e+01 7.380061e+01 6.748988e+01 5.934891e+01 5.204456e+01 5.172548e+01 5.419441e+01 4.946672e+01 4.243489e+01 3.060479e+01 2.467298e+01 5.810026e+00 3.654878e+00 3.590863e+00 3.486390e+00 3.299611e+00 3.667934e+00 3.647548e+00 3.210599e+00 3.578302e+00 3.155891e+00 2.695603e+00 2.113597e+00 1.871167e+00
<GCONST> 1.080983e+02
~t "T_s"
<ENDHMM>
~h "a-s+t"
<BEGINHMM>
<NUMSTATES> 5
<STATE> 2
<MEAN> 25
 -2.672227e+00 -3.270423e+00 1.004953e+01 -4.440532e+00 1.809237e-01 1.463706e+00 2.479738e+00 -8.504221e-01 -6.740083e-01 7.527752e-01 2.025366e-01 -1.215088e-01 -2.952475e+00 -1.081467e+00 2.472686e+00 -1.170398e+00 1.552520e-01 9.225060e-01 1.190610e+00 1.466946e-02 5.599615e-01 4.710526e-01 5.590721e-01 2.782978e-01 2.598815e-01
<VARIANCE> 25
 6.090248e+01 4.096783e+01 9.645750e+01 7.985217e+01 7.116714e+01 6.051644e+01 6.688841e+01 7.043929e+01 5.318323e+01 4.527814e+01 3.572353e+01 2.664364e+01 3.096100e+00 3.809794e+00 4.041855e+00 4.010174e+00 3.633645e+00 4.631847e+00 3.728845e+00 3.332037e+00 3.740141e+00 3.394577e+00 2.906559e+00 2.198195e+00 1.359681e+00
<GCONST> 1.094882e+02
<STATE> 3
<MEAN> 25
 -1.388278e+01 -7.547144e+00 1.724523e+01 -1.016027e+01 5.564176e-01 9.960555e-01 5.586256e+00 -1.188120e+00 5.186584e-01 1.813791e+00 1.467571e+00 5.005577e-01 -2.925702e-01 -1.122364e-01 -2.537486e-01 7.632152e-02 -1.322451e-02 7.181087e-02 4.822661e-02 6.459653e-02 8.100856e-02 3.569933e-02 1.088791e-01 9.543600e-02 -2.908385e-01
<VARIANCE> 25
 7.703424e+01 8.092426e+01 1.181283e+02 1.229016e+02 1.058419e+02 8.350800e+01 7.997587e+01 8.339116e+01 7.095995e+01 5.324371e+01 4.210551e+01 2.871686e+01 2.398076e+00 1.604921e+00 2.021634e+00 2.360392e+00 1.573115e+00 1.834233e+00 1.877151e+00 1.805621e+00 1.722814e+00 1.544063e+00 1.343992e+00 1.183776e+00 8.760858e-01
<GCONST> 1.039959e+02
<STATE> 4
<MEAN> 25
 -6.362659e+00 -4.423155e+00 9.820220e+00 -4.903218e+00 -3.681852e-01 2.570100e+00 3.167925e+00 -5.793936e-01 -8.759587e-02 1.059100e+00 1.291414e+00 8.679242e-01 2.306367e+00 1.451382e+00 -1.806829e+00 1.135726e+00 -1.512867e-01 -5.723754e-03 -1.025580e+00 -6.012088e-02 -4.432604e-01 -4.086378e-01 -5.183563e-01 -1.828476e-01 -1.028221e+00
<VARIANCE> 25
 5.843802e+01 5.417876e+01 7.380061e+01 6.748988e+01 5.934891e+01 5.204456e+01 5.172548e+01 5.419441e+01 4.946672e+01 4.243489e+01 3.060479e+01 2.467298e+01 5.810026e+00 3.654878e+00 3.590863e+00 3.486390e+00 3.299611e+00 3.667934e+00 3.647548e+00 3.210599e+00 3.578302e+00 3.155891e+00 2.695603e+00 2.113597e+00 1.871167e+00
<GCONST> 1.080983e+02
~t "T_s"
<ENDHMM>
~h "u-th"
<BEGINHMM>
<NUMSTATES> 5
<STATE> 2
<MEAN> 25
 -5.632880e+00 -3.854063e+00 1.516733e+01 -6.320058e+00 2.140140e+00 2.455597e+00 3.235808e+00 -2.117743e+00 -4.823162e-01 1.348089e+00 8.720768e-02 -2.654986e-01 -3.624942e+00 -1.473371e+00 2.833224e+00 -1.734421e+00 -1.021341e-01 6.912473e-01 1.388689e+00 -1.476209e-01 6.915943e-01 5.759441e-01 5.913332e-01 2.648686e-01 5.795045e-01
<VARIANCE> 25
 6.831219e+01 5.101052e+01 9.769680e+01 8.345584e+01 8.229661e+01 6.781025e+01 8.005181e+01 6.789198e+01 6.046149e+01 4.864940e+01 3.799240e+01 2.866057e+01 2.483551e+00 3.884926e+00 3.833339e+00 4.342094e+00 3.744481e+00 5.492457e+00 3.865437e+00 3.177013e+00 3.737395e+00 3.366478e+00 3.085365e+00 2.236720e+00 1.021638e+00
<GCONST> 1.104123e+02
<STATE> 3
<MEAN> 25
 -1.727112e+01 -8.257788e+00 1.949447e+01 -1.180675e+01 1.947106e+00 1.331353e+00 6.016316e+00 -2.654345e+00 1.263386e+00 2.144119e+00 1.879954e+00 3.925450e-01 -1.316139e-01 -5.102527e-01 -3.761988e-01 1.679360e-01 1.177314e-02 -9.135841e-02 -9.154829e-02 -1.859931e-02 1.217610e-01 1.754421e-01 1.592440e-01 1.295594e-02 -6.405007e-02
<VARIANCE> 25
 3.926363e+01 8.026629e+01 8.774121e+01 1.006794e+02 8.994701e+01 7.935870e+01 7.173088e+01 6.903039e+01 6.770055e+01 4.795404e+01 3.895676e+01 2.661696e+01 1.988035e+00 1.045411e+00 1.457392e+00 2.010195e+00 1.328030e+00 1.433358e+00 1.615375e+00 1.621984e+00 1.538399e+00 1.449418e+00 1.211479e+00 1.100959e+00 4.380694e-01
<GCONST> 9.917685e+01
<STATE> 4
<MEAN> 25
 -9.271607e+00 -9.057722e+00 1.468838e+01 -6.365356e+00 1.965114e+00 2.341074e+00 3.013284e+00 -2.966129e+00 2.363478e-03 3.011927e+00 1.883378e+00 8.863983e-02 4.015340e+00 1.801579e+00 -2.265525e+00 2.241422e+00 5.355793e-01 -2.967038e-01 -2.138270e+00 -4.493863e-01 -1.154973e+00 -7.945148e-01 -8.732439e-01 -3.801412e-01 -6.645188e-01
<VARIANCE> 25
 5.233046e+01 6.291172e+01 6.801148e+01 8.587710e+01 6.436635e+01 5.830358e+01 5.761609e+01 5.580789e+01 5.802547e+01 4.261039e+01 3.626220e+01 2.619216e+01 3.238315e+00 3.795416e+00 2.980920e+00 3.903574e+00 4.405891e+00 4.908393e+00 3.968453e+00 3.498078e+00 3.993294e+00 3.501172e+00 3.218621e+00 2.491385e+00 1.196708e+00
<GCONST> 1.092605e+02
~t "T_th"
<ENDHMM>
~h "a-t+a"
<BEGINHMM>
<NUMSTATES> 5
<STATE> 2
<MEAN> 25
 -1.105155e+00 3.531708e+00 3.428654e-04 2.035812e+00 1.206108e-01 3.856581e+00 4.077179e-01 -5.965847e-01 8.127027e-01 7.627032e-01 3.199013e-01 6.893349e-02 -6.225701e-01 -2.968751e-01 -4.327019e-01 -2.591668e-01 -4.670320e-01 5.148919e-02 2.475624e-01 2.473967e-01 4.056443e-01 2.193291e-01 2.135402e-01 2.370846e-01 -4.553078e-01
<VARIANCE> 25
 1.757349e+01 1.922104e+01 3.467615e+01 3.267662e+01 2.919297e+01 2.473142e+01 2.491181e+01 2.517140e+01 2.366685e+01 1.964377e+01 1.771473e+01 1.668316e+01 8.811969e-01 1.897543e+00 1.485499e+00 1.704934e+00 1.593071e+00 1.769392e+00 1.715915e+00 1.659040e+00 1.614757e+00 1.490305e+00 1.287322e+00 1.257182e+00 1.985336e+00
<GCONST> 8.922695e+01
<STATE> 3
<MEAN> 25
 -2.661848e+00 -1.497703e+00 5.282218e-02 -3.497691e-01 -1.323973e+00 2.477841e+00 1.625346e+00 -2.516246e-01 1.776590e+00 1.439802e+00 5.119318e-01 3.112603e-01 3.591390e-01 -2.639185e+00 1.089064e+00 -1.295514e+00 3.863864e-02 -1.159161e+00 1.705076e-01 -5.860544e-01 -5.879141e-01 -1.566525e-01 -8.659262e-03 1.297800e-01 3.161201e+00
<VARIANCE> 25
 2.167913e+01 5.237593e+01 4.070385e+01 5.008830e+01 3.684749e+01 3.489187e+01 3.228013e+01 3.020567e+01 2.734658e+01 2.465602e+01 2.112542e+01 1.802548e+01 2.104158e+00 3.082623e+00 3.689658e+00 4.205109e+00 3.861122e+00 3.443296e+00 3.636282e+00 3.397777e+00 3.384237e+00 2.689384e+00 2.275631e+00 2.211970e+00 2.531482e+00
<GCONST> 1.015656e+02
<STATE> 4
<MEAN> 25
 6.725208e-02 -5.150090e+00 3.443682e+00 -2.513680e+00 -2.271353e-01 -2.479110e-01 1.068287e+00 -2.403555e+00 -1.349449e+00 3.935923e-02 2.190253e-01 7.620124e-01 2.674966e+00 -7.274120e-02 -3.204739e-01 3.668221e-01 1.818312e-01 -1.773539e+00 -1.494750e+00 -9.235156e-01 -1.947002e+00 -1.262686e+00 -4.662289e-01 5.305367e-02 2.229213e+00
<VARIANCE> 25
 3.678450e+01 4.006910e+01 4.787255e+01 5.576718e+01 5.168572e+01 4.239035e+01 4.381770e+01 4.481693e+01 4.380044e+01 3.419241e+01 2.507265e+01 1.988425e+01 2.029730e+00 4.721550e+00 4.108329e+00 5.850153e+00 5.617827e+00 4.736856e+00 4.321757e+00 4.812273e+00 4.380567e+00 4.659930e+00 3.916073e+00 3.285652e+00 3.656609e+00
<GCONST> 1.085535e+02
~t "T_t"
<ENDHMM>
~h "a-t+e"
<BEGINHMM>
<NUMSTATES> 5
<STATE> 2
<MEAN> 25
 -1.105155e+00 3.531708e+00 3.428654e-04 2.035812e+00 1.206108e-01 3.856581e+00 4.077179e-01 -5.965847e-01 8.127027e-01 7.627032e-01 3.199013e-01 6.893349e-02 -6.225701e-01 -2.968751e-01 -4.327019e-01 -2.591668e-01 -4.670320e-01 5.148919e-02 2.475624e-01 2.473967e-01 4.056443e-01 2.193291e-01 2.135402e-01 2.370846e-01 -4.553078e-01
<VARIANCE> 25
 1.757349e+01 1.922104e+01 3.467615e+01 3.267662e+01 2.919297e+01 2.473142e+01 2.491181e+01 2.517140e+01 2.366685e+01 1.964377e+01 1.771473e+01 1.668316e+01 8.811969e-01 1.897543e+00 1.485499e+00 1.704934e+00 1.593071e+00 1.769392e+00 1.715915e+00 1.659040e+00 1.614757e+00 1.490305e+00 1.287322e+00 1.257182e+00 1.985336e+00
<GCONST> 8.922695e+01
<STATE> 3
<MEAN> 25
 -2.661848e+00 -1.497703e+00 5.282218e-02 -3.497691e-01 -1.323973e+00 2.477841e+00 1.625346e+00 -2.516246e-01 1.776590e+00 1.439802e+00 5.119318e-01 3.112603e-01 3.591390e-01 -2.639185e+00 1.089064e+00 -1.295514e+00 3.863864e-02 -1.159161e+00 1.705076e-01 -5.860544e-01 -5.879141e-01 -1.566525e-01 -8.659262e-03 1.297800e-01 3.161201e+00
<VARIANCE> 25
 2.167913e+01 5.237593e+01 4.070385e+01 5.008830e+01 3.684749e+01 3.489187e+01 3.228013e+01 3.020567e+01 2.734658e+01 2.465602e+01 2.112542e+01 1.802548e+01 2.104158e+00 3.082623e+00 3.689658e+00 4.205109e+00 3.861122e+00 3.443296e+00 3.636282e+00 3.397777e+00 3.384237e+00 2.689384e+00 2.275631e+00 2.211970e+00 2.531482e+00
<GCONST> 1.015656e+02
<STATE> 4
<MEAN> 25
 6.725208e-02 -5.150090e+00 3.443682e+00 -2.513680e+00 -2.271353e-01 -2.479110e-01 1.068287e+00 -2.403555e+00 -1.349449e+00 3.935923e-02 2.190253e-01 7.620124e-01 2.674966e+00 -7.274120e-02 -3.204739e-01 3.668221e-01 1.818312e-01 -1.773539e+00 -1.494750e+00 -9.235156e-01 -1.947002e+00 -1.262686e+00 -4.662289e-01 5.305367e-02 2.229213e+00
<VARIANCE> 25
 3.678450e+01 4.006910e+01 4.787255e+01 5.576718e+01 5.168572e+01 4.239035e+01 4.381770e+01 4.481693e+01 4.380044e+01 3.419241e+01 2.507265e+01 1.988425e+01 2.029730e+00 4.721550e+00 4.108329e+00 5.850153e+00 5.617827e+00 4.736856e+00 4.321757e+00 4.812273e+00 4.380567e+00 4.659930e+00 3.916073e+00 3.285652e+00 3.656609e+00
<GCONST> 1.085535e+02
~t "T_t"
<ENDHMM>
~h "a-t+i"
<BEGINHMM>
<NUMSTATES> 5
<STATE> 2
<MEAN> 25
 -1.105155e+00 3.531708e+00 3.428654e-04 2.035812e+00 1.206108e-01 3.856581e+00 4.077179e-01 -5.965847e-01 8.127027e-01 7.627032e-01 3.199013e-01 6.893349e-02 -6.225701e-01 -2.968751e-01 -4.327019e-01 -2.591668e-01 -4.670320e-01 5.148919e-02 2.475624e-01 2.473967e-01 4.056443e-01 2.193291e-01 2.135402e-01 2.370846e-01 -4.553078e-01
<VARIANCE> 25
 1.757349e+01 1.922104e+01 3.467615e+01 3.267662e+01 2.919297e+01 2.473142e+01 2.491181e+01 2.517140e+01 2.366685e+01 1.964377e+01 1.771473e+01 1.668316e+01 8.811969e-01 1.897543e+00 1.485499e+00 1.704934e+00 1.593071e+00 1.769392e+00 1.715915e+00 1.659040e+00 1.614757e+00 1.490305e+00 1.287322e+00 1.257182e+00 1.985336e+00
<GCONST> 8.922695e+01
<STATE> 3
<MEAN> 25
 -2.661848e+00 -1.497703e+00 5.282218e-02 -3.497691e-01 -1.323973e+00 2.477841e+00 1.625346e+00 -2.516246e-01 1.776590e+00 1.439802e+00 5.119318e-01 3.112603e-01 3.591390e-01 -2.639185e+00 1.089064e+00 -1.295514e+00 3.863864e-02 -1.159161e+00 1.705076e-01 -5.860544e-01 -5.879141e-01 -1.566525e-01 -8.659262e-03 1.297800e-01 3.161201e+00
<VARIANCE> 25
 2.167913e+01 5.237593e+01 4.070385e+01 5.008830e+01 3.684749e+01 3.489187e+01 3.228013e+01 3.020567e+01 2.734658e+01 2.465602e+01 2.112542e+01 1.802548e+01 2.104158e+00 3.082623e+00 3.689658e+00 4.205109e+00 3.861122e+00 3.443296e+00 3.636282e+00 3.397777e+00 3.384237e+00 2.689384e+00 2.275631e+00 2.211970e+00 2.531482e+00
<GCONST> 1.015656e+02
<STATE> 4
<MEAN> 25
 6.725208e-02 -5.150090e+00 3.443682e+00 -2.513680e+00 -2.271353e-01 -2.479110e-01 1.068287e+00 -2.403555e+00 -1.349449e+00 3.935923e-02 2.190253e-01 7.620124e-01 2.674966e+00 -7.274120e-02 -3.204739e-01 3.668221e-01 1.818312e-01 -1.773539e+00 -1.494750e+00 -9.235156e-01 -1.947002e+00 -1.262686e+00 -4.662289e-01 5.305367e-02 2.229213e+00
<VARIANCE> 25
 3.678450e+01 4.006910e+01 4.787255e+01 5.576718e+01 5.168572e+01 4.239035e+01 4.381770e+01 4.481693e+01 4.380044e+01 3.419241e+01 2.507265e+01 1.988425e+01 2.029730e+00 4.721550e+00 4.108329e+00 5.850153e+00 5.617827e+00 4.736856e+00 4.321757e+00 4.812273e+00 4.380567e+00 4.659930e+00 3.916073e+00 3.285652e+00 3.656609e+00
<GCONST> 1.085535e+02
~t "T_t"
<ENDHMM>
~h "a-t+m"
<BEGINHMM>
<NUMSTATES> 5
<STATE> 2
<MEAN> 25
 -1.105155e+00 3.531708e+00 3.428654e-04 2.035812e+00 1.206108e-01 3.856581e+00 4.077179e-01 -5.965847e-01 8.127027e-01 7.627032e-01 3.199013e-01 6.893349e-02 -6.225701e-01 -2.968751e-01 -4.327019e-01 -2.591668e-01 -4.670320e-01 5.148919e-02 2.475624e-01 2.473967e-01 4.056443e-01 2.193291e-01 2.135402e-01 2.370846e-01 -4.553078e-01
<VARIANCE> 25
 1.757349e+01 1.922104e+01 3.467615e+01 3.267662e+01 2.919297e+01 2.473142e+01 2.491181e+01 2.517140e+01 2.366685e+01 1.964377e+01 1.771473e+01 1.668316e+01 8.811969e-01 1.897543e+00 1.485499e+00 1.704934e+00 1.593071e+00 1.769392e+00 1.715915e+00 1.659040e+00 1.614757e+00 1.490305e+00 1.287322e+00 1.257182e+00 1.985336e+00
<GCONST> 8.922695e+01
<STATE> 3
<MEAN> 25
 -2.661848e+00 -1.497703e+00 5.282218e-02 -3.497691e-01 -1.323973e+00 2.477841e+00 1.625346e+00 -2.516246e-01 1.776590e+00 1.439802e+00 5.119318e-01 3.112603e-01 3.591390e-01 -2.639185e+00 1.089064e+00 -1.295514e+00 3.863864e-02 -1.159161e+00 1.705076e-01 -5.860544e-01 -5.879141e-01 -1.566525e-01 -8.659262e-03 1.297800e-01 3.161201e+00
<VARIANCE> 25
 2.167913e+01 5.237593e+01 4.070385e+01 5.008830e+01 3.684749e+01 3.489187e+01 3.228013e+01 3.020567e+01 2.734658e+01 2.465602e+01 2.112542e+01 1.802548e+01 2.104158e+00 3.082623e+00 3.689658e+00 4.205109e+00 3.861122e+00 3.443296e+00 3.636282e+00 3.397777e+00 3.384237e+00 2.689384e+00 2.275631e+00 2.211970e+00 2.531482e+00
<GCONST> 1.015656e+02
<STATE> 4
<MEAN> 25
 6.725208e-02 -5.150090e+00 3.443682e+00 -2.513680e+00 -2.271353e-01 -2.479110e-01 1.068287e+00 -2.403555e+00 -1.349449e+00 3.935923e-02 2.190253e-01 7.620124e-01 2.674966e+00 -7.274120e-02 -3.204739e-01 3.668221e-01 1.818312e-01 -1.773539e+00 -1.494750e+00 -9.235156e-01 -1.947002e+00 -1.262686e+00 -4.662289e-01 5.305367e-02 2.229213e+00
<VARIANCE> 25
 3.678450e+01 4.006910e+01 4.787255e+01 5.576718e+01 5.168572e+01 4.239035e+01 4.381770e+01 4.481693e+01 4.380044e+01 3.419241e+01 2.507265e+01 1.988425e+01 2.029730e+00 4.721550e+00 4.108329e+00 5.850153e+00 5.617827e+00 4.736856e+00 4.321757e+00 4.812273e+00 4.380567e+00 4.659930e+00 3.916073e+00 3.285652e+00 3.656609e+00
<GCONST> 1.085535e+02
~t "T_t"
<ENDHMM>
~h "a-t+o"
<BEGINHMM>
<NUMSTATES> 5
<STATE> 2
<MEAN> 25
 -1.105155e+00 3.531708e+00 3.428654e-04 2.035812e+00 1.206108e-01 3.856581e+00 4.077179e-01 -5.965847e-01 8.127027e-01 7.627032e-01 3.199013e-01 6.893349e-02 -6.225701e-01 -2.968751e-01 -4.327019e-01 -2.591668e-01 -4.670320e-01 5.148919e-02 2.475624e-01 2.473967e-01 4.056443e-01 2.193291e-01 2.135402e-01 2.370846e-01 -4.553078e-01
<VARIANCE> 25
 1.757349e+01 1.922104e+01 3.467615e+01 3.267662e+01 2.919297e+01 2.473142e+01 2.491181e+01 2.517140e+01 2.366685e+01 1.964377e+01 1.771473e+01 1.668316e+01 8.811969e-01 1.897543e+00 1.485499e+00 1.704934e+00 1.593071e+00 1.769392e+00 1.715915e+00 1.659040e+00 1.614757e+00 1.490305e+00 1.287322e+00 1.257182e+00 1.985336e+00
<GCONST> 8.922695e+01
<STATE> 3
<MEAN> 25
 -2.661848e+00 -1.497703e+00 5.282218e-02 -3.497691e-01 -1.323973e+00 2.477841e+00 1.625346e+00 -2.516246e-01 1.776590e+00 1.439802e+00 5.119318e-01 3.112603e-01 3.591390e-01 -2.639185e+00 1.089064e+00 -1.295514e+00 3.863864e-02 -1.159161e+00 1.705076e-01 -5.860544e-01 -5.879141e-01 -1.566525e-01 -8.659262e-03 1.297800e-01 3.161201e+00
<VARIANCE> 25
 2.167913e+01 5.237593e+01 4.070385e+01 5.008830e+01 3.684749e+01 3.489187e+01 3.228013e+01 3.020567e+01 2.734658e+01 2.465602e+01 2.112542e+01 1.802548e+01 2.104158e+00 3.082623e+00 3.689658e+00 4.205109e+00 3.861122e+00 3.443296e+00 3.636282e+00 3.397777e+00 3.384237e+00 2.689384e+00 2.275631e+00 2.211970e+00 2.531482e+00
<GCONST> 1.015656e+02
<STATE> 4
<MEAN> 25
 6.725208e-02 -5.150090e+00 3.443682e+00 -2.513680e+00 -2.271353e-01 -2.479110e-01 1.068287e+00 -2.403555e+00 -1.349449e+00 3.935923e-02 2.190253e-01 7.620124e-01 2.674966e+00 -7.274120e-02 -3.204739e-01 3.668221e-01 1.818312e-01 -1.773539e+00 -1.494750e+00 -9.235156e-01 -1.947002e+00 -1.262686e+00 -4.662289e-01 5.305367e-02 2.229213e+00
<VARIANCE> 25
 3.678450e+01 4.006910e+01 4.787255e+01 5.576718e+01 5.168572e+01 4.239035e+01 4.381770e+01 4.481693e+01 4.380044e+01 3.419241e+01 2.507265e+01 1.988425e+01 2.029730e+00 4.721550e+00 4.108329e+00 5.850153e+00 5.617827e+00 4.736856e+00 4.321757e+00 4.812273e+00 4.380567e+00 4.659930e+00 3.916073e+00 3.285652e+00 3.656609e+00
<GCONST> 1.085535e+02
~t "T_t"
<ENDHMM>
~h "a-t+r"
<BEGINHMM>
<NUMSTATES> 5
<STATE> 2
<MEAN> 25
 -1.105155e+00 3.531708e+00 3.428654e-04 2.035812e+00 1.206108e-01 3.856581e+00 4.077179e-01 -5.965847e-01 8.127027e-01 7.627032e-01 3.199013e-01 6.893349e-02 -6.225701e-01 -2.968751e-01 -4.327019e-01 -2.591668e-01 -4.670320e-01 5.148919e-02 2.475624e-01 2.473967e-01 4.056443e-01 2.193291e-01 2.135402e-01 2.370846e-01 -4.553078e-01
<VARIANCE> 25
 1.757349e+01 1.922104e+01 3.467615e+01 3.267662e+01 2.919297e+01 2.473142e+01 2.491181e+01 2.517140e+01 2.366685e+01 1.964377e+01 1.771473e+01 1.668316e+01 8.811969e-01 1.897543e+00 1.485499e+00 1.704934e+00 1.593071e+00 1.769392e+00 1.715915e+00 1.659040e+00 1.614757e+00 1.490305e+00 1.287322e+00 1.257182e+00 1.985336e+00
<GCONST> 8.922695e+01
<STATE> 3
<MEAN> 25
 -2.661848e+00 -1.497703e+00 5.282218e-02 -3.497691e-01 -1.323973e+00 2.477841e+00 1.625346e+00 -2.516246e-01 1.776590e+00 1.439802e+00 5.119318e-01 3.112603e-01 3.591390e-01 -2.639185e+00 1.089064e+00 -1.295514e+00 3.863864e-02 -1.159161e+00 1.705076e-01 -5.860544e-01 -5.879141e-01 -1.566525e-01 -8.659262e-03 1.297800e-01 3.161201e+00
<VARIANCE> 25
 2.167913e+01 5.237593e+01 4.070385e+01 5.008830e+01 3.684749e+01 3.489187e+01 3.228013e+01 3.020567e+01 2.734658e+01 2.465602e+01 2.112542e+01 1.802548e+01 2.104158e+00 3.082623e+00 3.689658e+00 4.205109e+00 3.861122e+00 3.443296e+00 3.636282e+00 3.397777e+00 3.384237e+00 2.689384e+00 2.275631e+00 2.211970e+00 2.531482e+00
<GCONST> 1.015656e+02
<STATE> 4
<MEAN> 25
 6.725208e-02 -5.150090e+00 3.443682e+00 -2.513680e+00 -2.271353e-01 -2.479110e-01 1.068287e+00 -2.403555e+00 -1.349449e+00 3.935923e-02 2.190253e-01 7.620124e-01 2.674966e+00 -7.274120e-02 -3.204739e-01 3.668221e-01 1.818312e-01 -1.773539e+00 -1.494750e+00 -9.235156e-01 -1.947002e+00 -1.262686e+00 -4.662289e-01 5.305367e-02 2.229213e+00
<VARIANCE> 25
 3.678450e+01 4.006910e+01 4.787255e+01 5.576718e+01 5.168572e+01 4.239035e+01 4.381770e+01 4.481693e+01 4.380044e+01 3.419241e+01 2.507265e+01 1.988425e+01 2.029730e+00 4.721550e+00 4.108329e+00 5.850153e+00 5.617827e+00 4.736856e+00 4.321757e+00 4.812273e+00 4.380567e+00 4.659930e+00 3.916073e+00 3.285652e+00 3.656609e+00
<GCONST> 1.085535e+02
~t "T_t"
<ENDHMM>
~h "a-t+u"
<BEGINHMM>
<NUMSTATES> 5
<STATE> 2
<MEAN> 25
 -1.105155e+00 3.531708e+00 3.428654e-04 2.035812e+00 1.206108e-01 3.856581e+00 4.077179e-01 -5.965847e-01 8.127027e-01 7.627032e-01 3.199013e-01 6.893349e-02 -6.225701e-01 -2.968751e-01 -4.327019e-01 -2.591668e-01 -4.670320e-01 5.148919e-02 2.475624e-01 2.473967e-01 4.056443e-01 2.193291e-01 2.135402e-01 2.370846e-01 -4.553078e-01
<VARIANCE> 25
 1.757349e+01 1.922104e+01 3.467615e+01 3.267662e+01 2.919297e+01 2.473142e+01 2.491181e+01 2.517140e+01 2.366685e+01 1.964377e+01 1.771473e+01 1.668316e+01 8.811969e-01 1.897543e+00 1.485499e+00 1.704934e+00 1.593071e+00 1.769392e+00 1.715915e+00 1.659040e+00 1.614757e+00 1.490305e+00 1.287322e+00 1.257182e+00 1.985336e+00
<GCONST> 8.922695e+01
<STATE> 3
<MEAN> 25
 -2.661848e+00 -1.497703e+00 5.282218e-02 -3.497691e-01 -1.323973e+00 2.477841e+00 1.625346e+00 -2.516246e-01 1.776590e+00 1.439802e+00 5.119318e-01 3.112603e-01 3.591390e-01 -2.639185e+00 1.089064e+00 -1.295514e+00 3.863864e-02 -1.159161e+00 1.705076e-01 -5.860544e-01 -5.879141e-01 -1.566525e-01 -8.659262e-03 1.297800e-01 3.161201e+00
<VARIANCE> 25
 2.167913e+01 5.237593e+01 4.070385e+01 5.008830e+01 3.684749e+01 3.489187e+01 3.228013e+01 3.020567e+01 2.734658e+01 2.465602e+01 2.112542e+01 1.802548e+01 2.104158e+00 3.082623e+00 3.689658e+00 4.205109e+00 3.861122e+00 3.443296e+00 3.636282e+00 3.397777e+00 3.384237e+00 2.689384e+00 2.275631e+00 2.211970e+00 2.531482e+00
<GCONST> 1.015656e+02
<STATE> 4
<MEAN> 25
 6.725208e-02 -5.150090e+00 3.443682e+00 -2.513680e+00 -2.271353e-01 -2.479110e-01 1.068287e+00 -2.403555e+00 -1.349449e+00 3.935923e-02 2.190253e-01 7.620124e-01 2.674966e+00 -7.274120e-02 -3.204739e-01 3.668221e-01 1.818312e-01 -1.773539e+00 -1.494750e+00 -9.235156e-01 -1.947002e+00 -1.262686e+00 -4.662289e-01 5.305367e-02 2.229213e+00
<VARIANCE> 25
 3.678450e+01 4.006910e+01 4.787255e+01 5.576718e+01 5.168572e+01 4.239035e+01 4.381770e+01 4.481693e+01 4.380044e+01 3.419241e+01 2.507265e+01 1.988425e+01 2.029730e+00 4.721550e+00 4.108329e+00 5.850153e+00 5.617827e+00 4.736856e+00 4.321757e+00 4.812273e+00 4.380567e+00 4.659930e+00 3.916073e+00 3.285652e+00 3.656609e+00
<GCONST> 1.085535e+02
~t "T_t"
<ENDHMM>
~h "n-o+b"
<BEGINHMM>
<NUMSTATES> 5
<STATE> 2
<MEAN> 25
 8.202134e+00 8.756948e-01 -1.556870e+00 -2.412576e+00 -4.135490e+00 -5.283045e+00 -1.325630e+00 5.514442e-01 -3.256593e+00 -4.464030e+00 -3.179199e+00 -1.018459e+00 8.533680e-01 5.628624e-02 -4.272498e-01 -1.163086e+00 -1.742013e+00 -1.833407e+00 -1.006363e-01 8.327968e-01 2.565329e-01 -1.784475e-01 -2.551433e-01 1.000556e-01 7.841955e-01
<VARIANCE> 25
 2.727819e+01 4.614404e+01 4.546624e+01 5.624189e+01 6.257309e+01 6.102062e+01 4.518742e+01 4.939813e+01 5.469617e+01 4.219932e+01 3.056493e+01 2.847985e+01 1.604221e+00 2.714622e+00 2.414845e+00 3.306103e+00 3.399673e+00 4.293542e+00 4.410888e+00 3.910635e+00 3.812121e+00 3.509329e+00 2.851977e+00 2.694980e+00 1.552250e+00
<GCONST> 1.055529e+02
<STATE> 3
<MEAN> 25
 9.608891e+00 1.841884e+00 -1.624231e+00 -4.843653e+00 -1.056682e+01 -1.047259e+01 -3.275502e-01 4.228262e+00 -8.981493e-01 -3.707518e+00 -3.771726e+00 -1.847208e+00 -1.603226e-01 3.746803e-01 2.492852e-02 -5.283350e-02 -1.316152e-01 2.060792e-01 2.320018e-01 3.473101e-01 4.636069e-01 2.421327e-01 -1.011645e-03 -9.001540e-02 -4.208844e-01
<VARIANCE> 25
 2.191664e+01 3.832346e+01 3.536129e+01 4.552036e+01 5.146196e+01 5.402416e+01 4.532333e+01 4.316967e+01 5.194213e+01 3.791486e+01 2.724122e+01 2.477335e+01 5.759985e-01 1.296905e+00 1.329783e+00 1.436117e+00 2.015944e+00 2.854960e+00 1.984985e+00 2.227589e+00 2.343580e+00 2.045362e+00 1.638120e+00 1.449960e+00 1.066268e+00
<GCONST> 9.576168e+01
<STATE> 4
<MEAN> 25
 5.920141e+00 4.729104e+00 -6.619071e-01 -3.592440e+00 -6.668617e+00 -4.437122e+00 3.776827e-01 3.175261e+00 9.050462e-01 -1.454790e+00 -2.326509e+00 -1.249121e+00 -6.257654e-01 -3.906129e-02 1.678127e-01 4.218079e-01 7.039407e-01 9.980335e-01 2.885799e-01 -2.038472e-01 -1.773957e-02 1.877047e-01 2.155907e-01 8.154663e-02 -5.345345e-01
<VARIANCE> 25
 2.381943e+01 3.168683e+01 3.073319e+01 3.372535e+01 3.205265e+01 4.222814e+01 3.201194e+01 3.300840e+01 3.498757e+01 3.150789e+01 2.243595e+01 1.901501e+01 4.852379e-01 7.335701e-01 1.011674e+00 1.084659e+00 1.496157e+00 1.967000e+00 1.648281e+00 1.688958e+00 1.686677e+00 1.518985e+00 1.305284e+00 1.193857e+00 3.831035e-01
<GCONST> 8.833953e+01
~t "T_o"
<ENDHMM>
~h "n-o+g"
<BEGINHMM>
<NUMSTATES> 5
<STATE> 2
<MEAN> 25
 8.202134e+00 8.756948e-01 -1.556870e+00 -2.412576e+00 -4.135490e+00 -5.283045e+00 -1.325630e+00 5.514442e-01 -3.256593e+00 -4.464030e+00 -3.179199e+00 -1.018459e+00 8.533680e-01 5.628624e-02 -4.272498e-01 -1.163086e+00 -1.742013e+00 -1.833407e+00 -1.006363e-01 8.327968e-01 2.565329e-01 -1.784475e-01 -2.551433e-01 1.000556e-01 7.841955e-01
<VARIANCE> 25
 2.727819e+01 4.614404e+01 4.546624e+01 5.624189e+01 6.257309e+01 6.102062e+01 4.518742e+01 4.939813e+01 5.469617e+01 4.219932e+01 3.056493e+01 2.847985e+01 1.604221e+00 2.714622e+00 2.414845e+00 3.306103e+00 3.399673e+00 4.293542e+00 4.410888e+00 3.910635e+00 3.812121e+00 3.509329e+00 2.851977e+00 2.694980e+00 1.552250e+00
<GCONST> 1.055529e+02
<STATE> 3
<MEAN> 25
 9.608891e+00 1.841884e+00 -1.624231e+00 -4.843653e+00 -1.056682e+01 -1.047259e+01 -3.275502e-01 4.228262e+00 -8.981493e-01 -3.707518e+00 -3.771726e+00 -1.847208e+00 -1.603226e-01 3.746803e-01 2.492852e-02 -5.283350e-02 -1.316152e-01 2.060792e-01 2.320018e-01 3.473101e-01 4.636069e-01 2.421327e-01 -1.011645e-03 -9.001540e-02 -4.208844e-01
<VARIANCE> 25
 2.191664e+01 3.832346e+01 3.536129e+01 4.552036e+01 5.146196e+01 5.402416e+01 4.532333e+01 4.316967e+01 5.194213e+01 3.791486e+01 2.724122e+01 2.477335e+01 5.759985e-01 1.296905e+00 1.329783e+00 1.436117e+00 2.015944e+00 2.854960e+00 1.984985e+00 2.227589e+00 2.343580e+00 2.045362e+00 1.638120e+00 1.449960e+00 1.066268e+00
<GCONST> 9.576168e+01
<STATE> 4
<MEAN> 25
 5.920141e+00 4.729104e+00 -6.619071e-01 -3.592440e+00 -6.668617e+00 -4.437122e+00 3.776827e-01 3.175261e+00 9.050462e-01 -1.454790e+00 -2.326509e+00 -1.249121e+00 -6.257654e-01 -3.906129e-02 1.678127e-01 4.218079e-01 7.039407e-01 9.980335e-01 2.885799e-01 -2.038472e-01 -1.773957e-02 1.877047e-01 2.155907e-01 8.154663e-02 -5.345345e-01
<VARIANCE> 25
 2.381943e+01 3.168683e+01 3.073319e+01 3.372535e+01 3.205265e+01 4.222814e+01 3.201194e+01 3.300840e+01 3.498757e+01 3.150789e+01 2.243595e+01 1.901501e+01 4.852379e-01 7.335701e-01 1.011674e+00 1.084659e+00 1.496157e+00 1.967000e+00 1.648281e+00 1.688958e+00 1.686677e+00 1.518985e+00 1.305284e+00 1.193857e+00 3.831035e-01
<GCONST> 8.833953e+01
~t "T_o"
<ENDHMM>
~h "n-o+l"
<BEGINHMM>
<NUMSTATES> 5
<STATE> 2
<MEAN> 25
 8.202134e+00 8.756948e-01 -1.556870e+00 -2.412576e+00 -4.135490e+00 -5.283045e+00 -1.325630e+00 5.514442e-01 -3.256593e+00 -4.464030e+00 -3.179199e+00 -1.018459e+00 8.533680e-01 5.628624e-02 -4.272498e-01 -1.163086e+00 -1.742013e+00 -1.833407e+00 -1.006363e-01 8.327968e-01 2.565329e-01 -1.784475e-01 -2.551433e-01 1.000556e-01 7.841955e-01
<VARIANCE> 25
 2.727819e+01 4.614404e+01 4.546624e+01 5.624189e+01 6.257309e+01 6.102062e+01 4.518742e+01 4.939813e+01 5.469617e+01 4.219932e+01 3.056493e+01 2.847985e+01 1.604221e+00 2.714622e+00 2.414845e+00 3.306103e+00 3.399673e+00 4.293542e+00 4.410888e+00 3.910635e+00 3.812121e+00 3.509329e+00 2.851977e+00 2.694980e+00 1.552250e+00
<GCONST> 1.055529e+02
<STATE> 3
<MEAN> 25
 9.608891e+00 1.841884e+00 -1.624231e+00 -4.843653e+00 -1.056682e+01 -1.047259e+01 -3.275502e-01 4.228262e+00 -8.981493e-01 -3.707518e+00 -3.771726e+00 -1.847208e+00 -1.603226e-01 3.746803e-01 2.492852e-02 -5.283350e-02 -1.316152e-01 2.060792e-01 2.320018e-01 3.473101e-01 4.636069e-01 2.421327e-01 -1.011645e-03 -9.001540e-02 -4.208844e-01
<VARIANCE> 25
 2.191664e+01 3.832346e+01 3.536129e+01 4.552036e+01 5.146196e+01 5.402416e+01 4.532333e+01 4.316967e+01 5.194213e+01 3.791486e+01 2.724122e+01 2.477335e+01 5.759985e-01 1.296905e+00 1.329783e+00 1.436117e+00 2.015944e+00 2.854960e+00 1.984985e+00 2.227589e+00 2.343580e+00 2.045362e+00 1.638120e+00 1.449960e+00 1.066268e+00
<GCONST> 9.576168e+01
<STATE> 4
<MEAN> 25
 5.920141e+00 4.729104e+00 -6.619071e-01 -3.592440e+00 -6.668617e+00 -4.437122e+00 3.776827e-01 3.175261e+00 9.050462e-01 -1.454790e+00 -2.326509e+00 -1.249121e+00 -6.257654e-01 -3.906129e-02 1.678127e-01 4.218079e-01 7.039407e-01 9.980335e-01 2.885799e-01 -2.038472e-01 -1.773957e-02 1.877047e-01 2.155907e-01 8.154663e-02 -5.345345e-01
<VARIANCE> 25
 2.381943e+01 3.168683e+01 3.073319e+01 3.372535e+01 3.205265e+01 4.222814e+01 3.201194e+01 3.300840e+01 3.498757e+01 3.150789e+01 2.243595e+01 1.901501e+01 4.852379e-01 7.335701e-01 1.011674e+00 1.084659e+00 1.496157e+00 1.967000e+00 1.648281e+00 1.688958e+00 1.686677e+00 1.518985e+00 1.305284e+00 1.193857e+00 3.831035e-01
<GCONST> 8.833953e+01
~t "T_o"
<ENDHMM>
~h "n-o+m"
<BEGINHMM>
<NUMSTATES> 5
<STATE> 2
<MEAN> 25
 8.202134e+00 8.756948e-01 -1.556870e+00 -2.412576e+00 -4.135490e+00 -5.283045e+00 -1.325630e+00 5.514442e-01 -3.256593e+00 -4.464030e+00 -3.179199e+00 -1.018459e+00 8.533680e-01 5.628624e-02 -4.272498e-01 -1.163086e+00 -1.742013e+00 -1.833407e+00 -1.006363e-01 8.327968e-01 2.565329e-01 -1.784475e-01 -2.551433e-01 1.000556e-01 7.841955e-01
<VARIANCE> 25
 2.727819e+01 4.614404e+01 4.546624e+01 5.624189e+01 6.257309e+01 6.102062e+01 4.518742e+01 4.939813e+01 5.469617e+01 4.219932e+01 3.056493e+01 2.847985e+01 1.604221e+00 2.714622e+00 2.414845e+00 3.306103e+00 3.399673e+00 4.293542e+00 4.410888e+00 3.910635e+00 3.812121e+00 3.509329e+00 2.851977e+00 2.694980e+00 1.552250e+00
<GCONST> 1.055529e+02
<STATE> 3
<MEAN> 25
 9.608891e+00 1.841884e+00 -1.624231e+00 -4.843653e+00 -1.056682e+01 -1.047259e+01 -3.275502e-01 4.228262e+00 -8.981493e-01 -3.707518e+00 -3.771726e+00 -1.847208e+00 -1.603226e-01 3.746803e-01 2.492852e-02 -5.283350e-02 -1.316152e-01 2.060792e-01 2.320018e-01 3.473101e-01 4.636069e-01 2.421327e-01 -1.011645e-03 -9.001540e-02 -4.208844e-01
<VARIANCE> 25
 2.191664e+01 3.832346e+01 3.536129e+01 4.552036e+01 5.146196e+01 5.402416e+01 4.532333e+01 4.316967e+01 5.194213e+01 3.791486e+01 2.724122e+01 2.477335e+01 5.759985e-01 1.296905e+00 1.329783e+00 1.436117e+00 2.015944e+00 2.854960e+00 1.984985e+00 2.227589e+00 2.343580e+00 2.045362e+00 1.638120e+00 1.449960e+00 1.066268e+00
<GCONST> 9.576168e+01
<STATE> 4
<MEAN> 25
 5.920141e+00 4.729104e+00 -6.619071e-01 -3.592440e+00 -6.668617e+00 -4.437122e+00 3.776827e-01 3.175261e+00 9.050462e-01 -1.454790e+00 -2.326509e+00 -1.249121e+00 -6.257654e-01 -3.906129e-02 1.678127e-01 4.218079e-01 7.039407e-01 9.980335e-01 2.885799e-01 -2.038472e-01 -1.773957e-02 1.877047e-01 2.155907e-01 8.154663e-02 -5.345345e-01
<VARIANCE> 25
 2.381943e+01 3.168683e+01 3.073319e+01 3.372535e+01 3.205265e+01 4.222814e+01 3.201194e+01 3.300840e+01 3.498757e+01 3.150789e+01 2.243595e+01 1.901501e+01 4.852379e-01 7.335701e-01 1.011674e+00 1.084659e+00 1.496157e+00 1.967000e+00 1.648281e+00 1.688958e+00 1.686677e+00 1.518985e+00 1.305284e+00 1.193857e+00 3.831035e-01
<GCONST> 8.833953e+01
~t "T_o"
<ENDHMM>
~h "n-o+n"
<BEGINHMM>
<NUMSTATES> 5
<STATE> 2
<MEAN> 25
 8.202134e+00 8.756948e-01 -1.556870e+00 -2.412576e+00 -4.135490e+00 -5.283045e+00 -1.325630e+00 5.514442e-01 -3.256593e+00 -4.464030e+00 -3.179199e+00 -1.018459e+00 8.533680e-01 5.628624e-02 -4.272498e-01 -1.163086e+00 -1.742013e+00 -1.833407e+00 -1.006363e-01 8.327968e-01 2.565329e-01 -1.784475e-01 -2.551433e-01 1.000556e-01 7.841955e-01
<VARIANCE> 25
 2.727819e+01 4.614404e+01 4.546624e+01 5.624189e+01 6.257309e+01 6.102062e+01 4.518742e+01 4.939813e+01 5.469617e+01 4.219932e+01 3.056493e+01 2.847985e+01 1.604221e+00 2.714622e+00 2.414845e+00 3.306103e+00 3.399673e+00 4.293542e+00 4.410888e+00 3.910635e+00 3.812121e+00 3.509329e+00 2.851977e+00 2.694980e+00 1.552250e+00
<GCONST> 1.055529e+02
<STATE> 3
<MEAN> 25
 9.608891e+00 1.841884e+00 -1.624231e+00 -4.843653e+00 -1.056682e+01 -1.047259e+01 -3.275502e-01 4.228262e+00 -8.981493e-01 -3.707518e+00 -3.771726e+00 -1.847208e+00 -1.603226e-01 3.746803e-01 2.492852e-02 -5.283350e-02 -1.316152e-01 2.060792e-01 2.320018e-01 3.473101e-01 4.636069e-01 2.421327e-01 -1.011645e-03 -9.001540e-02 -4.208844e-01
<VARIANCE> 25
 2.191664e+01 3.832346e+01 3.536129e+01 4.552036e+01 5.146196e+01 5.402416e+01 4.532333e+01 4.316967e+01 5.194213e+01 3.791486e+01 2.724122e+01 2.477335e+01 5.759985e-01 1.296905e+00 1.329783e+00 1.436117e+00 2.015944e+00 2.854960e+00 1.984985e+00 2.227589e+00 2.343580e+00 2.045362e+00 1.638120e+00 1.449960e+00 1.066268e+00
<GCONST> 9.576168e+01
<STATE> 4
<MEAN> 25
 5.920141e+00 4.729104e+00 -6.619071e-01 -3.592440e+00 -6.668617e+00 -4.437122e+00 3.776827e-01 3.175261e+00 9.050462e-01 -1.454790e+00 -2.326509e+00 -1.249121e+00 -6.257654e-01 -3.906129e-02 1.678127e-01 4.218079e-01 7.039407e-01 9.980335e-01 2.885799e-01 -2.038472e-01 -1.773957e-02 1.877047e-01 2.155907e-01 8.154663e-02 -5.345345e-01
<VARIANCE> 25
 2.381943e+01 3.168683e+01 3.073319e+01 3.372535e+01 3.205265e+01 4.222814e+01 3.201194e+01 3.300840e+01 3.498757e+01 3.150789e+01 2.243595e+01 1.901501e+01 4.852379e-01 7.335701e-01 1.011674e+00 1.084659e+00 1.496157e+00 1.967000e+00 1.648281e+00 1.688958e+00 1.686677e+00 1.518985e+00 1.305284e+00 1.193857e+00 3.831035e-01
<GCONST> 8.833953e+01
~t "T_o"
<ENDHMM>
~h "n-o+p"
<BEGINHMM>
<NUMSTATES> 5
<STATE> 2
<MEAN> 25
 8.202134e+00 8.756948e-01 -1.556870e+00 -2.412576e+00 -4.135490e+00 -5.283045e+00 -1.325630e+00 5.514442e-01 -3.256593e+00 -4.464030e+00 -3.179199e+00 -1.018459e+00 8.533680e-01 5.628624e-02 -4.272498e-01 -1.163086e+00 -1.742013e+00 -1.833407e+00 -1.006363e-01 8.327968e-01 2.565329e-01 -1.784475e-01 -2.551433e-01 1.000556e-01 7.841955e-01
<VARIANCE> 25
 2.727819e+01 4.614404e+01 4.546624e+01 5.624189e+01 6.257309e+01 6.102062e+01 4.518742e+01 4.939813e+01 5.469617e+01 4.219932e+01 3.056493e+01 2.847985e+01 1.604221e+00 2.714622e+00 2.414845e+00 3.306103e+00 3.399673e+00 4.293542e+00 4.410888e+00 3.910635e+00 3.812121e+00 3.509329e+00 2.851977e+00 2.694980e+00 1.552250e+00
<GCONST> 1.055529e+02
<STATE> 3
<MEAN> 25
 9.608891e+00 1.841884e+00 -1.624231e+00 -4.843653e+00 -1.056682e+01 -1.047259e+01 -3.275502e-01 4.228262e+00 -8.981493e-01 -3.707518e+00 -3.771726e+00 -1.847208e+00 -1.603226e-01 3.746803e-01 2.492852e-02 -5.283350e-02 -1.316152e-01 2.060792e-01 2.320018e-01 3.473101e-01 4.636069e-01 2.421327e-01 -1.011645e-03 -9.001540e-02 -4.208844e-01
<VARIANCE> 25
 2.191664e+01 3.832346e+01 3.536129e+01 4.552036e+01 5.146196e+01 5.402416e+01 4.532333e+01 4.316967e+01 5.194213e+01 3.791486e+01 2.724122e+01 2.477335e+01 5.759985e-01 1.296905e+00 1.329783e+00 1.436117e+00 2.015944e+00 2.854960e+00 1.984985e+00 2.227589e+00 2.343580e+00 2.045362e+00 1.638120e+00 1.449960e+00 1.066268e+00
<GCONST> 9.576168e+01
<STATE> 4
<MEAN> 25
 5.920141e+00 4.729104e+00 -6.619071e-01 -3.592440e+00 -6.668617e+00 -4.437122e+00 3.776827e-01 3.175261e+00 9.050462e-01 -1.454790e+00 -2.326509e+00 -1.249121e+00 -6.257654e-01 -3.906129e-02 1.678127e-01 4.218079e-01 7.039407e-01 9.980335e-01 2.885799e-01 -2.038472e-01 -1.773957e-02 1.877047e-01 2.155907e-01 8.154663e-02 -5.345345e-01
<VARIANCE> 25
 2.381943e+01 3.168683e+01 3.073319e+01 3.372535e+01 3.205265e+01 4.222814e+01 3.201194e+01 3.300840e+01 3.498757e+01 3.150789e+01 2.243595e+01 1.901501e+01 4.852379e-01 7.335701e-01 1.011674e+00 1.084659e+00 1.496157e+00 1.967000e+00 1.648281e+00 1.688958e+00 1.686677e+00 1.518985e+00 1.305284e+00 1.193857e+00 3.831035e-01
<GCONST> 8.833953e+01
~t "T_o"
<ENDHMM>
~h "n-o+s"
<BEGINHMM>
<NUMSTATES> 5
<STATE> 2
<MEAN> 25
 8.202134e+00 8.756948e-01 -1.556870e+00 -2.412576e+00 -4.135490e+00 -5.283045e+00 -1.325630e+00 5.514442e-01 -3.256593e+00 -4.464030e+00 -3.179199e+00 -1.018459e+00 8.533680e-01 5.628624e-02 -4.272498e-01 -1.163086e+00 -1.742013e+00 -1.833407e+00 -1.006363e-01 8.327968e-01 2.565329e-01 -1.784475e-01 -2.551433e-01 1.000556e-01 7.841955e-01
<VARIANCE> 25
 2.727819e+01 4.614404e+01 4.546624e+01 5.624189e+01 6.257309e+01 6.102062e+01 4.518742e+01 4.939813e+01 5.469617e+01 4.219932e+01 3.056493e+01 2.847985e+01 1.604221e+00 2.714622e+00 2.414845e+00 3.306103e+00 3.399673e+00 4.293542e+00 4.410888e+00 3.910635e+00 3.812121e+00 3.509329e+00 2.851977e+00 2.694980e+00 1.552250e+00
<GCONST> 1.055529e+02
<STATE> 3
<MEAN> 25
 9.608891e+00 1.841884e+00 -1.624231e+00 -4.843653e+00 -1.056682e+01 -1.047259e+01 -3.275502e-01 4.228262e+00 -8.981493e-01 -3.707518e+00 -3.771726e+00 -1.847208e+00 -1.603226e-01 3.746803e-01 2.492852e-02 -5.283350e-02 -1.316152e-01 2.060792e-01 2.320018e-01 3.473101e-01 4.636069e-01 2.421327e-01 -1.011645e-03 -9.001540e-02 -4.208844e-01
<VARIANCE> 25
 2.191664e+01 3.832346e+01 3.536129e+01 4.552036e+01 5.146196e+01 5.402416e+01 4.532333e+01 4.316967e+01 5.194213e+01 3.791486e+01 2.724122e+01 2.477335e+01 5.759985e-01 1.296905e+00 1.329783e+00 1.436117e+00 2.015944e+00 2.854960e+00 1.984985e+00 2.227589e+00 2.343580e+00 2.045362e+00 1.638120e+00 1.449960e+00 1.066268e+00
<GCONST> 9.576168e+01
<STATE> 4
<MEAN> 25
 5.920141e+00 4.729104e+00 -6.619071e-01 -3.592440e+00 -6.668617e+00 -4.437122e+00 3.776827e-01 3.175261e+00 9.050462e-01 -1.454790e+00 -2.326509e+00 -1.249121e+00 -6.257654e-01 -3.906129e-02 1.678127e-01 4.218079e-01 7.039407e-01 9.980335e-01 2.885799e-01 -2.038472e-01 -1.773957e-02 1.877047e-01 2.155907e-01 8.154663e-02 -5.345345e-01
<VARIANCE> 25
 2.381943e+01 3.168683e+01 3.073319e+01 3.372535e+01 3.205265e+01 4.222814e+01 3.201194e+01 3.300840e+01 3.498757e+01 3.150789e+01 2.243595e+01 1.901501e+01 4.852379e-01 7.335701e-01 1.011674e+00 1.084659e+00 1.496157e+00 1.967000e+00 1.648281e+00 1.688958e+00 1.686677e+00 1.518985e+00 1.305284e+00 1.193857e+00 3.831035e-01
<GCONST> 8.833953e+01
~t "T_o"
<ENDHMM>
~h "a-u+d"
<BEGINHMM>
<NUMSTATES> 5
<STATE> 2
<MEAN> 25
 5.841117e+00 4.888117e+00 2.686566e+00 -7.820466e-01 -3.509169e+00 -4.456264e+00 -1.667651e+00 1.072235e+00 -1.711213e+00 -3.398537e+00 -2.842877e+00 -2.182095e+00 1.576147e+00 1.045471e+00 4.197832e-01 -3.047917e-01 -1.355020e+00 -2.229248e+00 -1.097899e+00 2.456878e-01 -2.158980e-01 -6.960759e-01 -8.961666e-01 -8.212398e-01 8.114035e-01
<VARIANCE> 25
 3.111406e+01 4.019774e+01 4.504975e+01 4.146431e+01 4.849731e+01 5.661042e+01 4.281160e+01 4.095763e+01 5.025994e+01 4.244762e+01 3.143690e+01 2.546618e+01 2.317891e+00 3.149550e+00 3.087908e+00 3.151040e+00 3.396149e+00 4.573932e+00 4.195843e+00 4.035922e+00 4.034451e+00 3.409064e+00 3.195040e+00 2.762604e+00 1.784756e+00
<GCONST> 1.055627e+02
<STATE> 3
<MEAN> 25
 8.658910e+00 5.000401e+00 2.954348e+00 -2.671335e+00 -7.457289e+00 -1.043769e+01 -3.682248e+00 2.342003e+00 -1.993913e+00 -4.053403e+00 -3.655970e+00 -3.858294e+00 3.619523e-01 -4.174033e-01 -5.004941e-01 -5.413764e-01 -3.661138e-01 -3.691237e-01 1.985084e-01 6.194838e-01 2.091379e-01 -3.094780e-01 -4.365371e-01 -2.890210e-01 4.863066e-01
<VARIANCE> 25
 1.982055e+01 3.754977e+01 4.485072e+01 4.602500e+01 4.835411e+01 5.230594e+01 4.533890e+01 4.689768e+01 6.356376e+01 4.307386e+01 3.556441e+01 3.444476e+01 5.694164e-01 2.171613e+00 2.316406e+00 1.907328e+00 2.369149e+00 3.386717e+00 2.927253e+00 3.053224e+00 2.962884e+00 2.837181e+00 2.662840e+00 2.209183e+00 9.819031e-01
<GCONST> 1.005687e+02
<STATE> 4
<MEAN> 25
 7.936549e+00 5.316041e+00 2.239468e+00 -2.040418e+00 -5.537446e+00 -6.998611e+00 -2.096663e+00 2.982105e+00 -1.124920e+00 -4.924550e+00 -4.786534e+00 -3.909861e+00 -1.936503e-01 -3.466140e-01 -3.004697e-01 2.804921e-01 7.471921e-01 1.043675e+00 4.173047e-01 -2.147343e-01 -1.894316e-01 -7.248510e-02 1.116081e-02 1.502710e-01 -1.055882e-01
<VARIANCE> 25
 1.968233e+01 3.080829e+01 3.984565e+01 3.763365e+01 3.553752e+01 4.067476e+01 4.069976e+01 3.915368e+01 5.144368e+01 3.819278e+01 3.066512e+01 2.631176e+01 3.753779e-01 1.220878e+00 1.362571e+00 1.493957e+00 2.004738e+00 2.727168e+00 2.026844e+00 2.105258e+00 2.403310e+00 2.200738e+00 1.975419e+00 1.823615e+00 5.097307e-01
<GCONST> 9.394715e+01
~t "T_u"
<ENDHMM>
~h "a-u+l"
<BEGINHMM>
<NUMSTATES> 5
<STATE> 2
<MEAN> 25
 5.841117e+00 4.888117e+00 2.686566e+00 -7.820466e-01 -3.509169e+00 -4.456264e+00 -1.667651e+00 1.072235e+00 -1.711213e+00 -3.398537e+00 -2.842877e+00 -2.182095e+00 1.576147e+00 1.045471e+00 4.197832e-01 -3.047917e-01 -1.355020e+00 -2.229248e+00 -1.097899e+00 2.456878e-01 -2.158980e-01 -6.960759e-01 -8.961666e-01 -8.212398e-01 8.114035e-01
<VARIANCE> 25
 3.111406e+01 4.019774e+01 4.504975e+01 4.146431e+01 4.849731e+01 5.661042e+01 4.281160e+01 4.095763e+01 5.025994e+01 4.244762e+01 3.143690e+01 2.546618e+01 2.317891e+00 3.149550e+00 3.087908e+00 3.151040e+00 3.396149e+00 4.573932e+00 4.195843e+00 4.035922e+00 4.034451e+00 3.409064e+00 3.195040e+00 2.762604e+00 1.784756e+00
<GCONST> 1.055627e+02
<STATE> 3
<MEAN> 25
 8.658910e+00 5.000401e+00 2.954348e+00 -2.671335e+00 -7.457289e+00 -1.043769e+01 -3.682248e+00 2.342003e+00 -1.993913e+00 -4.053403e+00 -3.655970e+00 -3.858294e+00 3.619523e-01 -4.174033e-01 -5.004941e-01 -5.413764e-01 -3.661138e-01 -3.691237e-01 1.985084e-01 6.194838e-01 2.091379e-01 -3.094780e-01 -4.365371e-01 -2.890210e-01 4.863066e-01
<VARIANCE> 25
 1.982055e+01 3.754977e+01 4.485072e+01 4.602500e+01 4.835411e+01 5.230594e+01 4.533890e+01 4.689768e+01 6.356376e+01 4.307386e+01 3.556441e+01 3.444476e+01 5.694164e-01 2.171613e+00 2.316406e+00 1.907328e+00 2.369149e+00 3.386717e+00 2.927253e+00 3.053224e+00 2.962884e+00 2.837181e+00 2.662840e+00 2.209183e+00 9.819031e-01
<GCONST> 1.005687e+02
<STATE> 4
<MEAN> 25
 7.936549e+00 5.316041e+00 2.239468e+00 -2.040418e+00 -5.537446e+00 -6.998611e+00 -2.096663e+00 2.982105e+00 -1.124920e+00 -4.924550e+00 -4.786534e+00 -3.909861e+00 -1.936503e-01 -3.466140e-01 -3.004697e-01 2.804921e-01 7.471921e-01 1.043675e+00 4.173047e-01 -2.147343e-01 -1.894316e-01 -7.248510e-02 1.116081e-02 1.502710e-01 -1.055882e-01
<VARIANCE> 25
 1.968233e+01 3.080829e+01 3.984565e+01 3.763365e+01 3.553752e+01 4.067476e+01 4.069976e+01 3.915368e+01 5.144368e+01 3.819278e+01 3.066512e+01 2.631176e+01 3.753779e-01 1.220878e+00 1.362571e+00 1.493957e+00 2.004738e+00 2.727168e+00 2.026844e+00 2.105258e+00 2.403310e+00 2.200738e+00 1.975419e+00 1.823615e+00 5.097307e-01
<GCONST> 9.394715e+01
~t "T_u"
<ENDHMM>
~h "a-u+n"
<BEGINHMM>
<NUMSTATES> 5
<STATE> 2
<MEAN> 25
 5.841117e+00 4.888117e+00 2.686566e+00 -7.820466e-01 -3.509169e+00 -4.456264e+00 -1.667651e+00 1.072235e+00 -1.711213e+00 -3.398537e+00 -2.842877e+00 -2.182095e+00 1.576147e+00 1.045471e+00 4.197832e-01 -3.047917e-01 -1.355020e+00 -2.229248e+00 -1.097899e+00 2.456878e-01 -2.158980e-01 -6.960759e-01 -8.961666e-01 -8.212398e-01 8.114035e-01
<VARIANCE> 25
 3.111406e+01 4.019774e+01 4.504975e+01 4.146431e+01 4.849731e+01 5.661042e+01 4.281160e+01 4.095763e+01 5.025994e+01 4.244762e+01 3.143690e+01 2.546618e+01 2.317891e+00 3.149550e+00 3.087908e+00 3.151040e+00 3.396149e+00 4.573932e+00 4.195843e+00 4.035922e+00 4.034451e+00 3.409064e+00 3.195040e+00 2.762604e+00 1.784756e+00
<GCONST> 1.055627e+02
<STATE> 3
<MEAN> 25
 8.658910e+00 5.000401e+00 2.954348e+00 -2.671335e+00 -7.457289e+00 -1.043769e+01 -3.682248e+00 2.342003e+00 -1.993913e+00 -4.053403e+00 -3.655970e+00 -3.858294e+00 3.619523e-01 -4.174033e-01 -5.004941e-01 -5.413764e-01 -3.661138e-01 -3.691237e-01 1.985084e-01 6.194838e-01 2.091379e-01 -3.094780e-01 -4.365371e-01 -2.890210e-01 4.863066e-01
<VARIANCE> 25
 1.982055e+01 3.754977e+01 4.485072e+01 4.602500e+01 4.835411e+01 5.230594e+01 4.533890e+01 4.689768e+01 6.356376e+01 4.307386e+01 3.556441e+01 3.444476e+01 5.694164e-01 2.171613e+00 2.316406e+00 1.907328e+00 2.369149e+00 3.386717e+00 2.927253e+00 3.053224e+00 2.962884e+00 2.837181e+00 2.662840e+00 2.209183e+00 9.819031e-01
<GCONST> 1.005687e+02
<STATE> 4
<MEAN> 25
 7.936549e+00 5.316041e+00 2.239468e+00 -2.040418e+00 -5.537446e+00 -6.998611e+00 -2.096663e+00 2.982105e+00 -1.124920e+00 -4.924550e+00 -4.786534e+00 -3.909861e+00 -1.936503e-01 -3.466140e-01 -3.004697e-01 2.804921e-01 7.471921e-01 1.043675e+00 4.173047e-01 -2.147343e-01 -1.894316e-01 -7.248510e-02 1.116081e-02 1.502710e-01 -1.055882e-01
<VARIANCE> 25
 1.968233e+01 3.080829e+01 3.984565e+01 3.763365e+01 3.553752e+01 4.067476e+01 4.069976e+01 3.915368e+01 5.144368e+01 3.819278e+01 3.066512e+01 2.631176e+01 3.753779e-01 1.220878e+00 1.362571e+00 1.493957e+00 2.004738e+00 2.727168e+00 2.026844e+00 2.105258e+00 2.403310e+00 2.200738e+00 1.975419e+00 1.823615e+00 5.097307e-01
<GCONST> 9.394715e+01
~t "T_u"
<ENDHMM>
~h "a-u+s"
<BEGINHMM>
<NUMSTATES> 5
<STATE> 2
<MEAN> 25
 5.841117e+00 4.888117e+00 2.686566e+00 -7.820466e-01 -3.509169e+00 -4.456264e+00 -1.667651e+00 1.072235e+00 -1.711213e+00 -3.398537e+00 -2.842877e+00 -2.182095e+00 1.576147e+00 1.045471e+00 4.197832e-01 -3.047917e-01 -1.355020e+00 -2.229248e+00 -1.097899e+00 2.456878e-01 -2.158980e-01 -6.960759e-01 -8.961666e-01 -8.212398e-01 8.114035e-01
<VARIANCE> 25
 3.111406e+01 4.019774e+01 4.504975e+01 4.146431e+01 4.849731e+01 5.661042e+01 4.281160e+01 4.095763e+01 5.025994e+01 4.244762e+01 3.143690e+01 2.546618e+01 2.317891e+00 3.149550e+00 3.087908e+00 3.151040e+00 3.396149e+00 4.573932e+00 4.195843e+00 4.035922e+00 4.034451e+00 3.409064e+00 3.195040e+00 2.762604e+00 1.784756e+00
<GCONST> 1.055627e+02
<STATE> 3
<MEAN> 25
 8.658910e+00 5.000401e+00 2.954348e+00 -2.671335e+00 -7.457289e+00 -1.043769e+01 -3.682248e+00 2.342003e+00 -1.993913e+00 -4.053403e+00 -3.655970e+00 -3.858294e+00 3.619523e-01 -4.174033e-01 -5.004941e-01 -5.413764e-01 -3.661138e-01 -3.691237e-01 1.985084e-01 6.194838e-01 2.091379e-01 -3.094780e-01 -4.365371e-01 -2.890210e-01 4.863066e-01
<VARIANCE> 25
 1.982055e+01 3.754977e+01 4.485072e+01 4.602500e+01 4.835411e+01 5.230594e+01 4.533890e+01 4.689768e+01 6.356376e+01 4.307386e+01 3.556441e+01 3.444476e+01 5.694164e-01 2.171613e+00 2.316406e+00 1.907328e+00 2.369149e+00 3.386717e+00 2.927253e+00 3.053224e+00 2.962884e+00 2.837181e+00 2.662840e+00 2.209183e+00 9.819031e-01
<GCONST> 1.005687e+02
<STATE> 4
<MEAN> 25
 7.936549e+00 5.316041e+00 2.239468e+00 -2.040418e+00 -5.537446e+00 -6.998611e+00 -2.096663e+00 2.982105e+00 -1.124920e+00 -4.924550e+00 -4.786534e+00 -3.909861e+00 -1.936503e-01 -3.466140e-01 -3.004697e-01 2.804921e-01 7.471921e-01 1.043675e+00 4.173047e-01 -2.147343e-01 -1.894316e-01 -7.248510e-02 1.116081e-02 1.502710e-01 -1.055882e-01
<VARIANCE> 25
 1.968233e+01 3.080829e+01 3.984565e+01 3.763365e+01 3.553752e+01 4.067476e+01 4.069976e+01 3.915368e+01 5.144368e+01 3.819278e+01 3.066512e+01 2.631176e+01 3.753779e-01 1.220878e+00 1.362571e+00 1.493957e+00 2.004738e+00 2.727168e+00 2.026844e+00 2.105258e+00 2.403310e+00 2.200738e+00 1.975419e+00 1.823615e+00 5.097307e-01
<GCONST> 9.394715e+01
~t "T_u"
<ENDHMM>
~h "a-u+t"
<BEGINHMM>
<NUMSTATES> 5
<STATE> 2
<MEAN> 25
 5.841117e+00 4.888117e+00 2.686566e+00 -7.820466e-01 -3.509169e+00 -4.456264e+00 -1.667651e+00 1.072235e+00 -1.711213e+00 -3.398537e+00 -2.842877e+00 -2.182095e+00 1.576147e+00 1.045471e+00 4.197832e-01 -3.047917e-01 -1.355020e+00 -2.229248e+00 -1.097899e+00 2.456878e-01 -2.158980e-01 -6.960759e-01 -8.961666e-01 -8.212398e-01 8.114035e-01
<VARIANCE> 25
 3.111406e+01 4.019774e+01 4.504975e+01 4.146431e+01 4.849731e+01 5.661042e+01 4.281160e+01 4.095763e+01 5.025994e+01 4.244762e+01 3.143690e+01 2.546618e+01 2.317891e+00 3.149550e+00 3.087908e+00 3.151040e+00 3.396149e+00 4.573932e+00 4.195843e+00 4.035922e+00 4.034451e+00 3.409064e+00 3.195040e+00 2.762604e+00 1.784756e+00
<GCONST> 1.055627e+02
<STATE> 3
<MEAN> 25
 8.658910e+00 5.000401e+00 2.954348e+00 -2.671335e+00 -7.457289e+00 -1.043769e+01 -3.682248e+00 2.342003e+00 -1.993913e+00 -4.053403e+00 -3.655970e+00 -3.858294e+00 3.619523e-01 -4.174033e-01 -5.004941e-01 -5.413764e-01 -3.661138e-01 -3.691237e-01 1.985084e-01 6.194838e-01 2.091379e-01 -3.094780e-01 -4.365371e-01 -2.890210e-01 4.863066e-01
<VARIANCE> 25
 1.982055e+01 3.754977e+01 4.485072e+01 4.602500e+01 4.835411e+01 5.230594e+01 4.533890e+01 4.689768e+01 6.356376e+01 4.307386e+01 3.556441e+01 3.444476e+01 5.694164e-01 2.171613e+00 2.316406e+00 1.907328e+00 2.369149e+00 3.386717e+00 2.927253e+00 3.053224e+00 2.962884e+00 2.837181e+00 2.662840e+00 2.209183e+00 9.819031e-01
<GCONST> 1.005687e+02
<STATE> 4
<MEAN> 25
 7.936549e+00 5.316041e+00 2.239468e+00 -2.040418e+00 -5.537446e+00 -6.998611e+00 -2.096663e+00 2.982105e+00 -1.124920e+00 -4.924550e+00 -4.786534e+00 -3.909861e+00 -1.936503e-01 -3.466140e-01 -3.004697e-01 2.804921e-01 7.471921e-01 1.043675e+00 4.173047e-01 -2.147343e-01 -1.894316e-01 -7.248510e-02 1.116081e-02 1.502710e-01 -1.055882e-01
<VARIANCE> 25
 1.968233e+01 3.080829e+01 3.984565e+01 3.763365e+01 3.553752e+01 4.067476e+01 4.069976e+01 3.915368e+01 5.144368e+01 3.819278e+01 3.066512e+01 2.631176e+01 3.753779e-01 1.220878e+00 1.362571e+00 1.493957e+00 2.004738e+00 2.727168e+00 2.026844e+00 2.105258e+00 2.403310e+00 2.200738e+00 1.975419e+00 1.823615e+00 5.097307e-01
<GCONST> 9.394715e+01
~t "T_u"
<ENDHMM>
~h "p-o+ll"
<BEGINHMM>
<NUMSTATES> 5
<STATE> 2
<MEAN> 25
 8.202134e+00 8.756948e-01 -1.556870e+00 -2.412576e+00 -4.135490e+00 -5.283045e+00 -1.325630e+00 5.514442e-01 -3.256593e+00 -4.464030e+00 -3.179199e+00 -1.018459e+00 8.533680e-01 5.628624e-02 -4.272498e-01 -1.163086e+00 -1.742013e+00 -1.833407e+00 -1.006363e-01 8.327968e-01 2.565329e-01 -1.784475e-01 -2.551433e-01 1.000556e-01 7.841955e-01
<VARIANCE> 25
 2.727819e+01 4.614404e+01 4.546624e+01 5.624189e+01 6.257309e+01 6.102062e+01 4.518742e+01 4.939813e+01 5.469617e+01 4.219932e+01 3.056493e+01 2.847985e+01 1.604221e+00 2.714622e+00 2.414845e+00 3.306103e+00 3.399673e+00 4.293542e+00 4.410888e+00 3.910635e+00 3.812121e+00 3.509329e+00 2.851977e+00 2.694980e+00 1.552250e+00
<GCONST> 1.055529e+02
<STATE> 3
<MEAN> 25
 9.608891e+00 1.841884e+00 -1.624231e+00 -4.843653e+00 -1.056682e+01 -1.047259e+01 -3.275502e-01 4.228262e+00 -8.981493e-01 -3.707518e+00 -3.771726e+00 -1.847208e+00 -1.603226e-01 3.746803e-01 2.492852e-02 -5.283350e-02 -1.316152e-01 2.060792e-01 2.320018e-01 3.473101e-01 4.636069e-01 2.421327e-01 -1.011645e-03 -9.001540e-02 -4.208844e-01
<VARIANCE> 25
 2.191664e+01 3.832346e+01 3.536129e+01 4.552036e+01 5.146196e+01 5.402416e+01 4.532333e+01 4.316967e+01 5.194213e+01 3.791486e+01 2.724122e+01 2.477335e+01 5.759985e-01 1.296905e+00 1.329783e+00 1.436117e+00 2.015944e+00 2.854960e+00 1.984985e+00 2.227589e+00 2.343580e+00 2.045362e+00 1.638120e+00 1.449960e+00 1.066268e+00
<GCONST> 9.576168e+01
<STATE> 4
<MEAN> 25
 5.920141e+00 4.729104e+00 -6.619071e-01 -3.592440e+00 -6.668617e+00 -4.437122e+00 3.776827e-01 3.175261e+00 9.050462e-01 -1.454790e+00 -2.326509e+00 -1.249121e+00 -6.257654e-01 -3.906129e-02 1.678127e-01 4.218079e-01 7.039407e-01 9.980335e-01 2.885799e-01 -2.038472e-01 -1.773957e-02 1.877047e-01 2.155907e-01 8.154663e-02 -5.345345e-01
<VARIANCE> 25
 2.381943e+01 3.168683e+01 3.073319e+01 3.372535e+01 3.205265e+01 4.222814e+01 3.201194e+01 3.300840e+01 3.498757e+01 3.150789e+01 2.243595e+01 1.901501e+01 4.852379e-01 7.335701e-01 1.011674e+00 1.084659e+00 1.496157e+00 1.967000e+00 1.648281e+00 1.688958e+00 1.686677e+00 1.518985e+00 1.305284e+00 1.193857e+00 3.831035e-01
<GCONST> 8.833953e+01
~t "T_o"
<ENDHMM>
~h "ll-a+b"
<BEGINHMM>
<NUMSTATES> 5
<STATE> 2
<MEAN> 25
 8.084209e+00 -3.246555e+00 -4.886938e+00 -2.890126e+00 -1.922659e+00 -4.591505e+00 -1.062124e+00 -1.533606e+00 -3.011539e+00 -1.419097e+00 7.822737e-01 1.974153e+00 8.531939e-01 -1.219489e+00 -1.591901e+00 -1.511451e+00 -1.099942e+00 -1.081241e+00 3.296968e-01 2.435892e-01 2.131322e-01 7.433307e-01 1.096173e+00 1.076555e+00 1.531909e+00
<VARIANCE> 25
 3.102556e+01 3.982352e+01 4.648204e+01 6.052976e+01 4.865224e+01 5.364120e+01 4.957391e+01 5.206113e+01 4.994263e+01 4.377484e+01 3.566540e+01 3.010361e+01 2.105191e+00 2.133569e+00 2.607650e+00 3.361774e+00 2.917656e+00 3.954443e+00 3.398865e+00 3.319243e+00 3.668817e+00 4.076825e+00 3.093344e+00 2.673295e+00 1.675560e+00
<GCONST> 1.052759e+02
<STATE> 3
<MEAN> 25
 9.462610e+00 -6.897775e+00 -8.743549e+00 -6.083593e+00 -4.604442e+00 -5.470979e+00 1.397076e+00 -2.830499e-01 -1.629562e+00 7.007640e-01 2.659651e+00 3.340820e+00 3.290816e-02 -1.735238e-01 -3.625012e-01 -3.627358e-01 -1.769637e-01 2.254089e-01 4.766614e-01 2.827543e-01 2.371980e-01 1.767752e-01 8.445666e-02 6.974697e-02 8.193482e-02
<VARIANCE> 25
 2.840129e+01 3.570125e+01 4.138834e+01 4.038225e+01 4.118876e+01 4.148624e+01 4.739182e+01 4.747406e+01 4.473821e+01 4.189992e+01 3.449903e+01 2.805832e+01 3.302394e-01 8.424883e-01 9.393210e-01 1.242460e+00 1.324397e+00 1.496400e+00 1.901740e+00 1.780651e+00 1.803969e+00 1.726919e+00 1.430944e+00 1.179275e+00 3.783611e-01
<GCONST> 9.133002e+01
<STATE> 4
<MEAN> 25
 8.177530e+00 -2.680661e+00 -7.293503e+00 -5.932261e+00 -3.758124e+00 -2.794274e+00 1.176165e+00 -3.390664e-01 -1.368642e+00 2.573896e-01 2.133668e+00 3.287408e+00 -4.538044e-01 8.704351e-01 7.276899e-01 4.679444e-01 4.150407e-01 5.706517e-01 -1.937626e-01 -1.382255e-01 1.753797e-02 -1.629017e-01 -2.942949e-01 -3.140077e-01 -8.826797e-01
<VARIANCE> 25
 2.215926e+01 3.099335e+01 3.486272e+01 3.668752e+01 3.283007e+01 3.965223e+01 3.500597e+01 3.826480e+01 3.512437e+01 3.170736e+01 2.563973e+01 2.200531e+01 5.861269e-01 9.910762e-01 1.080531e+00 1.252255e+00 1.395680e+00 1.835312e+00 1.787168e+00 1.826652e+00 1.993582e+00 1.853269e+00 1.609923e+00 1.318195e+00 6.483233e-01
<GCONST> 9.086413e+01
~t "T_a"
<ENDHMM>
~h "ll-a+m"
<BEGINHMM>
<NUMSTATES> 5
<STATE> 2
<MEAN> 25
 8.084209e+00 -3.246555e+00 -4.886938e+00 -2.890126e+00 -1.922659e+00 -4.591505e+00 -1.062124e+00 -1.533606e+00 -3.011539e+00 -1.419097e+00 7.822737e-01 1.974153e+00 8.531939e-01 -1.219489e+00 -1.591901e+00 -1.511451e+00 -1.099942e+00 -1.081241e+00 3.296968e-01 2.435892e-01 2.131322e-01 7.433307e-01 1.096173e+00 1.076555e+00 1.531909e+00
<VARIANCE> 25
 3.102556e+01 3.982352e+01 4.648204e+01 6.052976e+01 4.865224e+01 5.364120e+01 4.957391e+01 5.206113e+01 4.994263e+01 4.377484e+01 3.566540e+01 3.010361e+01 2.105191e+00 2.133569e+00 2.607650e+00 3.361774e+00 2.917656e+00 3.954443e+00 3.398865e+00 3.319243e+00 3.668817e+00 4.076825e+00 3.093344e+00 2.673295e+00 1.675560e+00
<GCONST> 1.052759e+02
<STATE> 3
<MEAN> 25
 9.462610e+00 -6.897775e+00 -8.743549e+00 -6.083593e+00 -4.604442e+00 -5.470979e+00 1.397076e+00 -2.830499e-01 -1.629562e+00 7.007640e-01 2.659651e+00 3.340820e+00 3.290816e-02 -1.735238e-01 -3.625012e-01 -3.627358e-01 -1.769637e-01 2.254089e-01 4.766614e-01 2.827543e-01 2.371980e-01 1.767752e-01 8.445666e-02 6.974697e-02 8.193482e-02
<VARIANCE> 25
 2.840129e+01 3.570125e+01 4.138834e+01 4.038225e+01 4.118876e+01 4.148624e+01 4.739182e+01 4.747406e+01 4.473821e+01 4.189992e+01 3.449903e+01 2.805832e+01 3.302394e-01 8.424883e-01 9.393210e-01 1.242460e+00 1.324397e+00 1.496400e+00 1.901740e+00 1.780651e+00 1.803969e+00 1.726919e+00 1.430944e+00 1.179275e+00 3.783611e-01
<GCONST> 9.133002e+01
<STATE> 4
<MEAN> 25
 8.177530e+00 -2.680661e+00 -7.293503e+00 -5.932261e+00 -3.758124e+00 -2.794274e+00 1.176165e+00 -3.390664e-01 -1.368642e+00 2.573896e-01 2.133668e+00 3.287408e+00 -4.538044e-01 8.704351e-01 7.276899e-01 4.679444e-01 4.150407e-01 5.706517e-01 -1.937626e-01 -1.382255e-01 1.753797e-02 -1.629017e-01 -2.942949e-01 -3.140077e-01 -8.826797e-01
<VARIANCE> 25
 2.215926e+01 3.099335e+01 3.486272e+01 3.668752e+01 3.283007e+01 3.965223e+01 3.500597e+01 3.826480e+01 3.512437e+01 3.170736e+01 2.563973e+01 2.200531e+01 5.861269e-01 9.910762e-01 1.080531e+00 1.252255e+00 1.395680e+00 1.835312e+00 1.787168e+00 1.826652e+00 1.993582e+00 1.853269e+00 1.609923e+00 1.318195e+00 6.483233e-01
<GCONST> 9.086413e+01
~t "T_a"
<ENDHMM>
~h "ll-a+n"
<BEGINHMM>
<NUMSTATES> 5
<STATE> 2
<MEAN> 25
 8.084209e+00 -3.246555e+00 -4.886938e+00 -2.890126e+00 -1.922659e+00 -4.591505e+00 -1.062124e+00 -1.533606e+00 -3.011539e+00 -1.419097e+00 7.822737e-01 1.974153e+00 8.531939e-01 -1.219489e+00 -1.591901e+00 -1.511451e+00 -1.099942e+00 -1.081241e+00 3.296968e-01 2.435892e-01 2.131322e-01 7.433307e-01 1.096173e+00 1.076555e+00 1.531909e+00
<VARIANCE> 25
 3.102556e+01 3.982352e+01 4.648204e+01 6.052976e+01 4.865224e+01 5.364120e+01 4.957391e+01 5.206113e+01 4.994263e+01 4.377484e+01 3.566540e+01 3.010361e+01 2.105191e+00 2.133569e+00 2.607650e+00 3.361774e+00 2.917656e+00 3.954443e+00 3.398865e+00 3.319243e+00 3.668817e+00 4.076825e+00 3.093344e+00 2.673295e+00 1.675560e+00
<GCONST> 1.052759e+02
<STATE> 3
<MEAN> 25
 9.462610e+00 -6.897775e+00 -8.743549e+00 -6.083593e+00 -4.604442e+00 -5.470979e+00 1.397076e+00 -2.830499e-01 -1.629562e+00 7.007640e-01 2.659651e+00 3.340820e+00 3.290816e-02 -1.735238e-01 -3.625012e-01 -3.627358e-01 -1.769637e-01 2.254089e-01 4.766614e-01 2.827543e-01 2.371980e-01 1.767752e-01 8.445666e-02 6.974697e-02 8.193482e-02
<VARIANCE> 25
 2.840129e+01 3.570125e+01 4.138834e+01 4.038225e+01 4.118876e+01 4.148624e+01 4.739182e+01 4.747406e+01 4.473821e+01 4.189992e+01 3.449903e+01 2.805832e+01 3.302394e-01 8.424883e-01 9.393210e-01 1.242460e+00 1.324397e+00 1.496400e+00 1.901740e+00 1.780651e+00 1.803969e+00 1.726919e+00 1.430944e+00 1.179275e+00 3.783611e-01
<GCONST> 9.133002e+01
<STATE> 4
<MEAN> 25
 8.177530e+00 -2.680661e+00 -7.293503e+00 -5.932261e+00 -3.758124e+00 -2.794274e+00 1.176165e+00 -3.390664e-01 -1.368642e+00 2.573896e-01 2.133668e+00 3.287408e+00 -4.538044e-01 8.704351e-01 7.276899e-01 4.679444e-01 4.150407e-01 5.706517e-01 -1.937626e-01 -1.382255e-01 1.753797e-02 -1.629017e-01 -2.942949e-01 -3.140077e-01 -8.826797e-01
<VARIANCE> 25
 2.215926e+01 3.099335e+01 3.486272e+01 3.668752e+01 3.283007e+01 3.965223e+01 3.500597e+01 3.826480e+01 3.512437e+01 3.170736e+01 2.563973e+01 2.200531e+01 5.861269e-01 9.910762e-01 1.080531e+00 1.252255e+00 1.395680e+00 1.835312e+00 1.787168e+00 1.826652e+00 1.993582e+00 1.853269e+00 1.609923e+00 1.318195e+00 6.483233e-01
<GCONST> 9.086413e+01
~t "T_a"
<ENDHMM>
~h "ll-a+s"
<BEGINHMM>
<NUMSTATES> 5
<STATE> 2
<MEAN> 25
 8.084209e+00 -3.246555e+00 -4.886938e+00 -2.890126e+00 -1.922659e+00 -4.591505e+00 -1.062124e+00 -1.533606e+00 -3.011539e+00 -1.419097e+00 7.822737e-01 1.974153e+00 8.531939e-01 -1.219489e+00 -1.591901e+00 -1.511451e+00 -1.099942e+00 -1.081241e+00 3.296968e-01 2.435892e-01 2.131322e-01 7.433307e-01 1.096173e+00 1.076555e+00 1.531909e+00
<VARIANCE> 25
 3.102556e+01 3.982352e+01 4.648204e+01 6.052976e+01 4.865224e+01 5.364120e+01 4.957391e+01 5.206113e+01 4.994263e+01 4.377484e+01 3.566540e+01 3.010361e+01 2.105191e+00 2.133569e+00 2.607650e+00 3.361774e+00 2.917656e+00 3.954443e+00 3.398865e+00 3.319243e+00 3.668817e+00 4.076825e+00 3.093344e+00 2.673295e+00 1.675560e+00
<GCONST> 1.052759e+02
<STATE> 3
<MEAN> 25
 9.462610e+00 -6.897775e+00 -8.743549e+00 -6.083593e+00 -4.604442e+00 -5.470979e+00 1.397076e+00 -2.830499e-01 -1.629562e+00 7.007640e-01 2.659651e+00 3.340820e+00 3.290816e-02 -1.735238e-01 -3.625012e-01 -3.627358e-01 -1.769637e-01 2.254089e-01 4.766614e-01 2.827543e-01 2.371980e-01 1.767752e-01 8.445666e-02 6.974697e-02 8.193482e-02
<VARIANCE> 25
 2.840129e+01 3.570125e+01 4.138834e+01 4.038225e+01 4.118876e+01 4.148624e+01 4.739182e+01 4.747406e+01 4.473821e+01 4.189992e+01 3.449903e+01 2.805832e+01 3.302394e-01 8.424883e-01 9.393210e-01 1.242460e+00 1.324397e+00 1.496400e+00 1.901740e+00 1.780651e+00 1.803969e+00 1.726919e+00 1.430944e+00 1.179275e+00 3.783611e-01
<GCONST> 9.133002e+01
<STATE> 4
<MEAN> 25
 8.177530e+00 -2.680661e+00 -7.293503e+00 -5.932261e+00 -3.758124e+00 -2.794274e+00 1.176165e+00 -3.390664e-01 -1.368642e+00 2.573896e-01 2.133668e+00 3.287408e+00 -4.538044e-01 8.704351e-01 7.276899e-01 4.679444e-01 4.150407e-01 5.706517e-01 -1.937626e-01 -1.382255e-01 1.753797e-02 -1.629017e-01 -2.942949e-01 -3.140077e-01 -8.826797e-01
<VARIANCE> 25
 2.215926e+01 3.099335e+01 3.486272e+01 3.668752e+01 3.283007e+01 3.965223e+01 3.500597e+01 3.826480e+01 3.512437e+01 3.170736e+01 2.563973e+01 2.200531e+01 5.861269e-01 9.910762e-01 1.080531e+00 1.252255e+00 1.395680e+00 1.835312e+00 1.787168e+00 1.826652e+00 1.993582e+00 1.853269e+00 1.609923e+00 1.318195e+00 6.483233e-01
<GCONST> 9.086413e+01
~t "T_a"
<ENDHMM>
~h "d-a+b"
<BEGINHMM>
<NUMSTATES> 5
<STATE> 2
<MEAN> 25
 8.084209e+00 -3.246555e+00 -4.886938e+00 -2.890126e+00 -1.922659e+00 -4.591505e+00 -1.062124e+00 -1.533606e+00 -3.011539e+00 -1.419097e+00 7.822737e-01 1.974153e+00 8.531939e-01 -1.219489e+00 -1.591901e+00 -1.511451e+00 -1.099942e+00 -1.081241e+00 3.296968e-01 2.435892e-01 2.131322e-01 7.433307e-01 1.096173e+00 1.076555e+00 1.531909e+00
<VARIANCE> 25
 3.102556e+01 3.982352e+01 4.648204e+01 6.052976e+01 4.865224e+01 5.364120e+01 4.957391e+01 5.206113e+01 4.994263e+01 4.377484e+01 3.566540e+01 3.010361e+01 2.105191e+00 2.133569e+00 2.607650e+00 3.361774e+00 2.917656e+00 3.954443e+00 3.398865e+00 3.319243e+00 3.668817e+00 4.076825e+00 3.093344e+00 2.673295e+00 1.675560e+00
<GCONST> 1.052759e+02
<STATE> 3
<MEAN> 25
 9.462610e+00 -6.897775e+00 -8.743549e+00 -6.083593e+00 -4.604442e+00 -5.470979e+00 1.397076e+00 -2.830499e-01 -1.629562e+00 7.007640e-01 2.659651e+00 3.340820e+00 3.290816e-02 -1.735238e-01 -3.625012e-01 -3.627358e-01 -1.769637e-01 2.254089e-01 4.766614e-01 2.827543e-01 2.371980e-01 1.767752e-01 8.445666e-02 6.974697e-02 8.193482e-02
<VARIANCE> 25
 2.840129e+01 3.570125e+01 4.138834e+01 4.038225e+01 4.118876e+01 4.148624e+01 4.739182e+01 4.747406e+01 4.473821e+01 4.189992e+01 3.449903e+01 2.805832e+01 3.302394e-01 8.424883e-01 9.393210e-01 1.242460e+00 1.324397e+00 1.496400e+00 1.901740e+00 1.780651e+00 1.803969e+00 1.726919e+00 1.430944e+00 1.179275e+00 3.783611e-01
<GCONST> 9.133002e+01
<STATE> 4
<MEAN> 25
 8.177530e+00 -2.680661e+00 -7.293503e+00 -5.932261e+00 -3.758124e+00 -2.794274e+00 1.176165e+00 -3.390664e-01 -1.368642e+00 2.573896e-01 2.133668e+00 3.287408e+00 -4.538044e-01 8.704351e-01 7.276899e-01 4.679444e-01 4.150407e-01 5.706517e-01 -1.937626e-01 -1.382255e-01 1.753797e-02 -1.629017e-01 -2.942949e-01 -3.140077e-01 -8.826797e-01
<VARIANCE> 25
 2.215926e+01 3.099335e+01 3.486272e+01 3.668752e+01 3.283007e+01 3.965223e+01 3.500597e+01 3.826480e+01 3.512437e+01 3.170736e+01 2.563973e+01 2.200531e+01 5.861269e-01 9.910762e-01 1.080531e+00 1.252255e+00 1.395680e+00 1.835312e+00 1.787168e+00 1.826652e+00 1.993582e+00 1.853269e+00 1.609923e+00 1.318195e+00 6.483233e-01
<GCONST> 9.086413e+01
~t "T_a"
<ENDHMM>
~h "d-a+d"
<BEGINHMM>
<NUMSTATES> 5
<STATE> 2
<MEAN> 25
 8.084209e+00 -3.246555e+00 -4.886938e+00 -2.890126e+00 -1.922659e+00 -4.591505e+00 -1.062124e+00 -1.533606e+00 -3.011539e+00 -1.419097e+00 7.822737e-01 1.974153e+00 8.531939e-01 -1.219489e+00 -1.591901e+00 -1.511451e+00 -1.099942e+00 -1.081241e+00 3.296968e-01 2.435892e-01 2.131322e-01 7.433307e-01 1.096173e+00 1.076555e+00 1.531909e+00
<VARIANCE> 25
 3.102556e+01 3.982352e+01 4.648204e+01 6.052976e+01 4.865224e+01 5.364120e+01 4.957391e+01 5.206113e+01 4.994263e+01 4.377484e+01 3.566540e+01 3.010361e+01 2.105191e+00 2.133569e+00 2.607650e+00 3.361774e+00 2.917656e+00 3.954443e+00 3.398865e+00 3.319243e+00 3.668817e+00 4.076825e+00 3.093344e+00 2.673295e+00 1.675560e+00
<GCONST> 1.052759e+02
<STATE> 3
<MEAN> 25
 9.462610e+00 -6.897775e+00 -8.743549e+00 -6.083593e+00 -4.604442e+00 -5.470979e+00 1.397076e+00 -2.830499e-01 -1.629562e+00 7.007640e-01 2.659651e+00 3.340820e+00 3.290816e-02 -1.735238e-01 -3.625012e-01 -3.627358e-01 -1.769637e-01 2.254089e-01 4.766614e-01 2.827543e-01 2.371980e-01 1.767752e-01 8.445666e-02 6.974697e-02 8.193482e-02
<VARIANCE> 25
 2.840129e+01 3.570125e+01 4.138834e+01 4.038225e+01 4.118876e+01 4.148624e+01 4.739182e+01 4.747406e+01 4.473821e+01 4.189992e+01 3.449903e+01 2.805832e+01 3.302394e-01 8.424883e-01 9.393210e-01 1.242460e+00 1.324397e+00 1.496400e+00 1.901740e+00 1.780651e+00 1.803969e+00 1.726919e+00 1.430944e+00 1.179275e+00 3.783611e-01
<GCONST> 9.133002e+01
<STATE> 4
<MEAN> 25
 8.177530e+00 -2.680661e+00 -7.293503e+00 -5.932261e+00 -3.758124e+00 -2.794274e+00 1.176165e+00 -3.390664e-01 -1.368642e+00 2.573896e-01 2.133668e+00 3.287408e+00 -4.538044e-01 8.704351e-01 7.276899e-01 4.679444e-01 4.150407e-01 5.706517e-01 -1.937626e-01 -1.382255e-01 1.753797e-02 -1.629017e-01 -2.942949e-01 -3.140077e-01 -8.826797e-01
<VARIANCE> 25
 2.215926e+01 3.099335e+01 3.486272e+01 3.668752e+01 3.283007e+01 3.965223e+01 3.500597e+01 3.826480e+01 3.512437e+01 3.170736e+01 2.563973e+01 2.200531e+01 5.861269e-01 9.910762e-01 1.080531e+00 1.252255e+00 1.395680e+00 1.835312e+00 1.787168e+00 1.826652e+00 1.993582e+00 1.853269e+00 1.609923e+00 1.318195e+00 6.483233e-01
<GCONST> 9.086413e+01
~t "T_a"
<ENDHMM>
~h "d-a+m"
<BEGINHMM>
<NUMSTATES> 5
<STATE> 2
<MEAN> 25
 8.084209e+00 -3.246555e+00 -4.886938e+00 -2.890126e+00 -1.922659e+00 -4.591505e+00 -1.062124e+00 -1.533606e+00 -3.011539e+00 -1.419097e+00 7.822737e-01 1.974153e+00 8.531939e-01 -1.219489e+00 -1.591901e+00 -1.511451e+00 -1.099942e+00 -1.081241e+00 3.296968e-01 2.435892e-01 2.131322e-01 7.433307e-01 1.096173e+00 1.076555e+00 1.531909e+00
<VARIANCE> 25
 3.102556e+01 3.982352e+01 4.648204e+01 6.052976e+01 4.865224e+01 5.364120e+01 4.957391e+01 5.206113e+01 4.994263e+01 4.377484e+01 3.566540e+01 3.010361e+01 2.105191e+00 2.133569e+00 2.607650e+00 3.361774e+00 2.917656e+00 3.954443e+00 3.398865e+00 3.319243e+00 3.668817e+00 4.076825e+00 3.093344e+00 2.673295e+00 1.675560e+00
<GCONST> 1.052759e+02
<STATE> 3
<MEAN> 25
 9.462610e+00 -6.897775e+00 -8.743549e+00 -6.083593e+00 -4.604442e+00 -5.470979e+00 1.397076e+00 -2.830499e-01 -1.629562e+00 7.007640e-01 2.659651e+00 3.340820e+00 3.290816e-02 -1.735238e-01 -3.625012e-01 -3.627358e-01 -1.769637e-01 2.254089e-01 4.766614e-01 2.827543e-01 2.371980e-01 1.767752e-01 8.445666e-02 6.974697e-02 8.193482e-02
<VARIANCE> 25
 2.840129e+01 3.570125e+01 4.138834e+01 4.038225e+01 4.118876e+01 4.148624e+01 4.739182e+01 4.747406e+01 4.473821e+01 4.189992e+01 3.449903e+01 2.805832e+01 3.302394e-01 8.424883e-01 9.393210e-01 1.242460e+00 1.324397e+00 1.496400e+00 1.901740e+00 1.780651e+00 1.803969e+00 1.726919e+00 1.430944e+00 1.179275e+00 3.783611e-01
<GCONST> 9.133002e+01
<STATE> 4
<MEAN> 25
 8.177530e+00 -2.680661e+00 -7.293503e+00 -5.932261e+00 -3.758124e+00 -2.794274e+00 1.176165e+00 -3.390664e-01 -1.368642e+00 2.573896e-01 2.133668e+00 3.287408e+00 -4.538044e-01 8.704351e-01 7.276899e-01 4.679444e-01 4.150407e-01 5.706517e-01 -1.937626e-01 -1.382255e-01 1.753797e-02 -1.629017e-01 -2.942949e-01 -3.140077e-01 -8.826797e-01
<VARIANCE> 25
 2.215926e+01 3.099335e+01 3.486272e+01 3.668752e+01 3.283007e+01 3.965223e+01 3.500597e+01 3.826480e+01 3.512437e+01 3.170736e+01 2.563973e+01 2.200531e+01 5.861269e-01 9.910762e-01 1.080531e+00 1.252255e+00 1.395680e+00 1.835312e+00 1.787168e+00 1.826652e+00 1.993582e+00 1.853269e+00 1.609923e+00 1.318195e+00 6.483233e-01
<GCONST> 9.086413e+01
~t "T_a"
<ENDHMM>
~h "d-a+n"
<BEGINHMM>
<NUMSTATES> 5
<STATE> 2
<MEAN> 25
 8.084209e+00 -3.246555e+00 -4.886938e+00 -2.890126e+00 -1.922659e+00 -4.591505e+00 -1.062124e+00 -1.533606e+00 -3.011539e+00 -1.419097e+00 7.822737e-01 1.974153e+00 8.531939e-01 -1.219489e+00 -1.591901e+00 -1.511451e+00 -1.099942e+00 -1.081241e+00 3.296968e-01 2.435892e-01 2.131322e-01 7.433307e-01 1.096173e+00 1.076555e+00 1.531909e+00
<VARIANCE> 25
 3.102556e+01 3.982352e+01 4.648204e+01 6.052976e+01 4.865224e+01 5.364120e+01 4.957391e+01 5.206113e+01 4.994263e+01 4.377484e+01 3.566540e+01 3.010361e+01 2.105191e+00 2.133569e+00 2.607650e+00 3.361774e+00 2.917656e+00 3.954443e+00 3.398865e+00 3.319243e+00 3.668817e+00 4.076825e+00 3.093344e+00 2.673295e+00 1.675560e+00
<GCONST> 1.052759e+02
<STATE> 3
<MEAN> 25
 9.462610e+00 -6.897775e+00 -8.743549e+00 -6.083593e+00 -4.604442e+00 -5.470979e+00 1.397076e+00 -2.830499e-01 -1.629562e+00 7.007640e-01 2.659651e+00 3.340820e+00 3.290816e-02 -1.735238e-01 -3.625012e-01 -3.627358e-01 -1.769637e-01 2.254089e-01 4.766614e-01 2.827543e-01 2.371980e-01 1.767752e-01 8.445666e-02 6.974697e-02 8.193482e-02
<VARIANCE> 25
 2.840129e+01 3.570125e+01 4.138834e+01 4.038225e+01 4.118876e+01 4.148624e+01 4.739182e+01 4.747406e+01 4.473821e+01 4.189992e+01 3.449903e+01 2.805832e+01 3.302394e-01 8.424883e-01 9.393210e-01 1.242460e+00 1.324397e+00 1.496400e+00 1.901740e+00 1.780651e+00 1.803969e+00 1.726919e+00 1.430944e+00 1.179275e+00 3.783611e-01
<GCONST> 9.133002e+01
<STATE> 4
<MEAN> 25
 8.177530e+00 -2.680661e+00 -7.293503e+00 -5.932261e+00 -3.758124e+00 -2.794274e+00 1.176165e+00 -3.390664e-01 -1.368642e+00 2.573896e-01 2.133668e+00 3.287408e+00 -4.538044e-01 8.704351e-01 7.276899e-01 4.679444e-01 4.150407e-01 5.706517e-01 -1.937626e-01 -1.382255e-01 1.753797e-02 -1.629017e-01 -2.942949e-01 -3.140077e-01 -8.826797e-01
<VARIANCE> 25
 2.215926e+01 3.099335e+01 3.486272e+01 3.668752e+01 3.283007e+01 3.965223e+01 3.500597e+01 3.826480e+01 3.512437e+01 3.170736e+01 2.563973e+01 2.200531e+01 5.861269e-01 9.910762e-01 1.080531e+00 1.252255e+00 1.395680e+00 1.835312e+00 1.787168e+00 1.826652e+00 1.993582e+00 1.853269e+00 1.609923e+00 1.318195e+00 6.483233e-01
<GCONST> 9.086413e+01
~t "T_a"
<ENDHMM>
~h "d-a+r"
<BEGINHMM>
<NUMSTATES> 5
<STATE> 2
<MEAN> 25
 8.084209e+00 -3.246555e+00 -4.886938e+00 -2.890126e+00 -1.922659e+00 -4.591505e+00 -1.062124e+00 -1.533606e+00 -3.011539e+00 -1.419097e+00 7.822737e-01 1.974153e+00 8.531939e-01 -1.219489e+00 -1.591901e+00 -1.511451e+00 -1.099942e+00 -1.081241e+00 3.296968e-01 2.435892e-01 2.131322e-01 7.433307e-01 1.096173e+00 1.076555e+00 1.531909e+00
<VARIANCE> 25
 3.102556e+01 3.982352e+01 4.648204e+01 6.052976e+01 4.865224e+01 5.364120e+01 4.957391e+01 5.206113e+01 4.994263e+01 4.377484e+01 3.566540e+01 3.010361e+01 2.105191e+00 2.133569e+00 2.607650e+00 3.361774e+00 2.917656e+00 3.954443e+00 3.398865e+00 3.319243e+00 3.668817e+00 4.076825e+00 3.093344e+00 2.673295e+00 1.675560e+00
<GCONST> 1.052759e+02
<STATE> 3
<MEAN> 25
 9.462610e+00 -6.897775e+00 -8.743549e+00 -6.083593e+00 -4.604442e+00 -5.470979e+00 1.397076e+00 -2.830499e-01 -1.629562e+00 7.007640e-01 2.659651e+00 3.340820e+00 3.290816e-02 -1.735238e-01 -3.625012e-01 -3.627358e-01 -1.769637e-01 2.254089e-01 4.766614e-01 2.827543e-01 2.371980e-01 1.767752e-01 8.445666e-02 6.974697e-02 8.193482e-02
<VARIANCE> 25
 2.840129e+01 3.570125e+01 4.138834e+01 4.038225e+01 4.118876e+01 4.148624e+01 4.739182e+01 4.747406e+01 4.473821e+01 4.189992e+01 3.449903e+01 2.805832e+01 3.302394e-01 8.424883e-01 9.393210e-01 1.242460e+00 1.324397e+00 1.496400e+00 1.901740e+00 1.780651e+00 1.803969e+00 1.726919e+00 1.430944e+00 1.179275e+00 3.783611e-01
<GCONST> 9.133002e+01
<STATE> 4
<MEAN> 25
 8.177530e+00 -2.680661e+00 -7.293503e+00 -5.932261e+00 -3.758124e+00 -2.794274e+00 1.176165e+00 -3.390664e-01 -1.368642e+00 2.573896e-01 2.133668e+00 3.287408e+00 -4.538044e-01 8.704351e-01 7.276899e-01 4.679444e-01 4.150407e-01 5.706517e-01 -1.937626e-01 -1.382255e-01 1.753797e-02 -1.629017e-01 -2.942949e-01 -3.140077e-01 -8.826797e-01
<VARIANCE> 25
 2.215926e+01 3.099335e+01 3.486272e+01 3.668752e+01 3.283007e+01 3.965223e+01 3.500597e+01 3.826480e+01 3.512437e+01 3.170736e+01 2.563973e+01 2.200531e+01 5.861269e-01 9.910762e-01 1.080531e+00 1.252255e+00 1.395680e+00 1.835312e+00 1.787168e+00 1.826652e+00 1.993582e+00 1.853269e+00 1.609923e+00 1.318195e+00 6.483233e-01
<GCONST> 9.086413e+01
~t "T_a"
<ENDHMM>
~h "d-a+s"
<BEGINHMM>
<NUMSTATES> 5
<STATE> 2
<MEAN> 25
 8.084209e+00 -3.246555e+00 -4.886938e+00 -2.890126e+00 -1.922659e+00 -4.591505e+00 -1.062124e+00 -1.533606e+00 -3.011539e+00 -1.419097e+00 7.822737e-01 1.974153e+00 8.531939e-01 -1.219489e+00 -1.591901e+00 -1.511451e+00 -1.099942e+00 -1.081241e+00 3.296968e-01 2.435892e-01 2.131322e-01 7.433307e-01 1.096173e+00 1.076555e+00 1.531909e+00
<VARIANCE> 25
 3.102556e+01 3.982352e+01 4.648204e+01 6.052976e+01 4.865224e+01 5.364120e+01 4.957391e+01 5.206113e+01 4.994263e+01 4.377484e+01 3.566540e+01 3.010361e+01 2.105191e+00 2.133569e+00 2.607650e+00 3.361774e+00 2.917656e+00 3.954443e+00 3.398865e+00 3.319243e+00 3.668817e+00 4.076825e+00 3.093344e+00 2.673295e+00 1.675560e+00
<GCONST> 1.052759e+02
<STATE> 3
<MEAN> 25
 9.462610e+00 -6.897775e+00 -8.743549e+00 -6.083593e+00 -4.604442e+00 -5.470979e+00 1.397076e+00 -2.830499e-01 -1.629562e+00 7.007640e-01 2.659651e+00 3.340820e+00 3.290816e-02 -1.735238e-01 -3.625012e-01 -3.627358e-01 -1.769637e-01 2.254089e-01 4.766614e-01 2.827543e-01 2.371980e-01 1.767752e-01 8.445666e-02 6.974697e-02 8.193482e-02
<VARIANCE> 25
 2.840129e+01 3.570125e+01 4.138834e+01 4.038225e+01 4.118876e+01 4.148624e+01 4.739182e+01 4.747406e+01 4.473821e+01 4.189992e+01 3.449903e+01 2.805832e+01 3.302394e-01 8.424883e-01 9.393210e-01 1.242460e+00 1.324397e+00 1.496400e+00 1.901740e+00 1.780651e+00 1.803969e+00 1.726919e+00 1.430944e+00 1.179275e+00 3.783611e-01
<GCONST> 9.133002e+01
<STATE> 4
<MEAN> 25
 8.177530e+00 -2.680661e+00 -7.293503e+00 -5.932261e+00 -3.758124e+00 -2.794274e+00 1.176165e+00 -3.390664e-01 -1.368642e+00 2.573896e-01 2.133668e+00 3.287408e+00 -4.538044e-01 8.704351e-01 7.276899e-01 4.679444e-01 4.150407e-01 5.706517e-01 -1.937626e-01 -1.382255e-01 1.753797e-02 -1.629017e-01 -2.942949e-01 -3.140077e-01 -8.826797e-01
<VARIANCE> 25
 2.215926e+01 3.099335e+01 3.486272e+01 3.668752e+01 3.283007e+01 3.965223e+01 3.500597e+01 3.826480e+01 3.512437e+01 3.170736e+01 2.563973e+01 2.200531e+01 5.861269e-01 9.910762e-01 1.080531e+00 1.252255e+00 1.395680e+00 1.835312e+00 1.787168e+00 1.826652e+00 1.993582e+00 1.853269e+00 1.609923e+00 1.318195e+00 6.483233e-01
<GCONST> 9.086413e+01
~t "T_a"
<ENDHMM>
~h "d-a+t"
<BEGINHMM>
<NUMSTATES> 5
<STATE> 2
<MEAN> 25
 8.084209e+00 -3.246555e+00 -4.886938e+00 -2.890126e+00 -1.922659e+00 -4.591505e+00 -1.062124e+00 -1.533606e+00 -3.011539e+00 -1.419097e+00 7.822737e-01 1.974153e+00 8.531939e-01 -1.219489e+00 -1.591901e+00 -1.511451e+00 -1.099942e+00 -1.081241e+00 3.296968e-01 2.435892e-01 2.131322e-01 7.433307e-01 1.096173e+00 1.076555e+00 1.531909e+00
<VARIANCE> 25
 3.102556e+01 3.982352e+01 4.648204e+01 6.052976e+01 4.865224e+01 5.364120e+01 4.957391e+01 5.206113e+01 4.994263e+01 4.377484e+01 3.566540e+01 3.010361e+01 2.105191e+00 2.133569e+00 2.607650e+00 3.361774e+00 2.917656e+00 3.954443e+00 3.398865e+00 3.319243e+00 3.668817e+00 4.076825e+00 3.093344e+00 2.673295e+00 1.675560e+00
<GCONST> 1.052759e+02
<STATE> 3
<MEAN> 25
 9.462610e+00 -6.897775e+00 -8.743549e+00 -6.083593e+00 -4.604442e+00 -5.470979e+00 1.397076e+00 -2.830499e-01 -1.629562e+00 7.007640e-01 2.659651e+00 3.340820e+00 3.290816e-02 -1.735238e-01 -3.625012e-01 -3.627358e-01 -1.769637e-01 2.254089e-01 4.766614e-01 2.827543e-01 2.371980e-01 1.767752e-01 8.445666e-02 6.974697e-02 8.193482e-02
<VARIANCE> 25
 2.840129e+01 3.570125e+01 4.138834e+01 4.038225e+01 4.118876e+01 4.148624e+01 4.739182e+01 4.747406e+01 4.473821e+01 4.189992e+01 3.449903e+01 2.805832e+01 3.302394e-01 8.424883e-01 9.393210e-01 1.242460e+00 1.324397e+00 1.496400e+00 1.901740e+00 1.780651e+00 1.803969e+00 1.726919e+00 1.430944e+00 1.179275e+00 3.783611e-01
<GCONST> 9.133002e+01
<STATE> 4
<MEAN> 25
 8.177530e+00 -2.680661e+00 -7.293503e+00 -5.932261e+00 -3.758124e+00 -2.794274e+00 1.176165e+00 -3.390664e-01 -1.368642e+00 2.573896e-01 2.133668e+00 3.287408e+00 -4.538044e-01 8.704351e-01 7.276899e-01 4.679444e-01 4.150407e-01 5.706517e-01 -1.937626e-01 -1.382255e-01 1.753797e-02 -1.629017e-01 -2.942949e-01 -3.140077e-01 -8.826797e-01
<VARIANCE> 25
 2.215926e+01 3.099335e+01 3.486272e+01 3.668752e+01 3.283007e+01 3.965223e+01 3.500597e+01 3.826480e+01 3.512437e+01 3.170736e+01 2.563973e+01 2.200531e+01 5.861269e-01 9.910762e-01 1.080531e+00 1.252255e+00 1.395680e+00 1.835312e+00 1.787168e+00 1.826652e+00 1.993582e+00 1.853269e+00 1.609923e+00 1.318195e+00 6.483233e-01
<GCONST> 9.086413e+01
~t "T_a"
<ENDHMM>
~h "d-b+i"
<BEGINHMM>
<NUMSTATES> 5
<STATE> 2
<MEAN> 25
 7.453249e+00 1.854894e+00 -3.055483e+00 1.129761e-01 -5.903215e-01 -2.019453e+00 -9.623871e-01 -2.498531e-01 -2.357596e+00 -3.923417e+00 -3.094668e+00 -1.821743e+00 4.853825e-02 1.296036e+00 3.276203e-01 2.709658e-02 -3.125394e-01 5.880693e-01 7.153720e-01 7.017969e-01 4.376649e-01 -1.752225e-01 -7.070358e-01 -5.481036e-01 -9.195412e-01
<VARIANCE> 25
 3.346801e+01 3.947591e+01 4.344426e+01 5.973069e+01 5.670771e+01 4.925726e+01 3.268375e+01 4.100950e+01 4.737400e+01 3.473342e+01 2.501481e+01 2.451253e+01 1.081666e+00 1.334289e+00 1.641493e+00 2.853810e+00 3.615987e+00 2.742803e+00 2.493510e+00 2.804891e+00 2.849236e+00 2.749629e+00 2.209752e+00 1.999554e+00 1.226195e+00
<GCONST> 9.985339e+01
<STATE> 3
<MEAN> 25
 6.949950e+00 3.740428e+00 -1.714613e+00 3.235494e-01 -9.867709e-01 -1.327352e+00 -1.314925e-01 7.956891e-01 -1.145713e+00 -3.079894e+00 -3.591807e+00 -2.550094e+00 -8.611151e-02 4.030907e-01 1.799360e-01 7.571537e-02 -3.430426e-02 2.170843e-01 1.954542e-01 1.316523e-01 1.675814e-01 3.952383e-02 -1.006096e-01 -8.349357e-02 -3.062887e-01
<VARIANCE> 25
 2.692079e+01 3.626947e+01 4.409764e+01 5.273486e+01 4.805618e+01 4.925530e+01 3.155102e+01 3.594095e+01 4.166383e+01 3.111368e+01 2.364136e+01 2.366270e+01 4.684736e-01 6.017178e-01 8.846315e-01 1.491829e+00 2.014702e+00 1.665077e+00 1.348875e+00 1.519242e+00 1.830568e+00 1.490714e+00 1.216153e+00 1.152516e+00 3.799050e-01
<GCONST> 9.019222e+01
<STATE> 4
<MEAN> 25
 6.578341e+00 4.712523e+00 -1.122386e+00 6.479018e-01 -1.106130e+00 -1.354586e+00 -2.909619e-01 1.025624e+00 -5.704058e-01 -2.493345e+00 -3.110632e+00 -2.025941e+00 1.390214e-01 -3.549204e-01 -1.764275e-01 -3.578497e-02 6.442415e-02 -2.743158e-01 -2.597390e-01 -2.456179e-01 -2.362213e-01 -5.547573e-03 2.503186e-01 3.078200e-01 3.261120e-01
<VARIANCE> 25
 2.816606e+01 3.491276e+01 4.524225e+01 4.909471e+01 4.680241e+01 5.250218e+01 3.074101e+01 3.258335e+01 3.859496e+01 2.864092e+01 2.050313e+01 1.999232e+01 3.488529e-01 7.084572e-01 8.258898e-01 1.390724e+00 1.873912e+00 1.648457e+00 1.367848e+00 1.515477e+00 1.712910e+00 1.390957e+00 1.179897e+00 1.095034e+00 3.408834e-01
<GCONST> 8.892953e+01
~t "T_b"
<ENDHMM>
~h "a-x+a"
<BEGINHMM>
<NUMSTATES> 5
<STATE> 2
<MEAN> 25
 2.710263e+00 3.803773e-02 -6.907156e-01 -1.041780e+00 1.537239e-01 -1.162006e+00 2.299056e+00 2.109332e+00 2.205236e+00 1.629794e+00 5.215285e-01 -4.691647e-01 -8.456972e-01 -5.233524e-01 1.104425e-01 5.402460e-03 -4.407932e-02 9.621610e-01 1.198104e+00 8.795330e-01 4.561717e-01 2.352917e-01 2.905076e-01 1.189582e-01 -4.212725e-01
<VARIANCE> 25
 3.920304e+01 4.778421e+01 4.725491e+01 6.818762e+01 7.707585e+01 4.912231e+01 5.634499e+01 6.323063e+01 4.823575e+01 3.662822e+01 3.850797e+01 3.096796e+01 1.298015e+00 2.392860e+00 2.438280e+00 3.293631e+00 3.234163e+00 3.403000e+00 3.515903e+00 3.329362e+00 3.190387e+00 2.881794e+00 2.616669e+00 2.342538e+00 1.071782e+00
<GCONST> 1.047144e+02
<STATE> 3
<MEAN> 25
 2.389514e+00 -2.823177e+00 -2.314602e+00 -8.071315e-01 -2.019404e+00 5.773649e-01 5.416468e+00 4.644370e+00 2.860189e+00 2.649937e+00 1.474382e+00 2.542869e-01 -1.627480e-01 -5.520325e-02 -3.205924e-02 7.186043e-02 -6.453498e-02 1.446954e-01 8.186971e-02 8.117869e-02 1.478556e-01 8.997992e-02 -1.554686e-02 -1.325583e-02 -1.939255e-01
<VARIANCE> 25
 3.829348e+01 5.292737e+01 6.805369e+01 7.263561e+01 8.785237e+01 4.887428e+01 6.232245e+01 6.020101e+01 4.831543e+01 4.048973e+01 3.702037e+01 2.908707e+01 3.520617e-01 1.059087e+00 1.012969e+00 1.387481e+00 1.552394e+00 1.474724e+00 1.849917e+00 1.636128e+00 1.569952e+00 1.565971e+00 1.455773e+00 1.317901e+00 2.615884e-01
<GCONST> 9.472208e+01
<STATE> 4
<MEAN> 25
 1.113762e+00 -2.202637e-01 5.006220e-01 3.866129e-01 -2.374129e-02 1.004074e+00 2.361394e+00 3.804070e+00 2.446019e+00 2.536371e+00 8.760055e-01 6.529836e-02 2.448174e-01 2.729527e-01 1.612649e-01 -1.038634e-02 -1.484590e-01 -4.305932e-01 -4.565032e-01 -3.415658e-01 -1.851178e-01 -6.116746e-02 -1.175197e-01 -1.012859e-01 1.047176e-01
<VARIANCE> 25
 2.915019e+01 3.153456e+01 3.526095e+01 4.116573e+01 4.410101e+01 3.645945e+01 3.289407e+01 3.666290e+01 3.545974e+01 2.833711e+01 2.363544e+01 1.703545e+01 3.797781e-01 8.875240e-01 8.613486e-01 1.276177e+00 1.478250e+00 1.550803e+00 1.795061e+00 1.668326e+00 1.570326e+00 1.527764e+00 1.397692e+00 1.213788e+00 2.087996e-01
<GCONST> 8.821011e+01
~t "T_x"
<ENDHMM>
~h "a-x+e"
<BEGINHMM>
<NUMSTATES> 5
<STATE> 2
<MEAN> 25
 2.710263e+00 3.803773e-02 -6.907156e-01 -1.041780e+00 1.537239e-01 -1.162006e+00 2.299056e+00 2.109332e+00 2.205236e+00 1.629794e+00 5.215285e-01 -4.691647e-01 -8.456972e-01 -5.233524e-01 1.104425e-01 5.402460e-03 -4.407932e-02 9.621610e-01 1.198104e+00 8.795330e-01 4.561717e-01 2.352917e-01 2.905076e-01 1.189582e-01 -4.212725e-01
<VARIANCE> 25
 3.920304e+01 4.778421e+01 4.725491e+01 6.818762e+01 7.707585e+01 4.912231e+01 5.634499e+01 6.323063e+01 4.823575e+01 3.662822e+01 3.850797e+01 3.096796e+01 1.298015e+00 2.392860e+00 2.438280e+00 3.293631e+00 3.234163e+00 3.403000e+00 3.515903e+00 3.329362e+00 3.190387e+00 2.881794e+00 2.616669e+00 2.342538e+00 1.071782e+00
<GCONST> 1.047144e+02
<STATE> 3
<MEAN> 25
 2.389514e+00 -2.823177e+00 -2.314602e+00 -8.071315e-01 -2.019404e+00 5.773649e-01 5.416468e+00 4.644370e+00 2.860189e+00 2.649937e+00 1.474382e+00 2.542869e-01 -1.627480e-01 -5.520325e-02 -3.205924e-02 7.186043e-02 -6.453498e-02 1.446954e-01 8.186971e-02 8.117869e-02 1.478556e-01 8.997992e-02 -1.554686e-02 -1.325583e-02 -1.939255e-01
<VARIANCE> 25
 3.829348e+01 5.292737e+01 6.805369e+01 7.263561e+01 8.785237e+01 4.887428e+01 6.232245e+01 6.020101e+01 4.831543e+01 4.048973e+01 3.702037e+01 2.908707e+01 3.520617e-01 1.059087e+00 1.012969e+00 1.387481e+00 1.552394e+00 1.474724e+00 1.849917e+00 1.636128e+00 1.569952e+00 1.565971e+00 1.455773e+00 1.317901e+00 2.615884e-01
<GCONST> 9.472208e+01
<STATE> 4
<MEAN> 25
 1.113762e+00 -2.202637e-01 5.006220e-01 3.866129e-01 -2.374129e-02 1.004074e+00 2.361394e+00 3.804070e+00 2.446019e+00 2.536371e+00 8.760055e-01 6.529836e-02 2.448174e-01 2.729527e-01 1.612649e-01 -1.038634e-02 -1.484590e-01 -4.305932e-01 -4.565032e-01 -3.415658e-01 -1.851178e-01 -6.116746e-02 -1.175197e-01 -1.012859e-01 1.047176e-01
<VARIANCE> 25
 2.915019e+01 3.153456e+01 3.526095e+01 4.116573e+01 4.410101e+01 3.645945e+01 3.289407e+01 3.666290e+01 3.545974e+01 2.833711e+01 2.363544e+01 1.703545e+01 3.797781e-01 8.875240e-01 8.613486e-01 1.276177e+00 1.478250e+00 1.550803e+00 1.795061e+00 1.668326e+00 1.570326e+00 1.527764e+00 1.397692e+00 1.213788e+00 2.087996e-01
<GCONST> 8.821011e+01
~t "T_x"
<ENDHMM>
~h "a-x+o"
<BEGINHMM>
<NUMSTATES> 5
<STATE> 2
<MEAN> 25
 2.710263e+00 3.803773e-02 -6.907156e-01 -1.041780e+00 1.537239e-01 -1.162006e+00 2.299056e+00 2.109332e+00 2.205236e+00 1.629794e+00 5.215285e-01 -4.691647e-01 -8.456972e-01 -5.233524e-01 1.104425e-01 5.402460e-03 -4.407932e-02 9.621610e-01 1.198104e+00 8.795330e-01 4.561717e-01 2.352917e-01 2.905076e-01 1.189582e-01 -4.212725e-01
<VARIANCE> 25
 3.920304e+01 4.778421e+01 4.725491e+01 6.818762e+01 7.707585e+01 4.912231e+01 5.634499e+01 6.323063e+01 4.823575e+01 3.662822e+01 3.850797e+01 3.096796e+01 1.298015e+00 2.392860e+00 2.438280e+00 3.293631e+00 3.234163e+00 3.403000e+00 3.515903e+00 3.329362e+00 3.190387e+00 2.881794e+00 2.616669e+00 2.342538e+00 1.071782e+00
<GCONST> 1.047144e+02
<STATE> 3
<MEAN> 25
 2.389514e+00 -2.823177e+00 -2.314602e+00 -8.071315e-01 -2.019404e+00 5.773649e-01 5.416468e+00 4.644370e+00 2.860189e+00 2.649937e+00 1.474382e+00 2.542869e-01 -1.627480e-01 -5.520325e-02 -3.205924e-02 7.186043e-02 -6.453498e-02 1.446954e-01 8.186971e-02 8.117869e-02 1.478556e-01 8.997992e-02 -1.554686e-02 -1.325583e-02 -1.939255e-01
<VARIANCE> 25
 3.829348e+01 5.292737e+01 6.805369e+01 7.263561e+01 8.785237e+01 4.887428e+01 6.232245e+01 6.020101e+01 4.831543e+01 4.048973e+01 3.702037e+01 2.908707e+01 3.520617e-01 1.059087e+00 1.012969e+00 1.387481e+00 1.552394e+00 1.474724e+00 1.849917e+00 1.636128e+00 1.569952e+00 1.565971e+00 1.455773e+00 1.317901e+00 2.615884e-01
<GCONST> 9.472208e+01
<STATE> 4
<MEAN> 25
 1.113762e+00 -2.202637e-01 5.006220e-01 3.866129e-01 -2.374129e-02 1.004074e+00 2.361394e+00 3.804070e+00 2.446019e+00 2.536371e+00 8.760055e-01 6.529836e-02 2.448174e-01 2.729527e-01 1.612649e-01 -1.038634e-02 -1.484590e-01 -4.305932e-01 -4.565032e-01 -3.415658e-01 -1.851178e-01 -6.116746e-02 -1.175197e-01 -1.012859e-01 1.047176e-01
<VARIANCE> 25
 2.915019e+01 3.153456e+01 3.526095e+01 4.116573e+01 4.410101e+01 3.645945e+01 3.289407e+01 3.666290e+01 3.545974e+01 2.833711e+01 2.363544e+01 1.703545e+01 3.797781e-01 8.875240e-01 8.613486e-01 1.276177e+00 1.478250e+00 1.550803e+00 1.795061e+00 1.668326e+00 1.570326e+00 1.527764e+00 1.397692e+00 1.213788e+00 2.087996e-01
<GCONST> 8.821011e+01
~t "T_x"
<ENDHMM>
~h "n-s+a"
<BEGINHMM>
<NUMSTATES> 5
<STATE> 2
<MEAN> 25
 -2.672227e+00 -3.270423e+00 1.004953e+01 -4.440532e+00 1.809237e-01 1.463706e+00 2.479738e+00 -8.504221e-01 -6.740083e-01 7.527752e-01 2.025366e-01 -1.215088e-01 -2.952475e+00 -1.081467e+00 2.472686e+00 -1.170398e+00 1.552520e-01 9.225060e-01 1.190610e+00 1.466946e-02 5.599615e-01 4.710526e-01 5.590721e-01 2.782978e-01 2.598815e-01
<VARIANCE> 25
 6.090248e+01 4.096783e+01 9.645750e+01 7.985217e+01 7.116714e+01 6.051644e+01 6.688841e+01 7.043929e+01 5.318323e+01 4.527814e+01 3.572353e+01 2.664364e+01 3.096100e+00 3.809794e+00 4.041855e+00 4.010174e+00 3.633645e+00 4.631847e+00 3.728845e+00 3.332037e+00 3.740141e+00 3.394577e+00 2.906559e+00 2.198195e+00 1.359681e+00
<GCONST> 1.094882e+02
<STATE> 3
<MEAN> 25
 -1.388278e+01 -7.547144e+00 1.724523e+01 -1.016027e+01 5.564176e-01 9.960555e-01 5.586256e+00 -1.188120e+00 5.186584e-01 1.813791e+00 1.467571e+00 5.005577e-01 -2.925702e-01 -1.122364e-01 -2.537486e-01 7.632152e-02 -1.322451e-02 7.181087e-02 4.822661e-02 6.459653e-02 8.100856e-02 3.569933e-02 1.088791e-01 9.543600e-02 -2.908385e-01
<VARIANCE> 25
 7.703424e+01 8.092426e+01 1.181283e+02 1.229016e+02 1.058419e+02 8.350800e+01 7.997587e+01 8.339116e+01 7.095995e+01 5.324371e+01 4.210551e+01 2.871686e+01 2.398076e+00 1.604921e+00 2.021634e+00 2.360392e+00 1.573115e+00 1.834233e+00 1.877151e+00 1.805621e+00 1.722814e+00 1.544063e+00 1.343992e+00 1.183776e+00 8.760858e-01
<GCONST> 1.039959e+02
<STATE> 4
<MEAN> 25
 -6.362659e+00 -4.423155e+00 9.820220e+00 -4.903218e+00 -3.681852e-01 2.570100e+00 3.167925e+00 -5.793936e-01 -8.759587e-02 1.059100e+00 1.291414e+00 8.679242e-01 2.306367e+00 1.451382e+00 -1.806829e+00 1.135726e+00 -1.512867e-01 -5.723754e-03 -1.025580e+00 -6.012088e-02 -4.432604e-01 -4.086378e-01 -5.183563e-01 -1.828476e-01 -1.028221e+00
<VARIANCE> 25
 5.843802e+01 5.417876e+01 7.380061e+01 6.748988e+01 5.934891e+01 5.204456e+01 5.172548e+01 5.419441e+01 4.946672e+01 4.243489e+01 3.060479e+01 2.467298e+01 5.810026e+00 3.654878e+00 3.590863e+00 3.486390e+00 3.299611e+00 3.667934e+00 3.647548e+00 3.210599e+00 3.578302e+00 3.155891e+00 2.695603e+00 2.113597e+00 1.871167e+00
<GCONST> 1.080983e+02
~t "T_s"
<ENDHMM>
~h "n-s+e"
<BEGINHMM>
<NUMSTATES> 5
<STATE> 2
<MEAN> 25
 -2.672227e+00 -3.270423e+00 1.004953e+01 -4.440532e+00 1.809237e-01 1.463706e+00 2.479738e+00 -8.504221e-01 -6.740083e-01 7.527752e-01 2.025366e-01 -1.215088e-01 -2.952475e+00 -1.081467e+00 2.472686e+00 -1.170398e+00 1.552520e-01 9.225060e-01 1.190610e+00 1.466946e-02 5.599615e-01 4.710526e-01 5.590721e-01 2.782978e-01 2.598815e-01
<VARIANCE> 25
 6.090248e+01 4.096783e+01 9.645750e+01 7.985217e+01 7.116714e+01 6.051644e+01 6.688841e+01 7.043929e+01 5.318323e+01 4.527814e+01 3.572353e+01 2.664364e+01 3.096100e+00 3.809794e+00 4.041855e+00 4.010174e+00 3.633645e+00 4.631847e+00 3.728845e+00 3.332037e+00 3.740141e+00 3.394577e+00 2.906559e+00 2.198195e+00 1.359681e+00
<GCONST> 1.094882e+02
<STATE> 3
<MEAN> 25
 -1.388278e+01 -7.547144e+00 1.724523e+01 -1.016027e+01 5.564176e-01 9.960555e-01 5.586256e+00 -1.188120e+00 5.186584e-01 1.813791e+00 1.467571e+00 5.005577e-01 -2.925702e-01 -1.122364e-01 -2.537486e-01 7.632152e-02 -1.322451e-02 7.181087e-02 4.822661e-02 6.459653e-02 8.100856e-02 3.569933e-02 1.088791e-01 9.543600e-02 -2.908385e-01
<VARIANCE> 25
 7.703424e+01 8.092426e+01 1.181283e+02 1.229016e+02 1.058419e+02 8.350800e+01 7.997587e+01 8.339116e+01 7.095995e+01 5.324371e+01 4.210551e+01 2.871686e+01 2.398076e+00 1.604921e+00 2.021634e+00 2.360392e+00 1.573115e+00 1.834233e+00 1.877151e+00 1.805621e+00 1.722814e+00 1.544063e+00 1.343992e+00 1.183776e+00 8.760858e-01
<GCONST> 1.039959e+02
<STATE> 4
<MEAN> 25
 -6.362659e+00 -4.423155e+00 9.820220e+00 -4.903218e+00 -3.681852e-01 2.570100e+00 3.167925e+00 -5.793936e-01 -8.759587e-02 1.059100e+00 1.291414e+00 8.679242e-01 2.306367e+00 1.451382e+00 -1.806829e+00 1.135726e+00 -1.512867e-01 -5.723754e-03 -1.025580e+00 -6.012088e-02 -4.432604e-01 -4.086378e-01 -5.183563e-01 -1.828476e-01 -1.028221e+00
<VARIANCE> 25
 5.843802e+01 5.417876e+01 7.380061e+01 6.748988e+01 5.934891e+01 5.204456e+01 5.172548e+01 5.419441e+01 4.946672e+01 4.243489e+01 3.060479e+01 2.467298e+01 5.810026e+00 3.654878e+00 3.590863e+00 3.486390e+00 3.299611e+00 3.667934e+00 3.647548e+00 3.210599e+00 3.578302e+00 3.155891e+00 2.695603e+00 2.113597e+00 1.871167e+00
<GCONST> 1.080983e+02
~t "T_s"
<ENDHMM>
~h "n-s+o"
<BEGINHMM>
<NUMSTATES> 5
<STATE> 2
<MEAN> 25
 -2.672227e+00 -3.270423e+00 1.004953e+01 -4.440532e+00 1.809237e-01 1.463706e+00 2.479738e+00 -8.504221e-01 -6.740083e-01 7.527752e-01 2.025366e-01 -1.215088e-01 -2.952475e+00 -1.081467e+00 2.472686e+00 -1.170398e+00 1.552520e-01 9.225060e-01 1.190610e+00 1.466946e-02 5.599615e-01 4.710526e-01 5.590721e-01 2.782978e-01 2.598815e-01
<VARIANCE> 25
 6.090248e+01 4.096783e+01 9.645750e+01 7.985217e+01 7.116714e+01 6.051644e+01 6.688841e+01 7.043929e+01 5.318323e+01 4.527814e+01 3.572353e+01 2.664364e+01 3.096100e+00 3.809794e+00 4.041855e+00 4.010174e+00 3.633645e+00 4.631847e+00 3.728845e+00 3.332037e+00 3.740141e+00 3.394577e+00 2.906559e+00 2.198195e+00 1.359681e+00
<GCONST> 1.094882e+02
<STATE> 3
<MEAN> 25
 -1.388278e+01 -7.547144e+00 1.724523e+01 -1.016027e+01 5.564176e-01 9.960555e-01 5.586256e+00 -1.188120e+00 5.186584e-01 1.813791e+00 1.467571e+00 5.005577e-01 -2.925702e-01 -1.122364e-01 -2.537486e-01 7.632152e-02 -1.322451e-02 7.181087e-02 4.822661e-02 6.459653e-02 8.100856e-02 3.569933e-02 1.088791e-01 9.543600e-02 -2.908385e-01
<VARIANCE> 25
 7.703424e+01 8.092426e+01 1.181283e+02 1.229016e+02 1.058419e+02 8.350800e+01 7.997587e+01 8.339116e+01 7.095995e+01 5.324371e+01 4.210551e+01 2.871686e+01 2.398076e+00 1.604921e+00 2.021634e+00 2.360392e+00 1.573115e+00 1.834233e+00 1.877151e+00 1.805621e+00 1.722814e+00 1.544063e+00 1.343992e+00 1.183776e+00 8.760858e-01
<GCONST> 1.039959e+02
<STATE> 4
<MEAN> 25
 -6.362659e+00 -4.423155e+00 9.820220e+00 -4.903218e+00 -3.681852e-01 2.570100e+00 3.167925e+00 -5.793936e-01 -8.759587e-02 1.059100e+00 1.291414e+00 8.679242e-01 2.306367e+00 1.451382e+00 -1.806829e+00 1.135726e+00 -1.512867e-01 -5.723754e-03 -1.025580e+00 -6.012088e-02 -4.432604e-01 -4.086378e-01 -5.183563e-01 -1.828476e-01 -1.028221e+00
<VARIANCE> 25
 5.843802e+01 5.417876e+01 7.380061e+01 6.748988e+01 5.934891e+01 5.204456e+01 5.172548e+01 5.419441e+01 4.946672e+01 4.243489e+01 3.060479e+01 2.467298e+01 5.810026e+00 3.654878e+00 3.590863e+00 3.486390e+00 3.299611e+00 3.667934e+00 3.647548e+00 3.210599e+00 3.578302e+00 3.155891e+00 2.695603e+00 2.113597e+00 1.871167e+00
<GCONST> 1.080983e+02
~t "T_s"
<ENDHMM>
~h "n-s+p"
<BEGINHMM>
<NUMSTATES> 5
<STATE> 2
<MEAN> 25
 -2.672227e+00 -3.270423e+00 1.004953e+01 -4.440532e+00 1.809237e-01 1.463706e+00 2.479738e+00 -8.504221e-01 -6.740083e-01 7.527752e-01 2.025366e-01 -1.215088e-01 -2.952475e+00 -1.081467e+00 2.472686e+00 -1.170398e+00 1.552520e-01 9.225060e-01 1.190610e+00 1.466946e-02 5.599615e-01 4.710526e-01 5.590721e-01 2.782978e-01 2.598815e-01
<VARIANCE> 25
 6.090248e+01 4.096783e+01 9.645750e+01 7.985217e+01 7.116714e+01 6.051644e+01 6.688841e+01 7.043929e+01 5.318323e+01 4.527814e+01 3.572353e+01 2.664364e+01 3.096100e+00 3.809794e+00 4.041855e+00 4.010174e+00 3.633645e+00 4.631847e+00 3.728845e+00 3.332037e+00 3.740141e+00 3.394577e+00 2.906559e+00 2.198195e+00 1.359681e+00
<GCONST> 1.094882e+02
<STATE> 3
<MEAN> 25
 -1.388278e+01 -7.547144e+00 1.724523e+01 -1.016027e+01 5.564176e-01 9.960555e-01 5.586256e+00 -1.188120e+00 5.186584e-01 1.813791e+00 1.467571e+00 5.005577e-01 -2.925702e-01 -1.122364e-01 -2.537486e-01 7.632152e-02 -1.322451e-02 7.181087e-02 4.822661e-02 6.459653e-02 8.100856e-02 3.569933e-02 1.088791e-01 9.543600e-02 -2.908385e-01
<VARIANCE> 25
 7.703424e+01 8.092426e+01 1.181283e+02 1.229016e+02 1.058419e+02 8.350800e+01 7.997587e+01 8.339116e+01 7.095995e+01 5.324371e+01 4.210551e+01 2.871686e+01 2.398076e+00 1.604921e+00 2.021634e+00 2.360392e+00 1.573115e+00 1.834233e+00 1.877151e+00 1.805621e+00 1.722814e+00 1.544063e+00 1.343992e+00 1.183776e+00 8.760858e-01
<GCONST> 1.039959e+02
<STATE> 4
<MEAN> 25
 -6.362659e+00 -4.423155e+00 9.820220e+00 -4.903218e+00 -3.681852e-01 2.570100e+00 3.167925e+00 -5.793936e-01 -8.759587e-02 1.059100e+00 1.291414e+00 8.679242e-01 2.306367e+00 1.451382e+00 -1.806829e+00 1.135726e+00 -1.512867e-01 -5.723754e-03 -1.025580e+00 -6.012088e-02 -4.432604e-01 -4.086378e-01 -5.183563e-01 -1.828476e-01 -1.028221e+00
<VARIANCE> 25
 5.843802e+01 5.417876e+01 7.380061e+01 6.748988e+01 5.934891e+01 5.204456e+01 5.172548e+01 5.419441e+01 4.946672e+01 4.243489e+01 3.060479e+01 2.467298e+01 5.810026e+00 3.654878e+00 3.590863e+00 3.486390e+00 3.299611e+00 3.667934e+00 3.647548e+00 3.210599e+00 3.578302e+00 3.155891e+00 2.695603e+00 2.113597e+00 1.871167e+00
<GCONST> 1.080983e+02
~t "T_s"
<ENDHMM>
~h "n-s+t"
<BEGINHMM>
<NUMSTATES> 5
<STATE> 2
<MEAN> 25
 -2.672227e+00 -3.270423e+00 1.004953e+01 -4.440532e+00 1.809237e-01 1.463706e+00 2.479738e+00 -8.504221e-01 -6.740083e-01 7.527752e-01 2.025366e-01 -1.215088e-01 -2.952475e+00 -1.081467e+00 2.472686e+00 -1.170398e+00 1.552520e-01 9.225060e-01 1.190610e+00 1.466946e-02 5.599615e-01 4.710526e-01 5.590721e-01 2.782978e-01 2.598815e-01
<VARIANCE> 25
 6.090248e+01 4.096783e+01 9.645750e+01 7.985217e+01 7.116714e+01 6.051644e+01 6.688841e+01 7.043929e+01 5.318323e+01 4.527814e+01 3.572353e+01 2.664364e+01 3.096100e+00 3.809794e+00 4.041855e+00 4.010174e+00 3.633645e+00 4.631847e+00 3.728845e+00 3.332037e+00 3.740141e+00 3.394577e+00 2.906559e+00 2.198195e+00 1.359681e+00
<GCONST> 1.094882e+02
<STATE> 3
<MEAN> 25
 -1.388278e+01 -7.547144e+00 1.724523e+01 -1.016027e+01 5.564176e-01 9.960555e-01 5.586256e+00 -1.188120e+00 5.186584e-01 1.813791e+00 1.467571e+00 5.005577e-01 -2.925702e-01 -1.122364e-01 -2.537486e-01 7.632152e-02 -1.322451e-02 7.181087e-02 4.822661e-02 6.459653e-02 8.100856e-02 3.569933e-02 1.088791e-01 9.543600e-02 -2.908385e-01
<VARIANCE> 25
 7.703424e+01 8.092426e+01 1.181283e+02 1.229016e+02 1.058419e+02 8.350800e+01 7.997587e+01 8.339116e+01 7.095995e+01 5.324371e+01 4.210551e+01 2.871686e+01 2.398076e+00 1.604921e+00 2.021634e+00 2.360392e+00 1.573115e+00 1.834233e+00 1.877151e+00 1.805621e+00 1.722814e+00 1.544063e+00 1.343992e+00 1.183776e+00 8.760858e-01
<GCONST> 1.039959e+02
<STATE> 4
<MEAN> 25
 -6.362659e+00 -4.423155e+00 9.820220e+00 -4.903218e+00 -3.681852e-01 2.570100e+00 3.167925e+00 -5.793936e-01 -8.759587e-02 1.059100e+00 1.291414e+00 8.679242e-01 2.306367e+00 1.451382e+00 -1.806829e+00 1.135726e+00 -1.512867e-01 -5.723754e-03 -1.025580e+00 -6.012088e-02 -4.432604e-01 -4.086378e-01 -5.183563e-01 -1.828476e-01 -1.028221e+00
<VARIANCE> 25
 5.843802e+01 5.417876e+01 7.380061e+01 6.748988e+01 5.934891e+01 5.204456e+01 5.172548e+01 5.419441e+01 4.946672e+01 4.243489e+01 3.060479e+01 2.467298e+01 5.810026e+00 3.654878e+00 3.590863e+00 3.486390e+00 3.299611e+00 3.667934e+00 3.647548e+00 3.210599e+00 3.578302e+00 3.155891e+00 2.695603e+00 2.113597e+00 1.871167e+00
<GCONST> 1.080983e+02
~t "T_s"
<ENDHMM>
~h "n-s+u"
<BEGINHMM>
<NUMSTATES> 5
<STATE> 2
<MEAN> 25
 -2.672227e+00 -3.270423e+00 1.004953e+01 -4.440532e+00 1.809237e-01 1.463706e+00 2.479738e+00 -8.504221e-01 -6.740083e-01 7.527752e-01 2.025366e-01 -1.215088e-01 -2.952475e+00 -1.081467e+00 2.472686e+00 -1.170398e+00 1.552520e-01 9.225060e-01 1.190610e+00 1.466946e-02 5.599615e-01 4.710526e-01 5.590721e-01 2.782978e-01 2.598815e-01
<VARIANCE> 25
 6.090248e+01 4.096783e+01 9.645750e+01 7.985217e+01 7.116714e+01 6.051644e+01 6.688841e+01 7.043929e+01 5.318323e+01 4.527814e+01 3.572353e+01 2.664364e+01 3.096100e+00 3.809794e+00 4.041855e+00 4.010174e+00 3.633645e+00 4.631847e+00 3.728845e+00 3.332037e+00 3.740141e+00 3.394577e+00 2.906559e+00 2.198195e+00 1.359681e+00
<GCONST> 1.094882e+02
<STATE> 3
<MEAN> 25
 -1.388278e+01 -7.547144e+00 1.724523e+01 -1.016027e+01 5.564176e-01 9.960555e-01 5.586256e+00 -1.188120e+00 5.186584e-01 1.813791e+00 1.467571e+00 5.005577e-01 -2.925702e-01 -1.122364e-01 -2.537486e-01 7.632152e-02 -1.322451e-02 7.181087e-02 4.822661e-02 6.459653e-02 8.100856e-02 3.569933e-02 1.088791e-01 9.543600e-02 -2.908385e-01
<VARIANCE> 25
 7.703424e+01 8.092426e+01 1.181283e+02 1.229016e+02 1.058419e+02 8.350800e+01 7.997587e+01 8.339116e+01 7.095995e+01 5.324371e+01 4.210551e+01 2.871686e+01 2.398076e+00 1.604921e+00 2.021634e+00 2.360392e+00 1.573115e+00 1.834233e+00 1.877151e+00 1.805621e+00 1.722814e+00 1.544063e+00 1.343992e+00 1.183776e+00 8.760858e-01
<GCONST> 1.039959e+02
<STATE> 4
<MEAN> 25
 -6.362659e+00 -4.423155e+00 9.820220e+00 -4.903218e+00 -3.681852e-01 2.570100e+00 3.167925e+00 -5.793936e-01 -8.759587e-02 1.059100e+00 1.291414e+00 8.679242e-01 2.306367e+00 1.451382e+00 -1.806829e+00 1.135726e+00 -1.512867e-01 -5.723754e-03 -1.025580e+00 -6.012088e-02 -4.432604e-01 -4.086378e-01 -5.183563e-01 -1.828476e-01 -1.028221e+00
<VARIANCE> 25
 5.843802e+01 5.417876e+01 7.380061e+01 6.748988e+01 5.934891e+01 5.204456e+01 5.172548e+01 5.419441e+01 4.946672e+01 4.243489e+01 3.060479e+01 2.467298e+01 5.810026e+00 3.654878e+00 3.590863e+00 3.486390e+00 3.299611e+00 3.667934e+00 3.647548e+00 3.210599e+00 3.578302e+00 3.155891e+00 2.695603e+00 2.113597e+00 1.871167e+00
<GCONST> 1.080983e+02
~t "T_s"
<ENDHMM>
~h "a-u+ll"
<BEGINHMM>
<NUMSTATES> 5
<STATE> 2
<MEAN> 25
 5.841117e+00 4.888117e+00 2.686566e+00 -7.820466e-01 -3.509169e+00 -4.456264e+00 -1.667651e+00 1.072235e+00 -1.711213e+00 -3.398537e+00 -2.842877e+00 -2.182095e+00 1.576147e+00 1.045471e+00 4.197832e-01 -3.047917e-01 -1.355020e+00 -2.229248e+00 -1.097899e+00 2.456878e-01 -2.158980e-01 -6.960759e-01 -8.961666e-01 -8.212398e-01 8.114035e-01
<VARIANCE> 25
 3.111406e+01 4.019774e+01 4.504975e+01 4.146431e+01 4.849731e+01 5.661042e+01 4.281160e+01 4.095763e+01 5.025994e+01 4.244762e+01 3.143690e+01 2.546618e+01 2.317891e+00 3.149550e+00 3.087908e+00 3.151040e+00 3.396149e+00 4.573932e+00 4.195843e+00 4.035922e+00 4.034451e+00 3.409064e+00 3.195040e+00 2.762604e+00 1.784756e+00
<GCONST> 1.055627e+02
<STATE> 3
<MEAN> 25
 8.658910e+00 5.000401e+00 2.954348e+00 -2.671335e+00 -7.457289e+00 -1.043769e+01 -3.682248e+00 2.342003e+00 -1.993913e+00 -4.053403e+00 -3.655970e+00 -3.858294e+00 3.619523e-01 -4.174033e-01 -5.004941e-01 -5.413764e-01 -3.661138e-01 -3.691237e-01 1.985084e-01 6.194838e-01 2.091379e-01 -3.094780e-01 -4.365371e-01 -2.890210e-01 4.863066e-01
<VARIANCE> 25
 1.982055e+01 3.754977e+01 4.485072e+01 4.602500e+01 4.835411e+01 5.230594e+01 4.533890e+01 4.689768e+01 6.356376e+01 4.307386e+01 3.556441e+01 3.444476e+01 5.694164e-01 2.171613e+00 2.316406e+00 1.907328e+00 2.369149e+00 3.386717e+00 2.927253e+00 3.053224e+00 2.962884e+00 2.837181e+00 2.662840e+00 2.209183e+00 9.819031e-01
<GCONST> 1.005687e+02
<STATE> 4
<MEAN> 25
 7.936549e+00 5.316041e+00 2.239468e+00 -2.040418e+00 -5.537446e+00 -6.998611e+00 -2.096663e+00 2.982105e+00 -1.124920e+00 -4.924550e+00 -4.786534e+00 -3.909861e+00 -1.936503e-01 -3.466140e-01 -3.004697e-01 2.804921e-01 7.471921e-01 1.043675e+00 4.173047e-01 -2.147343e-01 -1.894316e-01 -7.248510e-02 1.116081e-02 1.502710e-01 -1.055882e-01
<VARIANCE> 25
 1.968233e+01 3.080829e+01 3.984565e+01 3.763365e+01 3.553752e+01 4.067476e+01 4.069976e+01 3.915368e+01 5.144368e+01 3.819278e+01 3.066512e+01 2.631176e+01 3.753779e-01 1.220878e+00 1.362571e+00 1.493957e+00 2.004738e+00 2.727168e+00 2.026844e+00 2.105258e+00 2.403310e+00 2.200738e+00 1.975419e+00 1.823615e+00 5.097307e-01
<GCONST> 9.394715e+01
~t "T_u"
<ENDHMM>
~h "n-t+a"
<BEGINHMM>
<NUMSTATES> 5
<STATE> 2
<MEAN> 25
 -1.105155e+00 3.531708e+00 3.428654e-04 2.035812e+00 1.206108e-01 3.856581e+00 4.077179e-01 -5.965847e-01 8.127027e-01 7.627032e-01 3.199013e-01 6.893349e-02 -6.225701e-01 -2.968751e-01 -4.327019e-01 -2.591668e-01 -4.670320e-01 5.148919e-02 2.475624e-01 2.473967e-01 4.056443e-01 2.193291e-01 2.135402e-01 2.370846e-01 -4.553078e-01
<VARIANCE> 25
 1.757349e+01 1.922104e+01 3.467615e+01 3.267662e+01 2.919297e+01 2.473142e+01 2.491181e+01 2.517140e+01 2.366685e+01 1.964377e+01 1.771473e+01 1.668316e+01 8.811969e-01 1.897543e+00 1.485499e+00 1.704934e+00 1.593071e+00 1.769392e+00 1.715915e+00 1.659040e+00 1.614757e+00 1.490305e+00 1.287322e+00 1.257182e+00 1.985336e+00
<GCONST> 8.922695e+01
<STATE> 3
<MEAN> 25
 -2.661848e+00 -1.497703e+00 5.282218e-02 -3.497691e-01 -1.323973e+00 2.477841e+00 1.625346e+00 -2.516246e-01 1.776590e+00 1.439802e+00 5.119318e-01 3.112603e-01 3.591390e-01 -2.639185e+00 1.089064e+00 -1.295514e+00 3.863864e-02 -1.159161e+00 1.705076e-01 -5.860544e-01 -5.879141e-01 -1.566525e-01 -8.659262e-03 1.297800e-01 3.161201e+00
<VARIANCE> 25
 2.167913e+01 5.237593e+01 4.070385e+01 5.008830e+01 3.684749e+01 3.489187e+01 3.228013e+01 3.020567e+01 2.734658e+01 2.465602e+01 2.112542e+01 1.802548e+01 2.104158e+00 3.082623e+00 3.689658e+00 4.205109e+00 3.861122e+00 3.443296e+00 3.636282e+00 3.397777e+00 3.384237e+00 2.689384e+00 2.275631e+00 2.211970e+00 2.531482e+00
<GCONST> 1.015656e+02
<STATE> 4
<MEAN> 25
 6.725208e-02 -5.150090e+00 3.443682e+00 -2.513680e+00 -2.271353e-01 -2.479110e-01 1.068287e+00 -2.403555e+00 -1.349449e+00 3.935923e-02 2.190253e-01 7.620124e-01 2.674966e+00 -7.274120e-02 -3.204739e-01 3.668221e-01 1.818312e-01 -1.773539e+00 -1.494750e+00 -9.235156e-01 -1.947002e+00 -1.262686e+00 -4.662289e-01 5.305367e-02 2.229213e+00
<VARIANCE> 25
 3.678450e+01 4.006910e+01 4.787255e+01 5.576718e+01 5.168572e+01 4.239035e+01 4.381770e+01 4.481693e+01 4.380044e+01 3.419241e+01 2.507265e+01 1.988425e+01 2.029730e+00 4.721550e+00 4.108329e+00 5.850153e+00 5.617827e+00 4.736856e+00 4.321757e+00 4.812273e+00 4.380567e+00 4.659930e+00 3.916073e+00 3.285652e+00 3.656609e+00
<GCONST> 1.085535e+02
~t "T_t"
<ENDHMM>
~h "n-t+e"
<BEGINHMM>
<NUMSTATES> 5
<STATE> 2
<MEAN> 25
 -1.105155e+00 3.531708e+00 3.428654e-04 2.035812e+00 1.206108e-01 3.856581e+00 4.077179e-01 -5.965847e-01 8.127027e-01 7.627032e-01 3.199013e-01 6.893349e-02 -6.225701e-01 -2.968751e-01 -4.327019e-01 -2.591668e-01 -4.670320e-01 5.148919e-02 2.475624e-01 2.473967e-01 4.056443e-01 2.193291e-01 2.135402e-01 2.370846e-01 -4.553078e-01
<VARIANCE> 25
 1.757349e+01 1.922104e+01 3.467615e+01 3.267662e+01 2.919297e+01 2.473142e+01 2.491181e+01 2.517140e+01 2.366685e+01 1.964377e+01 1.771473e+01 1.668316e+01 8.811969e-01 1.897543e+00 1.485499e+00 1.704934e+00 1.593071e+00 1.769392e+00 1.715915e+00 1.659040e+00 1.614757e+00 1.490305e+00 1.287322e+00 1.257182e+00 1.985336e+00
<GCONST> 8.922695e+01
<STATE> 3
<MEAN> 25
 -2.661848e+00 -1.497703e+00 5.282218e-02 -3.497691e-01 -1.323973e+00 2.477841e+00 1.625346e+00 -2.516246e-01 1.776590e+00 1.439802e+00 5.119318e-01 3.112603e-01 3.591390e-01 -2.639185e+00 1.089064e+00 -1.295514e+00 3.863864e-02 -1.159161e+00 1.705076e-01 -5.860544e-01 -5.879141e-01 -1.566525e-01 -8.659262e-03 1.297800e-01 3.161201e+00
<VARIANCE> 25
 2.167913e+01 5.237593e+01 4.070385e+01 5.008830e+01 3.684749e+01 3.489187e+01 3.228013e+01 3.020567e+01 2.734658e+01 2.465602e+01 2.112542e+01 1.802548e+01 2.104158e+00 3.082623e+00 3.689658e+00 4.205109e+00 3.861122e+00 3.443296e+00 3.636282e+00 3.397777e+00 3.384237e+00 2.689384e+00 2.275631e+00 2.211970e+00 2.531482e+00
<GCONST> 1.015656e+02
<STATE> 4
<MEAN> 25
 6.725208e-02 -5.150090e+00 3.443682e+00 -2.513680e+00 -2.271353e-01 -2.479110e-01 1.068287e+00 -2.403555e+00 -1.349449e+00 3.935923e-02 2.190253e-01 7.620124e-01 2.674966e+00 -7.274120e-02 -3.204739e-01 3.668221e-01 1.818312e-01 -1.773539e+00 -1.494750e+00 -9.235156e-01 -1.947002e+00 -1.262686e+00 -4.662289e-01 5.305367e-02 2.229213e+00
<VARIANCE> 25
 3.678450e+01 4.006910e+01 4.787255e+01 5.576718e+01 5.168572e+01 4.239035e+01 4.381770e+01 4.481693e+01 4.380044e+01 3.419241e+01 2.507265e+01 1.988425e+01 2.029730e+00 4.721550e+00 4.108329e+00 5.850153e+00 5.617827e+00 4.736856e+00 4.321757e+00 4.812273e+00 4.380567e+00 4.659930e+00 3.916073e+00 3.285652e+00 3.656609e+00
<GCONST> 1.085535e+02
~t "T_t"
<ENDHMM>
~h "n-t+i"
<BEGINHMM>
<NUMSTATES> 5
<STATE> 2
<MEAN> 25
 -1.105155e+00 3.531708e+00 3.428654e-04 2.035812e+00 1.206108e-01 3.856581e+00 4.077179e-01 -5.965847e-01 8.127027e-01 7.627032e-01 3.199013e-01 6.893349e-02 -6.225701e-01 -2.968751e-01 -4.327019e-01 -2.591668e-01 -4.670320e-01 5.148919e-02 2.475624e-01 2.473967e-01 4.056443e-01 2.193291e-01 2.135402e-01 2.370846e-01 -4.553078e-01
<VARIANCE> 25
 1.757349e+01 1.922104e+01 3.467615e+01 3.267662e+01 2.919297e+01 2.473142e+01 2.491181e+01 2.517140e+01 2.366685e+01 1.964377e+01 1.771473e+01 1.668316e+01 8.811969e-01 1.897543e+00 1.485499e+00 1.704934e+00 1.593071e+00 1.769392e+00 1.715915e+00 1.659040e+00 1.614757e+00 1.490305e+00 1.287322e+00 1.257182e+00 1.985336e+00
<GCONST> 8.922695e+01
<STATE> 3
<MEAN> 25
 -2.661848e+00 -1.497703e+00 5.282218e-02 -3.497691e-01 -1.323973e+00 2.477841e+00 1.625346e+00 -2.516246e-01 1.776590e+00 1.439802e+00 5.119318e-01 3.112603e-01 3.591390e-01 -2.639185e+00 1.089064e+00 -1.295514e+00 3.863864e-02 -1.159161e+00 1.705076e-01 -5.860544e-01 -5.879141e-01 -1.566525e-01 -8.659262e-03 1.297800e-01 3.161201e+00
<VARIANCE> 25
 2.167913e+01 5.237593e+01 4.070385e+01 5.008830e+01 3.684749e+01 3.489187e+01 3.228013e+01 3.020567e+01 2.734658e+01 2.465602e+01 2.112542e+01 1.802548e+01 2.104158e+00 3.082623e+00 3.689658e+00 4.205109e+00 3.861122e+00 3.443296e+00 3.636282e+00 3.397777e+00 3.384237e+00 2.689384e+00 2.275631e+00 2.211970e+00 2.531482e+00
<GCONST> 1.015656e+02
<STATE> 4
<MEAN> 25
 6.725208e-02 -5.150090e+00 3.443682e+00 -2.513680e+00 -2.271353e-01 -2.479110e-01 1.068287e+00 -2.403555e+00 -1.349449e+00 3.935923e-02 2.190253e-01 7.620124e-01 2.674966e+00 -7.274120e-02 -3.204739e-01 3.668221e-01 1.818312e-01 -1.773539e+00 -1.494750e+00 -9.235156e-01 -1.947002e+00 -1.262686e+00 -4.662289e-01 5.305367e-02 2.229213e+00
<VARIANCE> 25
 3.678450e+01 4.006910e+01 4.787255e+01 5.576718e+01 5.168572e+01 4.239035e+01 4.381770e+01 4.481693e+01 4.380044e+01 3.419241e+01 2.507265e+01 1.988425e+01 2.029730e+00 4.721550e+00 4.108329e+00 5.850153e+00 5.617827e+00 4.736856e+00 4.321757e+00 4.812273e+00 4.380567e+00 4.659930e+00 3.916073e+00 3.285652e+00 3.656609e+00
<GCONST> 1.085535e+02
~t "T_t"
<ENDHMM>
~h "n-t+o"
<BEGINHMM>
<NUMSTATES> 5
<STATE> 2
<MEAN> 25
 -1.105155e+00 3.531708e+00 3.428654e-04 2.035812e+00 1.206108e-01 3.856581e+00 4.077179e-01 -5.965847e-01 8.127027e-01 7.627032e-01 3.199013e-01 6.893349e-02 -6.225701e-01 -2.968751e-01 -4.327019e-01 -2.591668e-01 -4.670320e-01 5.148919e-02 2.475624e-01 2.473967e-01 4.056443e-01 2.193291e-01 2.135402e-01 2.370846e-01 -4.553078e-01
<VARIANCE> 25
 1.757349e+01 1.922104e+01 3.467615e+01 3.267662e+01 2.919297e+01 2.473142e+01 2.491181e+01 2.517140e+01 2.366685e+01 1.964377e+01 1.771473e+01 1.668316e+01 8.811969e-01 1.897543e+00 1.485499e+00 1.704934e+00 1.593071e+00 1.769392e+00 1.715915e+00 1.659040e+00 1.614757e+00 1.490305e+00 1.287322e+00 1.257182e+00 1.985336e+00
<GCONST> 8.922695e+01
<STATE> 3
<MEAN> 25
 -2.661848e+00 -1.497703e+00 5.282218e-02 -3.497691e-01 -1.323973e+00 2.477841e+00 1.625346e+00 -2.516246e-01 1.776590e+00 1.439802e+00 5.119318e-01 3.112603e-01 3.591390e-01 -2.639185e+00 1.089064e+00 -1.295514e+00 3.863864e-02 -1.159161e+00 1.705076e-01 -5.860544e-01 -5.879141e-01 -1.566525e-01 -8.659262e-03 1.297800e-01 3.161201e+00
<VARIANCE> 25
 2.167913e+01 5.237593e+01 4.070385e+01 5.008830e+01 3.684749e+01 3.489187e+01 3.228013e+01 3.020567e+01 2.734658e+01 2.465602e+01 2.112542e+01 1.802548e+01 2.104158e+00 3.082623e+00 3.689658e+00 4.205109e+00 3.861122e+00 3.443296e+00 3.636282e+00 3.397777e+00 3.384237e+00 2.689384e+00 2.275631e+00 2.211970e+00 2.531482e+00
<GCONST> 1.015656e+02
<STATE> 4
<MEAN> 25
 6.725208e-02 -5.150090e+00 3.443682e+00 -2.513680e+00 -2.271353e-01 -2.479110e-01 1.068287e+00 -2.403555e+00 -1.349449e+00 3.935923e-02 2.190253e-01 7.620124e-01 2.674966e+00 -7.274120e-02 -3.204739e-01 3.668221e-01 1.818312e-01 -1.773539e+00 -1.494750e+00 -9.235156e-01 -1.947002e+00 -1.262686e+00 -4.662289e-01 5.305367e-02 2.229213e+00
<VARIANCE> 25
 3.678450e+01 4.006910e+01 4.787255e+01 5.576718e+01 5.168572e+01 4.239035e+01 4.381770e+01 4.481693e+01 4.380044e+01 3.419241e+01 2.507265e+01 1.988425e+01 2.029730e+00 4.721550e+00 4.108329e+00 5.850153e+00 5.617827e+00 4.736856e+00 4.321757e+00 4.812273e+00 4.380567e+00 4.659930e+00 3.916073e+00 3.285652e+00 3.656609e+00
<GCONST> 1.085535e+02
~t "T_t"
<ENDHMM>
~h "n-t+r"
<BEGINHMM>
<NUMSTATES> 5
<STATE> 2
<MEAN> 25
 -1.105155e+00 3.531708e+00 3.428654e-04 2.035812e+00 1.206108e-01 3.856581e+00 4.077179e-01 -5.965847e-01 8.127027e-01 7.627032e-01 3.199013e-01 6.893349e-02 -6.225701e-01 -2.968751e-01 -4.327019e-01 -2.591668e-01 -4.670320e-01 5.148919e-02 2.475624e-01 2.473967e-01 4.056443e-01 2.193291e-01 2.135402e-01 2.370846e-01 -4.553078e-01
<VARIANCE> 25
 1.757349e+01 1.922104e+01 3.467615e+01 3.267662e+01 2.919297e+01 2.473142e+01 2.491181e+01 2.517140e+01 2.366685e+01 1.964377e+01 1.771473e+01 1.668316e+01 8.811969e-01 1.897543e+00 1.485499e+00 1.704934e+00 1.593071e+00 1.769392e+00 1.715915e+00 1.659040e+00 1.614757e+00 1.490305e+00 1.287322e+00 1.257182e+00 1.985336e+00
<GCONST> 8.922695e+01
<STATE> 3
<MEAN> 25
 -2.661848e+00 -1.497703e+00 5.282218e-02 -3.497691e-01 -1.323973e+00 2.477841e+00 1.625346e+00 -2.516246e-01 1.776590e+00 1.439802e+00 5.119318e-01 3.112603e-01 3.591390e-01 -2.639185e+00 1.089064e+00 -1.295514e+00 3.863864e-02 -1.159161e+00 1.705076e-01 -5.860544e-01 -5.879141e-01 -1.566525e-01 -8.659262e-03 1.297800e-01 3.161201e+00
<VARIANCE> 25
 2.167913e+01 5.237593e+01 4.070385e+01 5.008830e+01 3.684749e+01 3.489187e+01 3.228013e+01 3.020567e+01 2.734658e+01 2.465602e+01 2.112542e+01 1.802548e+01 2.104158e+00 3.082623e+00 3.689658e+00 4.205109e+00 3.861122e+00 3.443296e+00 3.636282e+00 3.397777e+00 3.384237e+00 2.689384e+00 2.275631e+00 2.211970e+00 2.531482e+00
<GCONST> 1.015656e+02
<STATE> 4
<MEAN> 25
 6.725208e-02 -5.150090e+00 3.443682e+00 -2.513680e+00 -2.271353e-01 -2.479110e-01 1.068287e+00 -2.403555e+00 -1.349449e+00 3.935923e-02 2.190253e-01 7.620124e-01 2.674966e+00 -7.274120e-02 -3.204739e-01 3.668221e-01 1.818312e-01 -1.773539e+00 -1.494750e+00 -9.235156e-01 -1.947002e+00 -1.262686e+00 -4.662289e-01 5.305367e-02 2.229213e+00
<VARIANCE> 25
 3.678450e+01 4.006910e+01 4.787255e+01 5.576718e+01 5.168572e+01 4.239035e+01 4.381770e+01 4.481693e+01 4.380044e+01 3.419241e+01 2.507265e+01 1.988425e+01 2.029730e+00 4.721550e+00 4.108329e+00 5.850153e+00 5.617827e+00 4.736856e+00 4.321757e+00 4.812273e+00 4.380567e+00 4.659930e+00 3.916073e+00 3.285652e+00 3.656609e+00
<GCONST> 1.085535e+02
~t "T_t"
<ENDHMM>
~h "ll-e+b"
<BEGINHMM>
<NUMSTATES> 5
<STATE> 2
<MEAN> 25
 4.917822e+00 -3.046909e+00 -7.860230e-01 1.961976e+00 3.296882e+00 -3.095960e+00 -4.445966e+00 -4.378197e+00 -4.194638e+00 -1.446952e+00 1.146220e-01 1.648807e-01 1.062938e+00 -1.285595e+00 -6.981800e-01 4.423747e-01 5.001229e-01 -1.895295e+00 -1.787762e+00 -1.308817e+00 -1.084860e+00 1.344622e-01 6.617222e-01 3.701210e-01 1.670173e+00
<VARIANCE> 25
 3.577217e+01 3.706077e+01 4.774310e+01 6.015227e+01 4.925949e+01 6.036604e+01 5.010396e+01 4.977269e+01 4.858726e+01 3.950971e+01 3.013842e+01 2.473536e+01 2.384392e+00 2.958043e+00 2.685448e+00 3.858023e+00 3.340221e+00 5.064232e+00 4.063103e+00 3.681123e+00 4.037725e+00 4.174648e+00 3.332788e+00 2.898063e+00 2.226966e+00
<GCONST> 1.068105e+02
<STATE> 3
<MEAN> 25
 7.191195e+00 -7.001473e+00 -2.328277e+00 2.836691e+00 3.888689e+00 -7.911126e+00 -8.482172e+00 -6.657192e+00 -5.470276e+00 -1.285404e-01 1.987994e+00 7.147580e-01 8.514885e-02 -4.249433e-01 -1.496204e-01 2.818093e-01 1.203487e-01 -6.073316e-01 -4.420330e-01 -1.406531e-01 1.603031e-01 5.093133e-01 3.347531e-01 -4.041983e-02 2.952766e-01
<VARIANCE> 25
 2.837927e+01 3.550758e+01 4.376701e+01 6.339727e+01 5.782299e+01 6.153004e+01 4.445435e+01 4.665985e+01 4.438187e+01 4.603452e+01 3.686113e+01 3.249733e+01 5.579238e-01 9.633060e-01 1.396090e+00 1.826277e+00 1.583154e+00 2.003756e+00 1.982185e+00 1.856537e+00 2.013892e+00 2.006657e+00 1.751121e+00 1.508502e+00 5.828047e-01
<GCONST> 9.591582e+01
<STATE> 4
<MEAN> 25
 5.895019e+00 -4.724988e+00 -1.197292e+00 3.906052e+00 3.870449e+00 -6.545651e+00 -8.215060e+00 -6.679025e+00 -4.172563e+00 5.337154e-01 9.279272e-01 -6.742178e-01 -3.232698e-01 7.992764e-01 3.300467e-01 -6.339286e-02 7.912491e-02 1.004552e+00 6.088396e-01 3.772415e-01 3.436322e-01 -1.313366e-01 -2.720630e-01 -1.298955e-01 -7.956876e-01
<VARIANCE> 25
 2.029749e+01 3.066547e+01 3.368494e+01 5.057070e+01 4.296806e+01 5.593891e+01 3.659196e+01 3.710094e+01 4.034227e+01 3.575679e+01 3.262199e+01 2.925796e+01 5.569103e-01 1.011105e+00 1.171097e+00 1.448238e+00 1.440968e+00 2.011663e+00 1.814593e+00 1.739066e+00 1.905525e+00 1.867028e+00 1.539982e+00 1.274082e+00 7.538318e-01
<GCONST> 9.278246e+01
~t "T_e"
<ENDHMM>
~h "ll-e+g"
<BEGINHMM>
<NUMSTATES> 5
<STATE> 2
<MEAN> 25
 4.917822e+00 -3.046909e+00 -7.860230e-01 1.961976e+00 3.296882e+00 -3.095960e+00 -4.445966e+00 -4.378197e+00 -4.194638e+00 -1.446952e+00 1.146220e-01 1.648807e-01 1.062938e+00 -1.285595e+00 -6.981800e-01 4.423747e-01 5.001229e-01 -1.895295e+00 -1.787762e+00 -1.308817e+00 -1.084860e+00 1.344622e-01 6.617222e-01 3.701210e-01 1.670173e+00
<VARIANCE> 25
 3.577217e+01 3.706077e+01 4.774310e+01 6.015227e+01 4.925949e+01 6.036604e+01 5.010396e+01 4.977269e+01 4.858726e+01 3.950971e+01 3.013842e+01 2.473536e+01 2.384392e+00 2.958043e+00 2.685448e+00 3.858023e+00 3.340221e+00 5.064232e+00 4.063103e+00 3.681123e+00 4.037725e+00 4.174648e+00 3.332788e+00 2.898063e+00 2.226966e+00
<GCONST> 1.068105e+02
<STATE> 3
<MEAN> 25
 7.191195e+00 -7.001473e+00 -2.328277e+00 2.836691e+00 3.888689e+00 -7.911126e+00 -8.482172e+00 -6.657192e+00 -5.470276e+00 -1.285404e-01 1.987994e+00 7.147580e-01 8.514885e-02 -4.249433e-01 -1.496204e-01 2.818093e-01 1.203487e-01 -6.073316e-01 -4.420330e-01 -1.406531e-01 1.603031e-01 5.093133e-01 3.347531e-01 -4.041983e-02 2.952766e-01
<VARIANCE> 25
 2.837927e+01 3.550758e+01 4.376701e+01 6.339727e+01 5.782299e+01 6.153004e+01 4.445435e+01 4.665985e+01 4.438187e+01 4.603452e+01 3.686113e+01 3.249733e+01 5.579238e-01 9.633060e-01 1.396090e+00 1.826277e+00 1.583154e+00 2.003756e+00 1.982185e+00 1.856537e+00 2.013892e+00 2.006657e+00 1.751121e+00 1.508502e+00 5.828047e-01
<GCONST> 9.591582e+01
<STATE> 4
<MEAN> 25
 5.895019e+00 -4.724988e+00 -1.197292e+00 3.906052e+00 3.870449e+00 -6.545651e+00 -8.215060e+00 -6.679025e+00 -4.172563e+00 5.337154e-01 9.279272e-01 -6.742178e-01 -3.232698e-01 7.992764e-01 3.300467e-01 -6.339286e-02 7.912491e-02 1.004552e+00 6.088396e-01 3.772415e-01 3.436322e-01 -1.313366e-01 -2.720630e-01 -1.298955e-01 -7.956876e-01
<VARIANCE> 25
 2.029749e+01 3.066547e+01 3.368494e+01 5.057070e+01 4.296806e+01 5.593891e+01 3.659196e+01 3.710094e+01 4.034227e+01 3.575679e+01 3.262199e+01 2.925796e+01 5.569103e-01 1.011105e+00 1.171097e+00 1.448238e+00 1.440968e+00 2.011663e+00 1.814593e+00 1.739066e+00 1.905525e+00 1.867028e+00 1.539982e+00 1.274082e+00 7.538318e-01
<GCONST> 9.278246e+01
~t "T_e"
<ENDHMM>
~h "ll-e+k"
<BEGINHMM>
<NUMSTATES> 5
<STATE> 2
<MEAN> 25
 4.917822e+00 -3.046909e+00 -7.860230e-01 1.961976e+00 3.296882e+00 -3.095960e+00 -4.445966e+00 -4.378197e+00 -4.194638e+00 -1.446952e+00 1.146220e-01 1.648807e-01 1.062938e+00 -1.285595e+00 -6.981800e-01 4.423747e-01 5.001229e-01 -1.895295e+00 -1.787762e+00 -1.308817e+00 -1.084860e+00 1.344622e-01 6.617222e-01 3.701210e-01 1.670173e+00
<VARIANCE> 25
 3.577217e+01 3.706077e+01 4.774310e+01 6.015227e+01 4.925949e+01 6.036604e+01 5.010396e+01 4.977269e+01 4.858726e+01 3.950971e+01 3.013842e+01 2.473536e+01 2.384392e+00 2.958043e+00 2.685448e+00 3.858023e+00 3.340221e+00 5.064232e+00 4.063103e+00 3.681123e+00 4.037725e+00 4.174648e+00 3.332788e+00 2.898063e+00 2.226966e+00
<GCONST> 1.068105e+02
<STATE> 3
<MEAN> 25
 7.191195e+00 -7.001473e+00 -2.328277e+00 2.836691e+00 3.888689e+00 -7.911126e+00 -8.482172e+00 -6.657192e+00 -5.470276e+00 -1.285404e-01 1.987994e+00 7.147580e-01 8.514885e-02 -4.249433e-01 -1.496204e-01 2.818093e-01 1.203487e-01 -6.073316e-01 -4.420330e-01 -1.406531e-01 1.603031e-01 5.093133e-01 3.347531e-01 -4.041983e-02 2.952766e-01
<VARIANCE> 25
 2.837927e+01 3.550758e+01 4.376701e+01 6.339727e+01 5.782299e+01 6.153004e+01 4.445435e+01 4.665985e+01 4.438187e+01 4.603452e+01 3.686113e+01 3.249733e+01 5.579238e-01 9.633060e-01 1.396090e+00 1.826277e+00 1.583154e+00 2.003756e+00 1.982185e+00 1.856537e+00 2.013892e+00 2.006657e+00 1.751121e+00 1.508502e+00 5.828047e-01
<GCONST> 9.591582e+01
<STATE> 4
<MEAN> 25
 5.895019e+00 -4.724988e+00 -1.197292e+00 3.906052e+00 3.870449e+00 -6.545651e+00 -8.215060e+00 -6.679025e+00 -4.172563e+00 5.337154e-01 9.279272e-01 -6.742178e-01 -3.232698e-01 7.992764e-01 3.300467e-01 -6.339286e-02 7.912491e-02 1.004552e+00 6.088396e-01 3.772415e-01 3.436322e-01 -1.313366e-01 -2.720630e-01 -1.298955e-01 -7.956876e-01
<VARIANCE> 25
 2.029749e+01 3.066547e+01 3.368494e+01 5.057070e+01 4.296806e+01 5.593891e+01 3.659196e+01 3.710094e+01 4.034227e+01 3.575679e+01 3.262199e+01 2.925796e+01 5.569103e-01 1.011105e+00 1.171097e+00 1.448238e+00 1.440968e+00 2.011663e+00 1.814593e+00 1.739066e+00 1.905525e+00 1.867028e+00 1.539982e+00 1.274082e+00 7.538318e-01
<GCONST> 9.278246e+01
~t "T_e"
<ENDHMM>
~h "ll-e+n"
<BEGINHMM>
<NUMSTATES> 5
<STATE> 2
<MEAN> 25
 4.917822e+00 -3.046909e+00 -7.860230e-01 1.961976e+00 3.296882e+00 -3.095960e+00 -4.445966e+00 -4.378197e+00 -4.194638e+00 -1.446952e+00 1.146220e-01 1.648807e-01 1.062938e+00 -1.285595e+00 -6.981800e-01 4.423747e-01 5.001229e-01 -1.895295e+00 -1.787762e+00 -1.308817e+00 -1.084860e+00 1.344622e-01 6.617222e-01 3.701210e-01 1.670173e+00
<VARIANCE> 25
 3.577217e+01 3.706077e+01 4.774310e+01 6.015227e+01 4.925949e+01 6.036604e+01 5.010396e+01 4.977269e+01 4.858726e+01 3.950971e+01 3.013842e+01 2.473536e+01 2.384392e+00 2.958043e+00 2.685448e+00 3.858023e+00 3.340221e+00 5.064232e+00 4.063103e+00 3.681123e+00 4.037725e+00 4.174648e+00 3.332788e+00 2.898063e+00 2.226966e+00
<GCONST> 1.068105e+02
<STATE> 3
<MEAN> 25
 7.191195e+00 -7.001473e+00 -2.328277e+00 2.836691e+00 3.888689e+00 -7.911126e+00 -8.482172e+00 -6.657192e+00 -5.470276e+00 -1.285404e-01 1.987994e+00 7.147580e-01 8.514885e-02 -4.249433e-01 -1.496204e-01 2.818093e-01 1.203487e-01 -6.073316e-01 -4.420330e-01 -1.406531e-01 1.603031e-01 5.093133e-01 3.347531e-01 -4.041983e-02 2.952766e-01
<VARIANCE> 25
 2.837927e+01 3.550758e+01 4.376701e+01 6.339727e+01 5.782299e+01 6.153004e+01 4.445435e+01 4.665985e+01 4.438187e+01 4.603452e+01 3.686113e+01 3.249733e+01 5.579238e-01 9.633060e-01 1.396090e+00 1.826277e+00 1.583154e+00 2.003756e+00 1.982185e+00 1.856537e+00 2.013892e+00 2.006657e+00 1.751121e+00 1.508502e+00 5.828047e-01
<GCONST> 9.591582e+01
<STATE> 4
<MEAN> 25
 5.895019e+00 -4.724988e+00 -1.197292e+00 3.906052e+00 3.870449e+00 -6.545651e+00 -8.215060e+00 -6.679025e+00 -4.172563e+00 5.337154e-01 9.279272e-01 -6.742178e-01 -3.232698e-01 7.992764e-01 3.300467e-01 -6.339286e-02 7.912491e-02 1.004552e+00 6.088396e-01 3.772415e-01 3.436322e-01 -1.313366e-01 -2.720630e-01 -1.298955e-01 -7.956876e-01
<VARIANCE> 25
 2.029749e+01 3.066547e+01 3.368494e+01 5.057070e+01 4.296806e+01 5.593891e+01 3.659196e+01 3.710094e+01 4.034227e+01 3.575679e+01 3.262199e+01 2.925796e+01 5.569103e-01 1.011105e+00 1.171097e+00 1.448238e+00 1.440968e+00 2.011663e+00 1.814593e+00 1.739066e+00 1.905525e+00 1.867028e+00 1.539982e+00 1.274082e+00 7.538318e-01
<GCONST> 9.278246e+01
~t "T_e"
<ENDHMM>
~h "ll-e+r"
<BEGINHMM>
<NUMSTATES> 5
<STATE> 2
<MEAN> 25
 4.917822e+00 -3.046909e+00 -7.860230e-01 1.961976e+00 3.296882e+00 -3.095960e+00 -4.445966e+00 -4.378197e+00 -4.194638e+00 -1.446952e+00 1.146220e-01 1.648807e-01 1.062938e+00 -1.285595e+00 -6.981800e-01 4.423747e-01 5.001229e-01 -1.895295e+00 -1.787762e+00 -1.308817e+00 -1.084860e+00 1.344622e-01 6.617222e-01 3.701210e-01 1.670173e+00
<VARIANCE> 25
 3.577217e+01 3.706077e+01 4.774310e+01 6.015227e+01 4.925949e+01 6.036604e+01 5.010396e+01 4.977269e+01 4.858726e+01 3.950971e+01 3.013842e+01 2.473536e+01 2.384392e+00 2.958043e+00 2.685448e+00 3.858023e+00 3.340221e+00 5.064232e+00 4.063103e+00 3.681123e+00 4.037725e+00 4.174648e+00 3.332788e+00 2.898063e+00 2.226966e+00
<GCONST> 1.068105e+02
<STATE> 3
<MEAN> 25
 7.191195e+00 -7.001473e+00 -2.328277e+00 2.836691e+00 3.888689e+00 -7.911126e+00 -8.482172e+00 -6.657192e+00 -5.470276e+00 -1.285404e-01 1.987994e+00 7.147580e-01 8.514885e-02 -4.249433e-01 -1.496204e-01 2.818093e-01 1.203487e-01 -6.073316e-01 -4.420330e-01 -1.406531e-01 1.603031e-01 5.093133e-01 3.347531e-01 -4.041983e-02 2.952766e-01
<VARIANCE> 25
 2.837927e+01 3.550758e+01 4.376701e+01 6.339727e+01 5.782299e+01 6.153004e+01 4.445435e+01 4.665985e+01 4.438187e+01 4.603452e+01 3.686113e+01 3.249733e+01 5.579238e-01 9.633060e-01 1.396090e+00 1.826277e+00 1.583154e+00 2.003756e+00 1.982185e+00 1.856537e+00 2.013892e+00 2.006657e+00 1.751121e+00 1.508502e+00 5.828047e-01
<GCONST> 9.591582e+01
<STATE> 4
<MEAN> 25
 5.895019e+00 -4.724988e+00 -1.197292e+00 3.906052e+00 3.870449e+00 -6.545651e+00 -8.215060e+00 -6.679025e+00 -4.172563e+00 5.337154e-01 9.279272e-01 -6.742178e-01 -3.232698e-01 7.992764e-01 3.300467e-01 -6.339286e-02 7.912491e-02 1.004552e+00 6.088396e-01 3.772415e-01 3.436322e-01 -1.313366e-01 -2.720630e-01 -1.298955e-01 -7.956876e-01
<VARIANCE> 25
 2.029749e+01 3.066547e+01 3.368494e+01 5.057070e+01 4.296806e+01 5.593891e+01 3.659196e+01 3.710094e+01 4.034227e+01 3.575679e+01 3.262199e+01 2.925796e+01 5.569103e-01 1.011105e+00 1.171097e+00 1.448238e+00 1.440968e+00 2.011663e+00 1.814593e+00 1.739066e+00 1.905525e+00 1.867028e+00 1.539982e+00 1.274082e+00 7.538318e-01
<GCONST> 9.278246e+01
~t "T_e"
<ENDHMM>
~h "ll-e+s"
<BEGINHMM>
<NUMSTATES> 5
<STATE> 2
<MEAN> 25
 4.917822e+00 -3.046909e+00 -7.860230e-01 1.961976e+00 3.296882e+00 -3.095960e+00 -4.445966e+00 -4.378197e+00 -4.194638e+00 -1.446952e+00 1.146220e-01 1.648807e-01 1.062938e+00 -1.285595e+00 -6.981800e-01 4.423747e-01 5.001229e-01 -1.895295e+00 -1.787762e+00 -1.308817e+00 -1.084860e+00 1.344622e-01 6.617222e-01 3.701210e-01 1.670173e+00
<VARIANCE> 25
 3.577217e+01 3.706077e+01 4.774310e+01 6.015227e+01 4.925949e+01 6.036604e+01 5.010396e+01 4.977269e+01 4.858726e+01 3.950971e+01 3.013842e+01 2.473536e+01 2.384392e+00 2.958043e+00 2.685448e+00 3.858023e+00 3.340221e+00 5.064232e+00 4.063103e+00 3.681123e+00 4.037725e+00 4.174648e+00 3.332788e+00 2.898063e+00 2.226966e+00
<GCONST> 1.068105e+02
<STATE> 3
<MEAN> 25
 7.191195e+00 -7.001473e+00 -2.328277e+00 2.836691e+00 3.888689e+00 -7.911126e+00 -8.482172e+00 -6.657192e+00 -5.470276e+00 -1.285404e-01 1.987994e+00 7.147580e-01 8.514885e-02 -4.249433e-01 -1.496204e-01 2.818093e-01 1.203487e-01 -6.073316e-01 -4.420330e-01 -1.406531e-01 1.603031e-01 5.093133e-01 3.347531e-01 -4.041983e-02 2.952766e-01
<VARIANCE> 25
 2.837927e+01 3.550758e+01 4.376701e+01 6.339727e+01 5.782299e+01 6.153004e+01 4.445435e+01 4.665985e+01 4.438187e+01 4.603452e+01 3.686113e+01 3.249733e+01 5.579238e-01 9.633060e-01 1.396090e+00 1.826277e+00 1.583154e+00 2.003756e+00 1.982185e+00 1.856537e+00 2.013892e+00 2.006657e+00 1.751121e+00 1.508502e+00 5.828047e-01
<GCONST> 9.591582e+01
<STATE> 4
<MEAN> 25
 5.895019e+00 -4.724988e+00 -1.197292e+00 3.906052e+00 3.870449e+00 -6.545651e+00 -8.215060e+00 -6.679025e+00 -4.172563e+00 5.337154e-01 9.279272e-01 -6.742178e-01 -3.232698e-01 7.992764e-01 3.300467e-01 -6.339286e-02 7.912491e-02 1.004552e+00 6.088396e-01 3.772415e-01 3.436322e-01 -1.313366e-01 -2.720630e-01 -1.298955e-01 -7.956876e-01
<VARIANCE> 25
 2.029749e+01 3.066547e+01 3.368494e+01 5.057070e+01 4.296806e+01 5.593891e+01 3.659196e+01 3.710094e+01 4.034227e+01 3.575679e+01 3.262199e+01 2.925796e+01 5.569103e-01 1.011105e+00 1.171097e+00 1.448238e+00 1.440968e+00 2.011663e+00 1.814593e+00 1.739066e+00 1.905525e+00 1.867028e+00 1.539982e+00 1.274082e+00 7.538318e-01
<GCONST> 9.278246e+01
~t "T_e"
<ENDHMM>
~h "d-e+b"
<BEGINHMM>
<NUMSTATES> 5
<STATE> 2
<MEAN> 25
 4.917822e+00 -3.046909e+00 -7.860230e-01 1.961976e+00 3.296882e+00 -3.095960e+00 -4.445966e+00 -4.378197e+00 -4.194638e+00 -1.446952e+00 1.146220e-01 1.648807e-01 1.062938e+00 -1.285595e+00 -6.981800e-01 4.423747e-01 5.001229e-01 -1.895295e+00 -1.787762e+00 -1.308817e+00 -1.084860e+00 1.344622e-01 6.617222e-01 3.701210e-01 1.670173e+00
<VARIANCE> 25
 3.577217e+01 3.706077e+01 4.774310e+01 6.015227e+01 4.925949e+01 6.036604e+01 5.010396e+01 4.977269e+01 4.858726e+01 3.950971e+01 3.013842e+01 2.473536e+01 2.384392e+00 2.958043e+00 2.685448e+00 3.858023e+00 3.340221e+00 5.064232e+00 4.063103e+00 3.681123e+00 4.037725e+00 4.174648e+00 3.332788e+00 2.898063e+00 2.226966e+00
<GCONST> 1.068105e+02
<STATE> 3
<MEAN> 25
 7.191195e+00 -7.001473e+00 -2.328277e+00 2.836691e+00 3.888689e+00 -7.911126e+00 -8.482172e+00 -6.657192e+00 -5.470276e+00 -1.285404e-01 1.987994e+00 7.147580e-01 8.514885e-02 -4.249433e-01 -1.496204e-01 2.818093e-01 1.203487e-01 -6.073316e-01 -4.420330e-01 -1.406531e-01 1.603031e-01 5.093133e-01 3.347531e-01 -4.041983e-02 2.952766e-01
<VARIANCE> 25
 2.837927e+01 3.550758e+01 4.376701e+01 6.339727e+01 5.782299e+01 6.153004e+01 4.445435e+01 4.665985e+01 4.438187e+01 4.603452e+01 3.686113e+01 3.249733e+01 5.579238e-01 9.633060e-01 1.396090e+00 1.826277e+00 1.583154e+00 2.003756e+00 1.982185e+00 1.856537e+00 2.013892e+00 2.006657e+00 1.751121e+00 1.508502e+00 5.828047e-01
<GCONST> 9.591582e+01
<STATE> 4
<MEAN> 25
 5.895019e+00 -4.724988e+00 -1.197292e+00 3.906052e+00 3.870449e+00 -6.545651e+00 -8.215060e+00 -6.679025e+00 -4.172563e+00 5.337154e-01 9.279272e-01 -6.742178e-01 -3.232698e-01 7.992764e-01 3.300467e-01 -6.339286e-02 7.912491e-02 1.004552e+00 6.088396e-01 3.772415e-01 3.436322e-01 -1.313366e-01 -2.720630e-01 -1.298955e-01 -7.956876e-01
<VARIANCE> 25
 2.029749e+01 3.066547e+01 3.368494e+01 5.057070e+01 4.296806e+01 5.593891e+01 3.659196e+01 3.710094e+01 4.034227e+01 3.575679e+01 3.262199e+01 2.925796e+01 5.569103e-01 1.011105e+00 1.171097e+00 1.448238e+00 1.440968e+00 2.011663e+00 1.814593e+00 1.739066e+00 1.905525e+00 1.867028e+00 1.539982e+00 1.274082e+00 7.538318e-01
<GCONST> 9.278246e+01
~t "T_e"
<ENDHMM>
~h "d-e+d"
<BEGINHMM>
<NUMSTATES> 5
<STATE> 2
<MEAN> 25
 4.917822e+00 -3.046909e+00 -7.860230e-01 1.961976e+00 3.296882e+00 -3.095960e+00 -4.445966e+00 -4.378197e+00 -4.194638e+00 -1.446952e+00 1.146220e-01 1.648807e-01 1.062938e+00 -1.285595e+00 -6.981800e-01 4.423747e-01 5.001229e-01 -1.895295e+00 -1.787762e+00 -1.308817e+00 -1.084860e+00 1.344622e-01 6.617222e-01 3.701210e-01 1.670173e+00
<VARIANCE> 25
 3.577217e+01 3.706077e+01 4.774310e+01 6.015227e+01 4.925949e+01 6.036604e+01 5.010396e+01 4.977269e+01 4.858726e+01 3.950971e+01 3.013842e+01 2.473536e+01 2.384392e+00 2.958043e+00 2.685448e+00 3.858023e+00 3.340221e+00 5.064232e+00 4.063103e+00 3.681123e+00 4.037725e+00 4.174648e+00 3.332788e+00 2.898063e+00 2.226966e+00
<GCONST> 1.068105e+02
<STATE> 3
<MEAN> 25
 7.191195e+00 -7.001473e+00 -2.328277e+00 2.836691e+00 3.888689e+00 -7.911126e+00 -8.482172e+00 -6.657192e+00 -5.470276e+00 -1.285404e-01 1.987994e+00 7.147580e-01 8.514885e-02 -4.249433e-01 -1.496204e-01 2.818093e-01 1.203487e-01 -6.073316e-01 -4.420330e-01 -1.406531e-01 1.603031e-01 5.093133e-01 3.347531e-01 -4.041983e-02 2.952766e-01
<VARIANCE> 25
 2.837927e+01 3.550758e+01 4.376701e+01 6.339727e+01 5.782299e+01 6.153004e+01 4.445435e+01 4.665985e+01 4.438187e+01 4.603452e+01 3.686113e+01 3.249733e+01 5.579238e-01 9.633060e-01 1.396090e+00 1.826277e+00 1.583154e+00 2.003756e+00 1.982185e+00 1.856537e+00 2.013892e+00 2.006657e+00 1.751121e+00 1.508502e+00 5.828047e-01
<GCONST> 9.591582e+01
<STATE> 4
<MEAN> 25
 5.895019e+00 -4.724988e+00 -1.197292e+00 3.906052e+00 3.870449e+00 -6.545651e+00 -8.215060e+00 -6.679025e+00 -4.172563e+00 5.337154e-01 9.279272e-01 -6.742178e-01 -3.232698e-01 7.992764e-01 3.300467e-01 -6.339286e-02 7.912491e-02 1.004552e+00 6.088396e-01 3.772415e-01 3.436322e-01 -1.313366e-01 -2.720630e-01 -1.298955e-01 -7.956876e-01
<VARIANCE> 25
 2.029749e+01 3.066547e+01 3.368494e+01 5.057070e+01 4.296806e+01 5.593891e+01 3.659196e+01 3.710094e+01 4.034227e+01 3.575679e+01 3.262199e+01 2.925796e+01 5.569103e-01 1.011105e+00 1.171097e+00 1.448238e+00 1.440968e+00 2.011663e+00 1.814593e+00 1.739066e+00 1.905525e+00 1.867028e+00 1.539982e+00 1.274082e+00 7.538318e-01
<GCONST> 9.278246e+01
~t "T_e"
<ENDHMM>
~h "d-e+f"
<BEGINHMM>
<NUMSTATES> 5
<STATE> 2
<MEAN> 25
 4.917822e+00 -3.046909e+00 -7.860230e-01 1.961976e+00 3.296882e+00 -3.095960e+00 -4.445966e+00 -4.378197e+00 -4.194638e+00 -1.446952e+00 1.146220e-01 1.648807e-01 1.062938e+00 -1.285595e+00 -6.981800e-01 4.423747e-01 5.001229e-01 -1.895295e+00 -1.787762e+00 -1.308817e+00 -1.084860e+00 1.344622e-01 6.617222e-01 3.701210e-01 1.670173e+00
<VARIANCE> 25
 3.577217e+01 3.706077e+01 4.774310e+01 6.015227e+01 4.925949e+01 6.036604e+01 5.010396e+01 4.977269e+01 4.858726e+01 3.950971e+01 3.013842e+01 2.473536e+01 2.384392e+00 2.958043e+00 2.685448e+00 3.858023e+00 3.340221e+00 5.064232e+00 4.063103e+00 3.681123e+00 4.037725e+00 4.174648e+00 3.332788e+00 2.898063e+00 2.226966e+00
<GCONST> 1.068105e+02
<STATE> 3
<MEAN> 25
 7.191195e+00 -7.001473e+00 -2.328277e+00 2.836691e+00 3.888689e+00 -7.911126e+00 -8.482172e+00 -6.657192e+00 -5.470276e+00 -1.285404e-01 1.987994e+00 7.147580e-01 8.514885e-02 -4.249433e-01 -1.496204e-01 2.818093e-01 1.203487e-01 -6.073316e-01 -4.420330e-01 -1.406531e-01 1.603031e-01 5.093133e-01 3.347531e-01 -4.041983e-02 2.952766e-01
<VARIANCE> 25
 2.837927e+01 3.550758e+01 4.376701e+01 6.339727e+01 5.782299e+01 6.153004e+01 4.445435e+01 4.665985e+01 4.438187e+01 4.603452e+01 3.686113e+01 3.249733e+01 5.579238e-01 9.633060e-01 1.396090e+00 1.826277e+00 1.583154e+00 2.003756e+00 1.982185e+00 1.856537e+00 2.013892e+00 2.006657e+00 1.751121e+00 1.508502e+00 5.828047e-01
<GCONST> 9.591582e+01
<STATE> 4
<MEAN> 25
 5.895019e+00 -4.724988e+00 -1.197292e+00 3.906052e+00 3.870449e+00 -6.545651e+00 -8.215060e+00 -6.679025e+00 -4.172563e+00 5.337154e-01 9.279272e-01 -6.742178e-01 -3.232698e-01 7.992764e-01 3.300467e-01 -6.339286e-02 7.912491e-02 1.004552e+00 6.088396e-01 3.772415e-01 3.436322e-01 -1.313366e-01 -2.720630e-01 -1.298955e-01 -7.956876e-01
<VARIANCE> 25
 2.029749e+01 3.066547e+01 3.368494e+01 5.057070e+01 4.296806e+01 5.593891e+01 3.659196e+01 3.710094e+01 4.034227e+01 3.575679e+01 3.262199e+01 2.925796e+01 5.569103e-01 1.011105e+00 1.171097e+00 1.448238e+00 1.440968e+00 2.011663e+00 1.814593e+00 1.739066e+00 1.905525e+00 1.867028e+00 1.539982e+00 1.274082e+00 7.538318e-01
<GCONST> 9.278246e+01
~t "T_e"
<ENDHMM>
~h "d-e+k"
<BEGINHMM>
<NUMSTATES> 5
<STATE> 2
<MEAN> 25
 4.917822e+00 -3.046909e+00 -7.860230e-01 1.961976e+00 3.296882e+00 -3.095960e+00 -4.445966e+00 -4.378197e+00 -4.194638e+00 -1.446952e+00 1.146220e-01 1.648807e-01 1.062938e+00 -1.285595e+00 -6.981800e-01 4.423747e-01 5.001229e-01 -1.895295e+00 -1.787762e+00 -1.308817e+00 -1.084860e+00 1.344622e-01 6.617222e-01 3.701210e-01 1.670173e+00
<VARIANCE> 25
 3.577217e+01 3.706077e+01 4.774310e+01 6.015227e+01 4.925949e+01 6.036604e+01 5.010396e+01 4.977269e+01 4.858726e+01 3.950971e+01 3.013842e+01 2.473536e+01 2.384392e+00 2.958043e+00 2.685448e+00 3.858023e+00 3.340221e+00 5.064232e+00 4.063103e+00 3.681123e+00 4.037725e+00 4.174648e+00 3.332788e+00 2.898063e+00 2.226966e+00
<GCONST> 1.068105e+02
<STATE> 3
<MEAN> 25
 7.191195e+00 -7.001473e+00 -2.328277e+00 2.836691e+00 3.888689e+00 -7.911126e+00 -8.482172e+00 -6.657192e+00 -5.470276e+00 -1.285404e-01 1.987994e+00 7.147580e-01 8.514885e-02 -4.249433e-01 -1.496204e-01 2.818093e-01 1.203487e-01 -6.073316e-01 -4.420330e-01 -1.406531e-01 1.603031e-01 5.093133e-01 3.347531e-01 -4.041983e-02 2.952766e-01
<VARIANCE> 25
 2.837927e+01 3.550758e+01 4.376701e+01 6.339727e+01 5.782299e+01 6.153004e+01 4.445435e+01 4.665985e+01 4.438187e+01 4.603452e+01 3.686113e+01 3.249733e+01 5.579238e-01 9.633060e-01 1.396090e+00 1.826277e+00 1.583154e+00 2.003756e+00 1.982185e+00 1.856537e+00 2.013892e+00 2.006657e+00 1.751121e+00 1.508502e+00 5.828047e-01
<GCONST> 9.591582e+01
<STATE> 4
<MEAN> 25
 5.895019e+00 -4.724988e+00 -1.197292e+00 3.906052e+00 3.870449e+00 -6.545651e+00 -8.215060e+00 -6.679025e+00 -4.172563e+00 5.337154e-01 9.279272e-01 -6.742178e-01 -3.232698e-01 7.992764e-01 3.300467e-01 -6.339286e-02 7.912491e-02 1.004552e+00 6.088396e-01 3.772415e-01 3.436322e-01 -1.313366e-01 -2.720630e-01 -1.298955e-01 -7.956876e-01
<VARIANCE> 25
 2.029749e+01 3.066547e+01 3.368494e+01 5.057070e+01 4.296806e+01 5.593891e+01 3.659196e+01 3.710094e+01 4.034227e+01 3.575679e+01 3.262199e+01 2.925796e+01 5.569103e-01 1.011105e+00 1.171097e+00 1.448238e+00 1.440968e+00 2.011663e+00 1.814593e+00 1.739066e+00 1.905525e+00 1.867028e+00 1.539982e+00 1.274082e+00 7.538318e-01
<GCONST> 9.278246e+01
~t "T_e"
<ENDHMM>
~h "d-e+l"
<BEGINHMM>
<NUMSTATES> 5
<STATE> 2
<MEAN> 25
 4.917822e+00 -3.046909e+00 -7.860230e-01 1.961976e+00 3.296882e+00 -3.095960e+00 -4.445966e+00 -4.378197e+00 -4.194638e+00 -1.446952e+00 1.146220e-01 1.648807e-01 1.062938e+00 -1.285595e+00 -6.981800e-01 4.423747e-01 5.001229e-01 -1.895295e+00 -1.787762e+00 -1.308817e+00 -1.084860e+00 1.344622e-01 6.617222e-01 3.701210e-01 1.670173e+00
<VARIANCE> 25
 3.577217e+01 3.706077e+01 4.774310e+01 6.015227e+01 4.925949e+01 6.036604e+01 5.010396e+01 4.977269e+01 4.858726e+01 3.950971e+01 3.013842e+01 2.473536e+01 2.384392e+00 2.958043e+00 2.685448e+00 3.858023e+00 3.340221e+00 5.064232e+00 4.063103e+00 3.681123e+00 4.037725e+00 4.174648e+00 3.332788e+00 2.898063e+00 2.226966e+00
<GCONST> 1.068105e+02
<STATE> 3
<MEAN> 25
 7.191195e+00 -7.001473e+00 -2.328277e+00 2.836691e+00 3.888689e+00 -7.911126e+00 -8.482172e+00 -6.657192e+00 -5.470276e+00 -1.285404e-01 1.987994e+00 7.147580e-01 8.514885e-02 -4.249433e-01 -1.496204e-01 2.818093e-01 1.203487e-01 -6.073316e-01 -4.420330e-01 -1.406531e-01 1.603031e-01 5.093133e-01 3.347531e-01 -4.041983e-02 2.952766e-01
<VARIANCE> 25
 2.837927e+01 3.550758e+01 4.376701e+01 6.339727e+01 5.782299e+01 6.153004e+01 4.445435e+01 4.665985e+01 4.438187e+01 4.603452e+01 3.686113e+01 3.249733e+01 5.579238e-01 9.633060e-01 1.396090e+00 1.826277e+00 1.583154e+00 2.003756e+00 1.982185e+00 1.856537e+00 2.013892e+00 2.006657e+00 1.751121e+00 1.508502e+00 5.828047e-01
<GCONST> 9.591582e+01
<STATE> 4
<MEAN> 25
 5.895019e+00 -4.724988e+00 -1.197292e+00 3.906052e+00 3.870449e+00 -6.545651e+00 -8.215060e+00 -6.679025e+00 -4.172563e+00 5.337154e-01 9.279272e-01 -6.742178e-01 -3.232698e-01 7.992764e-01 3.300467e-01 -6.339286e-02 7.912491e-02 1.004552e+00 6.088396e-01 3.772415e-01 3.436322e-01 -1.313366e-01 -2.720630e-01 -1.298955e-01 -7.956876e-01
<VARIANCE> 25
 2.029749e+01 3.066547e+01 3.368494e+01 5.057070e+01 4.296806e+01 5.593891e+01 3.659196e+01 3.710094e+01 4.034227e+01 3.575679e+01 3.262199e+01 2.925796e+01 5.569103e-01 1.011105e+00 1.171097e+00 1.448238e+00 1.440968e+00 2.011663e+00 1.814593e+00 1.739066e+00 1.905525e+00 1.867028e+00 1.539982e+00 1.274082e+00 7.538318e-01
<GCONST> 9.278246e+01
~t "T_e"
<ENDHMM>
~h "d-e+m"
<BEGINHMM>
<NUMSTATES> 5
<STATE> 2
<MEAN> 25
 4.917822e+00 -3.046909e+00 -7.860230e-01 1.961976e+00 3.296882e+00 -3.095960e+00 -4.445966e+00 -4.378197e+00 -4.194638e+00 -1.446952e+00 1.146220e-01 1.648807e-01 1.062938e+00 -1.285595e+00 -6.981800e-01 4.423747e-01 5.001229e-01 -1.895295e+00 -1.787762e+00 -1.308817e+00 -1.084860e+00 1.344622e-01 6.617222e-01 3.701210e-01 1.670173e+00
<VARIANCE> 25
 3.577217e+01 3.706077e+01 4.774310e+01 6.015227e+01 4.925949e+01 6.036604e+01 5.010396e+01 4.977269e+01 4.858726e+01 3.950971e+01 3.013842e+01 2.473536e+01 2.384392e+00 2.958043e+00 2.685448e+00 3.858023e+00 3.340221e+00 5.064232e+00 4.063103e+00 3.681123e+00 4.037725e+00 4.174648e+00 3.332788e+00 2.898063e+00 2.226966e+00
<GCONST> 1.068105e+02
<STATE> 3
<MEAN> 25
 7.191195e+00 -7.001473e+00 -2.328277e+00 2.836691e+00 3.888689e+00 -7.911126e+00 -8.482172e+00 -6.657192e+00 -5.470276e+00 -1.285404e-01 1.987994e+00 7.147580e-01 8.514885e-02 -4.249433e-01 -1.496204e-01 2.818093e-01 1.203487e-01 -6.073316e-01 -4.420330e-01 -1.406531e-01 1.603031e-01 5.093133e-01 3.347531e-01 -4.041983e-02 2.952766e-01
<VARIANCE> 25
 2.837927e+01 3.550758e+01 4.376701e+01 6.339727e+01 5.782299e+01 6.153004e+01 4.445435e+01 4.665985e+01 4.438187e+01 4.603452e+01 3.686113e+01 3.249733e+01 5.579238e-01 9.633060e-01 1.396090e+00 1.826277e+00 1.583154e+00 2.003756e+00 1.982185e+00 1.856537e+00 2.013892e+00 2.006657e+00 1.751121e+00 1.508502e+00 5.828047e-01
<GCONST> 9.591582e+01
<STATE> 4
<MEAN> 25
 5.895019e+00 -4.724988e+00 -1.197292e+00 3.906052e+00 3.870449e+00 -6.545651e+00 -8.215060e+00 -6.679025e+00 -4.172563e+00 5.337154e-01 9.279272e-01 -6.742178e-01 -3.232698e-01 7.992764e-01 3.300467e-01 -6.339286e-02 7.912491e-02 1.004552e+00 6.088396e-01 3.772415e-01 3.436322e-01 -1.313366e-01 -2.720630e-01 -1.298955e-01 -7.956876e-01
<VARIANCE> 25
 2.029749e+01 3.066547e+01 3.368494e+01 5.057070e+01 4.296806e+01 5.593891e+01 3.659196e+01 3.710094e+01 4.034227e+01 3.575679e+01 3.262199e+01 2.925796e+01 5.569103e-01 1.011105e+00 1.171097e+00 1.448238e+00 1.440968e+00 2.011663e+00 1.814593e+00 1.739066e+00 1.905525e+00 1.867028e+00 1.539982e+00 1.274082e+00 7.538318e-01
<GCONST> 9.278246e+01
~t "T_e"
<ENDHMM>
~h "d-e+n"
<BEGINHMM>
<NUMSTATES> 5
<STATE> 2
<MEAN> 25
 4.917822e+00 -3.046909e+00 -7.860230e-01 1.961976e+00 3.296882e+00 -3.095960e+00 -4.445966e+00 -4.378197e+00 -4.194638e+00 -1.446952e+00 1.146220e-01 1.648807e-01 1.062938e+00 -1.285595e+00 -6.981800e-01 4.423747e-01 5.001229e-01 -1.895295e+00 -1.787762e+00 -1.308817e+00 -1.084860e+00 1.344622e-01 6.617222e-01 3.701210e-01 1.670173e+00
<VARIANCE> 25
 3.577217e+01 3.706077e+01 4.774310e+01 6.015227e+01 4.925949e+01 6.036604e+01 5.010396e+01 4.977269e+01 4.858726e+01 3.950971e+01 3.013842e+01 2.473536e+01 2.384392e+00 2.958043e+00 2.685448e+00 3.858023e+00 3.340221e+00 5.064232e+00 4.063103e+00 3.681123e+00 4.037725e+00 4.174648e+00 3.332788e+00 2.898063e+00 2.226966e+00
<GCONST> 1.068105e+02
<STATE> 3
<MEAN> 25
 7.191195e+00 -7.001473e+00 -2.328277e+00 2.836691e+00 3.888689e+00 -7.911126e+00 -8.482172e+00 -6.657192e+00 -5.470276e+00 -1.285404e-01 1.987994e+00 7.147580e-01 8.514885e-02 -4.249433e-01 -1.496204e-01 2.818093e-01 1.203487e-01 -6.073316e-01 -4.420330e-01 -1.406531e-01 1.603031e-01 5.093133e-01 3.347531e-01 -4.041983e-02 2.952766e-01
<VARIANCE> 25
 2.837927e+01 3.550758e+01 4.376701e+01 6.339727e+01 5.782299e+01 6.153004e+01 4.445435e+01 4.665985e+01 4.438187e+01 4.603452e+01 3.686113e+01 3.249733e+01 5.579238e-01 9.633060e-01 1.396090e+00 1.826277e+00 1.583154e+00 2.003756e+00 1.982185e+00 1.856537e+00 2.013892e+00 2.006657e+00 1.751121e+00 1.508502e+00 5.828047e-01
<GCONST> 9.591582e+01
<STATE> 4
<MEAN> 25
 5.895019e+00 -4.724988e+00 -1.197292e+00 3.906052e+00 3.870449e+00 -6.545651e+00 -8.215060e+00 -6.679025e+00 -4.172563e+00 5.337154e-01 9.279272e-01 -6.742178e-01 -3.232698e-01 7.992764e-01 3.300467e-01 -6.339286e-02 7.912491e-02 1.004552e+00 6.088396e-01 3.772415e-01 3.436322e-01 -1.313366e-01 -2.720630e-01 -1.298955e-01 -7.956876e-01
<VARIANCE> 25
 2.029749e+01 3.066547e+01 3.368494e+01 5.057070e+01 4.296806e+01 5.593891e+01 3.659196e+01 3.710094e+01 4.034227e+01 3.575679e+01 3.262199e+01 2.925796e+01 5.569103e-01 1.011105e+00 1.171097e+00 1.448238e+00 1.440968e+00 2.011663e+00 1.814593e+00 1.739066e+00 1.905525e+00 1.867028e+00 1.539982e+00 1.274082e+00 7.538318e-01
<GCONST> 9.278246e+01
~t "T_e"
<ENDHMM>
~h "d-e+o"
<BEGINHMM>
<NUMSTATES> 5
<STATE> 2
<MEAN> 25
 4.917822e+00 -3.046909e+00 -7.860230e-01 1.961976e+00 3.296882e+00 -3.095960e+00 -4.445966e+00 -4.378197e+00 -4.194638e+00 -1.446952e+00 1.146220e-01 1.648807e-01 1.062938e+00 -1.285595e+00 -6.981800e-01 4.423747e-01 5.001229e-01 -1.895295e+00 -1.787762e+00 -1.308817e+00 -1.084860e+00 1.344622e-01 6.617222e-01 3.701210e-01 1.670173e+00
<VARIANCE> 25
 3.577217e+01 3.706077e+01 4.774310e+01 6.015227e+01 4.925949e+01 6.036604e+01 5.010396e+01 4.977269e+01 4.858726e+01 3.950971e+01 3.013842e+01 2.473536e+01 2.384392e+00 2.958043e+00 2.685448e+00 3.858023e+00 3.340221e+00 5.064232e+00 4.063103e+00 3.681123e+00 4.037725e+00 4.174648e+00 3.332788e+00 2.898063e+00 2.226966e+00
<GCONST> 1.068105e+02
<STATE> 3
<MEAN> 25
 7.191195e+00 -7.001473e+00 -2.328277e+00 2.836691e+00 3.888689e+00 -7.911126e+00 -8.482172e+00 -6.657192e+00 -5.470276e+00 -1.285404e-01 1.987994e+00 7.147580e-01 8.514885e-02 -4.249433e-01 -1.496204e-01 2.818093e-01 1.203487e-01 -6.073316e-01 -4.420330e-01 -1.406531e-01 1.603031e-01 5.093133e-01 3.347531e-01 -4.041983e-02 2.952766e-01
<VARIANCE> 25
 2.837927e+01 3.550758e+01 4.376701e+01 6.339727e+01 5.782299e+01 6.153004e+01 4.445435e+01 4.665985e+01 4.438187e+01 4.603452e+01 3.686113e+01 3.249733e+01 5.579238e-01 9.633060e-01 1.396090e+00 1.826277e+00 1.583154e+00 2.003756e+00 1.982185e+00 1.856537e+00 2.013892e+00 2.006657e+00 1.751121e+00 1.508502e+00 5.828047e-01
<GCONST> 9.591582e+01
<STATE> 4
<MEAN> 25
 5.895019e+00 -4.724988e+00 -1.197292e+00 3.906052e+00 3.870449e+00 -6.545651e+00 -8.215060e+00 -6.679025e+00 -4.172563e+00 5.337154e-01 9.279272e-01 -6.742178e-01 -3.232698e-01 7.992764e-01 3.300467e-01 -6.339286e-02 7.912491e-02 1.004552e+00 6.088396e-01 3.772415e-01 3.436322e-01 -1.313366e-01 -2.720630e-01 -1.298955e-01 -7.956876e-01
<VARIANCE> 25
 2.029749e+01 3.066547e+01 3.368494e+01 5.057070e+01 4.296806e+01 5.593891e+01 3.659196e+01 3.710094e+01 4.034227e+01 3.575679e+01 3.262199e+01 2.925796e+01 5.569103e-01 1.011105e+00 1.171097e+00 1.448238e+00 1.440968e+00 2.011663e+00 1.814593e+00 1.739066e+00 1.905525e+00 1.867028e+00 1.539982e+00 1.274082e+00 7.538318e-01
<GCONST> 9.278246e+01
~t "T_e"
<ENDHMM>
~h "d-e+p"
<BEGINHMM>
<NUMSTATES> 5
<STATE> 2
<MEAN> 25
 4.917822e+00 -3.046909e+00 -7.860230e-01 1.961976e+00 3.296882e+00 -3.095960e+00 -4.445966e+00 -4.378197e+00 -4.194638e+00 -1.446952e+00 1.146220e-01 1.648807e-01 1.062938e+00 -1.285595e+00 -6.981800e-01 4.423747e-01 5.001229e-01 -1.895295e+00 -1.787762e+00 -1.308817e+00 -1.084860e+00 1.344622e-01 6.617222e-01 3.701210e-01 1.670173e+00
<VARIANCE> 25
 3.577217e+01 3.706077e+01 4.774310e+01 6.015227e+01 4.925949e+01 6.036604e+01 5.010396e+01 4.977269e+01 4.858726e+01 3.950971e+01 3.013842e+01 2.473536e+01 2.384392e+00 2.958043e+00 2.685448e+00 3.858023e+00 3.340221e+00 5.064232e+00 4.063103e+00 3.681123e+00 4.037725e+00 4.174648e+00 3.332788e+00 2.898063e+00 2.226966e+00
<GCONST> 1.068105e+02
<STATE> 3
<MEAN> 25
 7.191195e+00 -7.001473e+00 -2.328277e+00 2.836691e+00 3.888689e+00 -7.911126e+00 -8.482172e+00 -6.657192e+00 -5.470276e+00 -1.285404e-01 1.987994e+00 7.147580e-01 8.514885e-02 -4.249433e-01 -1.496204e-01 2.818093e-01 1.203487e-01 -6.073316e-01 -4.420330e-01 -1.406531e-01 1.603031e-01 5.093133e-01 3.347531e-01 -4.041983e-02 2.952766e-01
<VARIANCE> 25
 2.837927e+01 3.550758e+01 4.376701e+01 6.339727e+01 5.782299e+01 6.153004e+01 4.445435e+01 4.665985e+01 4.438187e+01 4.603452e+01 3.686113e+01 3.249733e+01 5.579238e-01 9.633060e-01 1.396090e+00 1.826277e+00 1.583154e+00 2.003756e+00 1.982185e+00 1.856537e+00 2.013892e+00 2.006657e+00 1.751121e+00 1.508502e+00 5.828047e-01
<GCONST> 9.591582e+01
<STATE> 4
<MEAN> 25
 5.895019e+00 -4.724988e+00 -1.197292e+00 3.906052e+00 3.870449e+00 -6.545651e+00 -8.215060e+00 -6.679025e+00 -4.172563e+00 5.337154e-01 9.279272e-01 -6.742178e-01 -3.232698e-01 7.992764e-01 3.300467e-01 -6.339286e-02 7.912491e-02 1.004552e+00 6.088396e-01 3.772415e-01 3.436322e-01 -1.313366e-01 -2.720630e-01 -1.298955e-01 -7.956876e-01
<VARIANCE> 25
 2.029749e+01 3.066547e+01 3.368494e+01 5.057070e+01 4.296806e+01 5.593891e+01 3.659196e+01 3.710094e+01 4.034227e+01 3.575679e+01 3.262199e+01 2.925796e+01 5.569103e-01 1.011105e+00 1.171097e+00 1.448238e+00 1.440968e+00 2.011663e+00 1.814593e+00 1.739066e+00 1.905525e+00 1.867028e+00 1.539982e+00 1.274082e+00 7.538318e-01
<GCONST> 9.278246e+01
~t "T_e"
<ENDHMM>
~h "d-e+r"
<BEGINHMM>
<NUMSTATES> 5
<STATE> 2
<MEAN> 25
 4.917822e+00 -3.046909e+00 -7.860230e-01 1.961976e+00 3.296882e+00 -3.095960e+00 -4.445966e+00 -4.378197e+00 -4.194638e+00 -1.446952e+00 1.146220e-01 1.648807e-01 1.062938e+00 -1.285595e+00 -6.981800e-01 4.423747e-01 5.001229e-01 -1.895295e+00 -1.787762e+00 -1.308817e+00 -1.084860e+00 1.344622e-01 6.617222e-01 3.701210e-01 1.670173e+00
<VARIANCE> 25
 3.577217e+01 3.706077e+01 4.774310e+01 6.015227e+01 4.925949e+01 6.036604e+01 5.010396e+01 4.977269e+01 4.858726e+01 3.950971e+01 3.013842e+01 2.473536e+01 2.384392e+00 2.958043e+00 2.685448e+00 3.858023e+00 3.340221e+00 5.064232e+00 4.063103e+00 3.681123e+00 4.037725e+00 4.174648e+00 3.332788e+00 2.898063e+00 2.226966e+00
<GCONST> 1.068105e+02
<STATE> 3
<MEAN> 25
 7.191195e+00 -7.001473e+00 -2.328277e+00 2.836691e+00 3.888689e+00 -7.911126e+00 -8.482172e+00 -6.657192e+00 -5.470276e+00 -1.285404e-01 1.987994e+00 7.147580e-01 8.514885e-02 -4.249433e-01 -1.496204e-01 2.818093e-01 1.203487e-01 -6.073316e-01 -4.420330e-01 -1.406531e-01 1.603031e-01 5.093133e-01 3.347531e-01 -4.041983e-02 2.952766e-01
<VARIANCE> 25
 2.837927e+01 3.550758e+01 4.376701e+01 6.339727e+01 5.782299e+01 6.153004e+01 4.445435e+01 4.665985e+01 4.438187e+01 4.603452e+01 3.686113e+01 3.249733e+01 5.579238e-01 9.633060e-01 1.396090e+00 1.826277e+00 1.583154e+00 2.003756e+00 1.982185e+00 1.856537e+00 2.013892e+00 2.006657e+00 1.751121e+00 1.508502e+00 5.828047e-01
<GCONST> 9.591582e+01
<STATE> 4
<MEAN> 25
 5.895019e+00 -4.724988e+00 -1.197292e+00 3.906052e+00 3.870449e+00 -6.545651e+00 -8.215060e+00 -6.679025e+00 -4.172563e+00 5.337154e-01 9.279272e-01 -6.742178e-01 -3.232698e-01 7.992764e-01 3.300467e-01 -6.339286e-02 7.912491e-02 1.004552e+00 6.088396e-01 3.772415e-01 3.436322e-01 -1.313366e-01 -2.720630e-01 -1.298955e-01 -7.956876e-01
<VARIANCE> 25
 2.029749e+01 3.066547e+01 3.368494e+01 5.057070e+01 4.296806e+01 5.593891e+01 3.659196e+01 3.710094e+01 4.034227e+01 3.575679e+01 3.262199e+01 2.925796e+01 5.569103e-01 1.011105e+00 1.171097e+00 1.448238e+00 1.440968e+00 2.011663e+00 1.814593e+00 1.739066e+00 1.905525e+00 1.867028e+00 1.539982e+00 1.274082e+00 7.538318e-01
<GCONST> 9.278246e+01
~t "T_e"
<ENDHMM>
~h "d-e+s"
<BEGINHMM>
<NUMSTATES> 5
<STATE> 2
<MEAN> 25
 4.917822e+00 -3.046909e+00 -7.860230e-01 1.961976e+00 3.296882e+00 -3.095960e+00 -4.445966e+00 -4.378197e+00 -4.194638e+00 -1.446952e+00 1.146220e-01 1.648807e-01 1.062938e+00 -1.285595e+00 -6.981800e-01 4.423747e-01 5.001229e-01 -1.895295e+00 -1.787762e+00 -1.308817e+00 -1.084860e+00 1.344622e-01 6.617222e-01 3.701210e-01 1.670173e+00
<VARIANCE> 25
 3.577217e+01 3.706077e+01 4.774310e+01 6.015227e+01 4.925949e+01 6.036604e+01 5.010396e+01 4.977269e+01 4.858726e+01 3.950971e+01 3.013842e+01 2.473536e+01 2.384392e+00 2.958043e+00 2.685448e+00 3.858023e+00 3.340221e+00 5.064232e+00 4.063103e+00 3.681123e+00 4.037725e+00 4.174648e+00 3.332788e+00 2.898063e+00 2.226966e+00
<GCONST> 1.068105e+02
<STATE> 3
<MEAN> 25
 7.191195e+00 -7.001473e+00 -2.328277e+00 2.836691e+00 3.888689e+00 -7.911126e+00 -8.482172e+00 -6.657192e+00 -5.470276e+00 -1.285404e-01 1.987994e+00 7.147580e-01 8.514885e-02 -4.249433e-01 -1.496204e-01 2.818093e-01 1.203487e-01 -6.073316e-01 -4.420330e-01 -1.406531e-01 1.603031e-01 5.093133e-01 3.347531e-01 -4.041983e-02 2.952766e-01
<VARIANCE> 25
 2.837927e+01 3.550758e+01 4.376701e+01 6.339727e+01 5.782299e+01 6.153004e+01 4.445435e+01 4.665985e+01 4.438187e+01 4.603452e+01 3.686113e+01 3.249733e+01 5.579238e-01 9.633060e-01 1.396090e+00 1.826277e+00 1.583154e+00 2.003756e+00 1.982185e+00 1.856537e+00 2.013892e+00 2.006657e+00 1.751121e+00 1.508502e+00 5.828047e-01
<GCONST> 9.591582e+01
<STATE> 4
<MEAN> 25
 5.895019e+00 -4.724988e+00 -1.197292e+00 3.906052e+00 3.870449e+00 -6.545651e+00 -8.215060e+00 -6.679025e+00 -4.172563e+00 5.337154e-01 9.279272e-01 -6.742178e-01 -3.232698e-01 7.992764e-01 3.300467e-01 -6.339286e-02 7.912491e-02 1.004552e+00 6.088396e-01 3.772415e-01 3.436322e-01 -1.313366e-01 -2.720630e-01 -1.298955e-01 -7.956876e-01
<VARIANCE> 25
 2.029749e+01 3.066547e+01 3.368494e+01 5.057070e+01 4.296806e+01 5.593891e+01 3.659196e+01 3.710094e+01 4.034227e+01 3.575679e+01 3.262199e+01 2.925796e+01 5.569103e-01 1.011105e+00 1.171097e+00 1.448238e+00 1.440968e+00 2.011663e+00 1.814593e+00 1.739066e+00 1.905525e+00 1.867028e+00 1.539982e+00 1.274082e+00 7.538318e-01
<GCONST> 9.278246e+01
~t "T_e"
<ENDHMM>
~h "d-e+t"
<BEGINHMM>
<NUMSTATES> 5
<STATE> 2
<MEAN> 25
 4.917822e+00 -3.046909e+00 -7.860230e-01 1.961976e+00 3.296882e+00 -3.095960e+00 -4.445966e+00 -4.378197e+00 -4.194638e+00 -1.446952e+00 1.146220e-01 1.648807e-01 1.062938e+00 -1.285595e+00 -6.981800e-01 4.423747e-01 5.001229e-01 -1.895295e+00 -1.787762e+00 -1.308817e+00 -1.084860e+00 1.344622e-01 6.617222e-01 3.701210e-01 1.670173e+00
<VARIANCE> 25
 3.577217e+01 3.706077e+01 4.774310e+01 6.015227e+01 4.925949e+01 6.036604e+01 5.010396e+01 4.977269e+01 4.858726e+01 3.950971e+01 3.013842e+01 2.473536e+01 2.384392e+00 2.958043e+00 2.685448e+00 3.858023e+00 3.340221e+00 5.064232e+00 4.063103e+00 3.681123e+00 4.037725e+00 4.174648e+00 3.332788e+00 2.898063e+00 2.226966e+00
<GCONST> 1.068105e+02
<STATE> 3
<MEAN> 25
 7.191195e+00 -7.001473e+00 -2.328277e+00 2.836691e+00 3.888689e+00 -7.911126e+00 -8.482172e+00 -6.657192e+00 -5.470276e+00 -1.285404e-01 1.987994e+00 7.147580e-01 8.514885e-02 -4.249433e-01 -1.496204e-01 2.818093e-01 1.203487e-01 -6.073316e-01 -4.420330e-01 -1.406531e-01 1.603031e-01 5.093133e-01 3.347531e-01 -4.041983e-02 2.952766e-01
<VARIANCE> 25
 2.837927e+01 3.550758e+01 4.376701e+01 6.339727e+01 5.782299e+01 6.153004e+01 4.445435e+01 4.665985e+01 4.438187e+01 4.603452e+01 3.686113e+01 3.249733e+01 5.579238e-01 9.633060e-01 1.396090e+00 1.826277e+00 1.583154e+00 2.003756e+00 1.982185e+00 1.856537e+00 2.013892e+00 2.006657e+00 1.751121e+00 1.508502e+00 5.828047e-01
<GCONST> 9.591582e+01
<STATE> 4
<MEAN> 25
 5.895019e+00 -4.724988e+00 -1.197292e+00 3.906052e+00 3.870449e+00 -6.545651e+00 -8.215060e+00 -6.679025e+00 -4.172563e+00 5.337154e-01 9.279272e-01 -6.742178e-01 -3.232698e-01 7.992764e-01 3.300467e-01 -6.339286e-02 7.912491e-02 1.004552e+00 6.088396e-01 3.772415e-01 3.436322e-01 -1.313366e-01 -2.720630e-01 -1.298955e-01 -7.956876e-01
<VARIANCE> 25
 2.029749e+01 3.066547e+01 3.368494e+01 5.057070e+01 4.296806e+01 5.593891e+01 3.659196e+01 3.710094e+01 4.034227e+01 3.575679e+01 3.262199e+01 2.925796e+01 5.569103e-01 1.011105e+00 1.171097e+00 1.448238e+00 1.440968e+00 2.011663e+00 1.814593e+00 1.739066e+00 1.905525e+00 1.867028e+00 1.539982e+00 1.274082e+00 7.538318e-01
<GCONST> 9.278246e+01
~t "T_e"
<ENDHMM>
~h "d-e+x"
<BEGINHMM>
<NUMSTATES> 5
<STATE> 2
<MEAN> 25
 4.917822e+00 -3.046909e+00 -7.860230e-01 1.961976e+00 3.296882e+00 -3.095960e+00 -4.445966e+00 -4.378197e+00 -4.194638e+00 -1.446952e+00 1.146220e-01 1.648807e-01 1.062938e+00 -1.285595e+00 -6.981800e-01 4.423747e-01 5.001229e-01 -1.895295e+00 -1.787762e+00 -1.308817e+00 -1.084860e+00 1.344622e-01 6.617222e-01 3.701210e-01 1.670173e+00
<VARIANCE> 25
 3.577217e+01 3.706077e+01 4.774310e+01 6.015227e+01 4.925949e+01 6.036604e+01 5.010396e+01 4.977269e+01 4.858726e+01 3.950971e+01 3.013842e+01 2.473536e+01 2.384392e+00 2.958043e+00 2.685448e+00 3.858023e+00 3.340221e+00 5.064232e+00 4.063103e+00 3.681123e+00 4.037725e+00 4.174648e+00 3.332788e+00 2.898063e+00 2.226966e+00
<GCONST> 1.068105e+02
<STATE> 3
<MEAN> 25
 7.191195e+00 -7.001473e+00 -2.328277e+00 2.836691e+00 3.888689e+00 -7.911126e+00 -8.482172e+00 -6.657192e+00 -5.470276e+00 -1.285404e-01 1.987994e+00 7.147580e-01 8.514885e-02 -4.249433e-01 -1.496204e-01 2.818093e-01 1.203487e-01 -6.073316e-01 -4.420330e-01 -1.406531e-01 1.603031e-01 5.093133e-01 3.347531e-01 -4.041983e-02 2.952766e-01
<VARIANCE> 25
 2.837927e+01 3.550758e+01 4.376701e+01 6.339727e+01 5.782299e+01 6.153004e+01 4.445435e+01 4.665985e+01 4.438187e+01 4.603452e+01 3.686113e+01 3.249733e+01 5.579238e-01 9.633060e-01 1.396090e+00 1.826277e+00 1.583154e+00 2.003756e+00 1.982185e+00 1.856537e+00 2.013892e+00 2.006657e+00 1.751121e+00 1.508502e+00 5.828047e-01
<GCONST> 9.591582e+01
<STATE> 4
<MEAN> 25
 5.895019e+00 -4.724988e+00 -1.197292e+00 3.906052e+00 3.870449e+00 -6.545651e+00 -8.215060e+00 -6.679025e+00 -4.172563e+00 5.337154e-01 9.279272e-01 -6.742178e-01 -3.232698e-01 7.992764e-01 3.300467e-01 -6.339286e-02 7.912491e-02 1.004552e+00 6.088396e-01 3.772415e-01 3.436322e-01 -1.313366e-01 -2.720630e-01 -1.298955e-01 -7.956876e-01
<VARIANCE> 25
 2.029749e+01 3.066547e+01 3.368494e+01 5.057070e+01 4.296806e+01 5.593891e+01 3.659196e+01 3.710094e+01 4.034227e+01 3.575679e+01 3.262199e+01 2.925796e+01 5.569103e-01 1.011105e+00 1.171097e+00 1.448238e+00 1.440968e+00 2.011663e+00 1.814593e+00 1.739066e+00 1.905525e+00 1.867028e+00 1.539982e+00 1.274082e+00 7.538318e-01
<GCONST> 9.278246e+01
~t "T_e"
<ENDHMM>
~h "n-u+a"
<BEGINHMM>
<NUMSTATES> 5
<STATE> 2
<MEAN> 25
 5.841117e+00 4.888117e+00 2.686566e+00 -7.820466e-01 -3.509169e+00 -4.456264e+00 -1.667651e+00 1.072235e+00 -1.711213e+00 -3.398537e+00 -2.842877e+00 -2.182095e+00 1.576147e+00 1.045471e+00 4.197832e-01 -3.047917e-01 -1.355020e+00 -2.229248e+00 -1.097899e+00 2.456878e-01 -2.158980e-01 -6.960759e-01 -8.961666e-01 -8.212398e-01 8.114035e-01
<VARIANCE> 25
 3.111406e+01 4.019774e+01 4.504975e+01 4.146431e+01 4.849731e+01 5.661042e+01 4.281160e+01 4.095763e+01 5.025994e+01 4.244762e+01 3.143690e+01 2.546618e+01 2.317891e+00 3.149550e+00 3.087908e+00 3.151040e+00 3.396149e+00 4.573932e+00 4.195843e+00 4.035922e+00 4.034451e+00 3.409064e+00 3.195040e+00 2.762604e+00 1.784756e+00
<GCONST> 1.055627e+02
<STATE> 3
<MEAN> 25
 8.658910e+00 5.000401e+00 2.954348e+00 -2.671335e+00 -7.457289e+00 -1.043769e+01 -3.682248e+00 2.342003e+00 -1.993913e+00 -4.053403e+00 -3.655970e+00 -3.858294e+00 3.619523e-01 -4.174033e-01 -5.004941e-01 -5.413764e-01 -3.661138e-01 -3.691237e-01 1.985084e-01 6.194838e-01 2.091379e-01 -3.094780e-01 -4.365371e-01 -2.890210e-01 4.863066e-01
<VARIANCE> 25
 1.982055e+01 3.754977e+01 4.485072e+01 4.602500e+01 4.835411e+01 5.230594e+01 4.533890e+01 4.689768e+01 6.356376e+01 4.307386e+01 3.556441e+01 3.444476e+01 5.694164e-01 2.171613e+00 2.316406e+00 1.907328e+00 2.369149e+00 3.386717e+00 2.927253e+00 3.053224e+00 2.962884e+00 2.837181e+00 2.662840e+00 2.209183e+00 9.819031e-01
<GCONST> 1.005687e+02
<STATE> 4
<MEAN> 25
 7.936549e+00 5.316041e+00 2.239468e+00 -2.040418e+00 -5.537446e+00 -6.998611e+00 -2.096663e+00 2.982105e+00 -1.124920e+00 -4.924550e+00 -4.786534e+00 -3.909861e+00 -1.936503e-01 -3.466140e-01 -3.004697e-01 2.804921e-01 7.471921e-01 1.043675e+00 4.173047e-01 -2.147343e-01 -1.894316e-01 -7.248510e-02 1.116081e-02 1.502710e-01 -1.055882e-01
<VARIANCE> 25
 1.968233e+01 3.080829e+01 3.984565e+01 3.763365e+01 3.553752e+01 4.067476e+01 4.069976e+01 3.915368e+01 5.144368e+01 3.819278e+01 3.066512e+01 2.631176e+01 3.753779e-01 1.220878e+00 1.362571e+00 1.493957e+00 2.004738e+00 2.727168e+00 2.026844e+00 2.105258e+00 2.403310e+00 2.200738e+00 1.975419e+00 1.823615e+00 5.097307e-01
<GCONST> 9.394715e+01
~t "T_u"
<ENDHMM>
~h "n-u+e"
<BEGINHMM>
<NUMSTATES> 5
<STATE> 2
<MEAN> 25
 5.841117e+00 4.888117e+00 2.686566e+00 -7.820466e-01 -3.509169e+00 -4.456264e+00 -1.667651e+00 1.072235e+00 -1.711213e+00 -3.398537e+00 -2.842877e+00 -2.182095e+00 1.576147e+00 1.045471e+00 4.197832e-01 -3.047917e-01 -1.355020e+00 -2.229248e+00 -1.097899e+00 2.456878e-01 -2.158980e-01 -6.960759e-01 -8.961666e-01 -8.212398e-01 8.114035e-01
<VARIANCE> 25
 3.111406e+01 4.019774e+01 4.504975e+01 4.146431e+01 4.849731e+01 5.661042e+01 4.281160e+01 4.095763e+01 5.025994e+01 4.244762e+01 3.143690e+01 2.546618e+01 2.317891e+00 3.149550e+00 3.087908e+00 3.151040e+00 3.396149e+00 4.573932e+00 4.195843e+00 4.035922e+00 4.034451e+00 3.409064e+00 3.195040e+00 2.762604e+00 1.784756e+00
<GCONST> 1.055627e+02
<STATE> 3
<MEAN> 25
 8.658910e+00 5.000401e+00 2.954348e+00 -2.671335e+00 -7.457289e+00 -1.043769e+01 -3.682248e+00 2.342003e+00 -1.993913e+00 -4.053403e+00 -3.655970e+00 -3.858294e+00 3.619523e-01 -4.174033e-01 -5.004941e-01 -5.413764e-01 -3.661138e-01 -3.691237e-01 1.985084e-01 6.194838e-01 2.091379e-01 -3.094780e-01 -4.365371e-01 -2.890210e-01 4.863066e-01
<VARIANCE> 25
 1.982055e+01 3.754977e+01 4.485072e+01 4.602500e+01 4.835411e+01 5.230594e+01 4.533890e+01 4.689768e+01 6.356376e+01 4.307386e+01 3.556441e+01 3.444476e+01 5.694164e-01 2.171613e+00 2.316406e+00 1.907328e+00 2.369149e+00 3.386717e+00 2.927253e+00 3.053224e+00 2.962884e+00 2.837181e+00 2.662840e+00 2.209183e+00 9.819031e-01
<GCONST> 1.005687e+02
<STATE> 4
<MEAN> 25
 7.936549e+00 5.316041e+00 2.239468e+00 -2.040418e+00 -5.537446e+00 -6.998611e+00 -2.096663e+00 2.982105e+00 -1.124920e+00 -4.924550e+00 -4.786534e+00 -3.909861e+00 -1.936503e-01 -3.466140e-01 -3.004697e-01 2.804921e-01 7.471921e-01 1.043675e+00 4.173047e-01 -2.147343e-01 -1.894316e-01 -7.248510e-02 1.116081e-02 1.502710e-01 -1.055882e-01
<VARIANCE> 25
 1.968233e+01 3.080829e+01 3.984565e+01 3.763365e+01 3.553752e+01 4.067476e+01 4.069976e+01 3.915368e+01 5.144368e+01 3.819278e+01 3.066512e+01 2.631176e+01 3.753779e-01 1.220878e+00 1.362571e+00 1.493957e+00 2.004738e+00 2.727168e+00 2.026844e+00 2.105258e+00 2.403310e+00 2.200738e+00 1.975419e+00 1.823615e+00 5.097307e-01
<GCONST> 9.394715e+01
~t "T_u"
<ENDHMM>
~h "n-u+m"
<BEGINHMM>
<NUMSTATES> 5
<STATE> 2
<MEAN> 25
 5.841117e+00 4.888117e+00 2.686566e+00 -7.820466e-01 -3.509169e+00 -4.456264e+00 -1.667651e+00 1.072235e+00 -1.711213e+00 -3.398537e+00 -2.842877e+00 -2.182095e+00 1.576147e+00 1.045471e+00 4.197832e-01 -3.047917e-01 -1.355020e+00 -2.229248e+00 -1.097899e+00 2.456878e-01 -2.158980e-01 -6.960759e-01 -8.961666e-01 -8.212398e-01 8.114035e-01
<VARIANCE> 25
 3.111406e+01 4.019774e+01 4.504975e+01 4.146431e+01 4.849731e+01 5.661042e+01 4.281160e+01 4.095763e+01 5.025994e+01 4.244762e+01 3.143690e+01 2.546618e+01 2.317891e+00 3.149550e+00 3.087908e+00 3.151040e+00 3.396149e+00 4.573932e+00 4.195843e+00 4.035922e+00 4.034451e+00 3.409064e+00 3.195040e+00 2.762604e+00 1.784756e+00
<GCONST> 1.055627e+02
<STATE> 3
<MEAN> 25
 8.658910e+00 5.000401e+00 2.954348e+00 -2.671335e+00 -7.457289e+00 -1.043769e+01 -3.682248e+00 2.342003e+00 -1.993913e+00 -4.053403e+00 -3.655970e+00 -3.858294e+00 3.619523e-01 -4.174033e-01 -5.004941e-01 -5.413764e-01 -3.661138e-01 -3.691237e-01 1.985084e-01 6.194838e-01 2.091379e-01 -3.094780e-01 -4.365371e-01 -2.890210e-01 4.863066e-01
<VARIANCE> 25
 1.982055e+01 3.754977e+01 4.485072e+01 4.602500e+01 4.835411e+01 5.230594e+01 4.533890e+01 4.689768e+01 6.356376e+01 4.307386e+01 3.556441e+01 3.444476e+01 5.694164e-01 2.171613e+00 2.316406e+00 1.907328e+00 2.369149e+00 3.386717e+00 2.927253e+00 3.053224e+00 2.962884e+00 2.837181e+00 2.662840e+00 2.209183e+00 9.819031e-01
<GCONST> 1.005687e+02
<STATE> 4
<MEAN> 25
 7.936549e+00 5.316041e+00 2.239468e+00 -2.040418e+00 -5.537446e+00 -6.998611e+00 -2.096663e+00 2.982105e+00 -1.124920e+00 -4.924550e+00 -4.786534e+00 -3.909861e+00 -1.936503e-01 -3.466140e-01 -3.004697e-01 2.804921e-01 7.471921e-01 1.043675e+00 4.173047e-01 -2.147343e-01 -1.894316e-01 -7.248510e-02 1.116081e-02 1.502710e-01 -1.055882e-01
<VARIANCE> 25
 1.968233e+01 3.080829e+01 3.984565e+01 3.763365e+01 3.553752e+01 4.067476e+01 4.069976e+01 3.915368e+01 5.144368e+01 3.819278e+01 3.066512e+01 2.631176e+01 3.753779e-01 1.220878e+00 1.362571e+00 1.493957e+00 2.004738e+00 2.727168e+00 2.026844e+00 2.105258e+00 2.403310e+00 2.200738e+00 1.975419e+00 1.823615e+00 5.097307e-01
<GCONST> 9.394715e+01
~t "T_u"
<ENDHMM>
~h "n-u+n"
<BEGINHMM>
<NUMSTATES> 5
<STATE> 2
<MEAN> 25
 5.841117e+00 4.888117e+00 2.686566e+00 -7.820466e-01 -3.509169e+00 -4.456264e+00 -1.667651e+00 1.072235e+00 -1.711213e+00 -3.398537e+00 -2.842877e+00 -2.182095e+00 1.576147e+00 1.045471e+00 4.197832e-01 -3.047917e-01 -1.355020e+00 -2.229248e+00 -1.097899e+00 2.456878e-01 -2.158980e-01 -6.960759e-01 -8.961666e-01 -8.212398e-01 8.114035e-01
<VARIANCE> 25
 3.111406e+01 4.019774e+01 4.504975e+01 4.146431e+01 4.849731e+01 5.661042e+01 4.281160e+01 4.095763e+01 5.025994e+01 4.244762e+01 3.143690e+01 2.546618e+01 2.317891e+00 3.149550e+00 3.087908e+00 3.151040e+00 3.396149e+00 4.573932e+00 4.195843e+00 4.035922e+00 4.034451e+00 3.409064e+00 3.195040e+00 2.762604e+00 1.784756e+00
<GCONST> 1.055627e+02
<STATE> 3
<MEAN> 25
 8.658910e+00 5.000401e+00 2.954348e+00 -2.671335e+00 -7.457289e+00 -1.043769e+01 -3.682248e+00 2.342003e+00 -1.993913e+00 -4.053403e+00 -3.655970e+00 -3.858294e+00 3.619523e-01 -4.174033e-01 -5.004941e-01 -5.413764e-01 -3.661138e-01 -3.691237e-01 1.985084e-01 6.194838e-01 2.091379e-01 -3.094780e-01 -4.365371e-01 -2.890210e-01 4.863066e-01
<VARIANCE> 25
 1.982055e+01 3.754977e+01 4.485072e+01 4.602500e+01 4.835411e+01 5.230594e+01 4.533890e+01 4.689768e+01 6.356376e+01 4.307386e+01 3.556441e+01 3.444476e+01 5.694164e-01 2.171613e+00 2.316406e+00 1.907328e+00 2.369149e+00 3.386717e+00 2.927253e+00 3.053224e+00 2.962884e+00 2.837181e+00 2.662840e+00 2.209183e+00 9.819031e-01
<GCONST> 1.005687e+02
<STATE> 4
<MEAN> 25
 7.936549e+00 5.316041e+00 2.239468e+00 -2.040418e+00 -5.537446e+00 -6.998611e+00 -2.096663e+00 2.982105e+00 -1.124920e+00 -4.924550e+00 -4.786534e+00 -3.909861e+00 -1.936503e-01 -3.466140e-01 -3.004697e-01 2.804921e-01 7.471921e-01 1.043675e+00 4.173047e-01 -2.147343e-01 -1.894316e-01 -7.248510e-02 1.116081e-02 1.502710e-01 -1.055882e-01
<VARIANCE> 25
 1.968233e+01 3.080829e+01 3.984565e+01 3.763365e+01 3.553752e+01 4.067476e+01 4.069976e+01 3.915368e+01 5.144368e+01 3.819278e+01 3.066512e+01 2.631176e+01 3.753779e-01 1.220878e+00 1.362571e+00 1.493957e+00 2.004738e+00 2.727168e+00 2.026844e+00 2.105258e+00 2.403310e+00 2.200738e+00 1.975419e+00 1.823615e+00 5.097307e-01
<GCONST> 9.394715e+01
~t "T_u"
<ENDHMM>
~h "r-o+ll"
<BEGINHMM>
<NUMSTATES> 5
<STATE> 2
<MEAN> 25
 8.202134e+00 8.756948e-01 -1.556870e+00 -2.412576e+00 -4.135490e+00 -5.283045e+00 -1.325630e+00 5.514442e-01 -3.256593e+00 -4.464030e+00 -3.179199e+00 -1.018459e+00 8.533680e-01 5.628624e-02 -4.272498e-01 -1.163086e+00 -1.742013e+00 -1.833407e+00 -1.006363e-01 8.327968e-01 2.565329e-01 -1.784475e-01 -2.551433e-01 1.000556e-01 7.841955e-01
<VARIANCE> 25
 2.727819e+01 4.614404e+01 4.546624e+01 5.624189e+01 6.257309e+01 6.102062e+01 4.518742e+01 4.939813e+01 5.469617e+01 4.219932e+01 3.056493e+01 2.847985e+01 1.604221e+00 2.714622e+00 2.414845e+00 3.306103e+00 3.399673e+00 4.293542e+00 4.410888e+00 3.910635e+00 3.812121e+00 3.509329e+00 2.851977e+00 2.694980e+00 1.552250e+00
<GCONST> 1.055529e+02
<STATE> 3
<MEAN> 25
 9.608891e+00 1.841884e+00 -1.624231e+00 -4.843653e+00 -1.056682e+01 -1.047259e+01 -3.275502e-01 4.228262e+00 -8.981493e-01 -3.707518e+00 -3.771726e+00 -1.847208e+00 -1.603226e-01 3.746803e-01 2.492852e-02 -5.283350e-02 -1.316152e-01 2.060792e-01 2.320018e-01 3.473101e-01 4.636069e-01 2.421327e-01 -1.011645e-03 -9.001540e-02 -4.208844e-01
<VARIANCE> 25
 2.191664e+01 3.832346e+01 3.536129e+01 4.552036e+01 5.146196e+01 5.402416e+01 4.532333e+01 4.316967e+01 5.194213e+01 3.791486e+01 2.724122e+01 2.477335e+01 5.759985e-01 1.296905e+00 1.329783e+00 1.436117e+00 2.015944e+00 2.854960e+00 1.984985e+00 2.227589e+00 2.343580e+00 2.045362e+00 1.638120e+00 1.449960e+00 1.066268e+00
<GCONST> 9.576168e+01
<STATE> 4
<MEAN> 25
 5.920141e+00 4.729104e+00 -6.619071e-01 -3.592440e+00 -6.668617e+00 -4.437122e+00 3.776827e-01 3.175261e+00 9.050462e-01 -1.454790e+00 -2.326509e+00 -1.249121e+00 -6.257654e-01 -3.906129e-02 1.678127e-01 4.218079e-01 7.039407e-01 9.980335e-01 2.885799e-01 -2.038472e-01 -1.773957e-02 1.877047e-01 2.155907e-01 8.154663e-02 -5.345345e-01
<VARIANCE> 25
 2.381943e+01 3.168683e+01 3.073319e+01 3.372535e+01 3.205265e+01 4.222814e+01 3.201194e+01 3.300840e+01 3.498757e+01 3.150789e+01 2.243595e+01 1.901501e+01 4.852379e-01 7.335701e-01 1.011674e+00 1.084659e+00 1.496157e+00 1.967000e+00 1.648281e+00 1.688958e+00 1.686677e+00 1.518985e+00 1.305284e+00 1.193857e+00 3.831035e-01
<GCONST> 8.833953e+01
~t "T_o"
<ENDHMM>
~h "r-o+ny"
<BEGINHMM>
<NUMSTATES> 5
<STATE> 2
<MEAN> 25
 8.202134e+00 8.756948e-01 -1.556870e+00 -2.412576e+00 -4.135490e+00 -5.283045e+00 -1.325630e+00 5.514442e-01 -3.256593e+00 -4.464030e+00 -3.179199e+00 -1.018459e+00 8.533680e-01 5.628624e-02 -4.272498e-01 -1.163086e+00 -1.742013e+00 -1.833407e+00 -1.006363e-01 8.327968e-01 2.565329e-01 -1.784475e-01 -2.551433e-01 1.000556e-01 7.841955e-01
<VARIANCE> 25
 2.727819e+01 4.614404e+01 4.546624e+01 5.624189e+01 6.257309e+01 6.102062e+01 4.518742e+01 4.939813e+01 5.469617e+01 4.219932e+01 3.056493e+01 2.847985e+01 1.604221e+00 2.714622e+00 2.414845e+00 3.306103e+00 3.399673e+00 4.293542e+00 4.410888e+00 3.910635e+00 3.812121e+00 3.509329e+00 2.851977e+00 2.694980e+00 1.552250e+00
<GCONST> 1.055529e+02
<STATE> 3
<MEAN> 25
 9.608891e+00 1.841884e+00 -1.624231e+00 -4.843653e+00 -1.056682e+01 -1.047259e+01 -3.275502e-01 4.228262e+00 -8.981493e-01 -3.707518e+00 -3.771726e+00 -1.847208e+00 -1.603226e-01 3.746803e-01 2.492852e-02 -5.283350e-02 -1.316152e-01 2.060792e-01 2.320018e-01 3.473101e-01 4.636069e-01 2.421327e-01 -1.011645e-03 -9.001540e-02 -4.208844e-01
<VARIANCE> 25
 2.191664e+01 3.832346e+01 3.536129e+01 4.552036e+01 5.146196e+01 5.402416e+01 4.532333e+01 4.316967e+01 5.194213e+01 3.791486e+01 2.724122e+01 2.477335e+01 5.759985e-01 1.296905e+00 1.329783e+00 1.436117e+00 2.015944e+00 2.854960e+00 1.984985e+00 2.227589e+00 2.343580e+00 2.045362e+00 1.638120e+00 1.449960e+00 1.066268e+00
<GCONST> 9.576168e+01
<STATE> 4
<MEAN> 25
 5.920141e+00 4.729104e+00 -6.619071e-01 -3.592440e+00 -6.668617e+00 -4.437122e+00 3.776827e-01 3.175261e+00 9.050462e-01 -1.454790e+00 -2.326509e+00 -1.249121e+00 -6.257654e-01 -3.906129e-02 1.678127e-01 4.218079e-01 7.039407e-01 9.980335e-01 2.885799e-01 -2.038472e-01 -1.773957e-02 1.877047e-01 2.155907e-01 8.154663e-02 -5.345345e-01
<VARIANCE> 25
 2.381943e+01 3.168683e+01 3.073319e+01 3.372535e+01 3.205265e+01 4.222814e+01 3.201194e+01 3.300840e+01 3.498757e+01 3.150789e+01 2.243595e+01 1.901501e+01 4.852379e-01 7.335701e-01 1.011674e+00 1.084659e+00 1.496157e+00 1.967000e+00 1.648281e+00 1.688958e+00 1.686677e+00 1.518985e+00 1.305284e+00 1.193857e+00 3.831035e-01
<GCONST> 8.833953e+01
~t "T_o"
<ENDHMM>
~h "r-o+th"
<BEGINHMM>
<NUMSTATES> 5
<STATE> 2
<MEAN> 25
 8.202134e+00 8.756948e-01 -1.556870e+00 -2.412576e+00 -4.135490e+00 -5.283045e+00 -1.325630e+00 5.514442e-01 -3.256593e+00 -4.464030e+00 -3.179199e+00 -1.018459e+00 8.533680e-01 5.628624e-02 -4.272498e-01 -1.163086e+00 -1.742013e+00 -1.833407e+00 -1.006363e-01 8.327968e-01 2.565329e-01 -1.784475e-01 -2.551433e-01 1.000556e-01 7.841955e-01
<VARIANCE> 25
 2.727819e+01 4.614404e+01 4.546624e+01 5.624189e+01 6.257309e+01 6.102062e+01 4.518742e+01 4.939813e+01 5.469617e+01 4.219932e+01 3.056493e+01 2.847985e+01 1.604221e+00 2.714622e+00 2.414845e+00 3.306103e+00 3.399673e+00 4.293542e+00 4.410888e+00 3.910635e+00 3.812121e+00 3.509329e+00 2.851977e+00 2.694980e+00 1.552250e+00
<GCONST> 1.055529e+02
<STATE> 3
<MEAN> 25
 9.608891e+00 1.841884e+00 -1.624231e+00 -4.843653e+00 -1.056682e+01 -1.047259e+01 -3.275502e-01 4.228262e+00 -8.981493e-01 -3.707518e+00 -3.771726e+00 -1.847208e+00 -1.603226e-01 3.746803e-01 2.492852e-02 -5.283350e-02 -1.316152e-01 2.060792e-01 2.320018e-01 3.473101e-01 4.636069e-01 2.421327e-01 -1.011645e-03 -9.001540e-02 -4.208844e-01
<VARIANCE> 25
 2.191664e+01 3.832346e+01 3.536129e+01 4.552036e+01 5.146196e+01 5.402416e+01 4.532333e+01 4.316967e+01 5.194213e+01 3.791486e+01 2.724122e+01 2.477335e+01 5.759985e-01 1.296905e+00 1.329783e+00 1.436117e+00 2.015944e+00 2.854960e+00 1.984985e+00 2.227589e+00 2.343580e+00 2.045362e+00 1.638120e+00 1.449960e+00 1.066268e+00
<GCONST> 9.576168e+01
<STATE> 4
<MEAN> 25
 5.920141e+00 4.729104e+00 -6.619071e-01 -3.592440e+00 -6.668617e+00 -4.437122e+00 3.776827e-01 3.175261e+00 9.050462e-01 -1.454790e+00 -2.326509e+00 -1.249121e+00 -6.257654e-01 -3.906129e-02 1.678127e-01 4.218079e-01 7.039407e-01 9.980335e-01 2.885799e-01 -2.038472e-01 -1.773957e-02 1.877047e-01 2.155907e-01 8.154663e-02 -5.345345e-01
<VARIANCE> 25
 2.381943e+01 3.168683e+01 3.073319e+01 3.372535e+01 3.205265e+01 4.222814e+01 3.201194e+01 3.300840e+01 3.498757e+01 3.150789e+01 2.243595e+01 1.901501e+01 4.852379e-01 7.335701e-01 1.011674e+00 1.084659e+00 1.496157e+00 1.967000e+00 1.648281e+00 1.688958e+00 1.686677e+00 1.518985e+00 1.305284e+00 1.193857e+00 3.831035e-01
<GCONST> 8.833953e+01
~t "T_o"
<ENDHMM>
~h "d-i+a"
<BEGINHMM>
<NUMSTATES> 5
<STATE> 2
<MEAN> 25
 2.824880e+00 -2.961581e+00 4.292364e+00 7.499251e+00 7.346193e+00 -2.067250e+00 -5.297520e+00 -2.873806e+00 -2.378581e+00 -1.973293e+00 -2.520489e+00 -3.736685e+00 1.015099e+00 -9.724852e-01 2.479329e-01 2.179622e+00 1.426837e+00 -2.128228e+00 -2.309814e+00 -3.848035e-01 -7.270547e-01 -7.560874e-01 -6.794949e-01 -8.365397e-01 1.175898e+00
<VARIANCE> 25
 3.374600e+01 3.967356e+01 6.750194e+01 6.375350e+01 5.781096e+01 6.437442e+01 4.980933e+01 4.415491e+01 4.445846e+01 3.540117e+01 3.356274e+01 2.704606e+01 3.132528e+00 4.137255e+00 3.621446e+00 4.487921e+00 4.215056e+00 5.312013e+00 4.005538e+00 3.824685e+00 4.409300e+00 4.209664e+00 3.923692e+00 2.984154e+00 1.617640e+00
<GCONST> 1.086541e+02
<STATE> 3
<MEAN> 25
 3.691633e+00 -6.378765e+00 6.166086e+00 1.236009e+01 7.380941e+00 -9.047977e+00 -9.580333e+00 -1.629763e+00 -3.102339e+00 -4.599288e+00 -4.548250e+00 -5.048493e+00 8.359629e-02 -2.991736e-01 1.296623e-01 4.305927e-01 9.667514e-03 -8.290642e-01 -5.818837e-01 1.603395e-01 8.957740e-02 -1.876646e-01 -1.591199e-01 -1.092843e-01 2.681427e-01
<VARIANCE> 25
 2.149308e+01 3.103732e+01 4.970968e+01 5.873264e+01 7.158559e+01 6.920425e+01 3.966159e+01 4.495304e+01 4.204121e+01 4.275245e+01 4.102441e+01 2.954641e+01 6.639252e-01 9.264812e-01 1.883231e+00 1.858640e+00 1.558079e+00 2.146437e+00 1.929194e+00 2.097977e+00 1.840118e+00 1.884095e+00 1.595546e+00 1.333590e+00 5.259222e-01
<GCONST> 9.574519e+01
<STATE> 4
<MEAN> 25
 4.036044e+00 -4.218312e+00 4.209880e+00 1.037407e+01 7.996428e+00 -6.247262e+00 -9.419474e+00 -3.331409e+00 -2.663913e+00 -2.918104e+00 -3.142705e+00 -4.376024e+00 3.821991e-02 8.336469e-01 -6.000085e-01 -1.181883e+00 -5.675405e-01 1.117856e+00 8.718380e-01 -2.187419e-01 -3.897155e-02 3.511441e-01 4.869802e-01 5.886047e-01 -5.325214e-01
<VARIANCE> 25
 1.972391e+01 3.227742e+01 4.309776e+01 5.167957e+01 5.495691e+01 6.691110e+01 3.850472e+01 4.351723e+01 4.154246e+01 3.556070e+01 3.517086e+01 2.803684e+01 6.999541e-01 1.390189e+00 1.663853e+00 1.824908e+00 1.964548e+00 2.784639e+00 2.501812e+00 2.236512e+00 2.341234e+00 2.148965e+00 1.947036e+00 1.699689e+00 1.056007e+00
<GCONST> 9.730878e+01
~t "T_i"
<ENDHMM>
~h "d-i+b"
<BEGINHMM>
<NUMSTATES> 5
<STATE> 2
<MEAN> 25
 2.824880e+00 -2.961581e+00 4.292364e+00 7.499251e+00 7.346193e+00 -2.067250e+00 -5.297520e+00 -2.873806e+00 -2.378581e+00 -1.973293e+00 -2.520489e+00 -3.736685e+00 1.015099e+00 -9.724852e-01 2.479329e-01 2.179622e+00 1.426837e+00 -2.128228e+00 -2.309814e+00 -3.848035e-01 -7.270547e-01 -7.560874e-01 -6.794949e-01 -8.365397e-01 1.175898e+00
<VARIANCE> 25
 3.374600e+01 3.967356e+01 6.750194e+01 6.375350e+01 5.781096e+01 6.437442e+01 4.980933e+01 4.415491e+01 4.445846e+01 3.540117e+01 3.356274e+01 2.704606e+01 3.132528e+00 4.137255e+00 3.621446e+00 4.487921e+00 4.215056e+00 5.312013e+00 4.005538e+00 3.824685e+00 4.409300e+00 4.209664e+00 3.923692e+00 2.984154e+00 1.617640e+00
<GCONST> 1.086541e+02
<STATE> 3
<MEAN> 25
 3.691633e+00 -6.378765e+00 6.166086e+00 1.236009e+01 7.380941e+00 -9.047977e+00 -9.580333e+00 -1.629763e+00 -3.102339e+00 -4.599288e+00 -4.548250e+00 -5.048493e+00 8.359629e-02 -2.991736e-01 1.296623e-01 4.305927e-01 9.667514e-03 -8.290642e-01 -5.818837e-01 1.603395e-01 8.957740e-02 -1.876646e-01 -1.591199e-01 -1.092843e-01 2.681427e-01
<VARIANCE> 25
 2.149308e+01 3.103732e+01 4.970968e+01 5.873264e+01 7.158559e+01 6.920425e+01 3.966159e+01 4.495304e+01 4.204121e+01 4.275245e+01 4.102441e+01 2.954641e+01 6.639252e-01 9.264812e-01 1.883231e+00 1.858640e+00 1.558079e+00 2.146437e+00 1.929194e+00 2.097977e+00 1.840118e+00 1.884095e+00 1.595546e+00 1.333590e+00 5.259222e-01
<GCONST> 9.574519e+01
<STATE> 4
<MEAN> 25
 4.036044e+00 -4.218312e+00 4.209880e+00 1.037407e+01 7.996428e+00 -6.247262e+00 -9.419474e+00 -3.331409e+00 -2.663913e+00 -2.918104e+00 -3.142705e+00 -4.376024e+00 3.821991e-02 8.336469e-01 -6.000085e-01 -1.181883e+00 -5.675405e-01 1.117856e+00 8.718380e-01 -2.187419e-01 -3.897155e-02 3.511441e-01 4.869802e-01 5.886047e-01 -5.325214e-01
<VARIANCE> 25
 1.972391e+01 3.227742e+01 4.309776e+01 5.167957e+01 5.495691e+01 6.691110e+01 3.850472e+01 4.351723e+01 4.154246e+01 3.556070e+01 3.517086e+01 2.803684e+01 6.999541e-01 1.390189e+00 1.663853e+00 1.824908e+00 1.964548e+00 2.784639e+00 2.501812e+00 2.236512e+00 2.341234e+00 2.148965e+00 1.947036e+00 1.699689e+00 1.056007e+00
<GCONST> 9.730878e+01
~t "T_i"
<ENDHMM>
~h "d-i+d"
<BEGINHMM>
<NUMSTATES> 5
<STATE> 2
<MEAN> 25
 2.824880e+00 -2.961581e+00 4.292364e+00 7.499251e+00 7.346193e+00 -2.067250e+00 -5.297520e+00 -2.873806e+00 -2.378581e+00 -1.973293e+00 -2.520489e+00 -3.736685e+00 1.015099e+00 -9.724852e-01 2.479329e-01 2.179622e+00 1.426837e+00 -2.128228e+00 -2.309814e+00 -3.848035e-01 -7.270547e-01 -7.560874e-01 -6.794949e-01 -8.365397e-01 1.175898e+00
<VARIANCE> 25
 3.374600e+01 3.967356e+01 6.750194e+01 6.375350e+01 5.781096e+01 6.437442e+01 4.980933e+01 4.415491e+01 4.445846e+01 3.540117e+01 3.356274e+01 2.704606e+01 3.132528e+00 4.137255e+00 3.621446e+00 4.487921e+00 4.215056e+00 5.312013e+00 4.005538e+00 3.824685e+00 4.409300e+00 4.209664e+00 3.923692e+00 2.984154e+00 1.617640e+00
<GCONST> 1.086541e+02
<STATE> 3
<MEAN> 25
 3.691633e+00 -6.378765e+00 6.166086e+00 1.236009e+01 7.380941e+00 -9.047977e+00 -9.580333e+00 -1.629763e+00 -3.102339e+00 -4.599288e+00 -4.548250e+00 -5.048493e+00 8.359629e-02 -2.991736e-01 1.296623e-01 4.305927e-01 9.667514e-03 -8.290642e-01 -5.818837e-01 1.603395e-01 8.957740e-02 -1.876646e-01 -1.591199e-01 -1.092843e-01 2.681427e-01
<VARIANCE> 25
 2.149308e+01 3.103732e+01 4.970968e+01 5.873264e+01 7.158559e+01 6.920425e+01 3.966159e+01 4.495304e+01 4.204121e+01 4.275245e+01 4.102441e+01 2.954641e+01 6.639252e-01 9.264812e-01 1.883231e+00 1.858640e+00 1.558079e+00 2.146437e+00 1.929194e+00 2.097977e+00 1.840118e+00 1.884095e+00 1.595546e+00 1.333590e+00 5.259222e-01
<GCONST> 9.574519e+01
<STATE> 4
<MEAN> 25
 4.036044e+00 -4.218312e+00 4.209880e+00 1.037407e+01 7.996428e+00 -6.247262e+00 -9.419474e+00 -3.331409e+00 -2.663913e+00 -2.918104e+00 -3.142705e+00 -4.376024e+00 3.821991e-02 8.336469e-01 -6.000085e-01 -1.181883e+00 -5.675405e-01 1.117856e+00 8.718380e-01 -2.187419e-01 -3.897155e-02 3.511441e-01 4.869802e-01 5.886047e-01 -5.325214e-01
<VARIANCE> 25
 1.972391e+01 3.227742e+01 4.309776e+01 5.167957e+01 5.495691e+01 6.691110e+01 3.850472e+01 4.351723e+01 4.154246e+01 3.556070e+01 3.517086e+01 2.803684e+01 6.999541e-01 1.390189e+00 1.663853e+00 1.824908e+00 1.964548e+00 2.784639e+00 2.501812e+00 2.236512e+00 2.341234e+00 2.148965e+00 1.947036e+00 1.699689e+00 1.056007e+00
<GCONST> 9.730878e+01
~t "T_i"
<ENDHMM>
~h "d-i+e"
<BEGINHMM>
<NUMSTATES> 5
<STATE> 2
<MEAN> 25
 2.824880e+00 -2.961581e+00 4.292364e+00 7.499251e+00 7.346193e+00 -2.067250e+00 -5.297520e+00 -2.873806e+00 -2.378581e+00 -1.973293e+00 -2.520489e+00 -3.736685e+00 1.015099e+00 -9.724852e-01 2.479329e-01 2.179622e+00 1.426837e+00 -2.128228e+00 -2.309814e+00 -3.848035e-01 -7.270547e-01 -7.560874e-01 -6.794949e-01 -8.365397e-01 1.175898e+00
<VARIANCE> 25
 3.374600e+01 3.967356e+01 6.750194e+01 6.375350e+01 5.781096e+01 6.437442e+01 4.980933e+01 4.415491e+01 4.445846e+01 3.540117e+01 3.356274e+01 2.704606e+01 3.132528e+00 4.137255e+00 3.621446e+00 4.487921e+00 4.215056e+00 5.312013e+00 4.005538e+00 3.824685e+00 4.409300e+00 4.209664e+00 3.923692e+00 2.984154e+00 1.617640e+00
<GCONST> 1.086541e+02
<STATE> 3
<MEAN> 25
 3.691633e+00 -6.378765e+00 6.166086e+00 1.236009e+01 7.380941e+00 -9.047977e+00 -9.580333e+00 -1.629763e+00 -3.102339e+00 -4.599288e+00 -4.548250e+00 -5.048493e+00 8.359629e-02 -2.991736e-01 1.296623e-01 4.305927e-01 9.667514e-03 -8.290642e-01 -5.818837e-01 1.603395e-01 8.957740e-02 -1.876646e-01 -1.591199e-01 -1.092843e-01 2.681427e-01
<VARIANCE> 25
 2.149308e+01 3.103732e+01 4.970968e+01 5.873264e+01 7.158559e+01 6.920425e+01 3.966159e+01 4.495304e+01 4.204121e+01 4.275245e+01 4.102441e+01 2.954641e+01 6.639252e-01 9.264812e-01 1.883231e+00 1.858640e+00 1.558079e+00 2.146437e+00 1.929194e+00 2.097977e+00 1.840118e+00 1.884095e+00 1.595546e+00 1.333590e+00 5.259222e-01
<GCONST> 9.574519e+01
<STATE> 4
<MEAN> 25
 4.036044e+00 -4.218312e+00 4.209880e+00 1.037407e+01 7.996428e+00 -6.247262e+00 -9.419474e+00 -3.331409e+00 -2.663913e+00 -2.918104e+00 -3.142705e+00 -4.376024e+00 3.821991e-02 8.336469e-01 -6.000085e-01 -1.181883e+00 -5.675405e-01 1.117856e+00 8.718380e-01 -2.187419e-01 -3.897155e-02 3.511441e-01 4.869802e-01 5.886047e-01 -5.325214e-01
<VARIANCE> 25
 1.972391e+01 3.227742e+01 4.309776e+01 5.167957e+01 5.495691e+01 6.691110e+01 3.850472e+01 4.351723e+01 4.154246e+01 3.556070e+01 3.517086e+01 2.803684e+01 6.999541e-01 1.390189e+00 1.663853e+00 1.824908e+00 1.964548e+00 2.784639e+00 2.501812e+00 2.236512e+00 2.341234e+00 2.148965e+00 1.947036e+00 1.699689e+00 1.056007e+00
<GCONST> 9.730878e+01
~t "T_i"
<ENDHMM>
~h "d-i+f"
<BEGINHMM>
<NUMSTATES> 5
<STATE> 2
<MEAN> 25
 2.824880e+00 -2.961581e+00 4.292364e+00 7.499251e+00 7.346193e+00 -2.067250e+00 -5.297520e+00 -2.873806e+00 -2.378581e+00 -1.973293e+00 -2.520489e+00 -3.736685e+00 1.015099e+00 -9.724852e-01 2.479329e-01 2.179622e+00 1.426837e+00 -2.128228e+00 -2.309814e+00 -3.848035e-01 -7.270547e-01 -7.560874e-01 -6.794949e-01 -8.365397e-01 1.175898e+00
<VARIANCE> 25
 3.374600e+01 3.967356e+01 6.750194e+01 6.375350e+01 5.781096e+01 6.437442e+01 4.980933e+01 4.415491e+01 4.445846e+01 3.540117e+01 3.356274e+01 2.704606e+01 3.132528e+00 4.137255e+00 3.621446e+00 4.487921e+00 4.215056e+00 5.312013e+00 4.005538e+00 3.824685e+00 4.409300e+00 4.209664e+00 3.923692e+00 2.984154e+00 1.617640e+00
<GCONST> 1.086541e+02
<STATE> 3
<MEAN> 25
 3.691633e+00 -6.378765e+00 6.166086e+00 1.236009e+01 7.380941e+00 -9.047977e+00 -9.580333e+00 -1.629763e+00 -3.102339e+00 -4.599288e+00 -4.548250e+00 -5.048493e+00 8.359629e-02 -2.991736e-01 1.296623e-01 4.305927e-01 9.667514e-03 -8.290642e-01 -5.818837e-01 1.603395e-01 8.957740e-02 -1.876646e-01 -1.591199e-01 -1.092843e-01 2.681427e-01
<VARIANCE> 25
 2.149308e+01 3.103732e+01 4.970968e+01 5.873264e+01 7.158559e+01 6.920425e+01 3.966159e+01 4.495304e+01 4.204121e+01 4.275245e+01 4.102441e+01 2.954641e+01 6.639252e-01 9.264812e-01 1.883231e+00 1.858640e+00 1.558079e+00 2.146437e+00 1.929194e+00 2.097977e+00 1.840118e+00 1.884095e+00 1.595546e+00 1.333590e+00 5.259222e-01
<GCONST> 9.574519e+01
<STATE> 4
<MEAN> 25
 4.036044e+00 -4.218312e+00 4.209880e+00 1.037407e+01 7.996428e+00 -6.247262e+00 -9.419474e+00 -3.331409e+00 -2.663913e+00 -2.918104e+00 -3.142705e+00 -4.376024e+00 3.821991e-02 8.336469e-01 -6.000085e-01 -1.181883e+00 -5.675405e-01 1.117856e+00 8.718380e-01 -2.187419e-01 -3.897155e-02 3.511441e-01 4.869802e-01 5.886047e-01 -5.325214e-01
<VARIANCE> 25
 1.972391e+01 3.227742e+01 4.309776e+01 5.167957e+01 5.495691e+01 6.691110e+01 3.850472e+01 4.351723e+01 4.154246e+01 3.556070e+01 3.517086e+01 2.803684e+01 6.999541e-01 1.390189e+00 1.663853e+00 1.824908e+00 1.964548e+00 2.784639e+00 2.501812e+00 2.236512e+00 2.341234e+00 2.148965e+00 1.947036e+00 1.699689e+00 1.056007e+00
<GCONST> 9.730878e+01
~t "T_i"
<ENDHMM>
~h "d-i+g"
<BEGINHMM>
<NUMSTATES> 5
<STATE> 2
<MEAN> 25
 2.824880e+00 -2.961581e+00 4.292364e+00 7.499251e+00 7.346193e+00 -2.067250e+00 -5.297520e+00 -2.873806e+00 -2.378581e+00 -1.973293e+00 -2.520489e+00 -3.736685e+00 1.015099e+00 -9.724852e-01 2.479329e-01 2.179622e+00 1.426837e+00 -2.128228e+00 -2.309814e+00 -3.848035e-01 -7.270547e-01 -7.560874e-01 -6.794949e-01 -8.365397e-01 1.175898e+00
<VARIANCE> 25
 3.374600e+01 3.967356e+01 6.750194e+01 6.375350e+01 5.781096e+01 6.437442e+01 4.980933e+01 4.415491e+01 4.445846e+01 3.540117e+01 3.356274e+01 2.704606e+01 3.132528e+00 4.137255e+00 3.621446e+00 4.487921e+00 4.215056e+00 5.312013e+00 4.005538e+00 3.824685e+00 4.409300e+00 4.209664e+00 3.923692e+00 2.984154e+00 1.617640e+00
<GCONST> 1.086541e+02
<STATE> 3
<MEAN> 25
 3.691633e+00 -6.378765e+00 6.166086e+00 1.236009e+01 7.380941e+00 -9.047977e+00 -9.580333e+00 -1.629763e+00 -3.102339e+00 -4.599288e+00 -4.548250e+00 -5.048493e+00 8.359629e-02 -2.991736e-01 1.296623e-01 4.305927e-01 9.667514e-03 -8.290642e-01 -5.818837e-01 1.603395e-01 8.957740e-02 -1.876646e-01 -1.591199e-01 -1.092843e-01 2.681427e-01
<VARIANCE> 25
 2.149308e+01 3.103732e+01 4.970968e+01 5.873264e+01 7.158559e+01 6.920425e+01 3.966159e+01 4.495304e+01 4.204121e+01 4.275245e+01 4.102441e+01 2.954641e+01 6.639252e-01 9.264812e-01 1.883231e+00 1.858640e+00 1.558079e+00 2.146437e+00 1.929194e+00 2.097977e+00 1.840118e+00 1.884095e+00 1.595546e+00 1.333590e+00 5.259222e-01
<GCONST> 9.574519e+01
<STATE> 4
<MEAN> 25
 4.036044e+00 -4.218312e+00 4.209880e+00 1.037407e+01 7.996428e+00 -6.247262e+00 -9.419474e+00 -3.331409e+00 -2.663913e+00 -2.918104e+00 -3.142705e+00 -4.376024e+00 3.821991e-02 8.336469e-01 -6.000085e-01 -1.181883e+00 -5.675405e-01 1.117856e+00 8.718380e-01 -2.187419e-01 -3.897155e-02 3.511441e-01 4.869802e-01 5.886047e-01 -5.325214e-01
<VARIANCE> 25
 1.972391e+01 3.227742e+01 4.309776e+01 5.167957e+01 5.495691e+01 6.691110e+01 3.850472e+01 4.351723e+01 4.154246e+01 3.556070e+01 3.517086e+01 2.803684e+01 6.999541e-01 1.390189e+00 1.663853e+00 1.824908e+00 1.964548e+00 2.784639e+00 2.501812e+00 2.236512e+00 2.341234e+00 2.148965e+00 1.947036e+00 1.699689e+00 1.056007e+00
<GCONST> 9.730878e+01
~t "T_i"
<ENDHMM>
~h "d-i+k"
<BEGINHMM>
<NUMSTATES> 5
<STATE> 2
<MEAN> 25
 2.824880e+00 -2.961581e+00 4.292364e+00 7.499251e+00 7.346193e+00 -2.067250e+00 -5.297520e+00 -2.873806e+00 -2.378581e+00 -1.973293e+00 -2.520489e+00 -3.736685e+00 1.015099e+00 -9.724852e-01 2.479329e-01 2.179622e+00 1.426837e+00 -2.128228e+00 -2.309814e+00 -3.848035e-01 -7.270547e-01 -7.560874e-01 -6.794949e-01 -8.365397e-01 1.175898e+00
<VARIANCE> 25
 3.374600e+01 3.967356e+01 6.750194e+01 6.375350e+01 5.781096e+01 6.437442e+01 4.980933e+01 4.415491e+01 4.445846e+01 3.540117e+01 3.356274e+01 2.704606e+01 3.132528e+00 4.137255e+00 3.621446e+00 4.487921e+00 4.215056e+00 5.312013e+00 4.005538e+00 3.824685e+00 4.409300e+00 4.209664e+00 3.923692e+00 2.984154e+00 1.617640e+00
<GCONST> 1.086541e+02
<STATE> 3
<MEAN> 25
 3.691633e+00 -6.378765e+00 6.166086e+00 1.236009e+01 7.380941e+00 -9.047977e+00 -9.580333e+00 -1.629763e+00 -3.102339e+00 -4.599288e+00 -4.548250e+00 -5.048493e+00 8.359629e-02 -2.991736e-01 1.296623e-01 4.305927e-01 9.667514e-03 -8.290642e-01 -5.818837e-01 1.603395e-01 8.957740e-02 -1.876646e-01 -1.591199e-01 -1.092843e-01 2.681427e-01
<VARIANCE> 25
 2.149308e+01 3.103732e+01 4.970968e+01 5.873264e+01 7.158559e+01 6.920425e+01 3.966159e+01 4.495304e+01 4.204121e+01 4.275245e+01 4.102441e+01 2.954641e+01 6.639252e-01 9.264812e-01 1.883231e+00 1.858640e+00 1.558079e+00 2.146437e+00 1.929194e+00 2.097977e+00 1.840118e+00 1.884095e+00 1.595546e+00 1.333590e+00 5.259222e-01
<GCONST> 9.574519e+01
<STATE> 4
<MEAN> 25
 4.036044e+00 -4.218312e+00 4.209880e+00 1.037407e+01 7.996428e+00 -6.247262e+00 -9.419474e+00 -3.331409e+00 -2.663913e+00 -2.918104e+00 -3.142705e+00 -4.376024e+00 3.821991e-02 8.336469e-01 -6.000085e-01 -1.181883e+00 -5.675405e-01 1.117856e+00 8.718380e-01 -2.187419e-01 -3.897155e-02 3.511441e-01 4.869802e-01 5.886047e-01 -5.325214e-01
<VARIANCE> 25
 1.972391e+01 3.227742e+01 4.309776e+01 5.167957e+01 5.495691e+01 6.691110e+01 3.850472e+01 4.351723e+01 4.154246e+01 3.556070e+01 3.517086e+01 2.803684e+01 6.999541e-01 1.390189e+00 1.663853e+00 1.824908e+00 1.964548e+00 2.784639e+00 2.501812e+00 2.236512e+00 2.341234e+00 2.148965e+00 1.947036e+00 1.699689e+00 1.056007e+00
<GCONST> 9.730878e+01
~t "T_i"
<ENDHMM>
~h "d-i+m"
<BEGINHMM>
<NUMSTATES> 5
<STATE> 2
<MEAN> 25
 2.824880e+00 -2.961581e+00 4.292364e+00 7.499251e+00 7.346193e+00 -2.067250e+00 -5.297520e+00 -2.873806e+00 -2.378581e+00 -1.973293e+00 -2.520489e+00 -3.736685e+00 1.015099e+00 -9.724852e-01 2.479329e-01 2.179622e+00 1.426837e+00 -2.128228e+00 -2.309814e+00 -3.848035e-01 -7.270547e-01 -7.560874e-01 -6.794949e-01 -8.365397e-01 1.175898e+00
<VARIANCE> 25
 3.374600e+01 3.967356e+01 6.750194e+01 6.375350e+01 5.781096e+01 6.437442e+01 4.980933e+01 4.415491e+01 4.445846e+01 3.540117e+01 3.356274e+01 2.704606e+01 3.132528e+00 4.137255e+00 3.621446e+00 4.487921e+00 4.215056e+00 5.312013e+00 4.005538e+00 3.824685e+00 4.409300e+00 4.209664e+00 3.923692e+00 2.984154e+00 1.617640e+00
<GCONST> 1.086541e+02
<STATE> 3
<MEAN> 25
 3.691633e+00 -6.378765e+00 6.166086e+00 1.236009e+01 7.380941e+00 -9.047977e+00 -9.580333e+00 -1.629763e+00 -3.102339e+00 -4.599288e+00 -4.548250e+00 -5.048493e+00 8.359629e-02 -2.991736e-01 1.296623e-01 4.305927e-01 9.667514e-03 -8.290642e-01 -5.818837e-01 1.603395e-01 8.957740e-02 -1.876646e-01 -1.591199e-01 -1.092843e-01 2.681427e-01
<VARIANCE> 25
 2.149308e+01 3.103732e+01 4.970968e+01 5.873264e+01 7.158559e+01 6.920425e+01 3.966159e+01 4.495304e+01 4.204121e+01 4.275245e+01 4.102441e+01 2.954641e+01 6.639252e-01 9.264812e-01 1.883231e+00 1.858640e+00 1.558079e+00 2.146437e+00 1.929194e+00 2.097977e+00 1.840118e+00 1.884095e+00 1.595546e+00 1.333590e+00 5.259222e-01
<GCONST> 9.574519e+01
<STATE> 4
<MEAN> 25
 4.036044e+00 -4.218312e+00 4.209880e+00 1.037407e+01 7.996428e+00 -6.247262e+00 -9.419474e+00 -3.331409e+00 -2.663913e+00 -2.918104e+00 -3.142705e+00 -4.376024e+00 3.821991e-02 8.336469e-01 -6.000085e-01 -1.181883e+00 -5.675405e-01 1.117856e+00 8.718380e-01 -2.187419e-01 -3.897155e-02 3.511441e-01 4.869802e-01 5.886047e-01 -5.325214e-01
<VARIANCE> 25
 1.972391e+01 3.227742e+01 4.309776e+01 5.167957e+01 5.495691e+01 6.691110e+01 3.850472e+01 4.351723e+01 4.154246e+01 3.556070e+01 3.517086e+01 2.803684e+01 6.999541e-01 1.390189e+00 1.663853e+00 1.824908e+00 1.964548e+00 2.784639e+00 2.501812e+00 2.236512e+00 2.341234e+00 2.148965e+00 1.947036e+00 1.699689e+00 1.056007e+00
<GCONST> 9.730878e+01
~t "T_i"
<ENDHMM>
~h "d-i+n"
<BEGINHMM>
<NUMSTATES> 5
<STATE> 2
<MEAN> 25
 2.824880e+00 -2.961581e+00 4.292364e+00 7.499251e+00 7.346193e+00 -2.067250e+00 -5.297520e+00 -2.873806e+00 -2.378581e+00 -1.973293e+00 -2.520489e+00 -3.736685e+00 1.015099e+00 -9.724852e-01 2.479329e-01 2.179622e+00 1.426837e+00 -2.128228e+00 -2.309814e+00 -3.848035e-01 -7.270547e-01 -7.560874e-01 -6.794949e-01 -8.365397e-01 1.175898e+00
<VARIANCE> 25
 3.374600e+01 3.967356e+01 6.750194e+01 6.375350e+01 5.781096e+01 6.437442e+01 4.980933e+01 4.415491e+01 4.445846e+01 3.540117e+01 3.356274e+01 2.704606e+01 3.132528e+00 4.137255e+00 3.621446e+00 4.487921e+00 4.215056e+00 5.312013e+00 4.005538e+00 3.824685e+00 4.409300e+00 4.209664e+00 3.923692e+00 2.984154e+00 1.617640e+00
<GCONST> 1.086541e+02
<STATE> 3
<MEAN> 25
 3.691633e+00 -6.378765e+00 6.166086e+00 1.236009e+01 7.380941e+00 -9.047977e+00 -9.580333e+00 -1.629763e+00 -3.102339e+00 -4.599288e+00 -4.548250e+00 -5.048493e+00 8.359629e-02 -2.991736e-01 1.296623e-01 4.305927e-01 9.667514e-03 -8.290642e-01 -5.818837e-01 1.603395e-01 8.957740e-02 -1.876646e-01 -1.591199e-01 -1.092843e-01 2.681427e-01
<VARIANCE> 25
 2.149308e+01 3.103732e+01 4.970968e+01 5.873264e+01 7.158559e+01 6.920425e+01 3.966159e+01 4.495304e+01 4.204121e+01 4.275245e+01 4.102441e+01 2.954641e+01 6.639252e-01 9.264812e-01 1.883231e+00 1.858640e+00 1.558079e+00 2.146437e+00 1.929194e+00 2.097977e+00 1.840118e+00 1.884095e+00 1.595546e+00 1.333590e+00 5.259222e-01
<GCONST> 9.574519e+01
<STATE> 4
<MEAN> 25
 4.036044e+00 -4.218312e+00 4.209880e+00 1.037407e+01 7.996428e+00 -6.247262e+00 -9.419474e+00 -3.331409e+00 -2.663913e+00 -2.918104e+00 -3.142705e+00 -4.376024e+00 3.821991e-02 8.336469e-01 -6.000085e-01 -1.181883e+00 -5.675405e-01 1.117856e+00 8.718380e-01 -2.187419e-01 -3.897155e-02 3.511441e-01 4.869802e-01 5.886047e-01 -5.325214e-01
<VARIANCE> 25
 1.972391e+01 3.227742e+01 4.309776e+01 5.167957e+01 5.495691e+01 6.691110e+01 3.850472e+01 4.351723e+01 4.154246e+01 3.556070e+01 3.517086e+01 2.803684e+01 6.999541e-01 1.390189e+00 1.663853e+00 1.824908e+00 1.964548e+00 2.784639e+00 2.501812e+00 2.236512e+00 2.341234e+00 2.148965e+00 1.947036e+00 1.699689e+00 1.056007e+00
<GCONST> 9.730878e+01
~t "T_i"
<ENDHMM>
~h "d-i+o"
<BEGINHMM>
<NUMSTATES> 5
<STATE> 2
<MEAN> 25
 2.824880e+00 -2.961581e+00 4.292364e+00 7.499251e+00 7.346193e+00 -2.067250e+00 -5.297520e+00 -2.873806e+00 -2.378581e+00 -1.973293e+00 -2.520489e+00 -3.736685e+00 1.015099e+00 -9.724852e-01 2.479329e-01 2.179622e+00 1.426837e+00 -2.128228e+00 -2.309814e+00 -3.848035e-01 -7.270547e-01 -7.560874e-01 -6.794949e-01 -8.365397e-01 1.175898e+00
<VARIANCE> 25
 3.374600e+01 3.967356e+01 6.750194e+01 6.375350e+01 5.781096e+01 6.437442e+01 4.980933e+01 4.415491e+01 4.445846e+01 3.540117e+01 3.356274e+01 2.704606e+01 3.132528e+00 4.137255e+00 3.621446e+00 4.487921e+00 4.215056e+00 5.312013e+00 4.005538e+00 3.824685e+00 4.409300e+00 4.209664e+00 3.923692e+00 2.984154e+00 1.617640e+00
<GCONST> 1.086541e+02
<STATE> 3
<MEAN> 25
 3.691633e+00 -6.378765e+00 6.166086e+00 1.236009e+01 7.380941e+00 -9.047977e+00 -9.580333e+00 -1.629763e+00 -3.102339e+00 -4.599288e+00 -4.548250e+00 -5.048493e+00 8.359629e-02 -2.991736e-01 1.296623e-01 4.305927e-01 9.667514e-03 -8.290642e-01 -5.818837e-01 1.603395e-01 8.957740e-02 -1.876646e-01 -1.591199e-01 -1.092843e-01 2.681427e-01
<VARIANCE> 25
 2.149308e+01 3.103732e+01 4.970968e+01 5.873264e+01 7.158559e+01 6.920425e+01 3.966159e+01 4.495304e+01 4.204121e+01 4.275245e+01 4.102441e+01 2.954641e+01 6.639252e-01 9.264812e-01 1.883231e+00 1.858640e+00 1.558079e+00 2.146437e+00 1.929194e+00 2.097977e+00 1.840118e+00 1.884095e+00 1.595546e+00 1.333590e+00 5.259222e-01
<GCONST> 9.574519e+01
<STATE> 4
<MEAN> 25
 4.036044e+00 -4.218312e+00 4.209880e+00 1.037407e+01 7.996428e+00 -6.247262e+00 -9.419474e+00 -3.331409e+00 -2.663913e+00 -2.918104e+00 -3.142705e+00 -4.376024e+00 3.821991e-02 8.336469e-01 -6.000085e-01 -1.181883e+00 -5.675405e-01 1.117856e+00 8.718380e-01 -2.187419e-01 -3.897155e-02 3.511441e-01 4.869802e-01 5.886047e-01 -5.325214e-01
<VARIANCE> 25
 1.972391e+01 3.227742e+01 4.309776e+01 5.167957e+01 5.495691e+01 6.691110e+01 3.850472e+01 4.351723e+01 4.154246e+01 3.556070e+01 3.517086e+01 2.803684e+01 6.999541e-01 1.390189e+00 1.663853e+00 1.824908e+00 1.964548e+00 2.784639e+00 2.501812e+00 2.236512e+00 2.341234e+00 2.148965e+00 1.947036e+00 1.699689e+00 1.056007e+00
<GCONST> 9.730878e+01
~t "T_i"
<ENDHMM>
~h "d-i+s"
<BEGINHMM>
<NUMSTATES> 5
<STATE> 2
<MEAN> 25
 2.824880e+00 -2.961581e+00 4.292364e+00 7.499251e+00 7.346193e+00 -2.067250e+00 -5.297520e+00 -2.873806e+00 -2.378581e+00 -1.973293e+00 -2.520489e+00 -3.736685e+00 1.015099e+00 -9.724852e-01 2.479329e-01 2.179622e+00 1.426837e+00 -2.128228e+00 -2.309814e+00 -3.848035e-01 -7.270547e-01 -7.560874e-01 -6.794949e-01 -8.365397e-01 1.175898e+00
<VARIANCE> 25
 3.374600e+01 3.967356e+01 6.750194e+01 6.375350e+01 5.781096e+01 6.437442e+01 4.980933e+01 4.415491e+01 4.445846e+01 3.540117e+01 3.356274e+01 2.704606e+01 3.132528e+00 4.137255e+00 3.621446e+00 4.487921e+00 4.215056e+00 5.312013e+00 4.005538e+00 3.824685e+00 4.409300e+00 4.209664e+00 3.923692e+00 2.984154e+00 1.617640e+00
<GCONST> 1.086541e+02
<STATE> 3
<MEAN> 25
 3.691633e+00 -6.378765e+00 6.166086e+00 1.236009e+01 7.380941e+00 -9.047977e+00 -9.580333e+00 -1.629763e+00 -3.102339e+00 -4.599288e+00 -4.548250e+00 -5.048493e+00 8.359629e-02 -2.991736e-01 1.296623e-01 4.305927e-01 9.667514e-03 -8.290642e-01 -5.818837e-01 1.603395e-01 8.957740e-02 -1.876646e-01 -1.591199e-01 -1.092843e-01 2.681427e-01
<VARIANCE> 25
 2.149308e+01 3.103732e+01 4.970968e+01 5.873264e+01 7.158559e+01 6.920425e+01 3.966159e+01 4.495304e+01 4.204121e+01 4.275245e+01 4.102441e+01 2.954641e+01 6.639252e-01 9.264812e-01 1.883231e+00 1.858640e+00 1.558079e+00 2.146437e+00 1.929194e+00 2.097977e+00 1.840118e+00 1.884095e+00 1.595546e+00 1.333590e+00 5.259222e-01
<GCONST> 9.574519e+01
<STATE> 4
<MEAN> 25
 4.036044e+00 -4.218312e+00 4.209880e+00 1.037407e+01 7.996428e+00 -6.247262e+00 -9.419474e+00 -3.331409e+00 -2.663913e+00 -2.918104e+00 -3.142705e+00 -4.376024e+00 3.821991e-02 8.336469e-01 -6.000085e-01 -1.181883e+00 -5.675405e-01 1.117856e+00 8.718380e-01 -2.187419e-01 -3.897155e-02 3.511441e-01 4.869802e-01 5.886047e-01 -5.325214e-01
<VARIANCE> 25
 1.972391e+01 3.227742e+01 4.309776e+01 5.167957e+01 5.495691e+01 6.691110e+01 3.850472e+01 4.351723e+01 4.154246e+01 3.556070e+01 3.517086e+01 2.803684e+01 6.999541e-01 1.390189e+00 1.663853e+00 1.824908e+00 1.964548e+00 2.784639e+00 2.501812e+00 2.236512e+00 2.341234e+00 2.148965e+00 1.947036e+00 1.699689e+00 1.056007e+00
<GCONST> 9.730878e+01
~t "T_i"
<ENDHMM>
~h "d-i+t"
<BEGINHMM>
<NUMSTATES> 5
<STATE> 2
<MEAN> 25
 2.824880e+00 -2.961581e+00 4.292364e+00 7.499251e+00 7.346193e+00 -2.067250e+00 -5.297520e+00 -2.873806e+00 -2.378581e+00 -1.973293e+00 -2.520489e+00 -3.736685e+00 1.015099e+00 -9.724852e-01 2.479329e-01 2.179622e+00 1.426837e+00 -2.128228e+00 -2.309814e+00 -3.848035e-01 -7.270547e-01 -7.560874e-01 -6.794949e-01 -8.365397e-01 1.175898e+00
<VARIANCE> 25
 3.374600e+01 3.967356e+01 6.750194e+01 6.375350e+01 5.781096e+01 6.437442e+01 4.980933e+01 4.415491e+01 4.445846e+01 3.540117e+01 3.356274e+01 2.704606e+01 3.132528e+00 4.137255e+00 3.621446e+00 4.487921e+00 4.215056e+00 5.312013e+00 4.005538e+00 3.824685e+00 4.409300e+00 4.209664e+00 3.923692e+00 2.984154e+00 1.617640e+00
<GCONST> 1.086541e+02
<STATE> 3
<MEAN> 25
 3.691633e+00 -6.378765e+00 6.166086e+00 1.236009e+01 7.380941e+00 -9.047977e+00 -9.580333e+00 -1.629763e+00 -3.102339e+00 -4.599288e+00 -4.548250e+00 -5.048493e+00 8.359629e-02 -2.991736e-01 1.296623e-01 4.305927e-01 9.667514e-03 -8.290642e-01 -5.818837e-01 1.603395e-01 8.957740e-02 -1.876646e-01 -1.591199e-01 -1.092843e-01 2.681427e-01
<VARIANCE> 25
 2.149308e+01 3.103732e+01 4.970968e+01 5.873264e+01 7.158559e+01 6.920425e+01 3.966159e+01 4.495304e+01 4.204121e+01 4.275245e+01 4.102441e+01 2.954641e+01 6.639252e-01 9.264812e-01 1.883231e+00 1.858640e+00 1.558079e+00 2.146437e+00 1.929194e+00 2.097977e+00 1.840118e+00 1.884095e+00 1.595546e+00 1.333590e+00 5.259222e-01
<GCONST> 9.574519e+01
<STATE> 4
<MEAN> 25
 4.036044e+00 -4.218312e+00 4.209880e+00 1.037407e+01 7.996428e+00 -6.247262e+00 -9.419474e+00 -3.331409e+00 -2.663913e+00 -2.918104e+00 -3.142705e+00 -4.376024e+00 3.821991e-02 8.336469e-01 -6.000085e-01 -1.181883e+00 -5.675405e-01 1.117856e+00 8.718380e-01 -2.187419e-01 -3.897155e-02 3.511441e-01 4.869802e-01 5.886047e-01 -5.325214e-01
<VARIANCE> 25
 1.972391e+01 3.227742e+01 4.309776e+01 5.167957e+01 5.495691e+01 6.691110e+01 3.850472e+01 4.351723e+01 4.154246e+01 3.556070e+01 3.517086e+01 2.803684e+01 6.999541e-01 1.390189e+00 1.663853e+00 1.824908e+00 1.964548e+00 2.784639e+00 2.501812e+00 2.236512e+00 2.341234e+00 2.148965e+00 1.947036e+00 1.699689e+00 1.056007e+00
<GCONST> 9.730878e+01
~t "T_i"
<ENDHMM>
~h "d-i+x"
<BEGINHMM>
<NUMSTATES> 5
<STATE> 2
<MEAN> 25
 2.824880e+00 -2.961581e+00 4.292364e+00 7.499251e+00 7.346193e+00 -2.067250e+00 -5.297520e+00 -2.873806e+00 -2.378581e+00 -1.973293e+00 -2.520489e+00 -3.736685e+00 1.015099e+00 -9.724852e-01 2.479329e-01 2.179622e+00 1.426837e+00 -2.128228e+00 -2.309814e+00 -3.848035e-01 -7.270547e-01 -7.560874e-01 -6.794949e-01 -8.365397e-01 1.175898e+00
<VARIANCE> 25
 3.374600e+01 3.967356e+01 6.750194e+01 6.375350e+01 5.781096e+01 6.437442e+01 4.980933e+01 4.415491e+01 4.445846e+01 3.540117e+01 3.356274e+01 2.704606e+01 3.132528e+00 4.137255e+00 3.621446e+00 4.487921e+00 4.215056e+00 5.312013e+00 4.005538e+00 3.824685e+00 4.409300e+00 4.209664e+00 3.923692e+00 2.984154e+00 1.617640e+00
<GCONST> 1.086541e+02
<STATE> 3
<MEAN> 25
 3.691633e+00 -6.378765e+00 6.166086e+00 1.236009e+01 7.380941e+00 -9.047977e+00 -9.580333e+00 -1.629763e+00 -3.102339e+00 -4.599288e+00 -4.548250e+00 -5.048493e+00 8.359629e-02 -2.991736e-01 1.296623e-01 4.305927e-01 9.667514e-03 -8.290642e-01 -5.818837e-01 1.603395e-01 8.957740e-02 -1.876646e-01 -1.591199e-01 -1.092843e-01 2.681427e-01
<VARIANCE> 25
 2.149308e+01 3.103732e+01 4.970968e+01 5.873264e+01 7.158559e+01 6.920425e+01 3.966159e+01 4.495304e+01 4.204121e+01 4.275245e+01 4.102441e+01 2.954641e+01 6.639252e-01 9.264812e-01 1.883231e+00 1.858640e+00 1.558079e+00 2.146437e+00 1.929194e+00 2.097977e+00 1.840118e+00 1.884095e+00 1.595546e+00 1.333590e+00 5.259222e-01
<GCONST> 9.574519e+01
<STATE> 4
<MEAN> 25
 4.036044e+00 -4.218312e+00 4.209880e+00 1.037407e+01 7.996428e+00 -6.247262e+00 -9.419474e+00 -3.331409e+00 -2.663913e+00 -2.918104e+00 -3.142705e+00 -4.376024e+00 3.821991e-02 8.336469e-01 -6.000085e-01 -1.181883e+00 -5.675405e-01 1.117856e+00 8.718380e-01 -2.187419e-01 -3.897155e-02 3.511441e-01 4.869802e-01 5.886047e-01 -5.325214e-01
<VARIANCE> 25
 1.972391e+01 3.227742e+01 4.309776e+01 5.167957e+01 5.495691e+01 6.691110e+01 3.850472e+01 4.351723e+01 4.154246e+01 3.556070e+01 3.517086e+01 2.803684e+01 6.999541e-01 1.390189e+00 1.663853e+00 1.824908e+00 1.964548e+00 2.784639e+00 2.501812e+00 2.236512e+00 2.341234e+00 2.148965e+00 1.947036e+00 1.699689e+00 1.056007e+00
<GCONST> 9.730878e+01
~t "T_i"
<ENDHMM>
~h "th-i+ll"
<BEGINHMM>
<NUMSTATES> 5
<STATE> 2
<MEAN> 25
 2.824880e+00 -2.961581e+00 4.292364e+00 7.499251e+00 7.346193e+00 -2.067250e+00 -5.297520e+00 -2.873806e+00 -2.378581e+00 -1.973293e+00 -2.520489e+00 -3.736685e+00 1.015099e+00 -9.724852e-01 2.479329e-01 2.179622e+00 1.426837e+00 -2.128228e+00 -2.309814e+00 -3.848035e-01 -7.270547e-01 -7.560874e-01 -6.794949e-01 -8.365397e-01 1.175898e+00
<VARIANCE> 25
 3.374600e+01 3.967356e+01 6.750194e+01 6.375350e+01 5.781096e+01 6.437442e+01 4.980933e+01 4.415491e+01 4.445846e+01 3.540117e+01 3.356274e+01 2.704606e+01 3.132528e+00 4.137255e+00 3.621446e+00 4.487921e+00 4.215056e+00 5.312013e+00 4.005538e+00 3.824685e+00 4.409300e+00 4.209664e+00 3.923692e+00 2.984154e+00 1.617640e+00
<GCONST> 1.086541e+02
<STATE> 3
<MEAN> 25
 3.691633e+00 -6.378765e+00 6.166086e+00 1.236009e+01 7.380941e+00 -9.047977e+00 -9.580333e+00 -1.629763e+00 -3.102339e+00 -4.599288e+00 -4.548250e+00 -5.048493e+00 8.359629e-02 -2.991736e-01 1.296623e-01 4.305927e-01 9.667514e-03 -8.290642e-01 -5.818837e-01 1.603395e-01 8.957740e-02 -1.876646e-01 -1.591199e-01 -1.092843e-01 2.681427e-01
<VARIANCE> 25
 2.149308e+01 3.103732e+01 4.970968e+01 5.873264e+01 7.158559e+01 6.920425e+01 3.966159e+01 4.495304e+01 4.204121e+01 4.275245e+01 4.102441e+01 2.954641e+01 6.639252e-01 9.264812e-01 1.883231e+00 1.858640e+00 1.558079e+00 2.146437e+00 1.929194e+00 2.097977e+00 1.840118e+00 1.884095e+00 1.595546e+00 1.333590e+00 5.259222e-01
<GCONST> 9.574519e+01
<STATE> 4
<MEAN> 25
 4.036044e+00 -4.218312e+00 4.209880e+00 1.037407e+01 7.996428e+00 -6.247262e+00 -9.419474e+00 -3.331409e+00 -2.663913e+00 -2.918104e+00 -3.142705e+00 -4.376024e+00 3.821991e-02 8.336469e-01 -6.000085e-01 -1.181883e+00 -5.675405e-01 1.117856e+00 8.718380e-01 -2.187419e-01 -3.897155e-02 3.511441e-01 4.869802e-01 5.886047e-01 -5.325214e-01
<VARIANCE> 25
 1.972391e+01 3.227742e+01 4.309776e+01 5.167957e+01 5.495691e+01 6.691110e+01 3.850472e+01 4.351723e+01 4.154246e+01 3.556070e+01 3.517086e+01 2.803684e+01 6.999541e-01 1.390189e+00 1.663853e+00 1.824908e+00 1.964548e+00 2.784639e+00 2.501812e+00 2.236512e+00 2.341234e+00 2.148965e+00 1.947036e+00 1.699689e+00 1.056007e+00
<GCONST> 9.730878e+01
~t "T_i"
<ENDHMM>
~h "d-k+i"
<BEGINHMM>
<NUMSTATES> 5
<STATE> 2
<MEAN> 25
 -2.312355e-01 1.961118e+00 -8.483832e-01 1.450593e+00 1.457601e+00 2.408843e+00 -4.597814e-01 -1.728608e+00 -1.790877e-01 8.893732e-01 6.985575e-01 -3.931130e-01 -7.720011e-01 -7.842530e-02 -5.205820e-01 -9.070294e-01 -7.591282e-01 3.915028e-01 7.773291e-01 4.507853e-01 3.840126e-01 1.228299e-01 3.643597e-01 2.747205e-01 -4.715713e-01
<VARIANCE> 25
 2.273778e+01 2.853440e+01 3.812323e+01 4.159114e+01 4.112223e+01 3.378465e+01 3.233773e+01 3.354189e+01 3.298198e+01 2.542086e+01 2.348176e+01 2.239305e+01 1.604517e+00 4.217481e+00 2.607781e+00 4.085482e+00 3.966224e+00 4.291962e+00 3.567861e+00 3.176125e+00 3.109658e+00 2.588859e+00 2.471189e+00 2.213985e+00 5.200278e+00
<GCONST> 1.019870e+02
<STATE> 3
<MEAN> 25
 -1.427904e+00 -2.522660e+00 -2.585010e+00 -5.629199e+00 -8.787394e-01 -3.528969e-01 2.678309e+00 -7.877849e-01 7.780784e-01 5.548463e-01 2.357178e+00 4.609265e-01 3.902499e-01 -8.271015e-01 2.816469e-01 -1.033817e+00 -3.860129e-01 -9.675173e-01 2.915441e-01 -2.320813e-02 -3.249466e-01 -1.045423e-01 2.656671e-02 -1.464451e-01 1.487963e+00
<VARIANCE> 25
 2.691691e+01 7.003792e+01 5.256176e+01 6.985202e+01 8.061441e+01 6.468961e+01 6.198301e+01 6.249512e+01 4.851157e+01 4.706096e+01 4.291992e+01 3.999689e+01 2.103719e+00 4.420229e+00 3.587986e+00 5.717131e+00 5.819118e+00 5.228204e+00 4.675033e+00 4.933011e+00 4.070527e+00 3.372667e+00 3.275937e+00 3.025996e+00 4.842046e+00
<GCONST> 1.119947e+02
<STATE> 4
<MEAN> 25
 1.419271e+00 -3.539429e-01 4.778248e-01 -3.932618e+00 -2.930405e+00 -2.244887e+00 1.284940e+00 5.541340e-02 -5.615529e-01 7.321874e-01 8.684695e-01 -6.447970e-01 1.883814e+00 8.443043e-01 8.145797e-01 1.344449e+00 6.578749e-02 -1.397391e+00 -1.716680e+00 -6.972357e-01 -6.383767e-01 -3.624772e-01 -5.773226e-01 -2.933102e-01 8.197570e-01
<VARIANCE> 25
 3.267832e+01 6.014273e+01 4.649751e+01 6.060592e+01 7.995394e+01 5.549017e+01 4.596269e+01 5.674486e+01 4.103881e+01 2.995664e+01 2.814278e+01 2.626648e+01 2.782798e+00 2.967987e+00 2.976174e+00 4.358909e+00 4.870712e+00 5.839102e+00 4.260954e+00 3.580991e+00 3.656567e+00 3.403094e+00 3.130402e+00 2.638721e+00 2.321630e+00
<GCONST> 1.076801e+02
~t "T_k"
<ENDHMM>
~h "ny-a+d"
<BEGINHMM>
<NUMSTATES> 5
<STATE> 2
<MEAN> 25
 8.084209e+00 -3.246555e+00 -4.886938e+00 -2.890126e+00 -1.922659e+00 -4.591505e+00 -1.062124e+00 -1.533606e+00 -3.011539e+00 -1.419097e+00 7.822737e-01 1.974153e+00 8.531939e-01 -1.219489e+00 -1.591901e+00 -1.511451e+00 -1.099942e+00 -1.081241e+00 3.296968e-01 2.435892e-01 2.131322e-01 7.433307e-01 1.096173e+00 1.076555e+00 1.531909e+00
<VARIANCE> 25
 3.102556e+01 3.982352e+01 4.648204e+01 6.052976e+01 4.865224e+01 5.364120e+01 4.957391e+01 5.206113e+01 4.994263e+01 4.377484e+01 3.566540e+01 3.010361e+01 2.105191e+00 2.133569e+00 2.607650e+00 3.361774e+00 2.917656e+00 3.954443e+00 3.398865e+00 3.319243e+00 3.668817e+00 4.076825e+00 3.093344e+00 2.673295e+00 1.675560e+00
<GCONST> 1.052759e+02
<STATE> 3
<MEAN> 25
 9.462610e+00 -6.897775e+00 -8.743549e+00 -6.083593e+00 -4.604442e+00 -5.470979e+00 1.397076e+00 -2.830499e-01 -1.629562e+00 7.007640e-01 2.659651e+00 3.340820e+00 3.290816e-02 -1.735238e-01 -3.625012e-01 -3.627358e-01 -1.769637e-01 2.254089e-01 4.766614e-01 2.827543e-01 2.371980e-01 1.767752e-01 8.445666e-02 6.974697e-02 8.193482e-02
<VARIANCE> 25
 2.840129e+01 3.570125e+01 4.138834e+01 4.038225e+01 4.118876e+01 4.148624e+01 4.739182e+01 4.747406e+01 4.473821e+01 4.189992e+01 3.449903e+01 2.805832e+01 3.302394e-01 8.424883e-01 9.393210e-01 1.242460e+00 1.324397e+00 1.496400e+00 1.901740e+00 1.780651e+00 1.803969e+00 1.726919e+00 1.430944e+00 1.179275e+00 3.783611e-01
<GCONST> 9.133002e+01
<STATE> 4
<MEAN> 25
 8.177530e+00 -2.680661e+00 -7.293503e+00 -5.932261e+00 -3.758124e+00 -2.794274e+00 1.176165e+00 -3.390664e-01 -1.368642e+00 2.573896e-01 2.133668e+00 3.287408e+00 -4.538044e-01 8.704351e-01 7.276899e-01 4.679444e-01 4.150407e-01 5.706517e-01 -1.937626e-01 -1.382255e-01 1.753797e-02 -1.629017e-01 -2.942949e-01 -3.140077e-01 -8.826797e-01
<VARIANCE> 25
 2.215926e+01 3.099335e+01 3.486272e+01 3.668752e+01 3.283007e+01 3.965223e+01 3.500597e+01 3.826480e+01 3.512437e+01 3.170736e+01 2.563973e+01 2.200531e+01 5.861269e-01 9.910762e-01 1.080531e+00 1.252255e+00 1.395680e+00 1.835312e+00 1.787168e+00 1.826652e+00 1.993582e+00 1.853269e+00 1.609923e+00 1.318195e+00 6.483233e-01
<GCONST> 9.086413e+01
~t "T_a"
<ENDHMM>
~h "ny-a+k"
<BEGINHMM>
<NUMSTATES> 5
<STATE> 2
<MEAN> 25
 8.084209e+00 -3.246555e+00 -4.886938e+00 -2.890126e+00 -1.922659e+00 -4.591505e+00 -1.062124e+00 -1.533606e+00 -3.011539e+00 -1.419097e+00 7.822737e-01 1.974153e+00 8.531939e-01 -1.219489e+00 -1.591901e+00 -1.511451e+00 -1.099942e+00 -1.081241e+00 3.296968e-01 2.435892e-01 2.131322e-01 7.433307e-01 1.096173e+00 1.076555e+00 1.531909e+00
<VARIANCE> 25
 3.102556e+01 3.982352e+01 4.648204e+01 6.052976e+01 4.865224e+01 5.364120e+01 4.957391e+01 5.206113e+01 4.994263e+01 4.377484e+01 3.566540e+01 3.010361e+01 2.105191e+00 2.133569e+00 2.607650e+00 3.361774e+00 2.917656e+00 3.954443e+00 3.398865e+00 3.319243e+00 3.668817e+00 4.076825e+00 3.093344e+00 2.673295e+00 1.675560e+00
<GCONST> 1.052759e+02
<STATE> 3
<MEAN> 25
 9.462610e+00 -6.897775e+00 -8.743549e+00 -6.083593e+00 -4.604442e+00 -5.470979e+00 1.397076e+00 -2.830499e-01 -1.629562e+00 7.007640e-01 2.659651e+00 3.340820e+00 3.290816e-02 -1.735238e-01 -3.625012e-01 -3.627358e-01 -1.769637e-01 2.254089e-01 4.766614e-01 2.827543e-01 2.371980e-01 1.767752e-01 8.445666e-02 6.974697e-02 8.193482e-02
<VARIANCE> 25
 2.840129e+01 3.570125e+01 4.138834e+01 4.038225e+01 4.118876e+01 4.148624e+01 4.739182e+01 4.747406e+01 4.473821e+01 4.189992e+01 3.449903e+01 2.805832e+01 3.302394e-01 8.424883e-01 9.393210e-01 1.242460e+00 1.324397e+00 1.496400e+00 1.901740e+00 1.780651e+00 1.803969e+00 1.726919e+00 1.430944e+00 1.179275e+00 3.783611e-01
<GCONST> 9.133002e+01
<STATE> 4
<MEAN> 25
 8.177530e+00 -2.680661e+00 -7.293503e+00 -5.932261e+00 -3.758124e+00 -2.794274e+00 1.176165e+00 -3.390664e-01 -1.368642e+00 2.573896e-01 2.133668e+00 3.287408e+00 -4.538044e-01 8.704351e-01 7.276899e-01 4.679444e-01 4.150407e-01 5.706517e-01 -1.937626e-01 -1.382255e-01 1.753797e-02 -1.629017e-01 -2.942949e-01 -3.140077e-01 -8.826797e-01
<VARIANCE> 25
 2.215926e+01 3.099335e+01 3.486272e+01 3.668752e+01 3.283007e+01 3.965223e+01 3.500597e+01 3.826480e+01 3.512437e+01 3.170736e+01 2.563973e+01 2.200531e+01 5.861269e-01 9.910762e-01 1.080531e+00 1.252255e+00 1.395680e+00 1.835312e+00 1.787168e+00 1.826652e+00 1.993582e+00 1.853269e+00 1.609923e+00 1.318195e+00 6.483233e-01
<GCONST> 9.086413e+01
~t "T_a"
<ENDHMM>
~h "ny-a+l"
<BEGINHMM>
<NUMSTATES> 5
<STATE> 2
<MEAN> 25
 8.084209e+00 -3.246555e+00 -4.886938e+00 -2.890126e+00 -1.922659e+00 -4.591505e+00 -1.062124e+00 -1.533606e+00 -3.011539e+00 -1.419097e+00 7.822737e-01 1.974153e+00 8.531939e-01 -1.219489e+00 -1.591901e+00 -1.511451e+00 -1.099942e+00 -1.081241e+00 3.296968e-01 2.435892e-01 2.131322e-01 7.433307e-01 1.096173e+00 1.076555e+00 1.531909e+00
<VARIANCE> 25
 3.102556e+01 3.982352e+01 4.648204e+01 6.052976e+01 4.865224e+01 5.364120e+01 4.957391e+01 5.206113e+01 4.994263e+01 4.377484e+01 3.566540e+01 3.010361e+01 2.105191e+00 2.133569e+00 2.607650e+00 3.361774e+00 2.917656e+00 3.954443e+00 3.398865e+00 3.319243e+00 3.668817e+00 4.076825e+00 3.093344e+00 2.673295e+00 1.675560e+00
<GCONST> 1.052759e+02
<STATE> 3
<MEAN> 25
 9.462610e+00 -6.897775e+00 -8.743549e+00 -6.083593e+00 -4.604442e+00 -5.470979e+00 1.397076e+00 -2.830499e-01 -1.629562e+00 7.007640e-01 2.659651e+00 3.340820e+00 3.290816e-02 -1.735238e-01 -3.625012e-01 -3.627358e-01 -1.769637e-01 2.254089e-01 4.766614e-01 2.827543e-01 2.371980e-01 1.767752e-01 8.445666e-02 6.974697e-02 8.193482e-02
<VARIANCE> 25
 2.840129e+01 3.570125e+01 4.138834e+01 4.038225e+01 4.118876e+01 4.148624e+01 4.739182e+01 4.747406e+01 4.473821e+01 4.189992e+01 3.449903e+01 2.805832e+01 3.302394e-01 8.424883e-01 9.393210e-01 1.242460e+00 1.324397e+00 1.496400e+00 1.901740e+00 1.780651e+00 1.803969e+00 1.726919e+00 1.430944e+00 1.179275e+00 3.783611e-01
<GCONST> 9.133002e+01
<STATE> 4
<MEAN> 25
 8.177530e+00 -2.680661e+00 -7.293503e+00 -5.932261e+00 -3.758124e+00 -2.794274e+00 1.176165e+00 -3.390664e-01 -1.368642e+00 2.573896e-01 2.133668e+00 3.287408e+00 -4.538044e-01 8.704351e-01 7.276899e-01 4.679444e-01 4.150407e-01 5.706517e-01 -1.937626e-01 -1.382255e-01 1.753797e-02 -1.629017e-01 -2.942949e-01 -3.140077e-01 -8.826797e-01
<VARIANCE> 25
 2.215926e+01 3.099335e+01 3.486272e+01 3.668752e+01 3.283007e+01 3.965223e+01 3.500597e+01 3.826480e+01 3.512437e+01 3.170736e+01 2.563973e+01 2.200531e+01 5.861269e-01 9.910762e-01 1.080531e+00 1.252255e+00 1.395680e+00 1.835312e+00 1.787168e+00 1.826652e+00 1.993582e+00 1.853269e+00 1.609923e+00 1.318195e+00 6.483233e-01
<GCONST> 9.086413e+01
~t "T_a"
<ENDHMM>
~h "ny-a+m"
<BEGINHMM>
<NUMSTATES> 5
<STATE> 2
<MEAN> 25
 8.084209e+00 -3.246555e+00 -4.886938e+00 -2.890126e+00 -1.922659e+00 -4.591505e+00 -1.062124e+00 -1.533606e+00 -3.011539e+00 -1.419097e+00 7.822737e-01 1.974153e+00 8.531939e-01 -1.219489e+00 -1.591901e+00 -1.511451e+00 -1.099942e+00 -1.081241e+00 3.296968e-01 2.435892e-01 2.131322e-01 7.433307e-01 1.096173e+00 1.076555e+00 1.531909e+00
<VARIANCE> 25
 3.102556e+01 3.982352e+01 4.648204e+01 6.052976e+01 4.865224e+01 5.364120e+01 4.957391e+01 5.206113e+01 4.994263e+01 4.377484e+01 3.566540e+01 3.010361e+01 2.105191e+00 2.133569e+00 2.607650e+00 3.361774e+00 2.917656e+00 3.954443e+00 3.398865e+00 3.319243e+00 3.668817e+00 4.076825e+00 3.093344e+00 2.673295e+00 1.675560e+00
<GCONST> 1.052759e+02
<STATE> 3
<MEAN> 25
 9.462610e+00 -6.897775e+00 -8.743549e+00 -6.083593e+00 -4.604442e+00 -5.470979e+00 1.397076e+00 -2.830499e-01 -1.629562e+00 7.007640e-01 2.659651e+00 3.340820e+00 3.290816e-02 -1.735238e-01 -3.625012e-01 -3.627358e-01 -1.769637e-01 2.254089e-01 4.766614e-01 2.827543e-01 2.371980e-01 1.767752e-01 8.445666e-02 6.974697e-02 8.193482e-02
<VARIANCE> 25
 2.840129e+01 3.570125e+01 4.138834e+01 4.038225e+01 4.118876e+01 4.148624e+01 4.739182e+01 4.747406e+01 4.473821e+01 4.189992e+01 3.449903e+01 2.805832e+01 3.302394e-01 8.424883e-01 9.393210e-01 1.242460e+00 1.324397e+00 1.496400e+00 1.901740e+00 1.780651e+00 1.803969e+00 1.726919e+00 1.430944e+00 1.179275e+00 3.783611e-01
<GCONST> 9.133002e+01
<STATE> 4
<MEAN> 25
 8.177530e+00 -2.680661e+00 -7.293503e+00 -5.932261e+00 -3.758124e+00 -2.794274e+00 1.176165e+00 -3.390664e-01 -1.368642e+00 2.573896e-01 2.133668e+00 3.287408e+00 -4.538044e-01 8.704351e-01 7.276899e-01 4.679444e-01 4.150407e-01 5.706517e-01 -1.937626e-01 -1.382255e-01 1.753797e-02 -1.629017e-01 -2.942949e-01 -3.140077e-01 -8.826797e-01
<VARIANCE> 25
 2.215926e+01 3.099335e+01 3.486272e+01 3.668752e+01 3.283007e+01 3.965223e+01 3.500597e+01 3.826480e+01 3.512437e+01 3.170736e+01 2.563973e+01 2.200531e+01 5.861269e-01 9.910762e-01 1.080531e+00 1.252255e+00 1.395680e+00 1.835312e+00 1.787168e+00 1.826652e+00 1.993582e+00 1.853269e+00 1.609923e+00 1.318195e+00 6.483233e-01
<GCONST> 9.086413e+01
~t "T_a"
<ENDHMM>
~h "ny-a+n"
<BEGINHMM>
<NUMSTATES> 5
<STATE> 2
<MEAN> 25
 8.084209e+00 -3.246555e+00 -4.886938e+00 -2.890126e+00 -1.922659e+00 -4.591505e+00 -1.062124e+00 -1.533606e+00 -3.011539e+00 -1.419097e+00 7.822737e-01 1.974153e+00 8.531939e-01 -1.219489e+00 -1.591901e+00 -1.511451e+00 -1.099942e+00 -1.081241e+00 3.296968e-01 2.435892e-01 2.131322e-01 7.433307e-01 1.096173e+00 1.076555e+00 1.531909e+00
<VARIANCE> 25
 3.102556e+01 3.982352e+01 4.648204e+01 6.052976e+01 4.865224e+01 5.364120e+01 4.957391e+01 5.206113e+01 4.994263e+01 4.377484e+01 3.566540e+01 3.010361e+01 2.105191e+00 2.133569e+00 2.607650e+00 3.361774e+00 2.917656e+00 3.954443e+00 3.398865e+00 3.319243e+00 3.668817e+00 4.076825e+00 3.093344e+00 2.673295e+00 1.675560e+00
<GCONST> 1.052759e+02
<STATE> 3
<MEAN> 25
 9.462610e+00 -6.897775e+00 -8.743549e+00 -6.083593e+00 -4.604442e+00 -5.470979e+00 1.397076e+00 -2.830499e-01 -1.629562e+00 7.007640e-01 2.659651e+00 3.340820e+00 3.290816e-02 -1.735238e-01 -3.625012e-01 -3.627358e-01 -1.769637e-01 2.254089e-01 4.766614e-01 2.827543e-01 2.371980e-01 1.767752e-01 8.445666e-02 6.974697e-02 8.193482e-02
<VARIANCE> 25
 2.840129e+01 3.570125e+01 4.138834e+01 4.038225e+01 4.118876e+01 4.148624e+01 4.739182e+01 4.747406e+01 4.473821e+01 4.189992e+01 3.449903e+01 2.805832e+01 3.302394e-01 8.424883e-01 9.393210e-01 1.242460e+00 1.324397e+00 1.496400e+00 1.901740e+00 1.780651e+00 1.803969e+00 1.726919e+00 1.430944e+00 1.179275e+00 3.783611e-01
<GCONST> 9.133002e+01
<STATE> 4
<MEAN> 25
 8.177530e+00 -2.680661e+00 -7.293503e+00 -5.932261e+00 -3.758124e+00 -2.794274e+00 1.176165e+00 -3.390664e-01 -1.368642e+00 2.573896e-01 2.133668e+00 3.287408e+00 -4.538044e-01 8.704351e-01 7.276899e-01 4.679444e-01 4.150407e-01 5.706517e-01 -1.937626e-01 -1.382255e-01 1.753797e-02 -1.629017e-01 -2.942949e-01 -3.140077e-01 -8.826797e-01
<VARIANCE> 25
 2.215926e+01 3.099335e+01 3.486272e+01 3.668752e+01 3.283007e+01 3.965223e+01 3.500597e+01 3.826480e+01 3.512437e+01 3.170736e+01 2.563973e+01 2.200531e+01 5.861269e-01 9.910762e-01 1.080531e+00 1.252255e+00 1.395680e+00 1.835312e+00 1.787168e+00 1.826652e+00 1.993582e+00 1.853269e+00 1.609923e+00 1.318195e+00 6.483233e-01
<GCONST> 9.086413e+01
~t "T_a"
<ENDHMM>
~h "ll-o+n"
<BEGINHMM>
<NUMSTATES> 5
<STATE> 2
<MEAN> 25
 8.202134e+00 8.756948e-01 -1.556870e+00 -2.412576e+00 -4.135490e+00 -5.283045e+00 -1.325630e+00 5.514442e-01 -3.256593e+00 -4.464030e+00 -3.179199e+00 -1.018459e+00 8.533680e-01 5.628624e-02 -4.272498e-01 -1.163086e+00 -1.742013e+00 -1.833407e+00 -1.006363e-01 8.327968e-01 2.565329e-01 -1.784475e-01 -2.551433e-01 1.000556e-01 7.841955e-01
<VARIANCE> 25
 2.727819e+01 4.614404e+01 4.546624e+01 5.624189e+01 6.257309e+01 6.102062e+01 4.518742e+01 4.939813e+01 5.469617e+01 4.219932e+01 3.056493e+01 2.847985e+01 1.604221e+00 2.714622e+00 2.414845e+00 3.306103e+00 3.399673e+00 4.293542e+00 4.410888e+00 3.910635e+00 3.812121e+00 3.509329e+00 2.851977e+00 2.694980e+00 1.552250e+00
<GCONST> 1.055529e+02
<STATE> 3
<MEAN> 25
 9.608891e+00 1.841884e+00 -1.624231e+00 -4.843653e+00 -1.056682e+01 -1.047259e+01 -3.275502e-01 4.228262e+00 -8.981493e-01 -3.707518e+00 -3.771726e+00 -1.847208e+00 -1.603226e-01 3.746803e-01 2.492852e-02 -5.283350e-02 -1.316152e-01 2.060792e-01 2.320018e-01 3.473101e-01 4.636069e-01 2.421327e-01 -1.011645e-03 -9.001540e-02 -4.208844e-01
<VARIANCE> 25
 2.191664e+01 3.832346e+01 3.536129e+01 4.552036e+01 5.146196e+01 5.402416e+01 4.532333e+01 4.316967e+01 5.194213e+01 3.791486e+01 2.724122e+01 2.477335e+01 5.759985e-01 1.296905e+00 1.329783e+00 1.436117e+00 2.015944e+00 2.854960e+00 1.984985e+00 2.227589e+00 2.343580e+00 2.045362e+00 1.638120e+00 1.449960e+00 1.066268e+00
<GCONST> 9.576168e+01
<STATE> 4
<MEAN> 25
 5.920141e+00 4.729104e+00 -6.619071e-01 -3.592440e+00 -6.668617e+00 -4.437122e+00 3.776827e-01 3.175261e+00 9.050462e-01 -1.454790e+00 -2.326509e+00 -1.249121e+00 -6.257654e-01 -3.906129e-02 1.678127e-01 4.218079e-01 7.039407e-01 9.980335e-01 2.885799e-01 -2.038472e-01 -1.773957e-02 1.877047e-01 2.155907e-01 8.154663e-02 -5.345345e-01
<VARIANCE> 25
 2.381943e+01 3.168683e+01 3.073319e+01 3.372535e+01 3.205265e+01 4.222814e+01 3.201194e+01 3.300840e+01 3.498757e+01 3.150789e+01 2.243595e+01 1.901501e+01 4.852379e-01 7.335701e-01 1.011674e+00 1.084659e+00 1.496157e+00 1.967000e+00 1.648281e+00 1.688958e+00 1.686677e+00 1.518985e+00 1.305284e+00 1.193857e+00 3.831035e-01
<GCONST> 8.833953e+01
~t "T_o"
<ENDHMM>
~h "ll-o+s"
<BEGINHMM>
<NUMSTATES> 5
<STATE> 2
<MEAN> 25
 8.202134e+00 8.756948e-01 -1.556870e+00 -2.412576e+00 -4.135490e+00 -5.283045e+00 -1.325630e+00 5.514442e-01 -3.256593e+00 -4.464030e+00 -3.179199e+00 -1.018459e+00 8.533680e-01 5.628624e-02 -4.272498e-01 -1.163086e+00 -1.742013e+00 -1.833407e+00 -1.006363e-01 8.327968e-01 2.565329e-01 -1.784475e-01 -2.551433e-01 1.000556e-01 7.841955e-01
<VARIANCE> 25
 2.727819e+01 4.614404e+01 4.546624e+01 5.624189e+01 6.257309e+01 6.102062e+01 4.518742e+01 4.939813e+01 5.469617e+01 4.219932e+01 3.056493e+01 2.847985e+01 1.604221e+00 2.714622e+00 2.414845e+00 3.306103e+00 3.399673e+00 4.293542e+00 4.410888e+00 3.910635e+00 3.812121e+00 3.509329e+00 2.851977e+00 2.694980e+00 1.552250e+00
<GCONST> 1.055529e+02
<STATE> 3
<MEAN> 25
 9.608891e+00 1.841884e+00 -1.624231e+00 -4.843653e+00 -1.056682e+01 -1.047259e+01 -3.275502e-01 4.228262e+00 -8.981493e-01 -3.707518e+00 -3.771726e+00 -1.847208e+00 -1.603226e-01 3.746803e-01 2.492852e-02 -5.283350e-02 -1.316152e-01 2.060792e-01 2.320018e-01 3.473101e-01 4.636069e-01 2.421327e-01 -1.011645e-03 -9.001540e-02 -4.208844e-01
<VARIANCE> 25
 2.191664e+01 3.832346e+01 3.536129e+01 4.552036e+01 5.146196e+01 5.402416e+01 4.532333e+01 4.316967e+01 5.194213e+01 3.791486e+01 2.724122e+01 2.477335e+01 5.759985e-01 1.296905e+00 1.329783e+00 1.436117e+00 2.015944e+00 2.854960e+00 1.984985e+00 2.227589e+00 2.343580e+00 2.045362e+00 1.638120e+00 1.449960e+00 1.066268e+00
<GCONST> 9.576168e+01
<STATE> 4
<MEAN> 25
 5.920141e+00 4.729104e+00 -6.619071e-01 -3.592440e+00 -6.668617e+00 -4.437122e+00 3.776827e-01 3.175261e+00 9.050462e-01 -1.454790e+00 -2.326509e+00 -1.249121e+00 -6.257654e-01 -3.906129e-02 1.678127e-01 4.218079e-01 7.039407e-01 9.980335e-01 2.885799e-01 -2.038472e-01 -1.773957e-02 1.877047e-01 2.155907e-01 8.154663e-02 -5.345345e-01
<VARIANCE> 25
 2.381943e+01 3.168683e+01 3.073319e+01 3.372535e+01 3.205265e+01 4.222814e+01 3.201194e+01 3.300840e+01 3.498757e+01 3.150789e+01 2.243595e+01 1.901501e+01 4.852379e-01 7.335701e-01 1.011674e+00 1.084659e+00 1.496157e+00 1.967000e+00 1.648281e+00 1.688958e+00 1.686677e+00 1.518985e+00 1.305284e+00 1.193857e+00 3.831035e-01
<GCONST> 8.833953e+01
~t "T_o"
<ENDHMM>
~h "d-o+i"
<BEGINHMM>
<NUMSTATES> 5
<STATE> 2
<MEAN> 25
 8.202134e+00 8.756948e-01 -1.556870e+00 -2.412576e+00 -4.135490e+00 -5.283045e+00 -1.325630e+00 5.514442e-01 -3.256593e+00 -4.464030e+00 -3.179199e+00 -1.018459e+00 8.533680e-01 5.628624e-02 -4.272498e-01 -1.163086e+00 -1.742013e+00 -1.833407e+00 -1.006363e-01 8.327968e-01 2.565329e-01 -1.784475e-01 -2.551433e-01 1.000556e-01 7.841955e-01
<VARIANCE> 25
 2.727819e+01 4.614404e+01 4.546624e+01 5.624189e+01 6.257309e+01 6.102062e+01 4.518742e+01 4.939813e+01 5.469617e+01 4.219932e+01 3.056493e+01 2.847985e+01 1.604221e+00 2.714622e+00 2.414845e+00 3.306103e+00 3.399673e+00 4.293542e+00 4.410888e+00 3.910635e+00 3.812121e+00 3.509329e+00 2.851977e+00 2.694980e+00 1.552250e+00
<GCONST> 1.055529e+02
<STATE> 3
<MEAN> 25
 9.608891e+00 1.841884e+00 -1.624231e+00 -4.843653e+00 -1.056682e+01 -1.047259e+01 -3.275502e-01 4.228262e+00 -8.981493e-01 -3.707518e+00 -3.771726e+00 -1.847208e+00 -1.603226e-01 3.746803e-01 2.492852e-02 -5.283350e-02 -1.316152e-01 2.060792e-01 2.320018e-01 3.473101e-01 4.636069e-01 2.421327e-01 -1.011645e-03 -9.001540e-02 -4.208844e-01
<VARIANCE> 25
 2.191664e+01 3.832346e+01 3.536129e+01 4.552036e+01 5.146196e+01 5.402416e+01 4.532333e+01 4.316967e+01 5.194213e+01 3.791486e+01 2.724122e+01 2.477335e+01 5.759985e-01 1.296905e+00 1.329783e+00 1.436117e+00 2.015944e+00 2.854960e+00 1.984985e+00 2.227589e+00 2.343580e+00 2.045362e+00 1.638120e+00 1.449960e+00 1.066268e+00
<GCONST> 9.576168e+01
<STATE> 4
<MEAN> 25
 5.920141e+00 4.729104e+00 -6.619071e-01 -3.592440e+00 -6.668617e+00 -4.437122e+00 3.776827e-01 3.175261e+00 9.050462e-01 -1.454790e+00 -2.326509e+00 -1.249121e+00 -6.257654e-01 -3.906129e-02 1.678127e-01 4.218079e-01 7.039407e-01 9.980335e-01 2.885799e-01 -2.038472e-01 -1.773957e-02 1.877047e-01 2.155907e-01 8.154663e-02 -5.345345e-01
<VARIANCE> 25
 2.381943e+01 3.168683e+01 3.073319e+01 3.372535e+01 3.205265e+01 4.222814e+01 3.201194e+01 3.300840e+01 3.498757e+01 3.150789e+01 2.243595e+01 1.901501e+01 4.852379e-01 7.335701e-01 1.011674e+00 1.084659e+00 1.496157e+00 1.967000e+00 1.648281e+00 1.688958e+00 1.686677e+00 1.518985e+00 1.305284e+00 1.193857e+00 3.831035e-01
<GCONST> 8.833953e+01
~t "T_o"
<ENDHMM>
~h "d-o+k"
<BEGINHMM>
<NUMSTATES> 5
<STATE> 2
<MEAN> 25
 8.202134e+00 8.756948e-01 -1.556870e+00 -2.412576e+00 -4.135490e+00 -5.283045e+00 -1.325630e+00 5.514442e-01 -3.256593e+00 -4.464030e+00 -3.179199e+00 -1.018459e+00 8.533680e-01 5.628624e-02 -4.272498e-01 -1.163086e+00 -1.742013e+00 -1.833407e+00 -1.006363e-01 8.327968e-01 2.565329e-01 -1.784475e-01 -2.551433e-01 1.000556e-01 7.841955e-01
<VARIANCE> 25
 2.727819e+01 4.614404e+01 4.546624e+01 5.624189e+01 6.257309e+01 6.102062e+01 4.518742e+01 4.939813e+01 5.469617e+01 4.219932e+01 3.056493e+01 2.847985e+01 1.604221e+00 2.714622e+00 2.414845e+00 3.306103e+00 3.399673e+00 4.293542e+00 4.410888e+00 3.910635e+00 3.812121e+00 3.509329e+00 2.851977e+00 2.694980e+00 1.552250e+00
<GCONST> 1.055529e+02
<STATE> 3
<MEAN> 25
 9.608891e+00 1.841884e+00 -1.624231e+00 -4.843653e+00 -1.056682e+01 -1.047259e+01 -3.275502e-01 4.228262e+00 -8.981493e-01 -3.707518e+00 -3.771726e+00 -1.847208e+00 -1.603226e-01 3.746803e-01 2.492852e-02 -5.283350e-02 -1.316152e-01 2.060792e-01 2.320018e-01 3.473101e-01 4.636069e-01 2.421327e-01 -1.011645e-03 -9.001540e-02 -4.208844e-01
<VARIANCE> 25
 2.191664e+01 3.832346e+01 3.536129e+01 4.552036e+01 5.146196e+01 5.402416e+01 4.532333e+01 4.316967e+01 5.194213e+01 3.791486e+01 2.724122e+01 2.477335e+01 5.759985e-01 1.296905e+00 1.329783e+00 1.436117e+00 2.015944e+00 2.854960e+00 1.984985e+00 2.227589e+00 2.343580e+00 2.045362e+00 1.638120e+00 1.449960e+00 1.066268e+00
<GCONST> 9.576168e+01
<STATE> 4
<MEAN> 25
 5.920141e+00 4.729104e+00 -6.619071e-01 -3.592440e+00 -6.668617e+00 -4.437122e+00 3.776827e-01 3.175261e+00 9.050462e-01 -1.454790e+00 -2.326509e+00 -1.249121e+00 -6.257654e-01 -3.906129e-02 1.678127e-01 4.218079e-01 7.039407e-01 9.980335e-01 2.885799e-01 -2.038472e-01 -1.773957e-02 1.877047e-01 2.155907e-01 8.154663e-02 -5.345345e-01
<VARIANCE> 25
 2.381943e+01 3.168683e+01 3.073319e+01 3.372535e+01 3.205265e+01 4.222814e+01 3.201194e+01 3.300840e+01 3.498757e+01 3.150789e+01 2.243595e+01 1.901501e+01 4.852379e-01 7.335701e-01 1.011674e+00 1.084659e+00 1.496157e+00 1.967000e+00 1.648281e+00 1.688958e+00 1.686677e+00 1.518985e+00 1.305284e+00 1.193857e+00 3.831035e-01
<GCONST> 8.833953e+01
~t "T_o"
<ENDHMM>
~h "d-o+l"
<BEGINHMM>
<NUMSTATES> 5
<STATE> 2
<MEAN> 25
 8.202134e+00 8.756948e-01 -1.556870e+00 -2.412576e+00 -4.135490e+00 -5.283045e+00 -1.325630e+00 5.514442e-01 -3.256593e+00 -4.464030e+00 -3.179199e+00 -1.018459e+00 8.533680e-01 5.628624e-02 -4.272498e-01 -1.163086e+00 -1.742013e+00 -1.833407e+00 -1.006363e-01 8.327968e-01 2.565329e-01 -1.784475e-01 -2.551433e-01 1.000556e-01 7.841955e-01
<VARIANCE> 25
 2.727819e+01 4.614404e+01 4.546624e+01 5.624189e+01 6.257309e+01 6.102062e+01 4.518742e+01 4.939813e+01 5.469617e+01 4.219932e+01 3.056493e+01 2.847985e+01 1.604221e+00 2.714622e+00 2.414845e+00 3.306103e+00 3.399673e+00 4.293542e+00 4.410888e+00 3.910635e+00 3.812121e+00 3.509329e+00 2.851977e+00 2.694980e+00 1.552250e+00
<GCONST> 1.055529e+02
<STATE> 3
<MEAN> 25
 9.608891e+00 1.841884e+00 -1.624231e+00 -4.843653e+00 -1.056682e+01 -1.047259e+01 -3.275502e-01 4.228262e+00 -8.981493e-01 -3.707518e+00 -3.771726e+00 -1.847208e+00 -1.603226e-01 3.746803e-01 2.492852e-02 -5.283350e-02 -1.316152e-01 2.060792e-01 2.320018e-01 3.473101e-01 4.636069e-01 2.421327e-01 -1.011645e-03 -9.001540e-02 -4.208844e-01
<VARIANCE> 25
 2.191664e+01 3.832346e+01 3.536129e+01 4.552036e+01 5.146196e+01 5.402416e+01 4.532333e+01 4.316967e+01 5.194213e+01 3.791486e+01 2.724122e+01 2.477335e+01 5.759985e-01 1.296905e+00 1.329783e+00 1.436117e+00 2.015944e+00 2.854960e+00 1.984985e+00 2.227589e+00 2.343580e+00 2.045362e+00 1.638120e+00 1.449960e+00 1.066268e+00
<GCONST> 9.576168e+01
<STATE> 4
<MEAN> 25
 5.920141e+00 4.729104e+00 -6.619071e-01 -3.592440e+00 -6.668617e+00 -4.437122e+00 3.776827e-01 3.175261e+00 9.050462e-01 -1.454790e+00 -2.326509e+00 -1.249121e+00 -6.257654e-01 -3.906129e-02 1.678127e-01 4.218079e-01 7.039407e-01 9.980335e-01 2.885799e-01 -2.038472e-01 -1.773957e-02 1.877047e-01 2.155907e-01 8.154663e-02 -5.345345e-01
<VARIANCE> 25
 2.381943e+01 3.168683e+01 3.073319e+01 3.372535e+01 3.205265e+01 4.222814e+01 3.201194e+01 3.300840e+01 3.498757e+01 3.150789e+01 2.243595e+01 1.901501e+01 4.852379e-01 7.335701e-01 1.011674e+00 1.084659e+00 1.496157e+00 1.967000e+00 1.648281e+00 1.688958e+00 1.686677e+00 1.518985e+00 1.305284e+00 1.193857e+00 3.831035e-01
<GCONST> 8.833953e+01
~t "T_o"
<ENDHMM>
~h "d-o+n"
<BEGINHMM>
<NUMSTATES> 5
<STATE> 2
<MEAN> 25
 8.202134e+00 8.756948e-01 -1.556870e+00 -2.412576e+00 -4.135490e+00 -5.283045e+00 -1.325630e+00 5.514442e-01 -3.256593e+00 -4.464030e+00 -3.179199e+00 -1.018459e+00 8.533680e-01 5.628624e-02 -4.272498e-01 -1.163086e+00 -1.742013e+00 -1.833407e+00 -1.006363e-01 8.327968e-01 2.565329e-01 -1.784475e-01 -2.551433e-01 1.000556e-01 7.841955e-01
<VARIANCE> 25
 2.727819e+01 4.614404e+01 4.546624e+01 5.624189e+01 6.257309e+01 6.102062e+01 4.518742e+01 4.939813e+01 5.469617e+01 4.219932e+01 3.056493e+01 2.847985e+01 1.604221e+00 2.714622e+00 2.414845e+00 3.306103e+00 3.399673e+00 4.293542e+00 4.410888e+00 3.910635e+00 3.812121e+00 3.509329e+00 2.851977e+00 2.694980e+00 1.552250e+00
<GCONST> 1.055529e+02
<STATE> 3
<MEAN> 25
 9.608891e+00 1.841884e+00 -1.624231e+00 -4.843653e+00 -1.056682e+01 -1.047259e+01 -3.275502e-01 4.228262e+00 -8.981493e-01 -3.707518e+00 -3.771726e+00 -1.847208e+00 -1.603226e-01 3.746803e-01 2.492852e-02 -5.283350e-02 -1.316152e-01 2.060792e-01 2.320018e-01 3.473101e-01 4.636069e-01 2.421327e-01 -1.011645e-03 -9.001540e-02 -4.208844e-01
<VARIANCE> 25
 2.191664e+01 3.832346e+01 3.536129e+01 4.552036e+01 5.146196e+01 5.402416e+01 4.532333e+01 4.316967e+01 5.194213e+01 3.791486e+01 2.724122e+01 2.477335e+01 5.759985e-01 1.296905e+00 1.329783e+00 1.436117e+00 2.015944e+00 2.854960e+00 1.984985e+00 2.227589e+00 2.343580e+00 2.045362e+00 1.638120e+00 1.449960e+00 1.066268e+00
<GCONST> 9.576168e+01
<STATE> 4
<MEAN> 25
 5.920141e+00 4.729104e+00 -6.619071e-01 -3.592440e+00 -6.668617e+00 -4.437122e+00 3.776827e-01 3.175261e+00 9.050462e-01 -1.454790e+00 -2.326509e+00 -1.249121e+00 -6.257654e-01 -3.906129e-02 1.678127e-01 4.218079e-01 7.039407e-01 9.980335e-01 2.885799e-01 -2.038472e-01 -1.773957e-02 1.877047e-01 2.155907e-01 8.154663e-02 -5.345345e-01
<VARIANCE> 25
 2.381943e+01 3.168683e+01 3.073319e+01 3.372535e+01 3.205265e+01 4.222814e+01 3.201194e+01 3.300840e+01 3.498757e+01 3.150789e+01 2.243595e+01 1.901501e+01 4.852379e-01 7.335701e-01 1.011674e+00 1.084659e+00 1.496157e+00 1.967000e+00 1.648281e+00 1.688958e+00 1.686677e+00 1.518985e+00 1.305284e+00 1.193857e+00 3.831035e-01
<GCONST> 8.833953e+01
~t "T_o"
<ENDHMM>
~h "d-o+r"
<BEGINHMM>
<NUMSTATES> 5
<STATE> 2
<MEAN> 25
 8.202134e+00 8.756948e-01 -1.556870e+00 -2.412576e+00 -4.135490e+00 -5.283045e+00 -1.325630e+00 5.514442e-01 -3.256593e+00 -4.464030e+00 -3.179199e+00 -1.018459e+00 8.533680e-01 5.628624e-02 -4.272498e-01 -1.163086e+00 -1.742013e+00 -1.833407e+00 -1.006363e-01 8.327968e-01 2.565329e-01 -1.784475e-01 -2.551433e-01 1.000556e-01 7.841955e-01
<VARIANCE> 25
 2.727819e+01 4.614404e+01 4.546624e+01 5.624189e+01 6.257309e+01 6.102062e+01 4.518742e+01 4.939813e+01 5.469617e+01 4.219932e+01 3.056493e+01 2.847985e+01 1.604221e+00 2.714622e+00 2.414845e+00 3.306103e+00 3.399673e+00 4.293542e+00 4.410888e+00 3.910635e+00 3.812121e+00 3.509329e+00 2.851977e+00 2.694980e+00 1.552250e+00
<GCONST> 1.055529e+02
<STATE> 3
<MEAN> 25
 9.608891e+00 1.841884e+00 -1.624231e+00 -4.843653e+00 -1.056682e+01 -1.047259e+01 -3.275502e-01 4.228262e+00 -8.981493e-01 -3.707518e+00 -3.771726e+00 -1.847208e+00 -1.603226e-01 3.746803e-01 2.492852e-02 -5.283350e-02 -1.316152e-01 2.060792e-01 2.320018e-01 3.473101e-01 4.636069e-01 2.421327e-01 -1.011645e-03 -9.001540e-02 -4.208844e-01
<VARIANCE> 25
 2.191664e+01 3.832346e+01 3.536129e+01 4.552036e+01 5.146196e+01 5.402416e+01 4.532333e+01 4.316967e+01 5.194213e+01 3.791486e+01 2.724122e+01 2.477335e+01 5.759985e-01 1.296905e+00 1.329783e+00 1.436117e+00 2.015944e+00 2.854960e+00 1.984985e+00 2.227589e+00 2.343580e+00 2.045362e+00 1.638120e+00 1.449960e+00 1.066268e+00
<GCONST> 9.576168e+01
<STATE> 4
<MEAN> 25
 5.920141e+00 4.729104e+00 -6.619071e-01 -3.592440e+00 -6.668617e+00 -4.437122e+00 3.776827e-01 3.175261e+00 9.050462e-01 -1.454790e+00 -2.326509e+00 -1.249121e+00 -6.257654e-01 -3.906129e-02 1.678127e-01 4.218079e-01 7.039407e-01 9.980335e-01 2.885799e-01 -2.038472e-01 -1.773957e-02 1.877047e-01 2.155907e-01 8.154663e-02 -5.345345e-01
<VARIANCE> 25
 2.381943e+01 3.168683e+01 3.073319e+01 3.372535e+01 3.205265e+01 4.222814e+01 3.201194e+01 3.300840e+01 3.498757e+01 3.150789e+01 2.243595e+01 1.901501e+01 4.852379e-01 7.335701e-01 1.011674e+00 1.084659e+00 1.496157e+00 1.967000e+00 1.648281e+00 1.688958e+00 1.686677e+00 1.518985e+00 1.305284e+00 1.193857e+00 3.831035e-01
<GCONST> 8.833953e+01
~t "T_o"
<ENDHMM>
~h "d-o+s"
<BEGINHMM>
<NUMSTATES> 5
<STATE> 2
<MEAN> 25
 8.202134e+00 8.756948e-01 -1.556870e+00 -2.412576e+00 -4.135490e+00 -5.283045e+00 -1.325630e+00 5.514442e-01 -3.256593e+00 -4.464030e+00 -3.179199e+00 -1.018459e+00 8.533680e-01 5.628624e-02 -4.272498e-01 -1.163086e+00 -1.742013e+00 -1.833407e+00 -1.006363e-01 8.327968e-01 2.565329e-01 -1.784475e-01 -2.551433e-01 1.000556e-01 7.841955e-01
<VARIANCE> 25
 2.727819e+01 4.614404e+01 4.546624e+01 5.624189e+01 6.257309e+01 6.102062e+01 4.518742e+01 4.939813e+01 5.469617e+01 4.219932e+01 3.056493e+01 2.847985e+01 1.604221e+00 2.714622e+00 2.414845e+00 3.306103e+00 3.399673e+00 4.293542e+00 4.410888e+00 3.910635e+00 3.812121e+00 3.509329e+00 2.851977e+00 2.694980e+00 1.552250e+00
<GCONST> 1.055529e+02
<STATE> 3
<MEAN> 25
 9.608891e+00 1.841884e+00 -1.624231e+00 -4.843653e+00 -1.056682e+01 -1.047259e+01 -3.275502e-01 4.228262e+00 -8.981493e-01 -3.707518e+00 -3.771726e+00 -1.847208e+00 -1.603226e-01 3.746803e-01 2.492852e-02 -5.283350e-02 -1.316152e-01 2.060792e-01 2.320018e-01 3.473101e-01 4.636069e-01 2.421327e-01 -1.011645e-03 -9.001540e-02 -4.208844e-01
<VARIANCE> 25
 2.191664e+01 3.832346e+01 3.536129e+01 4.552036e+01 5.146196e+01 5.402416e+01 4.532333e+01 4.316967e+01 5.194213e+01 3.791486e+01 2.724122e+01 2.477335e+01 5.759985e-01 1.296905e+00 1.329783e+00 1.436117e+00 2.015944e+00 2.854960e+00 1.984985e+00 2.227589e+00 2.343580e+00 2.045362e+00 1.638120e+00 1.449960e+00 1.066268e+00
<GCONST> 9.576168e+01
<STATE> 4
<MEAN> 25
 5.920141e+00 4.729104e+00 -6.619071e-01 -3.592440e+00 -6.668617e+00 -4.437122e+00 3.776827e-01 3.175261e+00 9.050462e-01 -1.454790e+00 -2.326509e+00 -1.249121e+00 -6.257654e-01 -3.906129e-02 1.678127e-01 4.218079e-01 7.039407e-01 9.980335e-01 2.885799e-01 -2.038472e-01 -1.773957e-02 1.877047e-01 2.155907e-01 8.154663e-02 -5.345345e-01
<VARIANCE> 25
 2.381943e+01 3.168683e+01 3.073319e+01 3.372535e+01 3.205265e+01 4.222814e+01 3.201194e+01 3.300840e+01 3.498757e+01 3.150789e+01 2.243595e+01 1.901501e+01 4.852379e-01 7.335701e-01 1.011674e+00 1.084659e+00 1.496157e+00 1.967000e+00 1.648281e+00 1.688958e+00 1.686677e+00 1.518985e+00 1.305284e+00 1.193857e+00 3.831035e-01
<GCONST> 8.833953e+01
~t "T_o"
<ENDHMM>
~h "d-o+t"
<BEGINHMM>
<NUMSTATES> 5
<STATE> 2
<MEAN> 25
 8.202134e+00 8.756948e-01 -1.556870e+00 -2.412576e+00 -4.135490e+00 -5.283045e+00 -1.325630e+00 5.514442e-01 -3.256593e+00 -4.464030e+00 -3.179199e+00 -1.018459e+00 8.533680e-01 5.628624e-02 -4.272498e-01 -1.163086e+00 -1.742013e+00 -1.833407e+00 -1.006363e-01 8.327968e-01 2.565329e-01 -1.784475e-01 -2.551433e-01 1.000556e-01 7.841955e-01
<VARIANCE> 25
 2.727819e+01 4.614404e+01 4.546624e+01 5.624189e+01 6.257309e+01 6.102062e+01 4.518742e+01 4.939813e+01 5.469617e+01 4.219932e+01 3.056493e+01 2.847985e+01 1.604221e+00 2.714622e+00 2.414845e+00 3.306103e+00 3.399673e+00 4.293542e+00 4.410888e+00 3.910635e+00 3.812121e+00 3.509329e+00 2.851977e+00 2.694980e+00 1.552250e+00
<GCONST> 1.055529e+02
<STATE> 3
<MEAN> 25
 9.608891e+00 1.841884e+00 -1.624231e+00 -4.843653e+00 -1.056682e+01 -1.047259e+01 -3.275502e-01 4.228262e+00 -8.981493e-01 -3.707518e+00 -3.771726e+00 -1.847208e+00 -1.603226e-01 3.746803e-01 2.492852e-02 -5.283350e-02 -1.316152e-01 2.060792e-01 2.320018e-01 3.473101e-01 4.636069e-01 2.421327e-01 -1.011645e-03 -9.001540e-02 -4.208844e-01
<VARIANCE> 25
 2.191664e+01 3.832346e+01 3.536129e+01 4.552036e+01 5.146196e+01 5.402416e+01 4.532333e+01 4.316967e+01 5.194213e+01 3.791486e+01 2.724122e+01 2.477335e+01 5.759985e-01 1.296905e+00 1.329783e+00 1.436117e+00 2.015944e+00 2.854960e+00 1.984985e+00 2.227589e+00 2.343580e+00 2.045362e+00 1.638120e+00 1.449960e+00 1.066268e+00
<GCONST> 9.576168e+01
<STATE> 4
<MEAN> 25
 5.920141e+00 4.729104e+00 -6.619071e-01 -3.592440e+00 -6.668617e+00 -4.437122e+00 3.776827e-01 3.175261e+00 9.050462e-01 -1.454790e+00 -2.326509e+00 -1.249121e+00 -6.257654e-01 -3.906129e-02 1.678127e-01 4.218079e-01 7.039407e-01 9.980335e-01 2.885799e-01 -2.038472e-01 -1.773957e-02 1.877047e-01 2.155907e-01 8.154663e-02 -5.345345e-01
<VARIANCE> 25
 2.381943e+01 3.168683e+01 3.073319e+01 3.372535e+01 3.205265e+01 4.222814e+01 3.201194e+01 3.300840e+01 3.498757e+01 3.150789e+01 2.243595e+01 1.901501e+01 4.852379e-01 7.335701e-01 1.011674e+00 1.084659e+00 1.496157e+00 1.967000e+00 1.648281e+00 1.688958e+00 1.686677e+00 1.518985e+00 1.305284e+00 1.193857e+00 3.831035e-01
<GCONST> 8.833953e+01
~t "T_o"
<ENDHMM>
~h "ch+a"
<BEGINHMM>
<NUMSTATES> 5
<STATE> 2
<MEAN> 25
 -3.515305e+00 -5.826408e+00 6.770669e+00 1.690331e+00 -1.433543e+00 1.311194e+00 -8.473504e-01 -1.564756e-02 1.486803e+00 -1.773934e+00 -4.531376e-01 4.916118e-02 -1.929486e+00 -2.286035e+00 1.432176e+00 -1.023099e-01 -2.989334e-01 3.851319e-02 2.564107e-01 1.889517e-01 9.482999e-01 1.769091e-01 2.801395e-01 3.219435e-01 8.950387e-01
<VARIANCE> 25
 4.331898e+01 7.936980e+01 6.833836e+01 4.999400e+01 4.801806e+01 4.844822e+01 4.646045e+01 4.836494e+01 4.783947e+01 3.791654e+01 3.232258e+01 2.454547e+01 1.851286e+00 7.669931e+00 6.159750e+00 3.452475e+00 3.472772e+00 4.140024e+00 3.523978e+00 3.569549e+00 3.155254e+00 2.976944e+00 2.255540e+00 2.050224e+00 6.671400e+00
<GCONST> 1.084521e+02
<STATE> 3
<MEAN> 25
 -1.108798e+01 -1.948901e+01 1.376653e+01 1.118908e+00 -4.445756e-01 -1.846460e-01 -1.224519e+00 -4.334573e-01 5.340496e+00 -8.536438e-02 1.277094e+00 2.056511e+00 1.302766e+00 6.569036e-01 -9.409735e-01 5.642725e-01 8.434920e-01 6.904846e-01 -3.385284e-01 -7.616201e-01 -4.334902e-01 4.428429e-01 1.827114e-01 1.404145e-01 -3.099542e-01
<VARIANCE> 25
 3.591089e+01 5.767048e+01 9.091859e+01 8.055508e+01 6.350099e+01 7.100402e+01 7.317664e+01 6.533994e+01 4.447422e+01 4.331369e+01 3.181114e+01 2.763056e+01 3.482492e+00 4.879806e+00 3.392511e+00 2.994451e+00 2.214943e+00 3.134732e+00 3.190136e+00 2.739042e+00 2.630057e+00 2.111520e+00 1.913656e+00 1.603518e+00 1.794401e+00
<GCONST> 1.063869e+02
<STATE> 4
<MEAN> 25
 -1.721438e+00 -1.021468e+01 6.895911e+00 2.611857e+00 7.177784e-01 3.217569e+00 -1.804813e+00 -2.833560e+00 1.391455e+00 -1.063743e+00 1.320703e-01 1.758912e+00 3.473007e+00 3.063818e+00 -1.771192e+00 -1.458062e-01 -3.454653e-01 -6.482190e-01 -8.350406e-01 -3.921632e-01 -1.795598e+00 -9.135399e-01 -9.172798e-01 -5.811502e-01 -6.058986e-01
<VARIANCE> 25
 3.350431e+01 3.652498e+01 5.543996e+01 4.107544e+01 3.849805e+01 4.208282e+01 4.809691e+01 4.542126e+01 3.864191e+01 3.712645e+01 2.983387e+01 2.518701e+01 2.997148e+00 2.974293e+00 3.189521e+00 4.118366e+00 3.599472e+00 4.296028e+00 4.654088e+00 4.965402e+00 3.636896e+00 3.091180e+00 2.790794e+00 2.614336e+00 1.042577e+00
<GCONST> 1.048478e+02
~t "T_ch"
<ENDHMM>
~h "ch+i"
<BEGINHMM>
<NUMSTATES> 5
<STATE> 2
<MEAN> 25
 -3.515305e+00 -5.826408e+00 6.770669e+00 1.690331e+00 -1.433543e+00 1.311194e+00 -8.473504e-01 -1.564756e-02 1.486803e+00 -1.773934e+00 -4.531376e-01 4.916118e-02 -1.929486e+00 -2.286035e+00 1.432176e+00 -1.023099e-01 -2.989334e-01 3.851319e-02 2.564107e-01 1.889517e-01 9.482999e-01 1.769091e-01 2.801395e-01 3.219435e-01 8.950387e-01
<VARIANCE> 25
 4.331898e+01 7.936980e+01 6.833836e+01 4.999400e+01 4.801806e+01 4.844822e+01 4.646045e+01 4.836494e+01 4.783947e+01 3.791654e+01 3.232258e+01 2.454547e+01 1.851286e+00 7.669931e+00 6.159750e+00 3.452475e+00 3.472772e+00 4.140024e+00 3.523978e+00 3.569549e+00 3.155254e+00 2.976944e+00 2.255540e+00 2.050224e+00 6.671400e+00
<GCONST> 1.084521e+02
<STATE> 3
<MEAN> 25
 -1.108798e+01 -1.948901e+01 1.376653e+01 1.118908e+00 -4.445756e-01 -1.846460e-01 -1.224519e+00 -4.334573e-01 5.340496e+00 -8.536438e-02 1.277094e+00 2.056511e+00 1.302766e+00 6.569036e-01 -9.409735e-01 5.642725e-01 8.434920e-01 6.904846e-01 -3.385284e-01 -7.616201e-01 -4.334902e-01 4.428429e-01 1.827114e-01 1.404145e-01 -3.099542e-01
<VARIANCE> 25
 3.591089e+01 5.767048e+01 9.091859e+01 8.055508e+01 6.350099e+01 7.100402e+01 7.317664e+01 6.533994e+01 4.447422e+01 4.331369e+01 3.181114e+01 2.763056e+01 3.482492e+00 4.879806e+00 3.392511e+00 2.994451e+00 2.214943e+00 3.134732e+00 3.190136e+00 2.739042e+00 2.630057e+00 2.111520e+00 1.913656e+00 1.603518e+00 1.794401e+00
<GCONST> 1.063869e+02
<STATE> 4
<MEAN> 25
 -1.721438e+00 -1.021468e+01 6.895911e+00 2.611857e+00 7.177784e-01 3.217569e+00 -1.804813e+00 -2.833560e+00 1.391455e+00 -1.063743e+00 1.320703e-01 1.758912e+00 3.473007e+00 3.063818e+00 -1.771192e+00 -1.458062e-01 -3.454653e-01 -6.482190e-01 -8.350406e-01 -3.921632e-01 -1.795598e+00 -9.135399e-01 -9.172798e-01 -5.811502e-01 -6.058986e-01
<VARIANCE> 25
 3.350431e+01 3.652498e+01 5.543996e+01 4.107544e+01 3.849805e+01 4.208282e+01 4.809691e+01 4.542126e+01 3.864191e+01 3.712645e+01 2.983387e+01 2.518701e+01 2.997148e+00 2.974293e+00 3.189521e+00 4.118366e+00 3.599472e+00 4.296028e+00 4.654088e+00 4.965402e+00 3.636896e+00 3.091180e+00 2.790794e+00 2.614336e+00 1.042577e+00
<GCONST> 1.048478e+02
~t "T_ch"
<ENDHMM>
~h "ch+o"
<BEGINHMM>
<NUMSTATES> 5
<STATE> 2
<MEAN> 25
 -3.515305e+00 -5.826408e+00 6.770669e+00 1.690331e+00 -1.433543e+00 1.311194e+00 -8.473504e-01 -1.564756e-02 1.486803e+00 -1.773934e+00 -4.531376e-01 4.916118e-02 -1.929486e+00 -2.286035e+00 1.432176e+00 -1.023099e-01 -2.989334e-01 3.851319e-02 2.564107e-01 1.889517e-01 9.482999e-01 1.769091e-01 2.801395e-01 3.219435e-01 8.950387e-01
<VARIANCE> 25
 4.331898e+01 7.936980e+01 6.833836e+01 4.999400e+01 4.801806e+01 4.844822e+01 4.646045e+01 4.836494e+01 4.783947e+01 3.791654e+01 3.232258e+01 2.454547e+01 1.851286e+00 7.669931e+00 6.159750e+00 3.452475e+00 3.472772e+00 4.140024e+00 3.523978e+00 3.569549e+00 3.155254e+00 2.976944e+00 2.255540e+00 2.050224e+00 6.671400e+00
<GCONST> 1.084521e+02
<STATE> 3
<MEAN> 25
 -1.108798e+01 -1.948901e+01 1.376653e+01 1.118908e+00 -4.445756e-01 -1.846460e-01 -1.224519e+00 -4.334573e-01 5.340496e+00 -8.536438e-02 1.277094e+00 2.056511e+00 1.302766e+00 6.569036e-01 -9.409735e-01 5.642725e-01 8.434920e-01 6.904846e-01 -3.385284e-01 -7.616201e-01 -4.334902e-01 4.428429e-01 1.827114e-01 1.404145e-01 -3.099542e-01
<VARIANCE> 25
 3.591089e+01 5.767048e+01 9.091859e+01 8.055508e+01 6.350099e+01 7.100402e+01 7.317664e+01 6.533994e+01 4.447422e+01 4.331369e+01 3.181114e+01 2.763056e+01 3.482492e+00 4.879806e+00 3.392511e+00 2.994451e+00 2.214943e+00 3.134732e+00 3.190136e+00 2.739042e+00 2.630057e+00 2.111520e+00 1.913656e+00 1.603518e+00 1.794401e+00
<GCONST> 1.063869e+02
<STATE> 4
<MEAN> 25
 -1.721438e+00 -1.021468e+01 6.895911e+00 2.611857e+00 7.177784e-01 3.217569e+00 -1.804813e+00 -2.833560e+00 1.391455e+00 -1.063743e+00 1.320703e-01 1.758912e+00 3.473007e+00 3.063818e+00 -1.771192e+00 -1.458062e-01 -3.454653e-01 -6.482190e-01 -8.350406e-01 -3.921632e-01 -1.795598e+00 -9.135399e-01 -9.172798e-01 -5.811502e-01 -6.058986e-01
<VARIANCE> 25
 3.350431e+01 3.652498e+01 5.543996e+01 4.107544e+01 3.849805e+01 4.208282e+01 4.809691e+01 4.542126e+01 3.864191e+01 3.712645e+01 2.983387e+01 2.518701e+01 2.997148e+00 2.974293e+00 3.189521e+00 4.118366e+00 3.599472e+00 4.296028e+00 4.654088e+00 4.965402e+00 3.636896e+00 3.091180e+00 2.790794e+00 2.614336e+00 1.042577e+00
<GCONST> 1.048478e+02
~t "T_ch"
<ENDHMM>
~h "ch+u"
<BEGINHMM>
<NUMSTATES> 5
<STATE> 2
<MEAN> 25
 -3.515305e+00 -5.826408e+00 6.770669e+00 1.690331e+00 -1.433543e+00 1.311194e+00 -8.473504e-01 -1.564756e-02 1.486803e+00 -1.773934e+00 -4.531376e-01 4.916118e-02 -1.929486e+00 -2.286035e+00 1.432176e+00 -1.023099e-01 -2.989334e-01 3.851319e-02 2.564107e-01 1.889517e-01 9.482999e-01 1.769091e-01 2.801395e-01 3.219435e-01 8.950387e-01
<VARIANCE> 25
 4.331898e+01 7.936980e+01 6.833836e+01 4.999400e+01 4.801806e+01 4.844822e+01 4.646045e+01 4.836494e+01 4.783947e+01 3.791654e+01 3.232258e+01 2.454547e+01 1.851286e+00 7.669931e+00 6.159750e+00 3.452475e+00 3.472772e+00 4.140024e+00 3.523978e+00 3.569549e+00 3.155254e+00 2.976944e+00 2.255540e+00 2.050224e+00 6.671400e+00
<GCONST> 1.084521e+02
<STATE> 3
<MEAN> 25
 -1.108798e+01 -1.948901e+01 1.376653e+01 1.118908e+00 -4.445756e-01 -1.846460e-01 -1.224519e+00 -4.334573e-01 5.340496e+00 -8.536438e-02 1.277094e+00 2.056511e+00 1.302766e+00 6.569036e-01 -9.409735e-01 5.642725e-01 8.434920e-01 6.904846e-01 -3.385284e-01 -7.616201e-01 -4.334902e-01 4.428429e-01 1.827114e-01 1.404145e-01 -3.099542e-01
<VARIANCE> 25
 3.591089e+01 5.767048e+01 9.091859e+01 8.055508e+01 6.350099e+01 7.100402e+01 7.317664e+01 6.533994e+01 4.447422e+01 4.331369e+01 3.181114e+01 2.763056e+01 3.482492e+00 4.879806e+00 3.392511e+00 2.994451e+00 2.214943e+00 3.134732e+00 3.190136e+00 2.739042e+00 2.630057e+00 2.111520e+00 1.913656e+00 1.603518e+00 1.794401e+00
<GCONST> 1.063869e+02
<STATE> 4
<MEAN> 25
 -1.721438e+00 -1.021468e+01 6.895911e+00 2.611857e+00 7.177784e-01 3.217569e+00 -1.804813e+00 -2.833560e+00 1.391455e+00 -1.063743e+00 1.320703e-01 1.758912e+00 3.473007e+00 3.063818e+00 -1.771192e+00 -1.458062e-01 -3.454653e-01 -6.482190e-01 -8.350406e-01 -3.921632e-01 -1.795598e+00 -9.135399e-01 -9.172798e-01 -5.811502e-01 -6.058986e-01
<VARIANCE> 25
 3.350431e+01 3.652498e+01 5.543996e+01 4.107544e+01 3.849805e+01 4.208282e+01 4.809691e+01 4.542126e+01 3.864191e+01 3.712645e+01 2.983387e+01 2.518701e+01 2.997148e+00 2.974293e+00 3.189521e+00 4.118366e+00 3.599472e+00 4.296028e+00 4.654088e+00 4.965402e+00 3.636896e+00 3.091180e+00 2.790794e+00 2.614336e+00 1.042577e+00
<GCONST> 1.048478e+02
~t "T_ch"
<ENDHMM>
~h "ch-a"
<BEGINHMM>
<NUMSTATES> 5
<STATE> 2
<MEAN> 25
 8.084209e+00 -3.246555e+00 -4.886938e+00 -2.890126e+00 -1.922659e+00 -4.591505e+00 -1.062124e+00 -1.533606e+00 -3.011539e+00 -1.419097e+00 7.822737e-01 1.974153e+00 8.531939e-01 -1.219489e+00 -1.591901e+00 -1.511451e+00 -1.099942e+00 -1.081241e+00 3.296968e-01 2.435892e-01 2.131322e-01 7.433307e-01 1.096173e+00 1.076555e+00 1.531909e+00
<VARIANCE> 25
 3.102556e+01 3.982352e+01 4.648204e+01 6.052976e+01 4.865224e+01 5.364120e+01 4.957391e+01 5.206113e+01 4.994263e+01 4.377484e+01 3.566540e+01 3.010361e+01 2.105191e+00 2.133569e+00 2.607650e+00 3.361774e+00 2.917656e+00 3.954443e+00 3.398865e+00 3.319243e+00 3.668817e+00 4.076825e+00 3.093344e+00 2.673295e+00 1.675560e+00
<GCONST> 1.052759e+02
<STATE> 3
<MEAN> 25
 9.462610e+00 -6.897775e+00 -8.743549e+00 -6.083593e+00 -4.604442e+00 -5.470979e+00 1.397076e+00 -2.830499e-01 -1.629562e+00 7.007640e-01 2.659651e+00 3.340820e+00 3.290816e-02 -1.735238e-01 -3.625012e-01 -3.627358e-01 -1.769637e-01 2.254089e-01 4.766614e-01 2.827543e-01 2.371980e-01 1.767752e-01 8.445666e-02 6.974697e-02 8.193482e-02
<VARIANCE> 25
 2.840129e+01 3.570125e+01 4.138834e+01 4.038225e+01 4.118876e+01 4.148624e+01 4.739182e+01 4.747406e+01 4.473821e+01 4.189992e+01 3.449903e+01 2.805832e+01 3.302394e-01 8.424883e-01 9.393210e-01 1.242460e+00 1.324397e+00 1.496400e+00 1.901740e+00 1.780651e+00 1.803969e+00 1.726919e+00 1.430944e+00 1.179275e+00 3.783611e-01
<GCONST> 9.133002e+01
<STATE> 4
<MEAN> 25
 8.177530e+00 -2.680661e+00 -7.293503e+00 -5.932261e+00 -3.758124e+00 -2.794274e+00 1.176165e+00 -3.390664e-01 -1.368642e+00 2.573896e-01 2.133668e+00 3.287408e+00 -4.538044e-01 8.704351e-01 7.276899e-01 4.679444e-01 4.150407e-01 5.706517e-01 -1.937626e-01 -1.382255e-01 1.753797e-02 -1.629017e-01 -2.942949e-01 -3.140077e-01 -8.826797e-01
<VARIANCE> 25
 2.215926e+01 3.099335e+01 3.486272e+01 3.668752e+01 3.283007e+01 3.965223e+01 3.500597e+01 3.826480e+01 3.512437e+01 3.170736e+01 2.563973e+01 2.200531e+01 5.861269e-01 9.910762e-01 1.080531e+00 1.252255e+00 1.395680e+00 1.835312e+00 1.787168e+00 1.826652e+00 1.993582e+00 1.853269e+00 1.609923e+00 1.318195e+00 6.483233e-01
<GCONST> 9.086413e+01
~t "T_a"
<ENDHMM>
~h "ch-e"
<BEGINHMM>
<NUMSTATES> 5
<STATE> 2
<MEAN> 25
 4.917822e+00 -3.046909e+00 -7.860230e-01 1.961976e+00 3.296882e+00 -3.095960e+00 -4.445966e+00 -4.378197e+00 -4.194638e+00 -1.446952e+00 1.146220e-01 1.648807e-01 1.062938e+00 -1.285595e+00 -6.981800e-01 4.423747e-01 5.001229e-01 -1.895295e+00 -1.787762e+00 -1.308817e+00 -1.084860e+00 1.344622e-01 6.617222e-01 3.701210e-01 1.670173e+00
<VARIANCE> 25
 3.577217e+01 3.706077e+01 4.774310e+01 6.015227e+01 4.925949e+01 6.036604e+01 5.010396e+01 4.977269e+01 4.858726e+01 3.950971e+01 3.013842e+01 2.473536e+01 2.384392e+00 2.958043e+00 2.685448e+00 3.858023e+00 3.340221e+00 5.064232e+00 4.063103e+00 3.681123e+00 4.037725e+00 4.174648e+00 3.332788e+00 2.898063e+00 2.226966e+00
<GCONST> 1.068105e+02
<STATE> 3
<MEAN> 25
 7.191195e+00 -7.001473e+00 -2.328277e+00 2.836691e+00 3.888689e+00 -7.911126e+00 -8.482172e+00 -6.657192e+00 -5.470276e+00 -1.285404e-01 1.987994e+00 7.147580e-01 8.514885e-02 -4.249433e-01 -1.496204e-01 2.818093e-01 1.203487e-01 -6.073316e-01 -4.420330e-01 -1.406531e-01 1.603031e-01 5.093133e-01 3.347531e-01 -4.041983e-02 2.952766e-01
<VARIANCE> 25
 2.837927e+01 3.550758e+01 4.376701e+01 6.339727e+01 5.782299e+01 6.153004e+01 4.445435e+01 4.665985e+01 4.438187e+01 4.603452e+01 3.686113e+01 3.249733e+01 5.579238e-01 9.633060e-01 1.396090e+00 1.826277e+00 1.583154e+00 2.003756e+00 1.982185e+00 1.856537e+00 2.013892e+00 2.006657e+00 1.751121e+00 1.508502e+00 5.828047e-01
<GCONST> 9.591582e+01
<STATE> 4
<MEAN> 25
 5.895019e+00 -4.724988e+00 -1.197292e+00 3.906052e+00 3.870449e+00 -6.545651e+00 -8.215060e+00 -6.679025e+00 -4.172563e+00 5.337154e-01 9.279272e-01 -6.742178e-01 -3.232698e-01 7.992764e-01 3.300467e-01 -6.339286e-02 7.912491e-02 1.004552e+00 6.088396e-01 3.772415e-01 3.436322e-01 -1.313366e-01 -2.720630e-01 -1.298955e-01 -7.956876e-01
<VARIANCE> 25
 2.029749e+01 3.066547e+01 3.368494e+01 5.057070e+01 4.296806e+01 5.593891e+01 3.659196e+01 3.710094e+01 4.034227e+01 3.575679e+01 3.262199e+01 2.925796e+01 5.569103e-01 1.011105e+00 1.171097e+00 1.448238e+00 1.440968e+00 2.011663e+00 1.814593e+00 1.739066e+00 1.905525e+00 1.867028e+00 1.539982e+00 1.274082e+00 7.538318e-01
<GCONST> 9.278246e+01
~t "T_e"
<ENDHMM>
~h "ch-o"
<BEGINHMM>
<NUMSTATES> 5
<STATE> 2
<MEAN> 25
 8.202134e+00 8.756948e-01 -1.556870e+00 -2.412576e+00 -4.135490e+00 -5.283045e+00 -1.325630e+00 5.514442e-01 -3.256593e+00 -4.464030e+00 -3.179199e+00 -1.018459e+00 8.533680e-01 5.628624e-02 -4.272498e-01 -1.163086e+00 -1.742013e+00 -1.833407e+00 -1.006363e-01 8.327968e-01 2.565329e-01 -1.784475e-01 -2.551433e-01 1.000556e-01 7.841955e-01
<VARIANCE> 25
 2.727819e+01 4.614404e+01 4.546624e+01 5.624189e+01 6.257309e+01 6.102062e+01 4.518742e+01 4.939813e+01 5.469617e+01 4.219932e+01 3.056493e+01 2.847985e+01 1.604221e+00 2.714622e+00 2.414845e+00 3.306103e+00 3.399673e+00 4.293542e+00 4.410888e+00 3.910635e+00 3.812121e+00 3.509329e+00 2.851977e+00 2.694980e+00 1.552250e+00
<GCONST> 1.055529e+02
<STATE> 3
<MEAN> 25
 9.608891e+00 1.841884e+00 -1.624231e+00 -4.843653e+00 -1.056682e+01 -1.047259e+01 -3.275502e-01 4.228262e+00 -8.981493e-01 -3.707518e+00 -3.771726e+00 -1.847208e+00 -1.603226e-01 3.746803e-01 2.492852e-02 -5.283350e-02 -1.316152e-01 2.060792e-01 2.320018e-01 3.473101e-01 4.636069e-01 2.421327e-01 -1.011645e-03 -9.001540e-02 -4.208844e-01
<VARIANCE> 25
 2.191664e+01 3.832346e+01 3.536129e+01 4.552036e+01 5.146196e+01 5.402416e+01 4.532333e+01 4.316967e+01 5.194213e+01 3.791486e+01 2.724122e+01 2.477335e+01 5.759985e-01 1.296905e+00 1.329783e+00 1.436117e+00 2.015944e+00 2.854960e+00 1.984985e+00 2.227589e+00 2.343580e+00 2.045362e+00 1.638120e+00 1.449960e+00 1.066268e+00
<GCONST> 9.576168e+01
<STATE> 4
<MEAN> 25
 5.920141e+00 4.729104e+00 -6.619071e-01 -3.592440e+00 -6.668617e+00 -4.437122e+00 3.776827e-01 3.175261e+00 9.050462e-01 -1.454790e+00 -2.326509e+00 -1.249121e+00 -6.257654e-01 -3.906129e-02 1.678127e-01 4.218079e-01 7.039407e-01 9.980335e-01 2.885799e-01 -2.038472e-01 -1.773957e-02 1.877047e-01 2.155907e-01 8.154663e-02 -5.345345e-01
<VARIANCE> 25
 2.381943e+01 3.168683e+01 3.073319e+01 3.372535e+01 3.205265e+01 4.222814e+01 3.201194e+01 3.300840e+01 3.498757e+01 3.150789e+01 2.243595e+01 1.901501e+01 4.852379e-01 7.335701e-01 1.011674e+00 1.084659e+00 1.496157e+00 1.967000e+00 1.648281e+00 1.688958e+00 1.686677e+00 1.518985e+00 1.305284e+00 1.193857e+00 3.831035e-01
<GCONST> 8.833953e+01
~t "T_o"
<ENDHMM>
~h "d-r+a"
<BEGINHMM>
<NUMSTATES> 5
<STATE> 2
<MEAN> 25
 8.643217e+00 -2.787229e+00 -6.224000e+00 -3.124852e+00 1.355937e+00 -3.755785e+00 -4.512966e+00 -3.933424e+00 -2.882520e+00 -2.216112e+00 -7.354643e-01 1.580987e+00 1.561792e-01 8.974332e-01 -3.782570e-01 5.168830e-01 1.252811e+00 1.208448e+00 -3.267309e-01 -2.546778e-01 -2.021774e-01 -5.815746e-01 -5.138835e-01 -2.330100e-02 -1.076871e+00
<VARIANCE> 25
 3.211975e+01 4.498290e+01 5.062462e+01 5.935705e+01 5.828969e+01 5.106108e+01 4.451467e+01 4.801496e+01 4.760433e+01 4.023750e+01 3.850442e+01 3.225385e+01 1.654517e+00 2.112823e+00 2.382579e+00 2.979533e+00 3.407424e+00 4.447104e+00 3.988335e+00 3.638894e+00 3.461148e+00 2.960581e+00 2.838124e+00 2.399935e+00 1.986631e+00
<GCONST> 1.051154e+02
<STATE> 3
<MEAN> 25
 7.898341e+00 6.769122e-01 -5.980435e+00 -1.402799e+00 3.525082e+00 4.491480e-01 -3.918551e+00 -3.587373e+00 -2.649347e+00 -2.842372e+00 -1.689278e+00 1.021962e+00 -7.756338e-01 7.563383e-01 5.502752e-01 8.270113e-01 2.798240e-01 1.325491e+00 7.032835e-01 3.596233e-01 3.082208e-01 -5.154090e-03 -2.048264e-01 -3.199293e-01 -1.361292e+00
<VARIANCE> 25
 2.876068e+01 3.251756e+01 4.847742e+01 5.875251e+01 4.849226e+01 4.357820e+01 4.282160e+01 3.805943e+01 3.575104e+01 3.216047e+01 2.785275e+01 2.531534e+01 1.549412e+00 2.112714e+00 2.763809e+00 3.039823e+00 3.358799e+00 3.590118e+00 3.448425e+00 3.136224e+00 3.408474e+00 2.967985e+00 2.623605e+00 2.237263e+00 1.636310e+00
<GCONST> 1.021613e+02
<STATE> 4
<MEAN> 25
 5.412677e+00 1.833103e+00 -4.028427e+00 -5.085419e-01 2.267809e+00 2.085018e+00 -1.665371e+00 -2.343382e+00 -1.808912e+00 -2.284674e+00 -1.413052e+00 3.313459e-01 -4.867756e-01 -6.988044e-02 4.821670e-01 3.639740e-01 -2.038538e-01 -1.353530e-01 2.935330e-01 3.202356e-01 4.707072e-02 1.700878e-01 1.382703e-01 -1.182176e-01 -2.790100e-01
<VARIANCE> 25
 2.738630e+01 3.117259e+01 4.332304e+01 4.824800e+01 3.927319e+01 3.631243e+01 3.395251e+01 3.381007e+01 3.105561e+01 2.732073e+01 2.547030e+01 2.190276e+01 1.094292e+00 1.505075e+00 2.021805e+00 2.286807e+00 2.216540e+00 2.356158e+00 2.429886e+00 2.174607e+00 2.300617e+00 2.008530e+00 1.813168e+00 1.681972e+00 1.042680e+00
<GCONST> 9.575272e+01
~t "T_r"
<ENDHMM>
~h "d-r+e"
<BEGINHMM>
<NUMSTATES> 5
<STATE> 2
<MEAN> 25
 8.643217e+00 -2.787229e+00 -6.224000e+00 -3.124852e+00 1.355937e+00 -3.755785e+00 -4.512966e+00 -3.933424e+00 -2.882520e+00 -2.216112e+00 -7.354643e-01 1.580987e+00 1.561792e-01 8.974332e-01 -3.782570e-01 5.168830e-01 1.252811e+00 1.208448e+00 -3.267309e-01 -2.546778e-01 -2.021774e-01 -5.815746e-01 -5.138835e-01 -2.330100e-02 -1.076871e+00
<VARIANCE> 25
 3.211975e+01 4.498290e+01 5.062462e+01 5.935705e+01 5.828969e+01 5.106108e+01 4.451467e+01 4.801496e+01 4.760433e+01 4.023750e+01 3.850442e+01 3.225385e+01 1.654517e+00 2.112823e+00 2.382579e+00 2.979533e+00 3.407424e+00 4.447104e+00 3.988335e+00 3.638894e+00 3.461148e+00 2.960581e+00 2.838124e+00 2.399935e+00 1.986631e+00
<GCONST> 1.051154e+02
<STATE> 3
<MEAN> 25
 7.898341e+00 6.769122e-01 -5.980435e+00 -1.402799e+00 3.525082e+00 4.491480e-01 -3.918551e+00 -3.587373e+00 -2.649347e+00 -2.842372e+00 -1.689278e+00 1.021962e+00 -7.756338e-01 7.563383e-01 5.502752e-01 8.270113e-01 2.798240e-01 1.325491e+00 7.032835e-01 3.596233e-01 3.082208e-01 -5.154090e-03 -2.048264e-01 -3.199293e-01 -1.361292e+00
<VARIANCE> 25
 2.876068e+01 3.251756e+01 4.847742e+01 5.875251e+01 4.849226e+01 4.357820e+01 4.282160e+01 3.805943e+01 3.575104e+01 3.216047e+01 2.785275e+01 2.531534e+01 1.549412e+00 2.112714e+00 2.763809e+00 3.039823e+00 3.358799e+00 3.590118e+00 3.448425e+00 3.136224e+00 3.408474e+00 2.967985e+00 2.623605e+00 2.237263e+00 1.636310e+00
<GCONST> 1.021613e+02
<STATE> 4
<MEAN> 25
 5.412677e+00 1.833103e+00 -4.028427e+00 -5.085419e-01 2.267809e+00 2.085018e+00 -1.665371e+00 -2.343382e+00 -1.808912e+00 -2.284674e+00 -1.413052e+00 3.313459e-01 -4.867756e-01 -6.988044e-02 4.821670e-01 3.639740e-01 -2.038538e-01 -1.353530e-01 2.935330e-01 3.202356e-01 4.707072e-02 1.700878e-01 1.382703e-01 -1.182176e-01 -2.790100e-01
<VARIANCE> 25
 2.738630e+01 3.117259e+01 4.332304e+01 4.824800e+01 3.927319e+01 3.631243e+01 3.395251e+01 3.381007e+01 3.105561e+01 2.732073e+01 2.547030e+01 2.190276e+01 1.094292e+00 1.505075e+00 2.021805e+00 2.286807e+00 2.216540e+00 2.356158e+00 2.429886e+00 2.174607e+00 2.300617e+00 2.008530e+00 1.813168e+00 1.681972e+00 1.042680e+00
<GCONST> 9.575272e+01
~t "T_r"
<ENDHMM>
~h "d-r+i"
<BEGINHMM>
<NUMSTATES> 5
<STATE> 2
<MEAN> 25
 8.643217e+00 -2.787229e+00 -6.224000e+00 -3.124852e+00 1.355937e+00 -3.755785e+00 -4.512966e+00 -3.933424e+00 -2.882520e+00 -2.216112e+00 -7.354643e-01 1.580987e+00 1.561792e-01 8.974332e-01 -3.782570e-01 5.168830e-01 1.252811e+00 1.208448e+00 -3.267309e-01 -2.546778e-01 -2.021774e-01 -5.815746e-01 -5.138835e-01 -2.330100e-02 -1.076871e+00
<VARIANCE> 25
 3.211975e+01 4.498290e+01 5.062462e+01 5.935705e+01 5.828969e+01 5.106108e+01 4.451467e+01 4.801496e+01 4.760433e+01 4.023750e+01 3.850442e+01 3.225385e+01 1.654517e+00 2.112823e+00 2.382579e+00 2.979533e+00 3.407424e+00 4.447104e+00 3.988335e+00 3.638894e+00 3.461148e+00 2.960581e+00 2.838124e+00 2.399935e+00 1.986631e+00
<GCONST> 1.051154e+02
<STATE> 3
<MEAN> 25
 7.898341e+00 6.769122e-01 -5.980435e+00 -1.402799e+00 3.525082e+00 4.491480e-01 -3.918551e+00 -3.587373e+00 -2.649347e+00 -2.842372e+00 -1.689278e+00 1.021962e+00 -7.756338e-01 7.563383e-01 5.502752e-01 8.270113e-01 2.798240e-01 1.325491e+00 7.032835e-01 3.596233e-01 3.082208e-01 -5.154090e-03 -2.048264e-01 -3.199293e-01 -1.361292e+00
<VARIANCE> 25
 2.876068e+01 3.251756e+01 4.847742e+01 5.875251e+01 4.849226e+01 4.357820e+01 4.282160e+01 3.805943e+01 3.575104e+01 3.216047e+01 2.785275e+01 2.531534e+01 1.549412e+00 2.112714e+00 2.763809e+00 3.039823e+00 3.358799e+00 3.590118e+00 3.448425e+00 3.136224e+00 3.408474e+00 2.967985e+00 2.623605e+00 2.237263e+00 1.636310e+00
<GCONST> 1.021613e+02
<STATE> 4
<MEAN> 25
 5.412677e+00 1.833103e+00 -4.028427e+00 -5.085419e-01 2.267809e+00 2.085018e+00 -1.665371e+00 -2.343382e+00 -1.808912e+00 -2.284674e+00 -1.413052e+00 3.313459e-01 -4.867756e-01 -6.988044e-02 4.821670e-01 3.639740e-01 -2.038538e-01 -1.353530e-01 2.935330e-01 3.202356e-01 4.707072e-02 1.700878e-01 1.382703e-01 -1.182176e-01 -2.790100e-01
<VARIANCE> 25
 2.738630e+01 3.117259e+01 4.332304e+01 4.824800e+01 3.927319e+01 3.631243e+01 3.395251e+01 3.381007e+01 3.105561e+01 2.732073e+01 2.547030e+01 2.190276e+01 1.094292e+00 1.505075e+00 2.021805e+00 2.286807e+00 2.216540e+00 2.356158e+00 2.429886e+00 2.174607e+00 2.300617e+00 2.008530e+00 1.813168e+00 1.681972e+00 1.042680e+00
<GCONST> 9.575272e+01
~t "T_r"
<ENDHMM>
~h "d-r+u"
<BEGINHMM>
<NUMSTATES> 5
<STATE> 2
<MEAN> 25
 8.643217e+00 -2.787229e+00 -6.224000e+00 -3.124852e+00 1.355937e+00 -3.755785e+00 -4.512966e+00 -3.933424e+00 -2.882520e+00 -2.216112e+00 -7.354643e-01 1.580987e+00 1.561792e-01 8.974332e-01 -3.782570e-01 5.168830e-01 1.252811e+00 1.208448e+00 -3.267309e-01 -2.546778e-01 -2.021774e-01 -5.815746e-01 -5.138835e-01 -2.330100e-02 -1.076871e+00
<VARIANCE> 25
 3.211975e+01 4.498290e+01 5.062462e+01 5.935705e+01 5.828969e+01 5.106108e+01 4.451467e+01 4.801496e+01 4.760433e+01 4.023750e+01 3.850442e+01 3.225385e+01 1.654517e+00 2.112823e+00 2.382579e+00 2.979533e+00 3.407424e+00 4.447104e+00 3.988335e+00 3.638894e+00 3.461148e+00 2.960581e+00 2.838124e+00 2.399935e+00 1.986631e+00
<GCONST> 1.051154e+02
<STATE> 3
<MEAN> 25
 7.898341e+00 6.769122e-01 -5.980435e+00 -1.402799e+00 3.525082e+00 4.491480e-01 -3.918551e+00 -3.587373e+00 -2.649347e+00 -2.842372e+00 -1.689278e+00 1.021962e+00 -7.756338e-01 7.563383e-01 5.502752e-01 8.270113e-01 2.798240e-01 1.325491e+00 7.032835e-01 3.596233e-01 3.082208e-01 -5.154090e-03 -2.048264e-01 -3.199293e-01 -1.361292e+00
<VARIANCE> 25
 2.876068e+01 3.251756e+01 4.847742e+01 5.875251e+01 4.849226e+01 4.357820e+01 4.282160e+01 3.805943e+01 3.575104e+01 3.216047e+01 2.785275e+01 2.531534e+01 1.549412e+00 2.112714e+00 2.763809e+00 3.039823e+00 3.358799e+00 3.590118e+00 3.448425e+00 3.136224e+00 3.408474e+00 2.967985e+00 2.623605e+00 2.237263e+00 1.636310e+00
<GCONST> 1.021613e+02
<STATE> 4
<MEAN> 25
 5.412677e+00 1.833103e+00 -4.028427e+00 -5.085419e-01 2.267809e+00 2.085018e+00 -1.665371e+00 -2.343382e+00 -1.808912e+00 -2.284674e+00 -1.413052e+00 3.313459e-01 -4.867756e-01 -6.988044e-02 4.821670e-01 3.639740e-01 -2.038538e-01 -1.353530e-01 2.935330e-01 3.202356e-01 4.707072e-02 1.700878e-01 1.382703e-01 -1.182176e-01 -2.790100e-01
<VARIANCE> 25
 2.738630e+01 3.117259e+01 4.332304e+01 4.824800e+01 3.927319e+01 3.631243e+01 3.395251e+01 3.381007e+01 3.105561e+01 2.732073e+01 2.547030e+01 2.190276e+01 1.094292e+00 1.505075e+00 2.021805e+00 2.286807e+00 2.216540e+00 2.356158e+00 2.429886e+00 2.174607e+00 2.300617e+00 2.008530e+00 1.813168e+00 1.681972e+00 1.042680e+00
<GCONST> 9.575272e+01
~t "T_r"
<ENDHMM>
~h "e+ll"
<BEGINHMM>
<NUMSTATES> 5
<STATE> 2
<MEAN> 25
 4.917822e+00 -3.046909e+00 -7.860230e-01 1.961976e+00 3.296882e+00 -3.095960e+00 -4.445966e+00 -4.378197e+00 -4.194638e+00 -1.446952e+00 1.146220e-01 1.648807e-01 1.062938e+00 -1.285595e+00 -6.981800e-01 4.423747e-01 5.001229e-01 -1.895295e+00 -1.787762e+00 -1.308817e+00 -1.084860e+00 1.344622e-01 6.617222e-01 3.701210e-01 1.670173e+00
<VARIANCE> 25
 3.577217e+01 3.706077e+01 4.774310e+01 6.015227e+01 4.925949e+01 6.036604e+01 5.010396e+01 4.977269e+01 4.858726e+01 3.950971e+01 3.013842e+01 2.473536e+01 2.384392e+00 2.958043e+00 2.685448e+00 3.858023e+00 3.340221e+00 5.064232e+00 4.063103e+00 3.681123e+00 4.037725e+00 4.174648e+00 3.332788e+00 2.898063e+00 2.226966e+00
<GCONST> 1.068105e+02
<STATE> 3
<MEAN> 25
 7.191195e+00 -7.001473e+00 -2.328277e+00 2.836691e+00 3.888689e+00 -7.911126e+00 -8.482172e+00 -6.657192e+00 -5.470276e+00 -1.285404e-01 1.987994e+00 7.147580e-01 8.514885e-02 -4.249433e-01 -1.496204e-01 2.818093e-01 1.203487e-01 -6.073316e-01 -4.420330e-01 -1.406531e-01 1.603031e-01 5.093133e-01 3.347531e-01 -4.041983e-02 2.952766e-01
<VARIANCE> 25
 2.837927e+01 3.550758e+01 4.376701e+01 6.339727e+01 5.782299e+01 6.153004e+01 4.445435e+01 4.665985e+01 4.438187e+01 4.603452e+01 3.686113e+01 3.249733e+01 5.579238e-01 9.633060e-01 1.396090e+00 1.826277e+00 1.583154e+00 2.003756e+00 1.982185e+00 1.856537e+00 2.013892e+00 2.006657e+00 1.751121e+00 1.508502e+00 5.828047e-01
<GCONST> 9.591582e+01
<STATE> 4
<MEAN> 25
 5.895019e+00 -4.724988e+00 -1.197292e+00 3.906052e+00 3.870449e+00 -6.545651e+00 -8.215060e+00 -6.679025e+00 -4.172563e+00 5.337154e-01 9.279272e-01 -6.742178e-01 -3.232698e-01 7.992764e-01 3.300467e-01 -6.339286e-02 7.912491e-02 1.004552e+00 6.088396e-01 3.772415e-01 3.436322e-01 -1.313366e-01 -2.720630e-01 -1.298955e-01 -7.956876e-01
<VARIANCE> 25
 2.029749e+01 3.066547e+01 3.368494e+01 5.057070e+01 4.296806e+01 5.593891e+01 3.659196e+01 3.710094e+01 4.034227e+01 3.575679e+01 3.262199e+01 2.925796e+01 5.569103e-01 1.011105e+00 1.171097e+00 1.448238e+00 1.440968e+00 2.011663e+00 1.814593e+00 1.739066e+00 1.905525e+00 1.867028e+00 1.539982e+00 1.274082e+00 7.538318e-01
<GCONST> 9.278246e+01
~t "T_e"
<ENDHMM>
~h "ll-u+d"
<BEGINHMM>
<NUMSTATES> 5
<STATE> 2
<MEAN> 25
 5.841117e+00 4.888117e+00 2.686566e+00 -7.820466e-01 -3.509169e+00 -4.456264e+00 -1.667651e+00 1.072235e+00 -1.711213e+00 -3.398537e+00 -2.842877e+00 -2.182095e+00 1.576147e+00 1.045471e+00 4.197832e-01 -3.047917e-01 -1.355020e+00 -2.229248e+00 -1.097899e+00 2.456878e-01 -2.158980e-01 -6.960759e-01 -8.961666e-01 -8.212398e-01 8.114035e-01
<VARIANCE> 25
 3.111406e+01 4.019774e+01 4.504975e+01 4.146431e+01 4.849731e+01 5.661042e+01 4.281160e+01 4.095763e+01 5.025994e+01 4.244762e+01 3.143690e+01 2.546618e+01 2.317891e+00 3.149550e+00 3.087908e+00 3.151040e+00 3.396149e+00 4.573932e+00 4.195843e+00 4.035922e+00 4.034451e+00 3.409064e+00 3.195040e+00 2.762604e+00 1.784756e+00
<GCONST> 1.055627e+02
<STATE> 3
<MEAN> 25
 8.658910e+00 5.000401e+00 2.954348e+00 -2.671335e+00 -7.457289e+00 -1.043769e+01 -3.682248e+00 2.342003e+00 -1.993913e+00 -4.053403e+00 -3.655970e+00 -3.858294e+00 3.619523e-01 -4.174033e-01 -5.004941e-01 -5.413764e-01 -3.661138e-01 -3.691237e-01 1.985084e-01 6.194838e-01 2.091379e-01 -3.094780e-01 -4.365371e-01 -2.890210e-01 4.863066e-01
<VARIANCE> 25
 1.982055e+01 3.754977e+01 4.485072e+01 4.602500e+01 4.835411e+01 5.230594e+01 4.533890e+01 4.689768e+01 6.356376e+01 4.307386e+01 3.556441e+01 3.444476e+01 5.694164e-01 2.171613e+00 2.316406e+00 1.907328e+00 2.369149e+00 3.386717e+00 2.927253e+00 3.053224e+00 2.962884e+00 2.837181e+00 2.662840e+00 2.209183e+00 9.819031e-01
<GCONST> 1.005687e+02
<STATE> 4
<MEAN> 25
 7.936549e+00 5.316041e+00 2.239468e+00 -2.040418e+00 -5.537446e+00 -6.998611e+00 -2.096663e+00 2.982105e+00 -1.124920e+00 -4.924550e+00 -4.786534e+00 -3.909861e+00 -1.936503e-01 -3.466140e-01 -3.004697e-01 2.804921e-01 7.471921e-01 1.043675e+00 4.173047e-01 -2.147343e-01 -1.894316e-01 -7.248510e-02 1.116081e-02 1.502710e-01 -1.055882e-01
<VARIANCE> 25
 1.968233e+01 3.080829e+01 3.984565e+01 3.763365e+01 3.553752e+01 4.067476e+01 4.069976e+01 3.915368e+01 5.144368e+01 3.819278e+01 3.066512e+01 2.631176e+01 3.753779e-01 1.220878e+00 1.362571e+00 1.493957e+00 2.004738e+00 2.727168e+00 2.026844e+00 2.105258e+00 2.403310e+00 2.200738e+00 1.975419e+00 1.823615e+00 5.097307e-01
<GCONST> 9.394715e+01
~t "T_u"
<ENDHMM>
~h "ll-u+e"
<BEGINHMM>
<NUMSTATES> 5
<STATE> 2
<MEAN> 25
 5.841117e+00 4.888117e+00 2.686566e+00 -7.820466e-01 -3.509169e+00 -4.456264e+00 -1.667651e+00 1.072235e+00 -1.711213e+00 -3.398537e+00 -2.842877e+00 -2.182095e+00 1.576147e+00 1.045471e+00 4.197832e-01 -3.047917e-01 -1.355020e+00 -2.229248e+00 -1.097899e+00 2.456878e-01 -2.158980e-01 -6.960759e-01 -8.961666e-01 -8.212398e-01 8.114035e-01
<VARIANCE> 25
 3.111406e+01 4.019774e+01 4.504975e+01 4.146431e+01 4.849731e+01 5.661042e+01 4.281160e+01 4.095763e+01 5.025994e+01 4.244762e+01 3.143690e+01 2.546618e+01 2.317891e+00 3.149550e+00 3.087908e+00 3.151040e+00 3.396149e+00 4.573932e+00 4.195843e+00 4.035922e+00 4.034451e+00 3.409064e+00 3.195040e+00 2.762604e+00 1.784756e+00
<GCONST> 1.055627e+02
<STATE> 3
<MEAN> 25
 8.658910e+00 5.000401e+00 2.954348e+00 -2.671335e+00 -7.457289e+00 -1.043769e+01 -3.682248e+00 2.342003e+00 -1.993913e+00 -4.053403e+00 -3.655970e+00 -3.858294e+00 3.619523e-01 -4.174033e-01 -5.004941e-01 -5.413764e-01 -3.661138e-01 -3.691237e-01 1.985084e-01 6.194838e-01 2.091379e-01 -3.094780e-01 -4.365371e-01 -2.890210e-01 4.863066e-01
<VARIANCE> 25
 1.982055e+01 3.754977e+01 4.485072e+01 4.602500e+01 4.835411e+01 5.230594e+01 4.533890e+01 4.689768e+01 6.356376e+01 4.307386e+01 3.556441e+01 3.444476e+01 5.694164e-01 2.171613e+00 2.316406e+00 1.907328e+00 2.369149e+00 3.386717e+00 2.927253e+00 3.053224e+00 2.962884e+00 2.837181e+00 2.662840e+00 2.209183e+00 9.819031e-01
<GCONST> 1.005687e+02
<STATE> 4
<MEAN> 25
 7.936549e+00 5.316041e+00 2.239468e+00 -2.040418e+00 -5.537446e+00 -6.998611e+00 -2.096663e+00 2.982105e+00 -1.124920e+00 -4.924550e+00 -4.786534e+00 -3.909861e+00 -1.936503e-01 -3.466140e-01 -3.004697e-01 2.804921e-01 7.471921e-01 1.043675e+00 4.173047e-01 -2.147343e-01 -1.894316e-01 -7.248510e-02 1.116081e-02 1.502710e-01 -1.055882e-01
<VARIANCE> 25
 1.968233e+01 3.080829e+01 3.984565e+01 3.763365e+01 3.553752e+01 4.067476e+01 4.069976e+01 3.915368e+01 5.144368e+01 3.819278e+01 3.066512e+01 2.631176e+01 3.753779e-01 1.220878e+00 1.362571e+00 1.493957e+00 2.004738e+00 2.727168e+00 2.026844e+00 2.105258e+00 2.403310e+00 2.200738e+00 1.975419e+00 1.823615e+00 5.097307e-01
<GCONST> 9.394715e+01
~t "T_u"
<ENDHMM>
~h "e+ny"
<BEGINHMM>
<NUMSTATES> 5
<STATE> 2
<MEAN> 25
 4.917822e+00 -3.046909e+00 -7.860230e-01 1.961976e+00 3.296882e+00 -3.095960e+00 -4.445966e+00 -4.378197e+00 -4.194638e+00 -1.446952e+00 1.146220e-01 1.648807e-01 1.062938e+00 -1.285595e+00 -6.981800e-01 4.423747e-01 5.001229e-01 -1.895295e+00 -1.787762e+00 -1.308817e+00 -1.084860e+00 1.344622e-01 6.617222e-01 3.701210e-01 1.670173e+00
<VARIANCE> 25
 3.577217e+01 3.706077e+01 4.774310e+01 6.015227e+01 4.925949e+01 6.036604e+01 5.010396e+01 4.977269e+01 4.858726e+01 3.950971e+01 3.013842e+01 2.473536e+01 2.384392e+00 2.958043e+00 2.685448e+00 3.858023e+00 3.340221e+00 5.064232e+00 4.063103e+00 3.681123e+00 4.037725e+00 4.174648e+00 3.332788e+00 2.898063e+00 2.226966e+00
<GCONST> 1.068105e+02
<STATE> 3
<MEAN> 25
 7.191195e+00 -7.001473e+00 -2.328277e+00 2.836691e+00 3.888689e+00 -7.911126e+00 -8.482172e+00 -6.657192e+00 -5.470276e+00 -1.285404e-01 1.987994e+00 7.147580e-01 8.514885e-02 -4.249433e-01 -1.496204e-01 2.818093e-01 1.203487e-01 -6.073316e-01 -4.420330e-01 -1.406531e-01 1.603031e-01 5.093133e-01 3.347531e-01 -4.041983e-02 2.952766e-01
<VARIANCE> 25
 2.837927e+01 3.550758e+01 4.376701e+01 6.339727e+01 5.782299e+01 6.153004e+01 4.445435e+01 4.665985e+01 4.438187e+01 4.603452e+01 3.686113e+01 3.249733e+01 5.579238e-01 9.633060e-01 1.396090e+00 1.826277e+00 1.583154e+00 2.003756e+00 1.982185e+00 1.856537e+00 2.013892e+00 2.006657e+00 1.751121e+00 1.508502e+00 5.828047e-01
<GCONST> 9.591582e+01
<STATE> 4
<MEAN> 25
 5.895019e+00 -4.724988e+00 -1.197292e+00 3.906052e+00 3.870449e+00 -6.545651e+00 -8.215060e+00 -6.679025e+00 -4.172563e+00 5.337154e-01 9.279272e-01 -6.742178e-01 -3.232698e-01 7.992764e-01 3.300467e-01 -6.339286e-02 7.912491e-02 1.004552e+00 6.088396e-01 3.772415e-01 3.436322e-01 -1.313366e-01 -2.720630e-01 -1.298955e-01 -7.956876e-01
<VARIANCE> 25
 2.029749e+01 3.066547e+01 3.368494e+01 5.057070e+01 4.296806e+01 5.593891e+01 3.659196e+01 3.710094e+01 4.034227e+01 3.575679e+01 3.262199e+01 2.925796e+01 5.569103e-01 1.011105e+00 1.171097e+00 1.448238e+00 1.440968e+00 2.011663e+00 1.814593e+00 1.739066e+00 1.905525e+00 1.867028e+00 1.539982e+00 1.274082e+00 7.538318e-01
<GCONST> 9.278246e+01
~t "T_e"
<ENDHMM>
~h "e+rr"
<BEGINHMM>
<NUMSTATES> 5
<STATE> 2
<MEAN> 25
 4.917822e+00 -3.046909e+00 -7.860230e-01 1.961976e+00 3.296882e+00 -3.095960e+00 -4.445966e+00 -4.378197e+00 -4.194638e+00 -1.446952e+00 1.146220e-01 1.648807e-01 1.062938e+00 -1.285595e+00 -6.981800e-01 4.423747e-01 5.001229e-01 -1.895295e+00 -1.787762e+00 -1.308817e+00 -1.084860e+00 1.344622e-01 6.617222e-01 3.701210e-01 1.670173e+00
<VARIANCE> 25
 3.577217e+01 3.706077e+01 4.774310e+01 6.015227e+01 4.925949e+01 6.036604e+01 5.010396e+01 4.977269e+01 4.858726e+01 3.950971e+01 3.013842e+01 2.473536e+01 2.384392e+00 2.958043e+00 2.685448e+00 3.858023e+00 3.340221e+00 5.064232e+00 4.063103e+00 3.681123e+00 4.037725e+00 4.174648e+00 3.332788e+00 2.898063e+00 2.226966e+00
<GCONST> 1.068105e+02
<STATE> 3
<MEAN> 25
 7.191195e+00 -7.001473e+00 -2.328277e+00 2.836691e+00 3.888689e+00 -7.911126e+00 -8.482172e+00 -6.657192e+00 -5.470276e+00 -1.285404e-01 1.987994e+00 7.147580e-01 8.514885e-02 -4.249433e-01 -1.496204e-01 2.818093e-01 1.203487e-01 -6.073316e-01 -4.420330e-01 -1.406531e-01 1.603031e-01 5.093133e-01 3.347531e-01 -4.041983e-02 2.952766e-01
<VARIANCE> 25
 2.837927e+01 3.550758e+01 4.376701e+01 6.339727e+01 5.782299e+01 6.153004e+01 4.445435e+01 4.665985e+01 4.438187e+01 4.603452e+01 3.686113e+01 3.249733e+01 5.579238e-01 9.633060e-01 1.396090e+00 1.826277e+00 1.583154e+00 2.003756e+00 1.982185e+00 1.856537e+00 2.013892e+00 2.006657e+00 1.751121e+00 1.508502e+00 5.828047e-01
<GCONST> 9.591582e+01
<STATE> 4
<MEAN> 25
 5.895019e+00 -4.724988e+00 -1.197292e+00 3.906052e+00 3.870449e+00 -6.545651e+00 -8.215060e+00 -6.679025e+00 -4.172563e+00 5.337154e-01 9.279272e-01 -6.742178e-01 -3.232698e-01 7.992764e-01 3.300467e-01 -6.339286e-02 7.912491e-02 1.004552e+00 6.088396e-01 3.772415e-01 3.436322e-01 -1.313366e-01 -2.720630e-01 -1.298955e-01 -7.956876e-01
<VARIANCE> 25
 2.029749e+01 3.066547e+01 3.368494e+01 5.057070e+01 4.296806e+01 5.593891e+01 3.659196e+01 3.710094e+01 4.034227e+01 3.575679e+01 3.262199e+01 2.925796e+01 5.569103e-01 1.011105e+00 1.171097e+00 1.448238e+00 1.440968e+00 2.011663e+00 1.814593e+00 1.739066e+00 1.905525e+00 1.867028e+00 1.539982e+00 1.274082e+00 7.538318e-01
<GCONST> 9.278246e+01
~t "T_e"
<ENDHMM>
~h "d-u+k"
<BEGINHMM>
<NUMSTATES> 5
<STATE> 2
<MEAN> 25
 5.841117e+00 4.888117e+00 2.686566e+00 -7.820466e-01 -3.509169e+00 -4.456264e+00 -1.667651e+00 1.072235e+00 -1.711213e+00 -3.398537e+00 -2.842877e+00 -2.182095e+00 1.576147e+00 1.045471e+00 4.197832e-01 -3.047917e-01 -1.355020e+00 -2.229248e+00 -1.097899e+00 2.456878e-01 -2.158980e-01 -6.960759e-01 -8.961666e-01 -8.212398e-01 8.114035e-01
<VARIANCE> 25
 3.111406e+01 4.019774e+01 4.504975e+01 4.146431e+01 4.849731e+01 5.661042e+01 4.281160e+01 4.095763e+01 5.025994e+01 4.244762e+01 3.143690e+01 2.546618e+01 2.317891e+00 3.149550e+00 3.087908e+00 3.151040e+00 3.396149e+00 4.573932e+00 4.195843e+00 4.035922e+00 4.034451e+00 3.409064e+00 3.195040e+00 2.762604e+00 1.784756e+00
<GCONST> 1.055627e+02
<STATE> 3
<MEAN> 25
 8.658910e+00 5.000401e+00 2.954348e+00 -2.671335e+00 -7.457289e+00 -1.043769e+01 -3.682248e+00 2.342003e+00 -1.993913e+00 -4.053403e+00 -3.655970e+00 -3.858294e+00 3.619523e-01 -4.174033e-01 -5.004941e-01 -5.413764e-01 -3.661138e-01 -3.691237e-01 1.985084e-01 6.194838e-01 2.091379e-01 -3.094780e-01 -4.365371e-01 -2.890210e-01 4.863066e-01
<VARIANCE> 25
 1.982055e+01 3.754977e+01 4.485072e+01 4.602500e+01 4.835411e+01 5.230594e+01 4.533890e+01 4.689768e+01 6.356376e+01 4.307386e+01 3.556441e+01 3.444476e+01 5.694164e-01 2.171613e+00 2.316406e+00 1.907328e+00 2.369149e+00 3.386717e+00 2.927253e+00 3.053224e+00 2.962884e+00 2.837181e+00 2.662840e+00 2.209183e+00 9.819031e-01
<GCONST> 1.005687e+02
<STATE> 4
<MEAN> 25
 7.936549e+00 5.316041e+00 2.239468e+00 -2.040418e+00 -5.537446e+00 -6.998611e+00 -2.096663e+00 2.982105e+00 -1.124920e+00 -4.924550e+00 -4.786534e+00 -3.909861e+00 -1.936503e-01 -3.466140e-01 -3.004697e-01 2.804921e-01 7.471921e-01 1.043675e+00 4.173047e-01 -2.147343e-01 -1.894316e-01 -7.248510e-02 1.116081e-02 1.502710e-01 -1.055882e-01
<VARIANCE> 25
 1.968233e+01 3.080829e+01 3.984565e+01 3.763365e+01 3.553752e+01 4.067476e+01 4.069976e+01 3.915368e+01 5.144368e+01 3.819278e+01 3.066512e+01 2.631176e+01 3.753779e-01 1.220878e+00 1.362571e+00 1.493957e+00 2.004738e+00 2.727168e+00 2.026844e+00 2.105258e+00 2.403310e+00 2.200738e+00 1.975419e+00 1.823615e+00 5.097307e-01
<GCONST> 9.394715e+01
~t "T_u"
<ENDHMM>
~h "d-u+l"
<BEGINHMM>
<NUMSTATES> 5
<STATE> 2
<MEAN> 25
 5.841117e+00 4.888117e+00 2.686566e+00 -7.820466e-01 -3.509169e+00 -4.456264e+00 -1.667651e+00 1.072235e+00 -1.711213e+00 -3.398537e+00 -2.842877e+00 -2.182095e+00 1.576147e+00 1.045471e+00 4.197832e-01 -3.047917e-01 -1.355020e+00 -2.229248e+00 -1.097899e+00 2.456878e-01 -2.158980e-01 -6.960759e-01 -8.961666e-01 -8.212398e-01 8.114035e-01
<VARIANCE> 25
 3.111406e+01 4.019774e+01 4.504975e+01 4.146431e+01 4.849731e+01 5.661042e+01 4.281160e+01 4.095763e+01 5.025994e+01 4.244762e+01 3.143690e+01 2.546618e+01 2.317891e+00 3.149550e+00 3.087908e+00 3.151040e+00 3.396149e+00 4.573932e+00 4.195843e+00 4.035922e+00 4.034451e+00 3.409064e+00 3.195040e+00 2.762604e+00 1.784756e+00
<GCONST> 1.055627e+02
<STATE> 3
<MEAN> 25
 8.658910e+00 5.000401e+00 2.954348e+00 -2.671335e+00 -7.457289e+00 -1.043769e+01 -3.682248e+00 2.342003e+00 -1.993913e+00 -4.053403e+00 -3.655970e+00 -3.858294e+00 3.619523e-01 -4.174033e-01 -5.004941e-01 -5.413764e-01 -3.661138e-01 -3.691237e-01 1.985084e-01 6.194838e-01 2.091379e-01 -3.094780e-01 -4.365371e-01 -2.890210e-01 4.863066e-01
<VARIANCE> 25
 1.982055e+01 3.754977e+01 4.485072e+01 4.602500e+01 4.835411e+01 5.230594e+01 4.533890e+01 4.689768e+01 6.356376e+01 4.307386e+01 3.556441e+01 3.444476e+01 5.694164e-01 2.171613e+00 2.316406e+00 1.907328e+00 2.369149e+00 3.386717e+00 2.927253e+00 3.053224e+00 2.962884e+00 2.837181e+00 2.662840e+00 2.209183e+00 9.819031e-01
<GCONST> 1.005687e+02
<STATE> 4
<MEAN> 25
 7.936549e+00 5.316041e+00 2.239468e+00 -2.040418e+00 -5.537446e+00 -6.998611e+00 -2.096663e+00 2.982105e+00 -1.124920e+00 -4.924550e+00 -4.786534e+00 -3.909861e+00 -1.936503e-01 -3.466140e-01 -3.004697e-01 2.804921e-01 7.471921e-01 1.043675e+00 4.173047e-01 -2.147343e-01 -1.894316e-01 -7.248510e-02 1.116081e-02 1.502710e-01 -1.055882e-01
<VARIANCE> 25
 1.968233e+01 3.080829e+01 3.984565e+01 3.763365e+01 3.553752e+01 4.067476e+01 4.069976e+01 3.915368e+01 5.144368e+01 3.819278e+01 3.066512e+01 2.631176e+01 3.753779e-01 1.220878e+00 1.362571e+00 1.493957e+00 2.004738e+00 2.727168e+00 2.026844e+00 2.105258e+00 2.403310e+00 2.200738e+00 1.975419e+00 1.823615e+00 5.097307e-01
<GCONST> 9.394715e+01
~t "T_u"
<ENDHMM>
~h "d-u+r"
<BEGINHMM>
<NUMSTATES> 5
<STATE> 2
<MEAN> 25
 5.841117e+00 4.888117e+00 2.686566e+00 -7.820466e-01 -3.509169e+00 -4.456264e+00 -1.667651e+00 1.072235e+00 -1.711213e+00 -3.398537e+00 -2.842877e+00 -2.182095e+00 1.576147e+00 1.045471e+00 4.197832e-01 -3.047917e-01 -1.355020e+00 -2.229248e+00 -1.097899e+00 2.456878e-01 -2.158980e-01 -6.960759e-01 -8.961666e-01 -8.212398e-01 8.114035e-01
<VARIANCE> 25
 3.111406e+01 4.019774e+01 4.504975e+01 4.146431e+01 4.849731e+01 5.661042e+01 4.281160e+01 4.095763e+01 5.025994e+01 4.244762e+01 3.143690e+01 2.546618e+01 2.317891e+00 3.149550e+00 3.087908e+00 3.151040e+00 3.396149e+00 4.573932e+00 4.195843e+00 4.035922e+00 4.034451e+00 3.409064e+00 3.195040e+00 2.762604e+00 1.784756e+00
<GCONST> 1.055627e+02
<STATE> 3
<MEAN> 25
 8.658910e+00 5.000401e+00 2.954348e+00 -2.671335e+00 -7.457289e+00 -1.043769e+01 -3.682248e+00 2.342003e+00 -1.993913e+00 -4.053403e+00 -3.655970e+00 -3.858294e+00 3.619523e-01 -4.174033e-01 -5.004941e-01 -5.413764e-01 -3.661138e-01 -3.691237e-01 1.985084e-01 6.194838e-01 2.091379e-01 -3.094780e-01 -4.365371e-01 -2.890210e-01 4.863066e-01
<VARIANCE> 25
 1.982055e+01 3.754977e+01 4.485072e+01 4.602500e+01 4.835411e+01 5.230594e+01 4.533890e+01 4.689768e+01 6.356376e+01 4.307386e+01 3.556441e+01 3.444476e+01 5.694164e-01 2.171613e+00 2.316406e+00 1.907328e+00 2.369149e+00 3.386717e+00 2.927253e+00 3.053224e+00 2.962884e+00 2.837181e+00 2.662840e+00 2.209183e+00 9.819031e-01
<GCONST> 1.005687e+02
<STATE> 4
<MEAN> 25
 7.936549e+00 5.316041e+00 2.239468e+00 -2.040418e+00 -5.537446e+00 -6.998611e+00 -2.096663e+00 2.982105e+00 -1.124920e+00 -4.924550e+00 -4.786534e+00 -3.909861e+00 -1.936503e-01 -3.466140e-01 -3.004697e-01 2.804921e-01 7.471921e-01 1.043675e+00 4.173047e-01 -2.147343e-01 -1.894316e-01 -7.248510e-02 1.116081e-02 1.502710e-01 -1.055882e-01
<VARIANCE> 25
 1.968233e+01 3.080829e+01 3.984565e+01 3.763365e+01 3.553752e+01 4.067476e+01 4.069976e+01 3.915368e+01 5.144368e+01 3.819278e+01 3.066512e+01 2.631176e+01 3.753779e-01 1.220878e+00 1.362571e+00 1.493957e+00 2.004738e+00 2.727168e+00 2.026844e+00 2.105258e+00 2.403310e+00 2.200738e+00 1.975419e+00 1.823615e+00 5.097307e-01
<GCONST> 9.394715e+01
~t "T_u"
<ENDHMM>
~h "d-u+s"
<BEGINHMM>
<NUMSTATES> 5
<STATE> 2
<MEAN> 25
 5.841117e+00 4.888117e+00 2.686566e+00 -7.820466e-01 -3.509169e+00 -4.456264e+00 -1.667651e+00 1.072235e+00 -1.711213e+00 -3.398537e+00 -2.842877e+00 -2.182095e+00 1.576147e+00 1.045471e+00 4.197832e-01 -3.047917e-01 -1.355020e+00 -2.229248e+00 -1.097899e+00 2.456878e-01 -2.158980e-01 -6.960759e-01 -8.961666e-01 -8.212398e-01 8.114035e-01
<VARIANCE> 25
 3.111406e+01 4.019774e+01 4.504975e+01 4.146431e+01 4.849731e+01 5.661042e+01 4.281160e+01 4.095763e+01 5.025994e+01 4.244762e+01 3.143690e+01 2.546618e+01 2.317891e+00 3.149550e+00 3.087908e+00 3.151040e+00 3.396149e+00 4.573932e+00 4.195843e+00 4.035922e+00 4.034451e+00 3.409064e+00 3.195040e+00 2.762604e+00 1.784756e+00
<GCONST> 1.055627e+02
<STATE> 3
<MEAN> 25
 8.658910e+00 5.000401e+00 2.954348e+00 -2.671335e+00 -7.457289e+00 -1.043769e+01 -3.682248e+00 2.342003e+00 -1.993913e+00 -4.053403e+00 -3.655970e+00 -3.858294e+00 3.619523e-01 -4.174033e-01 -5.004941e-01 -5.413764e-01 -3.661138e-01 -3.691237e-01 1.985084e-01 6.194838e-01 2.091379e-01 -3.094780e-01 -4.365371e-01 -2.890210e-01 4.863066e-01
<VARIANCE> 25
 1.982055e+01 3.754977e+01 4.485072e+01 4.602500e+01 4.835411e+01 5.230594e+01 4.533890e+01 4.689768e+01 6.356376e+01 4.307386e+01 3.556441e+01 3.444476e+01 5.694164e-01 2.171613e+00 2.316406e+00 1.907328e+00 2.369149e+00 3.386717e+00 2.927253e+00 3.053224e+00 2.962884e+00 2.837181e+00 2.662840e+00 2.209183e+00 9.819031e-01
<GCONST> 1.005687e+02
<STATE> 4
<MEAN> 25
 7.936549e+00 5.316041e+00 2.239468e+00 -2.040418e+00 -5.537446e+00 -6.998611e+00 -2.096663e+00 2.982105e+00 -1.124920e+00 -4.924550e+00 -4.786534e+00 -3.909861e+00 -1.936503e-01 -3.466140e-01 -3.004697e-01 2.804921e-01 7.471921e-01 1.043675e+00 4.173047e-01 -2.147343e-01 -1.894316e-01 -7.248510e-02 1.116081e-02 1.502710e-01 -1.055882e-01
<VARIANCE> 25
 1.968233e+01 3.080829e+01 3.984565e+01 3.763365e+01 3.553752e+01 4.067476e+01 4.069976e+01 3.915368e+01 5.144368e+01 3.819278e+01 3.066512e+01 2.631176e+01 3.753779e-01 1.220878e+00 1.362571e+00 1.493957e+00 2.004738e+00 2.727168e+00 2.026844e+00 2.105258e+00 2.403310e+00 2.200738e+00 1.975419e+00 1.823615e+00 5.097307e-01
<GCONST> 9.394715e+01
~t "T_u"
<ENDHMM>
~h "d-u+x"
<BEGINHMM>
<NUMSTATES> 5
<STATE> 2
<MEAN> 25
 5.841117e+00 4.888117e+00 2.686566e+00 -7.820466e-01 -3.509169e+00 -4.456264e+00 -1.667651e+00 1.072235e+00 -1.711213e+00 -3.398537e+00 -2.842877e+00 -2.182095e+00 1.576147e+00 1.045471e+00 4.197832e-01 -3.047917e-01 -1.355020e+00 -2.229248e+00 -1.097899e+00 2.456878e-01 -2.158980e-01 -6.960759e-01 -8.961666e-01 -8.212398e-01 8.114035e-01
<VARIANCE> 25
 3.111406e+01 4.019774e+01 4.504975e+01 4.146431e+01 4.849731e+01 5.661042e+01 4.281160e+01 4.095763e+01 5.025994e+01 4.244762e+01 3.143690e+01 2.546618e+01 2.317891e+00 3.149550e+00 3.087908e+00 3.151040e+00 3.396149e+00 4.573932e+00 4.195843e+00 4.035922e+00 4.034451e+00 3.409064e+00 3.195040e+00 2.762604e+00 1.784756e+00
<GCONST> 1.055627e+02
<STATE> 3
<MEAN> 25
 8.658910e+00 5.000401e+00 2.954348e+00 -2.671335e+00 -7.457289e+00 -1.043769e+01 -3.682248e+00 2.342003e+00 -1.993913e+00 -4.053403e+00 -3.655970e+00 -3.858294e+00 3.619523e-01 -4.174033e-01 -5.004941e-01 -5.413764e-01 -3.661138e-01 -3.691237e-01 1.985084e-01 6.194838e-01 2.091379e-01 -3.094780e-01 -4.365371e-01 -2.890210e-01 4.863066e-01
<VARIANCE> 25
 1.982055e+01 3.754977e+01 4.485072e+01 4.602500e+01 4.835411e+01 5.230594e+01 4.533890e+01 4.689768e+01 6.356376e+01 4.307386e+01 3.556441e+01 3.444476e+01 5.694164e-01 2.171613e+00 2.316406e+00 1.907328e+00 2.369149e+00 3.386717e+00 2.927253e+00 3.053224e+00 2.962884e+00 2.837181e+00 2.662840e+00 2.209183e+00 9.819031e-01
<GCONST> 1.005687e+02
<STATE> 4
<MEAN> 25
 7.936549e+00 5.316041e+00 2.239468e+00 -2.040418e+00 -5.537446e+00 -6.998611e+00 -2.096663e+00 2.982105e+00 -1.124920e+00 -4.924550e+00 -4.786534e+00 -3.909861e+00 -1.936503e-01 -3.466140e-01 -3.004697e-01 2.804921e-01 7.471921e-01 1.043675e+00 4.173047e-01 -2.147343e-01 -1.894316e-01 -7.248510e-02 1.116081e-02 1.502710e-01 -1.055882e-01
<VARIANCE> 25
 1.968233e+01 3.080829e+01 3.984565e+01 3.763365e+01 3.553752e+01 4.067476e+01 4.069976e+01 3.915368e+01 5.144368e+01 3.819278e+01 3.066512e+01 2.631176e+01 3.753779e-01 1.220878e+00 1.362571e+00 1.493957e+00 2.004738e+00 2.727168e+00 2.026844e+00 2.105258e+00 2.403310e+00 2.200738e+00 1.975419e+00 1.823615e+00 5.097307e-01
<GCONST> 9.394715e+01
~t "T_u"
<ENDHMM>
~h "ny-i+d"
<BEGINHMM>
<NUMSTATES> 5
<STATE> 2
<MEAN> 25
 2.824880e+00 -2.961581e+00 4.292364e+00 7.499251e+00 7.346193e+00 -2.067250e+00 -5.297520e+00 -2.873806e+00 -2.378581e+00 -1.973293e+00 -2.520489e+00 -3.736685e+00 1.015099e+00 -9.724852e-01 2.479329e-01 2.179622e+00 1.426837e+00 -2.128228e+00 -2.309814e+00 -3.848035e-01 -7.270547e-01 -7.560874e-01 -6.794949e-01 -8.365397e-01 1.175898e+00
<VARIANCE> 25
 3.374600e+01 3.967356e+01 6.750194e+01 6.375350e+01 5.781096e+01 6.437442e+01 4.980933e+01 4.415491e+01 4.445846e+01 3.540117e+01 3.356274e+01 2.704606e+01 3.132528e+00 4.137255e+00 3.621446e+00 4.487921e+00 4.215056e+00 5.312013e+00 4.005538e+00 3.824685e+00 4.409300e+00 4.209664e+00 3.923692e+00 2.984154e+00 1.617640e+00
<GCONST> 1.086541e+02
<STATE> 3
<MEAN> 25
 3.691633e+00 -6.378765e+00 6.166086e+00 1.236009e+01 7.380941e+00 -9.047977e+00 -9.580333e+00 -1.629763e+00 -3.102339e+00 -4.599288e+00 -4.548250e+00 -5.048493e+00 8.359629e-02 -2.991736e-01 1.296623e-01 4.305927e-01 9.667514e-03 -8.290642e-01 -5.818837e-01 1.603395e-01 8.957740e-02 -1.876646e-01 -1.591199e-01 -1.092843e-01 2.681427e-01
<VARIANCE> 25
 2.149308e+01 3.103732e+01 4.970968e+01 5.873264e+01 7.158559e+01 6.920425e+01 3.966159e+01 4.495304e+01 4.204121e+01 4.275245e+01 4.102441e+01 2.954641e+01 6.639252e-01 9.264812e-01 1.883231e+00 1.858640e+00 1.558079e+00 2.146437e+00 1.929194e+00 2.097977e+00 1.840118e+00 1.884095e+00 1.595546e+00 1.333590e+00 5.259222e-01
<GCONST> 9.574519e+01
<STATE> 4
<MEAN> 25
 4.036044e+00 -4.218312e+00 4.209880e+00 1.037407e+01 7.996428e+00 -6.247262e+00 -9.419474e+00 -3.331409e+00 -2.663913e+00 -2.918104e+00 -3.142705e+00 -4.376024e+00 3.821991e-02 8.336469e-01 -6.000085e-01 -1.181883e+00 -5.675405e-01 1.117856e+00 8.718380e-01 -2.187419e-01 -3.897155e-02 3.511441e-01 4.869802e-01 5.886047e-01 -5.325214e-01
<VARIANCE> 25
 1.972391e+01 3.227742e+01 4.309776e+01 5.167957e+01 5.495691e+01 6.691110e+01 3.850472e+01 4.351723e+01 4.154246e+01 3.556070e+01 3.517086e+01 2.803684e+01 6.999541e-01 1.390189e+00 1.663853e+00 1.824908e+00 1.964548e+00 2.784639e+00 2.501812e+00 2.236512e+00 2.341234e+00 2.148965e+00 1.947036e+00 1.699689e+00 1.056007e+00
<GCONST> 9.730878e+01
~t "T_i"
<ENDHMM>
~h "g-a+b"
<BEGINHMM>
<NUMSTATES> 5
<STATE> 2
<MEAN> 25
 8.084209e+00 -3.246555e+00 -4.886938e+00 -2.890126e+00 -1.922659e+00 -4.591505e+00 -1.062124e+00 -1.533606e+00 -3.011539e+00 -1.419097e+00 7.822737e-01 1.974153e+00 8.531939e-01 -1.219489e+00 -1.591901e+00 -1.511451e+00 -1.099942e+00 -1.081241e+00 3.296968e-01 2.435892e-01 2.131322e-01 7.433307e-01 1.096173e+00 1.076555e+00 1.531909e+00
<VARIANCE> 25
 3.102556e+01 3.982352e+01 4.648204e+01 6.052976e+01 4.865224e+01 5.364120e+01 4.957391e+01 5.206113e+01 4.994263e+01 4.377484e+01 3.566540e+01 3.010361e+01 2.105191e+00 2.133569e+00 2.607650e+00 3.361774e+00 2.917656e+00 3.954443e+00 3.398865e+00 3.319243e+00 3.668817e+00 4.076825e+00 3.093344e+00 2.673295e+00 1.675560e+00
<GCONST> 1.052759e+02
<STATE> 3
<MEAN> 25
 9.462610e+00 -6.897775e+00 -8.743549e+00 -6.083593e+00 -4.604442e+00 -5.470979e+00 1.397076e+00 -2.830499e-01 -1.629562e+00 7.007640e-01 2.659651e+00 3.340820e+00 3.290816e-02 -1.735238e-01 -3.625012e-01 -3.627358e-01 -1.769637e-01 2.254089e-01 4.766614e-01 2.827543e-01 2.371980e-01 1.767752e-01 8.445666e-02 6.974697e-02 8.193482e-02
<VARIANCE> 25
 2.840129e+01 3.570125e+01 4.138834e+01 4.038225e+01 4.118876e+01 4.148624e+01 4.739182e+01 4.747406e+01 4.473821e+01 4.189992e+01 3.449903e+01 2.805832e+01 3.302394e-01 8.424883e-01 9.393210e-01 1.242460e+00 1.324397e+00 1.496400e+00 1.901740e+00 1.780651e+00 1.803969e+00 1.726919e+00 1.430944e+00 1.179275e+00 3.783611e-01
<GCONST> 9.133002e+01
<STATE> 4
<MEAN> 25
 8.177530e+00 -2.680661e+00 -7.293503e+00 -5.932261e+00 -3.758124e+00 -2.794274e+00 1.176165e+00 -3.390664e-01 -1.368642e+00 2.573896e-01 2.133668e+00 3.287408e+00 -4.538044e-01 8.704351e-01 7.276899e-01 4.679444e-01 4.150407e-01 5.706517e-01 -1.937626e-01 -1.382255e-01 1.753797e-02 -1.629017e-01 -2.942949e-01 -3.140077e-01 -8.826797e-01
<VARIANCE> 25
 2.215926e+01 3.099335e+01 3.486272e+01 3.668752e+01 3.283007e+01 3.965223e+01 3.500597e+01 3.826480e+01 3.512437e+01 3.170736e+01 2.563973e+01 2.200531e+01 5.861269e-01 9.910762e-01 1.080531e+00 1.252255e+00 1.395680e+00 1.835312e+00 1.787168e+00 1.826652e+00 1.993582e+00 1.853269e+00 1.609923e+00 1.318195e+00 6.483233e-01
<GCONST> 9.086413e+01
~t "T_a"
<ENDHMM>
~h "g-a+d"
<BEGINHMM>
<NUMSTATES> 5
<STATE> 2
<MEAN> 25
 8.084209e+00 -3.246555e+00 -4.886938e+00 -2.890126e+00 -1.922659e+00 -4.591505e+00 -1.062124e+00 -1.533606e+00 -3.011539e+00 -1.419097e+00 7.822737e-01 1.974153e+00 8.531939e-01 -1.219489e+00 -1.591901e+00 -1.511451e+00 -1.099942e+00 -1.081241e+00 3.296968e-01 2.435892e-01 2.131322e-01 7.433307e-01 1.096173e+00 1.076555e+00 1.531909e+00
<VARIANCE> 25
 3.102556e+01 3.982352e+01 4.648204e+01 6.052976e+01 4.865224e+01 5.364120e+01 4.957391e+01 5.206113e+01 4.994263e+01 4.377484e+01 3.566540e+01 3.010361e+01 2.105191e+00 2.133569e+00 2.607650e+00 3.361774e+00 2.917656e+00 3.954443e+00 3.398865e+00 3.319243e+00 3.668817e+00 4.076825e+00 3.093344e+00 2.673295e+00 1.675560e+00
<GCONST> 1.052759e+02
<STATE> 3
<MEAN> 25
 9.462610e+00 -6.897775e+00 -8.743549e+00 -6.083593e+00 -4.604442e+00 -5.470979e+00 1.397076e+00 -2.830499e-01 -1.629562e+00 7.007640e-01 2.659651e+00 3.340820e+00 3.290816e-02 -1.735238e-01 -3.625012e-01 -3.627358e-01 -1.769637e-01 2.254089e-01 4.766614e-01 2.827543e-01 2.371980e-01 1.767752e-01 8.445666e-02 6.974697e-02 8.193482e-02
<VARIANCE> 25
 2.840129e+01 3.570125e+01 4.138834e+01 4.038225e+01 4.118876e+01 4.148624e+01 4.739182e+01 4.747406e+01 4.473821e+01 4.189992e+01 3.449903e+01 2.805832e+01 3.302394e-01 8.424883e-01 9.393210e-01 1.242460e+00 1.324397e+00 1.496400e+00 1.901740e+00 1.780651e+00 1.803969e+00 1.726919e+00 1.430944e+00 1.179275e+00 3.783611e-01
<GCONST> 9.133002e+01
<STATE> 4
<MEAN> 25
 8.177530e+00 -2.680661e+00 -7.293503e+00 -5.932261e+00 -3.758124e+00 -2.794274e+00 1.176165e+00 -3.390664e-01 -1.368642e+00 2.573896e-01 2.133668e+00 3.287408e+00 -4.538044e-01 8.704351e-01 7.276899e-01 4.679444e-01 4.150407e-01 5.706517e-01 -1.937626e-01 -1.382255e-01 1.753797e-02 -1.629017e-01 -2.942949e-01 -3.140077e-01 -8.826797e-01
<VARIANCE> 25
 2.215926e+01 3.099335e+01 3.486272e+01 3.668752e+01 3.283007e+01 3.965223e+01 3.500597e+01 3.826480e+01 3.512437e+01 3.170736e+01 2.563973e+01 2.200531e+01 5.861269e-01 9.910762e-01 1.080531e+00 1.252255e+00 1.395680e+00 1.835312e+00 1.787168e+00 1.826652e+00 1.993582e+00 1.853269e+00 1.609923e+00 1.318195e+00 6.483233e-01
<GCONST> 9.086413e+01
~t "T_a"
<ENDHMM>
~h "g-a+n"
<BEGINHMM>
<NUMSTATES> 5
<STATE> 2
<MEAN> 25
 8.084209e+00 -3.246555e+00 -4.886938e+00 -2.890126e+00 -1.922659e+00 -4.591505e+00 -1.062124e+00 -1.533606e+00 -3.011539e+00 -1.419097e+00 7.822737e-01 1.974153e+00 8.531939e-01 -1.219489e+00 -1.591901e+00 -1.511451e+00 -1.099942e+00 -1.081241e+00 3.296968e-01 2.435892e-01 2.131322e-01 7.433307e-01 1.096173e+00 1.076555e+00 1.531909e+00
<VARIANCE> 25
 3.102556e+01 3.982352e+01 4.648204e+01 6.052976e+01 4.865224e+01 5.364120e+01 4.957391e+01 5.206113e+01 4.994263e+01 4.377484e+01 3.566540e+01 3.010361e+01 2.105191e+00 2.133569e+00 2.607650e+00 3.361774e+00 2.917656e+00 3.954443e+00 3.398865e+00 3.319243e+00 3.668817e+00 4.076825e+00 3.093344e+00 2.673295e+00 1.675560e+00
<GCONST> 1.052759e+02
<STATE> 3
<MEAN> 25
 9.462610e+00 -6.897775e+00 -8.743549e+00 -6.083593e+00 -4.604442e+00 -5.470979e+00 1.397076e+00 -2.830499e-01 -1.629562e+00 7.007640e-01 2.659651e+00 3.340820e+00 3.290816e-02 -1.735238e-01 -3.625012e-01 -3.627358e-01 -1.769637e-01 2.254089e-01 4.766614e-01 2.827543e-01 2.371980e-01 1.767752e-01 8.445666e-02 6.974697e-02 8.193482e-02
<VARIANCE> 25
 2.840129e+01 3.570125e+01 4.138834e+01 4.038225e+01 4.118876e+01 4.148624e+01 4.739182e+01 4.747406e+01 4.473821e+01 4.189992e+01 3.449903e+01 2.805832e+01 3.302394e-01 8.424883e-01 9.393210e-01 1.242460e+00 1.324397e+00 1.496400e+00 1.901740e+00 1.780651e+00 1.803969e+00 1.726919e+00 1.430944e+00 1.179275e+00 3.783611e-01
<GCONST> 9.133002e+01
<STATE> 4
<MEAN> 25
 8.177530e+00 -2.680661e+00 -7.293503e+00 -5.932261e+00 -3.758124e+00 -2.794274e+00 1.176165e+00 -3.390664e-01 -1.368642e+00 2.573896e-01 2.133668e+00 3.287408e+00 -4.538044e-01 8.704351e-01 7.276899e-01 4.679444e-01 4.150407e-01 5.706517e-01 -1.937626e-01 -1.382255e-01 1.753797e-02 -1.629017e-01 -2.942949e-01 -3.140077e-01 -8.826797e-01
<VARIANCE> 25
 2.215926e+01 3.099335e+01 3.486272e+01 3.668752e+01 3.283007e+01 3.965223e+01 3.500597e+01 3.826480e+01 3.512437e+01 3.170736e+01 2.563973e+01 2.200531e+01 5.861269e-01 9.910762e-01 1.080531e+00 1.252255e+00 1.395680e+00 1.835312e+00 1.787168e+00 1.826652e+00 1.993582e+00 1.853269e+00 1.609923e+00 1.318195e+00 6.483233e-01
<GCONST> 9.086413e+01
~t "T_a"
<ENDHMM>
~h "g-a+r"
<BEGINHMM>
<NUMSTATES> 5
<STATE> 2
<MEAN> 25
 8.084209e+00 -3.246555e+00 -4.886938e+00 -2.890126e+00 -1.922659e+00 -4.591505e+00 -1.062124e+00 -1.533606e+00 -3.011539e+00 -1.419097e+00 7.822737e-01 1.974153e+00 8.531939e-01 -1.219489e+00 -1.591901e+00 -1.511451e+00 -1.099942e+00 -1.081241e+00 3.296968e-01 2.435892e-01 2.131322e-01 7.433307e-01 1.096173e+00 1.076555e+00 1.531909e+00
<VARIANCE> 25
 3.102556e+01 3.982352e+01 4.648204e+01 6.052976e+01 4.865224e+01 5.364120e+01 4.957391e+01 5.206113e+01 4.994263e+01 4.377484e+01 3.566540e+01 3.010361e+01 2.105191e+00 2.133569e+00 2.607650e+00 3.361774e+00 2.917656e+00 3.954443e+00 3.398865e+00 3.319243e+00 3.668817e+00 4.076825e+00 3.093344e+00 2.673295e+00 1.675560e+00
<GCONST> 1.052759e+02
<STATE> 3
<MEAN> 25
 9.462610e+00 -6.897775e+00 -8.743549e+00 -6.083593e+00 -4.604442e+00 -5.470979e+00 1.397076e+00 -2.830499e-01 -1.629562e+00 7.007640e-01 2.659651e+00 3.340820e+00 3.290816e-02 -1.735238e-01 -3.625012e-01 -3.627358e-01 -1.769637e-01 2.254089e-01 4.766614e-01 2.827543e-01 2.371980e-01 1.767752e-01 8.445666e-02 6.974697e-02 8.193482e-02
<VARIANCE> 25
 2.840129e+01 3.570125e+01 4.138834e+01 4.038225e+01 4.118876e+01 4.148624e+01 4.739182e+01 4.747406e+01 4.473821e+01 4.189992e+01 3.449903e+01 2.805832e+01 3.302394e-01 8.424883e-01 9.393210e-01 1.242460e+00 1.324397e+00 1.496400e+00 1.901740e+00 1.780651e+00 1.803969e+00 1.726919e+00 1.430944e+00 1.179275e+00 3.783611e-01
<GCONST> 9.133002e+01
<STATE> 4
<MEAN> 25
 8.177530e+00 -2.680661e+00 -7.293503e+00 -5.932261e+00 -3.758124e+00 -2.794274e+00 1.176165e+00 -3.390664e-01 -1.368642e+00 2.573896e-01 2.133668e+00 3.287408e+00 -4.538044e-01 8.704351e-01 7.276899e-01 4.679444e-01 4.150407e-01 5.706517e-01 -1.937626e-01 -1.382255e-01 1.753797e-02 -1.629017e-01 -2.942949e-01 -3.140077e-01 -8.826797e-01
<VARIANCE> 25
 2.215926e+01 3.099335e+01 3.486272e+01 3.668752e+01 3.283007e+01 3.965223e+01 3.500597e+01 3.826480e+01 3.512437e+01 3.170736e+01 2.563973e+01 2.200531e+01 5.861269e-01 9.910762e-01 1.080531e+00 1.252255e+00 1.395680e+00 1.835312e+00 1.787168e+00 1.826652e+00 1.993582e+00 1.853269e+00 1.609923e+00 1.318195e+00 6.483233e-01
<GCONST> 9.086413e+01
~t "T_a"
<ENDHMM>
~h "g-a+s"
<BEGINHMM>
<NUMSTATES> 5
<STATE> 2
<MEAN> 25
 8.084209e+00 -3.246555e+00 -4.886938e+00 -2.890126e+00 -1.922659e+00 -4.591505e+00 -1.062124e+00 -1.533606e+00 -3.011539e+00 -1.419097e+00 7.822737e-01 1.974153e+00 8.531939e-01 -1.219489e+00 -1.591901e+00 -1.511451e+00 -1.099942e+00 -1.081241e+00 3.296968e-01 2.435892e-01 2.131322e-01 7.433307e-01 1.096173e+00 1.076555e+00 1.531909e+00
<VARIANCE> 25
 3.102556e+01 3.982352e+01 4.648204e+01 6.052976e+01 4.865224e+01 5.364120e+01 4.957391e+01 5.206113e+01 4.994263e+01 4.377484e+01 3.566540e+01 3.010361e+01 2.105191e+00 2.133569e+00 2.607650e+00 3.361774e+00 2.917656e+00 3.954443e+00 3.398865e+00 3.319243e+00 3.668817e+00 4.076825e+00 3.093344e+00 2.673295e+00 1.675560e+00
<GCONST> 1.052759e+02
<STATE> 3
<MEAN> 25
 9.462610e+00 -6.897775e+00 -8.743549e+00 -6.083593e+00 -4.604442e+00 -5.470979e+00 1.397076e+00 -2.830499e-01 -1.629562e+00 7.007640e-01 2.659651e+00 3.340820e+00 3.290816e-02 -1.735238e-01 -3.625012e-01 -3.627358e-01 -1.769637e-01 2.254089e-01 4.766614e-01 2.827543e-01 2.371980e-01 1.767752e-01 8.445666e-02 6.974697e-02 8.193482e-02
<VARIANCE> 25
 2.840129e+01 3.570125e+01 4.138834e+01 4.038225e+01 4.118876e+01 4.148624e+01 4.739182e+01 4.747406e+01 4.473821e+01 4.189992e+01 3.449903e+01 2.805832e+01 3.302394e-01 8.424883e-01 9.393210e-01 1.242460e+00 1.324397e+00 1.496400e+00 1.901740e+00 1.780651e+00 1.803969e+00 1.726919e+00 1.430944e+00 1.179275e+00 3.783611e-01
<GCONST> 9.133002e+01
<STATE> 4
<MEAN> 25
 8.177530e+00 -2.680661e+00 -7.293503e+00 -5.932261e+00 -3.758124e+00 -2.794274e+00 1.176165e+00 -3.390664e-01 -1.368642e+00 2.573896e-01 2.133668e+00 3.287408e+00 -4.538044e-01 8.704351e-01 7.276899e-01 4.679444e-01 4.150407e-01 5.706517e-01 -1.937626e-01 -1.382255e-01 1.753797e-02 -1.629017e-01 -2.942949e-01 -3.140077e-01 -8.826797e-01
<VARIANCE> 25
 2.215926e+01 3.099335e+01 3.486272e+01 3.668752e+01 3.283007e+01 3.965223e+01 3.500597e+01 3.826480e+01 3.512437e+01 3.170736e+01 2.563973e+01 2.200531e+01 5.861269e-01 9.910762e-01 1.080531e+00 1.252255e+00 1.395680e+00 1.835312e+00 1.787168e+00 1.826652e+00 1.993582e+00 1.853269e+00 1.609923e+00 1.318195e+00 6.483233e-01
<GCONST> 9.086413e+01
~t "T_a"
<ENDHMM>
~h "g-a+t"
<BEGINHMM>
<NUMSTATES> 5
<STATE> 2
<MEAN> 25
 8.084209e+00 -3.246555e+00 -4.886938e+00 -2.890126e+00 -1.922659e+00 -4.591505e+00 -1.062124e+00 -1.533606e+00 -3.011539e+00 -1.419097e+00 7.822737e-01 1.974153e+00 8.531939e-01 -1.219489e+00 -1.591901e+00 -1.511451e+00 -1.099942e+00 -1.081241e+00 3.296968e-01 2.435892e-01 2.131322e-01 7.433307e-01 1.096173e+00 1.076555e+00 1.531909e+00
<VARIANCE> 25
 3.102556e+01 3.982352e+01 4.648204e+01 6.052976e+01 4.865224e+01 5.364120e+01 4.957391e+01 5.206113e+01 4.994263e+01 4.377484e+01 3.566540e+01 3.010361e+01 2.105191e+00 2.133569e+00 2.607650e+00 3.361774e+00 2.917656e+00 3.954443e+00 3.398865e+00 3.319243e+00 3.668817e+00 4.076825e+00 3.093344e+00 2.673295e+00 1.675560e+00
<GCONST> 1.052759e+02
<STATE> 3
<MEAN> 25
 9.462610e+00 -6.897775e+00 -8.743549e+00 -6.083593e+00 -4.604442e+00 -5.470979e+00 1.397076e+00 -2.830499e-01 -1.629562e+00 7.007640e-01 2.659651e+00 3.340820e+00 3.290816e-02 -1.735238e-01 -3.625012e-01 -3.627358e-01 -1.769637e-01 2.254089e-01 4.766614e-01 2.827543e-01 2.371980e-01 1.767752e-01 8.445666e-02 6.974697e-02 8.193482e-02
<VARIANCE> 25
 2.840129e+01 3.570125e+01 4.138834e+01 4.038225e+01 4.118876e+01 4.148624e+01 4.739182e+01 4.747406e+01 4.473821e+01 4.189992e+01 3.449903e+01 2.805832e+01 3.302394e-01 8.424883e-01 9.393210e-01 1.242460e+00 1.324397e+00 1.496400e+00 1.901740e+00 1.780651e+00 1.803969e+00 1.726919e+00 1.430944e+00 1.179275e+00 3.783611e-01
<GCONST> 9.133002e+01
<STATE> 4
<MEAN> 25
 8.177530e+00 -2.680661e+00 -7.293503e+00 -5.932261e+00 -3.758124e+00 -2.794274e+00 1.176165e+00 -3.390664e-01 -1.368642e+00 2.573896e-01 2.133668e+00 3.287408e+00 -4.538044e-01 8.704351e-01 7.276899e-01 4.679444e-01 4.150407e-01 5.706517e-01 -1.937626e-01 -1.382255e-01 1.753797e-02 -1.629017e-01 -2.942949e-01 -3.140077e-01 -8.826797e-01
<VARIANCE> 25
 2.215926e+01 3.099335e+01 3.486272e+01 3.668752e+01 3.283007e+01 3.965223e+01 3.500597e+01 3.826480e+01 3.512437e+01 3.170736e+01 2.563973e+01 2.200531e+01 5.861269e-01 9.910762e-01 1.080531e+00 1.252255e+00 1.395680e+00 1.835312e+00 1.787168e+00 1.826652e+00 1.993582e+00 1.853269e+00 1.609923e+00 1.318195e+00 6.483233e-01
<GCONST> 9.086413e+01
~t "T_a"
<ENDHMM>
~h "e-th"
<BEGINHMM>
<NUMSTATES> 5
<STATE> 2
<MEAN> 25
 -5.632880e+00 -3.854063e+00 1.516733e+01 -6.320058e+00 2.140140e+00 2.455597e+00 3.235808e+00 -2.117743e+00 -4.823162e-01 1.348089e+00 8.720768e-02 -2.654986e-01 -3.624942e+00 -1.473371e+00 2.833224e+00 -1.734421e+00 -1.021341e-01 6.912473e-01 1.388689e+00 -1.476209e-01 6.915943e-01 5.759441e-01 5.913332e-01 2.648686e-01 5.795045e-01
<VARIANCE> 25
 6.831219e+01 5.101052e+01 9.769680e+01 8.345584e+01 8.229661e+01 6.781025e+01 8.005181e+01 6.789198e+01 6.046149e+01 4.864940e+01 3.799240e+01 2.866057e+01 2.483551e+00 3.884926e+00 3.833339e+00 4.342094e+00 3.744481e+00 5.492457e+00 3.865437e+00 3.177013e+00 3.737395e+00 3.366478e+00 3.085365e+00 2.236720e+00 1.021638e+00
<GCONST> 1.104123e+02
<STATE> 3
<MEAN> 25
 -1.727112e+01 -8.257788e+00 1.949447e+01 -1.180675e+01 1.947106e+00 1.331353e+00 6.016316e+00 -2.654345e+00 1.263386e+00 2.144119e+00 1.879954e+00 3.925450e-01 -1.316139e-01 -5.102527e-01 -3.761988e-01 1.679360e-01 1.177314e-02 -9.135841e-02 -9.154829e-02 -1.859931e-02 1.217610e-01 1.754421e-01 1.592440e-01 1.295594e-02 -6.405007e-02
<VARIANCE> 25
 3.926363e+01 8.026629e+01 8.774121e+01 1.006794e+02 8.994701e+01 7.935870e+01 7.173088e+01 6.903039e+01 6.770055e+01 4.795404e+01 3.895676e+01 2.661696e+01 1.988035e+00 1.045411e+00 1.457392e+00 2.010195e+00 1.328030e+00 1.433358e+00 1.615375e+00 1.621984e+00 1.538399e+00 1.449418e+00 1.211479e+00 1.100959e+00 4.380694e-01
<GCONST> 9.917685e+01
<STATE> 4
<MEAN> 25
 -9.271607e+00 -9.057722e+00 1.468838e+01 -6.365356e+00 1.965114e+00 2.341074e+00 3.013284e+00 -2.966129e+00 2.363478e-03 3.011927e+00 1.883378e+00 8.863983e-02 4.015340e+00 1.801579e+00 -2.265525e+00 2.241422e+00 5.355793e-01 -2.967038e-01 -2.138270e+00 -4.493863e-01 -1.154973e+00 -7.945148e-01 -8.732439e-01 -3.801412e-01 -6.645188e-01
<VARIANCE> 25
 5.233046e+01 6.291172e+01 6.801148e+01 8.587710e+01 6.436635e+01 5.830358e+01 5.761609e+01 5.580789e+01 5.802547e+01 4.261039e+01 3.626220e+01 2.619216e+01 3.238315e+00 3.795416e+00 2.980920e+00 3.903574e+00 4.405891e+00 4.908393e+00 3.968453e+00 3.498078e+00 3.993294e+00 3.501172e+00 3.218621e+00 2.491385e+00 1.196708e+00
<GCONST> 1.092605e+02
~t "T_th"
<ENDHMM>
~h "th-a+th"
<BEGINHMM>
<NUMSTATES> 5
<STATE> 2
<MEAN> 25
 8.084209e+00 -3.246555e+00 -4.886938e+00 -2.890126e+00 -1.922659e+00 -4.591505e+00 -1.062124e+00 -1.533606e+00 -3.011539e+00 -1.419097e+00 7.822737e-01 1.974153e+00 8.531939e-01 -1.219489e+00 -1.591901e+00 -1.511451e+00 -1.099942e+00 -1.081241e+00 3.296968e-01 2.435892e-01 2.131322e-01 7.433307e-01 1.096173e+00 1.076555e+00 1.531909e+00
<VARIANCE> 25
 3.102556e+01 3.982352e+01 4.648204e+01 6.052976e+01 4.865224e+01 5.364120e+01 4.957391e+01 5.206113e+01 4.994263e+01 4.377484e+01 3.566540e+01 3.010361e+01 2.105191e+00 2.133569e+00 2.607650e+00 3.361774e+00 2.917656e+00 3.954443e+00 3.398865e+00 3.319243e+00 3.668817e+00 4.076825e+00 3.093344e+00 2.673295e+00 1.675560e+00
<GCONST> 1.052759e+02
<STATE> 3
<MEAN> 25
 9.462610e+00 -6.897775e+00 -8.743549e+00 -6.083593e+00 -4.604442e+00 -5.470979e+00 1.397076e+00 -2.830499e-01 -1.629562e+00 7.007640e-01 2.659651e+00 3.340820e+00 3.290816e-02 -1.735238e-01 -3.625012e-01 -3.627358e-01 -1.769637e-01 2.254089e-01 4.766614e-01 2.827543e-01 2.371980e-01 1.767752e-01 8.445666e-02 6.974697e-02 8.193482e-02
<VARIANCE> 25
 2.840129e+01 3.570125e+01 4.138834e+01 4.038225e+01 4.118876e+01 4.148624e+01 4.739182e+01 4.747406e+01 4.473821e+01 4.189992e+01 3.449903e+01 2.805832e+01 3.302394e-01 8.424883e-01 9.393210e-01 1.242460e+00 1.324397e+00 1.496400e+00 1.901740e+00 1.780651e+00 1.803969e+00 1.726919e+00 1.430944e+00 1.179275e+00 3.783611e-01
<GCONST> 9.133002e+01
<STATE> 4
<MEAN> 25
 8.177530e+00 -2.680661e+00 -7.293503e+00 -5.932261e+00 -3.758124e+00 -2.794274e+00 1.176165e+00 -3.390664e-01 -1.368642e+00 2.573896e-01 2.133668e+00 3.287408e+00 -4.538044e-01 8.704351e-01 7.276899e-01 4.679444e-01 4.150407e-01 5.706517e-01 -1.937626e-01 -1.382255e-01 1.753797e-02 -1.629017e-01 -2.942949e-01 -3.140077e-01 -8.826797e-01
<VARIANCE> 25
 2.215926e+01 3.099335e+01 3.486272e+01 3.668752e+01 3.283007e+01 3.965223e+01 3.500597e+01 3.826480e+01 3.512437e+01 3.170736e+01 2.563973e+01 2.200531e+01 5.861269e-01 9.910762e-01 1.080531e+00 1.252255e+00 1.395680e+00 1.835312e+00 1.787168e+00 1.826652e+00 1.993582e+00 1.853269e+00 1.609923e+00 1.318195e+00 6.483233e-01
<GCONST> 9.086413e+01
~t "T_a"
<ENDHMM>
~h "u-k+th"
<BEGINHMM>
<NUMSTATES> 5
<STATE> 2
<MEAN> 25
 -2.312355e-01 1.961118e+00 -8.483832e-01 1.450593e+00 1.457601e+00 2.408843e+00 -4.597814e-01 -1.728608e+00 -1.790877e-01 8.893732e-01 6.985575e-01 -3.931130e-01 -7.720011e-01 -7.842530e-02 -5.205820e-01 -9.070294e-01 -7.591282e-01 3.915028e-01 7.773291e-01 4.507853e-01 3.840126e-01 1.228299e-01 3.643597e-01 2.747205e-01 -4.715713e-01
<VARIANCE> 25
 2.273778e+01 2.853440e+01 3.812323e+01 4.159114e+01 4.112223e+01 3.378465e+01 3.233773e+01 3.354189e+01 3.298198e+01 2.542086e+01 2.348176e+01 2.239305e+01 1.604517e+00 4.217481e+00 2.607781e+00 4.085482e+00 3.966224e+00 4.291962e+00 3.567861e+00 3.176125e+00 3.109658e+00 2.588859e+00 2.471189e+00 2.213985e+00 5.200278e+00
<GCONST> 1.019870e+02
<STATE> 3
<MEAN> 25
 -1.427904e+00 -2.522660e+00 -2.585010e+00 -5.629199e+00 -8.787394e-01 -3.528969e-01 2.678309e+00 -7.877849e-01 7.780784e-01 5.548463e-01 2.357178e+00 4.609265e-01 3.902499e-01 -8.271015e-01 2.816469e-01 -1.033817e+00 -3.860129e-01 -9.675173e-01 2.915441e-01 -2.320813e-02 -3.249466e-01 -1.045423e-01 2.656671e-02 -1.464451e-01 1.487963e+00
<VARIANCE> 25
 2.691691e+01 7.003792e+01 5.256176e+01 6.985202e+01 8.061441e+01 6.468961e+01 6.198301e+01 6.249512e+01 4.851157e+01 4.706096e+01 4.291992e+01 3.999689e+01 2.103719e+00 4.420229e+00 3.587986e+00 5.717131e+00 5.819118e+00 5.228204e+00 4.675033e+00 4.933011e+00 4.070527e+00 3.372667e+00 3.275937e+00 3.025996e+00 4.842046e+00
<GCONST> 1.119947e+02
<STATE> 4
<MEAN> 25
 1.419271e+00 -3.539429e-01 4.778248e-01 -3.932618e+00 -2.930405e+00 -2.244887e+00 1.284940e+00 5.541340e-02 -5.615529e-01 7.321874e-01 8.684695e-01 -6.447970e-01 1.883814e+00 8.443043e-01 8.145797e-01 1.344449e+00 6.578749e-02 -1.397391e+00 -1.716680e+00 -6.972357e-01 -6.383767e-01 -3.624772e-01 -5.773226e-01 -2.933102e-01 8.197570e-01
<VARIANCE> 25
 3.267832e+01 6.014273e+01 4.649751e+01 6.060592e+01 7.995394e+01 5.549017e+01 4.596269e+01 5.674486e+01 4.103881e+01 2.995664e+01 2.814278e+01 2.626648e+01 2.782798e+00 2.967987e+00 2.976174e+00 4.358909e+00 4.870712e+00 5.839102e+00 4.260954e+00 3.580991e+00 3.656567e+00 3.403094e+00 3.130402e+00 2.638721e+00 2.321630e+00
<GCONST> 1.076801e+02
~t "T_k"
<ENDHMM>
~h "d-x+e"
<BEGINHMM>
<NUMSTATES> 5
<STATE> 2
<MEAN> 25
 2.710263e+00 3.803773e-02 -6.907156e-01 -1.041780e+00 1.537239e-01 -1.162006e+00 2.299056e+00 2.109332e+00 2.205236e+00 1.629794e+00 5.215285e-01 -4.691647e-01 -8.456972e-01 -5.233524e-01 1.104425e-01 5.402460e-03 -4.407932e-02 9.621610e-01 1.198104e+00 8.795330e-01 4.561717e-01 2.352917e-01 2.905076e-01 1.189582e-01 -4.212725e-01
<VARIANCE> 25
 3.920304e+01 4.778421e+01 4.725491e+01 6.818762e+01 7.707585e+01 4.912231e+01 5.634499e+01 6.323063e+01 4.823575e+01 3.662822e+01 3.850797e+01 3.096796e+01 1.298015e+00 2.392860e+00 2.438280e+00 3.293631e+00 3.234163e+00 3.403000e+00 3.515903e+00 3.329362e+00 3.190387e+00 2.881794e+00 2.616669e+00 2.342538e+00 1.071782e+00
<GCONST> 1.047144e+02
<STATE> 3
<MEAN> 25
 2.389514e+00 -2.823177e+00 -2.314602e+00 -8.071315e-01 -2.019404e+00 5.773649e-01 5.416468e+00 4.644370e+00 2.860189e+00 2.649937e+00 1.474382e+00 2.542869e-01 -1.627480e-01 -5.520325e-02 -3.205924e-02 7.186043e-02 -6.453498e-02 1.446954e-01 8.186971e-02 8.117869e-02 1.478556e-01 8.997992e-02 -1.554686e-02 -1.325583e-02 -1.939255e-01
<VARIANCE> 25
 3.829348e+01 5.292737e+01 6.805369e+01 7.263561e+01 8.785237e+01 4.887428e+01 6.232245e+01 6.020101e+01 4.831543e+01 4.048973e+01 3.702037e+01 2.908707e+01 3.520617e-01 1.059087e+00 1.012969e+00 1.387481e+00 1.552394e+00 1.474724e+00 1.849917e+00 1.636128e+00 1.569952e+00 1.565971e+00 1.455773e+00 1.317901e+00 2.615884e-01
<GCONST> 9.472208e+01
<STATE> 4
<MEAN> 25
 1.113762e+00 -2.202637e-01 5.006220e-01 3.866129e-01 -2.374129e-02 1.004074e+00 2.361394e+00 3.804070e+00 2.446019e+00 2.536371e+00 8.760055e-01 6.529836e-02 2.448174e-01 2.729527e-01 1.612649e-01 -1.038634e-02 -1.484590e-01 -4.305932e-01 -4.565032e-01 -3.415658e-01 -1.851178e-01 -6.116746e-02 -1.175197e-01 -1.012859e-01 1.047176e-01
<VARIANCE> 25
 2.915019e+01 3.153456e+01 3.526095e+01 4.116573e+01 4.410101e+01 3.645945e+01 3.289407e+01 3.666290e+01 3.545974e+01 2.833711e+01 2.363544e+01 1.703545e+01 3.797781e-01 8.875240e-01 8.613486e-01 1.276177e+00 1.478250e+00 1.550803e+00 1.795061e+00 1.668326e+00 1.570326e+00 1.527764e+00 1.397692e+00 1.213788e+00 2.087996e-01
<GCONST> 8.821011e+01
~t "T_x"
<ENDHMM>
~h "th+a"
<BEGINHMM>
<NUMSTATES> 5
<STATE> 2
<MEAN> 25
 -5.632880e+00 -3.854063e+00 1.516733e+01 -6.320058e+00 2.140140e+00 2.455597e+00 3.235808e+00 -2.117743e+00 -4.823162e-01 1.348089e+00 8.720768e-02 -2.654986e-01 -3.624942e+00 -1.473371e+00 2.833224e+00 -1.734421e+00 -1.021341e-01 6.912473e-01 1.388689e+00 -1.476209e-01 6.915943e-01 5.759441e-01 5.913332e-01 2.648686e-01 5.795045e-01
<VARIANCE> 25
 6.831219e+01 5.101052e+01 9.769680e+01 8.345584e+01 8.229661e+01 6.781025e+01 8.005181e+01 6.789198e+01 6.046149e+01 4.864940e+01 3.799240e+01 2.866057e+01 2.483551e+00 3.884926e+00 3.833339e+00 4.342094e+00 3.744481e+00 5.492457e+00 3.865437e+00 3.177013e+00 3.737395e+00 3.366478e+00 3.085365e+00 2.236720e+00 1.021638e+00
<GCONST> 1.104123e+02
<STATE> 3
<MEAN> 25
 -1.727112e+01 -8.257788e+00 1.949447e+01 -1.180675e+01 1.947106e+00 1.331353e+00 6.016316e+00 -2.654345e+00 1.263386e+00 2.144119e+00 1.879954e+00 3.925450e-01 -1.316139e-01 -5.102527e-01 -3.761988e-01 1.679360e-01 1.177314e-02 -9.135841e-02 -9.154829e-02 -1.859931e-02 1.217610e-01 1.754421e-01 1.592440e-01 1.295594e-02 -6.405007e-02
<VARIANCE> 25
 3.926363e+01 8.026629e+01 8.774121e+01 1.006794e+02 8.994701e+01 7.935870e+01 7.173088e+01 6.903039e+01 6.770055e+01 4.795404e+01 3.895676e+01 2.661696e+01 1.988035e+00 1.045411e+00 1.457392e+00 2.010195e+00 1.328030e+00 1.433358e+00 1.615375e+00 1.621984e+00 1.538399e+00 1.449418e+00 1.211479e+00 1.100959e+00 4.380694e-01
<GCONST> 9.917685e+01
<STATE> 4
<MEAN> 25
 -9.271607e+00 -9.057722e+00 1.468838e+01 -6.365356e+00 1.965114e+00 2.341074e+00 3.013284e+00 -2.966129e+00 2.363478e-03 3.011927e+00 1.883378e+00 8.863983e-02 4.015340e+00 1.801579e+00 -2.265525e+00 2.241422e+00 5.355793e-01 -2.967038e-01 -2.138270e+00 -4.493863e-01 -1.154973e+00 -7.945148e-01 -8.732439e-01 -3.801412e-01 -6.645188e-01
<VARIANCE> 25
 5.233046e+01 6.291172e+01 6.801148e+01 8.587710e+01 6.436635e+01 5.830358e+01 5.761609e+01 5.580789e+01 5.802547e+01 4.261039e+01 3.626220e+01 2.619216e+01 3.238315e+00 3.795416e+00 2.980920e+00 3.903574e+00 4.405891e+00 4.908393e+00 3.968453e+00 3.498078e+00 3.993294e+00 3.501172e+00 3.218621e+00 2.491385e+00 1.196708e+00
<GCONST> 1.092605e+02
~t "T_th"
<ENDHMM>
~h "th+e"
<BEGINHMM>
<NUMSTATES> 5
<STATE> 2
<MEAN> 25
 -5.632880e+00 -3.854063e+00 1.516733e+01 -6.320058e+00 2.140140e+00 2.455597e+00 3.235808e+00 -2.117743e+00 -4.823162e-01 1.348089e+00 8.720768e-02 -2.654986e-01 -3.624942e+00 -1.473371e+00 2.833224e+00 -1.734421e+00 -1.021341e-01 6.912473e-01 1.388689e+00 -1.476209e-01 6.915943e-01 5.759441e-01 5.913332e-01 2.648686e-01 5.795045e-01
<VARIANCE> 25
 6.831219e+01 5.101052e+01 9.769680e+01 8.345584e+01 8.229661e+01 6.781025e+01 8.005181e+01 6.789198e+01 6.046149e+01 4.864940e+01 3.799240e+01 2.866057e+01 2.483551e+00 3.884926e+00 3.833339e+00 4.342094e+00 3.744481e+00 5.492457e+00 3.865437e+00 3.177013e+00 3.737395e+00 3.366478e+00 3.085365e+00 2.236720e+00 1.021638e+00
<GCONST> 1.104123e+02
<STATE> 3
<MEAN> 25
 -1.727112e+01 -8.257788e+00 1.949447e+01 -1.180675e+01 1.947106e+00 1.331353e+00 6.016316e+00 -2.654345e+00 1.263386e+00 2.144119e+00 1.879954e+00 3.925450e-01 -1.316139e-01 -5.102527e-01 -3.761988e-01 1.679360e-01 1.177314e-02 -9.135841e-02 -9.154829e-02 -1.859931e-02 1.217610e-01 1.754421e-01 1.592440e-01 1.295594e-02 -6.405007e-02
<VARIANCE> 25
 3.926363e+01 8.026629e+01 8.774121e+01 1.006794e+02 8.994701e+01 7.935870e+01 7.173088e+01 6.903039e+01 6.770055e+01 4.795404e+01 3.895676e+01 2.661696e+01 1.988035e+00 1.045411e+00 1.457392e+00 2.010195e+00 1.328030e+00 1.433358e+00 1.615375e+00 1.621984e+00 1.538399e+00 1.449418e+00 1.211479e+00 1.100959e+00 4.380694e-01
<GCONST> 9.917685e+01
<STATE> 4
<MEAN> 25
 -9.271607e+00 -9.057722e+00 1.468838e+01 -6.365356e+00 1.965114e+00 2.341074e+00 3.013284e+00 -2.966129e+00 2.363478e-03 3.011927e+00 1.883378e+00 8.863983e-02 4.015340e+00 1.801579e+00 -2.265525e+00 2.241422e+00 5.355793e-01 -2.967038e-01 -2.138270e+00 -4.493863e-01 -1.154973e+00 -7.945148e-01 -8.732439e-01 -3.801412e-01 -6.645188e-01
<VARIANCE> 25
 5.233046e+01 6.291172e+01 6.801148e+01 8.587710e+01 6.436635e+01 5.830358e+01 5.761609e+01 5.580789e+01 5.802547e+01 4.261039e+01 3.626220e+01 2.619216e+01 3.238315e+00 3.795416e+00 2.980920e+00 3.903574e+00 4.405891e+00 4.908393e+00 3.968453e+00 3.498078e+00 3.993294e+00 3.501172e+00 3.218621e+00 2.491385e+00 1.196708e+00
<GCONST> 1.092605e+02
~t "T_th"
<ENDHMM>
~h "th+i"
<BEGINHMM>
<NUMSTATES> 5
<STATE> 2
<MEAN> 25
 -5.632880e+00 -3.854063e+00 1.516733e+01 -6.320058e+00 2.140140e+00 2.455597e+00 3.235808e+00 -2.117743e+00 -4.823162e-01 1.348089e+00 8.720768e-02 -2.654986e-01 -3.624942e+00 -1.473371e+00 2.833224e+00 -1.734421e+00 -1.021341e-01 6.912473e-01 1.388689e+00 -1.476209e-01 6.915943e-01 5.759441e-01 5.913332e-01 2.648686e-01 5.795045e-01
<VARIANCE> 25
 6.831219e+01 5.101052e+01 9.769680e+01 8.345584e+01 8.229661e+01 6.781025e+01 8.005181e+01 6.789198e+01 6.046149e+01 4.864940e+01 3.799240e+01 2.866057e+01 2.483551e+00 3.884926e+00 3.833339e+00 4.342094e+00 3.744481e+00 5.492457e+00 3.865437e+00 3.177013e+00 3.737395e+00 3.366478e+00 3.085365e+00 2.236720e+00 1.021638e+00
<GCONST> 1.104123e+02
<STATE> 3
<MEAN> 25
 -1.727112e+01 -8.257788e+00 1.949447e+01 -1.180675e+01 1.947106e+00 1.331353e+00 6.016316e+00 -2.654345e+00 1.263386e+00 2.144119e+00 1.879954e+00 3.925450e-01 -1.316139e-01 -5.102527e-01 -3.761988e-01 1.679360e-01 1.177314e-02 -9.135841e-02 -9.154829e-02 -1.859931e-02 1.217610e-01 1.754421e-01 1.592440e-01 1.295594e-02 -6.405007e-02
<VARIANCE> 25
 3.926363e+01 8.026629e+01 8.774121e+01 1.006794e+02 8.994701e+01 7.935870e+01 7.173088e+01 6.903039e+01 6.770055e+01 4.795404e+01 3.895676e+01 2.661696e+01 1.988035e+00 1.045411e+00 1.457392e+00 2.010195e+00 1.328030e+00 1.433358e+00 1.615375e+00 1.621984e+00 1.538399e+00 1.449418e+00 1.211479e+00 1.100959e+00 4.380694e-01
<GCONST> 9.917685e+01
<STATE> 4
<MEAN> 25
 -9.271607e+00 -9.057722e+00 1.468838e+01 -6.365356e+00 1.965114e+00 2.341074e+00 3.013284e+00 -2.966129e+00 2.363478e-03 3.011927e+00 1.883378e+00 8.863983e-02 4.015340e+00 1.801579e+00 -2.265525e+00 2.241422e+00 5.355793e-01 -2.967038e-01 -2.138270e+00 -4.493863e-01 -1.154973e+00 -7.945148e-01 -8.732439e-01 -3.801412e-01 -6.645188e-01
<VARIANCE> 25
 5.233046e+01 6.291172e+01 6.801148e+01 8.587710e+01 6.436635e+01 5.830358e+01 5.761609e+01 5.580789e+01 5.802547e+01 4.261039e+01 3.626220e+01 2.619216e+01 3.238315e+00 3.795416e+00 2.980920e+00 3.903574e+00 4.405891e+00 4.908393e+00 3.968453e+00 3.498078e+00 3.993294e+00 3.501172e+00 3.218621e+00 2.491385e+00 1.196708e+00
<GCONST> 1.092605e+02
~t "T_th"
<ENDHMM>
~h "th-a"
<BEGINHMM>
<NUMSTATES> 5
<STATE> 2
<MEAN> 25
 8.084209e+00 -3.246555e+00 -4.886938e+00 -2.890126e+00 -1.922659e+00 -4.591505e+00 -1.062124e+00 -1.533606e+00 -3.011539e+00 -1.419097e+00 7.822737e-01 1.974153e+00 8.531939e-01 -1.219489e+00 -1.591901e+00 -1.511451e+00 -1.099942e+00 -1.081241e+00 3.296968e-01 2.435892e-01 2.131322e-01 7.433307e-01 1.096173e+00 1.076555e+00 1.531909e+00
<VARIANCE> 25
 3.102556e+01 3.982352e+01 4.648204e+01 6.052976e+01 4.865224e+01 5.364120e+01 4.957391e+01 5.206113e+01 4.994263e+01 4.377484e+01 3.566540e+01 3.010361e+01 2.105191e+00 2.133569e+00 2.607650e+00 3.361774e+00 2.917656e+00 3.954443e+00 3.398865e+00 3.319243e+00 3.668817e+00 4.076825e+00 3.093344e+00 2.673295e+00 1.675560e+00
<GCONST> 1.052759e+02
<STATE> 3
<MEAN> 25
 9.462610e+00 -6.897775e+00 -8.743549e+00 -6.083593e+00 -4.604442e+00 -5.470979e+00 1.397076e+00 -2.830499e-01 -1.629562e+00 7.007640e-01 2.659651e+00 3.340820e+00 3.290816e-02 -1.735238e-01 -3.625012e-01 -3.627358e-01 -1.769637e-01 2.254089e-01 4.766614e-01 2.827543e-01 2.371980e-01 1.767752e-01 8.445666e-02 6.974697e-02 8.193482e-02
<VARIANCE> 25
 2.840129e+01 3.570125e+01 4.138834e+01 4.038225e+01 4.118876e+01 4.148624e+01 4.739182e+01 4.747406e+01 4.473821e+01 4.189992e+01 3.449903e+01 2.805832e+01 3.302394e-01 8.424883e-01 9.393210e-01 1.242460e+00 1.324397e+00 1.496400e+00 1.901740e+00 1.780651e+00 1.803969e+00 1.726919e+00 1.430944e+00 1.179275e+00 3.783611e-01
<GCONST> 9.133002e+01
<STATE> 4
<MEAN> 25
 8.177530e+00 -2.680661e+00 -7.293503e+00 -5.932261e+00 -3.758124e+00 -2.794274e+00 1.176165e+00 -3.390664e-01 -1.368642e+00 2.573896e-01 2.133668e+00 3.287408e+00 -4.538044e-01 8.704351e-01 7.276899e-01 4.679444e-01 4.150407e-01 5.706517e-01 -1.937626e-01 -1.382255e-01 1.753797e-02 -1.629017e-01 -2.942949e-01 -3.140077e-01 -8.826797e-01
<VARIANCE> 25
 2.215926e+01 3.099335e+01 3.486272e+01 3.668752e+01 3.283007e+01 3.965223e+01 3.500597e+01 3.826480e+01 3.512437e+01 3.170736e+01 2.563973e+01 2.200531e+01 5.861269e-01 9.910762e-01 1.080531e+00 1.252255e+00 1.395680e+00 1.835312e+00 1.787168e+00 1.826652e+00 1.993582e+00 1.853269e+00 1.609923e+00 1.318195e+00 6.483233e-01
<GCONST> 9.086413e+01
~t "T_a"
<ENDHMM>
~h "th-e"
<BEGINHMM>
<NUMSTATES> 5
<STATE> 2
<MEAN> 25
 4.917822e+00 -3.046909e+00 -7.860230e-01 1.961976e+00 3.296882e+00 -3.095960e+00 -4.445966e+00 -4.378197e+00 -4.194638e+00 -1.446952e+00 1.146220e-01 1.648807e-01 1.062938e+00 -1.285595e+00 -6.981800e-01 4.423747e-01 5.001229e-01 -1.895295e+00 -1.787762e+00 -1.308817e+00 -1.084860e+00 1.344622e-01 6.617222e-01 3.701210e-01 1.670173e+00
<VARIANCE> 25
 3.577217e+01 3.706077e+01 4.774310e+01 6.015227e+01 4.925949e+01 6.036604e+01 5.010396e+01 4.977269e+01 4.858726e+01 3.950971e+01 3.013842e+01 2.473536e+01 2.384392e+00 2.958043e+00 2.685448e+00 3.858023e+00 3.340221e+00 5.064232e+00 4.063103e+00 3.681123e+00 4.037725e+00 4.174648e+00 3.332788e+00 2.898063e+00 2.226966e+00
<GCONST> 1.068105e+02
<STATE> 3
<MEAN> 25
 7.191195e+00 -7.001473e+00 -2.328277e+00 2.836691e+00 3.888689e+00 -7.911126e+00 -8.482172e+00 -6.657192e+00 -5.470276e+00 -1.285404e-01 1.987994e+00 7.147580e-01 8.514885e-02 -4.249433e-01 -1.496204e-01 2.818093e-01 1.203487e-01 -6.073316e-01 -4.420330e-01 -1.406531e-01 1.603031e-01 5.093133e-01 3.347531e-01 -4.041983e-02 2.952766e-01
<VARIANCE> 25
 2.837927e+01 3.550758e+01 4.376701e+01 6.339727e+01 5.782299e+01 6.153004e+01 4.445435e+01 4.665985e+01 4.438187e+01 4.603452e+01 3.686113e+01 3.249733e+01 5.579238e-01 9.633060e-01 1.396090e+00 1.826277e+00 1.583154e+00 2.003756e+00 1.982185e+00 1.856537e+00 2.013892e+00 2.006657e+00 1.751121e+00 1.508502e+00 5.828047e-01
<GCONST> 9.591582e+01
<STATE> 4
<MEAN> 25
 5.895019e+00 -4.724988e+00 -1.197292e+00 3.906052e+00 3.870449e+00 -6.545651e+00 -8.215060e+00 -6.679025e+00 -4.172563e+00 5.337154e-01 9.279272e-01 -6.742178e-01 -3.232698e-01 7.992764e-01 3.300467e-01 -6.339286e-02 7.912491e-02 1.004552e+00 6.088396e-01 3.772415e-01 3.436322e-01 -1.313366e-01 -2.720630e-01 -1.298955e-01 -7.956876e-01
<VARIANCE> 25
 2.029749e+01 3.066547e+01 3.368494e+01 5.057070e+01 4.296806e+01 5.593891e+01 3.659196e+01 3.710094e+01 4.034227e+01 3.575679e+01 3.262199e+01 2.925796e+01 5.569103e-01 1.011105e+00 1.171097e+00 1.448238e+00 1.440968e+00 2.011663e+00 1.814593e+00 1.739066e+00 1.905525e+00 1.867028e+00 1.539982e+00 1.274082e+00 7.538318e-01
<GCONST> 9.278246e+01
~t "T_e"
<ENDHMM>
~h "th-o"
<BEGINHMM>
<NUMSTATES> 5
<STATE> 2
<MEAN> 25
 8.202134e+00 8.756948e-01 -1.556870e+00 -2.412576e+00 -4.135490e+00 -5.283045e+00 -1.325630e+00 5.514442e-01 -3.256593e+00 -4.464030e+00 -3.179199e+00 -1.018459e+00 8.533680e-01 5.628624e-02 -4.272498e-01 -1.163086e+00 -1.742013e+00 -1.833407e+00 -1.006363e-01 8.327968e-01 2.565329e-01 -1.784475e-01 -2.551433e-01 1.000556e-01 7.841955e-01
<VARIANCE> 25
 2.727819e+01 4.614404e+01 4.546624e+01 5.624189e+01 6.257309e+01 6.102062e+01 4.518742e+01 4.939813e+01 5.469617e+01 4.219932e+01 3.056493e+01 2.847985e+01 1.604221e+00 2.714622e+00 2.414845e+00 3.306103e+00 3.399673e+00 4.293542e+00 4.410888e+00 3.910635e+00 3.812121e+00 3.509329e+00 2.851977e+00 2.694980e+00 1.552250e+00
<GCONST> 1.055529e+02
<STATE> 3
<MEAN> 25
 9.608891e+00 1.841884e+00 -1.624231e+00 -4.843653e+00 -1.056682e+01 -1.047259e+01 -3.275502e-01 4.228262e+00 -8.981493e-01 -3.707518e+00 -3.771726e+00 -1.847208e+00 -1.603226e-01 3.746803e-01 2.492852e-02 -5.283350e-02 -1.316152e-01 2.060792e-01 2.320018e-01 3.473101e-01 4.636069e-01 2.421327e-01 -1.011645e-03 -9.001540e-02 -4.208844e-01
<VARIANCE> 25
 2.191664e+01 3.832346e+01 3.536129e+01 4.552036e+01 5.146196e+01 5.402416e+01 4.532333e+01 4.316967e+01 5.194213e+01 3.791486e+01 2.724122e+01 2.477335e+01 5.759985e-01 1.296905e+00 1.329783e+00 1.436117e+00 2.015944e+00 2.854960e+00 1.984985e+00 2.227589e+00 2.343580e+00 2.045362e+00 1.638120e+00 1.449960e+00 1.066268e+00
<GCONST> 9.576168e+01
<STATE> 4
<MEAN> 25
 5.920141e+00 4.729104e+00 -6.619071e-01 -3.592440e+00 -6.668617e+00 -4.437122e+00 3.776827e-01 3.175261e+00 9.050462e-01 -1.454790e+00 -2.326509e+00 -1.249121e+00 -6.257654e-01 -3.906129e-02 1.678127e-01 4.218079e-01 7.039407e-01 9.980335e-01 2.885799e-01 -2.038472e-01 -1.773957e-02 1.877047e-01 2.155907e-01 8.154663e-02 -5.345345e-01
<VARIANCE> 25
 2.381943e+01 3.168683e+01 3.073319e+01 3.372535e+01 3.205265e+01 4.222814e+01 3.201194e+01 3.300840e+01 3.498757e+01 3.150789e+01 2.243595e+01 1.901501e+01 4.852379e-01 7.335701e-01 1.011674e+00 1.084659e+00 1.496157e+00 1.967000e+00 1.648281e+00 1.688958e+00 1.686677e+00 1.518985e+00 1.305284e+00 1.193857e+00 3.831035e-01
<GCONST> 8.833953e+01
~t "T_o"
<ENDHMM>
~h "g-e+l"
<BEGINHMM>
<NUMSTATES> 5
<STATE> 2
<MEAN> 25
 4.917822e+00 -3.046909e+00 -7.860230e-01 1.961976e+00 3.296882e+00 -3.095960e+00 -4.445966e+00 -4.378197e+00 -4.194638e+00 -1.446952e+00 1.146220e-01 1.648807e-01 1.062938e+00 -1.285595e+00 -6.981800e-01 4.423747e-01 5.001229e-01 -1.895295e+00 -1.787762e+00 -1.308817e+00 -1.084860e+00 1.344622e-01 6.617222e-01 3.701210e-01 1.670173e+00
<VARIANCE> 25
 3.577217e+01 3.706077e+01 4.774310e+01 6.015227e+01 4.925949e+01 6.036604e+01 5.010396e+01 4.977269e+01 4.858726e+01 3.950971e+01 3.013842e+01 2.473536e+01 2.384392e+00 2.958043e+00 2.685448e+00 3.858023e+00 3.340221e+00 5.064232e+00 4.063103e+00 3.681123e+00 4.037725e+00 4.174648e+00 3.332788e+00 2.898063e+00 2.226966e+00
<GCONST> 1.068105e+02
<STATE> 3
<MEAN> 25
 7.191195e+00 -7.001473e+00 -2.328277e+00 2.836691e+00 3.888689e+00 -7.911126e+00 -8.482172e+00 -6.657192e+00 -5.470276e+00 -1.285404e-01 1.987994e+00 7.147580e-01 8.514885e-02 -4.249433e-01 -1.496204e-01 2.818093e-01 1.203487e-01 -6.073316e-01 -4.420330e-01 -1.406531e-01 1.603031e-01 5.093133e-01 3.347531e-01 -4.041983e-02 2.952766e-01
<VARIANCE> 25
 2.837927e+01 3.550758e+01 4.376701e+01 6.339727e+01 5.782299e+01 6.153004e+01 4.445435e+01 4.665985e+01 4.438187e+01 4.603452e+01 3.686113e+01 3.249733e+01 5.579238e-01 9.633060e-01 1.396090e+00 1.826277e+00 1.583154e+00 2.003756e+00 1.982185e+00 1.856537e+00 2.013892e+00 2.006657e+00 1.751121e+00 1.508502e+00 5.828047e-01
<GCONST> 9.591582e+01
<STATE> 4
<MEAN> 25
 5.895019e+00 -4.724988e+00 -1.197292e+00 3.906052e+00 3.870449e+00 -6.545651e+00 -8.215060e+00 -6.679025e+00 -4.172563e+00 5.337154e-01 9.279272e-01 -6.742178e-01 -3.232698e-01 7.992764e-01 3.300467e-01 -6.339286e-02 7.912491e-02 1.004552e+00 6.088396e-01 3.772415e-01 3.436322e-01 -1.313366e-01 -2.720630e-01 -1.298955e-01 -7.956876e-01
<VARIANCE> 25
 2.029749e+01 3.066547e+01 3.368494e+01 5.057070e+01 4.296806e+01 5.593891e+01 3.659196e+01 3.710094e+01 4.034227e+01 3.575679e+01 3.262199e+01 2.925796e+01 5.569103e-01 1.011105e+00 1.171097e+00 1.448238e+00 1.440968e+00 2.011663e+00 1.814593e+00 1.739066e+00 1.905525e+00 1.867028e+00 1.539982e+00 1.274082e+00 7.538318e-01
<GCONST> 9.278246e+01
~t "T_e"
<ENDHMM>
~h "g-e+t"
<BEGINHMM>
<NUMSTATES> 5
<STATE> 2
<MEAN> 25
 4.917822e+00 -3.046909e+00 -7.860230e-01 1.961976e+00 3.296882e+00 -3.095960e+00 -4.445966e+00 -4.378197e+00 -4.194638e+00 -1.446952e+00 1.146220e-01 1.648807e-01 1.062938e+00 -1.285595e+00 -6.981800e-01 4.423747e-01 5.001229e-01 -1.895295e+00 -1.787762e+00 -1.308817e+00 -1.084860e+00 1.344622e-01 6.617222e-01 3.701210e-01 1.670173e+00
<VARIANCE> 25
 3.577217e+01 3.706077e+01 4.774310e+01 6.015227e+01 4.925949e+01 6.036604e+01 5.010396e+01 4.977269e+01 4.858726e+01 3.950971e+01 3.013842e+01 2.473536e+01 2.384392e+00 2.958043e+00 2.685448e+00 3.858023e+00 3.340221e+00 5.064232e+00 4.063103e+00 3.681123e+00 4.037725e+00 4.174648e+00 3.332788e+00 2.898063e+00 2.226966e+00
<GCONST> 1.068105e+02
<STATE> 3
<MEAN> 25
 7.191195e+00 -7.001473e+00 -2.328277e+00 2.836691e+00 3.888689e+00 -7.911126e+00 -8.482172e+00 -6.657192e+00 -5.470276e+00 -1.285404e-01 1.987994e+00 7.147580e-01 8.514885e-02 -4.249433e-01 -1.496204e-01 2.818093e-01 1.203487e-01 -6.073316e-01 -4.420330e-01 -1.406531e-01 1.603031e-01 5.093133e-01 3.347531e-01 -4.041983e-02 2.952766e-01
<VARIANCE> 25
 2.837927e+01 3.550758e+01 4.376701e+01 6.339727e+01 5.782299e+01 6.153004e+01 4.445435e+01 4.665985e+01 4.438187e+01 4.603452e+01 3.686113e+01 3.249733e+01 5.579238e-01 9.633060e-01 1.396090e+00 1.826277e+00 1.583154e+00 2.003756e+00 1.982185e+00 1.856537e+00 2.013892e+00 2.006657e+00 1.751121e+00 1.508502e+00 5.828047e-01
<GCONST> 9.591582e+01
<STATE> 4
<MEAN> 25
 5.895019e+00 -4.724988e+00 -1.197292e+00 3.906052e+00 3.870449e+00 -6.545651e+00 -8.215060e+00 -6.679025e+00 -4.172563e+00 5.337154e-01 9.279272e-01 -6.742178e-01 -3.232698e-01 7.992764e-01 3.300467e-01 -6.339286e-02 7.912491e-02 1.004552e+00 6.088396e-01 3.772415e-01 3.436322e-01 -1.313366e-01 -2.720630e-01 -1.298955e-01 -7.956876e-01
<VARIANCE> 25
 2.029749e+01 3.066547e+01 3.368494e+01 5.057070e+01 4.296806e+01 5.593891e+01 3.659196e+01 3.710094e+01 4.034227e+01 3.575679e+01 3.262199e+01 2.925796e+01 5.569103e-01 1.011105e+00 1.171097e+00 1.448238e+00 1.440968e+00 2.011663e+00 1.814593e+00 1.739066e+00 1.905525e+00 1.867028e+00 1.539982e+00 1.274082e+00 7.538318e-01
<GCONST> 9.278246e+01
~t "T_e"
<ENDHMM>
~h "ny-o+l"
<BEGINHMM>
<NUMSTATES> 5
<STATE> 2
<MEAN> 25
 8.202134e+00 8.756948e-01 -1.556870e+00 -2.412576e+00 -4.135490e+00 -5.283045e+00 -1.325630e+00 5.514442e-01 -3.256593e+00 -4.464030e+00 -3.179199e+00 -1.018459e+00 8.533680e-01 5.628624e-02 -4.272498e-01 -1.163086e+00 -1.742013e+00 -1.833407e+00 -1.006363e-01 8.327968e-01 2.565329e-01 -1.784475e-01 -2.551433e-01 1.000556e-01 7.841955e-01
<VARIANCE> 25
 2.727819e+01 4.614404e+01 4.546624e+01 5.624189e+01 6.257309e+01 6.102062e+01 4.518742e+01 4.939813e+01 5.469617e+01 4.219932e+01 3.056493e+01 2.847985e+01 1.604221e+00 2.714622e+00 2.414845e+00 3.306103e+00 3.399673e+00 4.293542e+00 4.410888e+00 3.910635e+00 3.812121e+00 3.509329e+00 2.851977e+00 2.694980e+00 1.552250e+00
<GCONST> 1.055529e+02
<STATE> 3
<MEAN> 25
 9.608891e+00 1.841884e+00 -1.624231e+00 -4.843653e+00 -1.056682e+01 -1.047259e+01 -3.275502e-01 4.228262e+00 -8.981493e-01 -3.707518e+00 -3.771726e+00 -1.847208e+00 -1.603226e-01 3.746803e-01 2.492852e-02 -5.283350e-02 -1.316152e-01 2.060792e-01 2.320018e-01 3.473101e-01 4.636069e-01 2.421327e-01 -1.011645e-03 -9.001540e-02 -4.208844e-01
<VARIANCE> 25
 2.191664e+01 3.832346e+01 3.536129e+01 4.552036e+01 5.146196e+01 5.402416e+01 4.532333e+01 4.316967e+01 5.194213e+01 3.791486e+01 2.724122e+01 2.477335e+01 5.759985e-01 1.296905e+00 1.329783e+00 1.436117e+00 2.015944e+00 2.854960e+00 1.984985e+00 2.227589e+00 2.343580e+00 2.045362e+00 1.638120e+00 1.449960e+00 1.066268e+00
<GCONST> 9.576168e+01
<STATE> 4
<MEAN> 25
 5.920141e+00 4.729104e+00 -6.619071e-01 -3.592440e+00 -6.668617e+00 -4.437122e+00 3.776827e-01 3.175261e+00 9.050462e-01 -1.454790e+00 -2.326509e+00 -1.249121e+00 -6.257654e-01 -3.906129e-02 1.678127e-01 4.218079e-01 7.039407e-01 9.980335e-01 2.885799e-01 -2.038472e-01 -1.773957e-02 1.877047e-01 2.155907e-01 8.154663e-02 -5.345345e-01
<VARIANCE> 25
 2.381943e+01 3.168683e+01 3.073319e+01 3.372535e+01 3.205265e+01 4.222814e+01 3.201194e+01 3.300840e+01 3.498757e+01 3.150789e+01 2.243595e+01 1.901501e+01 4.852379e-01 7.335701e-01 1.011674e+00 1.084659e+00 1.496157e+00 1.967000e+00 1.648281e+00 1.688958e+00 1.686677e+00 1.518985e+00 1.305284e+00 1.193857e+00 3.831035e-01
<GCONST> 8.833953e+01
~t "T_o"
<ENDHMM>
~h "ny-o+r"
<BEGINHMM>
<NUMSTATES> 5
<STATE> 2
<MEAN> 25
 8.202134e+00 8.756948e-01 -1.556870e+00 -2.412576e+00 -4.135490e+00 -5.283045e+00 -1.325630e+00 5.514442e-01 -3.256593e+00 -4.464030e+00 -3.179199e+00 -1.018459e+00 8.533680e-01 5.628624e-02 -4.272498e-01 -1.163086e+00 -1.742013e+00 -1.833407e+00 -1.006363e-01 8.327968e-01 2.565329e-01 -1.784475e-01 -2.551433e-01 1.000556e-01 7.841955e-01
<VARIANCE> 25
 2.727819e+01 4.614404e+01 4.546624e+01 5.624189e+01 6.257309e+01 6.102062e+01 4.518742e+01 4.939813e+01 5.469617e+01 4.219932e+01 3.056493e+01 2.847985e+01 1.604221e+00 2.714622e+00 2.414845e+00 3.306103e+00 3.399673e+00 4.293542e+00 4.410888e+00 3.910635e+00 3.812121e+00 3.509329e+00 2.851977e+00 2.694980e+00 1.552250e+00
<GCONST> 1.055529e+02
<STATE> 3
<MEAN> 25
 9.608891e+00 1.841884e+00 -1.624231e+00 -4.843653e+00 -1.056682e+01 -1.047259e+01 -3.275502e-01 4.228262e+00 -8.981493e-01 -3.707518e+00 -3.771726e+00 -1.847208e+00 -1.603226e-01 3.746803e-01 2.492852e-02 -5.283350e-02 -1.316152e-01 2.060792e-01 2.320018e-01 3.473101e-01 4.636069e-01 2.421327e-01 -1.011645e-03 -9.001540e-02 -4.208844e-01
<VARIANCE> 25
 2.191664e+01 3.832346e+01 3.536129e+01 4.552036e+01 5.146196e+01 5.402416e+01 4.532333e+01 4.316967e+01 5.194213e+01 3.791486e+01 2.724122e+01 2.477335e+01 5.759985e-01 1.296905e+00 1.329783e+00 1.436117e+00 2.015944e+00 2.854960e+00 1.984985e+00 2.227589e+00 2.343580e+00 2.045362e+00 1.638120e+00 1.449960e+00 1.066268e+00
<GCONST> 9.576168e+01
<STATE> 4
<MEAN> 25
 5.920141e+00 4.729104e+00 -6.619071e-01 -3.592440e+00 -6.668617e+00 -4.437122e+00 3.776827e-01 3.175261e+00 9.050462e-01 -1.454790e+00 -2.326509e+00 -1.249121e+00 -6.257654e-01 -3.906129e-02 1.678127e-01 4.218079e-01 7.039407e-01 9.980335e-01 2.885799e-01 -2.038472e-01 -1.773957e-02 1.877047e-01 2.155907e-01 8.154663e-02 -5.345345e-01
<VARIANCE> 25
 2.381943e+01 3.168683e+01 3.073319e+01 3.372535e+01 3.205265e+01 4.222814e+01 3.201194e+01 3.300840e+01 3.498757e+01 3.150789e+01 2.243595e+01 1.901501e+01 4.852379e-01 7.335701e-01 1.011674e+00 1.084659e+00 1.496157e+00 1.967000e+00 1.648281e+00 1.688958e+00 1.686677e+00 1.518985e+00 1.305284e+00 1.193857e+00 3.831035e-01
<GCONST> 8.833953e+01
~t "T_o"
<ENDHMM>
~h "ny-o+s"
<BEGINHMM>
<NUMSTATES> 5
<STATE> 2
<MEAN> 25
 8.202134e+00 8.756948e-01 -1.556870e+00 -2.412576e+00 -4.135490e+00 -5.283045e+00 -1.325630e+00 5.514442e-01 -3.256593e+00 -4.464030e+00 -3.179199e+00 -1.018459e+00 8.533680e-01 5.628624e-02 -4.272498e-01 -1.163086e+00 -1.742013e+00 -1.833407e+00 -1.006363e-01 8.327968e-01 2.565329e-01 -1.784475e-01 -2.551433e-01 1.000556e-01 7.841955e-01
<VARIANCE> 25
 2.727819e+01 4.614404e+01 4.546624e+01 5.624189e+01 6.257309e+01 6.102062e+01 4.518742e+01 4.939813e+01 5.469617e+01 4.219932e+01 3.056493e+01 2.847985e+01 1.604221e+00 2.714622e+00 2.414845e+00 3.306103e+00 3.399673e+00 4.293542e+00 4.410888e+00 3.910635e+00 3.812121e+00 3.509329e+00 2.851977e+00 2.694980e+00 1.552250e+00
<GCONST> 1.055529e+02
<STATE> 3
<MEAN> 25
 9.608891e+00 1.841884e+00 -1.624231e+00 -4.843653e+00 -1.056682e+01 -1.047259e+01 -3.275502e-01 4.228262e+00 -8.981493e-01 -3.707518e+00 -3.771726e+00 -1.847208e+00 -1.603226e-01 3.746803e-01 2.492852e-02 -5.283350e-02 -1.316152e-01 2.060792e-01 2.320018e-01 3.473101e-01 4.636069e-01 2.421327e-01 -1.011645e-03 -9.001540e-02 -4.208844e-01
<VARIANCE> 25
 2.191664e+01 3.832346e+01 3.536129e+01 4.552036e+01 5.146196e+01 5.402416e+01 4.532333e+01 4.316967e+01 5.194213e+01 3.791486e+01 2.724122e+01 2.477335e+01 5.759985e-01 1.296905e+00 1.329783e+00 1.436117e+00 2.015944e+00 2.854960e+00 1.984985e+00 2.227589e+00 2.343580e+00 2.045362e+00 1.638120e+00 1.449960e+00 1.066268e+00
<GCONST> 9.576168e+01
<STATE> 4
<MEAN> 25
 5.920141e+00 4.729104e+00 -6.619071e-01 -3.592440e+00 -6.668617e+00 -4.437122e+00 3.776827e-01 3.175261e+00 9.050462e-01 -1.454790e+00 -2.326509e+00 -1.249121e+00 -6.257654e-01 -3.906129e-02 1.678127e-01 4.218079e-01 7.039407e-01 9.980335e-01 2.885799e-01 -2.038472e-01 -1.773957e-02 1.877047e-01 2.155907e-01 8.154663e-02 -5.345345e-01
<VARIANCE> 25
 2.381943e+01 3.168683e+01 3.073319e+01 3.372535e+01 3.205265e+01 4.222814e+01 3.201194e+01 3.300840e+01 3.498757e+01 3.150789e+01 2.243595e+01 1.901501e+01 4.852379e-01 7.335701e-01 1.011674e+00 1.084659e+00 1.496157e+00 1.967000e+00 1.648281e+00 1.688958e+00 1.686677e+00 1.518985e+00 1.305284e+00 1.193857e+00 3.831035e-01
<GCONST> 8.833953e+01
~t "T_o"
<ENDHMM>
~h "a-e+ch"
<BEGINHMM>
<NUMSTATES> 5
<STATE> 2
<MEAN> 25
 4.917822e+00 -3.046909e+00 -7.860230e-01 1.961976e+00 3.296882e+00 -3.095960e+00 -4.445966e+00 -4.378197e+00 -4.194638e+00 -1.446952e+00 1.146220e-01 1.648807e-01 1.062938e+00 -1.285595e+00 -6.981800e-01 4.423747e-01 5.001229e-01 -1.895295e+00 -1.787762e+00 -1.308817e+00 -1.084860e+00 1.344622e-01 6.617222e-01 3.701210e-01 1.670173e+00
<VARIANCE> 25
 3.577217e+01 3.706077e+01 4.774310e+01 6.015227e+01 4.925949e+01 6.036604e+01 5.010396e+01 4.977269e+01 4.858726e+01 3.950971e+01 3.013842e+01 2.473536e+01 2.384392e+00 2.958043e+00 2.685448e+00 3.858023e+00 3.340221e+00 5.064232e+00 4.063103e+00 3.681123e+00 4.037725e+00 4.174648e+00 3.332788e+00 2.898063e+00 2.226966e+00
<GCONST> 1.068105e+02
<STATE> 3
<MEAN> 25
 7.191195e+00 -7.001473e+00 -2.328277e+00 2.836691e+00 3.888689e+00 -7.911126e+00 -8.482172e+00 -6.657192e+00 -5.470276e+00 -1.285404e-01 1.987994e+00 7.147580e-01 8.514885e-02 -4.249433e-01 -1.496204e-01 2.818093e-01 1.203487e-01 -6.073316e-01 -4.420330e-01 -1.406531e-01 1.603031e-01 5.093133e-01 3.347531e-01 -4.041983e-02 2.952766e-01
<VARIANCE> 25
 2.837927e+01 3.550758e+01 4.376701e+01 6.339727e+01 5.782299e+01 6.153004e+01 4.445435e+01 4.665985e+01 4.438187e+01 4.603452e+01 3.686113e+01 3.249733e+01 5.579238e-01 9.633060e-01 1.396090e+00 1.826277e+00 1.583154e+00 2.003756e+00 1.982185e+00 1.856537e+00 2.013892e+00 2.006657e+00 1.751121e+00 1.508502e+00 5.828047e-01
<GCONST> 9.591582e+01
<STATE> 4
<MEAN> 25
 5.895019e+00 -4.724988e+00 -1.197292e+00 3.906052e+00 3.870449e+00 -6.545651e+00 -8.215060e+00 -6.679025e+00 -4.172563e+00 5.337154e-01 9.279272e-01 -6.742178e-01 -3.232698e-01 7.992764e-01 3.300467e-01 -6.339286e-02 7.912491e-02 1.004552e+00 6.088396e-01 3.772415e-01 3.436322e-01 -1.313366e-01 -2.720630e-01 -1.298955e-01 -7.956876e-01
<VARIANCE> 25
 2.029749e+01 3.066547e+01 3.368494e+01 5.057070e+01 4.296806e+01 5.593891e+01 3.659196e+01 3.710094e+01 4.034227e+01 3.575679e+01 3.262199e+01 2.925796e+01 5.569103e-01 1.011105e+00 1.171097e+00 1.448238e+00 1.440968e+00 2.011663e+00 1.814593e+00 1.739066e+00 1.905525e+00 1.867028e+00 1.539982e+00 1.274082e+00 7.538318e-01
<GCONST> 9.278246e+01
~t "T_e"
<ENDHMM>
~h "t-a+b"
<BEGINHMM>
<NUMSTATES> 5
<STATE> 2
<MEAN> 25
 8.084209e+00 -3.246555e+00 -4.886938e+00 -2.890126e+00 -1.922659e+00 -4.591505e+00 -1.062124e+00 -1.533606e+00 -3.011539e+00 -1.419097e+00 7.822737e-01 1.974153e+00 8.531939e-01 -1.219489e+00 -1.591901e+00 -1.511451e+00 -1.099942e+00 -1.081241e+00 3.296968e-01 2.435892e-01 2.131322e-01 7.433307e-01 1.096173e+00 1.076555e+00 1.531909e+00
<VARIANCE> 25
 3.102556e+01 3.982352e+01 4.648204e+01 6.052976e+01 4.865224e+01 5.364120e+01 4.957391e+01 5.206113e+01 4.994263e+01 4.377484e+01 3.566540e+01 3.010361e+01 2.105191e+00 2.133569e+00 2.607650e+00 3.361774e+00 2.917656e+00 3.954443e+00 3.398865e+00 3.319243e+00 3.668817e+00 4.076825e+00 3.093344e+00 2.673295e+00 1.675560e+00
<GCONST> 1.052759e+02
<STATE> 3
<MEAN> 25
 9.462610e+00 -6.897775e+00 -8.743549e+00 -6.083593e+00 -4.604442e+00 -5.470979e+00 1.397076e+00 -2.830499e-01 -1.629562e+00 7.007640e-01 2.659651e+00 3.340820e+00 3.290816e-02 -1.735238e-01 -3.625012e-01 -3.627358e-01 -1.769637e-01 2.254089e-01 4.766614e-01 2.827543e-01 2.371980e-01 1.767752e-01 8.445666e-02 6.974697e-02 8.193482e-02
<VARIANCE> 25
 2.840129e+01 3.570125e+01 4.138834e+01 4.038225e+01 4.118876e+01 4.148624e+01 4.739182e+01 4.747406e+01 4.473821e+01 4.189992e+01 3.449903e+01 2.805832e+01 3.302394e-01 8.424883e-01 9.393210e-01 1.242460e+00 1.324397e+00 1.496400e+00 1.901740e+00 1.780651e+00 1.803969e+00 1.726919e+00 1.430944e+00 1.179275e+00 3.783611e-01
<GCONST> 9.133002e+01
<STATE> 4
<MEAN> 25
 8.177530e+00 -2.680661e+00 -7.293503e+00 -5.932261e+00 -3.758124e+00 -2.794274e+00 1.176165e+00 -3.390664e-01 -1.368642e+00 2.573896e-01 2.133668e+00 3.287408e+00 -4.538044e-01 8.704351e-01 7.276899e-01 4.679444e-01 4.150407e-01 5.706517e-01 -1.937626e-01 -1.382255e-01 1.753797e-02 -1.629017e-01 -2.942949e-01 -3.140077e-01 -8.826797e-01
<VARIANCE> 25
 2.215926e+01 3.099335e+01 3.486272e+01 3.668752e+01 3.283007e+01 3.965223e+01 3.500597e+01 3.826480e+01 3.512437e+01 3.170736e+01 2.563973e+01 2.200531e+01 5.861269e-01 9.910762e-01 1.080531e+00 1.252255e+00 1.395680e+00 1.835312e+00 1.787168e+00 1.826652e+00 1.993582e+00 1.853269e+00 1.609923e+00 1.318195e+00 6.483233e-01
<GCONST> 9.086413e+01
~t "T_a"
<ENDHMM>
~h "t-a+d"
<BEGINHMM>
<NUMSTATES> 5
<STATE> 2
<MEAN> 25
 8.084209e+00 -3.246555e+00 -4.886938e+00 -2.890126e+00 -1.922659e+00 -4.591505e+00 -1.062124e+00 -1.533606e+00 -3.011539e+00 -1.419097e+00 7.822737e-01 1.974153e+00 8.531939e-01 -1.219489e+00 -1.591901e+00 -1.511451e+00 -1.099942e+00 -1.081241e+00 3.296968e-01 2.435892e-01 2.131322e-01 7.433307e-01 1.096173e+00 1.076555e+00 1.531909e+00
<VARIANCE> 25
 3.102556e+01 3.982352e+01 4.648204e+01 6.052976e+01 4.865224e+01 5.364120e+01 4.957391e+01 5.206113e+01 4.994263e+01 4.377484e+01 3.566540e+01 3.010361e+01 2.105191e+00 2.133569e+00 2.607650e+00 3.361774e+00 2.917656e+00 3.954443e+00 3.398865e+00 3.319243e+00 3.668817e+00 4.076825e+00 3.093344e+00 2.673295e+00 1.675560e+00
<GCONST> 1.052759e+02
<STATE> 3
<MEAN> 25
 9.462610e+00 -6.897775e+00 -8.743549e+00 -6.083593e+00 -4.604442e+00 -5.470979e+00 1.397076e+00 -2.830499e-01 -1.629562e+00 7.007640e-01 2.659651e+00 3.340820e+00 3.290816e-02 -1.735238e-01 -3.625012e-01 -3.627358e-01 -1.769637e-01 2.254089e-01 4.766614e-01 2.827543e-01 2.371980e-01 1.767752e-01 8.445666e-02 6.974697e-02 8.193482e-02
<VARIANCE> 25
 2.840129e+01 3.570125e+01 4.138834e+01 4.038225e+01 4.118876e+01 4.148624e+01 4.739182e+01 4.747406e+01 4.473821e+01 4.189992e+01 3.449903e+01 2.805832e+01 3.302394e-01 8.424883e-01 9.393210e-01 1.242460e+00 1.324397e+00 1.496400e+00 1.901740e+00 1.780651e+00 1.803969e+00 1.726919e+00 1.430944e+00 1.179275e+00 3.783611e-01
<GCONST> 9.133002e+01
<STATE> 4
<MEAN> 25
 8.177530e+00 -2.680661e+00 -7.293503e+00 -5.932261e+00 -3.758124e+00 -2.794274e+00 1.176165e+00 -3.390664e-01 -1.368642e+00 2.573896e-01 2.133668e+00 3.287408e+00 -4.538044e-01 8.704351e-01 7.276899e-01 4.679444e-01 4.150407e-01 5.706517e-01 -1.937626e-01 -1.382255e-01 1.753797e-02 -1.629017e-01 -2.942949e-01 -3.140077e-01 -8.826797e-01
<VARIANCE> 25
 2.215926e+01 3.099335e+01 3.486272e+01 3.668752e+01 3.283007e+01 3.965223e+01 3.500597e+01 3.826480e+01 3.512437e+01 3.170736e+01 2.563973e+01 2.200531e+01 5.861269e-01 9.910762e-01 1.080531e+00 1.252255e+00 1.395680e+00 1.835312e+00 1.787168e+00 1.826652e+00 1.993582e+00 1.853269e+00 1.609923e+00 1.318195e+00 6.483233e-01
<GCONST> 9.086413e+01
~t "T_a"
<ENDHMM>
~h "t-a+k"
<BEGINHMM>
<NUMSTATES> 5
<STATE> 2
<MEAN> 25
 8.084209e+00 -3.246555e+00 -4.886938e+00 -2.890126e+00 -1.922659e+00 -4.591505e+00 -1.062124e+00 -1.533606e+00 -3.011539e+00 -1.419097e+00 7.822737e-01 1.974153e+00 8.531939e-01 -1.219489e+00 -1.591901e+00 -1.511451e+00 -1.099942e+00 -1.081241e+00 3.296968e-01 2.435892e-01 2.131322e-01 7.433307e-01 1.096173e+00 1.076555e+00 1.531909e+00
<VARIANCE> 25
 3.102556e+01 3.982352e+01 4.648204e+01 6.052976e+01 4.865224e+01 5.364120e+01 4.957391e+01 5.206113e+01 4.994263e+01 4.377484e+01 3.566540e+01 3.010361e+01 2.105191e+00 2.133569e+00 2.607650e+00 3.361774e+00 2.917656e+00 3.954443e+00 3.398865e+00 3.319243e+00 3.668817e+00 4.076825e+00 3.093344e+00 2.673295e+00 1.675560e+00
<GCONST> 1.052759e+02
<STATE> 3
<MEAN> 25
 9.462610e+00 -6.897775e+00 -8.743549e+00 -6.083593e+00 -4.604442e+00 -5.470979e+00 1.397076e+00 -2.830499e-01 -1.629562e+00 7.007640e-01 2.659651e+00 3.340820e+00 3.290816e-02 -1.735238e-01 -3.625012e-01 -3.627358e-01 -1.769637e-01 2.254089e-01 4.766614e-01 2.827543e-01 2.371980e-01 1.767752e-01 8.445666e-02 6.974697e-02 8.193482e-02
<VARIANCE> 25
 2.840129e+01 3.570125e+01 4.138834e+01 4.038225e+01 4.118876e+01 4.148624e+01 4.739182e+01 4.747406e+01 4.473821e+01 4.189992e+01 3.449903e+01 2.805832e+01 3.302394e-01 8.424883e-01 9.393210e-01 1.242460e+00 1.324397e+00 1.496400e+00 1.901740e+00 1.780651e+00 1.803969e+00 1.726919e+00 1.430944e+00 1.179275e+00 3.783611e-01
<GCONST> 9.133002e+01
<STATE> 4
<MEAN> 25
 8.177530e+00 -2.680661e+00 -7.293503e+00 -5.932261e+00 -3.758124e+00 -2.794274e+00 1.176165e+00 -3.390664e-01 -1.368642e+00 2.573896e-01 2.133668e+00 3.287408e+00 -4.538044e-01 8.704351e-01 7.276899e-01 4.679444e-01 4.150407e-01 5.706517e-01 -1.937626e-01 -1.382255e-01 1.753797e-02 -1.629017e-01 -2.942949e-01 -3.140077e-01 -8.826797e-01
<VARIANCE> 25
 2.215926e+01 3.099335e+01 3.486272e+01 3.668752e+01 3.283007e+01 3.965223e+01 3.500597e+01 3.826480e+01 3.512437e+01 3.170736e+01 2.563973e+01 2.200531e+01 5.861269e-01 9.910762e-01 1.080531e+00 1.252255e+00 1.395680e+00 1.835312e+00 1.787168e+00 1.826652e+00 1.993582e+00 1.853269e+00 1.609923e+00 1.318195e+00 6.483233e-01
<GCONST> 9.086413e+01
~t "T_a"
<ENDHMM>
~h "t-a+l"
<BEGINHMM>
<NUMSTATES> 5
<STATE> 2
<MEAN> 25
 8.084209e+00 -3.246555e+00 -4.886938e+00 -2.890126e+00 -1.922659e+00 -4.591505e+00 -1.062124e+00 -1.533606e+00 -3.011539e+00 -1.419097e+00 7.822737e-01 1.974153e+00 8.531939e-01 -1.219489e+00 -1.591901e+00 -1.511451e+00 -1.099942e+00 -1.081241e+00 3.296968e-01 2.435892e-01 2.131322e-01 7.433307e-01 1.096173e+00 1.076555e+00 1.531909e+00
<VARIANCE> 25
 3.102556e+01 3.982352e+01 4.648204e+01 6.052976e+01 4.865224e+01 5.364120e+01 4.957391e+01 5.206113e+01 4.994263e+01 4.377484e+01 3.566540e+01 3.010361e+01 2.105191e+00 2.133569e+00 2.607650e+00 3.361774e+00 2.917656e+00 3.954443e+00 3.398865e+00 3.319243e+00 3.668817e+00 4.076825e+00 3.093344e+00 2.673295e+00 1.675560e+00
<GCONST> 1.052759e+02
<STATE> 3
<MEAN> 25
 9.462610e+00 -6.897775e+00 -8.743549e+00 -6.083593e+00 -4.604442e+00 -5.470979e+00 1.397076e+00 -2.830499e-01 -1.629562e+00 7.007640e-01 2.659651e+00 3.340820e+00 3.290816e-02 -1.735238e-01 -3.625012e-01 -3.627358e-01 -1.769637e-01 2.254089e-01 4.766614e-01 2.827543e-01 2.371980e-01 1.767752e-01 8.445666e-02 6.974697e-02 8.193482e-02
<VARIANCE> 25
 2.840129e+01 3.570125e+01 4.138834e+01 4.038225e+01 4.118876e+01 4.148624e+01 4.739182e+01 4.747406e+01 4.473821e+01 4.189992e+01 3.449903e+01 2.805832e+01 3.302394e-01 8.424883e-01 9.393210e-01 1.242460e+00 1.324397e+00 1.496400e+00 1.901740e+00 1.780651e+00 1.803969e+00 1.726919e+00 1.430944e+00 1.179275e+00 3.783611e-01
<GCONST> 9.133002e+01
<STATE> 4
<MEAN> 25
 8.177530e+00 -2.680661e+00 -7.293503e+00 -5.932261e+00 -3.758124e+00 -2.794274e+00 1.176165e+00 -3.390664e-01 -1.368642e+00 2.573896e-01 2.133668e+00 3.287408e+00 -4.538044e-01 8.704351e-01 7.276899e-01 4.679444e-01 4.150407e-01 5.706517e-01 -1.937626e-01 -1.382255e-01 1.753797e-02 -1.629017e-01 -2.942949e-01 -3.140077e-01 -8.826797e-01
<VARIANCE> 25
 2.215926e+01 3.099335e+01 3.486272e+01 3.668752e+01 3.283007e+01 3.965223e+01 3.500597e+01 3.826480e+01 3.512437e+01 3.170736e+01 2.563973e+01 2.200531e+01 5.861269e-01 9.910762e-01 1.080531e+00 1.252255e+00 1.395680e+00 1.835312e+00 1.787168e+00 1.826652e+00 1.993582e+00 1.853269e+00 1.609923e+00 1.318195e+00 6.483233e-01
<GCONST> 9.086413e+01
~t "T_a"
<ENDHMM>
~h "t-a+m"
<BEGINHMM>
<NUMSTATES> 5
<STATE> 2
<MEAN> 25
 8.084209e+00 -3.246555e+00 -4.886938e+00 -2.890126e+00 -1.922659e+00 -4.591505e+00 -1.062124e+00 -1.533606e+00 -3.011539e+00 -1.419097e+00 7.822737e-01 1.974153e+00 8.531939e-01 -1.219489e+00 -1.591901e+00 -1.511451e+00 -1.099942e+00 -1.081241e+00 3.296968e-01 2.435892e-01 2.131322e-01 7.433307e-01 1.096173e+00 1.076555e+00 1.531909e+00
<VARIANCE> 25
 3.102556e+01 3.982352e+01 4.648204e+01 6.052976e+01 4.865224e+01 5.364120e+01 4.957391e+01 5.206113e+01 4.994263e+01 4.377484e+01 3.566540e+01 3.010361e+01 2.105191e+00 2.133569e+00 2.607650e+00 3.361774e+00 2.917656e+00 3.954443e+00 3.398865e+00 3.319243e+00 3.668817e+00 4.076825e+00 3.093344e+00 2.673295e+00 1.675560e+00
<GCONST> 1.052759e+02
<STATE> 3
<MEAN> 25
 9.462610e+00 -6.897775e+00 -8.743549e+00 -6.083593e+00 -4.604442e+00 -5.470979e+00 1.397076e+00 -2.830499e-01 -1.629562e+00 7.007640e-01 2.659651e+00 3.340820e+00 3.290816e-02 -1.735238e-01 -3.625012e-01 -3.627358e-01 -1.769637e-01 2.254089e-01 4.766614e-01 2.827543e-01 2.371980e-01 1.767752e-01 8.445666e-02 6.974697e-02 8.193482e-02
<VARIANCE> 25
 2.840129e+01 3.570125e+01 4.138834e+01 4.038225e+01 4.118876e+01 4.148624e+01 4.739182e+01 4.747406e+01 4.473821e+01 4.189992e+01 3.449903e+01 2.805832e+01 3.302394e-01 8.424883e-01 9.393210e-01 1.242460e+00 1.324397e+00 1.496400e+00 1.901740e+00 1.780651e+00 1.803969e+00 1.726919e+00 1.430944e+00 1.179275e+00 3.783611e-01
<GCONST> 9.133002e+01
<STATE> 4
<MEAN> 25
 8.177530e+00 -2.680661e+00 -7.293503e+00 -5.932261e+00 -3.758124e+00 -2.794274e+00 1.176165e+00 -3.390664e-01 -1.368642e+00 2.573896e-01 2.133668e+00 3.287408e+00 -4.538044e-01 8.704351e-01 7.276899e-01 4.679444e-01 4.150407e-01 5.706517e-01 -1.937626e-01 -1.382255e-01 1.753797e-02 -1.629017e-01 -2.942949e-01 -3.140077e-01 -8.826797e-01
<VARIANCE> 25
 2.215926e+01 3.099335e+01 3.486272e+01 3.668752e+01 3.283007e+01 3.965223e+01 3.500597e+01 3.826480e+01 3.512437e+01 3.170736e+01 2.563973e+01 2.200531e+01 5.861269e-01 9.910762e-01 1.080531e+00 1.252255e+00 1.395680e+00 1.835312e+00 1.787168e+00 1.826652e+00 1.993582e+00 1.853269e+00 1.609923e+00 1.318195e+00 6.483233e-01
<GCONST> 9.086413e+01
~t "T_a"
<ENDHMM>
~h "t-a+n"
<BEGINHMM>
<NUMSTATES> 5
<STATE> 2
<MEAN> 25
 8.084209e+00 -3.246555e+00 -4.886938e+00 -2.890126e+00 -1.922659e+00 -4.591505e+00 -1.062124e+00 -1.533606e+00 -3.011539e+00 -1.419097e+00 7.822737e-01 1.974153e+00 8.531939e-01 -1.219489e+00 -1.591901e+00 -1.511451e+00 -1.099942e+00 -1.081241e+00 3.296968e-01 2.435892e-01 2.131322e-01 7.433307e-01 1.096173e+00 1.076555e+00 1.531909e+00
<VARIANCE> 25
 3.102556e+01 3.982352e+01 4.648204e+01 6.052976e+01 4.865224e+01 5.364120e+01 4.957391e+01 5.206113e+01 4.994263e+01 4.377484e+01 3.566540e+01 3.010361e+01 2.105191e+00 2.133569e+00 2.607650e+00 3.361774e+00 2.917656e+00 3.954443e+00 3.398865e+00 3.319243e+00 3.668817e+00 4.076825e+00 3.093344e+00 2.673295e+00 1.675560e+00
<GCONST> 1.052759e+02
<STATE> 3
<MEAN> 25
 9.462610e+00 -6.897775e+00 -8.743549e+00 -6.083593e+00 -4.604442e+00 -5.470979e+00 1.397076e+00 -2.830499e-01 -1.629562e+00 7.007640e-01 2.659651e+00 3.340820e+00 3.290816e-02 -1.735238e-01 -3.625012e-01 -3.627358e-01 -1.769637e-01 2.254089e-01 4.766614e-01 2.827543e-01 2.371980e-01 1.767752e-01 8.445666e-02 6.974697e-02 8.193482e-02
<VARIANCE> 25
 2.840129e+01 3.570125e+01 4.138834e+01 4.038225e+01 4.118876e+01 4.148624e+01 4.739182e+01 4.747406e+01 4.473821e+01 4.189992e+01 3.449903e+01 2.805832e+01 3.302394e-01 8.424883e-01 9.393210e-01 1.242460e+00 1.324397e+00 1.496400e+00 1.901740e+00 1.780651e+00 1.803969e+00 1.726919e+00 1.430944e+00 1.179275e+00 3.783611e-01
<GCONST> 9.133002e+01
<STATE> 4
<MEAN> 25
 8.177530e+00 -2.680661e+00 -7.293503e+00 -5.932261e+00 -3.758124e+00 -2.794274e+00 1.176165e+00 -3.390664e-01 -1.368642e+00 2.573896e-01 2.133668e+00 3.287408e+00 -4.538044e-01 8.704351e-01 7.276899e-01 4.679444e-01 4.150407e-01 5.706517e-01 -1.937626e-01 -1.382255e-01 1.753797e-02 -1.629017e-01 -2.942949e-01 -3.140077e-01 -8.826797e-01
<VARIANCE> 25
 2.215926e+01 3.099335e+01 3.486272e+01 3.668752e+01 3.283007e+01 3.965223e+01 3.500597e+01 3.826480e+01 3.512437e+01 3.170736e+01 2.563973e+01 2.200531e+01 5.861269e-01 9.910762e-01 1.080531e+00 1.252255e+00 1.395680e+00 1.835312e+00 1.787168e+00 1.826652e+00 1.993582e+00 1.853269e+00 1.609923e+00 1.318195e+00 6.483233e-01
<GCONST> 9.086413e+01
~t "T_a"
<ENDHMM>
~h "t-a+p"
<BEGINHMM>
<NUMSTATES> 5
<STATE> 2
<MEAN> 25
 8.084209e+00 -3.246555e+00 -4.886938e+00 -2.890126e+00 -1.922659e+00 -4.591505e+00 -1.062124e+00 -1.533606e+00 -3.011539e+00 -1.419097e+00 7.822737e-01 1.974153e+00 8.531939e-01 -1.219489e+00 -1.591901e+00 -1.511451e+00 -1.099942e+00 -1.081241e+00 3.296968e-01 2.435892e-01 2.131322e-01 7.433307e-01 1.096173e+00 1.076555e+00 1.531909e+00
<VARIANCE> 25
 3.102556e+01 3.982352e+01 4.648204e+01 6.052976e+01 4.865224e+01 5.364120e+01 4.957391e+01 5.206113e+01 4.994263e+01 4.377484e+01 3.566540e+01 3.010361e+01 2.105191e+00 2.133569e+00 2.607650e+00 3.361774e+00 2.917656e+00 3.954443e+00 3.398865e+00 3.319243e+00 3.668817e+00 4.076825e+00 3.093344e+00 2.673295e+00 1.675560e+00
<GCONST> 1.052759e+02
<STATE> 3
<MEAN> 25
 9.462610e+00 -6.897775e+00 -8.743549e+00 -6.083593e+00 -4.604442e+00 -5.470979e+00 1.397076e+00 -2.830499e-01 -1.629562e+00 7.007640e-01 2.659651e+00 3.340820e+00 3.290816e-02 -1.735238e-01 -3.625012e-01 -3.627358e-01 -1.769637e-01 2.254089e-01 4.766614e-01 2.827543e-01 2.371980e-01 1.767752e-01 8.445666e-02 6.974697e-02 8.193482e-02
<VARIANCE> 25
 2.840129e+01 3.570125e+01 4.138834e+01 4.038225e+01 4.118876e+01 4.148624e+01 4.739182e+01 4.747406e+01 4.473821e+01 4.189992e+01 3.449903e+01 2.805832e+01 3.302394e-01 8.424883e-01 9.393210e-01 1.242460e+00 1.324397e+00 1.496400e+00 1.901740e+00 1.780651e+00 1.803969e+00 1.726919e+00 1.430944e+00 1.179275e+00 3.783611e-01
<GCONST> 9.133002e+01
<STATE> 4
<MEAN> 25
 8.177530e+00 -2.680661e+00 -7.293503e+00 -5.932261e+00 -3.758124e+00 -2.794274e+00 1.176165e+00 -3.390664e-01 -1.368642e+00 2.573896e-01 2.133668e+00 3.287408e+00 -4.538044e-01 8.704351e-01 7.276899e-01 4.679444e-01 4.150407e-01 5.706517e-01 -1.937626e-01 -1.382255e-01 1.753797e-02 -1.629017e-01 -2.942949e-01 -3.140077e-01 -8.826797e-01
<VARIANCE> 25
 2.215926e+01 3.099335e+01 3.486272e+01 3.668752e+01 3.283007e+01 3.965223e+01 3.500597e+01 3.826480e+01 3.512437e+01 3.170736e+01 2.563973e+01 2.200531e+01 5.861269e-01 9.910762e-01 1.080531e+00 1.252255e+00 1.395680e+00 1.835312e+00 1.787168e+00 1.826652e+00 1.993582e+00 1.853269e+00 1.609923e+00 1.318195e+00 6.483233e-01
<GCONST> 9.086413e+01
~t "T_a"
<ENDHMM>
~h "t-a+r"
<BEGINHMM>
<NUMSTATES> 5
<STATE> 2
<MEAN> 25
 8.084209e+00 -3.246555e+00 -4.886938e+00 -2.890126e+00 -1.922659e+00 -4.591505e+00 -1.062124e+00 -1.533606e+00 -3.011539e+00 -1.419097e+00 7.822737e-01 1.974153e+00 8.531939e-01 -1.219489e+00 -1.591901e+00 -1.511451e+00 -1.099942e+00 -1.081241e+00 3.296968e-01 2.435892e-01 2.131322e-01 7.433307e-01 1.096173e+00 1.076555e+00 1.531909e+00
<VARIANCE> 25
 3.102556e+01 3.982352e+01 4.648204e+01 6.052976e+01 4.865224e+01 5.364120e+01 4.957391e+01 5.206113e+01 4.994263e+01 4.377484e+01 3.566540e+01 3.010361e+01 2.105191e+00 2.133569e+00 2.607650e+00 3.361774e+00 2.917656e+00 3.954443e+00 3.398865e+00 3.319243e+00 3.668817e+00 4.076825e+00 3.093344e+00 2.673295e+00 1.675560e+00
<GCONST> 1.052759e+02
<STATE> 3
<MEAN> 25
 9.462610e+00 -6.897775e+00 -8.743549e+00 -6.083593e+00 -4.604442e+00 -5.470979e+00 1.397076e+00 -2.830499e-01 -1.629562e+00 7.007640e-01 2.659651e+00 3.340820e+00 3.290816e-02 -1.735238e-01 -3.625012e-01 -3.627358e-01 -1.769637e-01 2.254089e-01 4.766614e-01 2.827543e-01 2.371980e-01 1.767752e-01 8.445666e-02 6.974697e-02 8.193482e-02
<VARIANCE> 25
 2.840129e+01 3.570125e+01 4.138834e+01 4.038225e+01 4.118876e+01 4.148624e+01 4.739182e+01 4.747406e+01 4.473821e+01 4.189992e+01 3.449903e+01 2.805832e+01 3.302394e-01 8.424883e-01 9.393210e-01 1.242460e+00 1.324397e+00 1.496400e+00 1.901740e+00 1.780651e+00 1.803969e+00 1.726919e+00 1.430944e+00 1.179275e+00 3.783611e-01
<GCONST> 9.133002e+01
<STATE> 4
<MEAN> 25
 8.177530e+00 -2.680661e+00 -7.293503e+00 -5.932261e+00 -3.758124e+00 -2.794274e+00 1.176165e+00 -3.390664e-01 -1.368642e+00 2.573896e-01 2.133668e+00 3.287408e+00 -4.538044e-01 8.704351e-01 7.276899e-01 4.679444e-01 4.150407e-01 5.706517e-01 -1.937626e-01 -1.382255e-01 1.753797e-02 -1.629017e-01 -2.942949e-01 -3.140077e-01 -8.826797e-01
<VARIANCE> 25
 2.215926e+01 3.099335e+01 3.486272e+01 3.668752e+01 3.283007e+01 3.965223e+01 3.500597e+01 3.826480e+01 3.512437e+01 3.170736e+01 2.563973e+01 2.200531e+01 5.861269e-01 9.910762e-01 1.080531e+00 1.252255e+00 1.395680e+00 1.835312e+00 1.787168e+00 1.826652e+00 1.993582e+00 1.853269e+00 1.609923e+00 1.318195e+00 6.483233e-01
<GCONST> 9.086413e+01
~t "T_a"
<ENDHMM>
~h "t-a+s"
<BEGINHMM>
<NUMSTATES> 5
<STATE> 2
<MEAN> 25
 8.084209e+00 -3.246555e+00 -4.886938e+00 -2.890126e+00 -1.922659e+00 -4.591505e+00 -1.062124e+00 -1.533606e+00 -3.011539e+00 -1.419097e+00 7.822737e-01 1.974153e+00 8.531939e-01 -1.219489e+00 -1.591901e+00 -1.511451e+00 -1.099942e+00 -1.081241e+00 3.296968e-01 2.435892e-01 2.131322e-01 7.433307e-01 1.096173e+00 1.076555e+00 1.531909e+00
<VARIANCE> 25
 3.102556e+01 3.982352e+01 4.648204e+01 6.052976e+01 4.865224e+01 5.364120e+01 4.957391e+01 5.206113e+01 4.994263e+01 4.377484e+01 3.566540e+01 3.010361e+01 2.105191e+00 2.133569e+00 2.607650e+00 3.361774e+00 2.917656e+00 3.954443e+00 3.398865e+00 3.319243e+00 3.668817e+00 4.076825e+00 3.093344e+00 2.673295e+00 1.675560e+00
<GCONST> 1.052759e+02
<STATE> 3
<MEAN> 25
 9.462610e+00 -6.897775e+00 -8.743549e+00 -6.083593e+00 -4.604442e+00 -5.470979e+00 1.397076e+00 -2.830499e-01 -1.629562e+00 7.007640e-01 2.659651e+00 3.340820e+00 3.290816e-02 -1.735238e-01 -3.625012e-01 -3.627358e-01 -1.769637e-01 2.254089e-01 4.766614e-01 2.827543e-01 2.371980e-01 1.767752e-01 8.445666e-02 6.974697e-02 8.193482e-02
<VARIANCE> 25
 2.840129e+01 3.570125e+01 4.138834e+01 4.038225e+01 4.118876e+01 4.148624e+01 4.739182e+01 4.747406e+01 4.473821e+01 4.189992e+01 3.449903e+01 2.805832e+01 3.302394e-01 8.424883e-01 9.393210e-01 1.242460e+00 1.324397e+00 1.496400e+00 1.901740e+00 1.780651e+00 1.803969e+00 1.726919e+00 1.430944e+00 1.179275e+00 3.783611e-01
<GCONST> 9.133002e+01
<STATE> 4
<MEAN> 25
 8.177530e+00 -2.680661e+00 -7.293503e+00 -5.932261e+00 -3.758124e+00 -2.794274e+00 1.176165e+00 -3.390664e-01 -1.368642e+00 2.573896e-01 2.133668e+00 3.287408e+00 -4.538044e-01 8.704351e-01 7.276899e-01 4.679444e-01 4.150407e-01 5.706517e-01 -1.937626e-01 -1.382255e-01 1.753797e-02 -1.629017e-01 -2.942949e-01 -3.140077e-01 -8.826797e-01
<VARIANCE> 25
 2.215926e+01 3.099335e+01 3.486272e+01 3.668752e+01 3.283007e+01 3.965223e+01 3.500597e+01 3.826480e+01 3.512437e+01 3.170736e+01 2.563973e+01 2.200531e+01 5.861269e-01 9.910762e-01 1.080531e+00 1.252255e+00 1.395680e+00 1.835312e+00 1.787168e+00 1.826652e+00 1.993582e+00 1.853269e+00 1.609923e+00 1.318195e+00 6.483233e-01
<GCONST> 9.086413e+01
~t "T_a"
<ENDHMM>
~h "o-rr+e"
<BEGINHMM>
<NUMSTATES> 5
<STATE> 2
<MEAN> 25
 3.353537e+00 -9.142436e-01 -3.058184e+00 -3.547527e+00 3.143570e+00 1.554105e+00 -1.617299e+00 -1.135031e+00 7.034200e-01 -1.353892e+00 -9.484147e-01 7.906689e-01 3.572667e-01 9.332132e-02 -3.866347e-01 -8.697939e-02 3.757065e-01 2.881039e-01 -9.380478e-02 -1.033477e-01 -1.545185e-01 -3.527187e-01 -1.557336e-01 4.292154e-02 5.196048e-02
<VARIANCE> 25
 4.300015e+01 5.147916e+01 5.414499e+01 6.460785e+01 4.989538e+01 5.407913e+01 4.206803e+01 4.860925e+01 3.790956e+01 3.987109e+01 3.461342e+01 3.103023e+01 2.915508e+00 4.136422e+00 3.340683e+00 3.983831e+00 3.703060e+00 4.642681e+00 3.783070e+00 3.926247e+00 3.502168e+00 3.444017e+00 3.087563e+00 2.842110e+00 3.238592e+00
<GCONST> 1.080909e+02
<STATE> 3
<MEAN> 25
 7.582133e+00 1.247781e+00 -5.329599e+00 -4.675842e+00 2.104177e+00 2.665906e+00 -1.852962e+00 -2.771921e+00 -1.963075e+00 -2.989711e+00 -2.774907e+00 3.743697e-01 9.248909e-01 6.599494e-01 -7.228659e-01 -7.283572e-01 -1.813637e-01 -1.756126e-01 -3.578639e-01 -5.607713e-01 -5.978424e-01 -4.266687e-01 -3.611438e-01 -8.400698e-02 2.693413e-01
<VARIANCE> 25
 2.256667e+01 2.670186e+01 3.456329e+01 4.313871e+01 3.583524e+01 4.206372e+01 3.763231e+01 3.354306e+01 2.742425e+01 2.760290e+01 2.449686e+01 2.322071e+01 8.681712e-01 1.280364e+00 1.529286e+00 1.913779e+00 2.044108e+00 1.849371e+00 1.987761e+00 2.027984e+00 1.732651e+00 1.687739e+00 1.583756e+00 1.522920e+00 7.689877e-01
<GCONST> 9.268141e+01
<STATE> 4
<MEAN> 25
 1.009247e+01 1.486915e+00 -8.246142e+00 -5.120526e+00 2.065458e+00 1.025245e+00 -3.525442e+00 -4.038950e+00 -2.868468e+00 -3.264583e+00 -2.356816e+00 1.102997e+00 1.186399e-01 -2.301981e-01 -1.140983e-01 1.072073e-01 3.884058e-02 -7.065016e-01 -3.659014e-01 -8.380543e-02 -9.820130e-02 1.017236e-01 2.038886e-01 1.326848e-01 3.107538e-01
<VARIANCE> 25
 3.007746e+01 2.656600e+01 4.011358e+01 4.749679e+01 3.734233e+01 3.581827e+01 3.574841e+01 3.924471e+01 3.173490e+01 2.907249e+01 2.628150e+01 2.564830e+01 4.615683e-01 8.872818e-01 9.988760e-01 1.540743e+00 1.448741e+00 1.726679e+00 1.611915e+00 1.678023e+00 1.689305e+00 1.443329e+00 1.524528e+00 1.506498e+00 5.601036e-01
<GCONST> 9.056165e+01
~t "T_rr"
<ENDHMM>
~h "o-rr+o"
<BEGINHMM>
<NUMSTATES> 5
<STATE> 2
<MEAN> 25
 3.353537e+00 -9.142436e-01 -3.058184e+00 -3.547527e+00 3.143570e+00 1.554105e+00 -1.617299e+00 -1.135031e+00 7.034200e-01 -1.353892e+00 -9.484147e-01 7.906689e-01 3.572667e-01 9.332132e-02 -3.866347e-01 -8.697939e-02 3.757065e-01 2.881039e-01 -9.380478e-02 -1.033477e-01 -1.545185e-01 -3.527187e-01 -1.557336e-01 4.292154e-02 5.196048e-02
<VARIANCE> 25
 4.300015e+01 5.147916e+01 5.414499e+01 6.460785e+01 4.989538e+01 5.407913e+01 4.206803e+01 4.860925e+01 3.790956e+01 3.987109e+01 3.461342e+01 3.103023e+01 2.915508e+00 4.136422e+00 3.340683e+00 3.983831e+00 3.703060e+00 4.642681e+00 3.783070e+00 3.926247e+00 3.502168e+00 3.444017e+00 3.087563e+00 2.842110e+00 3.238592e+00
<GCONST> 1.080909e+02
<STATE> 3
<MEAN> 25
 7.582133e+00 1.247781e+00 -5.329599e+00 -4.675842e+00 2.104177e+00 2.665906e+00 -1.852962e+00 -2.771921e+00 -1.963075e+00 -2.989711e+00 -2.774907e+00 3.743697e-01 9.248909e-01 6.599494e-01 -7.228659e-01 -7.283572e-01 -1.813637e-01 -1.756126e-01 -3.578639e-01 -5.607713e-01 -5.978424e-01 -4.266687e-01 -3.611438e-01 -8.400698e-02 2.693413e-01
<VARIANCE> 25
 2.256667e+01 2.670186e+01 3.456329e+01 4.313871e+01 3.583524e+01 4.206372e+01 3.763231e+01 3.354306e+01 2.742425e+01 2.760290e+01 2.449686e+01 2.322071e+01 8.681712e-01 1.280364e+00 1.529286e+00 1.913779e+00 2.044108e+00 1.849371e+00 1.987761e+00 2.027984e+00 1.732651e+00 1.687739e+00 1.583756e+00 1.522920e+00 7.689877e-01
<GCONST> 9.268141e+01
<STATE> 4
<MEAN> 25
 1.009247e+01 1.486915e+00 -8.246142e+00 -5.120526e+00 2.065458e+00 1.025245e+00 -3.525442e+00 -4.038950e+00 -2.868468e+00 -3.264583e+00 -2.356816e+00 1.102997e+00 1.186399e-01 -2.301981e-01 -1.140983e-01 1.072073e-01 3.884058e-02 -7.065016e-01 -3.659014e-01 -8.380543e-02 -9.820130e-02 1.017236e-01 2.038886e-01 1.326848e-01 3.107538e-01
<VARIANCE> 25
 3.007746e+01 2.656600e+01 4.011358e+01 4.749679e+01 3.734233e+01 3.581827e+01 3.574841e+01 3.924471e+01 3.173490e+01 2.907249e+01 2.628150e+01 2.564830e+01 4.615683e-01 8.872818e-01 9.988760e-01 1.540743e+00 1.448741e+00 1.726679e+00 1.611915e+00 1.678023e+00 1.689305e+00 1.443329e+00 1.524528e+00 1.506498e+00 5.601036e-01
<GCONST> 9.056165e+01
~t "T_rr"
<ENDHMM>
~h "g-i+a"
<BEGINHMM>
<NUMSTATES> 5
<STATE> 2
<MEAN> 25
 2.824880e+00 -2.961581e+00 4.292364e+00 7.499251e+00 7.346193e+00 -2.067250e+00 -5.297520e+00 -2.873806e+00 -2.378581e+00 -1.973293e+00 -2.520489e+00 -3.736685e+00 1.015099e+00 -9.724852e-01 2.479329e-01 2.179622e+00 1.426837e+00 -2.128228e+00 -2.309814e+00 -3.848035e-01 -7.270547e-01 -7.560874e-01 -6.794949e-01 -8.365397e-01 1.175898e+00
<VARIANCE> 25
 3.374600e+01 3.967356e+01 6.750194e+01 6.375350e+01 5.781096e+01 6.437442e+01 4.980933e+01 4.415491e+01 4.445846e+01 3.540117e+01 3.356274e+01 2.704606e+01 3.132528e+00 4.137255e+00 3.621446e+00 4.487921e+00 4.215056e+00 5.312013e+00 4.005538e+00 3.824685e+00 4.409300e+00 4.209664e+00 3.923692e+00 2.984154e+00 1.617640e+00
<GCONST> 1.086541e+02
<STATE> 3
<MEAN> 25
 3.691633e+00 -6.378765e+00 6.166086e+00 1.236009e+01 7.380941e+00 -9.047977e+00 -9.580333e+00 -1.629763e+00 -3.102339e+00 -4.599288e+00 -4.548250e+00 -5.048493e+00 8.359629e-02 -2.991736e-01 1.296623e-01 4.305927e-01 9.667514e-03 -8.290642e-01 -5.818837e-01 1.603395e-01 8.957740e-02 -1.876646e-01 -1.591199e-01 -1.092843e-01 2.681427e-01
<VARIANCE> 25
 2.149308e+01 3.103732e+01 4.970968e+01 5.873264e+01 7.158559e+01 6.920425e+01 3.966159e+01 4.495304e+01 4.204121e+01 4.275245e+01 4.102441e+01 2.954641e+01 6.639252e-01 9.264812e-01 1.883231e+00 1.858640e+00 1.558079e+00 2.146437e+00 1.929194e+00 2.097977e+00 1.840118e+00 1.884095e+00 1.595546e+00 1.333590e+00 5.259222e-01
<GCONST> 9.574519e+01
<STATE> 4
<MEAN> 25
 4.036044e+00 -4.218312e+00 4.209880e+00 1.037407e+01 7.996428e+00 -6.247262e+00 -9.419474e+00 -3.331409e+00 -2.663913e+00 -2.918104e+00 -3.142705e+00 -4.376024e+00 3.821991e-02 8.336469e-01 -6.000085e-01 -1.181883e+00 -5.675405e-01 1.117856e+00 8.718380e-01 -2.187419e-01 -3.897155e-02 3.511441e-01 4.869802e-01 5.886047e-01 -5.325214e-01
<VARIANCE> 25
 1.972391e+01 3.227742e+01 4.309776e+01 5.167957e+01 5.495691e+01 6.691110e+01 3.850472e+01 4.351723e+01 4.154246e+01 3.556070e+01 3.517086e+01 2.803684e+01 6.999541e-01 1.390189e+00 1.663853e+00 1.824908e+00 1.964548e+00 2.784639e+00 2.501812e+00 2.236512e+00 2.341234e+00 2.148965e+00 1.947036e+00 1.699689e+00 1.056007e+00
<GCONST> 9.730878e+01
~t "T_i"
<ENDHMM>
~h "g-i+e"
<BEGINHMM>
<NUMSTATES> 5
<STATE> 2
<MEAN> 25
 2.824880e+00 -2.961581e+00 4.292364e+00 7.499251e+00 7.346193e+00 -2.067250e+00 -5.297520e+00 -2.873806e+00 -2.378581e+00 -1.973293e+00 -2.520489e+00 -3.736685e+00 1.015099e+00 -9.724852e-01 2.479329e-01 2.179622e+00 1.426837e+00 -2.128228e+00 -2.309814e+00 -3.848035e-01 -7.270547e-01 -7.560874e-01 -6.794949e-01 -8.365397e-01 1.175898e+00
<VARIANCE> 25
 3.374600e+01 3.967356e+01 6.750194e+01 6.375350e+01 5.781096e+01 6.437442e+01 4.980933e+01 4.415491e+01 4.445846e+01 3.540117e+01 3.356274e+01 2.704606e+01 3.132528e+00 4.137255e+00 3.621446e+00 4.487921e+00 4.215056e+00 5.312013e+00 4.005538e+00 3.824685e+00 4.409300e+00 4.209664e+00 3.923692e+00 2.984154e+00 1.617640e+00
<GCONST> 1.086541e+02
<STATE> 3
<MEAN> 25
 3.691633e+00 -6.378765e+00 6.166086e+00 1.236009e+01 7.380941e+00 -9.047977e+00 -9.580333e+00 -1.629763e+00 -3.102339e+00 -4.599288e+00 -4.548250e+00 -5.048493e+00 8.359629e-02 -2.991736e-01 1.296623e-01 4.305927e-01 9.667514e-03 -8.290642e-01 -5.818837e-01 1.603395e-01 8.957740e-02 -1.876646e-01 -1.591199e-01 -1.092843e-01 2.681427e-01
<VARIANCE> 25
 2.149308e+01 3.103732e+01 4.970968e+01 5.873264e+01 7.158559e+01 6.920425e+01 3.966159e+01 4.495304e+01 4.204121e+01 4.275245e+01 4.102441e+01 2.954641e+01 6.639252e-01 9.264812e-01 1.883231e+00 1.858640e+00 1.558079e+00 2.146437e+00 1.929194e+00 2.097977e+00 1.840118e+00 1.884095e+00 1.595546e+00 1.333590e+00 5.259222e-01
<GCONST> 9.574519e+01
<STATE> 4
<MEAN> 25
 4.036044e+00 -4.218312e+00 4.209880e+00 1.037407e+01 7.996428e+00 -6.247262e+00 -9.419474e+00 -3.331409e+00 -2.663913e+00 -2.918104e+00 -3.142705e+00 -4.376024e+00 3.821991e-02 8.336469e-01 -6.000085e-01 -1.181883e+00 -5.675405e-01 1.117856e+00 8.718380e-01 -2.187419e-01 -3.897155e-02 3.511441e-01 4.869802e-01 5.886047e-01 -5.325214e-01
<VARIANCE> 25
 1.972391e+01 3.227742e+01 4.309776e+01 5.167957e+01 5.495691e+01 6.691110e+01 3.850472e+01 4.351723e+01 4.154246e+01 3.556070e+01 3.517086e+01 2.803684e+01 6.999541e-01 1.390189e+00 1.663853e+00 1.824908e+00 1.964548e+00 2.784639e+00 2.501812e+00 2.236512e+00 2.341234e+00 2.148965e+00 1.947036e+00 1.699689e+00 1.056007e+00
<GCONST> 9.730878e+01
~t "T_i"
<ENDHMM>
~h "g-i+r"
<BEGINHMM>
<NUMSTATES> 5
<STATE> 2
<MEAN> 25
 2.824880e+00 -2.961581e+00 4.292364e+00 7.499251e+00 7.346193e+00 -2.067250e+00 -5.297520e+00 -2.873806e+00 -2.378581e+00 -1.973293e+00 -2.520489e+00 -3.736685e+00 1.015099e+00 -9.724852e-01 2.479329e-01 2.179622e+00 1.426837e+00 -2.128228e+00 -2.309814e+00 -3.848035e-01 -7.270547e-01 -7.560874e-01 -6.794949e-01 -8.365397e-01 1.175898e+00
<VARIANCE> 25
 3.374600e+01 3.967356e+01 6.750194e+01 6.375350e+01 5.781096e+01 6.437442e+01 4.980933e+01 4.415491e+01 4.445846e+01 3.540117e+01 3.356274e+01 2.704606e+01 3.132528e+00 4.137255e+00 3.621446e+00 4.487921e+00 4.215056e+00 5.312013e+00 4.005538e+00 3.824685e+00 4.409300e+00 4.209664e+00 3.923692e+00 2.984154e+00 1.617640e+00
<GCONST> 1.086541e+02
<STATE> 3
<MEAN> 25
 3.691633e+00 -6.378765e+00 6.166086e+00 1.236009e+01 7.380941e+00 -9.047977e+00 -9.580333e+00 -1.629763e+00 -3.102339e+00 -4.599288e+00 -4.548250e+00 -5.048493e+00 8.359629e-02 -2.991736e-01 1.296623e-01 4.305927e-01 9.667514e-03 -8.290642e-01 -5.818837e-01 1.603395e-01 8.957740e-02 -1.876646e-01 -1.591199e-01 -1.092843e-01 2.681427e-01
<VARIANCE> 25
 2.149308e+01 3.103732e+01 4.970968e+01 5.873264e+01 7.158559e+01 6.920425e+01 3.966159e+01 4.495304e+01 4.204121e+01 4.275245e+01 4.102441e+01 2.954641e+01 6.639252e-01 9.264812e-01 1.883231e+00 1.858640e+00 1.558079e+00 2.146437e+00 1.929194e+00 2.097977e+00 1.840118e+00 1.884095e+00 1.595546e+00 1.333590e+00 5.259222e-01
<GCONST> 9.574519e+01
<STATE> 4
<MEAN> 25
 4.036044e+00 -4.218312e+00 4.209880e+00 1.037407e+01 7.996428e+00 -6.247262e+00 -9.419474e+00 -3.331409e+00 -2.663913e+00 -2.918104e+00 -3.142705e+00 -4.376024e+00 3.821991e-02 8.336469e-01 -6.000085e-01 -1.181883e+00 -5.675405e-01 1.117856e+00 8.718380e-01 -2.187419e-01 -3.897155e-02 3.511441e-01 4.869802e-01 5.886047e-01 -5.325214e-01
<VARIANCE> 25
 1.972391e+01 3.227742e+01 4.309776e+01 5.167957e+01 5.495691e+01 6.691110e+01 3.850472e+01 4.351723e+01 4.154246e+01 3.556070e+01 3.517086e+01 2.803684e+01 6.999541e-01 1.390189e+00 1.663853e+00 1.824908e+00 1.964548e+00 2.784639e+00 2.501812e+00 2.236512e+00 2.341234e+00 2.148965e+00 1.947036e+00 1.699689e+00 1.056007e+00
<GCONST> 9.730878e+01
~t "T_i"
<ENDHMM>
~h "a-th+a"
<BEGINHMM>
<NUMSTATES> 5
<STATE> 2
<MEAN> 25
 -5.632880e+00 -3.854063e+00 1.516733e+01 -6.320058e+00 2.140140e+00 2.455597e+00 3.235808e+00 -2.117743e+00 -4.823162e-01 1.348089e+00 8.720768e-02 -2.654986e-01 -3.624942e+00 -1.473371e+00 2.833224e+00 -1.734421e+00 -1.021341e-01 6.912473e-01 1.388689e+00 -1.476209e-01 6.915943e-01 5.759441e-01 5.913332e-01 2.648686e-01 5.795045e-01
<VARIANCE> 25
 6.831219e+01 5.101052e+01 9.769680e+01 8.345584e+01 8.229661e+01 6.781025e+01 8.005181e+01 6.789198e+01 6.046149e+01 4.864940e+01 3.799240e+01 2.866057e+01 2.483551e+00 3.884926e+00 3.833339e+00 4.342094e+00 3.744481e+00 5.492457e+00 3.865437e+00 3.177013e+00 3.737395e+00 3.366478e+00 3.085365e+00 2.236720e+00 1.021638e+00
<GCONST> 1.104123e+02
<STATE> 3
<MEAN> 25
 -1.727112e+01 -8.257788e+00 1.949447e+01 -1.180675e+01 1.947106e+00 1.331353e+00 6.016316e+00 -2.654345e+00 1.263386e+00 2.144119e+00 1.879954e+00 3.925450e-01 -1.316139e-01 -5.102527e-01 -3.761988e-01 1.679360e-01 1.177314e-02 -9.135841e-02 -9.154829e-02 -1.859931e-02 1.217610e-01 1.754421e-01 1.592440e-01 1.295594e-02 -6.405007e-02
<VARIANCE> 25
 3.926363e+01 8.026629e+01 8.774121e+01 1.006794e+02 8.994701e+01 7.935870e+01 7.173088e+01 6.903039e+01 6.770055e+01 4.795404e+01 3.895676e+01 2.661696e+01 1.988035e+00 1.045411e+00 1.457392e+00 2.010195e+00 1.328030e+00 1.433358e+00 1.615375e+00 1.621984e+00 1.538399e+00 1.449418e+00 1.211479e+00 1.100959e+00 4.380694e-01
<GCONST> 9.917685e+01
<STATE> 4
<MEAN> 25
 -9.271607e+00 -9.057722e+00 1.468838e+01 -6.365356e+00 1.965114e+00 2.341074e+00 3.013284e+00 -2.966129e+00 2.363478e-03 3.011927e+00 1.883378e+00 8.863983e-02 4.015340e+00 1.801579e+00 -2.265525e+00 2.241422e+00 5.355793e-01 -2.967038e-01 -2.138270e+00 -4.493863e-01 -1.154973e+00 -7.945148e-01 -8.732439e-01 -3.801412e-01 -6.645188e-01
<VARIANCE> 25
 5.233046e+01 6.291172e+01 6.801148e+01 8.587710e+01 6.436635e+01 5.830358e+01 5.761609e+01 5.580789e+01 5.802547e+01 4.261039e+01 3.626220e+01 2.619216e+01 3.238315e+00 3.795416e+00 2.980920e+00 3.903574e+00 4.405891e+00 4.908393e+00 3.968453e+00 3.498078e+00 3.993294e+00 3.501172e+00 3.218621e+00 2.491385e+00 1.196708e+00
<GCONST> 1.092605e+02
~t "T_th"
<ENDHMM>
~h "a-th+e"
<BEGINHMM>
<NUMSTATES> 5
<STATE> 2
<MEAN> 25
 -5.632880e+00 -3.854063e+00 1.516733e+01 -6.320058e+00 2.140140e+00 2.455597e+00 3.235808e+00 -2.117743e+00 -4.823162e-01 1.348089e+00 8.720768e-02 -2.654986e-01 -3.624942e+00 -1.473371e+00 2.833224e+00 -1.734421e+00 -1.021341e-01 6.912473e-01 1.388689e+00 -1.476209e-01 6.915943e-01 5.759441e-01 5.913332e-01 2.648686e-01 5.795045e-01
<VARIANCE> 25
 6.831219e+01 5.101052e+01 9.769680e+01 8.345584e+01 8.229661e+01 6.781025e+01 8.005181e+01 6.789198e+01 6.046149e+01 4.864940e+01 3.799240e+01 2.866057e+01 2.483551e+00 3.884926e+00 3.833339e+00 4.342094e+00 3.744481e+00 5.492457e+00 3.865437e+00 3.177013e+00 3.737395e+00 3.366478e+00 3.085365e+00 2.236720e+00 1.021638e+00
<GCONST> 1.104123e+02
<STATE> 3
<MEAN> 25
 -1.727112e+01 -8.257788e+00 1.949447e+01 -1.180675e+01 1.947106e+00 1.331353e+00 6.016316e+00 -2.654345e+00 1.263386e+00 2.144119e+00 1.879954e+00 3.925450e-01 -1.316139e-01 -5.102527e-01 -3.761988e-01 1.679360e-01 1.177314e-02 -9.135841e-02 -9.154829e-02 -1.859931e-02 1.217610e-01 1.754421e-01 1.592440e-01 1.295594e-02 -6.405007e-02
<VARIANCE> 25
 3.926363e+01 8.026629e+01 8.774121e+01 1.006794e+02 8.994701e+01 7.935870e+01 7.173088e+01 6.903039e+01 6.770055e+01 4.795404e+01 3.895676e+01 2.661696e+01 1.988035e+00 1.045411e+00 1.457392e+00 2.010195e+00 1.328030e+00 1.433358e+00 1.615375e+00 1.621984e+00 1.538399e+00 1.449418e+00 1.211479e+00 1.100959e+00 4.380694e-01
<GCONST> 9.917685e+01
<STATE> 4
<MEAN> 25
 -9.271607e+00 -9.057722e+00 1.468838e+01 -6.365356e+00 1.965114e+00 2.341074e+00 3.013284e+00 -2.966129e+00 2.363478e-03 3.011927e+00 1.883378e+00 8.863983e-02 4.015340e+00 1.801579e+00 -2.265525e+00 2.241422e+00 5.355793e-01 -2.967038e-01 -2.138270e+00 -4.493863e-01 -1.154973e+00 -7.945148e-01 -8.732439e-01 -3.801412e-01 -6.645188e-01
<VARIANCE> 25
 5.233046e+01 6.291172e+01 6.801148e+01 8.587710e+01 6.436635e+01 5.830358e+01 5.761609e+01 5.580789e+01 5.802547e+01 4.261039e+01 3.626220e+01 2.619216e+01 3.238315e+00 3.795416e+00 2.980920e+00 3.903574e+00 4.405891e+00 4.908393e+00 3.968453e+00 3.498078e+00 3.993294e+00 3.501172e+00 3.218621e+00 2.491385e+00 1.196708e+00
<GCONST> 1.092605e+02
~t "T_th"
<ENDHMM>
~h "a-th+i"
<BEGINHMM>
<NUMSTATES> 5
<STATE> 2
<MEAN> 25
 -5.632880e+00 -3.854063e+00 1.516733e+01 -6.320058e+00 2.140140e+00 2.455597e+00 3.235808e+00 -2.117743e+00 -4.823162e-01 1.348089e+00 8.720768e-02 -2.654986e-01 -3.624942e+00 -1.473371e+00 2.833224e+00 -1.734421e+00 -1.021341e-01 6.912473e-01 1.388689e+00 -1.476209e-01 6.915943e-01 5.759441e-01 5.913332e-01 2.648686e-01 5.795045e-01
<VARIANCE> 25
 6.831219e+01 5.101052e+01 9.769680e+01 8.345584e+01 8.229661e+01 6.781025e+01 8.005181e+01 6.789198e+01 6.046149e+01 4.864940e+01 3.799240e+01 2.866057e+01 2.483551e+00 3.884926e+00 3.833339e+00 4.342094e+00 3.744481e+00 5.492457e+00 3.865437e+00 3.177013e+00 3.737395e+00 3.366478e+00 3.085365e+00 2.236720e+00 1.021638e+00
<GCONST> 1.104123e+02
<STATE> 3
<MEAN> 25
 -1.727112e+01 -8.257788e+00 1.949447e+01 -1.180675e+01 1.947106e+00 1.331353e+00 6.016316e+00 -2.654345e+00 1.263386e+00 2.144119e+00 1.879954e+00 3.925450e-01 -1.316139e-01 -5.102527e-01 -3.761988e-01 1.679360e-01 1.177314e-02 -9.135841e-02 -9.154829e-02 -1.859931e-02 1.217610e-01 1.754421e-01 1.592440e-01 1.295594e-02 -6.405007e-02
<VARIANCE> 25
 3.926363e+01 8.026629e+01 8.774121e+01 1.006794e+02 8.994701e+01 7.935870e+01 7.173088e+01 6.903039e+01 6.770055e+01 4.795404e+01 3.895676e+01 2.661696e+01 1.988035e+00 1.045411e+00 1.457392e+00 2.010195e+00 1.328030e+00 1.433358e+00 1.615375e+00 1.621984e+00 1.538399e+00 1.449418e+00 1.211479e+00 1.100959e+00 4.380694e-01
<GCONST> 9.917685e+01
<STATE> 4
<MEAN> 25
 -9.271607e+00 -9.057722e+00 1.468838e+01 -6.365356e+00 1.965114e+00 2.341074e+00 3.013284e+00 -2.966129e+00 2.363478e-03 3.011927e+00 1.883378e+00 8.863983e-02 4.015340e+00 1.801579e+00 -2.265525e+00 2.241422e+00 5.355793e-01 -2.967038e-01 -2.138270e+00 -4.493863e-01 -1.154973e+00 -7.945148e-01 -8.732439e-01 -3.801412e-01 -6.645188e-01
<VARIANCE> 25
 5.233046e+01 6.291172e+01 6.801148e+01 8.587710e+01 6.436635e+01 5.830358e+01 5.761609e+01 5.580789e+01 5.802547e+01 4.261039e+01 3.626220e+01 2.619216e+01 3.238315e+00 3.795416e+00 2.980920e+00 3.903574e+00 4.405891e+00 4.908393e+00 3.968453e+00 3.498078e+00 3.993294e+00 3.501172e+00 3.218621e+00 2.491385e+00 1.196708e+00
<GCONST> 1.092605e+02
~t "T_th"
<ENDHMM>
~h "a-th+o"
<BEGINHMM>
<NUMSTATES> 5
<STATE> 2
<MEAN> 25
 -5.632880e+00 -3.854063e+00 1.516733e+01 -6.320058e+00 2.140140e+00 2.455597e+00 3.235808e+00 -2.117743e+00 -4.823162e-01 1.348089e+00 8.720768e-02 -2.654986e-01 -3.624942e+00 -1.473371e+00 2.833224e+00 -1.734421e+00 -1.021341e-01 6.912473e-01 1.388689e+00 -1.476209e-01 6.915943e-01 5.759441e-01 5.913332e-01 2.648686e-01 5.795045e-01
<VARIANCE> 25
 6.831219e+01 5.101052e+01 9.769680e+01 8.345584e+01 8.229661e+01 6.781025e+01 8.005181e+01 6.789198e+01 6.046149e+01 4.864940e+01 3.799240e+01 2.866057e+01 2.483551e+00 3.884926e+00 3.833339e+00 4.342094e+00 3.744481e+00 5.492457e+00 3.865437e+00 3.177013e+00 3.737395e+00 3.366478e+00 3.085365e+00 2.236720e+00 1.021638e+00
<GCONST> 1.104123e+02
<STATE> 3
<MEAN> 25
 -1.727112e+01 -8.257788e+00 1.949447e+01 -1.180675e+01 1.947106e+00 1.331353e+00 6.016316e+00 -2.654345e+00 1.263386e+00 2.144119e+00 1.879954e+00 3.925450e-01 -1.316139e-01 -5.102527e-01 -3.761988e-01 1.679360e-01 1.177314e-02 -9.135841e-02 -9.154829e-02 -1.859931e-02 1.217610e-01 1.754421e-01 1.592440e-01 1.295594e-02 -6.405007e-02
<VARIANCE> 25
 3.926363e+01 8.026629e+01 8.774121e+01 1.006794e+02 8.994701e+01 7.935870e+01 7.173088e+01 6.903039e+01 6.770055e+01 4.795404e+01 3.895676e+01 2.661696e+01 1.988035e+00 1.045411e+00 1.457392e+00 2.010195e+00 1.328030e+00 1.433358e+00 1.615375e+00 1.621984e+00 1.538399e+00 1.449418e+00 1.211479e+00 1.100959e+00 4.380694e-01
<GCONST> 9.917685e+01
<STATE> 4
<MEAN> 25
 -9.271607e+00 -9.057722e+00 1.468838e+01 -6.365356e+00 1.965114e+00 2.341074e+00 3.013284e+00 -2.966129e+00 2.363478e-03 3.011927e+00 1.883378e+00 8.863983e-02 4.015340e+00 1.801579e+00 -2.265525e+00 2.241422e+00 5.355793e-01 -2.967038e-01 -2.138270e+00 -4.493863e-01 -1.154973e+00 -7.945148e-01 -8.732439e-01 -3.801412e-01 -6.645188e-01
<VARIANCE> 25
 5.233046e+01 6.291172e+01 6.801148e+01 8.587710e+01 6.436635e+01 5.830358e+01 5.761609e+01 5.580789e+01 5.802547e+01 4.261039e+01 3.626220e+01 2.619216e+01 3.238315e+00 3.795416e+00 2.980920e+00 3.903574e+00 4.405891e+00 4.908393e+00 3.968453e+00 3.498078e+00 3.993294e+00 3.501172e+00 3.218621e+00 2.491385e+00 1.196708e+00
<GCONST> 1.092605e+02
~t "T_th"
<ENDHMM>
~h "a-th+t"
<BEGINHMM>
<NUMSTATES> 5
<STATE> 2
<MEAN> 25
 -5.632880e+00 -3.854063e+00 1.516733e+01 -6.320058e+00 2.140140e+00 2.455597e+00 3.235808e+00 -2.117743e+00 -4.823162e-01 1.348089e+00 8.720768e-02 -2.654986e-01 -3.624942e+00 -1.473371e+00 2.833224e+00 -1.734421e+00 -1.021341e-01 6.912473e-01 1.388689e+00 -1.476209e-01 6.915943e-01 5.759441e-01 5.913332e-01 2.648686e-01 5.795045e-01
<VARIANCE> 25
 6.831219e+01 5.101052e+01 9.769680e+01 8.345584e+01 8.229661e+01 6.781025e+01 8.005181e+01 6.789198e+01 6.046149e+01 4.864940e+01 3.799240e+01 2.866057e+01 2.483551e+00 3.884926e+00 3.833339e+00 4.342094e+00 3.744481e+00 5.492457e+00 3.865437e+00 3.177013e+00 3.737395e+00 3.366478e+00 3.085365e+00 2.236720e+00 1.021638e+00
<GCONST> 1.104123e+02
<STATE> 3
<MEAN> 25
 -1.727112e+01 -8.257788e+00 1.949447e+01 -1.180675e+01 1.947106e+00 1.331353e+00 6.016316e+00 -2.654345e+00 1.263386e+00 2.144119e+00 1.879954e+00 3.925450e-01 -1.316139e-01 -5.102527e-01 -3.761988e-01 1.679360e-01 1.177314e-02 -9.135841e-02 -9.154829e-02 -1.859931e-02 1.217610e-01 1.754421e-01 1.592440e-01 1.295594e-02 -6.405007e-02
<VARIANCE> 25
 3.926363e+01 8.026629e+01 8.774121e+01 1.006794e+02 8.994701e+01 7.935870e+01 7.173088e+01 6.903039e+01 6.770055e+01 4.795404e+01 3.895676e+01 2.661696e+01 1.988035e+00 1.045411e+00 1.457392e+00 2.010195e+00 1.328030e+00 1.433358e+00 1.615375e+00 1.621984e+00 1.538399e+00 1.449418e+00 1.211479e+00 1.100959e+00 4.380694e-01
<GCONST> 9.917685e+01
<STATE> 4
<MEAN> 25
 -9.271607e+00 -9.057722e+00 1.468838e+01 -6.365356e+00 1.965114e+00 2.341074e+00 3.013284e+00 -2.966129e+00 2.363478e-03 3.011927e+00 1.883378e+00 8.863983e-02 4.015340e+00 1.801579e+00 -2.265525e+00 2.241422e+00 5.355793e-01 -2.967038e-01 -2.138270e+00 -4.493863e-01 -1.154973e+00 -7.945148e-01 -8.732439e-01 -3.801412e-01 -6.645188e-01
<VARIANCE> 25
 5.233046e+01 6.291172e+01 6.801148e+01 8.587710e+01 6.436635e+01 5.830358e+01 5.761609e+01 5.580789e+01 5.802547e+01 4.261039e+01 3.626220e+01 2.619216e+01 3.238315e+00 3.795416e+00 2.980920e+00 3.903574e+00 4.405891e+00 4.908393e+00 3.968453e+00 3.498078e+00 3.993294e+00 3.501172e+00 3.218621e+00 2.491385e+00 1.196708e+00
<GCONST> 1.092605e+02
~t "T_th"
<ENDHMM>
~h "a-th+u"
<BEGINHMM>
<NUMSTATES> 5
<STATE> 2
<MEAN> 25
 -5.632880e+00 -3.854063e+00 1.516733e+01 -6.320058e+00 2.140140e+00 2.455597e+00 3.235808e+00 -2.117743e+00 -4.823162e-01 1.348089e+00 8.720768e-02 -2.654986e-01 -3.624942e+00 -1.473371e+00 2.833224e+00 -1.734421e+00 -1.021341e-01 6.912473e-01 1.388689e+00 -1.476209e-01 6.915943e-01 5.759441e-01 5.913332e-01 2.648686e-01 5.795045e-01
<VARIANCE> 25
 6.831219e+01 5.101052e+01 9.769680e+01 8.345584e+01 8.229661e+01 6.781025e+01 8.005181e+01 6.789198e+01 6.046149e+01 4.864940e+01 3.799240e+01 2.866057e+01 2.483551e+00 3.884926e+00 3.833339e+00 4.342094e+00 3.744481e+00 5.492457e+00 3.865437e+00 3.177013e+00 3.737395e+00 3.366478e+00 3.085365e+00 2.236720e+00 1.021638e+00
<GCONST> 1.104123e+02
<STATE> 3
<MEAN> 25
 -1.727112e+01 -8.257788e+00 1.949447e+01 -1.180675e+01 1.947106e+00 1.331353e+00 6.016316e+00 -2.654345e+00 1.263386e+00 2.144119e+00 1.879954e+00 3.925450e-01 -1.316139e-01 -5.102527e-01 -3.761988e-01 1.679360e-01 1.177314e-02 -9.135841e-02 -9.154829e-02 -1.859931e-02 1.217610e-01 1.754421e-01 1.592440e-01 1.295594e-02 -6.405007e-02
<VARIANCE> 25
 3.926363e+01 8.026629e+01 8.774121e+01 1.006794e+02 8.994701e+01 7.935870e+01 7.173088e+01 6.903039e+01 6.770055e+01 4.795404e+01 3.895676e+01 2.661696e+01 1.988035e+00 1.045411e+00 1.457392e+00 2.010195e+00 1.328030e+00 1.433358e+00 1.615375e+00 1.621984e+00 1.538399e+00 1.449418e+00 1.211479e+00 1.100959e+00 4.380694e-01
<GCONST> 9.917685e+01
<STATE> 4
<MEAN> 25
 -9.271607e+00 -9.057722e+00 1.468838e+01 -6.365356e+00 1.965114e+00 2.341074e+00 3.013284e+00 -2.966129e+00 2.363478e-03 3.011927e+00 1.883378e+00 8.863983e-02 4.015340e+00 1.801579e+00 -2.265525e+00 2.241422e+00 5.355793e-01 -2.967038e-01 -2.138270e+00 -4.493863e-01 -1.154973e+00 -7.945148e-01 -8.732439e-01 -3.801412e-01 -6.645188e-01
<VARIANCE> 25
 5.233046e+01 6.291172e+01 6.801148e+01 8.587710e+01 6.436635e+01 5.830358e+01 5.761609e+01 5.580789e+01 5.802547e+01 4.261039e+01 3.626220e+01 2.619216e+01 3.238315e+00 3.795416e+00 2.980920e+00 3.903574e+00 4.405891e+00 4.908393e+00 3.968453e+00 3.498078e+00 3.993294e+00 3.501172e+00 3.218621e+00 2.491385e+00 1.196708e+00
<GCONST> 1.092605e+02
~t "T_th"
<ENDHMM>
~h "t-e+a"
<BEGINHMM>
<NUMSTATES> 5
<STATE> 2
<MEAN> 25
 4.917822e+00 -3.046909e+00 -7.860230e-01 1.961976e+00 3.296882e+00 -3.095960e+00 -4.445966e+00 -4.378197e+00 -4.194638e+00 -1.446952e+00 1.146220e-01 1.648807e-01 1.062938e+00 -1.285595e+00 -6.981800e-01 4.423747e-01 5.001229e-01 -1.895295e+00 -1.787762e+00 -1.308817e+00 -1.084860e+00 1.344622e-01 6.617222e-01 3.701210e-01 1.670173e+00
<VARIANCE> 25
 3.577217e+01 3.706077e+01 4.774310e+01 6.015227e+01 4.925949e+01 6.036604e+01 5.010396e+01 4.977269e+01 4.858726e+01 3.950971e+01 3.013842e+01 2.473536e+01 2.384392e+00 2.958043e+00 2.685448e+00 3.858023e+00 3.340221e+00 5.064232e+00 4.063103e+00 3.681123e+00 4.037725e+00 4.174648e+00 3.332788e+00 2.898063e+00 2.226966e+00
<GCONST> 1.068105e+02
<STATE> 3
<MEAN> 25
 7.191195e+00 -7.001473e+00 -2.328277e+00 2.836691e+00 3.888689e+00 -7.911126e+00 -8.482172e+00 -6.657192e+00 -5.470276e+00 -1.285404e-01 1.987994e+00 7.147580e-01 8.514885e-02 -4.249433e-01 -1.496204e-01 2.818093e-01 1.203487e-01 -6.073316e-01 -4.420330e-01 -1.406531e-01 1.603031e-01 5.093133e-01 3.347531e-01 -4.041983e-02 2.952766e-01
<VARIANCE> 25
 2.837927e+01 3.550758e+01 4.376701e+01 6.339727e+01 5.782299e+01 6.153004e+01 4.445435e+01 4.665985e+01 4.438187e+01 4.603452e+01 3.686113e+01 3.249733e+01 5.579238e-01 9.633060e-01 1.396090e+00 1.826277e+00 1.583154e+00 2.003756e+00 1.982185e+00 1.856537e+00 2.013892e+00 2.006657e+00 1.751121e+00 1.508502e+00 5.828047e-01
<GCONST> 9.591582e+01
<STATE> 4
<MEAN> 25
 5.895019e+00 -4.724988e+00 -1.197292e+00 3.906052e+00 3.870449e+00 -6.545651e+00 -8.215060e+00 -6.679025e+00 -4.172563e+00 5.337154e-01 9.279272e-01 -6.742178e-01 -3.232698e-01 7.992764e-01 3.300467e-01 -6.339286e-02 7.912491e-02 1.004552e+00 6.088396e-01 3.772415e-01 3.436322e-01 -1.313366e-01 -2.720630e-01 -1.298955e-01 -7.956876e-01
<VARIANCE> 25
 2.029749e+01 3.066547e+01 3.368494e+01 5.057070e+01 4.296806e+01 5.593891e+01 3.659196e+01 3.710094e+01 4.034227e+01 3.575679e+01 3.262199e+01 2.925796e+01 5.569103e-01 1.011105e+00 1.171097e+00 1.448238e+00 1.440968e+00 2.011663e+00 1.814593e+00 1.739066e+00 1.905525e+00 1.867028e+00 1.539982e+00 1.274082e+00 7.538318e-01
<GCONST> 9.278246e+01
~t "T_e"
<ENDHMM>
~h "t-e+k"
<BEGINHMM>
<NUMSTATES> 5
<STATE> 2
<MEAN> 25
 4.917822e+00 -3.046909e+00 -7.860230e-01 1.961976e+00 3.296882e+00 -3.095960e+00 -4.445966e+00 -4.378197e+00 -4.194638e+00 -1.446952e+00 1.146220e-01 1.648807e-01 1.062938e+00 -1.285595e+00 -6.981800e-01 4.423747e-01 5.001229e-01 -1.895295e+00 -1.787762e+00 -1.308817e+00 -1.084860e+00 1.344622e-01 6.617222e-01 3.701210e-01 1.670173e+00
<VARIANCE> 25
 3.577217e+01 3.706077e+01 4.774310e+01 6.015227e+01 4.925949e+01 6.036604e+01 5.010396e+01 4.977269e+01 4.858726e+01 3.950971e+01 3.013842e+01 2.473536e+01 2.384392e+00 2.958043e+00 2.685448e+00 3.858023e+00 3.340221e+00 5.064232e+00 4.063103e+00 3.681123e+00 4.037725e+00 4.174648e+00 3.332788e+00 2.898063e+00 2.226966e+00
<GCONST> 1.068105e+02
<STATE> 3
<MEAN> 25
 7.191195e+00 -7.001473e+00 -2.328277e+00 2.836691e+00 3.888689e+00 -7.911126e+00 -8.482172e+00 -6.657192e+00 -5.470276e+00 -1.285404e-01 1.987994e+00 7.147580e-01 8.514885e-02 -4.249433e-01 -1.496204e-01 2.818093e-01 1.203487e-01 -6.073316e-01 -4.420330e-01 -1.406531e-01 1.603031e-01 5.093133e-01 3.347531e-01 -4.041983e-02 2.952766e-01
<VARIANCE> 25
 2.837927e+01 3.550758e+01 4.376701e+01 6.339727e+01 5.782299e+01 6.153004e+01 4.445435e+01 4.665985e+01 4.438187e+01 4.603452e+01 3.686113e+01 3.249733e+01 5.579238e-01 9.633060e-01 1.396090e+00 1.826277e+00 1.583154e+00 2.003756e+00 1.982185e+00 1.856537e+00 2.013892e+00 2.006657e+00 1.751121e+00 1.508502e+00 5.828047e-01
<GCONST> 9.591582e+01
<STATE> 4
<MEAN> 25
 5.895019e+00 -4.724988e+00 -1.197292e+00 3.906052e+00 3.870449e+00 -6.545651e+00 -8.215060e+00 -6.679025e+00 -4.172563e+00 5.337154e-01 9.279272e-01 -6.742178e-01 -3.232698e-01 7.992764e-01 3.300467e-01 -6.339286e-02 7.912491e-02 1.004552e+00 6.088396e-01 3.772415e-01 3.436322e-01 -1.313366e-01 -2.720630e-01 -1.298955e-01 -7.956876e-01
<VARIANCE> 25
 2.029749e+01 3.066547e+01 3.368494e+01 5.057070e+01 4.296806e+01 5.593891e+01 3.659196e+01 3.710094e+01 4.034227e+01 3.575679e+01 3.262199e+01 2.925796e+01 5.569103e-01 1.011105e+00 1.171097e+00 1.448238e+00 1.440968e+00 2.011663e+00 1.814593e+00 1.739066e+00 1.905525e+00 1.867028e+00 1.539982e+00 1.274082e+00 7.538318e-01
<GCONST> 9.278246e+01
~t "T_e"
<ENDHMM>
~h "t-e+m"
<BEGINHMM>
<NUMSTATES> 5
<STATE> 2
<MEAN> 25
 4.917822e+00 -3.046909e+00 -7.860230e-01 1.961976e+00 3.296882e+00 -3.095960e+00 -4.445966e+00 -4.378197e+00 -4.194638e+00 -1.446952e+00 1.146220e-01 1.648807e-01 1.062938e+00 -1.285595e+00 -6.981800e-01 4.423747e-01 5.001229e-01 -1.895295e+00 -1.787762e+00 -1.308817e+00 -1.084860e+00 1.344622e-01 6.617222e-01 3.701210e-01 1.670173e+00
<VARIANCE> 25
 3.577217e+01 3.706077e+01 4.774310e+01 6.015227e+01 4.925949e+01 6.036604e+01 5.010396e+01 4.977269e+01 4.858726e+01 3.950971e+01 3.013842e+01 2.473536e+01 2.384392e+00 2.958043e+00 2.685448e+00 3.858023e+00 3.340221e+00 5.064232e+00 4.063103e+00 3.681123e+00 4.037725e+00 4.174648e+00 3.332788e+00 2.898063e+00 2.226966e+00
<GCONST> 1.068105e+02
<STATE> 3
<MEAN> 25
 7.191195e+00 -7.001473e+00 -2.328277e+00 2.836691e+00 3.888689e+00 -7.911126e+00 -8.482172e+00 -6.657192e+00 -5.470276e+00 -1.285404e-01 1.987994e+00 7.147580e-01 8.514885e-02 -4.249433e-01 -1.496204e-01 2.818093e-01 1.203487e-01 -6.073316e-01 -4.420330e-01 -1.406531e-01 1.603031e-01 5.093133e-01 3.347531e-01 -4.041983e-02 2.952766e-01
<VARIANCE> 25
 2.837927e+01 3.550758e+01 4.376701e+01 6.339727e+01 5.782299e+01 6.153004e+01 4.445435e+01 4.665985e+01 4.438187e+01 4.603452e+01 3.686113e+01 3.249733e+01 5.579238e-01 9.633060e-01 1.396090e+00 1.826277e+00 1.583154e+00 2.003756e+00 1.982185e+00 1.856537e+00 2.013892e+00 2.006657e+00 1.751121e+00 1.508502e+00 5.828047e-01
<GCONST> 9.591582e+01
<STATE> 4
<MEAN> 25
 5.895019e+00 -4.724988e+00 -1.197292e+00 3.906052e+00 3.870449e+00 -6.545651e+00 -8.215060e+00 -6.679025e+00 -4.172563e+00 5.337154e-01 9.279272e-01 -6.742178e-01 -3.232698e-01 7.992764e-01 3.300467e-01 -6.339286e-02 7.912491e-02 1.004552e+00 6.088396e-01 3.772415e-01 3.436322e-01 -1.313366e-01 -2.720630e-01 -1.298955e-01 -7.956876e-01
<VARIANCE> 25
 2.029749e+01 3.066547e+01 3.368494e+01 5.057070e+01 4.296806e+01 5.593891e+01 3.659196e+01 3.710094e+01 4.034227e+01 3.575679e+01 3.262199e+01 2.925796e+01 5.569103e-01 1.011105e+00 1.171097e+00 1.448238e+00 1.440968e+00 2.011663e+00 1.814593e+00 1.739066e+00 1.905525e+00 1.867028e+00 1.539982e+00 1.274082e+00 7.538318e-01
<GCONST> 9.278246e+01
~t "T_e"
<ENDHMM>
~h "t-e+n"
<BEGINHMM>
<NUMSTATES> 5
<STATE> 2
<MEAN> 25
 4.917822e+00 -3.046909e+00 -7.860230e-01 1.961976e+00 3.296882e+00 -3.095960e+00 -4.445966e+00 -4.378197e+00 -4.194638e+00 -1.446952e+00 1.146220e-01 1.648807e-01 1.062938e+00 -1.285595e+00 -6.981800e-01 4.423747e-01 5.001229e-01 -1.895295e+00 -1.787762e+00 -1.308817e+00 -1.084860e+00 1.344622e-01 6.617222e-01 3.701210e-01 1.670173e+00
<VARIANCE> 25
 3.577217e+01 3.706077e+01 4.774310e+01 6.015227e+01 4.925949e+01 6.036604e+01 5.010396e+01 4.977269e+01 4.858726e+01 3.950971e+01 3.013842e+01 2.473536e+01 2.384392e+00 2.958043e+00 2.685448e+00 3.858023e+00 3.340221e+00 5.064232e+00 4.063103e+00 3.681123e+00 4.037725e+00 4.174648e+00 3.332788e+00 2.898063e+00 2.226966e+00
<GCONST> 1.068105e+02
<STATE> 3
<MEAN> 25
 7.191195e+00 -7.001473e+00 -2.328277e+00 2.836691e+00 3.888689e+00 -7.911126e+00 -8.482172e+00 -6.657192e+00 -5.470276e+00 -1.285404e-01 1.987994e+00 7.147580e-01 8.514885e-02 -4.249433e-01 -1.496204e-01 2.818093e-01 1.203487e-01 -6.073316e-01 -4.420330e-01 -1.406531e-01 1.603031e-01 5.093133e-01 3.347531e-01 -4.041983e-02 2.952766e-01
<VARIANCE> 25
 2.837927e+01 3.550758e+01 4.376701e+01 6.339727e+01 5.782299e+01 6.153004e+01 4.445435e+01 4.665985e+01 4.438187e+01 4.603452e+01 3.686113e+01 3.249733e+01 5.579238e-01 9.633060e-01 1.396090e+00 1.826277e+00 1.583154e+00 2.003756e+00 1.982185e+00 1.856537e+00 2.013892e+00 2.006657e+00 1.751121e+00 1.508502e+00 5.828047e-01
<GCONST> 9.591582e+01
<STATE> 4
<MEAN> 25
 5.895019e+00 -4.724988e+00 -1.197292e+00 3.906052e+00 3.870449e+00 -6.545651e+00 -8.215060e+00 -6.679025e+00 -4.172563e+00 5.337154e-01 9.279272e-01 -6.742178e-01 -3.232698e-01 7.992764e-01 3.300467e-01 -6.339286e-02 7.912491e-02 1.004552e+00 6.088396e-01 3.772415e-01 3.436322e-01 -1.313366e-01 -2.720630e-01 -1.298955e-01 -7.956876e-01
<VARIANCE> 25
 2.029749e+01 3.066547e+01 3.368494e+01 5.057070e+01 4.296806e+01 5.593891e+01 3.659196e+01 3.710094e+01 4.034227e+01 3.575679e+01 3.262199e+01 2.925796e+01 5.569103e-01 1.011105e+00 1.171097e+00 1.448238e+00 1.440968e+00 2.011663e+00 1.814593e+00 1.739066e+00 1.905525e+00 1.867028e+00 1.539982e+00 1.274082e+00 7.538318e-01
<GCONST> 9.278246e+01
~t "T_e"
<ENDHMM>
~h "t-e+o"
<BEGINHMM>
<NUMSTATES> 5
<STATE> 2
<MEAN> 25
 4.917822e+00 -3.046909e+00 -7.860230e-01 1.961976e+00 3.296882e+00 -3.095960e+00 -4.445966e+00 -4.378197e+00 -4.194638e+00 -1.446952e+00 1.146220e-01 1.648807e-01 1.062938e+00 -1.285595e+00 -6.981800e-01 4.423747e-01 5.001229e-01 -1.895295e+00 -1.787762e+00 -1.308817e+00 -1.084860e+00 1.344622e-01 6.617222e-01 3.701210e-01 1.670173e+00
<VARIANCE> 25
 3.577217e+01 3.706077e+01 4.774310e+01 6.015227e+01 4.925949e+01 6.036604e+01 5.010396e+01 4.977269e+01 4.858726e+01 3.950971e+01 3.013842e+01 2.473536e+01 2.384392e+00 2.958043e+00 2.685448e+00 3.858023e+00 3.340221e+00 5.064232e+00 4.063103e+00 3.681123e+00 4.037725e+00 4.174648e+00 3.332788e+00 2.898063e+00 2.226966e+00
<GCONST> 1.068105e+02
<STATE> 3
<MEAN> 25
 7.191195e+00 -7.001473e+00 -2.328277e+00 2.836691e+00 3.888689e+00 -7.911126e+00 -8.482172e+00 -6.657192e+00 -5.470276e+00 -1.285404e-01 1.987994e+00 7.147580e-01 8.514885e-02 -4.249433e-01 -1.496204e-01 2.818093e-01 1.203487e-01 -6.073316e-01 -4.420330e-01 -1.406531e-01 1.603031e-01 5.093133e-01 3.347531e-01 -4.041983e-02 2.952766e-01
<VARIANCE> 25
 2.837927e+01 3.550758e+01 4.376701e+01 6.339727e+01 5.782299e+01 6.153004e+01 4.445435e+01 4.665985e+01 4.438187e+01 4.603452e+01 3.686113e+01 3.249733e+01 5.579238e-01 9.633060e-01 1.396090e+00 1.826277e+00 1.583154e+00 2.003756e+00 1.982185e+00 1.856537e+00 2.013892e+00 2.006657e+00 1.751121e+00 1.508502e+00 5.828047e-01
<GCONST> 9.591582e+01
<STATE> 4
<MEAN> 25
 5.895019e+00 -4.724988e+00 -1.197292e+00 3.906052e+00 3.870449e+00 -6.545651e+00 -8.215060e+00 -6.679025e+00 -4.172563e+00 5.337154e-01 9.279272e-01 -6.742178e-01 -3.232698e-01 7.992764e-01 3.300467e-01 -6.339286e-02 7.912491e-02 1.004552e+00 6.088396e-01 3.772415e-01 3.436322e-01 -1.313366e-01 -2.720630e-01 -1.298955e-01 -7.956876e-01
<VARIANCE> 25
 2.029749e+01 3.066547e+01 3.368494e+01 5.057070e+01 4.296806e+01 5.593891e+01 3.659196e+01 3.710094e+01 4.034227e+01 3.575679e+01 3.262199e+01 2.925796e+01 5.569103e-01 1.011105e+00 1.171097e+00 1.448238e+00 1.440968e+00 2.011663e+00 1.814593e+00 1.739066e+00 1.905525e+00 1.867028e+00 1.539982e+00 1.274082e+00 7.538318e-01
<GCONST> 9.278246e+01
~t "T_e"
<ENDHMM>
~h "t-e+r"
<BEGINHMM>
<NUMSTATES> 5
<STATE> 2
<MEAN> 25
 4.917822e+00 -3.046909e+00 -7.860230e-01 1.961976e+00 3.296882e+00 -3.095960e+00 -4.445966e+00 -4.378197e+00 -4.194638e+00 -1.446952e+00 1.146220e-01 1.648807e-01 1.062938e+00 -1.285595e+00 -6.981800e-01 4.423747e-01 5.001229e-01 -1.895295e+00 -1.787762e+00 -1.308817e+00 -1.084860e+00 1.344622e-01 6.617222e-01 3.701210e-01 1.670173e+00
<VARIANCE> 25
 3.577217e+01 3.706077e+01 4.774310e+01 6.015227e+01 4.925949e+01 6.036604e+01 5.010396e+01 4.977269e+01 4.858726e+01 3.950971e+01 3.013842e+01 2.473536e+01 2.384392e+00 2.958043e+00 2.685448e+00 3.858023e+00 3.340221e+00 5.064232e+00 4.063103e+00 3.681123e+00 4.037725e+00 4.174648e+00 3.332788e+00 2.898063e+00 2.226966e+00
<GCONST> 1.068105e+02
<STATE> 3
<MEAN> 25
 7.191195e+00 -7.001473e+00 -2.328277e+00 2.836691e+00 3.888689e+00 -7.911126e+00 -8.482172e+00 -6.657192e+00 -5.470276e+00 -1.285404e-01 1.987994e+00 7.147580e-01 8.514885e-02 -4.249433e-01 -1.496204e-01 2.818093e-01 1.203487e-01 -6.073316e-01 -4.420330e-01 -1.406531e-01 1.603031e-01 5.093133e-01 3.347531e-01 -4.041983e-02 2.952766e-01
<VARIANCE> 25
 2.837927e+01 3.550758e+01 4.376701e+01 6.339727e+01 5.782299e+01 6.153004e+01 4.445435e+01 4.665985e+01 4.438187e+01 4.603452e+01 3.686113e+01 3.249733e+01 5.579238e-01 9.633060e-01 1.396090e+00 1.826277e+00 1.583154e+00 2.003756e+00 1.982185e+00 1.856537e+00 2.013892e+00 2.006657e+00 1.751121e+00 1.508502e+00 5.828047e-01
<GCONST> 9.591582e+01
<STATE> 4
<MEAN> 25
 5.895019e+00 -4.724988e+00 -1.197292e+00 3.906052e+00 3.870449e+00 -6.545651e+00 -8.215060e+00 -6.679025e+00 -4.172563e+00 5.337154e-01 9.279272e-01 -6.742178e-01 -3.232698e-01 7.992764e-01 3.300467e-01 -6.339286e-02 7.912491e-02 1.004552e+00 6.088396e-01 3.772415e-01 3.436322e-01 -1.313366e-01 -2.720630e-01 -1.298955e-01 -7.956876e-01
<VARIANCE> 25
 2.029749e+01 3.066547e+01 3.368494e+01 5.057070e+01 4.296806e+01 5.593891e+01 3.659196e+01 3.710094e+01 4.034227e+01 3.575679e+01 3.262199e+01 2.925796e+01 5.569103e-01 1.011105e+00 1.171097e+00 1.448238e+00 1.440968e+00 2.011663e+00 1.814593e+00 1.739066e+00 1.905525e+00 1.867028e+00 1.539982e+00 1.274082e+00 7.538318e-01
<GCONST> 9.278246e+01
~t "T_e"
<ENDHMM>
~h "t-e+s"
<BEGINHMM>
<NUMSTATES> 5
<STATE> 2
<MEAN> 25
 4.917822e+00 -3.046909e+00 -7.860230e-01 1.961976e+00 3.296882e+00 -3.095960e+00 -4.445966e+00 -4.378197e+00 -4.194638e+00 -1.446952e+00 1.146220e-01 1.648807e-01 1.062938e+00 -1.285595e+00 -6.981800e-01 4.423747e-01 5.001229e-01 -1.895295e+00 -1.787762e+00 -1.308817e+00 -1.084860e+00 1.344622e-01 6.617222e-01 3.701210e-01 1.670173e+00
<VARIANCE> 25
 3.577217e+01 3.706077e+01 4.774310e+01 6.015227e+01 4.925949e+01 6.036604e+01 5.010396e+01 4.977269e+01 4.858726e+01 3.950971e+01 3.013842e+01 2.473536e+01 2.384392e+00 2.958043e+00 2.685448e+00 3.858023e+00 3.340221e+00 5.064232e+00 4.063103e+00 3.681123e+00 4.037725e+00 4.174648e+00 3.332788e+00 2.898063e+00 2.226966e+00
<GCONST> 1.068105e+02
<STATE> 3
<MEAN> 25
 7.191195e+00 -7.001473e+00 -2.328277e+00 2.836691e+00 3.888689e+00 -7.911126e+00 -8.482172e+00 -6.657192e+00 -5.470276e+00 -1.285404e-01 1.987994e+00 7.147580e-01 8.514885e-02 -4.249433e-01 -1.496204e-01 2.818093e-01 1.203487e-01 -6.073316e-01 -4.420330e-01 -1.406531e-01 1.603031e-01 5.093133e-01 3.347531e-01 -4.041983e-02 2.952766e-01
<VARIANCE> 25
 2.837927e+01 3.550758e+01 4.376701e+01 6.339727e+01 5.782299e+01 6.153004e+01 4.445435e+01 4.665985e+01 4.438187e+01 4.603452e+01 3.686113e+01 3.249733e+01 5.579238e-01 9.633060e-01 1.396090e+00 1.826277e+00 1.583154e+00 2.003756e+00 1.982185e+00 1.856537e+00 2.013892e+00 2.006657e+00 1.751121e+00 1.508502e+00 5.828047e-01
<GCONST> 9.591582e+01
<STATE> 4
<MEAN> 25
 5.895019e+00 -4.724988e+00 -1.197292e+00 3.906052e+00 3.870449e+00 -6.545651e+00 -8.215060e+00 -6.679025e+00 -4.172563e+00 5.337154e-01 9.279272e-01 -6.742178e-01 -3.232698e-01 7.992764e-01 3.300467e-01 -6.339286e-02 7.912491e-02 1.004552e+00 6.088396e-01 3.772415e-01 3.436322e-01 -1.313366e-01 -2.720630e-01 -1.298955e-01 -7.956876e-01
<VARIANCE> 25
 2.029749e+01 3.066547e+01 3.368494e+01 5.057070e+01 4.296806e+01 5.593891e+01 3.659196e+01 3.710094e+01 4.034227e+01 3.575679e+01 3.262199e+01 2.925796e+01 5.569103e-01 1.011105e+00 1.171097e+00 1.448238e+00 1.440968e+00 2.011663e+00 1.814593e+00 1.739066e+00 1.905525e+00 1.867028e+00 1.539982e+00 1.274082e+00 7.538318e-01
<GCONST> 9.278246e+01
~t "T_e"
<ENDHMM>
~h "d-i+ch"
<BEGINHMM>
<NUMSTATES> 5
<STATE> 2
<MEAN> 25
 2.824880e+00 -2.961581e+00 4.292364e+00 7.499251e+00 7.346193e+00 -2.067250e+00 -5.297520e+00 -2.873806e+00 -2.378581e+00 -1.973293e+00 -2.520489e+00 -3.736685e+00 1.015099e+00 -9.724852e-01 2.479329e-01 2.179622e+00 1.426837e+00 -2.128228e+00 -2.309814e+00 -3.848035e-01 -7.270547e-01 -7.560874e-01 -6.794949e-01 -8.365397e-01 1.175898e+00
<VARIANCE> 25
 3.374600e+01 3.967356e+01 6.750194e+01 6.375350e+01 5.781096e+01 6.437442e+01 4.980933e+01 4.415491e+01 4.445846e+01 3.540117e+01 3.356274e+01 2.704606e+01 3.132528e+00 4.137255e+00 3.621446e+00 4.487921e+00 4.215056e+00 5.312013e+00 4.005538e+00 3.824685e+00 4.409300e+00 4.209664e+00 3.923692e+00 2.984154e+00 1.617640e+00
<GCONST> 1.086541e+02
<STATE> 3
<MEAN> 25
 3.691633e+00 -6.378765e+00 6.166086e+00 1.236009e+01 7.380941e+00 -9.047977e+00 -9.580333e+00 -1.629763e+00 -3.102339e+00 -4.599288e+00 -4.548250e+00 -5.048493e+00 8.359629e-02 -2.991736e-01 1.296623e-01 4.305927e-01 9.667514e-03 -8.290642e-01 -5.818837e-01 1.603395e-01 8.957740e-02 -1.876646e-01 -1.591199e-01 -1.092843e-01 2.681427e-01
<VARIANCE> 25
 2.149308e+01 3.103732e+01 4.970968e+01 5.873264e+01 7.158559e+01 6.920425e+01 3.966159e+01 4.495304e+01 4.204121e+01 4.275245e+01 4.102441e+01 2.954641e+01 6.639252e-01 9.264812e-01 1.883231e+00 1.858640e+00 1.558079e+00 2.146437e+00 1.929194e+00 2.097977e+00 1.840118e+00 1.884095e+00 1.595546e+00 1.333590e+00 5.259222e-01
<GCONST> 9.574519e+01
<STATE> 4
<MEAN> 25
 4.036044e+00 -4.218312e+00 4.209880e+00 1.037407e+01 7.996428e+00 -6.247262e+00 -9.419474e+00 -3.331409e+00 -2.663913e+00 -2.918104e+00 -3.142705e+00 -4.376024e+00 3.821991e-02 8.336469e-01 -6.000085e-01 -1.181883e+00 -5.675405e-01 1.117856e+00 8.718380e-01 -2.187419e-01 -3.897155e-02 3.511441e-01 4.869802e-01 5.886047e-01 -5.325214e-01
<VARIANCE> 25
 1.972391e+01 3.227742e+01 4.309776e+01 5.167957e+01 5.495691e+01 6.691110e+01 3.850472e+01 4.351723e+01 4.154246e+01 3.556070e+01 3.517086e+01 2.803684e+01 6.999541e-01 1.390189e+00 1.663853e+00 1.824908e+00 1.964548e+00 2.784639e+00 2.501812e+00 2.236512e+00 2.341234e+00 2.148965e+00 1.947036e+00 1.699689e+00 1.056007e+00
<GCONST> 9.730878e+01
~t "T_i"
<ENDHMM>
~h "d-i+ll"
<BEGINHMM>
<NUMSTATES> 5
<STATE> 2
<MEAN> 25
 2.824880e+00 -2.961581e+00 4.292364e+00 7.499251e+00 7.346193e+00 -2.067250e+00 -5.297520e+00 -2.873806e+00 -2.378581e+00 -1.973293e+00 -2.520489e+00 -3.736685e+00 1.015099e+00 -9.724852e-01 2.479329e-01 2.179622e+00 1.426837e+00 -2.128228e+00 -2.309814e+00 -3.848035e-01 -7.270547e-01 -7.560874e-01 -6.794949e-01 -8.365397e-01 1.175898e+00
<VARIANCE> 25
 3.374600e+01 3.967356e+01 6.750194e+01 6.375350e+01 5.781096e+01 6.437442e+01 4.980933e+01 4.415491e+01 4.445846e+01 3.540117e+01 3.356274e+01 2.704606e+01 3.132528e+00 4.137255e+00 3.621446e+00 4.487921e+00 4.215056e+00 5.312013e+00 4.005538e+00 3.824685e+00 4.409300e+00 4.209664e+00 3.923692e+00 2.984154e+00 1.617640e+00
<GCONST> 1.086541e+02
<STATE> 3
<MEAN> 25
 3.691633e+00 -6.378765e+00 6.166086e+00 1.236009e+01 7.380941e+00 -9.047977e+00 -9.580333e+00 -1.629763e+00 -3.102339e+00 -4.599288e+00 -4.548250e+00 -5.048493e+00 8.359629e-02 -2.991736e-01 1.296623e-01 4.305927e-01 9.667514e-03 -8.290642e-01 -5.818837e-01 1.603395e-01 8.957740e-02 -1.876646e-01 -1.591199e-01 -1.092843e-01 2.681427e-01
<VARIANCE> 25
 2.149308e+01 3.103732e+01 4.970968e+01 5.873264e+01 7.158559e+01 6.920425e+01 3.966159e+01 4.495304e+01 4.204121e+01 4.275245e+01 4.102441e+01 2.954641e+01 6.639252e-01 9.264812e-01 1.883231e+00 1.858640e+00 1.558079e+00 2.146437e+00 1.929194e+00 2.097977e+00 1.840118e+00 1.884095e+00 1.595546e+00 1.333590e+00 5.259222e-01
<GCONST> 9.574519e+01
<STATE> 4
<MEAN> 25
 4.036044e+00 -4.218312e+00 4.209880e+00 1.037407e+01 7.996428e+00 -6.247262e+00 -9.419474e+00 -3.331409e+00 -2.663913e+00 -2.918104e+00 -3.142705e+00 -4.376024e+00 3.821991e-02 8.336469e-01 -6.000085e-01 -1.181883e+00 -5.675405e-01 1.117856e+00 8.718380e-01 -2.187419e-01 -3.897155e-02 3.511441e-01 4.869802e-01 5.886047e-01 -5.325214e-01
<VARIANCE> 25
 1.972391e+01 3.227742e+01 4.309776e+01 5.167957e+01 5.495691e+01 6.691110e+01 3.850472e+01 4.351723e+01 4.154246e+01 3.556070e+01 3.517086e+01 2.803684e+01 6.999541e-01 1.390189e+00 1.663853e+00 1.824908e+00 1.964548e+00 2.784639e+00 2.501812e+00 2.236512e+00 2.341234e+00 2.148965e+00 1.947036e+00 1.699689e+00 1.056007e+00
<GCONST> 9.730878e+01
~t "T_i"
<ENDHMM>
~h "d-i+th"
<BEGINHMM>
<NUMSTATES> 5
<STATE> 2
<MEAN> 25
 2.824880e+00 -2.961581e+00 4.292364e+00 7.499251e+00 7.346193e+00 -2.067250e+00 -5.297520e+00 -2.873806e+00 -2.378581e+00 -1.973293e+00 -2.520489e+00 -3.736685e+00 1.015099e+00 -9.724852e-01 2.479329e-01 2.179622e+00 1.426837e+00 -2.128228e+00 -2.309814e+00 -3.848035e-01 -7.270547e-01 -7.560874e-01 -6.794949e-01 -8.365397e-01 1.175898e+00
<VARIANCE> 25
 3.374600e+01 3.967356e+01 6.750194e+01 6.375350e+01 5.781096e+01 6.437442e+01 4.980933e+01 4.415491e+01 4.445846e+01 3.540117e+01 3.356274e+01 2.704606e+01 3.132528e+00 4.137255e+00 3.621446e+00 4.487921e+00 4.215056e+00 5.312013e+00 4.005538e+00 3.824685e+00 4.409300e+00 4.209664e+00 3.923692e+00 2.984154e+00 1.617640e+00
<GCONST> 1.086541e+02
<STATE> 3
<MEAN> 25
 3.691633e+00 -6.378765e+00 6.166086e+00 1.236009e+01 7.380941e+00 -9.047977e+00 -9.580333e+00 -1.629763e+00 -3.102339e+00 -4.599288e+00 -4.548250e+00 -5.048493e+00 8.359629e-02 -2.991736e-01 1.296623e-01 4.305927e-01 9.667514e-03 -8.290642e-01 -5.818837e-01 1.603395e-01 8.957740e-02 -1.876646e-01 -1.591199e-01 -1.092843e-01 2.681427e-01
<VARIANCE> 25
 2.149308e+01 3.103732e+01 4.970968e+01 5.873264e+01 7.158559e+01 6.920425e+01 3.966159e+01 4.495304e+01 4.204121e+01 4.275245e+01 4.102441e+01 2.954641e+01 6.639252e-01 9.264812e-01 1.883231e+00 1.858640e+00 1.558079e+00 2.146437e+00 1.929194e+00 2.097977e+00 1.840118e+00 1.884095e+00 1.595546e+00 1.333590e+00 5.259222e-01
<GCONST> 9.574519e+01
<STATE> 4
<MEAN> 25
 4.036044e+00 -4.218312e+00 4.209880e+00 1.037407e+01 7.996428e+00 -6.247262e+00 -9.419474e+00 -3.331409e+00 -2.663913e+00 -2.918104e+00 -3.142705e+00 -4.376024e+00 3.821991e-02 8.336469e-01 -6.000085e-01 -1.181883e+00 -5.675405e-01 1.117856e+00 8.718380e-01 -2.187419e-01 -3.897155e-02 3.511441e-01 4.869802e-01 5.886047e-01 -5.325214e-01
<VARIANCE> 25
 1.972391e+01 3.227742e+01 4.309776e+01 5.167957e+01 5.495691e+01 6.691110e+01 3.850472e+01 4.351723e+01 4.154246e+01 3.556070e+01 3.517086e+01 2.803684e+01 6.999541e-01 1.390189e+00 1.663853e+00 1.824908e+00 1.964548e+00 2.784639e+00 2.501812e+00 2.236512e+00 2.341234e+00 2.148965e+00 1.947036e+00 1.699689e+00 1.056007e+00
<GCONST> 9.730878e+01
~t "T_i"
<ENDHMM>
~h "g-l+a"
<BEGINHMM>
<NUMSTATES> 5
<STATE> 2
<MEAN> 25
 6.314451e+00 -2.836339e+00 -2.415431e+00 2.781851e+00 1.947059e+00 -2.800302e+00 -2.661815e+00 -2.324516e+00 -3.876258e+00 -3.683601e+00 -1.570764e+00 7.563966e-02 3.129438e-01 4.277349e-01 7.984434e-01 1.918523e+00 1.017305e+00 4.531452e-01 -1.293264e-01 2.709396e-01 -7.299022e-01 -1.606042e+00 -1.354267e+00 -7.730924e-01 -6.160657e-01
<VARIANCE> 25
 3.768519e+01 4.112976e+01 4.717404e+01 6.522243e+01 4.798243e+01 5.569359e+01 4.089912e+01 4.426613e+01 5.019736e+01 4.535135e+01 3.915966e+01 3.028901e+01 1.699836e+00 1.977105e+00 2.316171e+00 3.031282e+00 2.905935e+00 4.508301e+00 3.719640e+00 4.100824e+00 4.742221e+00 3.786747e+00 3.138241e+00 2.508972e+00 2.132987e+00
<GCONST> 1.056931e+02
<STATE> 3
<MEAN> 25
 7.308776e+00 -2.116291e+00 -5.915496e-01 8.047751e+00 4.512689e+00 -2.649817e+00 -3.380396e+00 -8.267048e-01 -5.005058e+00 -7.383716e+00 -4.765788e+00 -2.091391e+00 -2.042886e-01 4.120783e-01 5.339515e-01 7.017787e-01 3.444184e-01 2.565898e-01 1.210279e-01 4.571145e-01 1.694299e-01 -4.738842e-01 -6.538218e-01 -4.505804e-01 -4.639952e-01
<VARIANCE> 25
 2.202492e+01 3.481960e+01 3.887338e+01 6.391379e+01 4.331805e+01 4.796937e+01 4.158508e+01 4.477020e+01 4.591209e+01 3.888554e+01 3.268353e+01 2.532600e+01 8.968565e-01 1.265179e+00 1.520058e+00 2.136260e+00 1.615692e+00 2.971242e+00 2.029787e+00 2.106359e+00 2.521566e+00 2.456026e+00 1.921850e+00 1.679168e+00 9.447469e-01
<GCONST> 9.704557e+01
<STATE> 4
<MEAN> 25
 5.966500e+00 -3.820904e-01 3.151454e-01 7.105481e+00 4.340966e+00 -1.720254e+00 -3.097861e+00 -7.825651e-01 -3.803820e+00 -6.722578e+00 -5.169729e+00 -2.231982e+00 -1.248948e-01 3.641126e-02 -1.620759e-01 -8.538845e-01 -4.337227e-01 -1.165125e-01 1.175181e-01 -1.721042e-01 8.785849e-02 4.827425e-01 5.441091e-01 3.938914e-01 1.508765e-01
<VARIANCE> 25
 2.100273e+01 3.151579e+01 3.614806e+01 5.096074e+01 3.741170e+01 4.566805e+01 3.924998e+01 3.931923e+01 4.211623e+01 3.813666e+01 3.033226e+01 2.373476e+01 8.690925e-01 1.079303e+00 1.530230e+00 2.250370e+00 1.643832e+00 2.437176e+00 1.802907e+00 2.009850e+00 2.136790e+00 2.217616e+00 1.925478e+00 1.643911e+00 9.747648e-01
<GCONST> 9.523684e+01
~t "T_l"
<ENDHMM>
~h "g-l+e"
<BEGINHMM>
<NUMSTATES> 5
<STATE> 2
<MEAN> 25
 6.314451e+00 -2.836339e+00 -2.415431e+00 2.781851e+00 1.947059e+00 -2.800302e+00 -2.661815e+00 -2.324516e+00 -3.876258e+00 -3.683601e+00 -1.570764e+00 7.563966e-02 3.129438e-01 4.277349e-01 7.984434e-01 1.918523e+00 1.017305e+00 4.531452e-01 -1.293264e-01 2.709396e-01 -7.299022e-01 -1.606042e+00 -1.354267e+00 -7.730924e-01 -6.160657e-01
<VARIANCE> 25
 3.768519e+01 4.112976e+01 4.717404e+01 6.522243e+01 4.798243e+01 5.569359e+01 4.089912e+01 4.426613e+01 5.019736e+01 4.535135e+01 3.915966e+01 3.028901e+01 1.699836e+00 1.977105e+00 2.316171e+00 3.031282e+00 2.905935e+00 4.508301e+00 3.719640e+00 4.100824e+00 4.742221e+00 3.786747e+00 3.138241e+00 2.508972e+00 2.132987e+00
<GCONST> 1.056931e+02
<STATE> 3
<MEAN> 25
 7.308776e+00 -2.116291e+00 -5.915496e-01 8.047751e+00 4.512689e+00 -2.649817e+00 -3.380396e+00 -8.267048e-01 -5.005058e+00 -7.383716e+00 -4.765788e+00 -2.091391e+00 -2.042886e-01 4.120783e-01 5.339515e-01 7.017787e-01 3.444184e-01 2.565898e-01 1.210279e-01 4.571145e-01 1.694299e-01 -4.738842e-01 -6.538218e-01 -4.505804e-01 -4.639952e-01
<VARIANCE> 25
 2.202492e+01 3.481960e+01 3.887338e+01 6.391379e+01 4.331805e+01 4.796937e+01 4.158508e+01 4.477020e+01 4.591209e+01 3.888554e+01 3.268353e+01 2.532600e+01 8.968565e-01 1.265179e+00 1.520058e+00 2.136260e+00 1.615692e+00 2.971242e+00 2.029787e+00 2.106359e+00 2.521566e+00 2.456026e+00 1.921850e+00 1.679168e+00 9.447469e-01
<GCONST> 9.704557e+01
<STATE> 4
<MEAN> 25
 5.966500e+00 -3.820904e-01 3.151454e-01 7.105481e+00 4.340966e+00 -1.720254e+00 -3.097861e+00 -7.825651e-01 -3.803820e+00 -6.722578e+00 -5.169729e+00 -2.231982e+00 -1.248948e-01 3.641126e-02 -1.620759e-01 -8.538845e-01 -4.337227e-01 -1.165125e-01 1.175181e-01 -1.721042e-01 8.785849e-02 4.827425e-01 5.441091e-01 3.938914e-01 1.508765e-01
<VARIANCE> 25
 2.100273e+01 3.151579e+01 3.614806e+01 5.096074e+01 3.741170e+01 4.566805e+01 3.924998e+01 3.931923e+01 4.211623e+01 3.813666e+01 3.033226e+01 2.373476e+01 8.690925e-01 1.079303e+00 1.530230e+00 2.250370e+00 1.643832e+00 2.437176e+00 1.802907e+00 2.009850e+00 2.136790e+00 2.217616e+00 1.925478e+00 1.643911e+00 9.747648e-01
<GCONST> 9.523684e+01
~t "T_l"
<ENDHMM>
~h "o-l+ch"
<BEGINHMM>
<NUMSTATES> 5
<STATE> 2
<MEAN> 25
 6.314451e+00 -2.836339e+00 -2.415431e+00 2.781851e+00 1.947059e+00 -2.800302e+00 -2.661815e+00 -2.324516e+00 -3.876258e+00 -3.683601e+00 -1.570764e+00 7.563966e-02 3.129438e-01 4.277349e-01 7.984434e-01 1.918523e+00 1.017305e+00 4.531452e-01 -1.293264e-01 2.709396e-01 -7.299022e-01 -1.606042e+00 -1.354267e+00 -7.730924e-01 -6.160657e-01
<VARIANCE> 25
 3.768519e+01 4.112976e+01 4.717404e+01 6.522243e+01 4.798243e+01 5.569359e+01 4.089912e+01 4.426613e+01 5.019736e+01 4.535135e+01 3.915966e+01 3.028901e+01 1.699836e+00 1.977105e+00 2.316171e+00 3.031282e+00 2.905935e+00 4.508301e+00 3.719640e+00 4.100824e+00 4.742221e+00 3.786747e+00 3.138241e+00 2.508972e+00 2.132987e+00
<GCONST> 1.056931e+02
<STATE> 3
<MEAN> 25
 7.308776e+00 -2.116291e+00 -5.915496e-01 8.047751e+00 4.512689e+00 -2.649817e+00 -3.380396e+00 -8.267048e-01 -5.005058e+00 -7.383716e+00 -4.765788e+00 -2.091391e+00 -2.042886e-01 4.120783e-01 5.339515e-01 7.017787e-01 3.444184e-01 2.565898e-01 1.210279e-01 4.571145e-01 1.694299e-01 -4.738842e-01 -6.538218e-01 -4.505804e-01 -4.639952e-01
<VARIANCE> 25
 2.202492e+01 3.481960e+01 3.887338e+01 6.391379e+01 4.331805e+01 4.796937e+01 4.158508e+01 4.477020e+01 4.591209e+01 3.888554e+01 3.268353e+01 2.532600e+01 8.968565e-01 1.265179e+00 1.520058e+00 2.136260e+00 1.615692e+00 2.971242e+00 2.029787e+00 2.106359e+00 2.521566e+00 2.456026e+00 1.921850e+00 1.679168e+00 9.447469e-01
<GCONST> 9.704557e+01
<STATE> 4
<MEAN> 25
 5.966500e+00 -3.820904e-01 3.151454e-01 7.105481e+00 4.340966e+00 -1.720254e+00 -3.097861e+00 -7.825651e-01 -3.803820e+00 -6.722578e+00 -5.169729e+00 -2.231982e+00 -1.248948e-01 3.641126e-02 -1.620759e-01 -8.538845e-01 -4.337227e-01 -1.165125e-01 1.175181e-01 -1.721042e-01 8.785849e-02 4.827425e-01 5.441091e-01 3.938914e-01 1.508765e-01
<VARIANCE> 25
 2.100273e+01 3.151579e+01 3.614806e+01 5.096074e+01 3.741170e+01 4.566805e+01 3.924998e+01 3.931923e+01 4.211623e+01 3.813666e+01 3.033226e+01 2.373476e+01 8.690925e-01 1.079303e+00 1.530230e+00 2.250370e+00 1.643832e+00 2.437176e+00 1.802907e+00 2.009850e+00 2.136790e+00 2.217616e+00 1.925478e+00 1.643911e+00 9.747648e-01
<GCONST> 9.523684e+01
~t "T_l"
<ENDHMM>
~h "g-m+e"
<BEGINHMM>
<NUMSTATES> 5
<STATE> 2
<MEAN> 25
 7.548775e+00 2.607854e+00 -2.102983e+00 4.346527e-01 8.082584e-01 9.021307e-01 6.144225e-01 8.268155e-01 -1.237094e+00 -2.310319e+00 -2.608431e+00 -3.108366e+00 -1.797019e-01 1.273914e+00 7.998855e-01 1.091742e+00 7.315946e-01 1.888878e+00 1.063340e+00 1.975945e-01 -9.558619e-02 -2.353920e-01 -8.953397e-01 -1.563288e+00 -1.207566e+00
<VARIANCE> 25
 2.775693e+01 3.253825e+01 4.646520e+01 5.028252e+01 4.394492e+01 4.523094e+01 3.715427e+01 3.382478e+01 4.342428e+01 3.434188e+01 2.442644e+01 3.211829e+01 1.185310e+00 1.893670e+00 1.789684e+00 3.486195e+00 3.584235e+00 3.238808e+00 3.284998e+00 2.704141e+00 3.304344e+00 3.214128e+00 2.384440e+00 2.359962e+00 1.375406e+00
<GCONST> 1.008971e+02
<STATE> 3
<MEAN> 25
 6.220848e+00 4.772701e+00 5.252566e-01 2.877606e+00 2.598014e+00 3.498492e+00 1.213324e+00 6.923475e-01 -7.689387e-01 -1.961661e+00 -3.632575e+00 -5.278195e+00 -7.126752e-02 8.531751e-02 1.286000e-01 1.251273e-01 1.169438e-01 2.010717e-01 1.808041e-01 4.610286e-02 -8.495778e-03 -3.835244e-02 -1.209151e-01 -2.196753e-01 -6.887542e-02
<VARIANCE> 25
 1.855869e+01 1.867837e+01 3.135711e+01 3.267927e+01 3.053080e+01 3.023534e+01 3.066374e+01 2.707565e+01 4.045082e+01 3.238166e+01 2.111422e+01 2.286841e+01 2.486276e-01 4.200025e-01 5.990037e-01 7.999274e-01 8.217130e-01 9.086192e-01 9.282346e-01 9.278805e-01 1.016802e+00 9.133210e-01 8.226467e-01 9.005458e-01 2.172809e-01
<GCONST> 8.029716e+01
<STATE> 4
<MEAN> 25
 6.860100e+00 4.454634e+00 4.674924e-02 2.128716e+00 1.891875e+00 3.227122e+00 1.878703e+00 1.082704e+00 -8.831809e-01 -1.881544e+00 -3.649952e+00 -5.456431e+00 3.623773e-01 -6.383294e-01 -6.348953e-01 -9.845536e-01 -7.848371e-01 -1.462937e+00 -6.459333e-01 7.814296e-02 -9.017757e-02 -7.700860e-02 5.040931e-01 1.155138e+00 8.107449e-01
<VARIANCE> 25
 1.989024e+01 2.237800e+01 3.543090e+01 3.925693e+01 3.831349e+01 3.554395e+01 3.319180e+01 2.993235e+01 4.311877e+01 3.359512e+01 2.268687e+01 2.678186e+01 5.137467e-01 1.101111e+00 1.252599e+00 2.638350e+00 2.525054e+00 2.299931e+00 2.038847e+00 1.819399e+00 1.983290e+00 1.852884e+00 1.639309e+00 1.938033e+00 6.037184e-01
<GCONST> 9.273713e+01
~t "T_m"
<ENDHMM>
~h "g-n+i"
<BEGINHMM>
<NUMSTATES> 5
<STATE> 2
<MEAN> 25
 7.169885e+00 3.457295e-01 -9.706034e-01 1.822969e+00 2.203207e+00 -1.710077e+00 -1.541217e+00 -6.925409e-01 -3.499932e+00 -2.178467e+00 -7.829415e-01 -1.847775e+00 -1.776564e-01 1.685531e+00 6.899630e-01 1.139801e+00 6.890932e-01 2.057916e+00 4.165332e-01 -6.090450e-01 -1.683788e-01 -9.237592e-02 -7.342267e-01 -1.250047e+00 -1.560356e+00
<VARIANCE> 25
 2.165102e+01 3.528417e+01 4.496836e+01 6.788055e+01 4.849240e+01 5.297578e+01 4.589392e+01 4.388946e+01 4.575230e+01 3.900736e+01 3.414560e+01 3.704768e+01 9.116951e-01 1.700086e+00 1.786228e+00 4.035296e+00 3.243808e+00 3.321929e+00 3.851503e+00 3.338852e+00 3.444288e+00 2.962204e+00 2.780899e+00 2.558904e+00 1.011466e+00
<GCONST> 1.023394e+02
<STATE> 3
<MEAN> 25
 6.451331e+00 3.805457e+00 7.997720e-01 4.104099e+00 3.209973e+00 1.771652e+00 -1.687927e+00 -2.346424e+00 -2.799612e+00 -1.867672e+00 -2.654003e+00 -4.671466e+00 -4.288488e-01 8.661700e-01 6.104125e-01 6.183404e-01 3.940374e-01 1.045232e+00 2.131816e-01 -3.304687e-01 1.941549e-01 1.693209e-01 -3.405662e-01 -4.656930e-01 -8.459170e-01
<VARIANCE> 25
 1.605801e+01 2.327610e+01 3.427949e+01 4.943877e+01 3.551352e+01 4.001220e+01 3.662941e+01 3.266262e+01 4.372853e+01 3.314529e+01 2.653506e+01 2.688600e+01 4.240589e-01 7.692712e-01 1.020777e+00 1.824027e+00 1.598796e+00 1.636005e+00 1.955104e+00 1.795479e+00 2.067024e+00 1.608387e+00 1.611071e+00 1.827414e+00 4.028325e-01
<GCONST> 9.059154e+01
<STATE> 4
<MEAN> 25
 3.843240e+00 4.976631e+00 2.044346e+00 4.405276e+00 3.430595e+00 3.177998e+00 -7.137617e-01 -1.420924e+00 -8.184713e-01 -5.259312e-01 -2.154598e+00 -3.488309e+00 -4.377143e-01 -2.375585e-02 4.742600e-02 -6.740690e-02 -9.708463e-02 1.467522e-01 2.977267e-01 2.026634e-01 7.117245e-02 2.588364e-02 1.424470e-01 2.484765e-01 -3.065790e-01
<VARIANCE> 25
 1.843643e+01 1.784051e+01 2.607419e+01 3.130790e+01 2.558590e+01 2.868715e+01 2.686604e+01 2.596465e+01 3.096772e+01 2.389989e+01 1.980139e+01 1.923713e+01 4.635847e-01 5.872605e-01 8.780912e-01 9.187444e-01 9.726738e-01 1.154603e+00 1.138327e+00 1.124501e+00 1.193445e+00 1.121723e+00 1.058525e+00 1.099325e+00 4.008314e-01
<GCONST> 8.251925e+01
~t "T_n"
<ENDHMM>
~h "g-n+o"
<BEGINHMM>
<NUMSTATES> 5
<STATE> 2
<MEAN> 25
 7.169885e+00 3.457295e-01 -9.706034e-01 1.822969e+00 2.203207e+00 -1.710077e+00 -1.541217e+00 -6.925409e-01 -3.499932e+00 -2.178467e+00 -7.829415e-01 -1.847775e+00 -1.776564e-01 1.685531e+00 6.899630e-01 1.139801e+00 6.890932e-01 2.057916e+00 4.165332e-01 -6.090450e-01 -1.683788e-01 -9.237592e-02 -7.342267e-01 -1.250047e+00 -1.560356e+00
<VARIANCE> 25
 2.165102e+01 3.528417e+01 4.496836e+01 6.788055e+01 4.849240e+01 5.297578e+01 4.589392e+01 4.388946e+01 4.575230e+01 3.900736e+01 3.414560e+01 3.704768e+01 9.116951e-01 1.700086e+00 1.786228e+00 4.035296e+00 3.243808e+00 3.321929e+00 3.851503e+00 3.338852e+00 3.444288e+00 2.962204e+00 2.780899e+00 2.558904e+00 1.011466e+00
<GCONST> 1.023394e+02
<STATE> 3
<MEAN> 25
 6.451331e+00 3.805457e+00 7.997720e-01 4.104099e+00 3.209973e+00 1.771652e+00 -1.687927e+00 -2.346424e+00 -2.799612e+00 -1.867672e+00 -2.654003e+00 -4.671466e+00 -4.288488e-01 8.661700e-01 6.104125e-01 6.183404e-01 3.940374e-01 1.045232e+00 2.131816e-01 -3.304687e-01 1.941549e-01 1.693209e-01 -3.405662e-01 -4.656930e-01 -8.459170e-01
<VARIANCE> 25
 1.605801e+01 2.327610e+01 3.427949e+01 4.943877e+01 3.551352e+01 4.001220e+01 3.662941e+01 3.266262e+01 4.372853e+01 3.314529e+01 2.653506e+01 2.688600e+01 4.240589e-01 7.692712e-01 1.020777e+00 1.824027e+00 1.598796e+00 1.636005e+00 1.955104e+00 1.795479e+00 2.067024e+00 1.608387e+00 1.611071e+00 1.827414e+00 4.028325e-01
<GCONST> 9.059154e+01
<STATE> 4
<MEAN> 25
 3.843240e+00 4.976631e+00 2.044346e+00 4.405276e+00 3.430595e+00 3.177998e+00 -7.137617e-01 -1.420924e+00 -8.184713e-01 -5.259312e-01 -2.154598e+00 -3.488309e+00 -4.377143e-01 -2.375585e-02 4.742600e-02 -6.740690e-02 -9.708463e-02 1.467522e-01 2.977267e-01 2.026634e-01 7.117245e-02 2.588364e-02 1.424470e-01 2.484765e-01 -3.065790e-01
<VARIANCE> 25
 1.843643e+01 1.784051e+01 2.607419e+01 3.130790e+01 2.558590e+01 2.868715e+01 2.686604e+01 2.596465e+01 3.096772e+01 2.389989e+01 1.980139e+01 1.923713e+01 4.635847e-01 5.872605e-01 8.780912e-01 9.187444e-01 9.726738e-01 1.154603e+00 1.138327e+00 1.124501e+00 1.193445e+00 1.121723e+00 1.058525e+00 1.099325e+00 4.008314e-01
<GCONST> 8.251925e+01
~t "T_n"
<ENDHMM>
~h "t-i+b"
<BEGINHMM>
<NUMSTATES> 5
<STATE> 2
<MEAN> 25
 2.824880e+00 -2.961581e+00 4.292364e+00 7.499251e+00 7.346193e+00 -2.067250e+00 -5.297520e+00 -2.873806e+00 -2.378581e+00 -1.973293e+00 -2.520489e+00 -3.736685e+00 1.015099e+00 -9.724852e-01 2.479329e-01 2.179622e+00 1.426837e+00 -2.128228e+00 -2.309814e+00 -3.848035e-01 -7.270547e-01 -7.560874e-01 -6.794949e-01 -8.365397e-01 1.175898e+00
<VARIANCE> 25
 3.374600e+01 3.967356e+01 6.750194e+01 6.375350e+01 5.781096e+01 6.437442e+01 4.980933e+01 4.415491e+01 4.445846e+01 3.540117e+01 3.356274e+01 2.704606e+01 3.132528e+00 4.137255e+00 3.621446e+00 4.487921e+00 4.215056e+00 5.312013e+00 4.005538e+00 3.824685e+00 4.409300e+00 4.209664e+00 3.923692e+00 2.984154e+00 1.617640e+00
<GCONST> 1.086541e+02
<STATE> 3
<MEAN> 25
 3.691633e+00 -6.378765e+00 6.166086e+00 1.236009e+01 7.380941e+00 -9.047977e+00 -9.580333e+00 -1.629763e+00 -3.102339e+00 -4.599288e+00 -4.548250e+00 -5.048493e+00 8.359629e-02 -2.991736e-01 1.296623e-01 4.305927e-01 9.667514e-03 -8.290642e-01 -5.818837e-01 1.603395e-01 8.957740e-02 -1.876646e-01 -1.591199e-01 -1.092843e-01 2.681427e-01
<VARIANCE> 25
 2.149308e+01 3.103732e+01 4.970968e+01 5.873264e+01 7.158559e+01 6.920425e+01 3.966159e+01 4.495304e+01 4.204121e+01 4.275245e+01 4.102441e+01 2.954641e+01 6.639252e-01 9.264812e-01 1.883231e+00 1.858640e+00 1.558079e+00 2.146437e+00 1.929194e+00 2.097977e+00 1.840118e+00 1.884095e+00 1.595546e+00 1.333590e+00 5.259222e-01
<GCONST> 9.574519e+01
<STATE> 4
<MEAN> 25
 4.036044e+00 -4.218312e+00 4.209880e+00 1.037407e+01 7.996428e+00 -6.247262e+00 -9.419474e+00 -3.331409e+00 -2.663913e+00 -2.918104e+00 -3.142705e+00 -4.376024e+00 3.821991e-02 8.336469e-01 -6.000085e-01 -1.181883e+00 -5.675405e-01 1.117856e+00 8.718380e-01 -2.187419e-01 -3.897155e-02 3.511441e-01 4.869802e-01 5.886047e-01 -5.325214e-01
<VARIANCE> 25
 1.972391e+01 3.227742e+01 4.309776e+01 5.167957e+01 5.495691e+01 6.691110e+01 3.850472e+01 4.351723e+01 4.154246e+01 3.556070e+01 3.517086e+01 2.803684e+01 6.999541e-01 1.390189e+00 1.663853e+00 1.824908e+00 1.964548e+00 2.784639e+00 2.501812e+00 2.236512e+00 2.341234e+00 2.148965e+00 1.947036e+00 1.699689e+00 1.056007e+00
<GCONST> 9.730878e+01
~t "T_i"
<ENDHMM>
~h "t-i+d"
<BEGINHMM>
<NUMSTATES> 5
<STATE> 2
<MEAN> 25
 2.824880e+00 -2.961581e+00 4.292364e+00 7.499251e+00 7.346193e+00 -2.067250e+00 -5.297520e+00 -2.873806e+00 -2.378581e+00 -1.973293e+00 -2.520489e+00 -3.736685e+00 1.015099e+00 -9.724852e-01 2.479329e-01 2.179622e+00 1.426837e+00 -2.128228e+00 -2.309814e+00 -3.848035e-01 -7.270547e-01 -7.560874e-01 -6.794949e-01 -8.365397e-01 1.175898e+00
<VARIANCE> 25
 3.374600e+01 3.967356e+01 6.750194e+01 6.375350e+01 5.781096e+01 6.437442e+01 4.980933e+01 4.415491e+01 4.445846e+01 3.540117e+01 3.356274e+01 2.704606e+01 3.132528e+00 4.137255e+00 3.621446e+00 4.487921e+00 4.215056e+00 5.312013e+00 4.005538e+00 3.824685e+00 4.409300e+00 4.209664e+00 3.923692e+00 2.984154e+00 1.617640e+00
<GCONST> 1.086541e+02
<STATE> 3
<MEAN> 25
 3.691633e+00 -6.378765e+00 6.166086e+00 1.236009e+01 7.380941e+00 -9.047977e+00 -9.580333e+00 -1.629763e+00 -3.102339e+00 -4.599288e+00 -4.548250e+00 -5.048493e+00 8.359629e-02 -2.991736e-01 1.296623e-01 4.305927e-01 9.667514e-03 -8.290642e-01 -5.818837e-01 1.603395e-01 8.957740e-02 -1.876646e-01 -1.591199e-01 -1.092843e-01 2.681427e-01
<VARIANCE> 25
 2.149308e+01 3.103732e+01 4.970968e+01 5.873264e+01 7.158559e+01 6.920425e+01 3.966159e+01 4.495304e+01 4.204121e+01 4.275245e+01 4.102441e+01 2.954641e+01 6.639252e-01 9.264812e-01 1.883231e+00 1.858640e+00 1.558079e+00 2.146437e+00 1.929194e+00 2.097977e+00 1.840118e+00 1.884095e+00 1.595546e+00 1.333590e+00 5.259222e-01
<GCONST> 9.574519e+01
<STATE> 4
<MEAN> 25
 4.036044e+00 -4.218312e+00 4.209880e+00 1.037407e+01 7.996428e+00 -6.247262e+00 -9.419474e+00 -3.331409e+00 -2.663913e+00 -2.918104e+00 -3.142705e+00 -4.376024e+00 3.821991e-02 8.336469e-01 -6.000085e-01 -1.181883e+00 -5.675405e-01 1.117856e+00 8.718380e-01 -2.187419e-01 -3.897155e-02 3.511441e-01 4.869802e-01 5.886047e-01 -5.325214e-01
<VARIANCE> 25
 1.972391e+01 3.227742e+01 4.309776e+01 5.167957e+01 5.495691e+01 6.691110e+01 3.850472e+01 4.351723e+01 4.154246e+01 3.556070e+01 3.517086e+01 2.803684e+01 6.999541e-01 1.390189e+00 1.663853e+00 1.824908e+00 1.964548e+00 2.784639e+00 2.501812e+00 2.236512e+00 2.341234e+00 2.148965e+00 1.947036e+00 1.699689e+00 1.056007e+00
<GCONST> 9.730878e+01
~t "T_i"
<ENDHMM>
~h "t-i+e"
<BEGINHMM>
<NUMSTATES> 5
<STATE> 2
<MEAN> 25
 2.824880e+00 -2.961581e+00 4.292364e+00 7.499251e+00 7.346193e+00 -2.067250e+00 -5.297520e+00 -2.873806e+00 -2.378581e+00 -1.973293e+00 -2.520489e+00 -3.736685e+00 1.015099e+00 -9.724852e-01 2.479329e-01 2.179622e+00 1.426837e+00 -2.128228e+00 -2.309814e+00 -3.848035e-01 -7.270547e-01 -7.560874e-01 -6.794949e-01 -8.365397e-01 1.175898e+00
<VARIANCE> 25
 3.374600e+01 3.967356e+01 6.750194e+01 6.375350e+01 5.781096e+01 6.437442e+01 4.980933e+01 4.415491e+01 4.445846e+01 3.540117e+01 3.356274e+01 2.704606e+01 3.132528e+00 4.137255e+00 3.621446e+00 4.487921e+00 4.215056e+00 5.312013e+00 4.005538e+00 3.824685e+00 4.409300e+00 4.209664e+00 3.923692e+00 2.984154e+00 1.617640e+00
<GCONST> 1.086541e+02
<STATE> 3
<MEAN> 25
 3.691633e+00 -6.378765e+00 6.166086e+00 1.236009e+01 7.380941e+00 -9.047977e+00 -9.580333e+00 -1.629763e+00 -3.102339e+00 -4.599288e+00 -4.548250e+00 -5.048493e+00 8.359629e-02 -2.991736e-01 1.296623e-01 4.305927e-01 9.667514e-03 -8.290642e-01 -5.818837e-01 1.603395e-01 8.957740e-02 -1.876646e-01 -1.591199e-01 -1.092843e-01 2.681427e-01
<VARIANCE> 25
 2.149308e+01 3.103732e+01 4.970968e+01 5.873264e+01 7.158559e+01 6.920425e+01 3.966159e+01 4.495304e+01 4.204121e+01 4.275245e+01 4.102441e+01 2.954641e+01 6.639252e-01 9.264812e-01 1.883231e+00 1.858640e+00 1.558079e+00 2.146437e+00 1.929194e+00 2.097977e+00 1.840118e+00 1.884095e+00 1.595546e+00 1.333590e+00 5.259222e-01
<GCONST> 9.574519e+01
<STATE> 4
<MEAN> 25
 4.036044e+00 -4.218312e+00 4.209880e+00 1.037407e+01 7.996428e+00 -6.247262e+00 -9.419474e+00 -3.331409e+00 -2.663913e+00 -2.918104e+00 -3.142705e+00 -4.376024e+00 3.821991e-02 8.336469e-01 -6.000085e-01 -1.181883e+00 -5.675405e-01 1.117856e+00 8.718380e-01 -2.187419e-01 -3.897155e-02 3.511441e-01 4.869802e-01 5.886047e-01 -5.325214e-01
<VARIANCE> 25
 1.972391e+01 3.227742e+01 4.309776e+01 5.167957e+01 5.495691e+01 6.691110e+01 3.850472e+01 4.351723e+01 4.154246e+01 3.556070e+01 3.517086e+01 2.803684e+01 6.999541e-01 1.390189e+00 1.663853e+00 1.824908e+00 1.964548e+00 2.784639e+00 2.501812e+00 2.236512e+00 2.341234e+00 2.148965e+00 1.947036e+00 1.699689e+00 1.056007e+00
<GCONST> 9.730878e+01
~t "T_i"
<ENDHMM>
~h "t-i+f"
<BEGINHMM>
<NUMSTATES> 5
<STATE> 2
<MEAN> 25
 2.824880e+00 -2.961581e+00 4.292364e+00 7.499251e+00 7.346193e+00 -2.067250e+00 -5.297520e+00 -2.873806e+00 -2.378581e+00 -1.973293e+00 -2.520489e+00 -3.736685e+00 1.015099e+00 -9.724852e-01 2.479329e-01 2.179622e+00 1.426837e+00 -2.128228e+00 -2.309814e+00 -3.848035e-01 -7.270547e-01 -7.560874e-01 -6.794949e-01 -8.365397e-01 1.175898e+00
<VARIANCE> 25
 3.374600e+01 3.967356e+01 6.750194e+01 6.375350e+01 5.781096e+01 6.437442e+01 4.980933e+01 4.415491e+01 4.445846e+01 3.540117e+01 3.356274e+01 2.704606e+01 3.132528e+00 4.137255e+00 3.621446e+00 4.487921e+00 4.215056e+00 5.312013e+00 4.005538e+00 3.824685e+00 4.409300e+00 4.209664e+00 3.923692e+00 2.984154e+00 1.617640e+00
<GCONST> 1.086541e+02
<STATE> 3
<MEAN> 25
 3.691633e+00 -6.378765e+00 6.166086e+00 1.236009e+01 7.380941e+00 -9.047977e+00 -9.580333e+00 -1.629763e+00 -3.102339e+00 -4.599288e+00 -4.548250e+00 -5.048493e+00 8.359629e-02 -2.991736e-01 1.296623e-01 4.305927e-01 9.667514e-03 -8.290642e-01 -5.818837e-01 1.603395e-01 8.957740e-02 -1.876646e-01 -1.591199e-01 -1.092843e-01 2.681427e-01
<VARIANCE> 25
 2.149308e+01 3.103732e+01 4.970968e+01 5.873264e+01 7.158559e+01 6.920425e+01 3.966159e+01 4.495304e+01 4.204121e+01 4.275245e+01 4.102441e+01 2.954641e+01 6.639252e-01 9.264812e-01 1.883231e+00 1.858640e+00 1.558079e+00 2.146437e+00 1.929194e+00 2.097977e+00 1.840118e+00 1.884095e+00 1.595546e+00 1.333590e+00 5.259222e-01
<GCONST> 9.574519e+01
<STATE> 4
<MEAN> 25
 4.036044e+00 -4.218312e+00 4.209880e+00 1.037407e+01 7.996428e+00 -6.247262e+00 -9.419474e+00 -3.331409e+00 -2.663913e+00 -2.918104e+00 -3.142705e+00 -4.376024e+00 3.821991e-02 8.336469e-01 -6.000085e-01 -1.181883e+00 -5.675405e-01 1.117856e+00 8.718380e-01 -2.187419e-01 -3.897155e-02 3.511441e-01 4.869802e-01 5.886047e-01 -5.325214e-01
<VARIANCE> 25
 1.972391e+01 3.227742e+01 4.309776e+01 5.167957e+01 5.495691e+01 6.691110e+01 3.850472e+01 4.351723e+01 4.154246e+01 3.556070e+01 3.517086e+01 2.803684e+01 6.999541e-01 1.390189e+00 1.663853e+00 1.824908e+00 1.964548e+00 2.784639e+00 2.501812e+00 2.236512e+00 2.341234e+00 2.148965e+00 1.947036e+00 1.699689e+00 1.056007e+00
<GCONST> 9.730878e+01
~t "T_i"
<ENDHMM>
~h "t-i+g"
<BEGINHMM>
<NUMSTATES> 5
<STATE> 2
<MEAN> 25
 2.824880e+00 -2.961581e+00 4.292364e+00 7.499251e+00 7.346193e+00 -2.067250e+00 -5.297520e+00 -2.873806e+00 -2.378581e+00 -1.973293e+00 -2.520489e+00 -3.736685e+00 1.015099e+00 -9.724852e-01 2.479329e-01 2.179622e+00 1.426837e+00 -2.128228e+00 -2.309814e+00 -3.848035e-01 -7.270547e-01 -7.560874e-01 -6.794949e-01 -8.365397e-01 1.175898e+00
<VARIANCE> 25
 3.374600e+01 3.967356e+01 6.750194e+01 6.375350e+01 5.781096e+01 6.437442e+01 4.980933e+01 4.415491e+01 4.445846e+01 3.540117e+01 3.356274e+01 2.704606e+01 3.132528e+00 4.137255e+00 3.621446e+00 4.487921e+00 4.215056e+00 5.312013e+00 4.005538e+00 3.824685e+00 4.409300e+00 4.209664e+00 3.923692e+00 2.984154e+00 1.617640e+00
<GCONST> 1.086541e+02
<STATE> 3
<MEAN> 25
 3.691633e+00 -6.378765e+00 6.166086e+00 1.236009e+01 7.380941e+00 -9.047977e+00 -9.580333e+00 -1.629763e+00 -3.102339e+00 -4.599288e+00 -4.548250e+00 -5.048493e+00 8.359629e-02 -2.991736e-01 1.296623e-01 4.305927e-01 9.667514e-03 -8.290642e-01 -5.818837e-01 1.603395e-01 8.957740e-02 -1.876646e-01 -1.591199e-01 -1.092843e-01 2.681427e-01
<VARIANCE> 25
 2.149308e+01 3.103732e+01 4.970968e+01 5.873264e+01 7.158559e+01 6.920425e+01 3.966159e+01 4.495304e+01 4.204121e+01 4.275245e+01 4.102441e+01 2.954641e+01 6.639252e-01 9.264812e-01 1.883231e+00 1.858640e+00 1.558079e+00 2.146437e+00 1.929194e+00 2.097977e+00 1.840118e+00 1.884095e+00 1.595546e+00 1.333590e+00 5.259222e-01
<GCONST> 9.574519e+01
<STATE> 4
<MEAN> 25
 4.036044e+00 -4.218312e+00 4.209880e+00 1.037407e+01 7.996428e+00 -6.247262e+00 -9.419474e+00 -3.331409e+00 -2.663913e+00 -2.918104e+00 -3.142705e+00 -4.376024e+00 3.821991e-02 8.336469e-01 -6.000085e-01 -1.181883e+00 -5.675405e-01 1.117856e+00 8.718380e-01 -2.187419e-01 -3.897155e-02 3.511441e-01 4.869802e-01 5.886047e-01 -5.325214e-01
<VARIANCE> 25
 1.972391e+01 3.227742e+01 4.309776e+01 5.167957e+01 5.495691e+01 6.691110e+01 3.850472e+01 4.351723e+01 4.154246e+01 3.556070e+01 3.517086e+01 2.803684e+01 6.999541e-01 1.390189e+00 1.663853e+00 1.824908e+00 1.964548e+00 2.784639e+00 2.501812e+00 2.236512e+00 2.341234e+00 2.148965e+00 1.947036e+00 1.699689e+00 1.056007e+00
<GCONST> 9.730878e+01
~t "T_i"
<ENDHMM>
~h "t-i+k"
<BEGINHMM>
<NUMSTATES> 5
<STATE> 2
<MEAN> 25
 2.824880e+00 -2.961581e+00 4.292364e+00 7.499251e+00 7.346193e+00 -2.067250e+00 -5.297520e+00 -2.873806e+00 -2.378581e+00 -1.973293e+00 -2.520489e+00 -3.736685e+00 1.015099e+00 -9.724852e-01 2.479329e-01 2.179622e+00 1.426837e+00 -2.128228e+00 -2.309814e+00 -3.848035e-01 -7.270547e-01 -7.560874e-01 -6.794949e-01 -8.365397e-01 1.175898e+00
<VARIANCE> 25
 3.374600e+01 3.967356e+01 6.750194e+01 6.375350e+01 5.781096e+01 6.437442e+01 4.980933e+01 4.415491e+01 4.445846e+01 3.540117e+01 3.356274e+01 2.704606e+01 3.132528e+00 4.137255e+00 3.621446e+00 4.487921e+00 4.215056e+00 5.312013e+00 4.005538e+00 3.824685e+00 4.409300e+00 4.209664e+00 3.923692e+00 2.984154e+00 1.617640e+00
<GCONST> 1.086541e+02
<STATE> 3
<MEAN> 25
 3.691633e+00 -6.378765e+00 6.166086e+00 1.236009e+01 7.380941e+00 -9.047977e+00 -9.580333e+00 -1.629763e+00 -3.102339e+00 -4.599288e+00 -4.548250e+00 -5.048493e+00 8.359629e-02 -2.991736e-01 1.296623e-01 4.305927e-01 9.667514e-03 -8.290642e-01 -5.818837e-01 1.603395e-01 8.957740e-02 -1.876646e-01 -1.591199e-01 -1.092843e-01 2.681427e-01
<VARIANCE> 25
 2.149308e+01 3.103732e+01 4.970968e+01 5.873264e+01 7.158559e+01 6.920425e+01 3.966159e+01 4.495304e+01 4.204121e+01 4.275245e+01 4.102441e+01 2.954641e+01 6.639252e-01 9.264812e-01 1.883231e+00 1.858640e+00 1.558079e+00 2.146437e+00 1.929194e+00 2.097977e+00 1.840118e+00 1.884095e+00 1.595546e+00 1.333590e+00 5.259222e-01
<GCONST> 9.574519e+01
<STATE> 4
<MEAN> 25
 4.036044e+00 -4.218312e+00 4.209880e+00 1.037407e+01 7.996428e+00 -6.247262e+00 -9.419474e+00 -3.331409e+00 -2.663913e+00 -2.918104e+00 -3.142705e+00 -4.376024e+00 3.821991e-02 8.336469e-01 -6.000085e-01 -1.181883e+00 -5.675405e-01 1.117856e+00 8.718380e-01 -2.187419e-01 -3.897155e-02 3.511441e-01 4.869802e-01 5.886047e-01 -5.325214e-01
<VARIANCE> 25
 1.972391e+01 3.227742e+01 4.309776e+01 5.167957e+01 5.495691e+01 6.691110e+01 3.850472e+01 4.351723e+01 4.154246e+01 3.556070e+01 3.517086e+01 2.803684e+01 6.999541e-01 1.390189e+00 1.663853e+00 1.824908e+00 1.964548e+00 2.784639e+00 2.501812e+00 2.236512e+00 2.341234e+00 2.148965e+00 1.947036e+00 1.699689e+00 1.056007e+00
<GCONST> 9.730878e+01
~t "T_i"
<ENDHMM>
~h "t-i+l"
<BEGINHMM>
<NUMSTATES> 5
<STATE> 2
<MEAN> 25
 2.824880e+00 -2.961581e+00 4.292364e+00 7.499251e+00 7.346193e+00 -2.067250e+00 -5.297520e+00 -2.873806e+00 -2.378581e+00 -1.973293e+00 -2.520489e+00 -3.736685e+00 1.015099e+00 -9.724852e-01 2.479329e-01 2.179622e+00 1.426837e+00 -2.128228e+00 -2.309814e+00 -3.848035e-01 -7.270547e-01 -7.560874e-01 -6.794949e-01 -8.365397e-01 1.175898e+00
<VARIANCE> 25
 3.374600e+01 3.967356e+01 6.750194e+01 6.375350e+01 5.781096e+01 6.437442e+01 4.980933e+01 4.415491e+01 4.445846e+01 3.540117e+01 3.356274e+01 2.704606e+01 3.132528e+00 4.137255e+00 3.621446e+00 4.487921e+00 4.215056e+00 5.312013e+00 4.005538e+00 3.824685e+00 4.409300e+00 4.209664e+00 3.923692e+00 2.984154e+00 1.617640e+00
<GCONST> 1.086541e+02
<STATE> 3
<MEAN> 25
 3.691633e+00 -6.378765e+00 6.166086e+00 1.236009e+01 7.380941e+00 -9.047977e+00 -9.580333e+00 -1.629763e+00 -3.102339e+00 -4.599288e+00 -4.548250e+00 -5.048493e+00 8.359629e-02 -2.991736e-01 1.296623e-01 4.305927e-01 9.667514e-03 -8.290642e-01 -5.818837e-01 1.603395e-01 8.957740e-02 -1.876646e-01 -1.591199e-01 -1.092843e-01 2.681427e-01
<VARIANCE> 25
 2.149308e+01 3.103732e+01 4.970968e+01 5.873264e+01 7.158559e+01 6.920425e+01 3.966159e+01 4.495304e+01 4.204121e+01 4.275245e+01 4.102441e+01 2.954641e+01 6.639252e-01 9.264812e-01 1.883231e+00 1.858640e+00 1.558079e+00 2.146437e+00 1.929194e+00 2.097977e+00 1.840118e+00 1.884095e+00 1.595546e+00 1.333590e+00 5.259222e-01
<GCONST> 9.574519e+01
<STATE> 4
<MEAN> 25
 4.036044e+00 -4.218312e+00 4.209880e+00 1.037407e+01 7.996428e+00 -6.247262e+00 -9.419474e+00 -3.331409e+00 -2.663913e+00 -2.918104e+00 -3.142705e+00 -4.376024e+00 3.821991e-02 8.336469e-01 -6.000085e-01 -1.181883e+00 -5.675405e-01 1.117856e+00 8.718380e-01 -2.187419e-01 -3.897155e-02 3.511441e-01 4.869802e-01 5.886047e-01 -5.325214e-01
<VARIANCE> 25
 1.972391e+01 3.227742e+01 4.309776e+01 5.167957e+01 5.495691e+01 6.691110e+01 3.850472e+01 4.351723e+01 4.154246e+01 3.556070e+01 3.517086e+01 2.803684e+01 6.999541e-01 1.390189e+00 1.663853e+00 1.824908e+00 1.964548e+00 2.784639e+00 2.501812e+00 2.236512e+00 2.341234e+00 2.148965e+00 1.947036e+00 1.699689e+00 1.056007e+00
<GCONST> 9.730878e+01
~t "T_i"
<ENDHMM>
~h "t-i+m"
<BEGINHMM>
<NUMSTATES> 5
<STATE> 2
<MEAN> 25
 2.824880e+00 -2.961581e+00 4.292364e+00 7.499251e+00 7.346193e+00 -2.067250e+00 -5.297520e+00 -2.873806e+00 -2.378581e+00 -1.973293e+00 -2.520489e+00 -3.736685e+00 1.015099e+00 -9.724852e-01 2.479329e-01 2.179622e+00 1.426837e+00 -2.128228e+00 -2.309814e+00 -3.848035e-01 -7.270547e-01 -7.560874e-01 -6.794949e-01 -8.365397e-01 1.175898e+00
<VARIANCE> 25
 3.374600e+01 3.967356e+01 6.750194e+01 6.375350e+01 5.781096e+01 6.437442e+01 4.980933e+01 4.415491e+01 4.445846e+01 3.540117e+01 3.356274e+01 2.704606e+01 3.132528e+00 4.137255e+00 3.621446e+00 4.487921e+00 4.215056e+00 5.312013e+00 4.005538e+00 3.824685e+00 4.409300e+00 4.209664e+00 3.923692e+00 2.984154e+00 1.617640e+00
<GCONST> 1.086541e+02
<STATE> 3
<MEAN> 25
 3.691633e+00 -6.378765e+00 6.166086e+00 1.236009e+01 7.380941e+00 -9.047977e+00 -9.580333e+00 -1.629763e+00 -3.102339e+00 -4.599288e+00 -4.548250e+00 -5.048493e+00 8.359629e-02 -2.991736e-01 1.296623e-01 4.305927e-01 9.667514e-03 -8.290642e-01 -5.818837e-01 1.603395e-01 8.957740e-02 -1.876646e-01 -1.591199e-01 -1.092843e-01 2.681427e-01
<VARIANCE> 25
 2.149308e+01 3.103732e+01 4.970968e+01 5.873264e+01 7.158559e+01 6.920425e+01 3.966159e+01 4.495304e+01 4.204121e+01 4.275245e+01 4.102441e+01 2.954641e+01 6.639252e-01 9.264812e-01 1.883231e+00 1.858640e+00 1.558079e+00 2.146437e+00 1.929194e+00 2.097977e+00 1.840118e+00 1.884095e+00 1.595546e+00 1.333590e+00 5.259222e-01
<GCONST> 9.574519e+01
<STATE> 4
<MEAN> 25
 4.036044e+00 -4.218312e+00 4.209880e+00 1.037407e+01 7.996428e+00 -6.247262e+00 -9.419474e+00 -3.331409e+00 -2.663913e+00 -2.918104e+00 -3.142705e+00 -4.376024e+00 3.821991e-02 8.336469e-01 -6.000085e-01 -1.181883e+00 -5.675405e-01 1.117856e+00 8.718380e-01 -2.187419e-01 -3.897155e-02 3.511441e-01 4.869802e-01 5.886047e-01 -5.325214e-01
<VARIANCE> 25
 1.972391e+01 3.227742e+01 4.309776e+01 5.167957e+01 5.495691e+01 6.691110e+01 3.850472e+01 4.351723e+01 4.154246e+01 3.556070e+01 3.517086e+01 2.803684e+01 6.999541e-01 1.390189e+00 1.663853e+00 1.824908e+00 1.964548e+00 2.784639e+00 2.501812e+00 2.236512e+00 2.341234e+00 2.148965e+00 1.947036e+00 1.699689e+00 1.056007e+00
<GCONST> 9.730878e+01
~t "T_i"
<ENDHMM>
~h "t-i+n"
<BEGINHMM>
<NUMSTATES> 5
<STATE> 2
<MEAN> 25
 2.824880e+00 -2.961581e+00 4.292364e+00 7.499251e+00 7.346193e+00 -2.067250e+00 -5.297520e+00 -2.873806e+00 -2.378581e+00 -1.973293e+00 -2.520489e+00 -3.736685e+00 1.015099e+00 -9.724852e-01 2.479329e-01 2.179622e+00 1.426837e+00 -2.128228e+00 -2.309814e+00 -3.848035e-01 -7.270547e-01 -7.560874e-01 -6.794949e-01 -8.365397e-01 1.175898e+00
<VARIANCE> 25
 3.374600e+01 3.967356e+01 6.750194e+01 6.375350e+01 5.781096e+01 6.437442e+01 4.980933e+01 4.415491e+01 4.445846e+01 3.540117e+01 3.356274e+01 2.704606e+01 3.132528e+00 4.137255e+00 3.621446e+00 4.487921e+00 4.215056e+00 5.312013e+00 4.005538e+00 3.824685e+00 4.409300e+00 4.209664e+00 3.923692e+00 2.984154e+00 1.617640e+00
<GCONST> 1.086541e+02
<STATE> 3
<MEAN> 25
 3.691633e+00 -6.378765e+00 6.166086e+00 1.236009e+01 7.380941e+00 -9.047977e+00 -9.580333e+00 -1.629763e+00 -3.102339e+00 -4.599288e+00 -4.548250e+00 -5.048493e+00 8.359629e-02 -2.991736e-01 1.296623e-01 4.305927e-01 9.667514e-03 -8.290642e-01 -5.818837e-01 1.603395e-01 8.957740e-02 -1.876646e-01 -1.591199e-01 -1.092843e-01 2.681427e-01
<VARIANCE> 25
 2.149308e+01 3.103732e+01 4.970968e+01 5.873264e+01 7.158559e+01 6.920425e+01 3.966159e+01 4.495304e+01 4.204121e+01 4.275245e+01 4.102441e+01 2.954641e+01 6.639252e-01 9.264812e-01 1.883231e+00 1.858640e+00 1.558079e+00 2.146437e+00 1.929194e+00 2.097977e+00 1.840118e+00 1.884095e+00 1.595546e+00 1.333590e+00 5.259222e-01
<GCONST> 9.574519e+01
<STATE> 4
<MEAN> 25
 4.036044e+00 -4.218312e+00 4.209880e+00 1.037407e+01 7.996428e+00 -6.247262e+00 -9.419474e+00 -3.331409e+00 -2.663913e+00 -2.918104e+00 -3.142705e+00 -4.376024e+00 3.821991e-02 8.336469e-01 -6.000085e-01 -1.181883e+00 -5.675405e-01 1.117856e+00 8.718380e-01 -2.187419e-01 -3.897155e-02 3.511441e-01 4.869802e-01 5.886047e-01 -5.325214e-01
<VARIANCE> 25
 1.972391e+01 3.227742e+01 4.309776e+01 5.167957e+01 5.495691e+01 6.691110e+01 3.850472e+01 4.351723e+01 4.154246e+01 3.556070e+01 3.517086e+01 2.803684e+01 6.999541e-01 1.390189e+00 1.663853e+00 1.824908e+00 1.964548e+00 2.784639e+00 2.501812e+00 2.236512e+00 2.341234e+00 2.148965e+00 1.947036e+00 1.699689e+00 1.056007e+00
<GCONST> 9.730878e+01
~t "T_i"
<ENDHMM>
~h "t-i+o"
<BEGINHMM>
<NUMSTATES> 5
<STATE> 2
<MEAN> 25
 2.824880e+00 -2.961581e+00 4.292364e+00 7.499251e+00 7.346193e+00 -2.067250e+00 -5.297520e+00 -2.873806e+00 -2.378581e+00 -1.973293e+00 -2.520489e+00 -3.736685e+00 1.015099e+00 -9.724852e-01 2.479329e-01 2.179622e+00 1.426837e+00 -2.128228e+00 -2.309814e+00 -3.848035e-01 -7.270547e-01 -7.560874e-01 -6.794949e-01 -8.365397e-01 1.175898e+00
<VARIANCE> 25
 3.374600e+01 3.967356e+01 6.750194e+01 6.375350e+01 5.781096e+01 6.437442e+01 4.980933e+01 4.415491e+01 4.445846e+01 3.540117e+01 3.356274e+01 2.704606e+01 3.132528e+00 4.137255e+00 3.621446e+00 4.487921e+00 4.215056e+00 5.312013e+00 4.005538e+00 3.824685e+00 4.409300e+00 4.209664e+00 3.923692e+00 2.984154e+00 1.617640e+00
<GCONST> 1.086541e+02
<STATE> 3
<MEAN> 25
 3.691633e+00 -6.378765e+00 6.166086e+00 1.236009e+01 7.380941e+00 -9.047977e+00 -9.580333e+00 -1.629763e+00 -3.102339e+00 -4.599288e+00 -4.548250e+00 -5.048493e+00 8.359629e-02 -2.991736e-01 1.296623e-01 4.305927e-01 9.667514e-03 -8.290642e-01 -5.818837e-01 1.603395e-01 8.957740e-02 -1.876646e-01 -1.591199e-01 -1.092843e-01 2.681427e-01
<VARIANCE> 25
 2.149308e+01 3.103732e+01 4.970968e+01 5.873264e+01 7.158559e+01 6.920425e+01 3.966159e+01 4.495304e+01 4.204121e+01 4.275245e+01 4.102441e+01 2.954641e+01 6.639252e-01 9.264812e-01 1.883231e+00 1.858640e+00 1.558079e+00 2.146437e+00 1.929194e+00 2.097977e+00 1.840118e+00 1.884095e+00 1.595546e+00 1.333590e+00 5.259222e-01
<GCONST> 9.574519e+01
<STATE> 4
<MEAN> 25
 4.036044e+00 -4.218312e+00 4.209880e+00 1.037407e+01 7.996428e+00 -6.247262e+00 -9.419474e+00 -3.331409e+00 -2.663913e+00 -2.918104e+00 -3.142705e+00 -4.376024e+00 3.821991e-02 8.336469e-01 -6.000085e-01 -1.181883e+00 -5.675405e-01 1.117856e+00 8.718380e-01 -2.187419e-01 -3.897155e-02 3.511441e-01 4.869802e-01 5.886047e-01 -5.325214e-01
<VARIANCE> 25
 1.972391e+01 3.227742e+01 4.309776e+01 5.167957e+01 5.495691e+01 6.691110e+01 3.850472e+01 4.351723e+01 4.154246e+01 3.556070e+01 3.517086e+01 2.803684e+01 6.999541e-01 1.390189e+00 1.663853e+00 1.824908e+00 1.964548e+00 2.784639e+00 2.501812e+00 2.236512e+00 2.341234e+00 2.148965e+00 1.947036e+00 1.699689e+00 1.056007e+00
<GCONST> 9.730878e+01
~t "T_i"
<ENDHMM>
~h "t-i+p"
<BEGINHMM>
<NUMSTATES> 5
<STATE> 2
<MEAN> 25
 2.824880e+00 -2.961581e+00 4.292364e+00 7.499251e+00 7.346193e+00 -2.067250e+00 -5.297520e+00 -2.873806e+00 -2.378581e+00 -1.973293e+00 -2.520489e+00 -3.736685e+00 1.015099e+00 -9.724852e-01 2.479329e-01 2.179622e+00 1.426837e+00 -2.128228e+00 -2.309814e+00 -3.848035e-01 -7.270547e-01 -7.560874e-01 -6.794949e-01 -8.365397e-01 1.175898e+00
<VARIANCE> 25
 3.374600e+01 3.967356e+01 6.750194e+01 6.375350e+01 5.781096e+01 6.437442e+01 4.980933e+01 4.415491e+01 4.445846e+01 3.540117e+01 3.356274e+01 2.704606e+01 3.132528e+00 4.137255e+00 3.621446e+00 4.487921e+00 4.215056e+00 5.312013e+00 4.005538e+00 3.824685e+00 4.409300e+00 4.209664e+00 3.923692e+00 2.984154e+00 1.617640e+00
<GCONST> 1.086541e+02
<STATE> 3
<MEAN> 25
 3.691633e+00 -6.378765e+00 6.166086e+00 1.236009e+01 7.380941e+00 -9.047977e+00 -9.580333e+00 -1.629763e+00 -3.102339e+00 -4.599288e+00 -4.548250e+00 -5.048493e+00 8.359629e-02 -2.991736e-01 1.296623e-01 4.305927e-01 9.667514e-03 -8.290642e-01 -5.818837e-01 1.603395e-01 8.957740e-02 -1.876646e-01 -1.591199e-01 -1.092843e-01 2.681427e-01
<VARIANCE> 25
 2.149308e+01 3.103732e+01 4.970968e+01 5.873264e+01 7.158559e+01 6.920425e+01 3.966159e+01 4.495304e+01 4.204121e+01 4.275245e+01 4.102441e+01 2.954641e+01 6.639252e-01 9.264812e-01 1.883231e+00 1.858640e+00 1.558079e+00 2.146437e+00 1.929194e+00 2.097977e+00 1.840118e+00 1.884095e+00 1.595546e+00 1.333590e+00 5.259222e-01
<GCONST> 9.574519e+01
<STATE> 4
<MEAN> 25
 4.036044e+00 -4.218312e+00 4.209880e+00 1.037407e+01 7.996428e+00 -6.247262e+00 -9.419474e+00 -3.331409e+00 -2.663913e+00 -2.918104e+00 -3.142705e+00 -4.376024e+00 3.821991e-02 8.336469e-01 -6.000085e-01 -1.181883e+00 -5.675405e-01 1.117856e+00 8.718380e-01 -2.187419e-01 -3.897155e-02 3.511441e-01 4.869802e-01 5.886047e-01 -5.325214e-01
<VARIANCE> 25
 1.972391e+01 3.227742e+01 4.309776e+01 5.167957e+01 5.495691e+01 6.691110e+01 3.850472e+01 4.351723e+01 4.154246e+01 3.556070e+01 3.517086e+01 2.803684e+01 6.999541e-01 1.390189e+00 1.663853e+00 1.824908e+00 1.964548e+00 2.784639e+00 2.501812e+00 2.236512e+00 2.341234e+00 2.148965e+00 1.947036e+00 1.699689e+00 1.056007e+00
<GCONST> 9.730878e+01
~t "T_i"
<ENDHMM>
~h "t-i+s"
<BEGINHMM>
<NUMSTATES> 5
<STATE> 2
<MEAN> 25
 2.824880e+00 -2.961581e+00 4.292364e+00 7.499251e+00 7.346193e+00 -2.067250e+00 -5.297520e+00 -2.873806e+00 -2.378581e+00 -1.973293e+00 -2.520489e+00 -3.736685e+00 1.015099e+00 -9.724852e-01 2.479329e-01 2.179622e+00 1.426837e+00 -2.128228e+00 -2.309814e+00 -3.848035e-01 -7.270547e-01 -7.560874e-01 -6.794949e-01 -8.365397e-01 1.175898e+00
<VARIANCE> 25
 3.374600e+01 3.967356e+01 6.750194e+01 6.375350e+01 5.781096e+01 6.437442e+01 4.980933e+01 4.415491e+01 4.445846e+01 3.540117e+01 3.356274e+01 2.704606e+01 3.132528e+00 4.137255e+00 3.621446e+00 4.487921e+00 4.215056e+00 5.312013e+00 4.005538e+00 3.824685e+00 4.409300e+00 4.209664e+00 3.923692e+00 2.984154e+00 1.617640e+00
<GCONST> 1.086541e+02
<STATE> 3
<MEAN> 25
 3.691633e+00 -6.378765e+00 6.166086e+00 1.236009e+01 7.380941e+00 -9.047977e+00 -9.580333e+00 -1.629763e+00 -3.102339e+00 -4.599288e+00 -4.548250e+00 -5.048493e+00 8.359629e-02 -2.991736e-01 1.296623e-01 4.305927e-01 9.667514e-03 -8.290642e-01 -5.818837e-01 1.603395e-01 8.957740e-02 -1.876646e-01 -1.591199e-01 -1.092843e-01 2.681427e-01
<VARIANCE> 25
 2.149308e+01 3.103732e+01 4.970968e+01 5.873264e+01 7.158559e+01 6.920425e+01 3.966159e+01 4.495304e+01 4.204121e+01 4.275245e+01 4.102441e+01 2.954641e+01 6.639252e-01 9.264812e-01 1.883231e+00 1.858640e+00 1.558079e+00 2.146437e+00 1.929194e+00 2.097977e+00 1.840118e+00 1.884095e+00 1.595546e+00 1.333590e+00 5.259222e-01
<GCONST> 9.574519e+01
<STATE> 4
<MEAN> 25
 4.036044e+00 -4.218312e+00 4.209880e+00 1.037407e+01 7.996428e+00 -6.247262e+00 -9.419474e+00 -3.331409e+00 -2.663913e+00 -2.918104e+00 -3.142705e+00 -4.376024e+00 3.821991e-02 8.336469e-01 -6.000085e-01 -1.181883e+00 -5.675405e-01 1.117856e+00 8.718380e-01 -2.187419e-01 -3.897155e-02 3.511441e-01 4.869802e-01 5.886047e-01 -5.325214e-01
<VARIANCE> 25
 1.972391e+01 3.227742e+01 4.309776e+01 5.167957e+01 5.495691e+01 6.691110e+01 3.850472e+01 4.351723e+01 4.154246e+01 3.556070e+01 3.517086e+01 2.803684e+01 6.999541e-01 1.390189e+00 1.663853e+00 1.824908e+00 1.964548e+00 2.784639e+00 2.501812e+00 2.236512e+00 2.341234e+00 2.148965e+00 1.947036e+00 1.699689e+00 1.056007e+00
<GCONST> 9.730878e+01
~t "T_i"
<ENDHMM>
~h "t-i+t"
<BEGINHMM>
<NUMSTATES> 5
<STATE> 2
<MEAN> 25
 2.824880e+00 -2.961581e+00 4.292364e+00 7.499251e+00 7.346193e+00 -2.067250e+00 -5.297520e+00 -2.873806e+00 -2.378581e+00 -1.973293e+00 -2.520489e+00 -3.736685e+00 1.015099e+00 -9.724852e-01 2.479329e-01 2.179622e+00 1.426837e+00 -2.128228e+00 -2.309814e+00 -3.848035e-01 -7.270547e-01 -7.560874e-01 -6.794949e-01 -8.365397e-01 1.175898e+00
<VARIANCE> 25
 3.374600e+01 3.967356e+01 6.750194e+01 6.375350e+01 5.781096e+01 6.437442e+01 4.980933e+01 4.415491e+01 4.445846e+01 3.540117e+01 3.356274e+01 2.704606e+01 3.132528e+00 4.137255e+00 3.621446e+00 4.487921e+00 4.215056e+00 5.312013e+00 4.005538e+00 3.824685e+00 4.409300e+00 4.209664e+00 3.923692e+00 2.984154e+00 1.617640e+00
<GCONST> 1.086541e+02
<STATE> 3
<MEAN> 25
 3.691633e+00 -6.378765e+00 6.166086e+00 1.236009e+01 7.380941e+00 -9.047977e+00 -9.580333e+00 -1.629763e+00 -3.102339e+00 -4.599288e+00 -4.548250e+00 -5.048493e+00 8.359629e-02 -2.991736e-01 1.296623e-01 4.305927e-01 9.667514e-03 -8.290642e-01 -5.818837e-01 1.603395e-01 8.957740e-02 -1.876646e-01 -1.591199e-01 -1.092843e-01 2.681427e-01
<VARIANCE> 25
 2.149308e+01 3.103732e+01 4.970968e+01 5.873264e+01 7.158559e+01 6.920425e+01 3.966159e+01 4.495304e+01 4.204121e+01 4.275245e+01 4.102441e+01 2.954641e+01 6.639252e-01 9.264812e-01 1.883231e+00 1.858640e+00 1.558079e+00 2.146437e+00 1.929194e+00 2.097977e+00 1.840118e+00 1.884095e+00 1.595546e+00 1.333590e+00 5.259222e-01
<GCONST> 9.574519e+01
<STATE> 4
<MEAN> 25
 4.036044e+00 -4.218312e+00 4.209880e+00 1.037407e+01 7.996428e+00 -6.247262e+00 -9.419474e+00 -3.331409e+00 -2.663913e+00 -2.918104e+00 -3.142705e+00 -4.376024e+00 3.821991e-02 8.336469e-01 -6.000085e-01 -1.181883e+00 -5.675405e-01 1.117856e+00 8.718380e-01 -2.187419e-01 -3.897155e-02 3.511441e-01 4.869802e-01 5.886047e-01 -5.325214e-01
<VARIANCE> 25
 1.972391e+01 3.227742e+01 4.309776e+01 5.167957e+01 5.495691e+01 6.691110e+01 3.850472e+01 4.351723e+01 4.154246e+01 3.556070e+01 3.517086e+01 2.803684e+01 6.999541e-01 1.390189e+00 1.663853e+00 1.824908e+00 1.964548e+00 2.784639e+00 2.501812e+00 2.236512e+00 2.341234e+00 2.148965e+00 1.947036e+00 1.699689e+00 1.056007e+00
<GCONST> 9.730878e+01
~t "T_i"
<ENDHMM>
~h "t-i+u"
<BEGINHMM>
<NUMSTATES> 5
<STATE> 2
<MEAN> 25
 2.824880e+00 -2.961581e+00 4.292364e+00 7.499251e+00 7.346193e+00 -2.067250e+00 -5.297520e+00 -2.873806e+00 -2.378581e+00 -1.973293e+00 -2.520489e+00 -3.736685e+00 1.015099e+00 -9.724852e-01 2.479329e-01 2.179622e+00 1.426837e+00 -2.128228e+00 -2.309814e+00 -3.848035e-01 -7.270547e-01 -7.560874e-01 -6.794949e-01 -8.365397e-01 1.175898e+00
<VARIANCE> 25
 3.374600e+01 3.967356e+01 6.750194e+01 6.375350e+01 5.781096e+01 6.437442e+01 4.980933e+01 4.415491e+01 4.445846e+01 3.540117e+01 3.356274e+01 2.704606e+01 3.132528e+00 4.137255e+00 3.621446e+00 4.487921e+00 4.215056e+00 5.312013e+00 4.005538e+00 3.824685e+00 4.409300e+00 4.209664e+00 3.923692e+00 2.984154e+00 1.617640e+00
<GCONST> 1.086541e+02
<STATE> 3
<MEAN> 25
 3.691633e+00 -6.378765e+00 6.166086e+00 1.236009e+01 7.380941e+00 -9.047977e+00 -9.580333e+00 -1.629763e+00 -3.102339e+00 -4.599288e+00 -4.548250e+00 -5.048493e+00 8.359629e-02 -2.991736e-01 1.296623e-01 4.305927e-01 9.667514e-03 -8.290642e-01 -5.818837e-01 1.603395e-01 8.957740e-02 -1.876646e-01 -1.591199e-01 -1.092843e-01 2.681427e-01
<VARIANCE> 25
 2.149308e+01 3.103732e+01 4.970968e+01 5.873264e+01 7.158559e+01 6.920425e+01 3.966159e+01 4.495304e+01 4.204121e+01 4.275245e+01 4.102441e+01 2.954641e+01 6.639252e-01 9.264812e-01 1.883231e+00 1.858640e+00 1.558079e+00 2.146437e+00 1.929194e+00 2.097977e+00 1.840118e+00 1.884095e+00 1.595546e+00 1.333590e+00 5.259222e-01
<GCONST> 9.574519e+01
<STATE> 4
<MEAN> 25
 4.036044e+00 -4.218312e+00 4.209880e+00 1.037407e+01 7.996428e+00 -6.247262e+00 -9.419474e+00 -3.331409e+00 -2.663913e+00 -2.918104e+00 -3.142705e+00 -4.376024e+00 3.821991e-02 8.336469e-01 -6.000085e-01 -1.181883e+00 -5.675405e-01 1.117856e+00 8.718380e-01 -2.187419e-01 -3.897155e-02 3.511441e-01 4.869802e-01 5.886047e-01 -5.325214e-01
<VARIANCE> 25
 1.972391e+01 3.227742e+01 4.309776e+01 5.167957e+01 5.495691e+01 6.691110e+01 3.850472e+01 4.351723e+01 4.154246e+01 3.556070e+01 3.517086e+01 2.803684e+01 6.999541e-01 1.390189e+00 1.663853e+00 1.824908e+00 1.964548e+00 2.784639e+00 2.501812e+00 2.236512e+00 2.341234e+00 2.148965e+00 1.947036e+00 1.699689e+00 1.056007e+00
<GCONST> 9.730878e+01
~t "T_i"
<ENDHMM>
~h "g-o+l"
<BEGINHMM>
<NUMSTATES> 5
<STATE> 2
<MEAN> 25
 8.202134e+00 8.756948e-01 -1.556870e+00 -2.412576e+00 -4.135490e+00 -5.283045e+00 -1.325630e+00 5.514442e-01 -3.256593e+00 -4.464030e+00 -3.179199e+00 -1.018459e+00 8.533680e-01 5.628624e-02 -4.272498e-01 -1.163086e+00 -1.742013e+00 -1.833407e+00 -1.006363e-01 8.327968e-01 2.565329e-01 -1.784475e-01 -2.551433e-01 1.000556e-01 7.841955e-01
<VARIANCE> 25
 2.727819e+01 4.614404e+01 4.546624e+01 5.624189e+01 6.257309e+01 6.102062e+01 4.518742e+01 4.939813e+01 5.469617e+01 4.219932e+01 3.056493e+01 2.847985e+01 1.604221e+00 2.714622e+00 2.414845e+00 3.306103e+00 3.399673e+00 4.293542e+00 4.410888e+00 3.910635e+00 3.812121e+00 3.509329e+00 2.851977e+00 2.694980e+00 1.552250e+00
<GCONST> 1.055529e+02
<STATE> 3
<MEAN> 25
 9.608891e+00 1.841884e+00 -1.624231e+00 -4.843653e+00 -1.056682e+01 -1.047259e+01 -3.275502e-01 4.228262e+00 -8.981493e-01 -3.707518e+00 -3.771726e+00 -1.847208e+00 -1.603226e-01 3.746803e-01 2.492852e-02 -5.283350e-02 -1.316152e-01 2.060792e-01 2.320018e-01 3.473101e-01 4.636069e-01 2.421327e-01 -1.011645e-03 -9.001540e-02 -4.208844e-01
<VARIANCE> 25
 2.191664e+01 3.832346e+01 3.536129e+01 4.552036e+01 5.146196e+01 5.402416e+01 4.532333e+01 4.316967e+01 5.194213e+01 3.791486e+01 2.724122e+01 2.477335e+01 5.759985e-01 1.296905e+00 1.329783e+00 1.436117e+00 2.015944e+00 2.854960e+00 1.984985e+00 2.227589e+00 2.343580e+00 2.045362e+00 1.638120e+00 1.449960e+00 1.066268e+00
<GCONST> 9.576168e+01
<STATE> 4
<MEAN> 25
 5.920141e+00 4.729104e+00 -6.619071e-01 -3.592440e+00 -6.668617e+00 -4.437122e+00 3.776827e-01 3.175261e+00 9.050462e-01 -1.454790e+00 -2.326509e+00 -1.249121e+00 -6.257654e-01 -3.906129e-02 1.678127e-01 4.218079e-01 7.039407e-01 9.980335e-01 2.885799e-01 -2.038472e-01 -1.773957e-02 1.877047e-01 2.155907e-01 8.154663e-02 -5.345345e-01
<VARIANCE> 25
 2.381943e+01 3.168683e+01 3.073319e+01 3.372535e+01 3.205265e+01 4.222814e+01 3.201194e+01 3.300840e+01 3.498757e+01 3.150789e+01 2.243595e+01 1.901501e+01 4.852379e-01 7.335701e-01 1.011674e+00 1.084659e+00 1.496157e+00 1.967000e+00 1.648281e+00 1.688958e+00 1.686677e+00 1.518985e+00 1.305284e+00 1.193857e+00 3.831035e-01
<GCONST> 8.833953e+01
~t "T_o"
<ENDHMM>
~h "g-o+m"
<BEGINHMM>
<NUMSTATES> 5
<STATE> 2
<MEAN> 25
 8.202134e+00 8.756948e-01 -1.556870e+00 -2.412576e+00 -4.135490e+00 -5.283045e+00 -1.325630e+00 5.514442e-01 -3.256593e+00 -4.464030e+00 -3.179199e+00 -1.018459e+00 8.533680e-01 5.628624e-02 -4.272498e-01 -1.163086e+00 -1.742013e+00 -1.833407e+00 -1.006363e-01 8.327968e-01 2.565329e-01 -1.784475e-01 -2.551433e-01 1.000556e-01 7.841955e-01
<VARIANCE> 25
 2.727819e+01 4.614404e+01 4.546624e+01 5.624189e+01 6.257309e+01 6.102062e+01 4.518742e+01 4.939813e+01 5.469617e+01 4.219932e+01 3.056493e+01 2.847985e+01 1.604221e+00 2.714622e+00 2.414845e+00 3.306103e+00 3.399673e+00 4.293542e+00 4.410888e+00 3.910635e+00 3.812121e+00 3.509329e+00 2.851977e+00 2.694980e+00 1.552250e+00
<GCONST> 1.055529e+02
<STATE> 3
<MEAN> 25
 9.608891e+00 1.841884e+00 -1.624231e+00 -4.843653e+00 -1.056682e+01 -1.047259e+01 -3.275502e-01 4.228262e+00 -8.981493e-01 -3.707518e+00 -3.771726e+00 -1.847208e+00 -1.603226e-01 3.746803e-01 2.492852e-02 -5.283350e-02 -1.316152e-01 2.060792e-01 2.320018e-01 3.473101e-01 4.636069e-01 2.421327e-01 -1.011645e-03 -9.001540e-02 -4.208844e-01
<VARIANCE> 25
 2.191664e+01 3.832346e+01 3.536129e+01 4.552036e+01 5.146196e+01 5.402416e+01 4.532333e+01 4.316967e+01 5.194213e+01 3.791486e+01 2.724122e+01 2.477335e+01 5.759985e-01 1.296905e+00 1.329783e+00 1.436117e+00 2.015944e+00 2.854960e+00 1.984985e+00 2.227589e+00 2.343580e+00 2.045362e+00 1.638120e+00 1.449960e+00 1.066268e+00
<GCONST> 9.576168e+01
<STATE> 4
<MEAN> 25
 5.920141e+00 4.729104e+00 -6.619071e-01 -3.592440e+00 -6.668617e+00 -4.437122e+00 3.776827e-01 3.175261e+00 9.050462e-01 -1.454790e+00 -2.326509e+00 -1.249121e+00 -6.257654e-01 -3.906129e-02 1.678127e-01 4.218079e-01 7.039407e-01 9.980335e-01 2.885799e-01 -2.038472e-01 -1.773957e-02 1.877047e-01 2.155907e-01 8.154663e-02 -5.345345e-01
<VARIANCE> 25
 2.381943e+01 3.168683e+01 3.073319e+01 3.372535e+01 3.205265e+01 4.222814e+01 3.201194e+01 3.300840e+01 3.498757e+01 3.150789e+01 2.243595e+01 1.901501e+01 4.852379e-01 7.335701e-01 1.011674e+00 1.084659e+00 1.496157e+00 1.967000e+00 1.648281e+00 1.688958e+00 1.686677e+00 1.518985e+00 1.305284e+00 1.193857e+00 3.831035e-01
<GCONST> 8.833953e+01
~t "T_o"
<ENDHMM>
~h "g-o+r"
<BEGINHMM>
<NUMSTATES> 5
<STATE> 2
<MEAN> 25
 8.202134e+00 8.756948e-01 -1.556870e+00 -2.412576e+00 -4.135490e+00 -5.283045e+00 -1.325630e+00 5.514442e-01 -3.256593e+00 -4.464030e+00 -3.179199e+00 -1.018459e+00 8.533680e-01 5.628624e-02 -4.272498e-01 -1.163086e+00 -1.742013e+00 -1.833407e+00 -1.006363e-01 8.327968e-01 2.565329e-01 -1.784475e-01 -2.551433e-01 1.000556e-01 7.841955e-01
<VARIANCE> 25
 2.727819e+01 4.614404e+01 4.546624e+01 5.624189e+01 6.257309e+01 6.102062e+01 4.518742e+01 4.939813e+01 5.469617e+01 4.219932e+01 3.056493e+01 2.847985e+01 1.604221e+00 2.714622e+00 2.414845e+00 3.306103e+00 3.399673e+00 4.293542e+00 4.410888e+00 3.910635e+00 3.812121e+00 3.509329e+00 2.851977e+00 2.694980e+00 1.552250e+00
<GCONST> 1.055529e+02
<STATE> 3
<MEAN> 25
 9.608891e+00 1.841884e+00 -1.624231e+00 -4.843653e+00 -1.056682e+01 -1.047259e+01 -3.275502e-01 4.228262e+00 -8.981493e-01 -3.707518e+00 -3.771726e+00 -1.847208e+00 -1.603226e-01 3.746803e-01 2.492852e-02 -5.283350e-02 -1.316152e-01 2.060792e-01 2.320018e-01 3.473101e-01 4.636069e-01 2.421327e-01 -1.011645e-03 -9.001540e-02 -4.208844e-01
<VARIANCE> 25
 2.191664e+01 3.832346e+01 3.536129e+01 4.552036e+01 5.146196e+01 5.402416e+01 4.532333e+01 4.316967e+01 5.194213e+01 3.791486e+01 2.724122e+01 2.477335e+01 5.759985e-01 1.296905e+00 1.329783e+00 1.436117e+00 2.015944e+00 2.854960e+00 1.984985e+00 2.227589e+00 2.343580e+00 2.045362e+00 1.638120e+00 1.449960e+00 1.066268e+00
<GCONST> 9.576168e+01
<STATE> 4
<MEAN> 25
 5.920141e+00 4.729104e+00 -6.619071e-01 -3.592440e+00 -6.668617e+00 -4.437122e+00 3.776827e-01 3.175261e+00 9.050462e-01 -1.454790e+00 -2.326509e+00 -1.249121e+00 -6.257654e-01 -3.906129e-02 1.678127e-01 4.218079e-01 7.039407e-01 9.980335e-01 2.885799e-01 -2.038472e-01 -1.773957e-02 1.877047e-01 2.155907e-01 8.154663e-02 -5.345345e-01
<VARIANCE> 25
 2.381943e+01 3.168683e+01 3.073319e+01 3.372535e+01 3.205265e+01 4.222814e+01 3.201194e+01 3.300840e+01 3.498757e+01 3.150789e+01 2.243595e+01 1.901501e+01 4.852379e-01 7.335701e-01 1.011674e+00 1.084659e+00 1.496157e+00 1.967000e+00 1.648281e+00 1.688958e+00 1.686677e+00 1.518985e+00 1.305284e+00 1.193857e+00 3.831035e-01
<GCONST> 8.833953e+01
~t "T_o"
<ENDHMM>
~h "g-o+s"
<BEGINHMM>
<NUMSTATES> 5
<STATE> 2
<MEAN> 25
 8.202134e+00 8.756948e-01 -1.556870e+00 -2.412576e+00 -4.135490e+00 -5.283045e+00 -1.325630e+00 5.514442e-01 -3.256593e+00 -4.464030e+00 -3.179199e+00 -1.018459e+00 8.533680e-01 5.628624e-02 -4.272498e-01 -1.163086e+00 -1.742013e+00 -1.833407e+00 -1.006363e-01 8.327968e-01 2.565329e-01 -1.784475e-01 -2.551433e-01 1.000556e-01 7.841955e-01
<VARIANCE> 25
 2.727819e+01 4.614404e+01 4.546624e+01 5.624189e+01 6.257309e+01 6.102062e+01 4.518742e+01 4.939813e+01 5.469617e+01 4.219932e+01 3.056493e+01 2.847985e+01 1.604221e+00 2.714622e+00 2.414845e+00 3.306103e+00 3.399673e+00 4.293542e+00 4.410888e+00 3.910635e+00 3.812121e+00 3.509329e+00 2.851977e+00 2.694980e+00 1.552250e+00
<GCONST> 1.055529e+02
<STATE> 3
<MEAN> 25
 9.608891e+00 1.841884e+00 -1.624231e+00 -4.843653e+00 -1.056682e+01 -1.047259e+01 -3.275502e-01 4.228262e+00 -8.981493e-01 -3.707518e+00 -3.771726e+00 -1.847208e+00 -1.603226e-01 3.746803e-01 2.492852e-02 -5.283350e-02 -1.316152e-01 2.060792e-01 2.320018e-01 3.473101e-01 4.636069e-01 2.421327e-01 -1.011645e-03 -9.001540e-02 -4.208844e-01
<VARIANCE> 25
 2.191664e+01 3.832346e+01 3.536129e+01 4.552036e+01 5.146196e+01 5.402416e+01 4.532333e+01 4.316967e+01 5.194213e+01 3.791486e+01 2.724122e+01 2.477335e+01 5.759985e-01 1.296905e+00 1.329783e+00 1.436117e+00 2.015944e+00 2.854960e+00 1.984985e+00 2.227589e+00 2.343580e+00 2.045362e+00 1.638120e+00 1.449960e+00 1.066268e+00
<GCONST> 9.576168e+01
<STATE> 4
<MEAN> 25
 5.920141e+00 4.729104e+00 -6.619071e-01 -3.592440e+00 -6.668617e+00 -4.437122e+00 3.776827e-01 3.175261e+00 9.050462e-01 -1.454790e+00 -2.326509e+00 -1.249121e+00 -6.257654e-01 -3.906129e-02 1.678127e-01 4.218079e-01 7.039407e-01 9.980335e-01 2.885799e-01 -2.038472e-01 -1.773957e-02 1.877047e-01 2.155907e-01 8.154663e-02 -5.345345e-01
<VARIANCE> 25
 2.381943e+01 3.168683e+01 3.073319e+01 3.372535e+01 3.205265e+01 4.222814e+01 3.201194e+01 3.300840e+01 3.498757e+01 3.150789e+01 2.243595e+01 1.901501e+01 4.852379e-01 7.335701e-01 1.011674e+00 1.084659e+00 1.496157e+00 1.967000e+00 1.648281e+00 1.688958e+00 1.686677e+00 1.518985e+00 1.305284e+00 1.193857e+00 3.831035e-01
<GCONST> 8.833953e+01
~t "T_o"
<ENDHMM>
~h "b-a+ll"
<BEGINHMM>
<NUMSTATES> 5
<STATE> 2
<MEAN> 25
 8.084209e+00 -3.246555e+00 -4.886938e+00 -2.890126e+00 -1.922659e+00 -4.591505e+00 -1.062124e+00 -1.533606e+00 -3.011539e+00 -1.419097e+00 7.822737e-01 1.974153e+00 8.531939e-01 -1.219489e+00 -1.591901e+00 -1.511451e+00 -1.099942e+00 -1.081241e+00 3.296968e-01 2.435892e-01 2.131322e-01 7.433307e-01 1.096173e+00 1.076555e+00 1.531909e+00
<VARIANCE> 25
 3.102556e+01 3.982352e+01 4.648204e+01 6.052976e+01 4.865224e+01 5.364120e+01 4.957391e+01 5.206113e+01 4.994263e+01 4.377484e+01 3.566540e+01 3.010361e+01 2.105191e+00 2.133569e+00 2.607650e+00 3.361774e+00 2.917656e+00 3.954443e+00 3.398865e+00 3.319243e+00 3.668817e+00 4.076825e+00 3.093344e+00 2.673295e+00 1.675560e+00
<GCONST> 1.052759e+02
<STATE> 3
<MEAN> 25
 9.462610e+00 -6.897775e+00 -8.743549e+00 -6.083593e+00 -4.604442e+00 -5.470979e+00 1.397076e+00 -2.830499e-01 -1.629562e+00 7.007640e-01 2.659651e+00 3.340820e+00 3.290816e-02 -1.735238e-01 -3.625012e-01 -3.627358e-01 -1.769637e-01 2.254089e-01 4.766614e-01 2.827543e-01 2.371980e-01 1.767752e-01 8.445666e-02 6.974697e-02 8.193482e-02
<VARIANCE> 25
 2.840129e+01 3.570125e+01 4.138834e+01 4.038225e+01 4.118876e+01 4.148624e+01 4.739182e+01 4.747406e+01 4.473821e+01 4.189992e+01 3.449903e+01 2.805832e+01 3.302394e-01 8.424883e-01 9.393210e-01 1.242460e+00 1.324397e+00 1.496400e+00 1.901740e+00 1.780651e+00 1.803969e+00 1.726919e+00 1.430944e+00 1.179275e+00 3.783611e-01
<GCONST> 9.133002e+01
<STATE> 4
<MEAN> 25
 8.177530e+00 -2.680661e+00 -7.293503e+00 -5.932261e+00 -3.758124e+00 -2.794274e+00 1.176165e+00 -3.390664e-01 -1.368642e+00 2.573896e-01 2.133668e+00 3.287408e+00 -4.538044e-01 8.704351e-01 7.276899e-01 4.679444e-01 4.150407e-01 5.706517e-01 -1.937626e-01 -1.382255e-01 1.753797e-02 -1.629017e-01 -2.942949e-01 -3.140077e-01 -8.826797e-01
<VARIANCE> 25
 2.215926e+01 3.099335e+01 3.486272e+01 3.668752e+01 3.283007e+01 3.965223e+01 3.500597e+01 3.826480e+01 3.512437e+01 3.170736e+01 2.563973e+01 2.200531e+01 5.861269e-01 9.910762e-01 1.080531e+00 1.252255e+00 1.395680e+00 1.835312e+00 1.787168e+00 1.826652e+00 1.993582e+00 1.853269e+00 1.609923e+00 1.318195e+00 6.483233e-01
<GCONST> 9.086413e+01
~t "T_a"
<ENDHMM>
~h "b-a+th"
<BEGINHMM>
<NUMSTATES> 5
<STATE> 2
<MEAN> 25
 8.084209e+00 -3.246555e+00 -4.886938e+00 -2.890126e+00 -1.922659e+00 -4.591505e+00 -1.062124e+00 -1.533606e+00 -3.011539e+00 -1.419097e+00 7.822737e-01 1.974153e+00 8.531939e-01 -1.219489e+00 -1.591901e+00 -1.511451e+00 -1.099942e+00 -1.081241e+00 3.296968e-01 2.435892e-01 2.131322e-01 7.433307e-01 1.096173e+00 1.076555e+00 1.531909e+00
<VARIANCE> 25
 3.102556e+01 3.982352e+01 4.648204e+01 6.052976e+01 4.865224e+01 5.364120e+01 4.957391e+01 5.206113e+01 4.994263e+01 4.377484e+01 3.566540e+01 3.010361e+01 2.105191e+00 2.133569e+00 2.607650e+00 3.361774e+00 2.917656e+00 3.954443e+00 3.398865e+00 3.319243e+00 3.668817e+00 4.076825e+00 3.093344e+00 2.673295e+00 1.675560e+00
<GCONST> 1.052759e+02
<STATE> 3
<MEAN> 25
 9.462610e+00 -6.897775e+00 -8.743549e+00 -6.083593e+00 -4.604442e+00 -5.470979e+00 1.397076e+00 -2.830499e-01 -1.629562e+00 7.007640e-01 2.659651e+00 3.340820e+00 3.290816e-02 -1.735238e-01 -3.625012e-01 -3.627358e-01 -1.769637e-01 2.254089e-01 4.766614e-01 2.827543e-01 2.371980e-01 1.767752e-01 8.445666e-02 6.974697e-02 8.193482e-02
<VARIANCE> 25
 2.840129e+01 3.570125e+01 4.138834e+01 4.038225e+01 4.118876e+01 4.148624e+01 4.739182e+01 4.747406e+01 4.473821e+01 4.189992e+01 3.449903e+01 2.805832e+01 3.302394e-01 8.424883e-01 9.393210e-01 1.242460e+00 1.324397e+00 1.496400e+00 1.901740e+00 1.780651e+00 1.803969e+00 1.726919e+00 1.430944e+00 1.179275e+00 3.783611e-01
<GCONST> 9.133002e+01
<STATE> 4
<MEAN> 25
 8.177530e+00 -2.680661e+00 -7.293503e+00 -5.932261e+00 -3.758124e+00 -2.794274e+00 1.176165e+00 -3.390664e-01 -1.368642e+00 2.573896e-01 2.133668e+00 3.287408e+00 -4.538044e-01 8.704351e-01 7.276899e-01 4.679444e-01 4.150407e-01 5.706517e-01 -1.937626e-01 -1.382255e-01 1.753797e-02 -1.629017e-01 -2.942949e-01 -3.140077e-01 -8.826797e-01
<VARIANCE> 25
 2.215926e+01 3.099335e+01 3.486272e+01 3.668752e+01 3.283007e+01 3.965223e+01 3.500597e+01 3.826480e+01 3.512437e+01 3.170736e+01 2.563973e+01 2.200531e+01 5.861269e-01 9.910762e-01 1.080531e+00 1.252255e+00 1.395680e+00 1.835312e+00 1.787168e+00 1.826652e+00 1.993582e+00 1.853269e+00 1.609923e+00 1.318195e+00 6.483233e-01
<GCONST> 9.086413e+01
~t "T_a"
<ENDHMM>
~h "k-u+ll"
<BEGINHMM>
<NUMSTATES> 5
<STATE> 2
<MEAN> 25
 5.841117e+00 4.888117e+00 2.686566e+00 -7.820466e-01 -3.509169e+00 -4.456264e+00 -1.667651e+00 1.072235e+00 -1.711213e+00 -3.398537e+00 -2.842877e+00 -2.182095e+00 1.576147e+00 1.045471e+00 4.197832e-01 -3.047917e-01 -1.355020e+00 -2.229248e+00 -1.097899e+00 2.456878e-01 -2.158980e-01 -6.960759e-01 -8.961666e-01 -8.212398e-01 8.114035e-01
<VARIANCE> 25
 3.111406e+01 4.019774e+01 4.504975e+01 4.146431e+01 4.849731e+01 5.661042e+01 4.281160e+01 4.095763e+01 5.025994e+01 4.244762e+01 3.143690e+01 2.546618e+01 2.317891e+00 3.149550e+00 3.087908e+00 3.151040e+00 3.396149e+00 4.573932e+00 4.195843e+00 4.035922e+00 4.034451e+00 3.409064e+00 3.195040e+00 2.762604e+00 1.784756e+00
<GCONST> 1.055627e+02
<STATE> 3
<MEAN> 25
 8.658910e+00 5.000401e+00 2.954348e+00 -2.671335e+00 -7.457289e+00 -1.043769e+01 -3.682248e+00 2.342003e+00 -1.993913e+00 -4.053403e+00 -3.655970e+00 -3.858294e+00 3.619523e-01 -4.174033e-01 -5.004941e-01 -5.413764e-01 -3.661138e-01 -3.691237e-01 1.985084e-01 6.194838e-01 2.091379e-01 -3.094780e-01 -4.365371e-01 -2.890210e-01 4.863066e-01
<VARIANCE> 25
 1.982055e+01 3.754977e+01 4.485072e+01 4.602500e+01 4.835411e+01 5.230594e+01 4.533890e+01 4.689768e+01 6.356376e+01 4.307386e+01 3.556441e+01 3.444476e+01 5.694164e-01 2.171613e+00 2.316406e+00 1.907328e+00 2.369149e+00 3.386717e+00 2.927253e+00 3.053224e+00 2.962884e+00 2.837181e+00 2.662840e+00 2.209183e+00 9.819031e-01
<GCONST> 1.005687e+02
<STATE> 4
<MEAN> 25
 7.936549e+00 5.316041e+00 2.239468e+00 -2.040418e+00 -5.537446e+00 -6.998611e+00 -2.096663e+00 2.982105e+00 -1.124920e+00 -4.924550e+00 -4.786534e+00 -3.909861e+00 -1.936503e-01 -3.466140e-01 -3.004697e-01 2.804921e-01 7.471921e-01 1.043675e+00 4.173047e-01 -2.147343e-01 -1.894316e-01 -7.248510e-02 1.116081e-02 1.502710e-01 -1.055882e-01
<VARIANCE> 25
 1.968233e+01 3.080829e+01 3.984565e+01 3.763365e+01 3.553752e+01 4.067476e+01 4.069976e+01 3.915368e+01 5.144368e+01 3.819278e+01 3.066512e+01 2.631176e+01 3.753779e-01 1.220878e+00 1.362571e+00 1.493957e+00 2.004738e+00 2.727168e+00 2.026844e+00 2.105258e+00 2.403310e+00 2.200738e+00 1.975419e+00 1.823615e+00 5.097307e-01
<GCONST> 9.394715e+01
~t "T_u"
<ENDHMM>
~h "e-ch+a"
<BEGINHMM>
<NUMSTATES> 5
<STATE> 2
<MEAN> 25
 -3.515305e+00 -5.826408e+00 6.770669e+00 1.690331e+00 -1.433543e+00 1.311194e+00 -8.473504e-01 -1.564756e-02 1.486803e+00 -1.773934e+00 -4.531376e-01 4.916118e-02 -1.929486e+00 -2.286035e+00 1.432176e+00 -1.023099e-01 -2.989334e-01 3.851319e-02 2.564107e-01 1.889517e-01 9.482999e-01 1.769091e-01 2.801395e-01 3.219435e-01 8.950387e-01
<VARIANCE> 25
 4.331898e+01 7.936980e+01 6.833836e+01 4.999400e+01 4.801806e+01 4.844822e+01 4.646045e+01 4.836494e+01 4.783947e+01 3.791654e+01 3.232258e+01 2.454547e+01 1.851286e+00 7.669931e+00 6.159750e+00 3.452475e+00 3.472772e+00 4.140024e+00 3.523978e+00 3.569549e+00 3.155254e+00 2.976944e+00 2.255540e+00 2.050224e+00 6.671400e+00
<GCONST> 1.084521e+02
<STATE> 3
<MEAN> 25
 -1.108798e+01 -1.948901e+01 1.376653e+01 1.118908e+00 -4.445756e-01 -1.846460e-01 -1.224519e+00 -4.334573e-01 5.340496e+00 -8.536438e-02 1.277094e+00 2.056511e+00 1.302766e+00 6.569036e-01 -9.409735e-01 5.642725e-01 8.434920e-01 6.904846e-01 -3.385284e-01 -7.616201e-01 -4.334902e-01 4.428429e-01 1.827114e-01 1.404145e-01 -3.099542e-01
<VARIANCE> 25
 3.591089e+01 5.767048e+01 9.091859e+01 8.055508e+01 6.350099e+01 7.100402e+01 7.317664e+01 6.533994e+01 4.447422e+01 4.331369e+01 3.181114e+01 2.763056e+01 3.482492e+00 4.879806e+00 3.392511e+00 2.994451e+00 2.214943e+00 3.134732e+00 3.190136e+00 2.739042e+00 2.630057e+00 2.111520e+00 1.913656e+00 1.603518e+00 1.794401e+00
<GCONST> 1.063869e+02
<STATE> 4
<MEAN> 25
 -1.721438e+00 -1.021468e+01 6.895911e+00 2.611857e+00 7.177784e-01 3.217569e+00 -1.804813e+00 -2.833560e+00 1.391455e+00 -1.063743e+00 1.320703e-01 1.758912e+00 3.473007e+00 3.063818e+00 -1.771192e+00 -1.458062e-01 -3.454653e-01 -6.482190e-01 -8.350406e-01 -3.921632e-01 -1.795598e+00 -9.135399e-01 -9.172798e-01 -5.811502e-01 -6.058986e-01
<VARIANCE> 25
 3.350431e+01 3.652498e+01 5.543996e+01 4.107544e+01 3.849805e+01 4.208282e+01 4.809691e+01 4.542126e+01 3.864191e+01 3.712645e+01 2.983387e+01 2.518701e+01 2.997148e+00 2.974293e+00 3.189521e+00 4.118366e+00 3.599472e+00 4.296028e+00 4.654088e+00 4.965402e+00 3.636896e+00 3.091180e+00 2.790794e+00 2.614336e+00 1.042577e+00
<GCONST> 1.048478e+02
~t "T_ch"
<ENDHMM>
~h "e-ch+o"
<BEGINHMM>
<NUMSTATES> 5
<STATE> 2
<MEAN> 25
 -3.515305e+00 -5.826408e+00 6.770669e+00 1.690331e+00 -1.433543e+00 1.311194e+00 -8.473504e-01 -1.564756e-02 1.486803e+00 -1.773934e+00 -4.531376e-01 4.916118e-02 -1.929486e+00 -2.286035e+00 1.432176e+00 -1.023099e-01 -2.989334e-01 3.851319e-02 2.564107e-01 1.889517e-01 9.482999e-01 1.769091e-01 2.801395e-01 3.219435e-01 8.950387e-01
<VARIANCE> 25
 4.331898e+01 7.936980e+01 6.833836e+01 4.999400e+01 4.801806e+01 4.844822e+01 4.646045e+01 4.836494e+01 4.783947e+01 3.791654e+01 3.232258e+01 2.454547e+01 1.851286e+00 7.669931e+00 6.159750e+00 3.452475e+00 3.472772e+00 4.140024e+00 3.523978e+00 3.569549e+00 3.155254e+00 2.976944e+00 2.255540e+00 2.050224e+00 6.671400e+00
<GCONST> 1.084521e+02
<STATE> 3
<MEAN> 25
 -1.108798e+01 -1.948901e+01 1.376653e+01 1.118908e+00 -4.445756e-01 -1.846460e-01 -1.224519e+00 -4.334573e-01 5.340496e+00 -8.536438e-02 1.277094e+00 2.056511e+00 1.302766e+00 6.569036e-01 -9.409735e-01 5.642725e-01 8.434920e-01 6.904846e-01 -3.385284e-01 -7.616201e-01 -4.334902e-01 4.428429e-01 1.827114e-01 1.404145e-01 -3.099542e-01
<VARIANCE> 25
 3.591089e+01 5.767048e+01 9.091859e+01 8.055508e+01 6.350099e+01 7.100402e+01 7.317664e+01 6.533994e+01 4.447422e+01 4.331369e+01 3.181114e+01 2.763056e+01 3.482492e+00 4.879806e+00 3.392511e+00 2.994451e+00 2.214943e+00 3.134732e+00 3.190136e+00 2.739042e+00 2.630057e+00 2.111520e+00 1.913656e+00 1.603518e+00 1.794401e+00
<GCONST> 1.063869e+02
<STATE> 4
<MEAN> 25
 -1.721438e+00 -1.021468e+01 6.895911e+00 2.611857e+00 7.177784e-01 3.217569e+00 -1.804813e+00 -2.833560e+00 1.391455e+00 -1.063743e+00 1.320703e-01 1.758912e+00 3.473007e+00 3.063818e+00 -1.771192e+00 -1.458062e-01 -3.454653e-01 -6.482190e-01 -8.350406e-01 -3.921632e-01 -1.795598e+00 -9.135399e-01 -9.172798e-01 -5.811502e-01 -6.058986e-01
<VARIANCE> 25
 3.350431e+01 3.652498e+01 5.543996e+01 4.107544e+01 3.849805e+01 4.208282e+01 4.809691e+01 4.542126e+01 3.864191e+01 3.712645e+01 2.983387e+01 2.518701e+01 2.997148e+00 2.974293e+00 3.189521e+00 4.118366e+00 3.599472e+00 4.296028e+00 4.654088e+00 4.965402e+00 3.636896e+00 3.091180e+00 2.790794e+00 2.614336e+00 1.042577e+00
<GCONST> 1.048478e+02
~t "T_ch"
<ENDHMM>
~h "g-r+a"
<BEGINHMM>
<NUMSTATES> 5
<STATE> 2
<MEAN> 25
 8.643217e+00 -2.787229e+00 -6.224000e+00 -3.124852e+00 1.355937e+00 -3.755785e+00 -4.512966e+00 -3.933424e+00 -2.882520e+00 -2.216112e+00 -7.354643e-01 1.580987e+00 1.561792e-01 8.974332e-01 -3.782570e-01 5.168830e-01 1.252811e+00 1.208448e+00 -3.267309e-01 -2.546778e-01 -2.021774e-01 -5.815746e-01 -5.138835e-01 -2.330100e-02 -1.076871e+00
<VARIANCE> 25
 3.211975e+01 4.498290e+01 5.062462e+01 5.935705e+01 5.828969e+01 5.106108e+01 4.451467e+01 4.801496e+01 4.760433e+01 4.023750e+01 3.850442e+01 3.225385e+01 1.654517e+00 2.112823e+00 2.382579e+00 2.979533e+00 3.407424e+00 4.447104e+00 3.988335e+00 3.638894e+00 3.461148e+00 2.960581e+00 2.838124e+00 2.399935e+00 1.986631e+00
<GCONST> 1.051154e+02
<STATE> 3
<MEAN> 25
 7.898341e+00 6.769122e-01 -5.980435e+00 -1.402799e+00 3.525082e+00 4.491480e-01 -3.918551e+00 -3.587373e+00 -2.649347e+00 -2.842372e+00 -1.689278e+00 1.021962e+00 -7.756338e-01 7.563383e-01 5.502752e-01 8.270113e-01 2.798240e-01 1.325491e+00 7.032835e-01 3.596233e-01 3.082208e-01 -5.154090e-03 -2.048264e-01 -3.199293e-01 -1.361292e+00
<VARIANCE> 25
 2.876068e+01 3.251756e+01 4.847742e+01 5.875251e+01 4.849226e+01 4.357820e+01 4.282160e+01 3.805943e+01 3.575104e+01 3.216047e+01 2.785275e+01 2.531534e+01 1.549412e+00 2.112714e+00 2.763809e+00 3.039823e+00 3.358799e+00 3.590118e+00 3.448425e+00 3.136224e+00 3.408474e+00 2.967985e+00 2.623605e+00 2.237263e+00 1.636310e+00
<GCONST> 1.021613e+02
<STATE> 4
<MEAN> 25
 5.412677e+00 1.833103e+00 -4.028427e+00 -5.085419e-01 2.267809e+00 2.085018e+00 -1.665371e+00 -2.343382e+00 -1.808912e+00 -2.284674e+00 -1.413052e+00 3.313459e-01 -4.867756e-01 -6.988044e-02 4.821670e-01 3.639740e-01 -2.038538e-01 -1.353530e-01 2.935330e-01 3.202356e-01 4.707072e-02 1.700878e-01 1.382703e-01 -1.182176e-01 -2.790100e-01
<VARIANCE> 25
 2.738630e+01 3.117259e+01 4.332304e+01 4.824800e+01 3.927319e+01 3.631243e+01 3.395251e+01 3.381007e+01 3.105561e+01 2.732073e+01 2.547030e+01 2.190276e+01 1.094292e+00 1.505075e+00 2.021805e+00 2.286807e+00 2.216540e+00 2.356158e+00 2.429886e+00 2.174607e+00 2.300617e+00 2.008530e+00 1.813168e+00 1.681972e+00 1.042680e+00
<GCONST> 9.575272e+01
~t "T_r"
<ENDHMM>
~h "g-r+e"
<BEGINHMM>
<NUMSTATES> 5
<STATE> 2
<MEAN> 25
 8.643217e+00 -2.787229e+00 -6.224000e+00 -3.124852e+00 1.355937e+00 -3.755785e+00 -4.512966e+00 -3.933424e+00 -2.882520e+00 -2.216112e+00 -7.354643e-01 1.580987e+00 1.561792e-01 8.974332e-01 -3.782570e-01 5.168830e-01 1.252811e+00 1.208448e+00 -3.267309e-01 -2.546778e-01 -2.021774e-01 -5.815746e-01 -5.138835e-01 -2.330100e-02 -1.076871e+00
<VARIANCE> 25
 3.211975e+01 4.498290e+01 5.062462e+01 5.935705e+01 5.828969e+01 5.106108e+01 4.451467e+01 4.801496e+01 4.760433e+01 4.023750e+01 3.850442e+01 3.225385e+01 1.654517e+00 2.112823e+00 2.382579e+00 2.979533e+00 3.407424e+00 4.447104e+00 3.988335e+00 3.638894e+00 3.461148e+00 2.960581e+00 2.838124e+00 2.399935e+00 1.986631e+00
<GCONST> 1.051154e+02
<STATE> 3
<MEAN> 25
 7.898341e+00 6.769122e-01 -5.980435e+00 -1.402799e+00 3.525082e+00 4.491480e-01 -3.918551e+00 -3.587373e+00 -2.649347e+00 -2.842372e+00 -1.689278e+00 1.021962e+00 -7.756338e-01 7.563383e-01 5.502752e-01 8.270113e-01 2.798240e-01 1.325491e+00 7.032835e-01 3.596233e-01 3.082208e-01 -5.154090e-03 -2.048264e-01 -3.199293e-01 -1.361292e+00
<VARIANCE> 25
 2.876068e+01 3.251756e+01 4.847742e+01 5.875251e+01 4.849226e+01 4.357820e+01 4.282160e+01 3.805943e+01 3.575104e+01 3.216047e+01 2.785275e+01 2.531534e+01 1.549412e+00 2.112714e+00 2.763809e+00 3.039823e+00 3.358799e+00 3.590118e+00 3.448425e+00 3.136224e+00 3.408474e+00 2.967985e+00 2.623605e+00 2.237263e+00 1.636310e+00
<GCONST> 1.021613e+02
<STATE> 4
<MEAN> 25
 5.412677e+00 1.833103e+00 -4.028427e+00 -5.085419e-01 2.267809e+00 2.085018e+00 -1.665371e+00 -2.343382e+00 -1.808912e+00 -2.284674e+00 -1.413052e+00 3.313459e-01 -4.867756e-01 -6.988044e-02 4.821670e-01 3.639740e-01 -2.038538e-01 -1.353530e-01 2.935330e-01 3.202356e-01 4.707072e-02 1.700878e-01 1.382703e-01 -1.182176e-01 -2.790100e-01
<VARIANCE> 25
 2.738630e+01 3.117259e+01 4.332304e+01 4.824800e+01 3.927319e+01 3.631243e+01 3.395251e+01 3.381007e+01 3.105561e+01 2.732073e+01 2.547030e+01 2.190276e+01 1.094292e+00 1.505075e+00 2.021805e+00 2.286807e+00 2.216540e+00 2.356158e+00 2.429886e+00 2.174607e+00 2.300617e+00 2.008530e+00 1.813168e+00 1.681972e+00 1.042680e+00
<GCONST> 9.575272e+01
~t "T_r"
<ENDHMM>
~h "g-r+i"
<BEGINHMM>
<NUMSTATES> 5
<STATE> 2
<MEAN> 25
 8.643217e+00 -2.787229e+00 -6.224000e+00 -3.124852e+00 1.355937e+00 -3.755785e+00 -4.512966e+00 -3.933424e+00 -2.882520e+00 -2.216112e+00 -7.354643e-01 1.580987e+00 1.561792e-01 8.974332e-01 -3.782570e-01 5.168830e-01 1.252811e+00 1.208448e+00 -3.267309e-01 -2.546778e-01 -2.021774e-01 -5.815746e-01 -5.138835e-01 -2.330100e-02 -1.076871e+00
<VARIANCE> 25
 3.211975e+01 4.498290e+01 5.062462e+01 5.935705e+01 5.828969e+01 5.106108e+01 4.451467e+01 4.801496e+01 4.760433e+01 4.023750e+01 3.850442e+01 3.225385e+01 1.654517e+00 2.112823e+00 2.382579e+00 2.979533e+00 3.407424e+00 4.447104e+00 3.988335e+00 3.638894e+00 3.461148e+00 2.960581e+00 2.838124e+00 2.399935e+00 1.986631e+00
<GCONST> 1.051154e+02
<STATE> 3
<MEAN> 25
 7.898341e+00 6.769122e-01 -5.980435e+00 -1.402799e+00 3.525082e+00 4.491480e-01 -3.918551e+00 -3.587373e+00 -2.649347e+00 -2.842372e+00 -1.689278e+00 1.021962e+00 -7.756338e-01 7.563383e-01 5.502752e-01 8.270113e-01 2.798240e-01 1.325491e+00 7.032835e-01 3.596233e-01 3.082208e-01 -5.154090e-03 -2.048264e-01 -3.199293e-01 -1.361292e+00
<VARIANCE> 25
 2.876068e+01 3.251756e+01 4.847742e+01 5.875251e+01 4.849226e+01 4.357820e+01 4.282160e+01 3.805943e+01 3.575104e+01 3.216047e+01 2.785275e+01 2.531534e+01 1.549412e+00 2.112714e+00 2.763809e+00 3.039823e+00 3.358799e+00 3.590118e+00 3.448425e+00 3.136224e+00 3.408474e+00 2.967985e+00 2.623605e+00 2.237263e+00 1.636310e+00
<GCONST> 1.021613e+02
<STATE> 4
<MEAN> 25
 5.412677e+00 1.833103e+00 -4.028427e+00 -5.085419e-01 2.267809e+00 2.085018e+00 -1.665371e+00 -2.343382e+00 -1.808912e+00 -2.284674e+00 -1.413052e+00 3.313459e-01 -4.867756e-01 -6.988044e-02 4.821670e-01 3.639740e-01 -2.038538e-01 -1.353530e-01 2.935330e-01 3.202356e-01 4.707072e-02 1.700878e-01 1.382703e-01 -1.182176e-01 -2.790100e-01
<VARIANCE> 25
 2.738630e+01 3.117259e+01 4.332304e+01 4.824800e+01 3.927319e+01 3.631243e+01 3.395251e+01 3.381007e+01 3.105561e+01 2.732073e+01 2.547030e+01 2.190276e+01 1.094292e+00 1.505075e+00 2.021805e+00 2.286807e+00 2.216540e+00 2.356158e+00 2.429886e+00 2.174607e+00 2.300617e+00 2.008530e+00 1.813168e+00 1.681972e+00 1.042680e+00
<GCONST> 9.575272e+01
~t "T_r"
<ENDHMM>
~h "g-r+u"
<BEGINHMM>
<NUMSTATES> 5
<STATE> 2
<MEAN> 25
 8.643217e+00 -2.787229e+00 -6.224000e+00 -3.124852e+00 1.355937e+00 -3.755785e+00 -4.512966e+00 -3.933424e+00 -2.882520e+00 -2.216112e+00 -7.354643e-01 1.580987e+00 1.561792e-01 8.974332e-01 -3.782570e-01 5.168830e-01 1.252811e+00 1.208448e+00 -3.267309e-01 -2.546778e-01 -2.021774e-01 -5.815746e-01 -5.138835e-01 -2.330100e-02 -1.076871e+00
<VARIANCE> 25
 3.211975e+01 4.498290e+01 5.062462e+01 5.935705e+01 5.828969e+01 5.106108e+01 4.451467e+01 4.801496e+01 4.760433e+01 4.023750e+01 3.850442e+01 3.225385e+01 1.654517e+00 2.112823e+00 2.382579e+00 2.979533e+00 3.407424e+00 4.447104e+00 3.988335e+00 3.638894e+00 3.461148e+00 2.960581e+00 2.838124e+00 2.399935e+00 1.986631e+00
<GCONST> 1.051154e+02
<STATE> 3
<MEAN> 25
 7.898341e+00 6.769122e-01 -5.980435e+00 -1.402799e+00 3.525082e+00 4.491480e-01 -3.918551e+00 -3.587373e+00 -2.649347e+00 -2.842372e+00 -1.689278e+00 1.021962e+00 -7.756338e-01 7.563383e-01 5.502752e-01 8.270113e-01 2.798240e-01 1.325491e+00 7.032835e-01 3.596233e-01 3.082208e-01 -5.154090e-03 -2.048264e-01 -3.199293e-01 -1.361292e+00
<VARIANCE> 25
 2.876068e+01 3.251756e+01 4.847742e+01 5.875251e+01 4.849226e+01 4.357820e+01 4.282160e+01 3.805943e+01 3.575104e+01 3.216047e+01 2.785275e+01 2.531534e+01 1.549412e+00 2.112714e+00 2.763809e+00 3.039823e+00 3.358799e+00 3.590118e+00 3.448425e+00 3.136224e+00 3.408474e+00 2.967985e+00 2.623605e+00 2.237263e+00 1.636310e+00
<GCONST> 1.021613e+02
<STATE> 4
<MEAN> 25
 5.412677e+00 1.833103e+00 -4.028427e+00 -5.085419e-01 2.267809e+00 2.085018e+00 -1.665371e+00 -2.343382e+00 -1.808912e+00 -2.284674e+00 -1.413052e+00 3.313459e-01 -4.867756e-01 -6.988044e-02 4.821670e-01 3.639740e-01 -2.038538e-01 -1.353530e-01 2.935330e-01 3.202356e-01 4.707072e-02 1.700878e-01 1.382703e-01 -1.182176e-01 -2.790100e-01
<VARIANCE> 25
 2.738630e+01 3.117259e+01 4.332304e+01 4.824800e+01 3.927319e+01 3.631243e+01 3.395251e+01 3.381007e+01 3.105561e+01 2.732073e+01 2.547030e+01 2.190276e+01 1.094292e+00 1.505075e+00 2.021805e+00 2.286807e+00 2.216540e+00 2.356158e+00 2.429886e+00 2.174607e+00 2.300617e+00 2.008530e+00 1.813168e+00 1.681972e+00 1.042680e+00
<GCONST> 9.575272e+01
~t "T_r"
<ENDHMM>
~h "f-i+th"
<BEGINHMM>
<NUMSTATES> 5
<STATE> 2
<MEAN> 25
 2.824880e+00 -2.961581e+00 4.292364e+00 7.499251e+00 7.346193e+00 -2.067250e+00 -5.297520e+00 -2.873806e+00 -2.378581e+00 -1.973293e+00 -2.520489e+00 -3.736685e+00 1.015099e+00 -9.724852e-01 2.479329e-01 2.179622e+00 1.426837e+00 -2.128228e+00 -2.309814e+00 -3.848035e-01 -7.270547e-01 -7.560874e-01 -6.794949e-01 -8.365397e-01 1.175898e+00
<VARIANCE> 25
 3.374600e+01 3.967356e+01 6.750194e+01 6.375350e+01 5.781096e+01 6.437442e+01 4.980933e+01 4.415491e+01 4.445846e+01 3.540117e+01 3.356274e+01 2.704606e+01 3.132528e+00 4.137255e+00 3.621446e+00 4.487921e+00 4.215056e+00 5.312013e+00 4.005538e+00 3.824685e+00 4.409300e+00 4.209664e+00 3.923692e+00 2.984154e+00 1.617640e+00
<GCONST> 1.086541e+02
<STATE> 3
<MEAN> 25
 3.691633e+00 -6.378765e+00 6.166086e+00 1.236009e+01 7.380941e+00 -9.047977e+00 -9.580333e+00 -1.629763e+00 -3.102339e+00 -4.599288e+00 -4.548250e+00 -5.048493e+00 8.359629e-02 -2.991736e-01 1.296623e-01 4.305927e-01 9.667514e-03 -8.290642e-01 -5.818837e-01 1.603395e-01 8.957740e-02 -1.876646e-01 -1.591199e-01 -1.092843e-01 2.681427e-01
<VARIANCE> 25
 2.149308e+01 3.103732e+01 4.970968e+01 5.873264e+01 7.158559e+01 6.920425e+01 3.966159e+01 4.495304e+01 4.204121e+01 4.275245e+01 4.102441e+01 2.954641e+01 6.639252e-01 9.264812e-01 1.883231e+00 1.858640e+00 1.558079e+00 2.146437e+00 1.929194e+00 2.097977e+00 1.840118e+00 1.884095e+00 1.595546e+00 1.333590e+00 5.259222e-01
<GCONST> 9.574519e+01
<STATE> 4
<MEAN> 25
 4.036044e+00 -4.218312e+00 4.209880e+00 1.037407e+01 7.996428e+00 -6.247262e+00 -9.419474e+00 -3.331409e+00 -2.663913e+00 -2.918104e+00 -3.142705e+00 -4.376024e+00 3.821991e-02 8.336469e-01 -6.000085e-01 -1.181883e+00 -5.675405e-01 1.117856e+00 8.718380e-01 -2.187419e-01 -3.897155e-02 3.511441e-01 4.869802e-01 5.886047e-01 -5.325214e-01
<VARIANCE> 25
 1.972391e+01 3.227742e+01 4.309776e+01 5.167957e+01 5.495691e+01 6.691110e+01 3.850472e+01 4.351723e+01 4.154246e+01 3.556070e+01 3.517086e+01 2.803684e+01 6.999541e-01 1.390189e+00 1.663853e+00 1.824908e+00 1.964548e+00 2.784639e+00 2.501812e+00 2.236512e+00 2.341234e+00 2.148965e+00 1.947036e+00 1.699689e+00 1.056007e+00
<GCONST> 9.730878e+01
~t "T_i"
<ENDHMM>
~h "t-m+o"
<BEGINHMM>
<NUMSTATES> 5
<STATE> 2
<MEAN> 25
 7.548775e+00 2.607854e+00 -2.102983e+00 4.346527e-01 8.082584e-01 9.021307e-01 6.144225e-01 8.268155e-01 -1.237094e+00 -2.310319e+00 -2.608431e+00 -3.108366e+00 -1.797019e-01 1.273914e+00 7.998855e-01 1.091742e+00 7.315946e-01 1.888878e+00 1.063340e+00 1.975945e-01 -9.558619e-02 -2.353920e-01 -8.953397e-01 -1.563288e+00 -1.207566e+00
<VARIANCE> 25
 2.775693e+01 3.253825e+01 4.646520e+01 5.028252e+01 4.394492e+01 4.523094e+01 3.715427e+01 3.382478e+01 4.342428e+01 3.434188e+01 2.442644e+01 3.211829e+01 1.185310e+00 1.893670e+00 1.789684e+00 3.486195e+00 3.584235e+00 3.238808e+00 3.284998e+00 2.704141e+00 3.304344e+00 3.214128e+00 2.384440e+00 2.359962e+00 1.375406e+00
<GCONST> 1.008971e+02
<STATE> 3
<MEAN> 25
 6.220848e+00 4.772701e+00 5.252566e-01 2.877606e+00 2.598014e+00 3.498492e+00 1.213324e+00 6.923475e-01 -7.689387e-01 -1.961661e+00 -3.632575e+00 -5.278195e+00 -7.126752e-02 8.531751e-02 1.286000e-01 1.251273e-01 1.169438e-01 2.010717e-01 1.808041e-01 4.610286e-02 -8.495778e-03 -3.835244e-02 -1.209151e-01 -2.196753e-01 -6.887542e-02
<VARIANCE> 25
 1.855869e+01 1.867837e+01 3.135711e+01 3.267927e+01 3.053080e+01 3.023534e+01 3.066374e+01 2.707565e+01 4.045082e+01 3.238166e+01 2.111422e+01 2.286841e+01 2.486276e-01 4.200025e-01 5.990037e-01 7.999274e-01 8.217130e-01 9.086192e-01 9.282346e-01 9.278805e-01 1.016802e+00 9.133210e-01 8.226467e-01 9.005458e-01 2.172809e-01
<GCONST> 8.029716e+01
<STATE> 4
<MEAN> 25
 6.860100e+00 4.454634e+00 4.674924e-02 2.128716e+00 1.891875e+00 3.227122e+00 1.878703e+00 1.082704e+00 -8.831809e-01 -1.881544e+00 -3.649952e+00 -5.456431e+00 3.623773e-01 -6.383294e-01 -6.348953e-01 -9.845536e-01 -7.848371e-01 -1.462937e+00 -6.459333e-01 7.814296e-02 -9.017757e-02 -7.700860e-02 5.040931e-01 1.155138e+00 8.107449e-01
<VARIANCE> 25
 1.989024e+01 2.237800e+01 3.543090e+01 3.925693e+01 3.831349e+01 3.554395e+01 3.319180e+01 2.993235e+01 4.311877e+01 3.359512e+01 2.268687e+01 2.678186e+01 5.137467e-01 1.101111e+00 1.252599e+00 2.638350e+00 2.525054e+00 2.299931e+00 2.038847e+00 1.819399e+00 1.983290e+00 1.852884e+00 1.639309e+00 1.938033e+00 6.037184e-01
<GCONST> 9.273713e+01
~t "T_m"
<ENDHMM>
~h "ll+a"
<BEGINHMM>
<NUMSTATES> 5
<STATE> 2
<MEAN> 25
 3.212471e+00 -2.951287e+00 4.323708e+00 8.410697e+00 2.788220e+00 -1.935065e+00 -1.747923e+00 8.391452e-02 -2.637424e+00 -1.581116e+00 -6.247452e-01 -1.540875e+00 -2.188163e-01 -4.430611e-01 8.618621e-01 1.067031e+00 6.207041e-01 -1.448503e-01 -4.251457e-01 -1.209111e-01 -3.200509e-01 -3.793057e-01 -3.794066e-01 -4.406834e-01 1.135523e-01
<VARIANCE> 25
 3.954158e+01 4.888305e+01 7.001929e+01 7.442691e+01 4.999314e+01 6.646969e+01 5.267068e+01 4.823973e+01 4.327724e+01 3.409306e+01 3.101496e+01 2.490006e+01 2.074605e+00 4.279892e+00 3.420694e+00 4.001318e+00 3.367984e+00 4.949061e+00 5.046401e+00 4.234818e+00 3.539297e+00 2.989798e+00 2.465955e+00 2.130456e+00 3.378630e+00
<GCONST> 1.078784e+02
<STATE> 3
<MEAN> 25
 5.845975e+00 -6.557073e+00 3.317025e+00 1.269852e+01 6.821661e+00 -6.851101e+00 -8.228510e+00 -3.712974e+00 -6.055174e+00 -4.384605e+00 -1.842642e+00 -2.637305e+00 1.161601e+00 -3.497964e-01 -1.748255e+00 -1.039612e+00 -1.023872e-01 -1.126238e+00 -1.311410e+00 -1.242101e+00 -8.171799e-01 -3.470524e-02 5.469254e-01 7.039791e-01 1.082235e+00
<VARIANCE> 25
 2.284479e+01 2.646275e+01 3.987304e+01 6.100370e+01 6.157007e+01 5.622474e+01 4.059973e+01 4.629984e+01 3.791869e+01 3.027633e+01 2.953214e+01 2.345895e+01 1.101586e+00 1.286474e+00 2.290552e+00 2.601848e+00 2.260683e+00 3.307712e+00 3.644923e+00 2.808527e+00 3.231163e+00 3.109841e+00 2.243085e+00 1.853376e+00 7.294656e-01
<GCONST> 9.931143e+01
<STATE> 4
<MEAN> 25
 6.903928e+00 -5.119917e+00 -6.370137e-01 7.196602e+00 3.752772e+00 -6.617359e+00 -7.630206e+00 -4.237154e+00 -5.773923e+00 -3.432392e+00 -1.383355e-01 2.270406e-01 3.532740e-01 1.402729e-01 -1.005013e+00 -1.572629e+00 -9.562680e-01 -6.739819e-02 5.709735e-01 2.909666e-01 3.566037e-01 4.653815e-01 4.380224e-01 6.594865e-01 2.652628e-01
<VARIANCE> 25
 2.485456e+01 3.116670e+01 3.369991e+01 4.996317e+01 4.769045e+01 6.074029e+01 3.860729e+01 4.537725e+01 3.515932e+01 5.286123e+01 3.456664e+01 2.363072e+01 3.052286e-01 6.844740e-01 1.423032e+00 1.637507e+00 1.733776e+00 1.588886e+00 1.935019e+00 2.034065e+00 1.932827e+00 2.487600e+00 2.167042e+00 1.462642e+00 3.067801e-01
<GCONST> 9.290681e+01
~t "T_ll"
<ENDHMM>
~h "ll+e"
<BEGINHMM>
<NUMSTATES> 5
<STATE> 2
<MEAN> 25
 3.212471e+00 -2.951287e+00 4.323708e+00 8.410697e+00 2.788220e+00 -1.935065e+00 -1.747923e+00 8.391452e-02 -2.637424e+00 -1.581116e+00 -6.247452e-01 -1.540875e+00 -2.188163e-01 -4.430611e-01 8.618621e-01 1.067031e+00 6.207041e-01 -1.448503e-01 -4.251457e-01 -1.209111e-01 -3.200509e-01 -3.793057e-01 -3.794066e-01 -4.406834e-01 1.135523e-01
<VARIANCE> 25
 3.954158e+01 4.888305e+01 7.001929e+01 7.442691e+01 4.999314e+01 6.646969e+01 5.267068e+01 4.823973e+01 4.327724e+01 3.409306e+01 3.101496e+01 2.490006e+01 2.074605e+00 4.279892e+00 3.420694e+00 4.001318e+00 3.367984e+00 4.949061e+00 5.046401e+00 4.234818e+00 3.539297e+00 2.989798e+00 2.465955e+00 2.130456e+00 3.378630e+00
<GCONST> 1.078784e+02
<STATE> 3
<MEAN> 25
 5.845975e+00 -6.557073e+00 3.317025e+00 1.269852e+01 6.821661e+00 -6.851101e+00 -8.228510e+00 -3.712974e+00 -6.055174e+00 -4.384605e+00 -1.842642e+00 -2.637305e+00 1.161601e+00 -3.497964e-01 -1.748255e+00 -1.039612e+00 -1.023872e-01 -1.126238e+00 -1.311410e+00 -1.242101e+00 -8.171799e-01 -3.470524e-02 5.469254e-01 7.039791e-01 1.082235e+00
<VARIANCE> 25
 2.284479e+01 2.646275e+01 3.987304e+01 6.100370e+01 6.157007e+01 5.622474e+01 4.059973e+01 4.629984e+01 3.791869e+01 3.027633e+01 2.953214e+01 2.345895e+01 1.101586e+00 1.286474e+00 2.290552e+00 2.601848e+00 2.260683e+00 3.307712e+00 3.644923e+00 2.808527e+00 3.231163e+00 3.109841e+00 2.243085e+00 1.853376e+00 7.294656e-01
<GCONST> 9.931143e+01
<STATE> 4
<MEAN> 25
 6.903928e+00 -5.119917e+00 -6.370137e-01 7.196602e+00 3.752772e+00 -6.617359e+00 -7.630206e+00 -4.237154e+00 -5.773923e+00 -3.432392e+00 -1.383355e-01 2.270406e-01 3.532740e-01 1.402729e-01 -1.005013e+00 -1.572629e+00 -9.562680e-01 -6.739819e-02 5.709735e-01 2.909666e-01 3.566037e-01 4.653815e-01 4.380224e-01 6.594865e-01 2.652628e-01
<VARIANCE> 25
 2.485456e+01 3.116670e+01 3.369991e+01 4.996317e+01 4.769045e+01 6.074029e+01 3.860729e+01 4.537725e+01 3.515932e+01 5.286123e+01 3.456664e+01 2.363072e+01 3.052286e-01 6.844740e-01 1.423032e+00 1.637507e+00 1.733776e+00 1.588886e+00 1.935019e+00 2.034065e+00 1.932827e+00 2.487600e+00 2.167042e+00 1.462642e+00 3.067801e-01
<GCONST> 9.290681e+01
~t "T_ll"
<ENDHMM>
~h "ll+u"
<BEGINHMM>
<NUMSTATES> 5
<STATE> 2
<MEAN> 25
 3.212471e+00 -2.951287e+00 4.323708e+00 8.410697e+00 2.788220e+00 -1.935065e+00 -1.747923e+00 8.391452e-02 -2.637424e+00 -1.581116e+00 -6.247452e-01 -1.540875e+00 -2.188163e-01 -4.430611e-01 8.618621e-01 1.067031e+00 6.207041e-01 -1.448503e-01 -4.251457e-01 -1.209111e-01 -3.200509e-01 -3.793057e-01 -3.794066e-01 -4.406834e-01 1.135523e-01
<VARIANCE> 25
 3.954158e+01 4.888305e+01 7.001929e+01 7.442691e+01 4.999314e+01 6.646969e+01 5.267068e+01 4.823973e+01 4.327724e+01 3.409306e+01 3.101496e+01 2.490006e+01 2.074605e+00 4.279892e+00 3.420694e+00 4.001318e+00 3.367984e+00 4.949061e+00 5.046401e+00 4.234818e+00 3.539297e+00 2.989798e+00 2.465955e+00 2.130456e+00 3.378630e+00
<GCONST> 1.078784e+02
<STATE> 3
<MEAN> 25
 5.845975e+00 -6.557073e+00 3.317025e+00 1.269852e+01 6.821661e+00 -6.851101e+00 -8.228510e+00 -3.712974e+00 -6.055174e+00 -4.384605e+00 -1.842642e+00 -2.637305e+00 1.161601e+00 -3.497964e-01 -1.748255e+00 -1.039612e+00 -1.023872e-01 -1.126238e+00 -1.311410e+00 -1.242101e+00 -8.171799e-01 -3.470524e-02 5.469254e-01 7.039791e-01 1.082235e+00
<VARIANCE> 25
 2.284479e+01 2.646275e+01 3.987304e+01 6.100370e+01 6.157007e+01 5.622474e+01 4.059973e+01 4.629984e+01 3.791869e+01 3.027633e+01 2.953214e+01 2.345895e+01 1.101586e+00 1.286474e+00 2.290552e+00 2.601848e+00 2.260683e+00 3.307712e+00 3.644923e+00 2.808527e+00 3.231163e+00 3.109841e+00 2.243085e+00 1.853376e+00 7.294656e-01
<GCONST> 9.931143e+01
<STATE> 4
<MEAN> 25
 6.903928e+00 -5.119917e+00 -6.370137e-01 7.196602e+00 3.752772e+00 -6.617359e+00 -7.630206e+00 -4.237154e+00 -5.773923e+00 -3.432392e+00 -1.383355e-01 2.270406e-01 3.532740e-01 1.402729e-01 -1.005013e+00 -1.572629e+00 -9.562680e-01 -6.739819e-02 5.709735e-01 2.909666e-01 3.566037e-01 4.653815e-01 4.380224e-01 6.594865e-01 2.652628e-01
<VARIANCE> 25
 2.485456e+01 3.116670e+01 3.369991e+01 4.996317e+01 4.769045e+01 6.074029e+01 3.860729e+01 4.537725e+01 3.515932e+01 5.286123e+01 3.456664e+01 2.363072e+01 3.052286e-01 6.844740e-01 1.423032e+00 1.637507e+00 1.733776e+00 1.588886e+00 1.935019e+00 2.034065e+00 1.932827e+00 2.487600e+00 2.167042e+00 1.462642e+00 3.067801e-01
<GCONST> 9.290681e+01
~t "T_ll"
<ENDHMM>
~h "ll-a"
<BEGINHMM>
<NUMSTATES> 5
<STATE> 2
<MEAN> 25
 8.084209e+00 -3.246555e+00 -4.886938e+00 -2.890126e+00 -1.922659e+00 -4.591505e+00 -1.062124e+00 -1.533606e+00 -3.011539e+00 -1.419097e+00 7.822737e-01 1.974153e+00 8.531939e-01 -1.219489e+00 -1.591901e+00 -1.511451e+00 -1.099942e+00 -1.081241e+00 3.296968e-01 2.435892e-01 2.131322e-01 7.433307e-01 1.096173e+00 1.076555e+00 1.531909e+00
<VARIANCE> 25
 3.102556e+01 3.982352e+01 4.648204e+01 6.052976e+01 4.865224e+01 5.364120e+01 4.957391e+01 5.206113e+01 4.994263e+01 4.377484e+01 3.566540e+01 3.010361e+01 2.105191e+00 2.133569e+00 2.607650e+00 3.361774e+00 2.917656e+00 3.954443e+00 3.398865e+00 3.319243e+00 3.668817e+00 4.076825e+00 3.093344e+00 2.673295e+00 1.675560e+00
<GCONST> 1.052759e+02
<STATE> 3
<MEAN> 25
 9.462610e+00 -6.897775e+00 -8.743549e+00 -6.083593e+00 -4.604442e+00 -5.470979e+00 1.397076e+00 -2.830499e-01 -1.629562e+00 7.007640e-01 2.659651e+00 3.340820e+00 3.290816e-02 -1.735238e-01 -3.625012e-01 -3.627358e-01 -1.769637e-01 2.254089e-01 4.766614e-01 2.827543e-01 2.371980e-01 1.767752e-01 8.445666e-02 6.974697e-02 8.193482e-02
<VARIANCE> 25
 2.840129e+01 3.570125e+01 4.138834e+01 4.038225e+01 4.118876e+01 4.148624e+01 4.739182e+01 4.747406e+01 4.473821e+01 4.189992e+01 3.449903e+01 2.805832e+01 3.302394e-01 8.424883e-01 9.393210e-01 1.242460e+00 1.324397e+00 1.496400e+00 1.901740e+00 1.780651e+00 1.803969e+00 1.726919e+00 1.430944e+00 1.179275e+00 3.783611e-01
<GCONST> 9.133002e+01
<STATE> 4
<MEAN> 25
 8.177530e+00 -2.680661e+00 -7.293503e+00 -5.932261e+00 -3.758124e+00 -2.794274e+00 1.176165e+00 -3.390664e-01 -1.368642e+00 2.573896e-01 2.133668e+00 3.287408e+00 -4.538044e-01 8.704351e-01 7.276899e-01 4.679444e-01 4.150407e-01 5.706517e-01 -1.937626e-01 -1.382255e-01 1.753797e-02 -1.629017e-01 -2.942949e-01 -3.140077e-01 -8.826797e-01
<VARIANCE> 25
 2.215926e+01 3.099335e+01 3.486272e+01 3.668752e+01 3.283007e+01 3.965223e+01 3.500597e+01 3.826480e+01 3.512437e+01 3.170736e+01 2.563973e+01 2.200531e+01 5.861269e-01 9.910762e-01 1.080531e+00 1.252255e+00 1.395680e+00 1.835312e+00 1.787168e+00 1.826652e+00 1.993582e+00 1.853269e+00 1.609923e+00 1.318195e+00 6.483233e-01
<GCONST> 9.086413e+01
~t "T_a"
<ENDHMM>
~h "ll-e"
<BEGINHMM>
<NUMSTATES> 5
<STATE> 2
<MEAN> 25
 4.917822e+00 -3.046909e+00 -7.860230e-01 1.961976e+00 3.296882e+00 -3.095960e+00 -4.445966e+00 -4.378197e+00 -4.194638e+00 -1.446952e+00 1.146220e-01 1.648807e-01 1.062938e+00 -1.285595e+00 -6.981800e-01 4.423747e-01 5.001229e-01 -1.895295e+00 -1.787762e+00 -1.308817e+00 -1.084860e+00 1.344622e-01 6.617222e-01 3.701210e-01 1.670173e+00
<VARIANCE> 25
 3.577217e+01 3.706077e+01 4.774310e+01 6.015227e+01 4.925949e+01 6.036604e+01 5.010396e+01 4.977269e+01 4.858726e+01 3.950971e+01 3.013842e+01 2.473536e+01 2.384392e+00 2.958043e+00 2.685448e+00 3.858023e+00 3.340221e+00 5.064232e+00 4.063103e+00 3.681123e+00 4.037725e+00 4.174648e+00 3.332788e+00 2.898063e+00 2.226966e+00
<GCONST> 1.068105e+02
<STATE> 3
<MEAN> 25
 7.191195e+00 -7.001473e+00 -2.328277e+00 2.836691e+00 3.888689e+00 -7.911126e+00 -8.482172e+00 -6.657192e+00 -5.470276e+00 -1.285404e-01 1.987994e+00 7.147580e-01 8.514885e-02 -4.249433e-01 -1.496204e-01 2.818093e-01 1.203487e-01 -6.073316e-01 -4.420330e-01 -1.406531e-01 1.603031e-01 5.093133e-01 3.347531e-01 -4.041983e-02 2.952766e-01
<VARIANCE> 25
 2.837927e+01 3.550758e+01 4.376701e+01 6.339727e+01 5.782299e+01 6.153004e+01 4.445435e+01 4.665985e+01 4.438187e+01 4.603452e+01 3.686113e+01 3.249733e+01 5.579238e-01 9.633060e-01 1.396090e+00 1.826277e+00 1.583154e+00 2.003756e+00 1.982185e+00 1.856537e+00 2.013892e+00 2.006657e+00 1.751121e+00 1.508502e+00 5.828047e-01
<GCONST> 9.591582e+01
<STATE> 4
<MEAN> 25
 5.895019e+00 -4.724988e+00 -1.197292e+00 3.906052e+00 3.870449e+00 -6.545651e+00 -8.215060e+00 -6.679025e+00 -4.172563e+00 5.337154e-01 9.279272e-01 -6.742178e-01 -3.232698e-01 7.992764e-01 3.300467e-01 -6.339286e-02 7.912491e-02 1.004552e+00 6.088396e-01 3.772415e-01 3.436322e-01 -1.313366e-01 -2.720630e-01 -1.298955e-01 -7.956876e-01
<VARIANCE> 25
 2.029749e+01 3.066547e+01 3.368494e+01 5.057070e+01 4.296806e+01 5.593891e+01 3.659196e+01 3.710094e+01 4.034227e+01 3.575679e+01 3.262199e+01 2.925796e+01 5.569103e-01 1.011105e+00 1.171097e+00 1.448238e+00 1.440968e+00 2.011663e+00 1.814593e+00 1.739066e+00 1.905525e+00 1.867028e+00 1.539982e+00 1.274082e+00 7.538318e-01
<GCONST> 9.278246e+01
~t "T_e"
<ENDHMM>
~h "ll-o"
<BEGINHMM>
<NUMSTATES> 5
<STATE> 2
<MEAN> 25
 8.202134e+00 8.756948e-01 -1.556870e+00 -2.412576e+00 -4.135490e+00 -5.283045e+00 -1.325630e+00 5.514442e-01 -3.256593e+00 -4.464030e+00 -3.179199e+00 -1.018459e+00 8.533680e-01 5.628624e-02 -4.272498e-01 -1.163086e+00 -1.742013e+00 -1.833407e+00 -1.006363e-01 8.327968e-01 2.565329e-01 -1.784475e-01 -2.551433e-01 1.000556e-01 7.841955e-01
<VARIANCE> 25
 2.727819e+01 4.614404e+01 4.546624e+01 5.624189e+01 6.257309e+01 6.102062e+01 4.518742e+01 4.939813e+01 5.469617e+01 4.219932e+01 3.056493e+01 2.847985e+01 1.604221e+00 2.714622e+00 2.414845e+00 3.306103e+00 3.399673e+00 4.293542e+00 4.410888e+00 3.910635e+00 3.812121e+00 3.509329e+00 2.851977e+00 2.694980e+00 1.552250e+00
<GCONST> 1.055529e+02
<STATE> 3
<MEAN> 25
 9.608891e+00 1.841884e+00 -1.624231e+00 -4.843653e+00 -1.056682e+01 -1.047259e+01 -3.275502e-01 4.228262e+00 -8.981493e-01 -3.707518e+00 -3.771726e+00 -1.847208e+00 -1.603226e-01 3.746803e-01 2.492852e-02 -5.283350e-02 -1.316152e-01 2.060792e-01 2.320018e-01 3.473101e-01 4.636069e-01 2.421327e-01 -1.011645e-03 -9.001540e-02 -4.208844e-01
<VARIANCE> 25
 2.191664e+01 3.832346e+01 3.536129e+01 4.552036e+01 5.146196e+01 5.402416e+01 4.532333e+01 4.316967e+01 5.194213e+01 3.791486e+01 2.724122e+01 2.477335e+01 5.759985e-01 1.296905e+00 1.329783e+00 1.436117e+00 2.015944e+00 2.854960e+00 1.984985e+00 2.227589e+00 2.343580e+00 2.045362e+00 1.638120e+00 1.449960e+00 1.066268e+00
<GCONST> 9.576168e+01
<STATE> 4
<MEAN> 25
 5.920141e+00 4.729104e+00 -6.619071e-01 -3.592440e+00 -6.668617e+00 -4.437122e+00 3.776827e-01 3.175261e+00 9.050462e-01 -1.454790e+00 -2.326509e+00 -1.249121e+00 -6.257654e-01 -3.906129e-02 1.678127e-01 4.218079e-01 7.039407e-01 9.980335e-01 2.885799e-01 -2.038472e-01 -1.773957e-02 1.877047e-01 2.155907e-01 8.154663e-02 -5.345345e-01
<VARIANCE> 25
 2.381943e+01 3.168683e+01 3.073319e+01 3.372535e+01 3.205265e+01 4.222814e+01 3.201194e+01 3.300840e+01 3.498757e+01 3.150789e+01 2.243595e+01 1.901501e+01 4.852379e-01 7.335701e-01 1.011674e+00 1.084659e+00 1.496157e+00 1.967000e+00 1.648281e+00 1.688958e+00 1.686677e+00 1.518985e+00 1.305284e+00 1.193857e+00 3.831035e-01
<GCONST> 8.833953e+01
~t "T_o"
<ENDHMM>
~h "t-o+d"
<BEGINHMM>
<NUMSTATES> 5
<STATE> 2
<MEAN> 25
 8.202134e+00 8.756948e-01 -1.556870e+00 -2.412576e+00 -4.135490e+00 -5.283045e+00 -1.325630e+00 5.514442e-01 -3.256593e+00 -4.464030e+00 -3.179199e+00 -1.018459e+00 8.533680e-01 5.628624e-02 -4.272498e-01 -1.163086e+00 -1.742013e+00 -1.833407e+00 -1.006363e-01 8.327968e-01 2.565329e-01 -1.784475e-01 -2.551433e-01 1.000556e-01 7.841955e-01
<VARIANCE> 25
 2.727819e+01 4.614404e+01 4.546624e+01 5.624189e+01 6.257309e+01 6.102062e+01 4.518742e+01 4.939813e+01 5.469617e+01 4.219932e+01 3.056493e+01 2.847985e+01 1.604221e+00 2.714622e+00 2.414845e+00 3.306103e+00 3.399673e+00 4.293542e+00 4.410888e+00 3.910635e+00 3.812121e+00 3.509329e+00 2.851977e+00 2.694980e+00 1.552250e+00
<GCONST> 1.055529e+02
<STATE> 3
<MEAN> 25
 9.608891e+00 1.841884e+00 -1.624231e+00 -4.843653e+00 -1.056682e+01 -1.047259e+01 -3.275502e-01 4.228262e+00 -8.981493e-01 -3.707518e+00 -3.771726e+00 -1.847208e+00 -1.603226e-01 3.746803e-01 2.492852e-02 -5.283350e-02 -1.316152e-01 2.060792e-01 2.320018e-01 3.473101e-01 4.636069e-01 2.421327e-01 -1.011645e-03 -9.001540e-02 -4.208844e-01
<VARIANCE> 25
 2.191664e+01 3.832346e+01 3.536129e+01 4.552036e+01 5.146196e+01 5.402416e+01 4.532333e+01 4.316967e+01 5.194213e+01 3.791486e+01 2.724122e+01 2.477335e+01 5.759985e-01 1.296905e+00 1.329783e+00 1.436117e+00 2.015944e+00 2.854960e+00 1.984985e+00 2.227589e+00 2.343580e+00 2.045362e+00 1.638120e+00 1.449960e+00 1.066268e+00
<GCONST> 9.576168e+01
<STATE> 4
<MEAN> 25
 5.920141e+00 4.729104e+00 -6.619071e-01 -3.592440e+00 -6.668617e+00 -4.437122e+00 3.776827e-01 3.175261e+00 9.050462e-01 -1.454790e+00 -2.326509e+00 -1.249121e+00 -6.257654e-01 -3.906129e-02 1.678127e-01 4.218079e-01 7.039407e-01 9.980335e-01 2.885799e-01 -2.038472e-01 -1.773957e-02 1.877047e-01 2.155907e-01 8.154663e-02 -5.345345e-01
<VARIANCE> 25
 2.381943e+01 3.168683e+01 3.073319e+01 3.372535e+01 3.205265e+01 4.222814e+01 3.201194e+01 3.300840e+01 3.498757e+01 3.150789e+01 2.243595e+01 1.901501e+01 4.852379e-01 7.335701e-01 1.011674e+00 1.084659e+00 1.496157e+00 1.967000e+00 1.648281e+00 1.688958e+00 1.686677e+00 1.518985e+00 1.305284e+00 1.193857e+00 3.831035e-01
<GCONST> 8.833953e+01
~t "T_o"
<ENDHMM>
~h "t-o+k"
<BEGINHMM>
<NUMSTATES> 5
<STATE> 2
<MEAN> 25
 8.202134e+00 8.756948e-01 -1.556870e+00 -2.412576e+00 -4.135490e+00 -5.283045e+00 -1.325630e+00 5.514442e-01 -3.256593e+00 -4.464030e+00 -3.179199e+00 -1.018459e+00 8.533680e-01 5.628624e-02 -4.272498e-01 -1.163086e+00 -1.742013e+00 -1.833407e+00 -1.006363e-01 8.327968e-01 2.565329e-01 -1.784475e-01 -2.551433e-01 1.000556e-01 7.841955e-01
<VARIANCE> 25
 2.727819e+01 4.614404e+01 4.546624e+01 5.624189e+01 6.257309e+01 6.102062e+01 4.518742e+01 4.939813e+01 5.469617e+01 4.219932e+01 3.056493e+01 2.847985e+01 1.604221e+00 2.714622e+00 2.414845e+00 3.306103e+00 3.399673e+00 4.293542e+00 4.410888e+00 3.910635e+00 3.812121e+00 3.509329e+00 2.851977e+00 2.694980e+00 1.552250e+00
<GCONST> 1.055529e+02
<STATE> 3
<MEAN> 25
 9.608891e+00 1.841884e+00 -1.624231e+00 -4.843653e+00 -1.056682e+01 -1.047259e+01 -3.275502e-01 4.228262e+00 -8.981493e-01 -3.707518e+00 -3.771726e+00 -1.847208e+00 -1.603226e-01 3.746803e-01 2.492852e-02 -5.283350e-02 -1.316152e-01 2.060792e-01 2.320018e-01 3.473101e-01 4.636069e-01 2.421327e-01 -1.011645e-03 -9.001540e-02 -4.208844e-01
<VARIANCE> 25
 2.191664e+01 3.832346e+01 3.536129e+01 4.552036e+01 5.146196e+01 5.402416e+01 4.532333e+01 4.316967e+01 5.194213e+01 3.791486e+01 2.724122e+01 2.477335e+01 5.759985e-01 1.296905e+00 1.329783e+00 1.436117e+00 2.015944e+00 2.854960e+00 1.984985e+00 2.227589e+00 2.343580e+00 2.045362e+00 1.638120e+00 1.449960e+00 1.066268e+00
<GCONST> 9.576168e+01
<STATE> 4
<MEAN> 25
 5.920141e+00 4.729104e+00 -6.619071e-01 -3.592440e+00 -6.668617e+00 -4.437122e+00 3.776827e-01 3.175261e+00 9.050462e-01 -1.454790e+00 -2.326509e+00 -1.249121e+00 -6.257654e-01 -3.906129e-02 1.678127e-01 4.218079e-01 7.039407e-01 9.980335e-01 2.885799e-01 -2.038472e-01 -1.773957e-02 1.877047e-01 2.155907e-01 8.154663e-02 -5.345345e-01
<VARIANCE> 25
 2.381943e+01 3.168683e+01 3.073319e+01 3.372535e+01 3.205265e+01 4.222814e+01 3.201194e+01 3.300840e+01 3.498757e+01 3.150789e+01 2.243595e+01 1.901501e+01 4.852379e-01 7.335701e-01 1.011674e+00 1.084659e+00 1.496157e+00 1.967000e+00 1.648281e+00 1.688958e+00 1.686677e+00 1.518985e+00 1.305284e+00 1.193857e+00 3.831035e-01
<GCONST> 8.833953e+01
~t "T_o"
<ENDHMM>
~h "t-o+m"
<BEGINHMM>
<NUMSTATES> 5
<STATE> 2
<MEAN> 25
 8.202134e+00 8.756948e-01 -1.556870e+00 -2.412576e+00 -4.135490e+00 -5.283045e+00 -1.325630e+00 5.514442e-01 -3.256593e+00 -4.464030e+00 -3.179199e+00 -1.018459e+00 8.533680e-01 5.628624e-02 -4.272498e-01 -1.163086e+00 -1.742013e+00 -1.833407e+00 -1.006363e-01 8.327968e-01 2.565329e-01 -1.784475e-01 -2.551433e-01 1.000556e-01 7.841955e-01
<VARIANCE> 25
 2.727819e+01 4.614404e+01 4.546624e+01 5.624189e+01 6.257309e+01 6.102062e+01 4.518742e+01 4.939813e+01 5.469617e+01 4.219932e+01 3.056493e+01 2.847985e+01 1.604221e+00 2.714622e+00 2.414845e+00 3.306103e+00 3.399673e+00 4.293542e+00 4.410888e+00 3.910635e+00 3.812121e+00 3.509329e+00 2.851977e+00 2.694980e+00 1.552250e+00
<GCONST> 1.055529e+02
<STATE> 3
<MEAN> 25
 9.608891e+00 1.841884e+00 -1.624231e+00 -4.843653e+00 -1.056682e+01 -1.047259e+01 -3.275502e-01 4.228262e+00 -8.981493e-01 -3.707518e+00 -3.771726e+00 -1.847208e+00 -1.603226e-01 3.746803e-01 2.492852e-02 -5.283350e-02 -1.316152e-01 2.060792e-01 2.320018e-01 3.473101e-01 4.636069e-01 2.421327e-01 -1.011645e-03 -9.001540e-02 -4.208844e-01
<VARIANCE> 25
 2.191664e+01 3.832346e+01 3.536129e+01 4.552036e+01 5.146196e+01 5.402416e+01 4.532333e+01 4.316967e+01 5.194213e+01 3.791486e+01 2.724122e+01 2.477335e+01 5.759985e-01 1.296905e+00 1.329783e+00 1.436117e+00 2.015944e+00 2.854960e+00 1.984985e+00 2.227589e+00 2.343580e+00 2.045362e+00 1.638120e+00 1.449960e+00 1.066268e+00
<GCONST> 9.576168e+01
<STATE> 4
<MEAN> 25
 5.920141e+00 4.729104e+00 -6.619071e-01 -3.592440e+00 -6.668617e+00 -4.437122e+00 3.776827e-01 3.175261e+00 9.050462e-01 -1.454790e+00 -2.326509e+00 -1.249121e+00 -6.257654e-01 -3.906129e-02 1.678127e-01 4.218079e-01 7.039407e-01 9.980335e-01 2.885799e-01 -2.038472e-01 -1.773957e-02 1.877047e-01 2.155907e-01 8.154663e-02 -5.345345e-01
<VARIANCE> 25
 2.381943e+01 3.168683e+01 3.073319e+01 3.372535e+01 3.205265e+01 4.222814e+01 3.201194e+01 3.300840e+01 3.498757e+01 3.150789e+01 2.243595e+01 1.901501e+01 4.852379e-01 7.335701e-01 1.011674e+00 1.084659e+00 1.496157e+00 1.967000e+00 1.648281e+00 1.688958e+00 1.686677e+00 1.518985e+00 1.305284e+00 1.193857e+00 3.831035e-01
<GCONST> 8.833953e+01
~t "T_o"
<ENDHMM>
~h "t-o+n"
<BEGINHMM>
<NUMSTATES> 5
<STATE> 2
<MEAN> 25
 8.202134e+00 8.756948e-01 -1.556870e+00 -2.412576e+00 -4.135490e+00 -5.283045e+00 -1.325630e+00 5.514442e-01 -3.256593e+00 -4.464030e+00 -3.179199e+00 -1.018459e+00 8.533680e-01 5.628624e-02 -4.272498e-01 -1.163086e+00 -1.742013e+00 -1.833407e+00 -1.006363e-01 8.327968e-01 2.565329e-01 -1.784475e-01 -2.551433e-01 1.000556e-01 7.841955e-01
<VARIANCE> 25
 2.727819e+01 4.614404e+01 4.546624e+01 5.624189e+01 6.257309e+01 6.102062e+01 4.518742e+01 4.939813e+01 5.469617e+01 4.219932e+01 3.056493e+01 2.847985e+01 1.604221e+00 2.714622e+00 2.414845e+00 3.306103e+00 3.399673e+00 4.293542e+00 4.410888e+00 3.910635e+00 3.812121e+00 3.509329e+00 2.851977e+00 2.694980e+00 1.552250e+00
<GCONST> 1.055529e+02
<STATE> 3
<MEAN> 25
 9.608891e+00 1.841884e+00 -1.624231e+00 -4.843653e+00 -1.056682e+01 -1.047259e+01 -3.275502e-01 4.228262e+00 -8.981493e-01 -3.707518e+00 -3.771726e+00 -1.847208e+00 -1.603226e-01 3.746803e-01 2.492852e-02 -5.283350e-02 -1.316152e-01 2.060792e-01 2.320018e-01 3.473101e-01 4.636069e-01 2.421327e-01 -1.011645e-03 -9.001540e-02 -4.208844e-01
<VARIANCE> 25
 2.191664e+01 3.832346e+01 3.536129e+01 4.552036e+01 5.146196e+01 5.402416e+01 4.532333e+01 4.316967e+01 5.194213e+01 3.791486e+01 2.724122e+01 2.477335e+01 5.759985e-01 1.296905e+00 1.329783e+00 1.436117e+00 2.015944e+00 2.854960e+00 1.984985e+00 2.227589e+00 2.343580e+00 2.045362e+00 1.638120e+00 1.449960e+00 1.066268e+00
<GCONST> 9.576168e+01
<STATE> 4
<MEAN> 25
 5.920141e+00 4.729104e+00 -6.619071e-01 -3.592440e+00 -6.668617e+00 -4.437122e+00 3.776827e-01 3.175261e+00 9.050462e-01 -1.454790e+00 -2.326509e+00 -1.249121e+00 -6.257654e-01 -3.906129e-02 1.678127e-01 4.218079e-01 7.039407e-01 9.980335e-01 2.885799e-01 -2.038472e-01 -1.773957e-02 1.877047e-01 2.155907e-01 8.154663e-02 -5.345345e-01
<VARIANCE> 25
 2.381943e+01 3.168683e+01 3.073319e+01 3.372535e+01 3.205265e+01 4.222814e+01 3.201194e+01 3.300840e+01 3.498757e+01 3.150789e+01 2.243595e+01 1.901501e+01 4.852379e-01 7.335701e-01 1.011674e+00 1.084659e+00 1.496157e+00 1.967000e+00 1.648281e+00 1.688958e+00 1.686677e+00 1.518985e+00 1.305284e+00 1.193857e+00 3.831035e-01
<GCONST> 8.833953e+01
~t "T_o"
<ENDHMM>
~h "t-o+r"
<BEGINHMM>
<NUMSTATES> 5
<STATE> 2
<MEAN> 25
 8.202134e+00 8.756948e-01 -1.556870e+00 -2.412576e+00 -4.135490e+00 -5.283045e+00 -1.325630e+00 5.514442e-01 -3.256593e+00 -4.464030e+00 -3.179199e+00 -1.018459e+00 8.533680e-01 5.628624e-02 -4.272498e-01 -1.163086e+00 -1.742013e+00 -1.833407e+00 -1.006363e-01 8.327968e-01 2.565329e-01 -1.784475e-01 -2.551433e-01 1.000556e-01 7.841955e-01
<VARIANCE> 25
 2.727819e+01 4.614404e+01 4.546624e+01 5.624189e+01 6.257309e+01 6.102062e+01 4.518742e+01 4.939813e+01 5.469617e+01 4.219932e+01 3.056493e+01 2.847985e+01 1.604221e+00 2.714622e+00 2.414845e+00 3.306103e+00 3.399673e+00 4.293542e+00 4.410888e+00 3.910635e+00 3.812121e+00 3.509329e+00 2.851977e+00 2.694980e+00 1.552250e+00
<GCONST> 1.055529e+02
<STATE> 3
<MEAN> 25
 9.608891e+00 1.841884e+00 -1.624231e+00 -4.843653e+00 -1.056682e+01 -1.047259e+01 -3.275502e-01 4.228262e+00 -8.981493e-01 -3.707518e+00 -3.771726e+00 -1.847208e+00 -1.603226e-01 3.746803e-01 2.492852e-02 -5.283350e-02 -1.316152e-01 2.060792e-01 2.320018e-01 3.473101e-01 4.636069e-01 2.421327e-01 -1.011645e-03 -9.001540e-02 -4.208844e-01
<VARIANCE> 25
 2.191664e+01 3.832346e+01 3.536129e+01 4.552036e+01 5.146196e+01 5.402416e+01 4.532333e+01 4.316967e+01 5.194213e+01 3.791486e+01 2.724122e+01 2.477335e+01 5.759985e-01 1.296905e+00 1.329783e+00 1.436117e+00 2.015944e+00 2.854960e+00 1.984985e+00 2.227589e+00 2.343580e+00 2.045362e+00 1.638120e+00 1.449960e+00 1.066268e+00
<GCONST> 9.576168e+01
<STATE> 4
<MEAN> 25
 5.920141e+00 4.729104e+00 -6.619071e-01 -3.592440e+00 -6.668617e+00 -4.437122e+00 3.776827e-01 3.175261e+00 9.050462e-01 -1.454790e+00 -2.326509e+00 -1.249121e+00 -6.257654e-01 -3.906129e-02 1.678127e-01 4.218079e-01 7.039407e-01 9.980335e-01 2.885799e-01 -2.038472e-01 -1.773957e-02 1.877047e-01 2.155907e-01 8.154663e-02 -5.345345e-01
<VARIANCE> 25
 2.381943e+01 3.168683e+01 3.073319e+01 3.372535e+01 3.205265e+01 4.222814e+01 3.201194e+01 3.300840e+01 3.498757e+01 3.150789e+01 2.243595e+01 1.901501e+01 4.852379e-01 7.335701e-01 1.011674e+00 1.084659e+00 1.496157e+00 1.967000e+00 1.648281e+00 1.688958e+00 1.686677e+00 1.518985e+00 1.305284e+00 1.193857e+00 3.831035e-01
<GCONST> 8.833953e+01
~t "T_o"
<ENDHMM>
~h "t-o+s"
<BEGINHMM>
<NUMSTATES> 5
<STATE> 2
<MEAN> 25
 8.202134e+00 8.756948e-01 -1.556870e+00 -2.412576e+00 -4.135490e+00 -5.283045e+00 -1.325630e+00 5.514442e-01 -3.256593e+00 -4.464030e+00 -3.179199e+00 -1.018459e+00 8.533680e-01 5.628624e-02 -4.272498e-01 -1.163086e+00 -1.742013e+00 -1.833407e+00 -1.006363e-01 8.327968e-01 2.565329e-01 -1.784475e-01 -2.551433e-01 1.000556e-01 7.841955e-01
<VARIANCE> 25
 2.727819e+01 4.614404e+01 4.546624e+01 5.624189e+01 6.257309e+01 6.102062e+01 4.518742e+01 4.939813e+01 5.469617e+01 4.219932e+01 3.056493e+01 2.847985e+01 1.604221e+00 2.714622e+00 2.414845e+00 3.306103e+00 3.399673e+00 4.293542e+00 4.410888e+00 3.910635e+00 3.812121e+00 3.509329e+00 2.851977e+00 2.694980e+00 1.552250e+00
<GCONST> 1.055529e+02
<STATE> 3
<MEAN> 25
 9.608891e+00 1.841884e+00 -1.624231e+00 -4.843653e+00 -1.056682e+01 -1.047259e+01 -3.275502e-01 4.228262e+00 -8.981493e-01 -3.707518e+00 -3.771726e+00 -1.847208e+00 -1.603226e-01 3.746803e-01 2.492852e-02 -5.283350e-02 -1.316152e-01 2.060792e-01 2.320018e-01 3.473101e-01 4.636069e-01 2.421327e-01 -1.011645e-03 -9.001540e-02 -4.208844e-01
<VARIANCE> 25
 2.191664e+01 3.832346e+01 3.536129e+01 4.552036e+01 5.146196e+01 5.402416e+01 4.532333e+01 4.316967e+01 5.194213e+01 3.791486e+01 2.724122e+01 2.477335e+01 5.759985e-01 1.296905e+00 1.329783e+00 1.436117e+00 2.015944e+00 2.854960e+00 1.984985e+00 2.227589e+00 2.343580e+00 2.045362e+00 1.638120e+00 1.449960e+00 1.066268e+00
<GCONST> 9.576168e+01
<STATE> 4
<MEAN> 25
 5.920141e+00 4.729104e+00 -6.619071e-01 -3.592440e+00 -6.668617e+00 -4.437122e+00 3.776827e-01 3.175261e+00 9.050462e-01 -1.454790e+00 -2.326509e+00 -1.249121e+00 -6.257654e-01 -3.906129e-02 1.678127e-01 4.218079e-01 7.039407e-01 9.980335e-01 2.885799e-01 -2.038472e-01 -1.773957e-02 1.877047e-01 2.155907e-01 8.154663e-02 -5.345345e-01
<VARIANCE> 25
 2.381943e+01 3.168683e+01 3.073319e+01 3.372535e+01 3.205265e+01 4.222814e+01 3.201194e+01 3.300840e+01 3.498757e+01 3.150789e+01 2.243595e+01 1.901501e+01 4.852379e-01 7.335701e-01 1.011674e+00 1.084659e+00 1.496157e+00 1.967000e+00 1.648281e+00 1.688958e+00 1.686677e+00 1.518985e+00 1.305284e+00 1.193857e+00 3.831035e-01
<GCONST> 8.833953e+01
~t "T_o"
<ENDHMM>
~h "t-o+t"
<BEGINHMM>
<NUMSTATES> 5
<STATE> 2
<MEAN> 25
 8.202134e+00 8.756948e-01 -1.556870e+00 -2.412576e+00 -4.135490e+00 -5.283045e+00 -1.325630e+00 5.514442e-01 -3.256593e+00 -4.464030e+00 -3.179199e+00 -1.018459e+00 8.533680e-01 5.628624e-02 -4.272498e-01 -1.163086e+00 -1.742013e+00 -1.833407e+00 -1.006363e-01 8.327968e-01 2.565329e-01 -1.784475e-01 -2.551433e-01 1.000556e-01 7.841955e-01
<VARIANCE> 25
 2.727819e+01 4.614404e+01 4.546624e+01 5.624189e+01 6.257309e+01 6.102062e+01 4.518742e+01 4.939813e+01 5.469617e+01 4.219932e+01 3.056493e+01 2.847985e+01 1.604221e+00 2.714622e+00 2.414845e+00 3.306103e+00 3.399673e+00 4.293542e+00 4.410888e+00 3.910635e+00 3.812121e+00 3.509329e+00 2.851977e+00 2.694980e+00 1.552250e+00
<GCONST> 1.055529e+02
<STATE> 3
<MEAN> 25
 9.608891e+00 1.841884e+00 -1.624231e+00 -4.843653e+00 -1.056682e+01 -1.047259e+01 -3.275502e-01 4.228262e+00 -8.981493e-01 -3.707518e+00 -3.771726e+00 -1.847208e+00 -1.603226e-01 3.746803e-01 2.492852e-02 -5.283350e-02 -1.316152e-01 2.060792e-01 2.320018e-01 3.473101e-01 4.636069e-01 2.421327e-01 -1.011645e-03 -9.001540e-02 -4.208844e-01
<VARIANCE> 25
 2.191664e+01 3.832346e+01 3.536129e+01 4.552036e+01 5.146196e+01 5.402416e+01 4.532333e+01 4.316967e+01 5.194213e+01 3.791486e+01 2.724122e+01 2.477335e+01 5.759985e-01 1.296905e+00 1.329783e+00 1.436117e+00 2.015944e+00 2.854960e+00 1.984985e+00 2.227589e+00 2.343580e+00 2.045362e+00 1.638120e+00 1.449960e+00 1.066268e+00
<GCONST> 9.576168e+01
<STATE> 4
<MEAN> 25
 5.920141e+00 4.729104e+00 -6.619071e-01 -3.592440e+00 -6.668617e+00 -4.437122e+00 3.776827e-01 3.175261e+00 9.050462e-01 -1.454790e+00 -2.326509e+00 -1.249121e+00 -6.257654e-01 -3.906129e-02 1.678127e-01 4.218079e-01 7.039407e-01 9.980335e-01 2.885799e-01 -2.038472e-01 -1.773957e-02 1.877047e-01 2.155907e-01 8.154663e-02 -5.345345e-01
<VARIANCE> 25
 2.381943e+01 3.168683e+01 3.073319e+01 3.372535e+01 3.205265e+01 4.222814e+01 3.201194e+01 3.300840e+01 3.498757e+01 3.150789e+01 2.243595e+01 1.901501e+01 4.852379e-01 7.335701e-01 1.011674e+00 1.084659e+00 1.496157e+00 1.967000e+00 1.648281e+00 1.688958e+00 1.686677e+00 1.518985e+00 1.305284e+00 1.193857e+00 3.831035e-01
<GCONST> 8.833953e+01
~t "T_o"
<ENDHMM>
~h "g-u+a"
<BEGINHMM>
<NUMSTATES> 5
<STATE> 2
<MEAN> 25
 5.841117e+00 4.888117e+00 2.686566e+00 -7.820466e-01 -3.509169e+00 -4.456264e+00 -1.667651e+00 1.072235e+00 -1.711213e+00 -3.398537e+00 -2.842877e+00 -2.182095e+00 1.576147e+00 1.045471e+00 4.197832e-01 -3.047917e-01 -1.355020e+00 -2.229248e+00 -1.097899e+00 2.456878e-01 -2.158980e-01 -6.960759e-01 -8.961666e-01 -8.212398e-01 8.114035e-01
<VARIANCE> 25
 3.111406e+01 4.019774e+01 4.504975e+01 4.146431e+01 4.849731e+01 5.661042e+01 4.281160e+01 4.095763e+01 5.025994e+01 4.244762e+01 3.143690e+01 2.546618e+01 2.317891e+00 3.149550e+00 3.087908e+00 3.151040e+00 3.396149e+00 4.573932e+00 4.195843e+00 4.035922e+00 4.034451e+00 3.409064e+00 3.195040e+00 2.762604e+00 1.784756e+00
<GCONST> 1.055627e+02
<STATE> 3
<MEAN> 25
 8.658910e+00 5.000401e+00 2.954348e+00 -2.671335e+00 -7.457289e+00 -1.043769e+01 -3.682248e+00 2.342003e+00 -1.993913e+00 -4.053403e+00 -3.655970e+00 -3.858294e+00 3.619523e-01 -4.174033e-01 -5.004941e-01 -5.413764e-01 -3.661138e-01 -3.691237e-01 1.985084e-01 6.194838e-01 2.091379e-01 -3.094780e-01 -4.365371e-01 -2.890210e-01 4.863066e-01
<VARIANCE> 25
 1.982055e+01 3.754977e+01 4.485072e+01 4.602500e+01 4.835411e+01 5.230594e+01 4.533890e+01 4.689768e+01 6.356376e+01 4.307386e+01 3.556441e+01 3.444476e+01 5.694164e-01 2.171613e+00 2.316406e+00 1.907328e+00 2.369149e+00 3.386717e+00 2.927253e+00 3.053224e+00 2.962884e+00 2.837181e+00 2.662840e+00 2.209183e+00 9.819031e-01
<GCONST> 1.005687e+02
<STATE> 4
<MEAN> 25
 7.936549e+00 5.316041e+00 2.239468e+00 -2.040418e+00 -5.537446e+00 -6.998611e+00 -2.096663e+00 2.982105e+00 -1.124920e+00 -4.924550e+00 -4.786534e+00 -3.909861e+00 -1.936503e-01 -3.466140e-01 -3.004697e-01 2.804921e-01 7.471921e-01 1.043675e+00 4.173047e-01 -2.147343e-01 -1.894316e-01 -7.248510e-02 1.116081e-02 1.502710e-01 -1.055882e-01
<VARIANCE> 25
 1.968233e+01 3.080829e+01 3.984565e+01 3.763365e+01 3.553752e+01 4.067476e+01 4.069976e+01 3.915368e+01 5.144368e+01 3.819278e+01 3.066512e+01 2.631176e+01 3.753779e-01 1.220878e+00 1.362571e+00 1.493957e+00 2.004738e+00 2.727168e+00 2.026844e+00 2.105258e+00 2.403310e+00 2.200738e+00 1.975419e+00 1.823615e+00 5.097307e-01
<GCONST> 9.394715e+01
~t "T_u"
<ENDHMM>
~h "g-u+l"
<BEGINHMM>
<NUMSTATES> 5
<STATE> 2
<MEAN> 25
 5.841117e+00 4.888117e+00 2.686566e+00 -7.820466e-01 -3.509169e+00 -4.456264e+00 -1.667651e+00 1.072235e+00 -1.711213e+00 -3.398537e+00 -2.842877e+00 -2.182095e+00 1.576147e+00 1.045471e+00 4.197832e-01 -3.047917e-01 -1.355020e+00 -2.229248e+00 -1.097899e+00 2.456878e-01 -2.158980e-01 -6.960759e-01 -8.961666e-01 -8.212398e-01 8.114035e-01
<VARIANCE> 25
 3.111406e+01 4.019774e+01 4.504975e+01 4.146431e+01 4.849731e+01 5.661042e+01 4.281160e+01 4.095763e+01 5.025994e+01 4.244762e+01 3.143690e+01 2.546618e+01 2.317891e+00 3.149550e+00 3.087908e+00 3.151040e+00 3.396149e+00 4.573932e+00 4.195843e+00 4.035922e+00 4.034451e+00 3.409064e+00 3.195040e+00 2.762604e+00 1.784756e+00
<GCONST> 1.055627e+02
<STATE> 3
<MEAN> 25
 8.658910e+00 5.000401e+00 2.954348e+00 -2.671335e+00 -7.457289e+00 -1.043769e+01 -3.682248e+00 2.342003e+00 -1.993913e+00 -4.053403e+00 -3.655970e+00 -3.858294e+00 3.619523e-01 -4.174033e-01 -5.004941e-01 -5.413764e-01 -3.661138e-01 -3.691237e-01 1.985084e-01 6.194838e-01 2.091379e-01 -3.094780e-01 -4.365371e-01 -2.890210e-01 4.863066e-01
<VARIANCE> 25
 1.982055e+01 3.754977e+01 4.485072e+01 4.602500e+01 4.835411e+01 5.230594e+01 4.533890e+01 4.689768e+01 6.356376e+01 4.307386e+01 3.556441e+01 3.444476e+01 5.694164e-01 2.171613e+00 2.316406e+00 1.907328e+00 2.369149e+00 3.386717e+00 2.927253e+00 3.053224e+00 2.962884e+00 2.837181e+00 2.662840e+00 2.209183e+00 9.819031e-01
<GCONST> 1.005687e+02
<STATE> 4
<MEAN> 25
 7.936549e+00 5.316041e+00 2.239468e+00 -2.040418e+00 -5.537446e+00 -6.998611e+00 -2.096663e+00 2.982105e+00 -1.124920e+00 -4.924550e+00 -4.786534e+00 -3.909861e+00 -1.936503e-01 -3.466140e-01 -3.004697e-01 2.804921e-01 7.471921e-01 1.043675e+00 4.173047e-01 -2.147343e-01 -1.894316e-01 -7.248510e-02 1.116081e-02 1.502710e-01 -1.055882e-01
<VARIANCE> 25
 1.968233e+01 3.080829e+01 3.984565e+01 3.763365e+01 3.553752e+01 4.067476e+01 4.069976e+01 3.915368e+01 5.144368e+01 3.819278e+01 3.066512e+01 2.631176e+01 3.753779e-01 1.220878e+00 1.362571e+00 1.493957e+00 2.004738e+00 2.727168e+00 2.026844e+00 2.105258e+00 2.403310e+00 2.200738e+00 1.975419e+00 1.823615e+00 5.097307e-01
<GCONST> 9.394715e+01
~t "T_u"
<ENDHMM>
~h "g-u+n"
<BEGINHMM>
<NUMSTATES> 5
<STATE> 2
<MEAN> 25
 5.841117e+00 4.888117e+00 2.686566e+00 -7.820466e-01 -3.509169e+00 -4.456264e+00 -1.667651e+00 1.072235e+00 -1.711213e+00 -3.398537e+00 -2.842877e+00 -2.182095e+00 1.576147e+00 1.045471e+00 4.197832e-01 -3.047917e-01 -1.355020e+00 -2.229248e+00 -1.097899e+00 2.456878e-01 -2.158980e-01 -6.960759e-01 -8.961666e-01 -8.212398e-01 8.114035e-01
<VARIANCE> 25
 3.111406e+01 4.019774e+01 4.504975e+01 4.146431e+01 4.849731e+01 5.661042e+01 4.281160e+01 4.095763e+01 5.025994e+01 4.244762e+01 3.143690e+01 2.546618e+01 2.317891e+00 3.149550e+00 3.087908e+00 3.151040e+00 3.396149e+00 4.573932e+00 4.195843e+00 4.035922e+00 4.034451e+00 3.409064e+00 3.195040e+00 2.762604e+00 1.784756e+00
<GCONST> 1.055627e+02
<STATE> 3
<MEAN> 25
 8.658910e+00 5.000401e+00 2.954348e+00 -2.671335e+00 -7.457289e+00 -1.043769e+01 -3.682248e+00 2.342003e+00 -1.993913e+00 -4.053403e+00 -3.655970e+00 -3.858294e+00 3.619523e-01 -4.174033e-01 -5.004941e-01 -5.413764e-01 -3.661138e-01 -3.691237e-01 1.985084e-01 6.194838e-01 2.091379e-01 -3.094780e-01 -4.365371e-01 -2.890210e-01 4.863066e-01
<VARIANCE> 25
 1.982055e+01 3.754977e+01 4.485072e+01 4.602500e+01 4.835411e+01 5.230594e+01 4.533890e+01 4.689768e+01 6.356376e+01 4.307386e+01 3.556441e+01 3.444476e+01 5.694164e-01 2.171613e+00 2.316406e+00 1.907328e+00 2.369149e+00 3.386717e+00 2.927253e+00 3.053224e+00 2.962884e+00 2.837181e+00 2.662840e+00 2.209183e+00 9.819031e-01
<GCONST> 1.005687e+02
<STATE> 4
<MEAN> 25
 7.936549e+00 5.316041e+00 2.239468e+00 -2.040418e+00 -5.537446e+00 -6.998611e+00 -2.096663e+00 2.982105e+00 -1.124920e+00 -4.924550e+00 -4.786534e+00 -3.909861e+00 -1.936503e-01 -3.466140e-01 -3.004697e-01 2.804921e-01 7.471921e-01 1.043675e+00 4.173047e-01 -2.147343e-01 -1.894316e-01 -7.248510e-02 1.116081e-02 1.502710e-01 -1.055882e-01
<VARIANCE> 25
 1.968233e+01 3.080829e+01 3.984565e+01 3.763365e+01 3.553752e+01 4.067476e+01 4.069976e+01 3.915368e+01 5.144368e+01 3.819278e+01 3.066512e+01 2.631176e+01 3.753779e-01 1.220878e+00 1.362571e+00 1.493957e+00 2.004738e+00 2.727168e+00 2.026844e+00 2.105258e+00 2.403310e+00 2.200738e+00 1.975419e+00 1.823615e+00 5.097307e-01
<GCONST> 9.394715e+01
~t "T_u"
<ENDHMM>
~h "g-u+s"
<BEGINHMM>
<NUMSTATES> 5
<STATE> 2
<MEAN> 25
 5.841117e+00 4.888117e+00 2.686566e+00 -7.820466e-01 -3.509169e+00 -4.456264e+00 -1.667651e+00 1.072235e+00 -1.711213e+00 -3.398537e+00 -2.842877e+00 -2.182095e+00 1.576147e+00 1.045471e+00 4.197832e-01 -3.047917e-01 -1.355020e+00 -2.229248e+00 -1.097899e+00 2.456878e-01 -2.158980e-01 -6.960759e-01 -8.961666e-01 -8.212398e-01 8.114035e-01
<VARIANCE> 25
 3.111406e+01 4.019774e+01 4.504975e+01 4.146431e+01 4.849731e+01 5.661042e+01 4.281160e+01 4.095763e+01 5.025994e+01 4.244762e+01 3.143690e+01 2.546618e+01 2.317891e+00 3.149550e+00 3.087908e+00 3.151040e+00 3.396149e+00 4.573932e+00 4.195843e+00 4.035922e+00 4.034451e+00 3.409064e+00 3.195040e+00 2.762604e+00 1.784756e+00
<GCONST> 1.055627e+02
<STATE> 3
<MEAN> 25
 8.658910e+00 5.000401e+00 2.954348e+00 -2.671335e+00 -7.457289e+00 -1.043769e+01 -3.682248e+00 2.342003e+00 -1.993913e+00 -4.053403e+00 -3.655970e+00 -3.858294e+00 3.619523e-01 -4.174033e-01 -5.004941e-01 -5.413764e-01 -3.661138e-01 -3.691237e-01 1.985084e-01 6.194838e-01 2.091379e-01 -3.094780e-01 -4.365371e-01 -2.890210e-01 4.863066e-01
<VARIANCE> 25
 1.982055e+01 3.754977e+01 4.485072e+01 4.602500e+01 4.835411e+01 5.230594e+01 4.533890e+01 4.689768e+01 6.356376e+01 4.307386e+01 3.556441e+01 3.444476e+01 5.694164e-01 2.171613e+00 2.316406e+00 1.907328e+00 2.369149e+00 3.386717e+00 2.927253e+00 3.053224e+00 2.962884e+00 2.837181e+00 2.662840e+00 2.209183e+00 9.819031e-01
<GCONST> 1.005687e+02
<STATE> 4
<MEAN> 25
 7.936549e+00 5.316041e+00 2.239468e+00 -2.040418e+00 -5.537446e+00 -6.998611e+00 -2.096663e+00 2.982105e+00 -1.124920e+00 -4.924550e+00 -4.786534e+00 -3.909861e+00 -1.936503e-01 -3.466140e-01 -3.004697e-01 2.804921e-01 7.471921e-01 1.043675e+00 4.173047e-01 -2.147343e-01 -1.894316e-01 -7.248510e-02 1.116081e-02 1.502710e-01 -1.055882e-01
<VARIANCE> 25
 1.968233e+01 3.080829e+01 3.984565e+01 3.763365e+01 3.553752e+01 4.067476e+01 4.069976e+01 3.915368e+01 5.144368e+01 3.819278e+01 3.066512e+01 2.631176e+01 3.753779e-01 1.220878e+00 1.362571e+00 1.493957e+00 2.004738e+00 2.727168e+00 2.026844e+00 2.105258e+00 2.403310e+00 2.200738e+00 1.975419e+00 1.823615e+00 5.097307e-01
<GCONST> 9.394715e+01
~t "T_u"
<ENDHMM>
~h "s-rr+a"
<BEGINHMM>
<NUMSTATES> 5
<STATE> 2
<MEAN> 25
 3.353537e+00 -9.142436e-01 -3.058184e+00 -3.547527e+00 3.143570e+00 1.554105e+00 -1.617299e+00 -1.135031e+00 7.034200e-01 -1.353892e+00 -9.484147e-01 7.906689e-01 3.572667e-01 9.332132e-02 -3.866347e-01 -8.697939e-02 3.757065e-01 2.881039e-01 -9.380478e-02 -1.033477e-01 -1.545185e-01 -3.527187e-01 -1.557336e-01 4.292154e-02 5.196048e-02
<VARIANCE> 25
 4.300015e+01 5.147916e+01 5.414499e+01 6.460785e+01 4.989538e+01 5.407913e+01 4.206803e+01 4.860925e+01 3.790956e+01 3.987109e+01 3.461342e+01 3.103023e+01 2.915508e+00 4.136422e+00 3.340683e+00 3.983831e+00 3.703060e+00 4.642681e+00 3.783070e+00 3.926247e+00 3.502168e+00 3.444017e+00 3.087563e+00 2.842110e+00 3.238592e+00
<GCONST> 1.080909e+02
<STATE> 3
<MEAN> 25
 7.582133e+00 1.247781e+00 -5.329599e+00 -4.675842e+00 2.104177e+00 2.665906e+00 -1.852962e+00 -2.771921e+00 -1.963075e+00 -2.989711e+00 -2.774907e+00 3.743697e-01 9.248909e-01 6.599494e-01 -7.228659e-01 -7.283572e-01 -1.813637e-01 -1.756126e-01 -3.578639e-01 -5.607713e-01 -5.978424e-01 -4.266687e-01 -3.611438e-01 -8.400698e-02 2.693413e-01
<VARIANCE> 25
 2.256667e+01 2.670186e+01 3.456329e+01 4.313871e+01 3.583524e+01 4.206372e+01 3.763231e+01 3.354306e+01 2.742425e+01 2.760290e+01 2.449686e+01 2.322071e+01 8.681712e-01 1.280364e+00 1.529286e+00 1.913779e+00 2.044108e+00 1.849371e+00 1.987761e+00 2.027984e+00 1.732651e+00 1.687739e+00 1.583756e+00 1.522920e+00 7.689877e-01
<GCONST> 9.268141e+01
<STATE> 4
<MEAN> 25
 1.009247e+01 1.486915e+00 -8.246142e+00 -5.120526e+00 2.065458e+00 1.025245e+00 -3.525442e+00 -4.038950e+00 -2.868468e+00 -3.264583e+00 -2.356816e+00 1.102997e+00 1.186399e-01 -2.301981e-01 -1.140983e-01 1.072073e-01 3.884058e-02 -7.065016e-01 -3.659014e-01 -8.380543e-02 -9.820130e-02 1.017236e-01 2.038886e-01 1.326848e-01 3.107538e-01
<VARIANCE> 25
 3.007746e+01 2.656600e+01 4.011358e+01 4.749679e+01 3.734233e+01 3.581827e+01 3.574841e+01 3.924471e+01 3.173490e+01 2.907249e+01 2.628150e+01 2.564830e+01 4.615683e-01 8.872818e-01 9.988760e-01 1.540743e+00 1.448741e+00 1.726679e+00 1.611915e+00 1.678023e+00 1.689305e+00 1.443329e+00 1.524528e+00 1.506498e+00 5.601036e-01
<GCONST> 9.056165e+01
~t "T_rr"
<ENDHMM>
~h "d-a+th"
<BEGINHMM>
<NUMSTATES> 5
<STATE> 2
<MEAN> 25
 8.084209e+00 -3.246555e+00 -4.886938e+00 -2.890126e+00 -1.922659e+00 -4.591505e+00 -1.062124e+00 -1.533606e+00 -3.011539e+00 -1.419097e+00 7.822737e-01 1.974153e+00 8.531939e-01 -1.219489e+00 -1.591901e+00 -1.511451e+00 -1.099942e+00 -1.081241e+00 3.296968e-01 2.435892e-01 2.131322e-01 7.433307e-01 1.096173e+00 1.076555e+00 1.531909e+00
<VARIANCE> 25
 3.102556e+01 3.982352e+01 4.648204e+01 6.052976e+01 4.865224e+01 5.364120e+01 4.957391e+01 5.206113e+01 4.994263e+01 4.377484e+01 3.566540e+01 3.010361e+01 2.105191e+00 2.133569e+00 2.607650e+00 3.361774e+00 2.917656e+00 3.954443e+00 3.398865e+00 3.319243e+00 3.668817e+00 4.076825e+00 3.093344e+00 2.673295e+00 1.675560e+00
<GCONST> 1.052759e+02
<STATE> 3
<MEAN> 25
 9.462610e+00 -6.897775e+00 -8.743549e+00 -6.083593e+00 -4.604442e+00 -5.470979e+00 1.397076e+00 -2.830499e-01 -1.629562e+00 7.007640e-01 2.659651e+00 3.340820e+00 3.290816e-02 -1.735238e-01 -3.625012e-01 -3.627358e-01 -1.769637e-01 2.254089e-01 4.766614e-01 2.827543e-01 2.371980e-01 1.767752e-01 8.445666e-02 6.974697e-02 8.193482e-02
<VARIANCE> 25
 2.840129e+01 3.570125e+01 4.138834e+01 4.038225e+01 4.118876e+01 4.148624e+01 4.739182e+01 4.747406e+01 4.473821e+01 4.189992e+01 3.449903e+01 2.805832e+01 3.302394e-01 8.424883e-01 9.393210e-01 1.242460e+00 1.324397e+00 1.496400e+00 1.901740e+00 1.780651e+00 1.803969e+00 1.726919e+00 1.430944e+00 1.179275e+00 3.783611e-01
<GCONST> 9.133002e+01
<STATE> 4
<MEAN> 25
 8.177530e+00 -2.680661e+00 -7.293503e+00 -5.932261e+00 -3.758124e+00 -2.794274e+00 1.176165e+00 -3.390664e-01 -1.368642e+00 2.573896e-01 2.133668e+00 3.287408e+00 -4.538044e-01 8.704351e-01 7.276899e-01 4.679444e-01 4.150407e-01 5.706517e-01 -1.937626e-01 -1.382255e-01 1.753797e-02 -1.629017e-01 -2.942949e-01 -3.140077e-01 -8.826797e-01
<VARIANCE> 25
 2.215926e+01 3.099335e+01 3.486272e+01 3.668752e+01 3.283007e+01 3.965223e+01 3.500597e+01 3.826480e+01 3.512437e+01 3.170736e+01 2.563973e+01 2.200531e+01 5.861269e-01 9.910762e-01 1.080531e+00 1.252255e+00 1.395680e+00 1.835312e+00 1.787168e+00 1.826652e+00 1.993582e+00 1.853269e+00 1.609923e+00 1.318195e+00 6.483233e-01
<GCONST> 9.086413e+01
~t "T_a"
<ENDHMM>
~h "t-r+a"
<BEGINHMM>
<NUMSTATES> 5
<STATE> 2
<MEAN> 25
 8.643217e+00 -2.787229e+00 -6.224000e+00 -3.124852e+00 1.355937e+00 -3.755785e+00 -4.512966e+00 -3.933424e+00 -2.882520e+00 -2.216112e+00 -7.354643e-01 1.580987e+00 1.561792e-01 8.974332e-01 -3.782570e-01 5.168830e-01 1.252811e+00 1.208448e+00 -3.267309e-01 -2.546778e-01 -2.021774e-01 -5.815746e-01 -5.138835e-01 -2.330100e-02 -1.076871e+00
<VARIANCE> 25
 3.211975e+01 4.498290e+01 5.062462e+01 5.935705e+01 5.828969e+01 5.106108e+01 4.451467e+01 4.801496e+01 4.760433e+01 4.023750e+01 3.850442e+01 3.225385e+01 1.654517e+00 2.112823e+00 2.382579e+00 2.979533e+00 3.407424e+00 4.447104e+00 3.988335e+00 3.638894e+00 3.461148e+00 2.960581e+00 2.838124e+00 2.399935e+00 1.986631e+00
<GCONST> 1.051154e+02
<STATE> 3
<MEAN> 25
 7.898341e+00 6.769122e-01 -5.980435e+00 -1.402799e+00 3.525082e+00 4.491480e-01 -3.918551e+00 -3.587373e+00 -2.649347e+00 -2.842372e+00 -1.689278e+00 1.021962e+00 -7.756338e-01 7.563383e-01 5.502752e-01 8.270113e-01 2.798240e-01 1.325491e+00 7.032835e-01 3.596233e-01 3.082208e-01 -5.154090e-03 -2.048264e-01 -3.199293e-01 -1.361292e+00
<VARIANCE> 25
 2.876068e+01 3.251756e+01 4.847742e+01 5.875251e+01 4.849226e+01 4.357820e+01 4.282160e+01 3.805943e+01 3.575104e+01 3.216047e+01 2.785275e+01 2.531534e+01 1.549412e+00 2.112714e+00 2.763809e+00 3.039823e+00 3.358799e+00 3.590118e+00 3.448425e+00 3.136224e+00 3.408474e+00 2.967985e+00 2.623605e+00 2.237263e+00 1.636310e+00
<GCONST> 1.021613e+02
<STATE> 4
<MEAN> 25
 5.412677e+00 1.833103e+00 -4.028427e+00 -5.085419e-01 2.267809e+00 2.085018e+00 -1.665371e+00 -2.343382e+00 -1.808912e+00 -2.284674e+00 -1.413052e+00 3.313459e-01 -4.867756e-01 -6.988044e-02 4.821670e-01 3.639740e-01 -2.038538e-01 -1.353530e-01 2.935330e-01 3.202356e-01 4.707072e-02 1.700878e-01 1.382703e-01 -1.182176e-01 -2.790100e-01
<VARIANCE> 25
 2.738630e+01 3.117259e+01 4.332304e+01 4.824800e+01 3.927319e+01 3.631243e+01 3.395251e+01 3.381007e+01 3.105561e+01 2.732073e+01 2.547030e+01 2.190276e+01 1.094292e+00 1.505075e+00 2.021805e+00 2.286807e+00 2.216540e+00 2.356158e+00 2.429886e+00 2.174607e+00 2.300617e+00 2.008530e+00 1.813168e+00 1.681972e+00 1.042680e+00
<GCONST> 9.575272e+01
~t "T_r"
<ENDHMM>
~h "t-r+e"
<BEGINHMM>
<NUMSTATES> 5
<STATE> 2
<MEAN> 25
 8.643217e+00 -2.787229e+00 -6.224000e+00 -3.124852e+00 1.355937e+00 -3.755785e+00 -4.512966e+00 -3.933424e+00 -2.882520e+00 -2.216112e+00 -7.354643e-01 1.580987e+00 1.561792e-01 8.974332e-01 -3.782570e-01 5.168830e-01 1.252811e+00 1.208448e+00 -3.267309e-01 -2.546778e-01 -2.021774e-01 -5.815746e-01 -5.138835e-01 -2.330100e-02 -1.076871e+00
<VARIANCE> 25
 3.211975e+01 4.498290e+01 5.062462e+01 5.935705e+01 5.828969e+01 5.106108e+01 4.451467e+01 4.801496e+01 4.760433e+01 4.023750e+01 3.850442e+01 3.225385e+01 1.654517e+00 2.112823e+00 2.382579e+00 2.979533e+00 3.407424e+00 4.447104e+00 3.988335e+00 3.638894e+00 3.461148e+00 2.960581e+00 2.838124e+00 2.399935e+00 1.986631e+00
<GCONST> 1.051154e+02
<STATE> 3
<MEAN> 25
 7.898341e+00 6.769122e-01 -5.980435e+00 -1.402799e+00 3.525082e+00 4.491480e-01 -3.918551e+00 -3.587373e+00 -2.649347e+00 -2.842372e+00 -1.689278e+00 1.021962e+00 -7.756338e-01 7.563383e-01 5.502752e-01 8.270113e-01 2.798240e-01 1.325491e+00 7.032835e-01 3.596233e-01 3.082208e-01 -5.154090e-03 -2.048264e-01 -3.199293e-01 -1.361292e+00
<VARIANCE> 25
 2.876068e+01 3.251756e+01 4.847742e+01 5.875251e+01 4.849226e+01 4.357820e+01 4.282160e+01 3.805943e+01 3.575104e+01 3.216047e+01 2.785275e+01 2.531534e+01 1.549412e+00 2.112714e+00 2.763809e+00 3.039823e+00 3.358799e+00 3.590118e+00 3.448425e+00 3.136224e+00 3.408474e+00 2.967985e+00 2.623605e+00 2.237263e+00 1.636310e+00
<GCONST> 1.021613e+02
<STATE> 4
<MEAN> 25
 5.412677e+00 1.833103e+00 -4.028427e+00 -5.085419e-01 2.267809e+00 2.085018e+00 -1.665371e+00 -2.343382e+00 -1.808912e+00 -2.284674e+00 -1.413052e+00 3.313459e-01 -4.867756e-01 -6.988044e-02 4.821670e-01 3.639740e-01 -2.038538e-01 -1.353530e-01 2.935330e-01 3.202356e-01 4.707072e-02 1.700878e-01 1.382703e-01 -1.182176e-01 -2.790100e-01
<VARIANCE> 25
 2.738630e+01 3.117259e+01 4.332304e+01 4.824800e+01 3.927319e+01 3.631243e+01 3.395251e+01 3.381007e+01 3.105561e+01 2.732073e+01 2.547030e+01 2.190276e+01 1.094292e+00 1.505075e+00 2.021805e+00 2.286807e+00 2.216540e+00 2.356158e+00 2.429886e+00 2.174607e+00 2.300617e+00 2.008530e+00 1.813168e+00 1.681972e+00 1.042680e+00
<GCONST> 9.575272e+01
~t "T_r"
<ENDHMM>
~h "t-r+i"
<BEGINHMM>
<NUMSTATES> 5
<STATE> 2
<MEAN> 25
 8.643217e+00 -2.787229e+00 -6.224000e+00 -3.124852e+00 1.355937e+00 -3.755785e+00 -4.512966e+00 -3.933424e+00 -2.882520e+00 -2.216112e+00 -7.354643e-01 1.580987e+00 1.561792e-01 8.974332e-01 -3.782570e-01 5.168830e-01 1.252811e+00 1.208448e+00 -3.267309e-01 -2.546778e-01 -2.021774e-01 -5.815746e-01 -5.138835e-01 -2.330100e-02 -1.076871e+00
<VARIANCE> 25
 3.211975e+01 4.498290e+01 5.062462e+01 5.935705e+01 5.828969e+01 5.106108e+01 4.451467e+01 4.801496e+01 4.760433e+01 4.023750e+01 3.850442e+01 3.225385e+01 1.654517e+00 2.112823e+00 2.382579e+00 2.979533e+00 3.407424e+00 4.447104e+00 3.988335e+00 3.638894e+00 3.461148e+00 2.960581e+00 2.838124e+00 2.399935e+00 1.986631e+00
<GCONST> 1.051154e+02
<STATE> 3
<MEAN> 25
 7.898341e+00 6.769122e-01 -5.980435e+00 -1.402799e+00 3.525082e+00 4.491480e-01 -3.918551e+00 -3.587373e+00 -2.649347e+00 -2.842372e+00 -1.689278e+00 1.021962e+00 -7.756338e-01 7.563383e-01 5.502752e-01 8.270113e-01 2.798240e-01 1.325491e+00 7.032835e-01 3.596233e-01 3.082208e-01 -5.154090e-03 -2.048264e-01 -3.199293e-01 -1.361292e+00
<VARIANCE> 25
 2.876068e+01 3.251756e+01 4.847742e+01 5.875251e+01 4.849226e+01 4.357820e+01 4.282160e+01 3.805943e+01 3.575104e+01 3.216047e+01 2.785275e+01 2.531534e+01 1.549412e+00 2.112714e+00 2.763809e+00 3.039823e+00 3.358799e+00 3.590118e+00 3.448425e+00 3.136224e+00 3.408474e+00 2.967985e+00 2.623605e+00 2.237263e+00 1.636310e+00
<GCONST> 1.021613e+02
<STATE> 4
<MEAN> 25
 5.412677e+00 1.833103e+00 -4.028427e+00 -5.085419e-01 2.267809e+00 2.085018e+00 -1.665371e+00 -2.343382e+00 -1.808912e+00 -2.284674e+00 -1.413052e+00 3.313459e-01 -4.867756e-01 -6.988044e-02 4.821670e-01 3.639740e-01 -2.038538e-01 -1.353530e-01 2.935330e-01 3.202356e-01 4.707072e-02 1.700878e-01 1.382703e-01 -1.182176e-01 -2.790100e-01
<VARIANCE> 25
 2.738630e+01 3.117259e+01 4.332304e+01 4.824800e+01 3.927319e+01 3.631243e+01 3.395251e+01 3.381007e+01 3.105561e+01 2.732073e+01 2.547030e+01 2.190276e+01 1.094292e+00 1.505075e+00 2.021805e+00 2.286807e+00 2.216540e+00 2.356158e+00 2.429886e+00 2.174607e+00 2.300617e+00 2.008530e+00 1.813168e+00 1.681972e+00 1.042680e+00
<GCONST> 9.575272e+01
~t "T_r"
<ENDHMM>
~h "t-r+o"
<BEGINHMM>
<NUMSTATES> 5
<STATE> 2
<MEAN> 25
 8.643217e+00 -2.787229e+00 -6.224000e+00 -3.124852e+00 1.355937e+00 -3.755785e+00 -4.512966e+00 -3.933424e+00 -2.882520e+00 -2.216112e+00 -7.354643e-01 1.580987e+00 1.561792e-01 8.974332e-01 -3.782570e-01 5.168830e-01 1.252811e+00 1.208448e+00 -3.267309e-01 -2.546778e-01 -2.021774e-01 -5.815746e-01 -5.138835e-01 -2.330100e-02 -1.076871e+00
<VARIANCE> 25
 3.211975e+01 4.498290e+01 5.062462e+01 5.935705e+01 5.828969e+01 5.106108e+01 4.451467e+01 4.801496e+01 4.760433e+01 4.023750e+01 3.850442e+01 3.225385e+01 1.654517e+00 2.112823e+00 2.382579e+00 2.979533e+00 3.407424e+00 4.447104e+00 3.988335e+00 3.638894e+00 3.461148e+00 2.960581e+00 2.838124e+00 2.399935e+00 1.986631e+00
<GCONST> 1.051154e+02
<STATE> 3
<MEAN> 25
 7.898341e+00 6.769122e-01 -5.980435e+00 -1.402799e+00 3.525082e+00 4.491480e-01 -3.918551e+00 -3.587373e+00 -2.649347e+00 -2.842372e+00 -1.689278e+00 1.021962e+00 -7.756338e-01 7.563383e-01 5.502752e-01 8.270113e-01 2.798240e-01 1.325491e+00 7.032835e-01 3.596233e-01 3.082208e-01 -5.154090e-03 -2.048264e-01 -3.199293e-01 -1.361292e+00
<VARIANCE> 25
 2.876068e+01 3.251756e+01 4.847742e+01 5.875251e+01 4.849226e+01 4.357820e+01 4.282160e+01 3.805943e+01 3.575104e+01 3.216047e+01 2.785275e+01 2.531534e+01 1.549412e+00 2.112714e+00 2.763809e+00 3.039823e+00 3.358799e+00 3.590118e+00 3.448425e+00 3.136224e+00 3.408474e+00 2.967985e+00 2.623605e+00 2.237263e+00 1.636310e+00
<GCONST> 1.021613e+02
<STATE> 4
<MEAN> 25
 5.412677e+00 1.833103e+00 -4.028427e+00 -5.085419e-01 2.267809e+00 2.085018e+00 -1.665371e+00 -2.343382e+00 -1.808912e+00 -2.284674e+00 -1.413052e+00 3.313459e-01 -4.867756e-01 -6.988044e-02 4.821670e-01 3.639740e-01 -2.038538e-01 -1.353530e-01 2.935330e-01 3.202356e-01 4.707072e-02 1.700878e-01 1.382703e-01 -1.182176e-01 -2.790100e-01
<VARIANCE> 25
 2.738630e+01 3.117259e+01 4.332304e+01 4.824800e+01 3.927319e+01 3.631243e+01 3.395251e+01 3.381007e+01 3.105561e+01 2.732073e+01 2.547030e+01 2.190276e+01 1.094292e+00 1.505075e+00 2.021805e+00 2.286807e+00 2.216540e+00 2.356158e+00 2.429886e+00 2.174607e+00 2.300617e+00 2.008530e+00 1.813168e+00 1.681972e+00 1.042680e+00
<GCONST> 9.575272e+01
~t "T_r"
<ENDHMM>
~h "t-r+u"
<BEGINHMM>
<NUMSTATES> 5
<STATE> 2
<MEAN> 25
 8.643217e+00 -2.787229e+00 -6.224000e+00 -3.124852e+00 1.355937e+00 -3.755785e+00 -4.512966e+00 -3.933424e+00 -2.882520e+00 -2.216112e+00 -7.354643e-01 1.580987e+00 1.561792e-01 8.974332e-01 -3.782570e-01 5.168830e-01 1.252811e+00 1.208448e+00 -3.267309e-01 -2.546778e-01 -2.021774e-01 -5.815746e-01 -5.138835e-01 -2.330100e-02 -1.076871e+00
<VARIANCE> 25
 3.211975e+01 4.498290e+01 5.062462e+01 5.935705e+01 5.828969e+01 5.106108e+01 4.451467e+01 4.801496e+01 4.760433e+01 4.023750e+01 3.850442e+01 3.225385e+01 1.654517e+00 2.112823e+00 2.382579e+00 2.979533e+00 3.407424e+00 4.447104e+00 3.988335e+00 3.638894e+00 3.461148e+00 2.960581e+00 2.838124e+00 2.399935e+00 1.986631e+00
<GCONST> 1.051154e+02
<STATE> 3
<MEAN> 25
 7.898341e+00 6.769122e-01 -5.980435e+00 -1.402799e+00 3.525082e+00 4.491480e-01 -3.918551e+00 -3.587373e+00 -2.649347e+00 -2.842372e+00 -1.689278e+00 1.021962e+00 -7.756338e-01 7.563383e-01 5.502752e-01 8.270113e-01 2.798240e-01 1.325491e+00 7.032835e-01 3.596233e-01 3.082208e-01 -5.154090e-03 -2.048264e-01 -3.199293e-01 -1.361292e+00
<VARIANCE> 25
 2.876068e+01 3.251756e+01 4.847742e+01 5.875251e+01 4.849226e+01 4.357820e+01 4.282160e+01 3.805943e+01 3.575104e+01 3.216047e+01 2.785275e+01 2.531534e+01 1.549412e+00 2.112714e+00 2.763809e+00 3.039823e+00 3.358799e+00 3.590118e+00 3.448425e+00 3.136224e+00 3.408474e+00 2.967985e+00 2.623605e+00 2.237263e+00 1.636310e+00
<GCONST> 1.021613e+02
<STATE> 4
<MEAN> 25
 5.412677e+00 1.833103e+00 -4.028427e+00 -5.085419e-01 2.267809e+00 2.085018e+00 -1.665371e+00 -2.343382e+00 -1.808912e+00 -2.284674e+00 -1.413052e+00 3.313459e-01 -4.867756e-01 -6.988044e-02 4.821670e-01 3.639740e-01 -2.038538e-01 -1.353530e-01 2.935330e-01 3.202356e-01 4.707072e-02 1.700878e-01 1.382703e-01 -1.182176e-01 -2.790100e-01
<VARIANCE> 25
 2.738630e+01 3.117259e+01 4.332304e+01 4.824800e+01 3.927319e+01 3.631243e+01 3.395251e+01 3.381007e+01 3.105561e+01 2.732073e+01 2.547030e+01 2.190276e+01 1.094292e+00 1.505075e+00 2.021805e+00 2.286807e+00 2.216540e+00 2.356158e+00 2.429886e+00 2.174607e+00 2.300617e+00 2.008530e+00 1.813168e+00 1.681972e+00 1.042680e+00
<GCONST> 9.575272e+01
~t "T_r"
<ENDHMM>
~h "m-u+ch"
<BEGINHMM>
<NUMSTATES> 5
<STATE> 2
<MEAN> 25
 5.841117e+00 4.888117e+00 2.686566e+00 -7.820466e-01 -3.509169e+00 -4.456264e+00 -1.667651e+00 1.072235e+00 -1.711213e+00 -3.398537e+00 -2.842877e+00 -2.182095e+00 1.576147e+00 1.045471e+00 4.197832e-01 -3.047917e-01 -1.355020e+00 -2.229248e+00 -1.097899e+00 2.456878e-01 -2.158980e-01 -6.960759e-01 -8.961666e-01 -8.212398e-01 8.114035e-01
<VARIANCE> 25
 3.111406e+01 4.019774e+01 4.504975e+01 4.146431e+01 4.849731e+01 5.661042e+01 4.281160e+01 4.095763e+01 5.025994e+01 4.244762e+01 3.143690e+01 2.546618e+01 2.317891e+00 3.149550e+00 3.087908e+00 3.151040e+00 3.396149e+00 4.573932e+00 4.195843e+00 4.035922e+00 4.034451e+00 3.409064e+00 3.195040e+00 2.762604e+00 1.784756e+00
<GCONST> 1.055627e+02
<STATE> 3
<MEAN> 25
 8.658910e+00 5.000401e+00 2.954348e+00 -2.671335e+00 -7.457289e+00 -1.043769e+01 -3.682248e+00 2.342003e+00 -1.993913e+00 -4.053403e+00 -3.655970e+00 -3.858294e+00 3.619523e-01 -4.174033e-01 -5.004941e-01 -5.413764e-01 -3.661138e-01 -3.691237e-01 1.985084e-01 6.194838e-01 2.091379e-01 -3.094780e-01 -4.365371e-01 -2.890210e-01 4.863066e-01
<VARIANCE> 25
 1.982055e+01 3.754977e+01 4.485072e+01 4.602500e+01 4.835411e+01 5.230594e+01 4.533890e+01 4.689768e+01 6.356376e+01 4.307386e+01 3.556441e+01 3.444476e+01 5.694164e-01 2.171613e+00 2.316406e+00 1.907328e+00 2.369149e+00 3.386717e+00 2.927253e+00 3.053224e+00 2.962884e+00 2.837181e+00 2.662840e+00 2.209183e+00 9.819031e-01
<GCONST> 1.005687e+02
<STATE> 4
<MEAN> 25
 7.936549e+00 5.316041e+00 2.239468e+00 -2.040418e+00 -5.537446e+00 -6.998611e+00 -2.096663e+00 2.982105e+00 -1.124920e+00 -4.924550e+00 -4.786534e+00 -3.909861e+00 -1.936503e-01 -3.466140e-01 -3.004697e-01 2.804921e-01 7.471921e-01 1.043675e+00 4.173047e-01 -2.147343e-01 -1.894316e-01 -7.248510e-02 1.116081e-02 1.502710e-01 -1.055882e-01
<VARIANCE> 25
 1.968233e+01 3.080829e+01 3.984565e+01 3.763365e+01 3.553752e+01 4.067476e+01 4.069976e+01 3.915368e+01 5.144368e+01 3.819278e+01 3.066512e+01 2.631176e+01 3.753779e-01 1.220878e+00 1.362571e+00 1.493957e+00 2.004738e+00 2.727168e+00 2.026844e+00 2.105258e+00 2.403310e+00 2.200738e+00 1.975419e+00 1.823615e+00 5.097307e-01
<GCONST> 9.394715e+01
~t "T_u"
<ENDHMM>
~h "e-th+a"
<BEGINHMM>
<NUMSTATES> 5
<STATE> 2
<MEAN> 25
 -5.632880e+00 -3.854063e+00 1.516733e+01 -6.320058e+00 2.140140e+00 2.455597e+00 3.235808e+00 -2.117743e+00 -4.823162e-01 1.348089e+00 8.720768e-02 -2.654986e-01 -3.624942e+00 -1.473371e+00 2.833224e+00 -1.734421e+00 -1.021341e-01 6.912473e-01 1.388689e+00 -1.476209e-01 6.915943e-01 5.759441e-01 5.913332e-01 2.648686e-01 5.795045e-01
<VARIANCE> 25
 6.831219e+01 5.101052e+01 9.769680e+01 8.345584e+01 8.229661e+01 6.781025e+01 8.005181e+01 6.789198e+01 6.046149e+01 4.864940e+01 3.799240e+01 2.866057e+01 2.483551e+00 3.884926e+00 3.833339e+00 4.342094e+00 3.744481e+00 5.492457e+00 3.865437e+00 3.177013e+00 3.737395e+00 3.366478e+00 3.085365e+00 2.236720e+00 1.021638e+00
<GCONST> 1.104123e+02
<STATE> 3
<MEAN> 25
 -1.727112e+01 -8.257788e+00 1.949447e+01 -1.180675e+01 1.947106e+00 1.331353e+00 6.016316e+00 -2.654345e+00 1.263386e+00 2.144119e+00 1.879954e+00 3.925450e-01 -1.316139e-01 -5.102527e-01 -3.761988e-01 1.679360e-01 1.177314e-02 -9.135841e-02 -9.154829e-02 -1.859931e-02 1.217610e-01 1.754421e-01 1.592440e-01 1.295594e-02 -6.405007e-02
<VARIANCE> 25
 3.926363e+01 8.026629e+01 8.774121e+01 1.006794e+02 8.994701e+01 7.935870e+01 7.173088e+01 6.903039e+01 6.770055e+01 4.795404e+01 3.895676e+01 2.661696e+01 1.988035e+00 1.045411e+00 1.457392e+00 2.010195e+00 1.328030e+00 1.433358e+00 1.615375e+00 1.621984e+00 1.538399e+00 1.449418e+00 1.211479e+00 1.100959e+00 4.380694e-01
<GCONST> 9.917685e+01
<STATE> 4
<MEAN> 25
 -9.271607e+00 -9.057722e+00 1.468838e+01 -6.365356e+00 1.965114e+00 2.341074e+00 3.013284e+00 -2.966129e+00 2.363478e-03 3.011927e+00 1.883378e+00 8.863983e-02 4.015340e+00 1.801579e+00 -2.265525e+00 2.241422e+00 5.355793e-01 -2.967038e-01 -2.138270e+00 -4.493863e-01 -1.154973e+00 -7.945148e-01 -8.732439e-01 -3.801412e-01 -6.645188e-01
<VARIANCE> 25
 5.233046e+01 6.291172e+01 6.801148e+01 8.587710e+01 6.436635e+01 5.830358e+01 5.761609e+01 5.580789e+01 5.802547e+01 4.261039e+01 3.626220e+01 2.619216e+01 3.238315e+00 3.795416e+00 2.980920e+00 3.903574e+00 4.405891e+00 4.908393e+00 3.968453e+00 3.498078e+00 3.993294e+00 3.501172e+00 3.218621e+00 2.491385e+00 1.196708e+00
<GCONST> 1.092605e+02
~t "T_th"
<ENDHMM>
~h "e-th+e"
<BEGINHMM>
<NUMSTATES> 5
<STATE> 2
<MEAN> 25
 -5.632880e+00 -3.854063e+00 1.516733e+01 -6.320058e+00 2.140140e+00 2.455597e+00 3.235808e+00 -2.117743e+00 -4.823162e-01 1.348089e+00 8.720768e-02 -2.654986e-01 -3.624942e+00 -1.473371e+00 2.833224e+00 -1.734421e+00 -1.021341e-01 6.912473e-01 1.388689e+00 -1.476209e-01 6.915943e-01 5.759441e-01 5.913332e-01 2.648686e-01 5.795045e-01
<VARIANCE> 25
 6.831219e+01 5.101052e+01 9.769680e+01 8.345584e+01 8.229661e+01 6.781025e+01 8.005181e+01 6.789198e+01 6.046149e+01 4.864940e+01 3.799240e+01 2.866057e+01 2.483551e+00 3.884926e+00 3.833339e+00 4.342094e+00 3.744481e+00 5.492457e+00 3.865437e+00 3.177013e+00 3.737395e+00 3.366478e+00 3.085365e+00 2.236720e+00 1.021638e+00
<GCONST> 1.104123e+02
<STATE> 3
<MEAN> 25
 -1.727112e+01 -8.257788e+00 1.949447e+01 -1.180675e+01 1.947106e+00 1.331353e+00 6.016316e+00 -2.654345e+00 1.263386e+00 2.144119e+00 1.879954e+00 3.925450e-01 -1.316139e-01 -5.102527e-01 -3.761988e-01 1.679360e-01 1.177314e-02 -9.135841e-02 -9.154829e-02 -1.859931e-02 1.217610e-01 1.754421e-01 1.592440e-01 1.295594e-02 -6.405007e-02
<VARIANCE> 25
 3.926363e+01 8.026629e+01 8.774121e+01 1.006794e+02 8.994701e+01 7.935870e+01 7.173088e+01 6.903039e+01 6.770055e+01 4.795404e+01 3.895676e+01 2.661696e+01 1.988035e+00 1.045411e+00 1.457392e+00 2.010195e+00 1.328030e+00 1.433358e+00 1.615375e+00 1.621984e+00 1.538399e+00 1.449418e+00 1.211479e+00 1.100959e+00 4.380694e-01
<GCONST> 9.917685e+01
<STATE> 4
<MEAN> 25
 -9.271607e+00 -9.057722e+00 1.468838e+01 -6.365356e+00 1.965114e+00 2.341074e+00 3.013284e+00 -2.966129e+00 2.363478e-03 3.011927e+00 1.883378e+00 8.863983e-02 4.015340e+00 1.801579e+00 -2.265525e+00 2.241422e+00 5.355793e-01 -2.967038e-01 -2.138270e+00 -4.493863e-01 -1.154973e+00 -7.945148e-01 -8.732439e-01 -3.801412e-01 -6.645188e-01
<VARIANCE> 25
 5.233046e+01 6.291172e+01 6.801148e+01 8.587710e+01 6.436635e+01 5.830358e+01 5.761609e+01 5.580789e+01 5.802547e+01 4.261039e+01 3.626220e+01 2.619216e+01 3.238315e+00 3.795416e+00 2.980920e+00 3.903574e+00 4.405891e+00 4.908393e+00 3.968453e+00 3.498078e+00 3.993294e+00 3.501172e+00 3.218621e+00 2.491385e+00 1.196708e+00
<GCONST> 1.092605e+02
~t "T_th"
<ENDHMM>
~h "e-th+i"
<BEGINHMM>
<NUMSTATES> 5
<STATE> 2
<MEAN> 25
 -5.632880e+00 -3.854063e+00 1.516733e+01 -6.320058e+00 2.140140e+00 2.455597e+00 3.235808e+00 -2.117743e+00 -4.823162e-01 1.348089e+00 8.720768e-02 -2.654986e-01 -3.624942e+00 -1.473371e+00 2.833224e+00 -1.734421e+00 -1.021341e-01 6.912473e-01 1.388689e+00 -1.476209e-01 6.915943e-01 5.759441e-01 5.913332e-01 2.648686e-01 5.795045e-01
<VARIANCE> 25
 6.831219e+01 5.101052e+01 9.769680e+01 8.345584e+01 8.229661e+01 6.781025e+01 8.005181e+01 6.789198e+01 6.046149e+01 4.864940e+01 3.799240e+01 2.866057e+01 2.483551e+00 3.884926e+00 3.833339e+00 4.342094e+00 3.744481e+00 5.492457e+00 3.865437e+00 3.177013e+00 3.737395e+00 3.366478e+00 3.085365e+00 2.236720e+00 1.021638e+00
<GCONST> 1.104123e+02
<STATE> 3
<MEAN> 25
 -1.727112e+01 -8.257788e+00 1.949447e+01 -1.180675e+01 1.947106e+00 1.331353e+00 6.016316e+00 -2.654345e+00 1.263386e+00 2.144119e+00 1.879954e+00 3.925450e-01 -1.316139e-01 -5.102527e-01 -3.761988e-01 1.679360e-01 1.177314e-02 -9.135841e-02 -9.154829e-02 -1.859931e-02 1.217610e-01 1.754421e-01 1.592440e-01 1.295594e-02 -6.405007e-02
<VARIANCE> 25
 3.926363e+01 8.026629e+01 8.774121e+01 1.006794e+02 8.994701e+01 7.935870e+01 7.173088e+01 6.903039e+01 6.770055e+01 4.795404e+01 3.895676e+01 2.661696e+01 1.988035e+00 1.045411e+00 1.457392e+00 2.010195e+00 1.328030e+00 1.433358e+00 1.615375e+00 1.621984e+00 1.538399e+00 1.449418e+00 1.211479e+00 1.100959e+00 4.380694e-01
<GCONST> 9.917685e+01
<STATE> 4
<MEAN> 25
 -9.271607e+00 -9.057722e+00 1.468838e+01 -6.365356e+00 1.965114e+00 2.341074e+00 3.013284e+00 -2.966129e+00 2.363478e-03 3.011927e+00 1.883378e+00 8.863983e-02 4.015340e+00 1.801579e+00 -2.265525e+00 2.241422e+00 5.355793e-01 -2.967038e-01 -2.138270e+00 -4.493863e-01 -1.154973e+00 -7.945148e-01 -8.732439e-01 -3.801412e-01 -6.645188e-01
<VARIANCE> 25
 5.233046e+01 6.291172e+01 6.801148e+01 8.587710e+01 6.436635e+01 5.830358e+01 5.761609e+01 5.580789e+01 5.802547e+01 4.261039e+01 3.626220e+01 2.619216e+01 3.238315e+00 3.795416e+00 2.980920e+00 3.903574e+00 4.405891e+00 4.908393e+00 3.968453e+00 3.498078e+00 3.993294e+00 3.501172e+00 3.218621e+00 2.491385e+00 1.196708e+00
<GCONST> 1.092605e+02
~t "T_th"
<ENDHMM>
~h "e-th+k"
<BEGINHMM>
<NUMSTATES> 5
<STATE> 2
<MEAN> 25
 -5.632880e+00 -3.854063e+00 1.516733e+01 -6.320058e+00 2.140140e+00 2.455597e+00 3.235808e+00 -2.117743e+00 -4.823162e-01 1.348089e+00 8.720768e-02 -2.654986e-01 -3.624942e+00 -1.473371e+00 2.833224e+00 -1.734421e+00 -1.021341e-01 6.912473e-01 1.388689e+00 -1.476209e-01 6.915943e-01 5.759441e-01 5.913332e-01 2.648686e-01 5.795045e-01
<VARIANCE> 25
 6.831219e+01 5.101052e+01 9.769680e+01 8.345584e+01 8.229661e+01 6.781025e+01 8.005181e+01 6.789198e+01 6.046149e+01 4.864940e+01 3.799240e+01 2.866057e+01 2.483551e+00 3.884926e+00 3.833339e+00 4.342094e+00 3.744481e+00 5.492457e+00 3.865437e+00 3.177013e+00 3.737395e+00 3.366478e+00 3.085365e+00 2.236720e+00 1.021638e+00
<GCONST> 1.104123e+02
<STATE> 3
<MEAN> 25
 -1.727112e+01 -8.257788e+00 1.949447e+01 -1.180675e+01 1.947106e+00 1.331353e+00 6.016316e+00 -2.654345e+00 1.263386e+00 2.144119e+00 1.879954e+00 3.925450e-01 -1.316139e-01 -5.102527e-01 -3.761988e-01 1.679360e-01 1.177314e-02 -9.135841e-02 -9.154829e-02 -1.859931e-02 1.217610e-01 1.754421e-01 1.592440e-01 1.295594e-02 -6.405007e-02
<VARIANCE> 25
 3.926363e+01 8.026629e+01 8.774121e+01 1.006794e+02 8.994701e+01 7.935870e+01 7.173088e+01 6.903039e+01 6.770055e+01 4.795404e+01 3.895676e+01 2.661696e+01 1.988035e+00 1.045411e+00 1.457392e+00 2.010195e+00 1.328030e+00 1.433358e+00 1.615375e+00 1.621984e+00 1.538399e+00 1.449418e+00 1.211479e+00 1.100959e+00 4.380694e-01
<GCONST> 9.917685e+01
<STATE> 4
<MEAN> 25
 -9.271607e+00 -9.057722e+00 1.468838e+01 -6.365356e+00 1.965114e+00 2.341074e+00 3.013284e+00 -2.966129e+00 2.363478e-03 3.011927e+00 1.883378e+00 8.863983e-02 4.015340e+00 1.801579e+00 -2.265525e+00 2.241422e+00 5.355793e-01 -2.967038e-01 -2.138270e+00 -4.493863e-01 -1.154973e+00 -7.945148e-01 -8.732439e-01 -3.801412e-01 -6.645188e-01
<VARIANCE> 25
 5.233046e+01 6.291172e+01 6.801148e+01 8.587710e+01 6.436635e+01 5.830358e+01 5.761609e+01 5.580789e+01 5.802547e+01 4.261039e+01 3.626220e+01 2.619216e+01 3.238315e+00 3.795416e+00 2.980920e+00 3.903574e+00 4.405891e+00 4.908393e+00 3.968453e+00 3.498078e+00 3.993294e+00 3.501172e+00 3.218621e+00 2.491385e+00 1.196708e+00
<GCONST> 1.092605e+02
~t "T_th"
<ENDHMM>
~h "e-th+o"
<BEGINHMM>
<NUMSTATES> 5
<STATE> 2
<MEAN> 25
 -5.632880e+00 -3.854063e+00 1.516733e+01 -6.320058e+00 2.140140e+00 2.455597e+00 3.235808e+00 -2.117743e+00 -4.823162e-01 1.348089e+00 8.720768e-02 -2.654986e-01 -3.624942e+00 -1.473371e+00 2.833224e+00 -1.734421e+00 -1.021341e-01 6.912473e-01 1.388689e+00 -1.476209e-01 6.915943e-01 5.759441e-01 5.913332e-01 2.648686e-01 5.795045e-01
<VARIANCE> 25
 6.831219e+01 5.101052e+01 9.769680e+01 8.345584e+01 8.229661e+01 6.781025e+01 8.005181e+01 6.789198e+01 6.046149e+01 4.864940e+01 3.799240e+01 2.866057e+01 2.483551e+00 3.884926e+00 3.833339e+00 4.342094e+00 3.744481e+00 5.492457e+00 3.865437e+00 3.177013e+00 3.737395e+00 3.366478e+00 3.085365e+00 2.236720e+00 1.021638e+00
<GCONST> 1.104123e+02
<STATE> 3
<MEAN> 25
 -1.727112e+01 -8.257788e+00 1.949447e+01 -1.180675e+01 1.947106e+00 1.331353e+00 6.016316e+00 -2.654345e+00 1.263386e+00 2.144119e+00 1.879954e+00 3.925450e-01 -1.316139e-01 -5.102527e-01 -3.761988e-01 1.679360e-01 1.177314e-02 -9.135841e-02 -9.154829e-02 -1.859931e-02 1.217610e-01 1.754421e-01 1.592440e-01 1.295594e-02 -6.405007e-02
<VARIANCE> 25
 3.926363e+01 8.026629e+01 8.774121e+01 1.006794e+02 8.994701e+01 7.935870e+01 7.173088e+01 6.903039e+01 6.770055e+01 4.795404e+01 3.895676e+01 2.661696e+01 1.988035e+00 1.045411e+00 1.457392e+00 2.010195e+00 1.328030e+00 1.433358e+00 1.615375e+00 1.621984e+00 1.538399e+00 1.449418e+00 1.211479e+00 1.100959e+00 4.380694e-01
<GCONST> 9.917685e+01
<STATE> 4
<MEAN> 25
 -9.271607e+00 -9.057722e+00 1.468838e+01 -6.365356e+00 1.965114e+00 2.341074e+00 3.013284e+00 -2.966129e+00 2.363478e-03 3.011927e+00 1.883378e+00 8.863983e-02 4.015340e+00 1.801579e+00 -2.265525e+00 2.241422e+00 5.355793e-01 -2.967038e-01 -2.138270e+00 -4.493863e-01 -1.154973e+00 -7.945148e-01 -8.732439e-01 -3.801412e-01 -6.645188e-01
<VARIANCE> 25
 5.233046e+01 6.291172e+01 6.801148e+01 8.587710e+01 6.436635e+01 5.830358e+01 5.761609e+01 5.580789e+01 5.802547e+01 4.261039e+01 3.626220e+01 2.619216e+01 3.238315e+00 3.795416e+00 2.980920e+00 3.903574e+00 4.405891e+00 4.908393e+00 3.968453e+00 3.498078e+00 3.993294e+00 3.501172e+00 3.218621e+00 2.491385e+00 1.196708e+00
<GCONST> 1.092605e+02
~t "T_th"
<ENDHMM>
~h "a-n+th"
<BEGINHMM>
<NUMSTATES> 5
<STATE> 2
<MEAN> 25
 7.169885e+00 3.457295e-01 -9.706034e-01 1.822969e+00 2.203207e+00 -1.710077e+00 -1.541217e+00 -6.925409e-01 -3.499932e+00 -2.178467e+00 -7.829415e-01 -1.847775e+00 -1.776564e-01 1.685531e+00 6.899630e-01 1.139801e+00 6.890932e-01 2.057916e+00 4.165332e-01 -6.090450e-01 -1.683788e-01 -9.237592e-02 -7.342267e-01 -1.250047e+00 -1.560356e+00
<VARIANCE> 25
 2.165102e+01 3.528417e+01 4.496836e+01 6.788055e+01 4.849240e+01 5.297578e+01 4.589392e+01 4.388946e+01 4.575230e+01 3.900736e+01 3.414560e+01 3.704768e+01 9.116951e-01 1.700086e+00 1.786228e+00 4.035296e+00 3.243808e+00 3.321929e+00 3.851503e+00 3.338852e+00 3.444288e+00 2.962204e+00 2.780899e+00 2.558904e+00 1.011466e+00
<GCONST> 1.023394e+02
<STATE> 3
<MEAN> 25
 6.451331e+00 3.805457e+00 7.997720e-01 4.104099e+00 3.209973e+00 1.771652e+00 -1.687927e+00 -2.346424e+00 -2.799612e+00 -1.867672e+00 -2.654003e+00 -4.671466e+00 -4.288488e-01 8.661700e-01 6.104125e-01 6.183404e-01 3.940374e-01 1.045232e+00 2.131816e-01 -3.304687e-01 1.941549e-01 1.693209e-01 -3.405662e-01 -4.656930e-01 -8.459170e-01
<VARIANCE> 25
 1.605801e+01 2.327610e+01 3.427949e+01 4.943877e+01 3.551352e+01 4.001220e+01 3.662941e+01 3.266262e+01 4.372853e+01 3.314529e+01 2.653506e+01 2.688600e+01 4.240589e-01 7.692712e-01 1.020777e+00 1.824027e+00 1.598796e+00 1.636005e+00 1.955104e+00 1.795479e+00 2.067024e+00 1.608387e+00 1.611071e+00 1.827414e+00 4.028325e-01
<GCONST> 9.059154e+01
<STATE> 4
<MEAN> 25
 3.843240e+00 4.976631e+00 2.044346e+00 4.405276e+00 3.430595e+00 3.177998e+00 -7.137617e-01 -1.420924e+00 -8.184713e-01 -5.259312e-01 -2.154598e+00 -3.488309e+00 -4.377143e-01 -2.375585e-02 4.742600e-02 -6.740690e-02 -9.708463e-02 1.467522e-01 2.977267e-01 2.026634e-01 7.117245e-02 2.588364e-02 1.424470e-01 2.484765e-01 -3.065790e-01
<VARIANCE> 25
 1.843643e+01 1.784051e+01 2.607419e+01 3.130790e+01 2.558590e+01 2.868715e+01 2.686604e+01 2.596465e+01 3.096772e+01 2.389989e+01 1.980139e+01 1.923713e+01 4.635847e-01 5.872605e-01 8.780912e-01 9.187444e-01 9.726738e-01 1.154603e+00 1.138327e+00 1.124501e+00 1.193445e+00 1.121723e+00 1.058525e+00 1.099325e+00 4.008314e-01
<GCONST> 8.251925e+01
~t "T_n"
<ENDHMM>
~h "a-ll+a"
<BEGINHMM>
<NUMSTATES> 5
<STATE> 2
<MEAN> 25
 3.212471e+00 -2.951287e+00 4.323708e+00 8.410697e+00 2.788220e+00 -1.935065e+00 -1.747923e+00 8.391452e-02 -2.637424e+00 -1.581116e+00 -6.247452e-01 -1.540875e+00 -2.188163e-01 -4.430611e-01 8.618621e-01 1.067031e+00 6.207041e-01 -1.448503e-01 -4.251457e-01 -1.209111e-01 -3.200509e-01 -3.793057e-01 -3.794066e-01 -4.406834e-01 1.135523e-01
<VARIANCE> 25
 3.954158e+01 4.888305e+01 7.001929e+01 7.442691e+01 4.999314e+01 6.646969e+01 5.267068e+01 4.823973e+01 4.327724e+01 3.409306e+01 3.101496e+01 2.490006e+01 2.074605e+00 4.279892e+00 3.420694e+00 4.001318e+00 3.367984e+00 4.949061e+00 5.046401e+00 4.234818e+00 3.539297e+00 2.989798e+00 2.465955e+00 2.130456e+00 3.378630e+00
<GCONST> 1.078784e+02
<STATE> 3
<MEAN> 25
 5.845975e+00 -6.557073e+00 3.317025e+00 1.269852e+01 6.821661e+00 -6.851101e+00 -8.228510e+00 -3.712974e+00 -6.055174e+00 -4.384605e+00 -1.842642e+00 -2.637305e+00 1.161601e+00 -3.497964e-01 -1.748255e+00 -1.039612e+00 -1.023872e-01 -1.126238e+00 -1.311410e+00 -1.242101e+00 -8.171799e-01 -3.470524e-02 5.469254e-01 7.039791e-01 1.082235e+00
<VARIANCE> 25
 2.284479e+01 2.646275e+01 3.987304e+01 6.100370e+01 6.157007e+01 5.622474e+01 4.059973e+01 4.629984e+01 3.791869e+01 3.027633e+01 2.953214e+01 2.345895e+01 1.101586e+00 1.286474e+00 2.290552e+00 2.601848e+00 2.260683e+00 3.307712e+00 3.644923e+00 2.808527e+00 3.231163e+00 3.109841e+00 2.243085e+00 1.853376e+00 7.294656e-01
<GCONST> 9.931143e+01
<STATE> 4
<MEAN> 25
 6.903928e+00 -5.119917e+00 -6.370137e-01 7.196602e+00 3.752772e+00 -6.617359e+00 -7.630206e+00 -4.237154e+00 -5.773923e+00 -3.432392e+00 -1.383355e-01 2.270406e-01 3.532740e-01 1.402729e-01 -1.005013e+00 -1.572629e+00 -9.562680e-01 -6.739819e-02 5.709735e-01 2.909666e-01 3.566037e-01 4.653815e-01 4.380224e-01 6.594865e-01 2.652628e-01
<VARIANCE> 25
 2.485456e+01 3.116670e+01 3.369991e+01 4.996317e+01 4.769045e+01 6.074029e+01 3.860729e+01 4.537725e+01 3.515932e+01 5.286123e+01 3.456664e+01 2.363072e+01 3.052286e-01 6.844740e-01 1.423032e+00 1.637507e+00 1.733776e+00 1.588886e+00 1.935019e+00 2.034065e+00 1.932827e+00 2.487600e+00 2.167042e+00 1.462642e+00 3.067801e-01
<GCONST> 9.290681e+01
~t "T_ll"
<ENDHMM>
~h "a-ll+e"
<BEGINHMM>
<NUMSTATES> 5
<STATE> 2
<MEAN> 25
 3.212471e+00 -2.951287e+00 4.323708e+00 8.410697e+00 2.788220e+00 -1.935065e+00 -1.747923e+00 8.391452e-02 -2.637424e+00 -1.581116e+00 -6.247452e-01 -1.540875e+00 -2.188163e-01 -4.430611e-01 8.618621e-01 1.067031e+00 6.207041e-01 -1.448503e-01 -4.251457e-01 -1.209111e-01 -3.200509e-01 -3.793057e-01 -3.794066e-01 -4.406834e-01 1.135523e-01
<VARIANCE> 25
 3.954158e+01 4.888305e+01 7.001929e+01 7.442691e+01 4.999314e+01 6.646969e+01 5.267068e+01 4.823973e+01 4.327724e+01 3.409306e+01 3.101496e+01 2.490006e+01 2.074605e+00 4.279892e+00 3.420694e+00 4.001318e+00 3.367984e+00 4.949061e+00 5.046401e+00 4.234818e+00 3.539297e+00 2.989798e+00 2.465955e+00 2.130456e+00 3.378630e+00
<GCONST> 1.078784e+02
<STATE> 3
<MEAN> 25
 5.845975e+00 -6.557073e+00 3.317025e+00 1.269852e+01 6.821661e+00 -6.851101e+00 -8.228510e+00 -3.712974e+00 -6.055174e+00 -4.384605e+00 -1.842642e+00 -2.637305e+00 1.161601e+00 -3.497964e-01 -1.748255e+00 -1.039612e+00 -1.023872e-01 -1.126238e+00 -1.311410e+00 -1.242101e+00 -8.171799e-01 -3.470524e-02 5.469254e-01 7.039791e-01 1.082235e+00
<VARIANCE> 25
 2.284479e+01 2.646275e+01 3.987304e+01 6.100370e+01 6.157007e+01 5.622474e+01 4.059973e+01 4.629984e+01 3.791869e+01 3.027633e+01 2.953214e+01 2.345895e+01 1.101586e+00 1.286474e+00 2.290552e+00 2.601848e+00 2.260683e+00 3.307712e+00 3.644923e+00 2.808527e+00 3.231163e+00 3.109841e+00 2.243085e+00 1.853376e+00 7.294656e-01
<GCONST> 9.931143e+01
<STATE> 4
<MEAN> 25
 6.903928e+00 -5.119917e+00 -6.370137e-01 7.196602e+00 3.752772e+00 -6.617359e+00 -7.630206e+00 -4.237154e+00 -5.773923e+00 -3.432392e+00 -1.383355e-01 2.270406e-01 3.532740e-01 1.402729e-01 -1.005013e+00 -1.572629e+00 -9.562680e-01 -6.739819e-02 5.709735e-01 2.909666e-01 3.566037e-01 4.653815e-01 4.380224e-01 6.594865e-01 2.652628e-01
<VARIANCE> 25
 2.485456e+01 3.116670e+01 3.369991e+01 4.996317e+01 4.769045e+01 6.074029e+01 3.860729e+01 4.537725e+01 3.515932e+01 5.286123e+01 3.456664e+01 2.363072e+01 3.052286e-01 6.844740e-01 1.423032e+00 1.637507e+00 1.733776e+00 1.588886e+00 1.935019e+00 2.034065e+00 1.932827e+00 2.487600e+00 2.167042e+00 1.462642e+00 3.067801e-01
<GCONST> 9.290681e+01
~t "T_ll"
<ENDHMM>
~h "a-ll+o"
<BEGINHMM>
<NUMSTATES> 5
<STATE> 2
<MEAN> 25
 3.212471e+00 -2.951287e+00 4.323708e+00 8.410697e+00 2.788220e+00 -1.935065e+00 -1.747923e+00 8.391452e-02 -2.637424e+00 -1.581116e+00 -6.247452e-01 -1.540875e+00 -2.188163e-01 -4.430611e-01 8.618621e-01 1.067031e+00 6.207041e-01 -1.448503e-01 -4.251457e-01 -1.209111e-01 -3.200509e-01 -3.793057e-01 -3.794066e-01 -4.406834e-01 1.135523e-01
<VARIANCE> 25
 3.954158e+01 4.888305e+01 7.001929e+01 7.442691e+01 4.999314e+01 6.646969e+01 5.267068e+01 4.823973e+01 4.327724e+01 3.409306e+01 3.101496e+01 2.490006e+01 2.074605e+00 4.279892e+00 3.420694e+00 4.001318e+00 3.367984e+00 4.949061e+00 5.046401e+00 4.234818e+00 3.539297e+00 2.989798e+00 2.465955e+00 2.130456e+00 3.378630e+00
<GCONST> 1.078784e+02
<STATE> 3
<MEAN> 25
 5.845975e+00 -6.557073e+00 3.317025e+00 1.269852e+01 6.821661e+00 -6.851101e+00 -8.228510e+00 -3.712974e+00 -6.055174e+00 -4.384605e+00 -1.842642e+00 -2.637305e+00 1.161601e+00 -3.497964e-01 -1.748255e+00 -1.039612e+00 -1.023872e-01 -1.126238e+00 -1.311410e+00 -1.242101e+00 -8.171799e-01 -3.470524e-02 5.469254e-01 7.039791e-01 1.082235e+00
<VARIANCE> 25
 2.284479e+01 2.646275e+01 3.987304e+01 6.100370e+01 6.157007e+01 5.622474e+01 4.059973e+01 4.629984e+01 3.791869e+01 3.027633e+01 2.953214e+01 2.345895e+01 1.101586e+00 1.286474e+00 2.290552e+00 2.601848e+00 2.260683e+00 3.307712e+00 3.644923e+00 2.808527e+00 3.231163e+00 3.109841e+00 2.243085e+00 1.853376e+00 7.294656e-01
<GCONST> 9.931143e+01
<STATE> 4
<MEAN> 25
 6.903928e+00 -5.119917e+00 -6.370137e-01 7.196602e+00 3.752772e+00 -6.617359e+00 -7.630206e+00 -4.237154e+00 -5.773923e+00 -3.432392e+00 -1.383355e-01 2.270406e-01 3.532740e-01 1.402729e-01 -1.005013e+00 -1.572629e+00 -9.562680e-01 -6.739819e-02 5.709735e-01 2.909666e-01 3.566037e-01 4.653815e-01 4.380224e-01 6.594865e-01 2.652628e-01
<VARIANCE> 25
 2.485456e+01 3.116670e+01 3.369991e+01 4.996317e+01 4.769045e+01 6.074029e+01 3.860729e+01 4.537725e+01 3.515932e+01 5.286123e+01 3.456664e+01 2.363072e+01 3.052286e-01 6.844740e-01 1.423032e+00 1.637507e+00 1.733776e+00 1.588886e+00 1.935019e+00 2.034065e+00 1.932827e+00 2.487600e+00 2.167042e+00 1.462642e+00 3.067801e-01
<GCONST> 9.290681e+01
~t "T_ll"
<ENDHMM>
~h "a-ll+u"
<BEGINHMM>
<NUMSTATES> 5
<STATE> 2
<MEAN> 25
 3.212471e+00 -2.951287e+00 4.323708e+00 8.410697e+00 2.788220e+00 -1.935065e+00 -1.747923e+00 8.391452e-02 -2.637424e+00 -1.581116e+00 -6.247452e-01 -1.540875e+00 -2.188163e-01 -4.430611e-01 8.618621e-01 1.067031e+00 6.207041e-01 -1.448503e-01 -4.251457e-01 -1.209111e-01 -3.200509e-01 -3.793057e-01 -3.794066e-01 -4.406834e-01 1.135523e-01
<VARIANCE> 25
 3.954158e+01 4.888305e+01 7.001929e+01 7.442691e+01 4.999314e+01 6.646969e+01 5.267068e+01 4.823973e+01 4.327724e+01 3.409306e+01 3.101496e+01 2.490006e+01 2.074605e+00 4.279892e+00 3.420694e+00 4.001318e+00 3.367984e+00 4.949061e+00 5.046401e+00 4.234818e+00 3.539297e+00 2.989798e+00 2.465955e+00 2.130456e+00 3.378630e+00
<GCONST> 1.078784e+02
<STATE> 3
<MEAN> 25
 5.845975e+00 -6.557073e+00 3.317025e+00 1.269852e+01 6.821661e+00 -6.851101e+00 -8.228510e+00 -3.712974e+00 -6.055174e+00 -4.384605e+00 -1.842642e+00 -2.637305e+00 1.161601e+00 -3.497964e-01 -1.748255e+00 -1.039612e+00 -1.023872e-01 -1.126238e+00 -1.311410e+00 -1.242101e+00 -8.171799e-01 -3.470524e-02 5.469254e-01 7.039791e-01 1.082235e+00
<VARIANCE> 25
 2.284479e+01 2.646275e+01 3.987304e+01 6.100370e+01 6.157007e+01 5.622474e+01 4.059973e+01 4.629984e+01 3.791869e+01 3.027633e+01 2.953214e+01 2.345895e+01 1.101586e+00 1.286474e+00 2.290552e+00 2.601848e+00 2.260683e+00 3.307712e+00 3.644923e+00 2.808527e+00 3.231163e+00 3.109841e+00 2.243085e+00 1.853376e+00 7.294656e-01
<GCONST> 9.931143e+01
<STATE> 4
<MEAN> 25
 6.903928e+00 -5.119917e+00 -6.370137e-01 7.196602e+00 3.752772e+00 -6.617359e+00 -7.630206e+00 -4.237154e+00 -5.773923e+00 -3.432392e+00 -1.383355e-01 2.270406e-01 3.532740e-01 1.402729e-01 -1.005013e+00 -1.572629e+00 -9.562680e-01 -6.739819e-02 5.709735e-01 2.909666e-01 3.566037e-01 4.653815e-01 4.380224e-01 6.594865e-01 2.652628e-01
<VARIANCE> 25
 2.485456e+01 3.116670e+01 3.369991e+01 4.996317e+01 4.769045e+01 6.074029e+01 3.860729e+01 4.537725e+01 3.515932e+01 5.286123e+01 3.456664e+01 2.363072e+01 3.052286e-01 6.844740e-01 1.423032e+00 1.637507e+00 1.733776e+00 1.588886e+00 1.935019e+00 2.034065e+00 1.932827e+00 2.487600e+00 2.167042e+00 1.462642e+00 3.067801e-01
<GCONST> 9.290681e+01
~t "T_ll"
<ENDHMM>
~h "t-u+a"
<BEGINHMM>
<NUMSTATES> 5
<STATE> 2
<MEAN> 25
 5.841117e+00 4.888117e+00 2.686566e+00 -7.820466e-01 -3.509169e+00 -4.456264e+00 -1.667651e+00 1.072235e+00 -1.711213e+00 -3.398537e+00 -2.842877e+00 -2.182095e+00 1.576147e+00 1.045471e+00 4.197832e-01 -3.047917e-01 -1.355020e+00 -2.229248e+00 -1.097899e+00 2.456878e-01 -2.158980e-01 -6.960759e-01 -8.961666e-01 -8.212398e-01 8.114035e-01
<VARIANCE> 25
 3.111406e+01 4.019774e+01 4.504975e+01 4.146431e+01 4.849731e+01 5.661042e+01 4.281160e+01 4.095763e+01 5.025994e+01 4.244762e+01 3.143690e+01 2.546618e+01 2.317891e+00 3.149550e+00 3.087908e+00 3.151040e+00 3.396149e+00 4.573932e+00 4.195843e+00 4.035922e+00 4.034451e+00 3.409064e+00 3.195040e+00 2.762604e+00 1.784756e+00
<GCONST> 1.055627e+02
<STATE> 3
<MEAN> 25
 8.658910e+00 5.000401e+00 2.954348e+00 -2.671335e+00 -7.457289e+00 -1.043769e+01 -3.682248e+00 2.342003e+00 -1.993913e+00 -4.053403e+00 -3.655970e+00 -3.858294e+00 3.619523e-01 -4.174033e-01 -5.004941e-01 -5.413764e-01 -3.661138e-01 -3.691237e-01 1.985084e-01 6.194838e-01 2.091379e-01 -3.094780e-01 -4.365371e-01 -2.890210e-01 4.863066e-01
<VARIANCE> 25
 1.982055e+01 3.754977e+01 4.485072e+01 4.602500e+01 4.835411e+01 5.230594e+01 4.533890e+01 4.689768e+01 6.356376e+01 4.307386e+01 3.556441e+01 3.444476e+01 5.694164e-01 2.171613e+00 2.316406e+00 1.907328e+00 2.369149e+00 3.386717e+00 2.927253e+00 3.053224e+00 2.962884e+00 2.837181e+00 2.662840e+00 2.209183e+00 9.819031e-01
<GCONST> 1.005687e+02
<STATE> 4
<MEAN> 25
 7.936549e+00 5.316041e+00 2.239468e+00 -2.040418e+00 -5.537446e+00 -6.998611e+00 -2.096663e+00 2.982105e+00 -1.124920e+00 -4.924550e+00 -4.786534e+00 -3.909861e+00 -1.936503e-01 -3.466140e-01 -3.004697e-01 2.804921e-01 7.471921e-01 1.043675e+00 4.173047e-01 -2.147343e-01 -1.894316e-01 -7.248510e-02 1.116081e-02 1.502710e-01 -1.055882e-01
<VARIANCE> 25
 1.968233e+01 3.080829e+01 3.984565e+01 3.763365e+01 3.553752e+01 4.067476e+01 4.069976e+01 3.915368e+01 5.144368e+01 3.819278e+01 3.066512e+01 2.631176e+01 3.753779e-01 1.220878e+00 1.362571e+00 1.493957e+00 2.004738e+00 2.727168e+00 2.026844e+00 2.105258e+00 2.403310e+00 2.200738e+00 1.975419e+00 1.823615e+00 5.097307e-01
<GCONST> 9.394715e+01
~t "T_u"
<ENDHMM>
~h "t-u+b"
<BEGINHMM>
<NUMSTATES> 5
<STATE> 2
<MEAN> 25
 5.841117e+00 4.888117e+00 2.686566e+00 -7.820466e-01 -3.509169e+00 -4.456264e+00 -1.667651e+00 1.072235e+00 -1.711213e+00 -3.398537e+00 -2.842877e+00 -2.182095e+00 1.576147e+00 1.045471e+00 4.197832e-01 -3.047917e-01 -1.355020e+00 -2.229248e+00 -1.097899e+00 2.456878e-01 -2.158980e-01 -6.960759e-01 -8.961666e-01 -8.212398e-01 8.114035e-01
<VARIANCE> 25
 3.111406e+01 4.019774e+01 4.504975e+01 4.146431e+01 4.849731e+01 5.661042e+01 4.281160e+01 4.095763e+01 5.025994e+01 4.244762e+01 3.143690e+01 2.546618e+01 2.317891e+00 3.149550e+00 3.087908e+00 3.151040e+00 3.396149e+00 4.573932e+00 4.195843e+00 4.035922e+00 4.034451e+00 3.409064e+00 3.195040e+00 2.762604e+00 1.784756e+00
<GCONST> 1.055627e+02
<STATE> 3
<MEAN> 25
 8.658910e+00 5.000401e+00 2.954348e+00 -2.671335e+00 -7.457289e+00 -1.043769e+01 -3.682248e+00 2.342003e+00 -1.993913e+00 -4.053403e+00 -3.655970e+00 -3.858294e+00 3.619523e-01 -4.174033e-01 -5.004941e-01 -5.413764e-01 -3.661138e-01 -3.691237e-01 1.985084e-01 6.194838e-01 2.091379e-01 -3.094780e-01 -4.365371e-01 -2.890210e-01 4.863066e-01
<VARIANCE> 25
 1.982055e+01 3.754977e+01 4.485072e+01 4.602500e+01 4.835411e+01 5.230594e+01 4.533890e+01 4.689768e+01 6.356376e+01 4.307386e+01 3.556441e+01 3.444476e+01 5.694164e-01 2.171613e+00 2.316406e+00 1.907328e+00 2.369149e+00 3.386717e+00 2.927253e+00 3.053224e+00 2.962884e+00 2.837181e+00 2.662840e+00 2.209183e+00 9.819031e-01
<GCONST> 1.005687e+02
<STATE> 4
<MEAN> 25
 7.936549e+00 5.316041e+00 2.239468e+00 -2.040418e+00 -5.537446e+00 -6.998611e+00 -2.096663e+00 2.982105e+00 -1.124920e+00 -4.924550e+00 -4.786534e+00 -3.909861e+00 -1.936503e-01 -3.466140e-01 -3.004697e-01 2.804921e-01 7.471921e-01 1.043675e+00 4.173047e-01 -2.147343e-01 -1.894316e-01 -7.248510e-02 1.116081e-02 1.502710e-01 -1.055882e-01
<VARIANCE> 25
 1.968233e+01 3.080829e+01 3.984565e+01 3.763365e+01 3.553752e+01 4.067476e+01 4.069976e+01 3.915368e+01 5.144368e+01 3.819278e+01 3.066512e+01 2.631176e+01 3.753779e-01 1.220878e+00 1.362571e+00 1.493957e+00 2.004738e+00 2.727168e+00 2.026844e+00 2.105258e+00 2.403310e+00 2.200738e+00 1.975419e+00 1.823615e+00 5.097307e-01
<GCONST> 9.394715e+01
~t "T_u"
<ENDHMM>
~h "t-u+d"
<BEGINHMM>
<NUMSTATES> 5
<STATE> 2
<MEAN> 25
 5.841117e+00 4.888117e+00 2.686566e+00 -7.820466e-01 -3.509169e+00 -4.456264e+00 -1.667651e+00 1.072235e+00 -1.711213e+00 -3.398537e+00 -2.842877e+00 -2.182095e+00 1.576147e+00 1.045471e+00 4.197832e-01 -3.047917e-01 -1.355020e+00 -2.229248e+00 -1.097899e+00 2.456878e-01 -2.158980e-01 -6.960759e-01 -8.961666e-01 -8.212398e-01 8.114035e-01
<VARIANCE> 25
 3.111406e+01 4.019774e+01 4.504975e+01 4.146431e+01 4.849731e+01 5.661042e+01 4.281160e+01 4.095763e+01 5.025994e+01 4.244762e+01 3.143690e+01 2.546618e+01 2.317891e+00 3.149550e+00 3.087908e+00 3.151040e+00 3.396149e+00 4.573932e+00 4.195843e+00 4.035922e+00 4.034451e+00 3.409064e+00 3.195040e+00 2.762604e+00 1.784756e+00
<GCONST> 1.055627e+02
<STATE> 3
<MEAN> 25
 8.658910e+00 5.000401e+00 2.954348e+00 -2.671335e+00 -7.457289e+00 -1.043769e+01 -3.682248e+00 2.342003e+00 -1.993913e+00 -4.053403e+00 -3.655970e+00 -3.858294e+00 3.619523e-01 -4.174033e-01 -5.004941e-01 -5.413764e-01 -3.661138e-01 -3.691237e-01 1.985084e-01 6.194838e-01 2.091379e-01 -3.094780e-01 -4.365371e-01 -2.890210e-01 4.863066e-01
<VARIANCE> 25
 1.982055e+01 3.754977e+01 4.485072e+01 4.602500e+01 4.835411e+01 5.230594e+01 4.533890e+01 4.689768e+01 6.356376e+01 4.307386e+01 3.556441e+01 3.444476e+01 5.694164e-01 2.171613e+00 2.316406e+00 1.907328e+00 2.369149e+00 3.386717e+00 2.927253e+00 3.053224e+00 2.962884e+00 2.837181e+00 2.662840e+00 2.209183e+00 9.819031e-01
<GCONST> 1.005687e+02
<STATE> 4
<MEAN> 25
 7.936549e+00 5.316041e+00 2.239468e+00 -2.040418e+00 -5.537446e+00 -6.998611e+00 -2.096663e+00 2.982105e+00 -1.124920e+00 -4.924550e+00 -4.786534e+00 -3.909861e+00 -1.936503e-01 -3.466140e-01 -3.004697e-01 2.804921e-01 7.471921e-01 1.043675e+00 4.173047e-01 -2.147343e-01 -1.894316e-01 -7.248510e-02 1.116081e-02 1.502710e-01 -1.055882e-01
<VARIANCE> 25
 1.968233e+01 3.080829e+01 3.984565e+01 3.763365e+01 3.553752e+01 4.067476e+01 4.069976e+01 3.915368e+01 5.144368e+01 3.819278e+01 3.066512e+01 2.631176e+01 3.753779e-01 1.220878e+00 1.362571e+00 1.493957e+00 2.004738e+00 2.727168e+00 2.026844e+00 2.105258e+00 2.403310e+00 2.200738e+00 1.975419e+00 1.823615e+00 5.097307e-01
<GCONST> 9.394715e+01
~t "T_u"
<ENDHMM>
~h "t-u+l"
<BEGINHMM>
<NUMSTATES> 5
<STATE> 2
<MEAN> 25
 5.841117e+00 4.888117e+00 2.686566e+00 -7.820466e-01 -3.509169e+00 -4.456264e+00 -1.667651e+00 1.072235e+00 -1.711213e+00 -3.398537e+00 -2.842877e+00 -2.182095e+00 1.576147e+00 1.045471e+00 4.197832e-01 -3.047917e-01 -1.355020e+00 -2.229248e+00 -1.097899e+00 2.456878e-01 -2.158980e-01 -6.960759e-01 -8.961666e-01 -8.212398e-01 8.114035e-01
<VARIANCE> 25
 3.111406e+01 4.019774e+01 4.504975e+01 4.146431e+01 4.849731e+01 5.661042e+01 4.281160e+01 4.095763e+01 5.025994e+01 4.244762e+01 3.143690e+01 2.546618e+01 2.317891e+00 3.149550e+00 3.087908e+00 3.151040e+00 3.396149e+00 4.573932e+00 4.195843e+00 4.035922e+00 4.034451e+00 3.409064e+00 3.195040e+00 2.762604e+00 1.784756e+00
<GCONST> 1.055627e+02
<STATE> 3
<MEAN> 25
 8.658910e+00 5.000401e+00 2.954348e+00 -2.671335e+00 -7.457289e+00 -1.043769e+01 -3.682248e+00 2.342003e+00 -1.993913e+00 -4.053403e+00 -3.655970e+00 -3.858294e+00 3.619523e-01 -4.174033e-01 -5.004941e-01 -5.413764e-01 -3.661138e-01 -3.691237e-01 1.985084e-01 6.194838e-01 2.091379e-01 -3.094780e-01 -4.365371e-01 -2.890210e-01 4.863066e-01
<VARIANCE> 25
 1.982055e+01 3.754977e+01 4.485072e+01 4.602500e+01 4.835411e+01 5.230594e+01 4.533890e+01 4.689768e+01 6.356376e+01 4.307386e+01 3.556441e+01 3.444476e+01 5.694164e-01 2.171613e+00 2.316406e+00 1.907328e+00 2.369149e+00 3.386717e+00 2.927253e+00 3.053224e+00 2.962884e+00 2.837181e+00 2.662840e+00 2.209183e+00 9.819031e-01
<GCONST> 1.005687e+02
<STATE> 4
<MEAN> 25
 7.936549e+00 5.316041e+00 2.239468e+00 -2.040418e+00 -5.537446e+00 -6.998611e+00 -2.096663e+00 2.982105e+00 -1.124920e+00 -4.924550e+00 -4.786534e+00 -3.909861e+00 -1.936503e-01 -3.466140e-01 -3.004697e-01 2.804921e-01 7.471921e-01 1.043675e+00 4.173047e-01 -2.147343e-01 -1.894316e-01 -7.248510e-02 1.116081e-02 1.502710e-01 -1.055882e-01
<VARIANCE> 25
 1.968233e+01 3.080829e+01 3.984565e+01 3.763365e+01 3.553752e+01 4.067476e+01 4.069976e+01 3.915368e+01 5.144368e+01 3.819278e+01 3.066512e+01 2.631176e+01 3.753779e-01 1.220878e+00 1.362571e+00 1.493957e+00 2.004738e+00 2.727168e+00 2.026844e+00 2.105258e+00 2.403310e+00 2.200738e+00 1.975419e+00 1.823615e+00 5.097307e-01
<GCONST> 9.394715e+01
~t "T_u"
<ENDHMM>
~h "t-u+n"
<BEGINHMM>
<NUMSTATES> 5
<STATE> 2
<MEAN> 25
 5.841117e+00 4.888117e+00 2.686566e+00 -7.820466e-01 -3.509169e+00 -4.456264e+00 -1.667651e+00 1.072235e+00 -1.711213e+00 -3.398537e+00 -2.842877e+00 -2.182095e+00 1.576147e+00 1.045471e+00 4.197832e-01 -3.047917e-01 -1.355020e+00 -2.229248e+00 -1.097899e+00 2.456878e-01 -2.158980e-01 -6.960759e-01 -8.961666e-01 -8.212398e-01 8.114035e-01
<VARIANCE> 25
 3.111406e+01 4.019774e+01 4.504975e+01 4.146431e+01 4.849731e+01 5.661042e+01 4.281160e+01 4.095763e+01 5.025994e+01 4.244762e+01 3.143690e+01 2.546618e+01 2.317891e+00 3.149550e+00 3.087908e+00 3.151040e+00 3.396149e+00 4.573932e+00 4.195843e+00 4.035922e+00 4.034451e+00 3.409064e+00 3.195040e+00 2.762604e+00 1.784756e+00
<GCONST> 1.055627e+02
<STATE> 3
<MEAN> 25
 8.658910e+00 5.000401e+00 2.954348e+00 -2.671335e+00 -7.457289e+00 -1.043769e+01 -3.682248e+00 2.342003e+00 -1.993913e+00 -4.053403e+00 -3.655970e+00 -3.858294e+00 3.619523e-01 -4.174033e-01 -5.004941e-01 -5.413764e-01 -3.661138e-01 -3.691237e-01 1.985084e-01 6.194838e-01 2.091379e-01 -3.094780e-01 -4.365371e-01 -2.890210e-01 4.863066e-01
<VARIANCE> 25
 1.982055e+01 3.754977e+01 4.485072e+01 4.602500e+01 4.835411e+01 5.230594e+01 4.533890e+01 4.689768e+01 6.356376e+01 4.307386e+01 3.556441e+01 3.444476e+01 5.694164e-01 2.171613e+00 2.316406e+00 1.907328e+00 2.369149e+00 3.386717e+00 2.927253e+00 3.053224e+00 2.962884e+00 2.837181e+00 2.662840e+00 2.209183e+00 9.819031e-01
<GCONST> 1.005687e+02
<STATE> 4
<MEAN> 25
 7.936549e+00 5.316041e+00 2.239468e+00 -2.040418e+00 -5.537446e+00 -6.998611e+00 -2.096663e+00 2.982105e+00 -1.124920e+00 -4.924550e+00 -4.786534e+00 -3.909861e+00 -1.936503e-01 -3.466140e-01 -3.004697e-01 2.804921e-01 7.471921e-01 1.043675e+00 4.173047e-01 -2.147343e-01 -1.894316e-01 -7.248510e-02 1.116081e-02 1.502710e-01 -1.055882e-01
<VARIANCE> 25
 1.968233e+01 3.080829e+01 3.984565e+01 3.763365e+01 3.553752e+01 4.067476e+01 4.069976e+01 3.915368e+01 5.144368e+01 3.819278e+01 3.066512e+01 2.631176e+01 3.753779e-01 1.220878e+00 1.362571e+00 1.493957e+00 2.004738e+00 2.727168e+00 2.026844e+00 2.105258e+00 2.403310e+00 2.200738e+00 1.975419e+00 1.823615e+00 5.097307e-01
<GCONST> 9.394715e+01
~t "T_u"
<ENDHMM>
~h "t-u+r"
<BEGINHMM>
<NUMSTATES> 5
<STATE> 2
<MEAN> 25
 5.841117e+00 4.888117e+00 2.686566e+00 -7.820466e-01 -3.509169e+00 -4.456264e+00 -1.667651e+00 1.072235e+00 -1.711213e+00 -3.398537e+00 -2.842877e+00 -2.182095e+00 1.576147e+00 1.045471e+00 4.197832e-01 -3.047917e-01 -1.355020e+00 -2.229248e+00 -1.097899e+00 2.456878e-01 -2.158980e-01 -6.960759e-01 -8.961666e-01 -8.212398e-01 8.114035e-01
<VARIANCE> 25
 3.111406e+01 4.019774e+01 4.504975e+01 4.146431e+01 4.849731e+01 5.661042e+01 4.281160e+01 4.095763e+01 5.025994e+01 4.244762e+01 3.143690e+01 2.546618e+01 2.317891e+00 3.149550e+00 3.087908e+00 3.151040e+00 3.396149e+00 4.573932e+00 4.195843e+00 4.035922e+00 4.034451e+00 3.409064e+00 3.195040e+00 2.762604e+00 1.784756e+00
<GCONST> 1.055627e+02
<STATE> 3
<MEAN> 25
 8.658910e+00 5.000401e+00 2.954348e+00 -2.671335e+00 -7.457289e+00 -1.043769e+01 -3.682248e+00 2.342003e+00 -1.993913e+00 -4.053403e+00 -3.655970e+00 -3.858294e+00 3.619523e-01 -4.174033e-01 -5.004941e-01 -5.413764e-01 -3.661138e-01 -3.691237e-01 1.985084e-01 6.194838e-01 2.091379e-01 -3.094780e-01 -4.365371e-01 -2.890210e-01 4.863066e-01
<VARIANCE> 25
 1.982055e+01 3.754977e+01 4.485072e+01 4.602500e+01 4.835411e+01 5.230594e+01 4.533890e+01 4.689768e+01 6.356376e+01 4.307386e+01 3.556441e+01 3.444476e+01 5.694164e-01 2.171613e+00 2.316406e+00 1.907328e+00 2.369149e+00 3.386717e+00 2.927253e+00 3.053224e+00 2.962884e+00 2.837181e+00 2.662840e+00 2.209183e+00 9.819031e-01
<GCONST> 1.005687e+02
<STATE> 4
<MEAN> 25
 7.936549e+00 5.316041e+00 2.239468e+00 -2.040418e+00 -5.537446e+00 -6.998611e+00 -2.096663e+00 2.982105e+00 -1.124920e+00 -4.924550e+00 -4.786534e+00 -3.909861e+00 -1.936503e-01 -3.466140e-01 -3.004697e-01 2.804921e-01 7.471921e-01 1.043675e+00 4.173047e-01 -2.147343e-01 -1.894316e-01 -7.248510e-02 1.116081e-02 1.502710e-01 -1.055882e-01
<VARIANCE> 25
 1.968233e+01 3.080829e+01 3.984565e+01 3.763365e+01 3.553752e+01 4.067476e+01 4.069976e+01 3.915368e+01 5.144368e+01 3.819278e+01 3.066512e+01 2.631176e+01 3.753779e-01 1.220878e+00 1.362571e+00 1.493957e+00 2.004738e+00 2.727168e+00 2.026844e+00 2.105258e+00 2.403310e+00 2.200738e+00 1.975419e+00 1.823615e+00 5.097307e-01
<GCONST> 9.394715e+01
~t "T_u"
<ENDHMM>
~h "u-rr+o"
<BEGINHMM>
<NUMSTATES> 5
<STATE> 2
<MEAN> 25
 3.353537e+00 -9.142436e-01 -3.058184e+00 -3.547527e+00 3.143570e+00 1.554105e+00 -1.617299e+00 -1.135031e+00 7.034200e-01 -1.353892e+00 -9.484147e-01 7.906689e-01 3.572667e-01 9.332132e-02 -3.866347e-01 -8.697939e-02 3.757065e-01 2.881039e-01 -9.380478e-02 -1.033477e-01 -1.545185e-01 -3.527187e-01 -1.557336e-01 4.292154e-02 5.196048e-02
<VARIANCE> 25
 4.300015e+01 5.147916e+01 5.414499e+01 6.460785e+01 4.989538e+01 5.407913e+01 4.206803e+01 4.860925e+01 3.790956e+01 3.987109e+01 3.461342e+01 3.103023e+01 2.915508e+00 4.136422e+00 3.340683e+00 3.983831e+00 3.703060e+00 4.642681e+00 3.783070e+00 3.926247e+00 3.502168e+00 3.444017e+00 3.087563e+00 2.842110e+00 3.238592e+00
<GCONST> 1.080909e+02
<STATE> 3
<MEAN> 25
 7.582133e+00 1.247781e+00 -5.329599e+00 -4.675842e+00 2.104177e+00 2.665906e+00 -1.852962e+00 -2.771921e+00 -1.963075e+00 -2.989711e+00 -2.774907e+00 3.743697e-01 9.248909e-01 6.599494e-01 -7.228659e-01 -7.283572e-01 -1.813637e-01 -1.756126e-01 -3.578639e-01 -5.607713e-01 -5.978424e-01 -4.266687e-01 -3.611438e-01 -8.400698e-02 2.693413e-01
<VARIANCE> 25
 2.256667e+01 2.670186e+01 3.456329e+01 4.313871e+01 3.583524e+01 4.206372e+01 3.763231e+01 3.354306e+01 2.742425e+01 2.760290e+01 2.449686e+01 2.322071e+01 8.681712e-01 1.280364e+00 1.529286e+00 1.913779e+00 2.044108e+00 1.849371e+00 1.987761e+00 2.027984e+00 1.732651e+00 1.687739e+00 1.583756e+00 1.522920e+00 7.689877e-01
<GCONST> 9.268141e+01
<STATE> 4
<MEAN> 25
 1.009247e+01 1.486915e+00 -8.246142e+00 -5.120526e+00 2.065458e+00 1.025245e+00 -3.525442e+00 -4.038950e+00 -2.868468e+00 -3.264583e+00 -2.356816e+00 1.102997e+00 1.186399e-01 -2.301981e-01 -1.140983e-01 1.072073e-01 3.884058e-02 -7.065016e-01 -3.659014e-01 -8.380543e-02 -9.820130e-02 1.017236e-01 2.038886e-01 1.326848e-01 3.107538e-01
<VARIANCE> 25
 3.007746e+01 2.656600e+01 4.011358e+01 4.749679e+01 3.734233e+01 3.581827e+01 3.574841e+01 3.924471e+01 3.173490e+01 2.907249e+01 2.628150e+01 2.564830e+01 4.615683e-01 8.872818e-01 9.988760e-01 1.540743e+00 1.448741e+00 1.726679e+00 1.611915e+00 1.678023e+00 1.689305e+00 1.443329e+00 1.524528e+00 1.506498e+00 5.601036e-01
<GCONST> 9.056165e+01
~t "T_rr"
<ENDHMM>
~h "g-th+a"
<BEGINHMM>
<NUMSTATES> 5
<STATE> 2
<MEAN> 25
 -5.632880e+00 -3.854063e+00 1.516733e+01 -6.320058e+00 2.140140e+00 2.455597e+00 3.235808e+00 -2.117743e+00 -4.823162e-01 1.348089e+00 8.720768e-02 -2.654986e-01 -3.624942e+00 -1.473371e+00 2.833224e+00 -1.734421e+00 -1.021341e-01 6.912473e-01 1.388689e+00 -1.476209e-01 6.915943e-01 5.759441e-01 5.913332e-01 2.648686e-01 5.795045e-01
<VARIANCE> 25
 6.831219e+01 5.101052e+01 9.769680e+01 8.345584e+01 8.229661e+01 6.781025e+01 8.005181e+01 6.789198e+01 6.046149e+01 4.864940e+01 3.799240e+01 2.866057e+01 2.483551e+00 3.884926e+00 3.833339e+00 4.342094e+00 3.744481e+00 5.492457e+00 3.865437e+00 3.177013e+00 3.737395e+00 3.366478e+00 3.085365e+00 2.236720e+00 1.021638e+00
<GCONST> 1.104123e+02
<STATE> 3
<MEAN> 25
 -1.727112e+01 -8.257788e+00 1.949447e+01 -1.180675e+01 1.947106e+00 1.331353e+00 6.016316e+00 -2.654345e+00 1.263386e+00 2.144119e+00 1.879954e+00 3.925450e-01 -1.316139e-01 -5.102527e-01 -3.761988e-01 1.679360e-01 1.177314e-02 -9.135841e-02 -9.154829e-02 -1.859931e-02 1.217610e-01 1.754421e-01 1.592440e-01 1.295594e-02 -6.405007e-02
<VARIANCE> 25
 3.926363e+01 8.026629e+01 8.774121e+01 1.006794e+02 8.994701e+01 7.935870e+01 7.173088e+01 6.903039e+01 6.770055e+01 4.795404e+01 3.895676e+01 2.661696e+01 1.988035e+00 1.045411e+00 1.457392e+00 2.010195e+00 1.328030e+00 1.433358e+00 1.615375e+00 1.621984e+00 1.538399e+00 1.449418e+00 1.211479e+00 1.100959e+00 4.380694e-01
<GCONST> 9.917685e+01
<STATE> 4
<MEAN> 25
 -9.271607e+00 -9.057722e+00 1.468838e+01 -6.365356e+00 1.965114e+00 2.341074e+00 3.013284e+00 -2.966129e+00 2.363478e-03 3.011927e+00 1.883378e+00 8.863983e-02 4.015340e+00 1.801579e+00 -2.265525e+00 2.241422e+00 5.355793e-01 -2.967038e-01 -2.138270e+00 -4.493863e-01 -1.154973e+00 -7.945148e-01 -8.732439e-01 -3.801412e-01 -6.645188e-01
<VARIANCE> 25
 5.233046e+01 6.291172e+01 6.801148e+01 8.587710e+01 6.436635e+01 5.830358e+01 5.761609e+01 5.580789e+01 5.802547e+01 4.261039e+01 3.626220e+01 2.619216e+01 3.238315e+00 3.795416e+00 2.980920e+00 3.903574e+00 4.405891e+00 4.908393e+00 3.968453e+00 3.498078e+00 3.993294e+00 3.501172e+00 3.218621e+00 2.491385e+00 1.196708e+00
<GCONST> 1.092605e+02
~t "T_th"
<ENDHMM>
~h "i-ch+o"
<BEGINHMM>
<NUMSTATES> 5
<STATE> 2
<MEAN> 25
 -3.515305e+00 -5.826408e+00 6.770669e+00 1.690331e+00 -1.433543e+00 1.311194e+00 -8.473504e-01 -1.564756e-02 1.486803e+00 -1.773934e+00 -4.531376e-01 4.916118e-02 -1.929486e+00 -2.286035e+00 1.432176e+00 -1.023099e-01 -2.989334e-01 3.851319e-02 2.564107e-01 1.889517e-01 9.482999e-01 1.769091e-01 2.801395e-01 3.219435e-01 8.950387e-01
<VARIANCE> 25
 4.331898e+01 7.936980e+01 6.833836e+01 4.999400e+01 4.801806e+01 4.844822e+01 4.646045e+01 4.836494e+01 4.783947e+01 3.791654e+01 3.232258e+01 2.454547e+01 1.851286e+00 7.669931e+00 6.159750e+00 3.452475e+00 3.472772e+00 4.140024e+00 3.523978e+00 3.569549e+00 3.155254e+00 2.976944e+00 2.255540e+00 2.050224e+00 6.671400e+00
<GCONST> 1.084521e+02
<STATE> 3
<MEAN> 25
 -1.108798e+01 -1.948901e+01 1.376653e+01 1.118908e+00 -4.445756e-01 -1.846460e-01 -1.224519e+00 -4.334573e-01 5.340496e+00 -8.536438e-02 1.277094e+00 2.056511e+00 1.302766e+00 6.569036e-01 -9.409735e-01 5.642725e-01 8.434920e-01 6.904846e-01 -3.385284e-01 -7.616201e-01 -4.334902e-01 4.428429e-01 1.827114e-01 1.404145e-01 -3.099542e-01
<VARIANCE> 25
 3.591089e+01 5.767048e+01 9.091859e+01 8.055508e+01 6.350099e+01 7.100402e+01 7.317664e+01 6.533994e+01 4.447422e+01 4.331369e+01 3.181114e+01 2.763056e+01 3.482492e+00 4.879806e+00 3.392511e+00 2.994451e+00 2.214943e+00 3.134732e+00 3.190136e+00 2.739042e+00 2.630057e+00 2.111520e+00 1.913656e+00 1.603518e+00 1.794401e+00
<GCONST> 1.063869e+02
<STATE> 4
<MEAN> 25
 -1.721438e+00 -1.021468e+01 6.895911e+00 2.611857e+00 7.177784e-01 3.217569e+00 -1.804813e+00 -2.833560e+00 1.391455e+00 -1.063743e+00 1.320703e-01 1.758912e+00 3.473007e+00 3.063818e+00 -1.771192e+00 -1.458062e-01 -3.454653e-01 -6.482190e-01 -8.350406e-01 -3.921632e-01 -1.795598e+00 -9.135399e-01 -9.172798e-01 -5.811502e-01 -6.058986e-01
<VARIANCE> 25
 3.350431e+01 3.652498e+01 5.543996e+01 4.107544e+01 3.849805e+01 4.208282e+01 4.809691e+01 4.542126e+01 3.864191e+01 3.712645e+01 2.983387e+01 2.518701e+01 2.997148e+00 2.974293e+00 3.189521e+00 4.118366e+00 3.599472e+00 4.296028e+00 4.654088e+00 4.965402e+00 3.636896e+00 3.091180e+00 2.790794e+00 2.614336e+00 1.042577e+00
<GCONST> 1.048478e+02
~t "T_ch"
<ENDHMM>
~h "i-e+rr"
<BEGINHMM>
<NUMSTATES> 5
<STATE> 2
<MEAN> 25
 4.917822e+00 -3.046909e+00 -7.860230e-01 1.961976e+00 3.296882e+00 -3.095960e+00 -4.445966e+00 -4.378197e+00 -4.194638e+00 -1.446952e+00 1.146220e-01 1.648807e-01 1.062938e+00 -1.285595e+00 -6.981800e-01 4.423747e-01 5.001229e-01 -1.895295e+00 -1.787762e+00 -1.308817e+00 -1.084860e+00 1.344622e-01 6.617222e-01 3.701210e-01 1.670173e+00
<VARIANCE> 25
 3.577217e+01 3.706077e+01 4.774310e+01 6.015227e+01 4.925949e+01 6.036604e+01 5.010396e+01 4.977269e+01 4.858726e+01 3.950971e+01 3.013842e+01 2.473536e+01 2.384392e+00 2.958043e+00 2.685448e+00 3.858023e+00 3.340221e+00 5.064232e+00 4.063103e+00 3.681123e+00 4.037725e+00 4.174648e+00 3.332788e+00 2.898063e+00 2.226966e+00
<GCONST> 1.068105e+02
<STATE> 3
<MEAN> 25
 7.191195e+00 -7.001473e+00 -2.328277e+00 2.836691e+00 3.888689e+00 -7.911126e+00 -8.482172e+00 -6.657192e+00 -5.470276e+00 -1.285404e-01 1.987994e+00 7.147580e-01 8.514885e-02 -4.249433e-01 -1.496204e-01 2.818093e-01 1.203487e-01 -6.073316e-01 -4.420330e-01 -1.406531e-01 1.603031e-01 5.093133e-01 3.347531e-01 -4.041983e-02 2.952766e-01
<VARIANCE> 25
 2.837927e+01 3.550758e+01 4.376701e+01 6.339727e+01 5.782299e+01 6.153004e+01 4.445435e+01 4.665985e+01 4.438187e+01 4.603452e+01 3.686113e+01 3.249733e+01 5.579238e-01 9.633060e-01 1.396090e+00 1.826277e+00 1.583154e+00 2.003756e+00 1.982185e+00 1.856537e+00 2.013892e+00 2.006657e+00 1.751121e+00 1.508502e+00 5.828047e-01
<GCONST> 9.591582e+01
<STATE> 4
<MEAN> 25
 5.895019e+00 -4.724988e+00 -1.197292e+00 3.906052e+00 3.870449e+00 -6.545651e+00 -8.215060e+00 -6.679025e+00 -4.172563e+00 5.337154e-01 9.279272e-01 -6.742178e-01 -3.232698e-01 7.992764e-01 3.300467e-01 -6.339286e-02 7.912491e-02 1.004552e+00 6.088396e-01 3.772415e-01 3.436322e-01 -1.313366e-01 -2.720630e-01 -1.298955e-01 -7.956876e-01
<VARIANCE> 25
 2.029749e+01 3.066547e+01 3.368494e+01 5.057070e+01 4.296806e+01 5.593891e+01 3.659196e+01 3.710094e+01 4.034227e+01 3.575679e+01 3.262199e+01 2.925796e+01 5.569103e-01 1.011105e+00 1.171097e+00 1.448238e+00 1.440968e+00 2.011663e+00 1.814593e+00 1.739066e+00 1.905525e+00 1.867028e+00 1.539982e+00 1.274082e+00 7.538318e-01
<GCONST> 9.278246e+01
~t "T_e"
<ENDHMM>
~h "i-e+th"
<BEGINHMM>
<NUMSTATES> 5
<STATE> 2
<MEAN> 25
 4.917822e+00 -3.046909e+00 -7.860230e-01 1.961976e+00 3.296882e+00 -3.095960e+00 -4.445966e+00 -4.378197e+00 -4.194638e+00 -1.446952e+00 1.146220e-01 1.648807e-01 1.062938e+00 -1.285595e+00 -6.981800e-01 4.423747e-01 5.001229e-01 -1.895295e+00 -1.787762e+00 -1.308817e+00 -1.084860e+00 1.344622e-01 6.617222e-01 3.701210e-01 1.670173e+00
<VARIANCE> 25
 3.577217e+01 3.706077e+01 4.774310e+01 6.015227e+01 4.925949e+01 6.036604e+01 5.010396e+01 4.977269e+01 4.858726e+01 3.950971e+01 3.013842e+01 2.473536e+01 2.384392e+00 2.958043e+00 2.685448e+00 3.858023e+00 3.340221e+00 5.064232e+00 4.063103e+00 3.681123e+00 4.037725e+00 4.174648e+00 3.332788e+00 2.898063e+00 2.226966e+00
<GCONST> 1.068105e+02
<STATE> 3
<MEAN> 25
 7.191195e+00 -7.001473e+00 -2.328277e+00 2.836691e+00 3.888689e+00 -7.911126e+00 -8.482172e+00 -6.657192e+00 -5.470276e+00 -1.285404e-01 1.987994e+00 7.147580e-01 8.514885e-02 -4.249433e-01 -1.496204e-01 2.818093e-01 1.203487e-01 -6.073316e-01 -4.420330e-01 -1.406531e-01 1.603031e-01 5.093133e-01 3.347531e-01 -4.041983e-02 2.952766e-01
<VARIANCE> 25
 2.837927e+01 3.550758e+01 4.376701e+01 6.339727e+01 5.782299e+01 6.153004e+01 4.445435e+01 4.665985e+01 4.438187e+01 4.603452e+01 3.686113e+01 3.249733e+01 5.579238e-01 9.633060e-01 1.396090e+00 1.826277e+00 1.583154e+00 2.003756e+00 1.982185e+00 1.856537e+00 2.013892e+00 2.006657e+00 1.751121e+00 1.508502e+00 5.828047e-01
<GCONST> 9.591582e+01
<STATE> 4
<MEAN> 25
 5.895019e+00 -4.724988e+00 -1.197292e+00 3.906052e+00 3.870449e+00 -6.545651e+00 -8.215060e+00 -6.679025e+00 -4.172563e+00 5.337154e-01 9.279272e-01 -6.742178e-01 -3.232698e-01 7.992764e-01 3.300467e-01 -6.339286e-02 7.912491e-02 1.004552e+00 6.088396e-01 3.772415e-01 3.436322e-01 -1.313366e-01 -2.720630e-01 -1.298955e-01 -7.956876e-01
<VARIANCE> 25
 2.029749e+01 3.066547e+01 3.368494e+01 5.057070e+01 4.296806e+01 5.593891e+01 3.659196e+01 3.710094e+01 4.034227e+01 3.575679e+01 3.262199e+01 2.925796e+01 5.569103e-01 1.011105e+00 1.171097e+00 1.448238e+00 1.440968e+00 2.011663e+00 1.814593e+00 1.739066e+00 1.905525e+00 1.867028e+00 1.539982e+00 1.274082e+00 7.538318e-01
<GCONST> 9.278246e+01
~t "T_e"
<ENDHMM>
~h "i-th+a"
<BEGINHMM>
<NUMSTATES> 5
<STATE> 2
<MEAN> 25
 -5.632880e+00 -3.854063e+00 1.516733e+01 -6.320058e+00 2.140140e+00 2.455597e+00 3.235808e+00 -2.117743e+00 -4.823162e-01 1.348089e+00 8.720768e-02 -2.654986e-01 -3.624942e+00 -1.473371e+00 2.833224e+00 -1.734421e+00 -1.021341e-01 6.912473e-01 1.388689e+00 -1.476209e-01 6.915943e-01 5.759441e-01 5.913332e-01 2.648686e-01 5.795045e-01
<VARIANCE> 25
 6.831219e+01 5.101052e+01 9.769680e+01 8.345584e+01 8.229661e+01 6.781025e+01 8.005181e+01 6.789198e+01 6.046149e+01 4.864940e+01 3.799240e+01 2.866057e+01 2.483551e+00 3.884926e+00 3.833339e+00 4.342094e+00 3.744481e+00 5.492457e+00 3.865437e+00 3.177013e+00 3.737395e+00 3.366478e+00 3.085365e+00 2.236720e+00 1.021638e+00
<GCONST> 1.104123e+02
<STATE> 3
<MEAN> 25
 -1.727112e+01 -8.257788e+00 1.949447e+01 -1.180675e+01 1.947106e+00 1.331353e+00 6.016316e+00 -2.654345e+00 1.263386e+00 2.144119e+00 1.879954e+00 3.925450e-01 -1.316139e-01 -5.102527e-01 -3.761988e-01 1.679360e-01 1.177314e-02 -9.135841e-02 -9.154829e-02 -1.859931e-02 1.217610e-01 1.754421e-01 1.592440e-01 1.295594e-02 -6.405007e-02
<VARIANCE> 25
 3.926363e+01 8.026629e+01 8.774121e+01 1.006794e+02 8.994701e+01 7.935870e+01 7.173088e+01 6.903039e+01 6.770055e+01 4.795404e+01 3.895676e+01 2.661696e+01 1.988035e+00 1.045411e+00 1.457392e+00 2.010195e+00 1.328030e+00 1.433358e+00 1.615375e+00 1.621984e+00 1.538399e+00 1.449418e+00 1.211479e+00 1.100959e+00 4.380694e-01
<GCONST> 9.917685e+01
<STATE> 4
<MEAN> 25
 -9.271607e+00 -9.057722e+00 1.468838e+01 -6.365356e+00 1.965114e+00 2.341074e+00 3.013284e+00 -2.966129e+00 2.363478e-03 3.011927e+00 1.883378e+00 8.863983e-02 4.015340e+00 1.801579e+00 -2.265525e+00 2.241422e+00 5.355793e-01 -2.967038e-01 -2.138270e+00 -4.493863e-01 -1.154973e+00 -7.945148e-01 -8.732439e-01 -3.801412e-01 -6.645188e-01
<VARIANCE> 25
 5.233046e+01 6.291172e+01 6.801148e+01 8.587710e+01 6.436635e+01 5.830358e+01 5.761609e+01 5.580789e+01 5.802547e+01 4.261039e+01 3.626220e+01 2.619216e+01 3.238315e+00 3.795416e+00 2.980920e+00 3.903574e+00 4.405891e+00 4.908393e+00 3.968453e+00 3.498078e+00 3.993294e+00 3.501172e+00 3.218621e+00 2.491385e+00 1.196708e+00
<GCONST> 1.092605e+02
~t "T_th"
<ENDHMM>
~h "i-th+e"
<BEGINHMM>
<NUMSTATES> 5
<STATE> 2
<MEAN> 25
 -5.632880e+00 -3.854063e+00 1.516733e+01 -6.320058e+00 2.140140e+00 2.455597e+00 3.235808e+00 -2.117743e+00 -4.823162e-01 1.348089e+00 8.720768e-02 -2.654986e-01 -3.624942e+00 -1.473371e+00 2.833224e+00 -1.734421e+00 -1.021341e-01 6.912473e-01 1.388689e+00 -1.476209e-01 6.915943e-01 5.759441e-01 5.913332e-01 2.648686e-01 5.795045e-01
<VARIANCE> 25
 6.831219e+01 5.101052e+01 9.769680e+01 8.345584e+01 8.229661e+01 6.781025e+01 8.005181e+01 6.789198e+01 6.046149e+01 4.864940e+01 3.799240e+01 2.866057e+01 2.483551e+00 3.884926e+00 3.833339e+00 4.342094e+00 3.744481e+00 5.492457e+00 3.865437e+00 3.177013e+00 3.737395e+00 3.366478e+00 3.085365e+00 2.236720e+00 1.021638e+00
<GCONST> 1.104123e+02
<STATE> 3
<MEAN> 25
 -1.727112e+01 -8.257788e+00 1.949447e+01 -1.180675e+01 1.947106e+00 1.331353e+00 6.016316e+00 -2.654345e+00 1.263386e+00 2.144119e+00 1.879954e+00 3.925450e-01 -1.316139e-01 -5.102527e-01 -3.761988e-01 1.679360e-01 1.177314e-02 -9.135841e-02 -9.154829e-02 -1.859931e-02 1.217610e-01 1.754421e-01 1.592440e-01 1.295594e-02 -6.405007e-02
<VARIANCE> 25
 3.926363e+01 8.026629e+01 8.774121e+01 1.006794e+02 8.994701e+01 7.935870e+01 7.173088e+01 6.903039e+01 6.770055e+01 4.795404e+01 3.895676e+01 2.661696e+01 1.988035e+00 1.045411e+00 1.457392e+00 2.010195e+00 1.328030e+00 1.433358e+00 1.615375e+00 1.621984e+00 1.538399e+00 1.449418e+00 1.211479e+00 1.100959e+00 4.380694e-01
<GCONST> 9.917685e+01
<STATE> 4
<MEAN> 25
 -9.271607e+00 -9.057722e+00 1.468838e+01 -6.365356e+00 1.965114e+00 2.341074e+00 3.013284e+00 -2.966129e+00 2.363478e-03 3.011927e+00 1.883378e+00 8.863983e-02 4.015340e+00 1.801579e+00 -2.265525e+00 2.241422e+00 5.355793e-01 -2.967038e-01 -2.138270e+00 -4.493863e-01 -1.154973e+00 -7.945148e-01 -8.732439e-01 -3.801412e-01 -6.645188e-01
<VARIANCE> 25
 5.233046e+01 6.291172e+01 6.801148e+01 8.587710e+01 6.436635e+01 5.830358e+01 5.761609e+01 5.580789e+01 5.802547e+01 4.261039e+01 3.626220e+01 2.619216e+01 3.238315e+00 3.795416e+00 2.980920e+00 3.903574e+00 4.405891e+00 4.908393e+00 3.968453e+00 3.498078e+00 3.993294e+00 3.501172e+00 3.218621e+00 2.491385e+00 1.196708e+00
<GCONST> 1.092605e+02
~t "T_th"
<ENDHMM>
~h "i-th+i"
<BEGINHMM>
<NUMSTATES> 5
<STATE> 2
<MEAN> 25
 -5.632880e+00 -3.854063e+00 1.516733e+01 -6.320058e+00 2.140140e+00 2.455597e+00 3.235808e+00 -2.117743e+00 -4.823162e-01 1.348089e+00 8.720768e-02 -2.654986e-01 -3.624942e+00 -1.473371e+00 2.833224e+00 -1.734421e+00 -1.021341e-01 6.912473e-01 1.388689e+00 -1.476209e-01 6.915943e-01 5.759441e-01 5.913332e-01 2.648686e-01 5.795045e-01
<VARIANCE> 25
 6.831219e+01 5.101052e+01 9.769680e+01 8.345584e+01 8.229661e+01 6.781025e+01 8.005181e+01 6.789198e+01 6.046149e+01 4.864940e+01 3.799240e+01 2.866057e+01 2.483551e+00 3.884926e+00 3.833339e+00 4.342094e+00 3.744481e+00 5.492457e+00 3.865437e+00 3.177013e+00 3.737395e+00 3.366478e+00 3.085365e+00 2.236720e+00 1.021638e+00
<GCONST> 1.104123e+02
<STATE> 3
<MEAN> 25
 -1.727112e+01 -8.257788e+00 1.949447e+01 -1.180675e+01 1.947106e+00 1.331353e+00 6.016316e+00 -2.654345e+00 1.263386e+00 2.144119e+00 1.879954e+00 3.925450e-01 -1.316139e-01 -5.102527e-01 -3.761988e-01 1.679360e-01 1.177314e-02 -9.135841e-02 -9.154829e-02 -1.859931e-02 1.217610e-01 1.754421e-01 1.592440e-01 1.295594e-02 -6.405007e-02
<VARIANCE> 25
 3.926363e+01 8.026629e+01 8.774121e+01 1.006794e+02 8.994701e+01 7.935870e+01 7.173088e+01 6.903039e+01 6.770055e+01 4.795404e+01 3.895676e+01 2.661696e+01 1.988035e+00 1.045411e+00 1.457392e+00 2.010195e+00 1.328030e+00 1.433358e+00 1.615375e+00 1.621984e+00 1.538399e+00 1.449418e+00 1.211479e+00 1.100959e+00 4.380694e-01
<GCONST> 9.917685e+01
<STATE> 4
<MEAN> 25
 -9.271607e+00 -9.057722e+00 1.468838e+01 -6.365356e+00 1.965114e+00 2.341074e+00 3.013284e+00 -2.966129e+00 2.363478e-03 3.011927e+00 1.883378e+00 8.863983e-02 4.015340e+00 1.801579e+00 -2.265525e+00 2.241422e+00 5.355793e-01 -2.967038e-01 -2.138270e+00 -4.493863e-01 -1.154973e+00 -7.945148e-01 -8.732439e-01 -3.801412e-01 -6.645188e-01
<VARIANCE> 25
 5.233046e+01 6.291172e+01 6.801148e+01 8.587710e+01 6.436635e+01 5.830358e+01 5.761609e+01 5.580789e+01 5.802547e+01 4.261039e+01 3.626220e+01 2.619216e+01 3.238315e+00 3.795416e+00 2.980920e+00 3.903574e+00 4.405891e+00 4.908393e+00 3.968453e+00 3.498078e+00 3.993294e+00 3.501172e+00 3.218621e+00 2.491385e+00 1.196708e+00
<GCONST> 1.092605e+02
~t "T_th"
<ENDHMM>
~h "i-th+k"
<BEGINHMM>
<NUMSTATES> 5
<STATE> 2
<MEAN> 25
 -5.632880e+00 -3.854063e+00 1.516733e+01 -6.320058e+00 2.140140e+00 2.455597e+00 3.235808e+00 -2.117743e+00 -4.823162e-01 1.348089e+00 8.720768e-02 -2.654986e-01 -3.624942e+00 -1.473371e+00 2.833224e+00 -1.734421e+00 -1.021341e-01 6.912473e-01 1.388689e+00 -1.476209e-01 6.915943e-01 5.759441e-01 5.913332e-01 2.648686e-01 5.795045e-01
<VARIANCE> 25
 6.831219e+01 5.101052e+01 9.769680e+01 8.345584e+01 8.229661e+01 6.781025e+01 8.005181e+01 6.789198e+01 6.046149e+01 4.864940e+01 3.799240e+01 2.866057e+01 2.483551e+00 3.884926e+00 3.833339e+00 4.342094e+00 3.744481e+00 5.492457e+00 3.865437e+00 3.177013e+00 3.737395e+00 3.366478e+00 3.085365e+00 2.236720e+00 1.021638e+00
<GCONST> 1.104123e+02
<STATE> 3
<MEAN> 25
 -1.727112e+01 -8.257788e+00 1.949447e+01 -1.180675e+01 1.947106e+00 1.331353e+00 6.016316e+00 -2.654345e+00 1.263386e+00 2.144119e+00 1.879954e+00 3.925450e-01 -1.316139e-01 -5.102527e-01 -3.761988e-01 1.679360e-01 1.177314e-02 -9.135841e-02 -9.154829e-02 -1.859931e-02 1.217610e-01 1.754421e-01 1.592440e-01 1.295594e-02 -6.405007e-02
<VARIANCE> 25
 3.926363e+01 8.026629e+01 8.774121e+01 1.006794e+02 8.994701e+01 7.935870e+01 7.173088e+01 6.903039e+01 6.770055e+01 4.795404e+01 3.895676e+01 2.661696e+01 1.988035e+00 1.045411e+00 1.457392e+00 2.010195e+00 1.328030e+00 1.433358e+00 1.615375e+00 1.621984e+00 1.538399e+00 1.449418e+00 1.211479e+00 1.100959e+00 4.380694e-01
<GCONST> 9.917685e+01
<STATE> 4
<MEAN> 25
 -9.271607e+00 -9.057722e+00 1.468838e+01 -6.365356e+00 1.965114e+00 2.341074e+00 3.013284e+00 -2.966129e+00 2.363478e-03 3.011927e+00 1.883378e+00 8.863983e-02 4.015340e+00 1.801579e+00 -2.265525e+00 2.241422e+00 5.355793e-01 -2.967038e-01 -2.138270e+00 -4.493863e-01 -1.154973e+00 -7.945148e-01 -8.732439e-01 -3.801412e-01 -6.645188e-01
<VARIANCE> 25
 5.233046e+01 6.291172e+01 6.801148e+01 8.587710e+01 6.436635e+01 5.830358e+01 5.761609e+01 5.580789e+01 5.802547e+01 4.261039e+01 3.626220e+01 2.619216e+01 3.238315e+00 3.795416e+00 2.980920e+00 3.903574e+00 4.405891e+00 4.908393e+00 3.968453e+00 3.498078e+00 3.993294e+00 3.501172e+00 3.218621e+00 2.491385e+00 1.196708e+00
<GCONST> 1.092605e+02
~t "T_th"
<ENDHMM>
~h "i-th+o"
<BEGINHMM>
<NUMSTATES> 5
<STATE> 2
<MEAN> 25
 -5.632880e+00 -3.854063e+00 1.516733e+01 -6.320058e+00 2.140140e+00 2.455597e+00 3.235808e+00 -2.117743e+00 -4.823162e-01 1.348089e+00 8.720768e-02 -2.654986e-01 -3.624942e+00 -1.473371e+00 2.833224e+00 -1.734421e+00 -1.021341e-01 6.912473e-01 1.388689e+00 -1.476209e-01 6.915943e-01 5.759441e-01 5.913332e-01 2.648686e-01 5.795045e-01
<VARIANCE> 25
 6.831219e+01 5.101052e+01 9.769680e+01 8.345584e+01 8.229661e+01 6.781025e+01 8.005181e+01 6.789198e+01 6.046149e+01 4.864940e+01 3.799240e+01 2.866057e+01 2.483551e+00 3.884926e+00 3.833339e+00 4.342094e+00 3.744481e+00 5.492457e+00 3.865437e+00 3.177013e+00 3.737395e+00 3.366478e+00 3.085365e+00 2.236720e+00 1.021638e+00
<GCONST> 1.104123e+02
<STATE> 3
<MEAN> 25
 -1.727112e+01 -8.257788e+00 1.949447e+01 -1.180675e+01 1.947106e+00 1.331353e+00 6.016316e+00 -2.654345e+00 1.263386e+00 2.144119e+00 1.879954e+00 3.925450e-01 -1.316139e-01 -5.102527e-01 -3.761988e-01 1.679360e-01 1.177314e-02 -9.135841e-02 -9.154829e-02 -1.859931e-02 1.217610e-01 1.754421e-01 1.592440e-01 1.295594e-02 -6.405007e-02
<VARIANCE> 25
 3.926363e+01 8.026629e+01 8.774121e+01 1.006794e+02 8.994701e+01 7.935870e+01 7.173088e+01 6.903039e+01 6.770055e+01 4.795404e+01 3.895676e+01 2.661696e+01 1.988035e+00 1.045411e+00 1.457392e+00 2.010195e+00 1.328030e+00 1.433358e+00 1.615375e+00 1.621984e+00 1.538399e+00 1.449418e+00 1.211479e+00 1.100959e+00 4.380694e-01
<GCONST> 9.917685e+01
<STATE> 4
<MEAN> 25
 -9.271607e+00 -9.057722e+00 1.468838e+01 -6.365356e+00 1.965114e+00 2.341074e+00 3.013284e+00 -2.966129e+00 2.363478e-03 3.011927e+00 1.883378e+00 8.863983e-02 4.015340e+00 1.801579e+00 -2.265525e+00 2.241422e+00 5.355793e-01 -2.967038e-01 -2.138270e+00 -4.493863e-01 -1.154973e+00 -7.945148e-01 -8.732439e-01 -3.801412e-01 -6.645188e-01
<VARIANCE> 25
 5.233046e+01 6.291172e+01 6.801148e+01 8.587710e+01 6.436635e+01 5.830358e+01 5.761609e+01 5.580789e+01 5.802547e+01 4.261039e+01 3.626220e+01 2.619216e+01 3.238315e+00 3.795416e+00 2.980920e+00 3.903574e+00 4.405891e+00 4.908393e+00 3.968453e+00 3.498078e+00 3.993294e+00 3.501172e+00 3.218621e+00 2.491385e+00 1.196708e+00
<GCONST> 1.092605e+02
~t "T_th"
<ENDHMM>
~h "l-i+ny"
<BEGINHMM>
<NUMSTATES> 5
<STATE> 2
<MEAN> 25
 2.824880e+00 -2.961581e+00 4.292364e+00 7.499251e+00 7.346193e+00 -2.067250e+00 -5.297520e+00 -2.873806e+00 -2.378581e+00 -1.973293e+00 -2.520489e+00 -3.736685e+00 1.015099e+00 -9.724852e-01 2.479329e-01 2.179622e+00 1.426837e+00 -2.128228e+00 -2.309814e+00 -3.848035e-01 -7.270547e-01 -7.560874e-01 -6.794949e-01 -8.365397e-01 1.175898e+00
<VARIANCE> 25
 3.374600e+01 3.967356e+01 6.750194e+01 6.375350e+01 5.781096e+01 6.437442e+01 4.980933e+01 4.415491e+01 4.445846e+01 3.540117e+01 3.356274e+01 2.704606e+01 3.132528e+00 4.137255e+00 3.621446e+00 4.487921e+00 4.215056e+00 5.312013e+00 4.005538e+00 3.824685e+00 4.409300e+00 4.209664e+00 3.923692e+00 2.984154e+00 1.617640e+00
<GCONST> 1.086541e+02
<STATE> 3
<MEAN> 25
 3.691633e+00 -6.378765e+00 6.166086e+00 1.236009e+01 7.380941e+00 -9.047977e+00 -9.580333e+00 -1.629763e+00 -3.102339e+00 -4.599288e+00 -4.548250e+00 -5.048493e+00 8.359629e-02 -2.991736e-01 1.296623e-01 4.305927e-01 9.667514e-03 -8.290642e-01 -5.818837e-01 1.603395e-01 8.957740e-02 -1.876646e-01 -1.591199e-01 -1.092843e-01 2.681427e-01
<VARIANCE> 25
 2.149308e+01 3.103732e+01 4.970968e+01 5.873264e+01 7.158559e+01 6.920425e+01 3.966159e+01 4.495304e+01 4.204121e+01 4.275245e+01 4.102441e+01 2.954641e+01 6.639252e-01 9.264812e-01 1.883231e+00 1.858640e+00 1.558079e+00 2.146437e+00 1.929194e+00 2.097977e+00 1.840118e+00 1.884095e+00 1.595546e+00 1.333590e+00 5.259222e-01
<GCONST> 9.574519e+01
<STATE> 4
<MEAN> 25
 4.036044e+00 -4.218312e+00 4.209880e+00 1.037407e+01 7.996428e+00 -6.247262e+00 -9.419474e+00 -3.331409e+00 -2.663913e+00 -2.918104e+00 -3.142705e+00 -4.376024e+00 3.821991e-02 8.336469e-01 -6.000085e-01 -1.181883e+00 -5.675405e-01 1.117856e+00 8.718380e-01 -2.187419e-01 -3.897155e-02 3.511441e-01 4.869802e-01 5.886047e-01 -5.325214e-01
<VARIANCE> 25
 1.972391e+01 3.227742e+01 4.309776e+01 5.167957e+01 5.495691e+01 6.691110e+01 3.850472e+01 4.351723e+01 4.154246e+01 3.556070e+01 3.517086e+01 2.803684e+01 6.999541e-01 1.390189e+00 1.663853e+00 1.824908e+00 1.964548e+00 2.784639e+00 2.501812e+00 2.236512e+00 2.341234e+00 2.148965e+00 1.947036e+00 1.699689e+00 1.056007e+00
<GCONST> 9.730878e+01
~t "T_i"
<ENDHMM>
~h "l-i+th"
<BEGINHMM>
<NUMSTATES> 5
<STATE> 2
<MEAN> 25
 2.824880e+00 -2.961581e+00 4.292364e+00 7.499251e+00 7.346193e+00 -2.067250e+00 -5.297520e+00 -2.873806e+00 -2.378581e+00 -1.973293e+00 -2.520489e+00 -3.736685e+00 1.015099e+00 -9.724852e-01 2.479329e-01 2.179622e+00 1.426837e+00 -2.128228e+00 -2.309814e+00 -3.848035e-01 -7.270547e-01 -7.560874e-01 -6.794949e-01 -8.365397e-01 1.175898e+00
<VARIANCE> 25
 3.374600e+01 3.967356e+01 6.750194e+01 6.375350e+01 5.781096e+01 6.437442e+01 4.980933e+01 4.415491e+01 4.445846e+01 3.540117e+01 3.356274e+01 2.704606e+01 3.132528e+00 4.137255e+00 3.621446e+00 4.487921e+00 4.215056e+00 5.312013e+00 4.005538e+00 3.824685e+00 4.409300e+00 4.209664e+00 3.923692e+00 2.984154e+00 1.617640e+00
<GCONST> 1.086541e+02
<STATE> 3
<MEAN> 25
 3.691633e+00 -6.378765e+00 6.166086e+00 1.236009e+01 7.380941e+00 -9.047977e+00 -9.580333e+00 -1.629763e+00 -3.102339e+00 -4.599288e+00 -4.548250e+00 -5.048493e+00 8.359629e-02 -2.991736e-01 1.296623e-01 4.305927e-01 9.667514e-03 -8.290642e-01 -5.818837e-01 1.603395e-01 8.957740e-02 -1.876646e-01 -1.591199e-01 -1.092843e-01 2.681427e-01
<VARIANCE> 25
 2.149308e+01 3.103732e+01 4.970968e+01 5.873264e+01 7.158559e+01 6.920425e+01 3.966159e+01 4.495304e+01 4.204121e+01 4.275245e+01 4.102441e+01 2.954641e+01 6.639252e-01 9.264812e-01 1.883231e+00 1.858640e+00 1.558079e+00 2.146437e+00 1.929194e+00 2.097977e+00 1.840118e+00 1.884095e+00 1.595546e+00 1.333590e+00 5.259222e-01
<GCONST> 9.574519e+01
<STATE> 4
<MEAN> 25
 4.036044e+00 -4.218312e+00 4.209880e+00 1.037407e+01 7.996428e+00 -6.247262e+00 -9.419474e+00 -3.331409e+00 -2.663913e+00 -2.918104e+00 -3.142705e+00 -4.376024e+00 3.821991e-02 8.336469e-01 -6.000085e-01 -1.181883e+00 -5.675405e-01 1.117856e+00 8.718380e-01 -2.187419e-01 -3.897155e-02 3.511441e-01 4.869802e-01 5.886047e-01 -5.325214e-01
<VARIANCE> 25
 1.972391e+01 3.227742e+01 4.309776e+01 5.167957e+01 5.495691e+01 6.691110e+01 3.850472e+01 4.351723e+01 4.154246e+01 3.556070e+01 3.517086e+01 2.803684e+01 6.999541e-01 1.390189e+00 1.663853e+00 1.824908e+00 1.964548e+00 2.784639e+00 2.501812e+00 2.236512e+00 2.341234e+00 2.148965e+00 1.947036e+00 1.699689e+00 1.056007e+00
<GCONST> 9.730878e+01
~t "T_i"
<ENDHMM>
~h "e-n+rr"
<BEGINHMM>
<NUMSTATES> 5
<STATE> 2
<MEAN> 25
 7.169885e+00 3.457295e-01 -9.706034e-01 1.822969e+00 2.203207e+00 -1.710077e+00 -1.541217e+00 -6.925409e-01 -3.499932e+00 -2.178467e+00 -7.829415e-01 -1.847775e+00 -1.776564e-01 1.685531e+00 6.899630e-01 1.139801e+00 6.890932e-01 2.057916e+00 4.165332e-01 -6.090450e-01 -1.683788e-01 -9.237592e-02 -7.342267e-01 -1.250047e+00 -1.560356e+00
<VARIANCE> 25
 2.165102e+01 3.528417e+01 4.496836e+01 6.788055e+01 4.849240e+01 5.297578e+01 4.589392e+01 4.388946e+01 4.575230e+01 3.900736e+01 3.414560e+01 3.704768e+01 9.116951e-01 1.700086e+00 1.786228e+00 4.035296e+00 3.243808e+00 3.321929e+00 3.851503e+00 3.338852e+00 3.444288e+00 2.962204e+00 2.780899e+00 2.558904e+00 1.011466e+00
<GCONST> 1.023394e+02
<STATE> 3
<MEAN> 25
 6.451331e+00 3.805457e+00 7.997720e-01 4.104099e+00 3.209973e+00 1.771652e+00 -1.687927e+00 -2.346424e+00 -2.799612e+00 -1.867672e+00 -2.654003e+00 -4.671466e+00 -4.288488e-01 8.661700e-01 6.104125e-01 6.183404e-01 3.940374e-01 1.045232e+00 2.131816e-01 -3.304687e-01 1.941549e-01 1.693209e-01 -3.405662e-01 -4.656930e-01 -8.459170e-01
<VARIANCE> 25
 1.605801e+01 2.327610e+01 3.427949e+01 4.943877e+01 3.551352e+01 4.001220e+01 3.662941e+01 3.266262e+01 4.372853e+01 3.314529e+01 2.653506e+01 2.688600e+01 4.240589e-01 7.692712e-01 1.020777e+00 1.824027e+00 1.598796e+00 1.636005e+00 1.955104e+00 1.795479e+00 2.067024e+00 1.608387e+00 1.611071e+00 1.827414e+00 4.028325e-01
<GCONST> 9.059154e+01
<STATE> 4
<MEAN> 25
 3.843240e+00 4.976631e+00 2.044346e+00 4.405276e+00 3.430595e+00 3.177998e+00 -7.137617e-01 -1.420924e+00 -8.184713e-01 -5.259312e-01 -2.154598e+00 -3.488309e+00 -4.377143e-01 -2.375585e-02 4.742600e-02 -6.740690e-02 -9.708463e-02 1.467522e-01 2.977267e-01 2.026634e-01 7.117245e-02 2.588364e-02 1.424470e-01 2.484765e-01 -3.065790e-01
<VARIANCE> 25
 1.843643e+01 1.784051e+01 2.607419e+01 3.130790e+01 2.558590e+01 2.868715e+01 2.686604e+01 2.596465e+01 3.096772e+01 2.389989e+01 1.980139e+01 1.923713e+01 4.635847e-01 5.872605e-01 8.780912e-01 9.187444e-01 9.726738e-01 1.154603e+00 1.138327e+00 1.124501e+00 1.193445e+00 1.121723e+00 1.058525e+00 1.099325e+00 4.008314e-01
<GCONST> 8.251925e+01
~t "T_n"
<ENDHMM>
~h "e-n+th"
<BEGINHMM>
<NUMSTATES> 5
<STATE> 2
<MEAN> 25
 7.169885e+00 3.457295e-01 -9.706034e-01 1.822969e+00 2.203207e+00 -1.710077e+00 -1.541217e+00 -6.925409e-01 -3.499932e+00 -2.178467e+00 -7.829415e-01 -1.847775e+00 -1.776564e-01 1.685531e+00 6.899630e-01 1.139801e+00 6.890932e-01 2.057916e+00 4.165332e-01 -6.090450e-01 -1.683788e-01 -9.237592e-02 -7.342267e-01 -1.250047e+00 -1.560356e+00
<VARIANCE> 25
 2.165102e+01 3.528417e+01 4.496836e+01 6.788055e+01 4.849240e+01 5.297578e+01 4.589392e+01 4.388946e+01 4.575230e+01 3.900736e+01 3.414560e+01 3.704768e+01 9.116951e-01 1.700086e+00 1.786228e+00 4.035296e+00 3.243808e+00 3.321929e+00 3.851503e+00 3.338852e+00 3.444288e+00 2.962204e+00 2.780899e+00 2.558904e+00 1.011466e+00
<GCONST> 1.023394e+02
<STATE> 3
<MEAN> 25
 6.451331e+00 3.805457e+00 7.997720e-01 4.104099e+00 3.209973e+00 1.771652e+00 -1.687927e+00 -2.346424e+00 -2.799612e+00 -1.867672e+00 -2.654003e+00 -4.671466e+00 -4.288488e-01 8.661700e-01 6.104125e-01 6.183404e-01 3.940374e-01 1.045232e+00 2.131816e-01 -3.304687e-01 1.941549e-01 1.693209e-01 -3.405662e-01 -4.656930e-01 -8.459170e-01
<VARIANCE> 25
 1.605801e+01 2.327610e+01 3.427949e+01 4.943877e+01 3.551352e+01 4.001220e+01 3.662941e+01 3.266262e+01 4.372853e+01 3.314529e+01 2.653506e+01 2.688600e+01 4.240589e-01 7.692712e-01 1.020777e+00 1.824027e+00 1.598796e+00 1.636005e+00 1.955104e+00 1.795479e+00 2.067024e+00 1.608387e+00 1.611071e+00 1.827414e+00 4.028325e-01
<GCONST> 9.059154e+01
<STATE> 4
<MEAN> 25
 3.843240e+00 4.976631e+00 2.044346e+00 4.405276e+00 3.430595e+00 3.177998e+00 -7.137617e-01 -1.420924e+00 -8.184713e-01 -5.259312e-01 -2.154598e+00 -3.488309e+00 -4.377143e-01 -2.375585e-02 4.742600e-02 -6.740690e-02 -9.708463e-02 1.467522e-01 2.977267e-01 2.026634e-01 7.117245e-02 2.588364e-02 1.424470e-01 2.484765e-01 -3.065790e-01
<VARIANCE> 25
 1.843643e+01 1.784051e+01 2.607419e+01 3.130790e+01 2.558590e+01 2.868715e+01 2.686604e+01 2.596465e+01 3.096772e+01 2.389989e+01 1.980139e+01 1.923713e+01 4.635847e-01 5.872605e-01 8.780912e-01 9.187444e-01 9.726738e-01 1.154603e+00 1.138327e+00 1.124501e+00 1.193445e+00 1.121723e+00 1.058525e+00 1.099325e+00 4.008314e-01
<GCONST> 8.251925e+01
~t "T_n"
<ENDHMM>
~h "e-ll+a"
<BEGINHMM>
<NUMSTATES> 5
<STATE> 2
<MEAN> 25
 3.212471e+00 -2.951287e+00 4.323708e+00 8.410697e+00 2.788220e+00 -1.935065e+00 -1.747923e+00 8.391452e-02 -2.637424e+00 -1.581116e+00 -6.247452e-01 -1.540875e+00 -2.188163e-01 -4.430611e-01 8.618621e-01 1.067031e+00 6.207041e-01 -1.448503e-01 -4.251457e-01 -1.209111e-01 -3.200509e-01 -3.793057e-01 -3.794066e-01 -4.406834e-01 1.135523e-01
<VARIANCE> 25
 3.954158e+01 4.888305e+01 7.001929e+01 7.442691e+01 4.999314e+01 6.646969e+01 5.267068e+01 4.823973e+01 4.327724e+01 3.409306e+01 3.101496e+01 2.490006e+01 2.074605e+00 4.279892e+00 3.420694e+00 4.001318e+00 3.367984e+00 4.949061e+00 5.046401e+00 4.234818e+00 3.539297e+00 2.989798e+00 2.465955e+00 2.130456e+00 3.378630e+00
<GCONST> 1.078784e+02
<STATE> 3
<MEAN> 25
 5.845975e+00 -6.557073e+00 3.317025e+00 1.269852e+01 6.821661e+00 -6.851101e+00 -8.228510e+00 -3.712974e+00 -6.055174e+00 -4.384605e+00 -1.842642e+00 -2.637305e+00 1.161601e+00 -3.497964e-01 -1.748255e+00 -1.039612e+00 -1.023872e-01 -1.126238e+00 -1.311410e+00 -1.242101e+00 -8.171799e-01 -3.470524e-02 5.469254e-01 7.039791e-01 1.082235e+00
<VARIANCE> 25
 2.284479e+01 2.646275e+01 3.987304e+01 6.100370e+01 6.157007e+01 5.622474e+01 4.059973e+01 4.629984e+01 3.791869e+01 3.027633e+01 2.953214e+01 2.345895e+01 1.101586e+00 1.286474e+00 2.290552e+00 2.601848e+00 2.260683e+00 3.307712e+00 3.644923e+00 2.808527e+00 3.231163e+00 3.109841e+00 2.243085e+00 1.853376e+00 7.294656e-01
<GCONST> 9.931143e+01
<STATE> 4
<MEAN> 25
 6.903928e+00 -5.119917e+00 -6.370137e-01 7.196602e+00 3.752772e+00 -6.617359e+00 -7.630206e+00 -4.237154e+00 -5.773923e+00 -3.432392e+00 -1.383355e-01 2.270406e-01 3.532740e-01 1.402729e-01 -1.005013e+00 -1.572629e+00 -9.562680e-01 -6.739819e-02 5.709735e-01 2.909666e-01 3.566037e-01 4.653815e-01 4.380224e-01 6.594865e-01 2.652628e-01
<VARIANCE> 25
 2.485456e+01 3.116670e+01 3.369991e+01 4.996317e+01 4.769045e+01 6.074029e+01 3.860729e+01 4.537725e+01 3.515932e+01 5.286123e+01 3.456664e+01 2.363072e+01 3.052286e-01 6.844740e-01 1.423032e+00 1.637507e+00 1.733776e+00 1.588886e+00 1.935019e+00 2.034065e+00 1.932827e+00 2.487600e+00 2.167042e+00 1.462642e+00 3.067801e-01
<GCONST> 9.290681e+01
~t "T_ll"
<ENDHMM>
~h "e-ll+o"
<BEGINHMM>
<NUMSTATES> 5
<STATE> 2
<MEAN> 25
 3.212471e+00 -2.951287e+00 4.323708e+00 8.410697e+00 2.788220e+00 -1.935065e+00 -1.747923e+00 8.391452e-02 -2.637424e+00 -1.581116e+00 -6.247452e-01 -1.540875e+00 -2.188163e-01 -4.430611e-01 8.618621e-01 1.067031e+00 6.207041e-01 -1.448503e-01 -4.251457e-01 -1.209111e-01 -3.200509e-01 -3.793057e-01 -3.794066e-01 -4.406834e-01 1.135523e-01
<VARIANCE> 25
 3.954158e+01 4.888305e+01 7.001929e+01 7.442691e+01 4.999314e+01 6.646969e+01 5.267068e+01 4.823973e+01 4.327724e+01 3.409306e+01 3.101496e+01 2.490006e+01 2.074605e+00 4.279892e+00 3.420694e+00 4.001318e+00 3.367984e+00 4.949061e+00 5.046401e+00 4.234818e+00 3.539297e+00 2.989798e+00 2.465955e+00 2.130456e+00 3.378630e+00
<GCONST> 1.078784e+02
<STATE> 3
<MEAN> 25
 5.845975e+00 -6.557073e+00 3.317025e+00 1.269852e+01 6.821661e+00 -6.851101e+00 -8.228510e+00 -3.712974e+00 -6.055174e+00 -4.384605e+00 -1.842642e+00 -2.637305e+00 1.161601e+00 -3.497964e-01 -1.748255e+00 -1.039612e+00 -1.023872e-01 -1.126238e+00 -1.311410e+00 -1.242101e+00 -8.171799e-01 -3.470524e-02 5.469254e-01 7.039791e-01 1.082235e+00
<VARIANCE> 25
 2.284479e+01 2.646275e+01 3.987304e+01 6.100370e+01 6.157007e+01 5.622474e+01 4.059973e+01 4.629984e+01 3.791869e+01 3.027633e+01 2.953214e+01 2.345895e+01 1.101586e+00 1.286474e+00 2.290552e+00 2.601848e+00 2.260683e+00 3.307712e+00 3.644923e+00 2.808527e+00 3.231163e+00 3.109841e+00 2.243085e+00 1.853376e+00 7.294656e-01
<GCONST> 9.931143e+01
<STATE> 4
<MEAN> 25
 6.903928e+00 -5.119917e+00 -6.370137e-01 7.196602e+00 3.752772e+00 -6.617359e+00 -7.630206e+00 -4.237154e+00 -5.773923e+00 -3.432392e+00 -1.383355e-01 2.270406e-01 3.532740e-01 1.402729e-01 -1.005013e+00 -1.572629e+00 -9.562680e-01 -6.739819e-02 5.709735e-01 2.909666e-01 3.566037e-01 4.653815e-01 4.380224e-01 6.594865e-01 2.652628e-01
<VARIANCE> 25
 2.485456e+01 3.116670e+01 3.369991e+01 4.996317e+01 4.769045e+01 6.074029e+01 3.860729e+01 4.537725e+01 3.515932e+01 5.286123e+01 3.456664e+01 2.363072e+01 3.052286e-01 6.844740e-01 1.423032e+00 1.637507e+00 1.733776e+00 1.588886e+00 1.935019e+00 2.034065e+00 1.932827e+00 2.487600e+00 2.167042e+00 1.462642e+00 3.067801e-01
<GCONST> 9.290681e+01
~t "T_ll"
<ENDHMM>
~h "e-ll+u"
<BEGINHMM>
<NUMSTATES> 5
<STATE> 2
<MEAN> 25
 3.212471e+00 -2.951287e+00 4.323708e+00 8.410697e+00 2.788220e+00 -1.935065e+00 -1.747923e+00 8.391452e-02 -2.637424e+00 -1.581116e+00 -6.247452e-01 -1.540875e+00 -2.188163e-01 -4.430611e-01 8.618621e-01 1.067031e+00 6.207041e-01 -1.448503e-01 -4.251457e-01 -1.209111e-01 -3.200509e-01 -3.793057e-01 -3.794066e-01 -4.406834e-01 1.135523e-01
<VARIANCE> 25
 3.954158e+01 4.888305e+01 7.001929e+01 7.442691e+01 4.999314e+01 6.646969e+01 5.267068e+01 4.823973e+01 4.327724e+01 3.409306e+01 3.101496e+01 2.490006e+01 2.074605e+00 4.279892e+00 3.420694e+00 4.001318e+00 3.367984e+00 4.949061e+00 5.046401e+00 4.234818e+00 3.539297e+00 2.989798e+00 2.465955e+00 2.130456e+00 3.378630e+00
<GCONST> 1.078784e+02
<STATE> 3
<MEAN> 25
 5.845975e+00 -6.557073e+00 3.317025e+00 1.269852e+01 6.821661e+00 -6.851101e+00 -8.228510e+00 -3.712974e+00 -6.055174e+00 -4.384605e+00 -1.842642e+00 -2.637305e+00 1.161601e+00 -3.497964e-01 -1.748255e+00 -1.039612e+00 -1.023872e-01 -1.126238e+00 -1.311410e+00 -1.242101e+00 -8.171799e-01 -3.470524e-02 5.469254e-01 7.039791e-01 1.082235e+00
<VARIANCE> 25
 2.284479e+01 2.646275e+01 3.987304e+01 6.100370e+01 6.157007e+01 5.622474e+01 4.059973e+01 4.629984e+01 3.791869e+01 3.027633e+01 2.953214e+01 2.345895e+01 1.101586e+00 1.286474e+00 2.290552e+00 2.601848e+00 2.260683e+00 3.307712e+00 3.644923e+00 2.808527e+00 3.231163e+00 3.109841e+00 2.243085e+00 1.853376e+00 7.294656e-01
<GCONST> 9.931143e+01
<STATE> 4
<MEAN> 25
 6.903928e+00 -5.119917e+00 -6.370137e-01 7.196602e+00 3.752772e+00 -6.617359e+00 -7.630206e+00 -4.237154e+00 -5.773923e+00 -3.432392e+00 -1.383355e-01 2.270406e-01 3.532740e-01 1.402729e-01 -1.005013e+00 -1.572629e+00 -9.562680e-01 -6.739819e-02 5.709735e-01 2.909666e-01 3.566037e-01 4.653815e-01 4.380224e-01 6.594865e-01 2.652628e-01
<VARIANCE> 25
 2.485456e+01 3.116670e+01 3.369991e+01 4.996317e+01 4.769045e+01 6.074029e+01 3.860729e+01 4.537725e+01 3.515932e+01 5.286123e+01 3.456664e+01 2.363072e+01 3.052286e-01 6.844740e-01 1.423032e+00 1.637507e+00 1.733776e+00 1.588886e+00 1.935019e+00 2.034065e+00 1.932827e+00 2.487600e+00 2.167042e+00 1.462642e+00 3.067801e-01
<GCONST> 9.290681e+01
~t "T_ll"
<ENDHMM>
~h "k-e+ny"
<BEGINHMM>
<NUMSTATES> 5
<STATE> 2
<MEAN> 25
 4.917822e+00 -3.046909e+00 -7.860230e-01 1.961976e+00 3.296882e+00 -3.095960e+00 -4.445966e+00 -4.378197e+00 -4.194638e+00 -1.446952e+00 1.146220e-01 1.648807e-01 1.062938e+00 -1.285595e+00 -6.981800e-01 4.423747e-01 5.001229e-01 -1.895295e+00 -1.787762e+00 -1.308817e+00 -1.084860e+00 1.344622e-01 6.617222e-01 3.701210e-01 1.670173e+00
<VARIANCE> 25
 3.577217e+01 3.706077e+01 4.774310e+01 6.015227e+01 4.925949e+01 6.036604e+01 5.010396e+01 4.977269e+01 4.858726e+01 3.950971e+01 3.013842e+01 2.473536e+01 2.384392e+00 2.958043e+00 2.685448e+00 3.858023e+00 3.340221e+00 5.064232e+00 4.063103e+00 3.681123e+00 4.037725e+00 4.174648e+00 3.332788e+00 2.898063e+00 2.226966e+00
<GCONST> 1.068105e+02
<STATE> 3
<MEAN> 25
 7.191195e+00 -7.001473e+00 -2.328277e+00 2.836691e+00 3.888689e+00 -7.911126e+00 -8.482172e+00 -6.657192e+00 -5.470276e+00 -1.285404e-01 1.987994e+00 7.147580e-01 8.514885e-02 -4.249433e-01 -1.496204e-01 2.818093e-01 1.203487e-01 -6.073316e-01 -4.420330e-01 -1.406531e-01 1.603031e-01 5.093133e-01 3.347531e-01 -4.041983e-02 2.952766e-01
<VARIANCE> 25
 2.837927e+01 3.550758e+01 4.376701e+01 6.339727e+01 5.782299e+01 6.153004e+01 4.445435e+01 4.665985e+01 4.438187e+01 4.603452e+01 3.686113e+01 3.249733e+01 5.579238e-01 9.633060e-01 1.396090e+00 1.826277e+00 1.583154e+00 2.003756e+00 1.982185e+00 1.856537e+00 2.013892e+00 2.006657e+00 1.751121e+00 1.508502e+00 5.828047e-01
<GCONST> 9.591582e+01
<STATE> 4
<MEAN> 25
 5.895019e+00 -4.724988e+00 -1.197292e+00 3.906052e+00 3.870449e+00 -6.545651e+00 -8.215060e+00 -6.679025e+00 -4.172563e+00 5.337154e-01 9.279272e-01 -6.742178e-01 -3.232698e-01 7.992764e-01 3.300467e-01 -6.339286e-02 7.912491e-02 1.004552e+00 6.088396e-01 3.772415e-01 3.436322e-01 -1.313366e-01 -2.720630e-01 -1.298955e-01 -7.956876e-01
<VARIANCE> 25
 2.029749e+01 3.066547e+01 3.368494e+01 5.057070e+01 4.296806e+01 5.593891e+01 3.659196e+01 3.710094e+01 4.034227e+01 3.575679e+01 3.262199e+01 2.925796e+01 5.569103e-01 1.011105e+00 1.171097e+00 1.448238e+00 1.440968e+00 2.011663e+00 1.814593e+00 1.739066e+00 1.905525e+00 1.867028e+00 1.539982e+00 1.274082e+00 7.538318e-01
<GCONST> 9.278246e+01
~t "T_e"
<ENDHMM>
~h "a+b"
<BEGINHMM>
<NUMSTATES> 5
<STATE> 2
<MEAN> 25
 8.084209e+00 -3.246555e+00 -4.886938e+00 -2.890126e+00 -1.922659e+00 -4.591505e+00 -1.062124e+00 -1.533606e+00 -3.011539e+00 -1.419097e+00 7.822737e-01 1.974153e+00 8.531939e-01 -1.219489e+00 -1.591901e+00 -1.511451e+00 -1.099942e+00 -1.081241e+00 3.296968e-01 2.435892e-01 2.131322e-01 7.433307e-01 1.096173e+00 1.076555e+00 1.531909e+00
<VARIANCE> 25
 3.102556e+01 3.982352e+01 4.648204e+01 6.052976e+01 4.865224e+01 5.364120e+01 4.957391e+01 5.206113e+01 4.994263e+01 4.377484e+01 3.566540e+01 3.010361e+01 2.105191e+00 2.133569e+00 2.607650e+00 3.361774e+00 2.917656e+00 3.954443e+00 3.398865e+00 3.319243e+00 3.668817e+00 4.076825e+00 3.093344e+00 2.673295e+00 1.675560e+00
<GCONST> 1.052759e+02
<STATE> 3
<MEAN> 25
 9.462610e+00 -6.897775e+00 -8.743549e+00 -6.083593e+00 -4.604442e+00 -5.470979e+00 1.397076e+00 -2.830499e-01 -1.629562e+00 7.007640e-01 2.659651e+00 3.340820e+00 3.290816e-02 -1.735238e-01 -3.625012e-01 -3.627358e-01 -1.769637e-01 2.254089e-01 4.766614e-01 2.827543e-01 2.371980e-01 1.767752e-01 8.445666e-02 6.974697e-02 8.193482e-02
<VARIANCE> 25
 2.840129e+01 3.570125e+01 4.138834e+01 4.038225e+01 4.118876e+01 4.148624e+01 4.739182e+01 4.747406e+01 4.473821e+01 4.189992e+01 3.449903e+01 2.805832e+01 3.302394e-01 8.424883e-01 9.393210e-01 1.242460e+00 1.324397e+00 1.496400e+00 1.901740e+00 1.780651e+00 1.803969e+00 1.726919e+00 1.430944e+00 1.179275e+00 3.783611e-01
<GCONST> 9.133002e+01
<STATE> 4
<MEAN> 25
 8.177530e+00 -2.680661e+00 -7.293503e+00 -5.932261e+00 -3.758124e+00 -2.794274e+00 1.176165e+00 -3.390664e-01 -1.368642e+00 2.573896e-01 2.133668e+00 3.287408e+00 -4.538044e-01 8.704351e-01 7.276899e-01 4.679444e-01 4.150407e-01 5.706517e-01 -1.937626e-01 -1.382255e-01 1.753797e-02 -1.629017e-01 -2.942949e-01 -3.140077e-01 -8.826797e-01
<VARIANCE> 25
 2.215926e+01 3.099335e+01 3.486272e+01 3.668752e+01 3.283007e+01 3.965223e+01 3.500597e+01 3.826480e+01 3.512437e+01 3.170736e+01 2.563973e+01 2.200531e+01 5.861269e-01 9.910762e-01 1.080531e+00 1.252255e+00 1.395680e+00 1.835312e+00 1.787168e+00 1.826652e+00 1.993582e+00 1.853269e+00 1.609923e+00 1.318195e+00 6.483233e-01
<GCONST> 9.086413e+01
~t "T_a"
<ENDHMM>
~h "a+d"
<BEGINHMM>
<NUMSTATES> 5
<STATE> 2
<MEAN> 25
 8.084209e+00 -3.246555e+00 -4.886938e+00 -2.890126e+00 -1.922659e+00 -4.591505e+00 -1.062124e+00 -1.533606e+00 -3.011539e+00 -1.419097e+00 7.822737e-01 1.974153e+00 8.531939e-01 -1.219489e+00 -1.591901e+00 -1.511451e+00 -1.099942e+00 -1.081241e+00 3.296968e-01 2.435892e-01 2.131322e-01 7.433307e-01 1.096173e+00 1.076555e+00 1.531909e+00
<VARIANCE> 25
 3.102556e+01 3.982352e+01 4.648204e+01 6.052976e+01 4.865224e+01 5.364120e+01 4.957391e+01 5.206113e+01 4.994263e+01 4.377484e+01 3.566540e+01 3.010361e+01 2.105191e+00 2.133569e+00 2.607650e+00 3.361774e+00 2.917656e+00 3.954443e+00 3.398865e+00 3.319243e+00 3.668817e+00 4.076825e+00 3.093344e+00 2.673295e+00 1.675560e+00
<GCONST> 1.052759e+02
<STATE> 3
<MEAN> 25
 9.462610e+00 -6.897775e+00 -8.743549e+00 -6.083593e+00 -4.604442e+00 -5.470979e+00 1.397076e+00 -2.830499e-01 -1.629562e+00 7.007640e-01 2.659651e+00 3.340820e+00 3.290816e-02 -1.735238e-01 -3.625012e-01 -3.627358e-01 -1.769637e-01 2.254089e-01 4.766614e-01 2.827543e-01 2.371980e-01 1.767752e-01 8.445666e-02 6.974697e-02 8.193482e-02
<VARIANCE> 25
 2.840129e+01 3.570125e+01 4.138834e+01 4.038225e+01 4.118876e+01 4.148624e+01 4.739182e+01 4.747406e+01 4.473821e+01 4.189992e+01 3.449903e+01 2.805832e+01 3.302394e-01 8.424883e-01 9.393210e-01 1.242460e+00 1.324397e+00 1.496400e+00 1.901740e+00 1.780651e+00 1.803969e+00 1.726919e+00 1.430944e+00 1.179275e+00 3.783611e-01
<GCONST> 9.133002e+01
<STATE> 4
<MEAN> 25
 8.177530e+00 -2.680661e+00 -7.293503e+00 -5.932261e+00 -3.758124e+00 -2.794274e+00 1.176165e+00 -3.390664e-01 -1.368642e+00 2.573896e-01 2.133668e+00 3.287408e+00 -4.538044e-01 8.704351e-01 7.276899e-01 4.679444e-01 4.150407e-01 5.706517e-01 -1.937626e-01 -1.382255e-01 1.753797e-02 -1.629017e-01 -2.942949e-01 -3.140077e-01 -8.826797e-01
<VARIANCE> 25
 2.215926e+01 3.099335e+01 3.486272e+01 3.668752e+01 3.283007e+01 3.965223e+01 3.500597e+01 3.826480e+01 3.512437e+01 3.170736e+01 2.563973e+01 2.200531e+01 5.861269e-01 9.910762e-01 1.080531e+00 1.252255e+00 1.395680e+00 1.835312e+00 1.787168e+00 1.826652e+00 1.993582e+00 1.853269e+00 1.609923e+00 1.318195e+00 6.483233e-01
<GCONST> 9.086413e+01
~t "T_a"
<ENDHMM>
~h "a+f"
<BEGINHMM>
<NUMSTATES> 5
<STATE> 2
<MEAN> 25
 8.084209e+00 -3.246555e+00 -4.886938e+00 -2.890126e+00 -1.922659e+00 -4.591505e+00 -1.062124e+00 -1.533606e+00 -3.011539e+00 -1.419097e+00 7.822737e-01 1.974153e+00 8.531939e-01 -1.219489e+00 -1.591901e+00 -1.511451e+00 -1.099942e+00 -1.081241e+00 3.296968e-01 2.435892e-01 2.131322e-01 7.433307e-01 1.096173e+00 1.076555e+00 1.531909e+00
<VARIANCE> 25
 3.102556e+01 3.982352e+01 4.648204e+01 6.052976e+01 4.865224e+01 5.364120e+01 4.957391e+01 5.206113e+01 4.994263e+01 4.377484e+01 3.566540e+01 3.010361e+01 2.105191e+00 2.133569e+00 2.607650e+00 3.361774e+00 2.917656e+00 3.954443e+00 3.398865e+00 3.319243e+00 3.668817e+00 4.076825e+00 3.093344e+00 2.673295e+00 1.675560e+00
<GCONST> 1.052759e+02
<STATE> 3
<MEAN> 25
 9.462610e+00 -6.897775e+00 -8.743549e+00 -6.083593e+00 -4.604442e+00 -5.470979e+00 1.397076e+00 -2.830499e-01 -1.629562e+00 7.007640e-01 2.659651e+00 3.340820e+00 3.290816e-02 -1.735238e-01 -3.625012e-01 -3.627358e-01 -1.769637e-01 2.254089e-01 4.766614e-01 2.827543e-01 2.371980e-01 1.767752e-01 8.445666e-02 6.974697e-02 8.193482e-02
<VARIANCE> 25
 2.840129e+01 3.570125e+01 4.138834e+01 4.038225e+01 4.118876e+01 4.148624e+01 4.739182e+01 4.747406e+01 4.473821e+01 4.189992e+01 3.449903e+01 2.805832e+01 3.302394e-01 8.424883e-01 9.393210e-01 1.242460e+00 1.324397e+00 1.496400e+00 1.901740e+00 1.780651e+00 1.803969e+00 1.726919e+00 1.430944e+00 1.179275e+00 3.783611e-01
<GCONST> 9.133002e+01
<STATE> 4
<MEAN> 25
 8.177530e+00 -2.680661e+00 -7.293503e+00 -5.932261e+00 -3.758124e+00 -2.794274e+00 1.176165e+00 -3.390664e-01 -1.368642e+00 2.573896e-01 2.133668e+00 3.287408e+00 -4.538044e-01 8.704351e-01 7.276899e-01 4.679444e-01 4.150407e-01 5.706517e-01 -1.937626e-01 -1.382255e-01 1.753797e-02 -1.629017e-01 -2.942949e-01 -3.140077e-01 -8.826797e-01
<VARIANCE> 25
 2.215926e+01 3.099335e+01 3.486272e+01 3.668752e+01 3.283007e+01 3.965223e+01 3.500597e+01 3.826480e+01 3.512437e+01 3.170736e+01 2.563973e+01 2.200531e+01 5.861269e-01 9.910762e-01 1.080531e+00 1.252255e+00 1.395680e+00 1.835312e+00 1.787168e+00 1.826652e+00 1.993582e+00 1.853269e+00 1.609923e+00 1.318195e+00 6.483233e-01
<GCONST> 9.086413e+01
~t "T_a"
<ENDHMM>
~h "a+g"
<BEGINHMM>
<NUMSTATES> 5
<STATE> 2
<MEAN> 25
 8.084209e+00 -3.246555e+00 -4.886938e+00 -2.890126e+00 -1.922659e+00 -4.591505e+00 -1.062124e+00 -1.533606e+00 -3.011539e+00 -1.419097e+00 7.822737e-01 1.974153e+00 8.531939e-01 -1.219489e+00 -1.591901e+00 -1.511451e+00 -1.099942e+00 -1.081241e+00 3.296968e-01 2.435892e-01 2.131322e-01 7.433307e-01 1.096173e+00 1.076555e+00 1.531909e+00
<VARIANCE> 25
 3.102556e+01 3.982352e+01 4.648204e+01 6.052976e+01 4.865224e+01 5.364120e+01 4.957391e+01 5.206113e+01 4.994263e+01 4.377484e+01 3.566540e+01 3.010361e+01 2.105191e+00 2.133569e+00 2.607650e+00 3.361774e+00 2.917656e+00 3.954443e+00 3.398865e+00 3.319243e+00 3.668817e+00 4.076825e+00 3.093344e+00 2.673295e+00 1.675560e+00
<GCONST> 1.052759e+02
<STATE> 3
<MEAN> 25
 9.462610e+00 -6.897775e+00 -8.743549e+00 -6.083593e+00 -4.604442e+00 -5.470979e+00 1.397076e+00 -2.830499e-01 -1.629562e+00 7.007640e-01 2.659651e+00 3.340820e+00 3.290816e-02 -1.735238e-01 -3.625012e-01 -3.627358e-01 -1.769637e-01 2.254089e-01 4.766614e-01 2.827543e-01 2.371980e-01 1.767752e-01 8.445666e-02 6.974697e-02 8.193482e-02
<VARIANCE> 25
 2.840129e+01 3.570125e+01 4.138834e+01 4.038225e+01 4.118876e+01 4.148624e+01 4.739182e+01 4.747406e+01 4.473821e+01 4.189992e+01 3.449903e+01 2.805832e+01 3.302394e-01 8.424883e-01 9.393210e-01 1.242460e+00 1.324397e+00 1.496400e+00 1.901740e+00 1.780651e+00 1.803969e+00 1.726919e+00 1.430944e+00 1.179275e+00 3.783611e-01
<GCONST> 9.133002e+01
<STATE> 4
<MEAN> 25
 8.177530e+00 -2.680661e+00 -7.293503e+00 -5.932261e+00 -3.758124e+00 -2.794274e+00 1.176165e+00 -3.390664e-01 -1.368642e+00 2.573896e-01 2.133668e+00 3.287408e+00 -4.538044e-01 8.704351e-01 7.276899e-01 4.679444e-01 4.150407e-01 5.706517e-01 -1.937626e-01 -1.382255e-01 1.753797e-02 -1.629017e-01 -2.942949e-01 -3.140077e-01 -8.826797e-01
<VARIANCE> 25
 2.215926e+01 3.099335e+01 3.486272e+01 3.668752e+01 3.283007e+01 3.965223e+01 3.500597e+01 3.826480e+01 3.512437e+01 3.170736e+01 2.563973e+01 2.200531e+01 5.861269e-01 9.910762e-01 1.080531e+00 1.252255e+00 1.395680e+00 1.835312e+00 1.787168e+00 1.826652e+00 1.993582e+00 1.853269e+00 1.609923e+00 1.318195e+00 6.483233e-01
<GCONST> 9.086413e+01
~t "T_a"
<ENDHMM>
~h "a+i"
<BEGINHMM>
<NUMSTATES> 5
<STATE> 2
<MEAN> 25
 8.084209e+00 -3.246555e+00 -4.886938e+00 -2.890126e+00 -1.922659e+00 -4.591505e+00 -1.062124e+00 -1.533606e+00 -3.011539e+00 -1.419097e+00 7.822737e-01 1.974153e+00 8.531939e-01 -1.219489e+00 -1.591901e+00 -1.511451e+00 -1.099942e+00 -1.081241e+00 3.296968e-01 2.435892e-01 2.131322e-01 7.433307e-01 1.096173e+00 1.076555e+00 1.531909e+00
<VARIANCE> 25
 3.102556e+01 3.982352e+01 4.648204e+01 6.052976e+01 4.865224e+01 5.364120e+01 4.957391e+01 5.206113e+01 4.994263e+01 4.377484e+01 3.566540e+01 3.010361e+01 2.105191e+00 2.133569e+00 2.607650e+00 3.361774e+00 2.917656e+00 3.954443e+00 3.398865e+00 3.319243e+00 3.668817e+00 4.076825e+00 3.093344e+00 2.673295e+00 1.675560e+00
<GCONST> 1.052759e+02
<STATE> 3
<MEAN> 25
 9.462610e+00 -6.897775e+00 -8.743549e+00 -6.083593e+00 -4.604442e+00 -5.470979e+00 1.397076e+00 -2.830499e-01 -1.629562e+00 7.007640e-01 2.659651e+00 3.340820e+00 3.290816e-02 -1.735238e-01 -3.625012e-01 -3.627358e-01 -1.769637e-01 2.254089e-01 4.766614e-01 2.827543e-01 2.371980e-01 1.767752e-01 8.445666e-02 6.974697e-02 8.193482e-02
<VARIANCE> 25
 2.840129e+01 3.570125e+01 4.138834e+01 4.038225e+01 4.118876e+01 4.148624e+01 4.739182e+01 4.747406e+01 4.473821e+01 4.189992e+01 3.449903e+01 2.805832e+01 3.302394e-01 8.424883e-01 9.393210e-01 1.242460e+00 1.324397e+00 1.496400e+00 1.901740e+00 1.780651e+00 1.803969e+00 1.726919e+00 1.430944e+00 1.179275e+00 3.783611e-01
<GCONST> 9.133002e+01
<STATE> 4
<MEAN> 25
 8.177530e+00 -2.680661e+00 -7.293503e+00 -5.932261e+00 -3.758124e+00 -2.794274e+00 1.176165e+00 -3.390664e-01 -1.368642e+00 2.573896e-01 2.133668e+00 3.287408e+00 -4.538044e-01 8.704351e-01 7.276899e-01 4.679444e-01 4.150407e-01 5.706517e-01 -1.937626e-01 -1.382255e-01 1.753797e-02 -1.629017e-01 -2.942949e-01 -3.140077e-01 -8.826797e-01
<VARIANCE> 25
 2.215926e+01 3.099335e+01 3.486272e+01 3.668752e+01 3.283007e+01 3.965223e+01 3.500597e+01 3.826480e+01 3.512437e+01 3.170736e+01 2.563973e+01 2.200531e+01 5.861269e-01 9.910762e-01 1.080531e+00 1.252255e+00 1.395680e+00 1.835312e+00 1.787168e+00 1.826652e+00 1.993582e+00 1.853269e+00 1.609923e+00 1.318195e+00 6.483233e-01
<GCONST> 9.086413e+01
~t "T_a"
<ENDHMM>
~h "a+k"
<BEGINHMM>
<NUMSTATES> 5
<STATE> 2
<MEAN> 25
 8.084209e+00 -3.246555e+00 -4.886938e+00 -2.890126e+00 -1.922659e+00 -4.591505e+00 -1.062124e+00 -1.533606e+00 -3.011539e+00 -1.419097e+00 7.822737e-01 1.974153e+00 8.531939e-01 -1.219489e+00 -1.591901e+00 -1.511451e+00 -1.099942e+00 -1.081241e+00 3.296968e-01 2.435892e-01 2.131322e-01 7.433307e-01 1.096173e+00 1.076555e+00 1.531909e+00
<VARIANCE> 25
 3.102556e+01 3.982352e+01 4.648204e+01 6.052976e+01 4.865224e+01 5.364120e+01 4.957391e+01 5.206113e+01 4.994263e+01 4.377484e+01 3.566540e+01 3.010361e+01 2.105191e+00 2.133569e+00 2.607650e+00 3.361774e+00 2.917656e+00 3.954443e+00 3.398865e+00 3.319243e+00 3.668817e+00 4.076825e+00 3.093344e+00 2.673295e+00 1.675560e+00
<GCONST> 1.052759e+02
<STATE> 3
<MEAN> 25
 9.462610e+00 -6.897775e+00 -8.743549e+00 -6.083593e+00 -4.604442e+00 -5.470979e+00 1.397076e+00 -2.830499e-01 -1.629562e+00 7.007640e-01 2.659651e+00 3.340820e+00 3.290816e-02 -1.735238e-01 -3.625012e-01 -3.627358e-01 -1.769637e-01 2.254089e-01 4.766614e-01 2.827543e-01 2.371980e-01 1.767752e-01 8.445666e-02 6.974697e-02 8.193482e-02
<VARIANCE> 25
 2.840129e+01 3.570125e+01 4.138834e+01 4.038225e+01 4.118876e+01 4.148624e+01 4.739182e+01 4.747406e+01 4.473821e+01 4.189992e+01 3.449903e+01 2.805832e+01 3.302394e-01 8.424883e-01 9.393210e-01 1.242460e+00 1.324397e+00 1.496400e+00 1.901740e+00 1.780651e+00 1.803969e+00 1.726919e+00 1.430944e+00 1.179275e+00 3.783611e-01
<GCONST> 9.133002e+01
<STATE> 4
<MEAN> 25
 8.177530e+00 -2.680661e+00 -7.293503e+00 -5.932261e+00 -3.758124e+00 -2.794274e+00 1.176165e+00 -3.390664e-01 -1.368642e+00 2.573896e-01 2.133668e+00 3.287408e+00 -4.538044e-01 8.704351e-01 7.276899e-01 4.679444e-01 4.150407e-01 5.706517e-01 -1.937626e-01 -1.382255e-01 1.753797e-02 -1.629017e-01 -2.942949e-01 -3.140077e-01 -8.826797e-01
<VARIANCE> 25
 2.215926e+01 3.099335e+01 3.486272e+01 3.668752e+01 3.283007e+01 3.965223e+01 3.500597e+01 3.826480e+01 3.512437e+01 3.170736e+01 2.563973e+01 2.200531e+01 5.861269e-01 9.910762e-01 1.080531e+00 1.252255e+00 1.395680e+00 1.835312e+00 1.787168e+00 1.826652e+00 1.993582e+00 1.853269e+00 1.609923e+00 1.318195e+00 6.483233e-01
<GCONST> 9.086413e+01
~t "T_a"
<ENDHMM>
~h "a+l"
<BEGINHMM>
<NUMSTATES> 5
<STATE> 2
<MEAN> 25
 8.084209e+00 -3.246555e+00 -4.886938e+00 -2.890126e+00 -1.922659e+00 -4.591505e+00 -1.062124e+00 -1.533606e+00 -3.011539e+00 -1.419097e+00 7.822737e-01 1.974153e+00 8.531939e-01 -1.219489e+00 -1.591901e+00 -1.511451e+00 -1.099942e+00 -1.081241e+00 3.296968e-01 2.435892e-01 2.131322e-01 7.433307e-01 1.096173e+00 1.076555e+00 1.531909e+00
<VARIANCE> 25
 3.102556e+01 3.982352e+01 4.648204e+01 6.052976e+01 4.865224e+01 5.364120e+01 4.957391e+01 5.206113e+01 4.994263e+01 4.377484e+01 3.566540e+01 3.010361e+01 2.105191e+00 2.133569e+00 2.607650e+00 3.361774e+00 2.917656e+00 3.954443e+00 3.398865e+00 3.319243e+00 3.668817e+00 4.076825e+00 3.093344e+00 2.673295e+00 1.675560e+00
<GCONST> 1.052759e+02
<STATE> 3
<MEAN> 25
 9.462610e+00 -6.897775e+00 -8.743549e+00 -6.083593e+00 -4.604442e+00 -5.470979e+00 1.397076e+00 -2.830499e-01 -1.629562e+00 7.007640e-01 2.659651e+00 3.340820e+00 3.290816e-02 -1.735238e-01 -3.625012e-01 -3.627358e-01 -1.769637e-01 2.254089e-01 4.766614e-01 2.827543e-01 2.371980e-01 1.767752e-01 8.445666e-02 6.974697e-02 8.193482e-02
<VARIANCE> 25
 2.840129e+01 3.570125e+01 4.138834e+01 4.038225e+01 4.118876e+01 4.148624e+01 4.739182e+01 4.747406e+01 4.473821e+01 4.189992e+01 3.449903e+01 2.805832e+01 3.302394e-01 8.424883e-01 9.393210e-01 1.242460e+00 1.324397e+00 1.496400e+00 1.901740e+00 1.780651e+00 1.803969e+00 1.726919e+00 1.430944e+00 1.179275e+00 3.783611e-01
<GCONST> 9.133002e+01
<STATE> 4
<MEAN> 25
 8.177530e+00 -2.680661e+00 -7.293503e+00 -5.932261e+00 -3.758124e+00 -2.794274e+00 1.176165e+00 -3.390664e-01 -1.368642e+00 2.573896e-01 2.133668e+00 3.287408e+00 -4.538044e-01 8.704351e-01 7.276899e-01 4.679444e-01 4.150407e-01 5.706517e-01 -1.937626e-01 -1.382255e-01 1.753797e-02 -1.629017e-01 -2.942949e-01 -3.140077e-01 -8.826797e-01
<VARIANCE> 25
 2.215926e+01 3.099335e+01 3.486272e+01 3.668752e+01 3.283007e+01 3.965223e+01 3.500597e+01 3.826480e+01 3.512437e+01 3.170736e+01 2.563973e+01 2.200531e+01 5.861269e-01 9.910762e-01 1.080531e+00 1.252255e+00 1.395680e+00 1.835312e+00 1.787168e+00 1.826652e+00 1.993582e+00 1.853269e+00 1.609923e+00 1.318195e+00 6.483233e-01
<GCONST> 9.086413e+01
~t "T_a"
<ENDHMM>
~h "a+m"
<BEGINHMM>
<NUMSTATES> 5
<STATE> 2
<MEAN> 25
 8.084209e+00 -3.246555e+00 -4.886938e+00 -2.890126e+00 -1.922659e+00 -4.591505e+00 -1.062124e+00 -1.533606e+00 -3.011539e+00 -1.419097e+00 7.822737e-01 1.974153e+00 8.531939e-01 -1.219489e+00 -1.591901e+00 -1.511451e+00 -1.099942e+00 -1.081241e+00 3.296968e-01 2.435892e-01 2.131322e-01 7.433307e-01 1.096173e+00 1.076555e+00 1.531909e+00
<VARIANCE> 25
 3.102556e+01 3.982352e+01 4.648204e+01 6.052976e+01 4.865224e+01 5.364120e+01 4.957391e+01 5.206113e+01 4.994263e+01 4.377484e+01 3.566540e+01 3.010361e+01 2.105191e+00 2.133569e+00 2.607650e+00 3.361774e+00 2.917656e+00 3.954443e+00 3.398865e+00 3.319243e+00 3.668817e+00 4.076825e+00 3.093344e+00 2.673295e+00 1.675560e+00
<GCONST> 1.052759e+02
<STATE> 3
<MEAN> 25
 9.462610e+00 -6.897775e+00 -8.743549e+00 -6.083593e+00 -4.604442e+00 -5.470979e+00 1.397076e+00 -2.830499e-01 -1.629562e+00 7.007640e-01 2.659651e+00 3.340820e+00 3.290816e-02 -1.735238e-01 -3.625012e-01 -3.627358e-01 -1.769637e-01 2.254089e-01 4.766614e-01 2.827543e-01 2.371980e-01 1.767752e-01 8.445666e-02 6.974697e-02 8.193482e-02
<VARIANCE> 25
 2.840129e+01 3.570125e+01 4.138834e+01 4.038225e+01 4.118876e+01 4.148624e+01 4.739182e+01 4.747406e+01 4.473821e+01 4.189992e+01 3.449903e+01 2.805832e+01 3.302394e-01 8.424883e-01 9.393210e-01 1.242460e+00 1.324397e+00 1.496400e+00 1.901740e+00 1.780651e+00 1.803969e+00 1.726919e+00 1.430944e+00 1.179275e+00 3.783611e-01
<GCONST> 9.133002e+01
<STATE> 4
<MEAN> 25
 8.177530e+00 -2.680661e+00 -7.293503e+00 -5.932261e+00 -3.758124e+00 -2.794274e+00 1.176165e+00 -3.390664e-01 -1.368642e+00 2.573896e-01 2.133668e+00 3.287408e+00 -4.538044e-01 8.704351e-01 7.276899e-01 4.679444e-01 4.150407e-01 5.706517e-01 -1.937626e-01 -1.382255e-01 1.753797e-02 -1.629017e-01 -2.942949e-01 -3.140077e-01 -8.826797e-01
<VARIANCE> 25
 2.215926e+01 3.099335e+01 3.486272e+01 3.668752e+01 3.283007e+01 3.965223e+01 3.500597e+01 3.826480e+01 3.512437e+01 3.170736e+01 2.563973e+01 2.200531e+01 5.861269e-01 9.910762e-01 1.080531e+00 1.252255e+00 1.395680e+00 1.835312e+00 1.787168e+00 1.826652e+00 1.993582e+00 1.853269e+00 1.609923e+00 1.318195e+00 6.483233e-01
<GCONST> 9.086413e+01
~t "T_a"
<ENDHMM>
~h "a+n"
<BEGINHMM>
<NUMSTATES> 5
<STATE> 2
<MEAN> 25
 8.084209e+00 -3.246555e+00 -4.886938e+00 -2.890126e+00 -1.922659e+00 -4.591505e+00 -1.062124e+00 -1.533606e+00 -3.011539e+00 -1.419097e+00 7.822737e-01 1.974153e+00 8.531939e-01 -1.219489e+00 -1.591901e+00 -1.511451e+00 -1.099942e+00 -1.081241e+00 3.296968e-01 2.435892e-01 2.131322e-01 7.433307e-01 1.096173e+00 1.076555e+00 1.531909e+00
<VARIANCE> 25
 3.102556e+01 3.982352e+01 4.648204e+01 6.052976e+01 4.865224e+01 5.364120e+01 4.957391e+01 5.206113e+01 4.994263e+01 4.377484e+01 3.566540e+01 3.010361e+01 2.105191e+00 2.133569e+00 2.607650e+00 3.361774e+00 2.917656e+00 3.954443e+00 3.398865e+00 3.319243e+00 3.668817e+00 4.076825e+00 3.093344e+00 2.673295e+00 1.675560e+00
<GCONST> 1.052759e+02
<STATE> 3
<MEAN> 25
 9.462610e+00 -6.897775e+00 -8.743549e+00 -6.083593e+00 -4.604442e+00 -5.470979e+00 1.397076e+00 -2.830499e-01 -1.629562e+00 7.007640e-01 2.659651e+00 3.340820e+00 3.290816e-02 -1.735238e-01 -3.625012e-01 -3.627358e-01 -1.769637e-01 2.254089e-01 4.766614e-01 2.827543e-01 2.371980e-01 1.767752e-01 8.445666e-02 6.974697e-02 8.193482e-02
<VARIANCE> 25
 2.840129e+01 3.570125e+01 4.138834e+01 4.038225e+01 4.118876e+01 4.148624e+01 4.739182e+01 4.747406e+01 4.473821e+01 4.189992e+01 3.449903e+01 2.805832e+01 3.302394e-01 8.424883e-01 9.393210e-01 1.242460e+00 1.324397e+00 1.496400e+00 1.901740e+00 1.780651e+00 1.803969e+00 1.726919e+00 1.430944e+00 1.179275e+00 3.783611e-01
<GCONST> 9.133002e+01
<STATE> 4
<MEAN> 25
 8.177530e+00 -2.680661e+00 -7.293503e+00 -5.932261e+00 -3.758124e+00 -2.794274e+00 1.176165e+00 -3.390664e-01 -1.368642e+00 2.573896e-01 2.133668e+00 3.287408e+00 -4.538044e-01 8.704351e-01 7.276899e-01 4.679444e-01 4.150407e-01 5.706517e-01 -1.937626e-01 -1.382255e-01 1.753797e-02 -1.629017e-01 -2.942949e-01 -3.140077e-01 -8.826797e-01
<VARIANCE> 25
 2.215926e+01 3.099335e+01 3.486272e+01 3.668752e+01 3.283007e+01 3.965223e+01 3.500597e+01 3.826480e+01 3.512437e+01 3.170736e+01 2.563973e+01 2.200531e+01 5.861269e-01 9.910762e-01 1.080531e+00 1.252255e+00 1.395680e+00 1.835312e+00 1.787168e+00 1.826652e+00 1.993582e+00 1.853269e+00 1.609923e+00 1.318195e+00 6.483233e-01
<GCONST> 9.086413e+01
~t "T_a"
<ENDHMM>
~h "a+o"
<BEGINHMM>
<NUMSTATES> 5
<STATE> 2
<MEAN> 25
 8.084209e+00 -3.246555e+00 -4.886938e+00 -2.890126e+00 -1.922659e+00 -4.591505e+00 -1.062124e+00 -1.533606e+00 -3.011539e+00 -1.419097e+00 7.822737e-01 1.974153e+00 8.531939e-01 -1.219489e+00 -1.591901e+00 -1.511451e+00 -1.099942e+00 -1.081241e+00 3.296968e-01 2.435892e-01 2.131322e-01 7.433307e-01 1.096173e+00 1.076555e+00 1.531909e+00
<VARIANCE> 25
 3.102556e+01 3.982352e+01 4.648204e+01 6.052976e+01 4.865224e+01 5.364120e+01 4.957391e+01 5.206113e+01 4.994263e+01 4.377484e+01 3.566540e+01 3.010361e+01 2.105191e+00 2.133569e+00 2.607650e+00 3.361774e+00 2.917656e+00 3.954443e+00 3.398865e+00 3.319243e+00 3.668817e+00 4.076825e+00 3.093344e+00 2.673295e+00 1.675560e+00
<GCONST> 1.052759e+02
<STATE> 3
<MEAN> 25
 9.462610e+00 -6.897775e+00 -8.743549e+00 -6.083593e+00 -4.604442e+00 -5.470979e+00 1.397076e+00 -2.830499e-01 -1.629562e+00 7.007640e-01 2.659651e+00 3.340820e+00 3.290816e-02 -1.735238e-01 -3.625012e-01 -3.627358e-01 -1.769637e-01 2.254089e-01 4.766614e-01 2.827543e-01 2.371980e-01 1.767752e-01 8.445666e-02 6.974697e-02 8.193482e-02
<VARIANCE> 25
 2.840129e+01 3.570125e+01 4.138834e+01 4.038225e+01 4.118876e+01 4.148624e+01 4.739182e+01 4.747406e+01 4.473821e+01 4.189992e+01 3.449903e+01 2.805832e+01 3.302394e-01 8.424883e-01 9.393210e-01 1.242460e+00 1.324397e+00 1.496400e+00 1.901740e+00 1.780651e+00 1.803969e+00 1.726919e+00 1.430944e+00 1.179275e+00 3.783611e-01
<GCONST> 9.133002e+01
<STATE> 4
<MEAN> 25
 8.177530e+00 -2.680661e+00 -7.293503e+00 -5.932261e+00 -3.758124e+00 -2.794274e+00 1.176165e+00 -3.390664e-01 -1.368642e+00 2.573896e-01 2.133668e+00 3.287408e+00 -4.538044e-01 8.704351e-01 7.276899e-01 4.679444e-01 4.150407e-01 5.706517e-01 -1.937626e-01 -1.382255e-01 1.753797e-02 -1.629017e-01 -2.942949e-01 -3.140077e-01 -8.826797e-01
<VARIANCE> 25
 2.215926e+01 3.099335e+01 3.486272e+01 3.668752e+01 3.283007e+01 3.965223e+01 3.500597e+01 3.826480e+01 3.512437e+01 3.170736e+01 2.563973e+01 2.200531e+01 5.861269e-01 9.910762e-01 1.080531e+00 1.252255e+00 1.395680e+00 1.835312e+00 1.787168e+00 1.826652e+00 1.993582e+00 1.853269e+00 1.609923e+00 1.318195e+00 6.483233e-01
<GCONST> 9.086413e+01
~t "T_a"
<ENDHMM>
~h "a+p"
<BEGINHMM>
<NUMSTATES> 5
<STATE> 2
<MEAN> 25
 8.084209e+00 -3.246555e+00 -4.886938e+00 -2.890126e+00 -1.922659e+00 -4.591505e+00 -1.062124e+00 -1.533606e+00 -3.011539e+00 -1.419097e+00 7.822737e-01 1.974153e+00 8.531939e-01 -1.219489e+00 -1.591901e+00 -1.511451e+00 -1.099942e+00 -1.081241e+00 3.296968e-01 2.435892e-01 2.131322e-01 7.433307e-01 1.096173e+00 1.076555e+00 1.531909e+00
<VARIANCE> 25
 3.102556e+01 3.982352e+01 4.648204e+01 6.052976e+01 4.865224e+01 5.364120e+01 4.957391e+01 5.206113e+01 4.994263e+01 4.377484e+01 3.566540e+01 3.010361e+01 2.105191e+00 2.133569e+00 2.607650e+00 3.361774e+00 2.917656e+00 3.954443e+00 3.398865e+00 3.319243e+00 3.668817e+00 4.076825e+00 3.093344e+00 2.673295e+00 1.675560e+00
<GCONST> 1.052759e+02
<STATE> 3
<MEAN> 25
 9.462610e+00 -6.897775e+00 -8.743549e+00 -6.083593e+00 -4.604442e+00 -5.470979e+00 1.397076e+00 -2.830499e-01 -1.629562e+00 7.007640e-01 2.659651e+00 3.340820e+00 3.290816e-02 -1.735238e-01 -3.625012e-01 -3.627358e-01 -1.769637e-01 2.254089e-01 4.766614e-01 2.827543e-01 2.371980e-01 1.767752e-01 8.445666e-02 6.974697e-02 8.193482e-02
<VARIANCE> 25
 2.840129e+01 3.570125e+01 4.138834e+01 4.038225e+01 4.118876e+01 4.148624e+01 4.739182e+01 4.747406e+01 4.473821e+01 4.189992e+01 3.449903e+01 2.805832e+01 3.302394e-01 8.424883e-01 9.393210e-01 1.242460e+00 1.324397e+00 1.496400e+00 1.901740e+00 1.780651e+00 1.803969e+00 1.726919e+00 1.430944e+00 1.179275e+00 3.783611e-01
<GCONST> 9.133002e+01
<STATE> 4
<MEAN> 25
 8.177530e+00 -2.680661e+00 -7.293503e+00 -5.932261e+00 -3.758124e+00 -2.794274e+00 1.176165e+00 -3.390664e-01 -1.368642e+00 2.573896e-01 2.133668e+00 3.287408e+00 -4.538044e-01 8.704351e-01 7.276899e-01 4.679444e-01 4.150407e-01 5.706517e-01 -1.937626e-01 -1.382255e-01 1.753797e-02 -1.629017e-01 -2.942949e-01 -3.140077e-01 -8.826797e-01
<VARIANCE> 25
 2.215926e+01 3.099335e+01 3.486272e+01 3.668752e+01 3.283007e+01 3.965223e+01 3.500597e+01 3.826480e+01 3.512437e+01 3.170736e+01 2.563973e+01 2.200531e+01 5.861269e-01 9.910762e-01 1.080531e+00 1.252255e+00 1.395680e+00 1.835312e+00 1.787168e+00 1.826652e+00 1.993582e+00 1.853269e+00 1.609923e+00 1.318195e+00 6.483233e-01
<GCONST> 9.086413e+01
~t "T_a"
<ENDHMM>
~h "a+r"
<BEGINHMM>
<NUMSTATES> 5
<STATE> 2
<MEAN> 25
 8.084209e+00 -3.246555e+00 -4.886938e+00 -2.890126e+00 -1.922659e+00 -4.591505e+00 -1.062124e+00 -1.533606e+00 -3.011539e+00 -1.419097e+00 7.822737e-01 1.974153e+00 8.531939e-01 -1.219489e+00 -1.591901e+00 -1.511451e+00 -1.099942e+00 -1.081241e+00 3.296968e-01 2.435892e-01 2.131322e-01 7.433307e-01 1.096173e+00 1.076555e+00 1.531909e+00
<VARIANCE> 25
 3.102556e+01 3.982352e+01 4.648204e+01 6.052976e+01 4.865224e+01 5.364120e+01 4.957391e+01 5.206113e+01 4.994263e+01 4.377484e+01 3.566540e+01 3.010361e+01 2.105191e+00 2.133569e+00 2.607650e+00 3.361774e+00 2.917656e+00 3.954443e+00 3.398865e+00 3.319243e+00 3.668817e+00 4.076825e+00 3.093344e+00 2.673295e+00 1.675560e+00
<GCONST> 1.052759e+02
<STATE> 3
<MEAN> 25
 9.462610e+00 -6.897775e+00 -8.743549e+00 -6.083593e+00 -4.604442e+00 -5.470979e+00 1.397076e+00 -2.830499e-01 -1.629562e+00 7.007640e-01 2.659651e+00 3.340820e+00 3.290816e-02 -1.735238e-01 -3.625012e-01 -3.627358e-01 -1.769637e-01 2.254089e-01 4.766614e-01 2.827543e-01 2.371980e-01 1.767752e-01 8.445666e-02 6.974697e-02 8.193482e-02
<VARIANCE> 25
 2.840129e+01 3.570125e+01 4.138834e+01 4.038225e+01 4.118876e+01 4.148624e+01 4.739182e+01 4.747406e+01 4.473821e+01 4.189992e+01 3.449903e+01 2.805832e+01 3.302394e-01 8.424883e-01 9.393210e-01 1.242460e+00 1.324397e+00 1.496400e+00 1.901740e+00 1.780651e+00 1.803969e+00 1.726919e+00 1.430944e+00 1.179275e+00 3.783611e-01
<GCONST> 9.133002e+01
<STATE> 4
<MEAN> 25
 8.177530e+00 -2.680661e+00 -7.293503e+00 -5.932261e+00 -3.758124e+00 -2.794274e+00 1.176165e+00 -3.390664e-01 -1.368642e+00 2.573896e-01 2.133668e+00 3.287408e+00 -4.538044e-01 8.704351e-01 7.276899e-01 4.679444e-01 4.150407e-01 5.706517e-01 -1.937626e-01 -1.382255e-01 1.753797e-02 -1.629017e-01 -2.942949e-01 -3.140077e-01 -8.826797e-01
<VARIANCE> 25
 2.215926e+01 3.099335e+01 3.486272e+01 3.668752e+01 3.283007e+01 3.965223e+01 3.500597e+01 3.826480e+01 3.512437e+01 3.170736e+01 2.563973e+01 2.200531e+01 5.861269e-01 9.910762e-01 1.080531e+00 1.252255e+00 1.395680e+00 1.835312e+00 1.787168e+00 1.826652e+00 1.993582e+00 1.853269e+00 1.609923e+00 1.318195e+00 6.483233e-01
<GCONST> 9.086413e+01
~t "T_a"
<ENDHMM>
~h "a+s"
<BEGINHMM>
<NUMSTATES> 5
<STATE> 2
<MEAN> 25
 8.084209e+00 -3.246555e+00 -4.886938e+00 -2.890126e+00 -1.922659e+00 -4.591505e+00 -1.062124e+00 -1.533606e+00 -3.011539e+00 -1.419097e+00 7.822737e-01 1.974153e+00 8.531939e-01 -1.219489e+00 -1.591901e+00 -1.511451e+00 -1.099942e+00 -1.081241e+00 3.296968e-01 2.435892e-01 2.131322e-01 7.433307e-01 1.096173e+00 1.076555e+00 1.531909e+00
<VARIANCE> 25
 3.102556e+01 3.982352e+01 4.648204e+01 6.052976e+01 4.865224e+01 5.364120e+01 4.957391e+01 5.206113e+01 4.994263e+01 4.377484e+01 3.566540e+01 3.010361e+01 2.105191e+00 2.133569e+00 2.607650e+00 3.361774e+00 2.917656e+00 3.954443e+00 3.398865e+00 3.319243e+00 3.668817e+00 4.076825e+00 3.093344e+00 2.673295e+00 1.675560e+00
<GCONST> 1.052759e+02
<STATE> 3
<MEAN> 25
 9.462610e+00 -6.897775e+00 -8.743549e+00 -6.083593e+00 -4.604442e+00 -5.470979e+00 1.397076e+00 -2.830499e-01 -1.629562e+00 7.007640e-01 2.659651e+00 3.340820e+00 3.290816e-02 -1.735238e-01 -3.625012e-01 -3.627358e-01 -1.769637e-01 2.254089e-01 4.766614e-01 2.827543e-01 2.371980e-01 1.767752e-01 8.445666e-02 6.974697e-02 8.193482e-02
<VARIANCE> 25
 2.840129e+01 3.570125e+01 4.138834e+01 4.038225e+01 4.118876e+01 4.148624e+01 4.739182e+01 4.747406e+01 4.473821e+01 4.189992e+01 3.449903e+01 2.805832e+01 3.302394e-01 8.424883e-01 9.393210e-01 1.242460e+00 1.324397e+00 1.496400e+00 1.901740e+00 1.780651e+00 1.803969e+00 1.726919e+00 1.430944e+00 1.179275e+00 3.783611e-01
<GCONST> 9.133002e+01
<STATE> 4
<MEAN> 25
 8.177530e+00 -2.680661e+00 -7.293503e+00 -5.932261e+00 -3.758124e+00 -2.794274e+00 1.176165e+00 -3.390664e-01 -1.368642e+00 2.573896e-01 2.133668e+00 3.287408e+00 -4.538044e-01 8.704351e-01 7.276899e-01 4.679444e-01 4.150407e-01 5.706517e-01 -1.937626e-01 -1.382255e-01 1.753797e-02 -1.629017e-01 -2.942949e-01 -3.140077e-01 -8.826797e-01
<VARIANCE> 25
 2.215926e+01 3.099335e+01 3.486272e+01 3.668752e+01 3.283007e+01 3.965223e+01 3.500597e+01 3.826480e+01 3.512437e+01 3.170736e+01 2.563973e+01 2.200531e+01 5.861269e-01 9.910762e-01 1.080531e+00 1.252255e+00 1.395680e+00 1.835312e+00 1.787168e+00 1.826652e+00 1.993582e+00 1.853269e+00 1.609923e+00 1.318195e+00 6.483233e-01
<GCONST> 9.086413e+01
~t "T_a"
<ENDHMM>
~h "a+t"
<BEGINHMM>
<NUMSTATES> 5
<STATE> 2
<MEAN> 25
 8.084209e+00 -3.246555e+00 -4.886938e+00 -2.890126e+00 -1.922659e+00 -4.591505e+00 -1.062124e+00 -1.533606e+00 -3.011539e+00 -1.419097e+00 7.822737e-01 1.974153e+00 8.531939e-01 -1.219489e+00 -1.591901e+00 -1.511451e+00 -1.099942e+00 -1.081241e+00 3.296968e-01 2.435892e-01 2.131322e-01 7.433307e-01 1.096173e+00 1.076555e+00 1.531909e+00
<VARIANCE> 25
 3.102556e+01 3.982352e+01 4.648204e+01 6.052976e+01 4.865224e+01 5.364120e+01 4.957391e+01 5.206113e+01 4.994263e+01 4.377484e+01 3.566540e+01 3.010361e+01 2.105191e+00 2.133569e+00 2.607650e+00 3.361774e+00 2.917656e+00 3.954443e+00 3.398865e+00 3.319243e+00 3.668817e+00 4.076825e+00 3.093344e+00 2.673295e+00 1.675560e+00
<GCONST> 1.052759e+02
<STATE> 3
<MEAN> 25
 9.462610e+00 -6.897775e+00 -8.743549e+00 -6.083593e+00 -4.604442e+00 -5.470979e+00 1.397076e+00 -2.830499e-01 -1.629562e+00 7.007640e-01 2.659651e+00 3.340820e+00 3.290816e-02 -1.735238e-01 -3.625012e-01 -3.627358e-01 -1.769637e-01 2.254089e-01 4.766614e-01 2.827543e-01 2.371980e-01 1.767752e-01 8.445666e-02 6.974697e-02 8.193482e-02
<VARIANCE> 25
 2.840129e+01 3.570125e+01 4.138834e+01 4.038225e+01 4.118876e+01 4.148624e+01 4.739182e+01 4.747406e+01 4.473821e+01 4.189992e+01 3.449903e+01 2.805832e+01 3.302394e-01 8.424883e-01 9.393210e-01 1.242460e+00 1.324397e+00 1.496400e+00 1.901740e+00 1.780651e+00 1.803969e+00 1.726919e+00 1.430944e+00 1.179275e+00 3.783611e-01
<GCONST> 9.133002e+01
<STATE> 4
<MEAN> 25
 8.177530e+00 -2.680661e+00 -7.293503e+00 -5.932261e+00 -3.758124e+00 -2.794274e+00 1.176165e+00 -3.390664e-01 -1.368642e+00 2.573896e-01 2.133668e+00 3.287408e+00 -4.538044e-01 8.704351e-01 7.276899e-01 4.679444e-01 4.150407e-01 5.706517e-01 -1.937626e-01 -1.382255e-01 1.753797e-02 -1.629017e-01 -2.942949e-01 -3.140077e-01 -8.826797e-01
<VARIANCE> 25
 2.215926e+01 3.099335e+01 3.486272e+01 3.668752e+01 3.283007e+01 3.965223e+01 3.500597e+01 3.826480e+01 3.512437e+01 3.170736e+01 2.563973e+01 2.200531e+01 5.861269e-01 9.910762e-01 1.080531e+00 1.252255e+00 1.395680e+00 1.835312e+00 1.787168e+00 1.826652e+00 1.993582e+00 1.853269e+00 1.609923e+00 1.318195e+00 6.483233e-01
<GCONST> 9.086413e+01
~t "T_a"
<ENDHMM>
~h "a+u"
<BEGINHMM>
<NUMSTATES> 5
<STATE> 2
<MEAN> 25
 8.084209e+00 -3.246555e+00 -4.886938e+00 -2.890126e+00 -1.922659e+00 -4.591505e+00 -1.062124e+00 -1.533606e+00 -3.011539e+00 -1.419097e+00 7.822737e-01 1.974153e+00 8.531939e-01 -1.219489e+00 -1.591901e+00 -1.511451e+00 -1.099942e+00 -1.081241e+00 3.296968e-01 2.435892e-01 2.131322e-01 7.433307e-01 1.096173e+00 1.076555e+00 1.531909e+00
<VARIANCE> 25
 3.102556e+01 3.982352e+01 4.648204e+01 6.052976e+01 4.865224e+01 5.364120e+01 4.957391e+01 5.206113e+01 4.994263e+01 4.377484e+01 3.566540e+01 3.010361e+01 2.105191e+00 2.133569e+00 2.607650e+00 3.361774e+00 2.917656e+00 3.954443e+00 3.398865e+00 3.319243e+00 3.668817e+00 4.076825e+00 3.093344e+00 2.673295e+00 1.675560e+00
<GCONST> 1.052759e+02
<STATE> 3
<MEAN> 25
 9.462610e+00 -6.897775e+00 -8.743549e+00 -6.083593e+00 -4.604442e+00 -5.470979e+00 1.397076e+00 -2.830499e-01 -1.629562e+00 7.007640e-01 2.659651e+00 3.340820e+00 3.290816e-02 -1.735238e-01 -3.625012e-01 -3.627358e-01 -1.769637e-01 2.254089e-01 4.766614e-01 2.827543e-01 2.371980e-01 1.767752e-01 8.445666e-02 6.974697e-02 8.193482e-02
<VARIANCE> 25
 2.840129e+01 3.570125e+01 4.138834e+01 4.038225e+01 4.118876e+01 4.148624e+01 4.739182e+01 4.747406e+01 4.473821e+01 4.189992e+01 3.449903e+01 2.805832e+01 3.302394e-01 8.424883e-01 9.393210e-01 1.242460e+00 1.324397e+00 1.496400e+00 1.901740e+00 1.780651e+00 1.803969e+00 1.726919e+00 1.430944e+00 1.179275e+00 3.783611e-01
<GCONST> 9.133002e+01
<STATE> 4
<MEAN> 25
 8.177530e+00 -2.680661e+00 -7.293503e+00 -5.932261e+00 -3.758124e+00 -2.794274e+00 1.176165e+00 -3.390664e-01 -1.368642e+00 2.573896e-01 2.133668e+00 3.287408e+00 -4.538044e-01 8.704351e-01 7.276899e-01 4.679444e-01 4.150407e-01 5.706517e-01 -1.937626e-01 -1.382255e-01 1.753797e-02 -1.629017e-01 -2.942949e-01 -3.140077e-01 -8.826797e-01
<VARIANCE> 25
 2.215926e+01 3.099335e+01 3.486272e+01 3.668752e+01 3.283007e+01 3.965223e+01 3.500597e+01 3.826480e+01 3.512437e+01 3.170736e+01 2.563973e+01 2.200531e+01 5.861269e-01 9.910762e-01 1.080531e+00 1.252255e+00 1.395680e+00 1.835312e+00 1.787168e+00 1.826652e+00 1.993582e+00 1.853269e+00 1.609923e+00 1.318195e+00 6.483233e-01
<GCONST> 9.086413e+01
~t "T_a"
<ENDHMM>
~h "a-d"
<BEGINHMM>
<NUMSTATES> 5
<STATE> 2
<MEAN> 25
 4.986747e+00 1.173107e+00 -3.532605e-03 -2.869664e-01 -8.792292e-01 -2.943893e-01 -1.157155e-01 -1.781017e+00 -2.767115e+00 -2.582419e+00 -1.706980e+00 -5.448081e-01 -2.492582e-01 7.052330e-01 5.542889e-01 4.937656e-01 3.336083e-01 7.560925e-01 3.487482e-01 9.874161e-02 5.457619e-02 -1.007866e-01 -2.741712e-01 -1.678351e-01 -6.813607e-01
<VARIANCE> 25
 3.575130e+01 4.199368e+01 4.126587e+01 5.860994e+01 5.800882e+01 5.540382e+01 4.170780e+01 4.906739e+01 4.723788e+01 3.940030e+01 2.930230e+01 2.850399e+01 1.251378e+00 1.493562e+00 1.629822e+00 2.081238e+00 2.239027e+00 2.528253e+00 2.284125e+00 2.485779e+00 2.461237e+00 2.372278e+00 2.008663e+00 1.836602e+00 1.659663e+00
<GCONST> 9.990127e+01
<STATE> 3
<MEAN> 25
 4.914427e+00 1.635913e+00 8.481176e-01 5.874320e-01 -1.860407e-01 2.406812e-01 -3.938809e-02 -1.716778e+00 -2.743559e+00 -2.302445e+00 -1.865128e+00 -5.342951e-01 -2.087076e-01 3.739429e-02 2.673025e-01 1.669757e-01 1.145322e-01 1.772111e-01 9.942254e-02 -5.373251e-02 -6.358257e-02 -4.126178e-02 1.807586e-02 1.027398e-01 -1.237136e-01
<VARIANCE> 25
 2.888018e+01 4.287783e+01 4.231509e+01 5.601795e+01 5.643327e+01 5.696796e+01 4.082035e+01 4.643125e+01 4.334551e+01 3.674223e+01 2.845123e+01 2.631162e+01 6.074597e-01 9.825633e-01 1.005929e+00 1.402578e+00 1.643439e+00 1.440409e+00 1.691248e+00 1.775282e+00 1.692227e+00 1.545876e+00 1.368715e+00 1.293374e+00 5.901869e-01
<GCONST> 9.324805e+01
<STATE> 4
<MEAN> 25
 4.336635e+00 1.898943e+00 1.592930e+00 1.054985e+00 7.405771e-02 9.789971e-01 5.451074e-02 -1.993555e+00 -2.809552e+00 -2.274028e+00 -1.686451e+00 -2.280605e-01 4.773585e-02 -5.405355e-01 -1.993422e-02 -3.128903e-02 -5.543578e-02 -4.109922e-01 -2.349472e-01 -2.260227e-01 -2.361541e-01 -3.670364e-05 2.079962e-01 2.329595e-01 4.070511e-01
<VARIANCE> 25
 2.717667e+01 4.477932e+01 4.206721e+01 5.259300e+01 5.149903e+01 5.344878e+01 3.844084e+01 4.642159e+01 4.322847e+01 3.436483e+01 2.569947e+01 2.370034e+01 4.915567e-01 1.268307e+00 9.630365e-01 1.468139e+00 1.692315e+00 1.473882e+00 1.775575e+00 2.010480e+00 1.839599e+00 1.618163e+00 1.409668e+00 1.328542e+00 7.107434e-01
<GCONST> 9.331273e+01
~t "T_d"
<ENDHMM>
~h "a-g"
<BEGINHMM>
<NUMSTATES> 5
<STATE> 2
<MEAN> 25
 4.635559e+00 5.363365e-01 8.743733e-02 3.524290e-01 2.229798e+00 -1.743833e+00 -1.579602e+00 -2.043766e+00 -2.718624e+00 -2.152016e+00 -2.397058e+00 -2.887682e+00 -4.716252e-02 1.557592e-01 -1.047090e-03 -1.243150e-01 -1.916994e-01 4.209527e-03 1.893945e-01 -1.626682e-01 -2.188310e-01 -1.203275e-01 1.739263e-01 9.188620e-02 -8.254285e-02
<VARIANCE> 25
 3.401551e+01 4.746745e+01 6.590588e+01 6.888592e+01 6.231248e+01 4.789571e+01 4.945169e+01 4.794329e+01 4.512083e+01 4.021106e+01 3.828913e+01 3.100824e+01 1.276815e+00 2.578767e+00 2.202086e+00 2.691261e+00 3.435740e+00 3.242736e+00 3.975471e+00 4.328651e+00 3.473794e+00 3.157657e+00 2.566085e+00 2.366839e+00 2.285003e+00
<GCONST> 1.053621e+02
<STATE> 3
<MEAN> 25
 5.764225e+00 3.891699e-01 -5.608481e-01 1.503215e+00 2.225826e+00 -2.072252e+00 -2.398549e+00 -2.813673e+00 -3.874879e+00 -2.397335e+00 -1.524217e+00 -2.210126e+00 3.092694e-01 -2.237352e-01 -3.254337e-01 -4.003477e-01 -4.933417e-01 -6.627559e-01 -2.823527e-01 -4.113862e-01 -2.297902e-01 5.927902e-03 3.290078e-01 4.026391e-01 4.842063e-01
<VARIANCE> 25
 3.381005e+01 4.374036e+01 6.482644e+01 5.705393e+01 5.706469e+01 4.893034e+01 4.398737e+01 4.758787e+01 4.533967e+01 4.081097e+01 3.519007e+01 3.081927e+01 1.034496e+00 2.682821e+00 2.113194e+00 2.702207e+00 3.681077e+00 3.302796e+00 3.798752e+00 4.138144e+00 3.182972e+00 2.662963e+00 2.501869e+00 2.575583e+00 2.035024e+00
<GCONST> 1.042816e+02
<STATE> 4
<MEAN> 25
 5.245019e+00 -7.963865e-01 -1.977029e+00 -2.131719e-01 1.307271e+00 -3.815542e+00 -2.609585e+00 -4.350823e+00 -2.867312e+00 -1.488320e+00 -1.081758e-02 -1.045275e+00 3.514531e-01 -1.762642e-01 -2.754835e-01 -4.325965e-01 -5.898843e-01 -6.183972e-01 -2.581686e-01 -1.215939e-01 8.153636e-02 1.697690e-01 2.150972e-01 3.137886e-01 3.792997e-01
<VARIANCE> 25
 4.054366e+01 6.239736e+01 6.931887e+01 6.282769e+01 6.256241e+01 5.861941e+01 4.958038e+01 5.950143e+01 6.179900e+01 4.873711e+01 4.745664e+01 4.696631e+01 9.160993e-01 2.332375e+00 2.254871e+00 2.718161e+00 3.564646e+00 3.590911e+00 3.101396e+00 3.462668e+00 3.134885e+00 2.632264e+00 2.810844e+00 2.733017e+00 1.779732e+00
<GCONST> 1.062998e+02
~t "T_g"
<ENDHMM>
~h "a-i"
<BEGINHMM>
<NUMSTATES> 5
<STATE> 2
<MEAN> 25
 2.824880e+00 -2.961581e+00 4.292364e+00 7.499251e+00 7.346193e+00 -2.067250e+00 -5.297520e+00 -2.873806e+00 -2.378581e+00 -1.973293e+00 -2.520489e+00 -3.736685e+00 1.015099e+00 -9.724852e-01 2.479329e-01 2.179622e+00 1.426837e+00 -2.128228e+00 -2.309814e+00 -3.848035e-01 -7.270547e-01 -7.560874e-01 -6.794949e-01 -8.365397e-01 1.175898e+00
<VARIANCE> 25
 3.374600e+01 3.967356e+01 6.750194e+01 6.375350e+01 5.781096e+01 6.437442e+01 4.980933e+01 4.415491e+01 4.445846e+01 3.540117e+01 3.356274e+01 2.704606e+01 3.132528e+00 4.137255e+00 3.621446e+00 4.487921e+00 4.215056e+00 5.312013e+00 4.005538e+00 3.824685e+00 4.409300e+00 4.209664e+00 3.923692e+00 2.984154e+00 1.617640e+00
<GCONST> 1.086541e+02
<STATE> 3
<MEAN> 25
 3.691633e+00 -6.378765e+00 6.166086e+00 1.236009e+01 7.380941e+00 -9.047977e+00 -9.580333e+00 -1.629763e+00 -3.102339e+00 -4.599288e+00 -4.548250e+00 -5.048493e+00 8.359629e-02 -2.991736e-01 1.296623e-01 4.305927e-01 9.667514e-03 -8.290642e-01 -5.818837e-01 1.603395e-01 8.957740e-02 -1.876646e-01 -1.591199e-01 -1.092843e-01 2.681427e-01
<VARIANCE> 25
 2.149308e+01 3.103732e+01 4.970968e+01 5.873264e+01 7.158559e+01 6.920425e+01 3.966159e+01 4.495304e+01 4.204121e+01 4.275245e+01 4.102441e+01 2.954641e+01 6.639252e-01 9.264812e-01 1.883231e+00 1.858640e+00 1.558079e+00 2.146437e+00 1.929194e+00 2.097977e+00 1.840118e+00 1.884095e+00 1.595546e+00 1.333590e+00 5.259222e-01
<GCONST> 9.574519e+01
<STATE> 4
<MEAN> 25
 4.036044e+00 -4.218312e+00 4.209880e+00 1.037407e+01 7.996428e+00 -6.247262e+00 -9.419474e+00 -3.331409e+00 -2.663913e+00 -2.918104e+00 -3.142705e+00 -4.376024e+00 3.821991e-02 8.336469e-01 -6.000085e-01 -1.181883e+00 -5.675405e-01 1.117856e+00 8.718380e-01 -2.187419e-01 -3.897155e-02 3.511441e-01 4.869802e-01 5.886047e-01 -5.325214e-01
<VARIANCE> 25
 1.972391e+01 3.227742e+01 4.309776e+01 5.167957e+01 5.495691e+01 6.691110e+01 3.850472e+01 4.351723e+01 4.154246e+01 3.556070e+01 3.517086e+01 2.803684e+01 6.999541e-01 1.390189e+00 1.663853e+00 1.824908e+00 1.964548e+00 2.784639e+00 2.501812e+00 2.236512e+00 2.341234e+00 2.148965e+00 1.947036e+00 1.699689e+00 1.056007e+00
<GCONST> 9.730878e+01
~t "T_i"
<ENDHMM>
~h "a-l"
<BEGINHMM>
<NUMSTATES> 5
<STATE> 2
<MEAN> 25
 6.314451e+00 -2.836339e+00 -2.415431e+00 2.781851e+00 1.947059e+00 -2.800302e+00 -2.661815e+00 -2.324516e+00 -3.876258e+00 -3.683601e+00 -1.570764e+00 7.563966e-02 3.129438e-01 4.277349e-01 7.984434e-01 1.918523e+00 1.017305e+00 4.531452e-01 -1.293264e-01 2.709396e-01 -7.299022e-01 -1.606042e+00 -1.354267e+00 -7.730924e-01 -6.160657e-01
<VARIANCE> 25
 3.768519e+01 4.112976e+01 4.717404e+01 6.522243e+01 4.798243e+01 5.569359e+01 4.089912e+01 4.426613e+01 5.019736e+01 4.535135e+01 3.915966e+01 3.028901e+01 1.699836e+00 1.977105e+00 2.316171e+00 3.031282e+00 2.905935e+00 4.508301e+00 3.719640e+00 4.100824e+00 4.742221e+00 3.786747e+00 3.138241e+00 2.508972e+00 2.132987e+00
<GCONST> 1.056931e+02
<STATE> 3
<MEAN> 25
 7.308776e+00 -2.116291e+00 -5.915496e-01 8.047751e+00 4.512689e+00 -2.649817e+00 -3.380396e+00 -8.267048e-01 -5.005058e+00 -7.383716e+00 -4.765788e+00 -2.091391e+00 -2.042886e-01 4.120783e-01 5.339515e-01 7.017787e-01 3.444184e-01 2.565898e-01 1.210279e-01 4.571145e-01 1.694299e-01 -4.738842e-01 -6.538218e-01 -4.505804e-01 -4.639952e-01
<VARIANCE> 25
 2.202492e+01 3.481960e+01 3.887338e+01 6.391379e+01 4.331805e+01 4.796937e+01 4.158508e+01 4.477020e+01 4.591209e+01 3.888554e+01 3.268353e+01 2.532600e+01 8.968565e-01 1.265179e+00 1.520058e+00 2.136260e+00 1.615692e+00 2.971242e+00 2.029787e+00 2.106359e+00 2.521566e+00 2.456026e+00 1.921850e+00 1.679168e+00 9.447469e-01
<GCONST> 9.704557e+01
<STATE> 4
<MEAN> 25
 5.966500e+00 -3.820904e-01 3.151454e-01 7.105481e+00 4.340966e+00 -1.720254e+00 -3.097861e+00 -7.825651e-01 -3.803820e+00 -6.722578e+00 -5.169729e+00 -2.231982e+00 -1.248948e-01 3.641126e-02 -1.620759e-01 -8.538845e-01 -4.337227e-01 -1.165125e-01 1.175181e-01 -1.721042e-01 8.785849e-02 4.827425e-01 5.441091e-01 3.938914e-01 1.508765e-01
<VARIANCE> 25
 2.100273e+01 3.151579e+01 3.614806e+01 5.096074e+01 3.741170e+01 4.566805e+01 3.924998e+01 3.931923e+01 4.211623e+01 3.813666e+01 3.033226e+01 2.373476e+01 8.690925e-01 1.079303e+00 1.530230e+00 2.250370e+00 1.643832e+00 2.437176e+00 1.802907e+00 2.009850e+00 2.136790e+00 2.217616e+00 1.925478e+00 1.643911e+00 9.747648e-01
<GCONST> 9.523684e+01
~t "T_l"
<ENDHMM>
~h "a-n"
<BEGINHMM>
<NUMSTATES> 5
<STATE> 2
<MEAN> 25
 7.169885e+00 3.457295e-01 -9.706034e-01 1.822969e+00 2.203207e+00 -1.710077e+00 -1.541217e+00 -6.925409e-01 -3.499932e+00 -2.178467e+00 -7.829415e-01 -1.847775e+00 -1.776564e-01 1.685531e+00 6.899630e-01 1.139801e+00 6.890932e-01 2.057916e+00 4.165332e-01 -6.090450e-01 -1.683788e-01 -9.237592e-02 -7.342267e-01 -1.250047e+00 -1.560356e+00
<VARIANCE> 25
 2.165102e+01 3.528417e+01 4.496836e+01 6.788055e+01 4.849240e+01 5.297578e+01 4.589392e+01 4.388946e+01 4.575230e+01 3.900736e+01 3.414560e+01 3.704768e+01 9.116951e-01 1.700086e+00 1.786228e+00 4.035296e+00 3.243808e+00 3.321929e+00 3.851503e+00 3.338852e+00 3.444288e+00 2.962204e+00 2.780899e+00 2.558904e+00 1.011466e+00
<GCONST> 1.023394e+02
<STATE> 3
<MEAN> 25
 6.451331e+00 3.805457e+00 7.997720e-01 4.104099e+00 3.209973e+00 1.771652e+00 -1.687927e+00 -2.346424e+00 -2.799612e+00 -1.867672e+00 -2.654003e+00 -4.671466e+00 -4.288488e-01 8.661700e-01 6.104125e-01 6.183404e-01 3.940374e-01 1.045232e+00 2.131816e-01 -3.304687e-01 1.941549e-01 1.693209e-01 -3.405662e-01 -4.656930e-01 -8.459170e-01
<VARIANCE> 25
 1.605801e+01 2.327610e+01 3.427949e+01 4.943877e+01 3.551352e+01 4.001220e+01 3.662941e+01 3.266262e+01 4.372853e+01 3.314529e+01 2.653506e+01 2.688600e+01 4.240589e-01 7.692712e-01 1.020777e+00 1.824027e+00 1.598796e+00 1.636005e+00 1.955104e+00 1.795479e+00 2.067024e+00 1.608387e+00 1.611071e+00 1.827414e+00 4.028325e-01
<GCONST> 9.059154e+01
<STATE> 4
<MEAN> 25
 3.843240e+00 4.976631e+00 2.044346e+00 4.405276e+00 3.430595e+00 3.177998e+00 -7.137617e-01 -1.420924e+00 -8.184713e-01 -5.259312e-01 -2.154598e+00 -3.488309e+00 -4.377143e-01 -2.375585e-02 4.742600e-02 -6.740690e-02 -9.708463e-02 1.467522e-01 2.977267e-01 2.026634e-01 7.117245e-02 2.588364e-02 1.424470e-01 2.484765e-01 -3.065790e-01
<VARIANCE> 25
 1.843643e+01 1.784051e+01 2.607419e+01 3.130790e+01 2.558590e+01 2.868715e+01 2.686604e+01 2.596465e+01 3.096772e+01 2.389989e+01 1.980139e+01 1.923713e+01 4.635847e-01 5.872605e-01 8.780912e-01 9.187444e-01 9.726738e-01 1.154603e+00 1.138327e+00 1.124501e+00 1.193445e+00 1.121723e+00 1.058525e+00 1.099325e+00 4.008314e-01
<GCONST> 8.251925e+01
~t "T_n"
<ENDHMM>
~h "a-o"
<BEGINHMM>
<NUMSTATES> 5
<STATE> 2
<MEAN> 25
 8.202134e+00 8.756948e-01 -1.556870e+00 -2.412576e+00 -4.135490e+00 -5.283045e+00 -1.325630e+00 5.514442e-01 -3.256593e+00 -4.464030e+00 -3.179199e+00 -1.018459e+00 8.533680e-01 5.628624e-02 -4.272498e-01 -1.163086e+00 -1.742013e+00 -1.833407e+00 -1.006363e-01 8.327968e-01 2.565329e-01 -1.784475e-01 -2.551433e-01 1.000556e-01 7.841955e-01
<VARIANCE> 25
 2.727819e+01 4.614404e+01 4.546624e+01 5.624189e+01 6.257309e+01 6.102062e+01 4.518742e+01 4.939813e+01 5.469617e+01 4.219932e+01 3.056493e+01 2.847985e+01 1.604221e+00 2.714622e+00 2.414845e+00 3.306103e+00 3.399673e+00 4.293542e+00 4.410888e+00 3.910635e+00 3.812121e+00 3.509329e+00 2.851977e+00 2.694980e+00 1.552250e+00
<GCONST> 1.055529e+02
<STATE> 3
<MEAN> 25
 9.608891e+00 1.841884e+00 -1.624231e+00 -4.843653e+00 -1.056682e+01 -1.047259e+01 -3.275502e-01 4.228262e+00 -8.981493e-01 -3.707518e+00 -3.771726e+00 -1.847208e+00 -1.603226e-01 3.746803e-01 2.492852e-02 -5.283350e-02 -1.316152e-01 2.060792e-01 2.320018e-01 3.473101e-01 4.636069e-01 2.421327e-01 -1.011645e-03 -9.001540e-02 -4.208844e-01
<VARIANCE> 25
 2.191664e+01 3.832346e+01 3.536129e+01 4.552036e+01 5.146196e+01 5.402416e+01 4.532333e+01 4.316967e+01 5.194213e+01 3.791486e+01 2.724122e+01 2.477335e+01 5.759985e-01 1.296905e+00 1.329783e+00 1.436117e+00 2.015944e+00 2.854960e+00 1.984985e+00 2.227589e+00 2.343580e+00 2.045362e+00 1.638120e+00 1.449960e+00 1.066268e+00
<GCONST> 9.576168e+01
<STATE> 4
<MEAN> 25
 5.920141e+00 4.729104e+00 -6.619071e-01 -3.592440e+00 -6.668617e+00 -4.437122e+00 3.776827e-01 3.175261e+00 9.050462e-01 -1.454790e+00 -2.326509e+00 -1.249121e+00 -6.257654e-01 -3.906129e-02 1.678127e-01 4.218079e-01 7.039407e-01 9.980335e-01 2.885799e-01 -2.038472e-01 -1.773957e-02 1.877047e-01 2.155907e-01 8.154663e-02 -5.345345e-01
<VARIANCE> 25
 2.381943e+01 3.168683e+01 3.073319e+01 3.372535e+01 3.205265e+01 4.222814e+01 3.201194e+01 3.300840e+01 3.498757e+01 3.150789e+01 2.243595e+01 1.901501e+01 4.852379e-01 7.335701e-01 1.011674e+00 1.084659e+00 1.496157e+00 1.967000e+00 1.648281e+00 1.688958e+00 1.686677e+00 1.518985e+00 1.305284e+00 1.193857e+00 3.831035e-01
<GCONST> 8.833953e+01
~t "T_o"
<ENDHMM>
~h "a-r"
<BEGINHMM>
<NUMSTATES> 5
<STATE> 2
<MEAN> 25
 8.643217e+00 -2.787229e+00 -6.224000e+00 -3.124852e+00 1.355937e+00 -3.755785e+00 -4.512966e+00 -3.933424e+00 -2.882520e+00 -2.216112e+00 -7.354643e-01 1.580987e+00 1.561792e-01 8.974332e-01 -3.782570e-01 5.168830e-01 1.252811e+00 1.208448e+00 -3.267309e-01 -2.546778e-01 -2.021774e-01 -5.815746e-01 -5.138835e-01 -2.330100e-02 -1.076871e+00
<VARIANCE> 25
 3.211975e+01 4.498290e+01 5.062462e+01 5.935705e+01 5.828969e+01 5.106108e+01 4.451467e+01 4.801496e+01 4.760433e+01 4.023750e+01 3.850442e+01 3.225385e+01 1.654517e+00 2.112823e+00 2.382579e+00 2.979533e+00 3.407424e+00 4.447104e+00 3.988335e+00 3.638894e+00 3.461148e+00 2.960581e+00 2.838124e+00 2.399935e+00 1.986631e+00
<GCONST> 1.051154e+02
<STATE> 3
<MEAN> 25
 7.898341e+00 6.769122e-01 -5.980435e+00 -1.402799e+00 3.525082e+00 4.491480e-01 -3.918551e+00 -3.587373e+00 -2.649347e+00 -2.842372e+00 -1.689278e+00 1.021962e+00 -7.756338e-01 7.563383e-01 5.502752e-01 8.270113e-01 2.798240e-01 1.325491e+00 7.032835e-01 3.596233e-01 3.082208e-01 -5.154090e-03 -2.048264e-01 -3.199293e-01 -1.361292e+00
<VARIANCE> 25
 2.876068e+01 3.251756e+01 4.847742e+01 5.875251e+01 4.849226e+01 4.357820e+01 4.282160e+01 3.805943e+01 3.575104e+01 3.216047e+01 2.785275e+01 2.531534e+01 1.549412e+00 2.112714e+00 2.763809e+00 3.039823e+00 3.358799e+00 3.590118e+00 3.448425e+00 3.136224e+00 3.408474e+00 2.967985e+00 2.623605e+00 2.237263e+00 1.636310e+00
<GCONST> 1.021613e+02
<STATE> 4
<MEAN> 25
 5.412677e+00 1.833103e+00 -4.028427e+00 -5.085419e-01 2.267809e+00 2.085018e+00 -1.665371e+00 -2.343382e+00 -1.808912e+00 -2.284674e+00 -1.413052e+00 3.313459e-01 -4.867756e-01 -6.988044e-02 4.821670e-01 3.639740e-01 -2.038538e-01 -1.353530e-01 2.935330e-01 3.202356e-01 4.707072e-02 1.700878e-01 1.382703e-01 -1.182176e-01 -2.790100e-01
<VARIANCE> 25
 2.738630e+01 3.117259e+01 4.332304e+01 4.824800e+01 3.927319e+01 3.631243e+01 3.395251e+01 3.381007e+01 3.105561e+01 2.732073e+01 2.547030e+01 2.190276e+01 1.094292e+00 1.505075e+00 2.021805e+00 2.286807e+00 2.216540e+00 2.356158e+00 2.429886e+00 2.174607e+00 2.300617e+00 2.008530e+00 1.813168e+00 1.681972e+00 1.042680e+00
<GCONST> 9.575272e+01
~t "T_r"
<ENDHMM>
~h "a-s"
<BEGINHMM>
<NUMSTATES> 5
<STATE> 2
<MEAN> 25
 -2.672227e+00 -3.270423e+00 1.004953e+01 -4.440532e+00 1.809237e-01 1.463706e+00 2.479738e+00 -8.504221e-01 -6.740083e-01 7.527752e-01 2.025366e-01 -1.215088e-01 -2.952475e+00 -1.081467e+00 2.472686e+00 -1.170398e+00 1.552520e-01 9.225060e-01 1.190610e+00 1.466946e-02 5.599615e-01 4.710526e-01 5.590721e-01 2.782978e-01 2.598815e-01
<VARIANCE> 25
 6.090248e+01 4.096783e+01 9.645750e+01 7.985217e+01 7.116714e+01 6.051644e+01 6.688841e+01 7.043929e+01 5.318323e+01 4.527814e+01 3.572353e+01 2.664364e+01 3.096100e+00 3.809794e+00 4.041855e+00 4.010174e+00 3.633645e+00 4.631847e+00 3.728845e+00 3.332037e+00 3.740141e+00 3.394577e+00 2.906559e+00 2.198195e+00 1.359681e+00
<GCONST> 1.094882e+02
<STATE> 3
<MEAN> 25
 -1.388278e+01 -7.547144e+00 1.724523e+01 -1.016027e+01 5.564176e-01 9.960555e-01 5.586256e+00 -1.188120e+00 5.186584e-01 1.813791e+00 1.467571e+00 5.005577e-01 -2.925702e-01 -1.122364e-01 -2.537486e-01 7.632152e-02 -1.322451e-02 7.181087e-02 4.822661e-02 6.459653e-02 8.100856e-02 3.569933e-02 1.088791e-01 9.543600e-02 -2.908385e-01
<VARIANCE> 25
 7.703424e+01 8.092426e+01 1.181283e+02 1.229016e+02 1.058419e+02 8.350800e+01 7.997587e+01 8.339116e+01 7.095995e+01 5.324371e+01 4.210551e+01 2.871686e+01 2.398076e+00 1.604921e+00 2.021634e+00 2.360392e+00 1.573115e+00 1.834233e+00 1.877151e+00 1.805621e+00 1.722814e+00 1.544063e+00 1.343992e+00 1.183776e+00 8.760858e-01
<GCONST> 1.039959e+02
<STATE> 4
<MEAN> 25
 -6.362659e+00 -4.423155e+00 9.820220e+00 -4.903218e+00 -3.681852e-01 2.570100e+00 3.167925e+00 -5.793936e-01 -8.759587e-02 1.059100e+00 1.291414e+00 8.679242e-01 2.306367e+00 1.451382e+00 -1.806829e+00 1.135726e+00 -1.512867e-01 -5.723754e-03 -1.025580e+00 -6.012088e-02 -4.432604e-01 -4.086378e-01 -5.183563e-01 -1.828476e-01 -1.028221e+00
<VARIANCE> 25
 5.843802e+01 5.417876e+01 7.380061e+01 6.748988e+01 5.934891e+01 5.204456e+01 5.172548e+01 5.419441e+01 4.946672e+01 4.243489e+01 3.060479e+01 2.467298e+01 5.810026e+00 3.654878e+00 3.590863e+00 3.486390e+00 3.299611e+00 3.667934e+00 3.647548e+00 3.210599e+00 3.578302e+00 3.155891e+00 2.695603e+00 2.113597e+00 1.871167e+00
<GCONST> 1.080983e+02
~t "T_s"
<ENDHMM>
~h "rr-a+b"
<BEGINHMM>
<NUMSTATES> 5
<STATE> 2
<MEAN> 25
 8.084209e+00 -3.246555e+00 -4.886938e+00 -2.890126e+00 -1.922659e+00 -4.591505e+00 -1.062124e+00 -1.533606e+00 -3.011539e+00 -1.419097e+00 7.822737e-01 1.974153e+00 8.531939e-01 -1.219489e+00 -1.591901e+00 -1.511451e+00 -1.099942e+00 -1.081241e+00 3.296968e-01 2.435892e-01 2.131322e-01 7.433307e-01 1.096173e+00 1.076555e+00 1.531909e+00
<VARIANCE> 25
 3.102556e+01 3.982352e+01 4.648204e+01 6.052976e+01 4.865224e+01 5.364120e+01 4.957391e+01 5.206113e+01 4.994263e+01 4.377484e+01 3.566540e+01 3.010361e+01 2.105191e+00 2.133569e+00 2.607650e+00 3.361774e+00 2.917656e+00 3.954443e+00 3.398865e+00 3.319243e+00 3.668817e+00 4.076825e+00 3.093344e+00 2.673295e+00 1.675560e+00
<GCONST> 1.052759e+02
<STATE> 3
<MEAN> 25
 9.462610e+00 -6.897775e+00 -8.743549e+00 -6.083593e+00 -4.604442e+00 -5.470979e+00 1.397076e+00 -2.830499e-01 -1.629562e+00 7.007640e-01 2.659651e+00 3.340820e+00 3.290816e-02 -1.735238e-01 -3.625012e-01 -3.627358e-01 -1.769637e-01 2.254089e-01 4.766614e-01 2.827543e-01 2.371980e-01 1.767752e-01 8.445666e-02 6.974697e-02 8.193482e-02
<VARIANCE> 25
 2.840129e+01 3.570125e+01 4.138834e+01 4.038225e+01 4.118876e+01 4.148624e+01 4.739182e+01 4.747406e+01 4.473821e+01 4.189992e+01 3.449903e+01 2.805832e+01 3.302394e-01 8.424883e-01 9.393210e-01 1.242460e+00 1.324397e+00 1.496400e+00 1.901740e+00 1.780651e+00 1.803969e+00 1.726919e+00 1.430944e+00 1.179275e+00 3.783611e-01
<GCONST> 9.133002e+01
<STATE> 4
<MEAN> 25
 8.177530e+00 -2.680661e+00 -7.293503e+00 -5.932261e+00 -3.758124e+00 -2.794274e+00 1.176165e+00 -3.390664e-01 -1.368642e+00 2.573896e-01 2.133668e+00 3.287408e+00 -4.538044e-01 8.704351e-01 7.276899e-01 4.679444e-01 4.150407e-01 5.706517e-01 -1.937626e-01 -1.382255e-01 1.753797e-02 -1.629017e-01 -2.942949e-01 -3.140077e-01 -8.826797e-01
<VARIANCE> 25
 2.215926e+01 3.099335e+01 3.486272e+01 3.668752e+01 3.283007e+01 3.965223e+01 3.500597e+01 3.826480e+01 3.512437e+01 3.170736e+01 2.563973e+01 2.200531e+01 5.861269e-01 9.910762e-01 1.080531e+00 1.252255e+00 1.395680e+00 1.835312e+00 1.787168e+00 1.826652e+00 1.993582e+00 1.853269e+00 1.609923e+00 1.318195e+00 6.483233e-01
<GCONST> 9.086413e+01
~t "T_a"
<ENDHMM>
~h "rr-a+e"
<BEGINHMM>
<NUMSTATES> 5
<STATE> 2
<MEAN> 25
 8.084209e+00 -3.246555e+00 -4.886938e+00 -2.890126e+00 -1.922659e+00 -4.591505e+00 -1.062124e+00 -1.533606e+00 -3.011539e+00 -1.419097e+00 7.822737e-01 1.974153e+00 8.531939e-01 -1.219489e+00 -1.591901e+00 -1.511451e+00 -1.099942e+00 -1.081241e+00 3.296968e-01 2.435892e-01 2.131322e-01 7.433307e-01 1.096173e+00 1.076555e+00 1.531909e+00
<VARIANCE> 25
 3.102556e+01 3.982352e+01 4.648204e+01 6.052976e+01 4.865224e+01 5.364120e+01 4.957391e+01 5.206113e+01 4.994263e+01 4.377484e+01 3.566540e+01 3.010361e+01 2.105191e+00 2.133569e+00 2.607650e+00 3.361774e+00 2.917656e+00 3.954443e+00 3.398865e+00 3.319243e+00 3.668817e+00 4.076825e+00 3.093344e+00 2.673295e+00 1.675560e+00
<GCONST> 1.052759e+02
<STATE> 3
<MEAN> 25
 9.462610e+00 -6.897775e+00 -8.743549e+00 -6.083593e+00 -4.604442e+00 -5.470979e+00 1.397076e+00 -2.830499e-01 -1.629562e+00 7.007640e-01 2.659651e+00 3.340820e+00 3.290816e-02 -1.735238e-01 -3.625012e-01 -3.627358e-01 -1.769637e-01 2.254089e-01 4.766614e-01 2.827543e-01 2.371980e-01 1.767752e-01 8.445666e-02 6.974697e-02 8.193482e-02
<VARIANCE> 25
 2.840129e+01 3.570125e+01 4.138834e+01 4.038225e+01 4.118876e+01 4.148624e+01 4.739182e+01 4.747406e+01 4.473821e+01 4.189992e+01 3.449903e+01 2.805832e+01 3.302394e-01 8.424883e-01 9.393210e-01 1.242460e+00 1.324397e+00 1.496400e+00 1.901740e+00 1.780651e+00 1.803969e+00 1.726919e+00 1.430944e+00 1.179275e+00 3.783611e-01
<GCONST> 9.133002e+01
<STATE> 4
<MEAN> 25
 8.177530e+00 -2.680661e+00 -7.293503e+00 -5.932261e+00 -3.758124e+00 -2.794274e+00 1.176165e+00 -3.390664e-01 -1.368642e+00 2.573896e-01 2.133668e+00 3.287408e+00 -4.538044e-01 8.704351e-01 7.276899e-01 4.679444e-01 4.150407e-01 5.706517e-01 -1.937626e-01 -1.382255e-01 1.753797e-02 -1.629017e-01 -2.942949e-01 -3.140077e-01 -8.826797e-01
<VARIANCE> 25
 2.215926e+01 3.099335e+01 3.486272e+01 3.668752e+01 3.283007e+01 3.965223e+01 3.500597e+01 3.826480e+01 3.512437e+01 3.170736e+01 2.563973e+01 2.200531e+01 5.861269e-01 9.910762e-01 1.080531e+00 1.252255e+00 1.395680e+00 1.835312e+00 1.787168e+00 1.826652e+00 1.993582e+00 1.853269e+00 1.609923e+00 1.318195e+00 6.483233e-01
<GCONST> 9.086413e+01
~t "T_a"
<ENDHMM>
~h "rr-a+m"
<BEGINHMM>
<NUMSTATES> 5
<STATE> 2
<MEAN> 25
 8.084209e+00 -3.246555e+00 -4.886938e+00 -2.890126e+00 -1.922659e+00 -4.591505e+00 -1.062124e+00 -1.533606e+00 -3.011539e+00 -1.419097e+00 7.822737e-01 1.974153e+00 8.531939e-01 -1.219489e+00 -1.591901e+00 -1.511451e+00 -1.099942e+00 -1.081241e+00 3.296968e-01 2.435892e-01 2.131322e-01 7.433307e-01 1.096173e+00 1.076555e+00 1.531909e+00
<VARIANCE> 25
 3.102556e+01 3.982352e+01 4.648204e+01 6.052976e+01 4.865224e+01 5.364120e+01 4.957391e+01 5.206113e+01 4.994263e+01 4.377484e+01 3.566540e+01 3.010361e+01 2.105191e+00 2.133569e+00 2.607650e+00 3.361774e+00 2.917656e+00 3.954443e+00 3.398865e+00 3.319243e+00 3.668817e+00 4.076825e+00 3.093344e+00 2.673295e+00 1.675560e+00
<GCONST> 1.052759e+02
<STATE> 3
<MEAN> 25
 9.462610e+00 -6.897775e+00 -8.743549e+00 -6.083593e+00 -4.604442e+00 -5.470979e+00 1.397076e+00 -2.830499e-01 -1.629562e+00 7.007640e-01 2.659651e+00 3.340820e+00 3.290816e-02 -1.735238e-01 -3.625012e-01 -3.627358e-01 -1.769637e-01 2.254089e-01 4.766614e-01 2.827543e-01 2.371980e-01 1.767752e-01 8.445666e-02 6.974697e-02 8.193482e-02
<VARIANCE> 25
 2.840129e+01 3.570125e+01 4.138834e+01 4.038225e+01 4.118876e+01 4.148624e+01 4.739182e+01 4.747406e+01 4.473821e+01 4.189992e+01 3.449903e+01 2.805832e+01 3.302394e-01 8.424883e-01 9.393210e-01 1.242460e+00 1.324397e+00 1.496400e+00 1.901740e+00 1.780651e+00 1.803969e+00 1.726919e+00 1.430944e+00 1.179275e+00 3.783611e-01
<GCONST> 9.133002e+01
<STATE> 4
<MEAN> 25
 8.177530e+00 -2.680661e+00 -7.293503e+00 -5.932261e+00 -3.758124e+00 -2.794274e+00 1.176165e+00 -3.390664e-01 -1.368642e+00 2.573896e-01 2.133668e+00 3.287408e+00 -4.538044e-01 8.704351e-01 7.276899e-01 4.679444e-01 4.150407e-01 5.706517e-01 -1.937626e-01 -1.382255e-01 1.753797e-02 -1.629017e-01 -2.942949e-01 -3.140077e-01 -8.826797e-01
<VARIANCE> 25
 2.215926e+01 3.099335e+01 3.486272e+01 3.668752e+01 3.283007e+01 3.965223e+01 3.500597e+01 3.826480e+01 3.512437e+01 3.170736e+01 2.563973e+01 2.200531e+01 5.861269e-01 9.910762e-01 1.080531e+00 1.252255e+00 1.395680e+00 1.835312e+00 1.787168e+00 1.826652e+00 1.993582e+00 1.853269e+00 1.609923e+00 1.318195e+00 6.483233e-01
<GCONST> 9.086413e+01
~t "T_a"
<ENDHMM>
~h "rr-a+p"
<BEGINHMM>
<NUMSTATES> 5
<STATE> 2
<MEAN> 25
 8.084209e+00 -3.246555e+00 -4.886938e+00 -2.890126e+00 -1.922659e+00 -4.591505e+00 -1.062124e+00 -1.533606e+00 -3.011539e+00 -1.419097e+00 7.822737e-01 1.974153e+00 8.531939e-01 -1.219489e+00 -1.591901e+00 -1.511451e+00 -1.099942e+00 -1.081241e+00 3.296968e-01 2.435892e-01 2.131322e-01 7.433307e-01 1.096173e+00 1.076555e+00 1.531909e+00
<VARIANCE> 25
 3.102556e+01 3.982352e+01 4.648204e+01 6.052976e+01 4.865224e+01 5.364120e+01 4.957391e+01 5.206113e+01 4.994263e+01 4.377484e+01 3.566540e+01 3.010361e+01 2.105191e+00 2.133569e+00 2.607650e+00 3.361774e+00 2.917656e+00 3.954443e+00 3.398865e+00 3.319243e+00 3.668817e+00 4.076825e+00 3.093344e+00 2.673295e+00 1.675560e+00
<GCONST> 1.052759e+02
<STATE> 3
<MEAN> 25
 9.462610e+00 -6.897775e+00 -8.743549e+00 -6.083593e+00 -4.604442e+00 -5.470979e+00 1.397076e+00 -2.830499e-01 -1.629562e+00 7.007640e-01 2.659651e+00 3.340820e+00 3.290816e-02 -1.735238e-01 -3.625012e-01 -3.627358e-01 -1.769637e-01 2.254089e-01 4.766614e-01 2.827543e-01 2.371980e-01 1.767752e-01 8.445666e-02 6.974697e-02 8.193482e-02
<VARIANCE> 25
 2.840129e+01 3.570125e+01 4.138834e+01 4.038225e+01 4.118876e+01 4.148624e+01 4.739182e+01 4.747406e+01 4.473821e+01 4.189992e+01 3.449903e+01 2.805832e+01 3.302394e-01 8.424883e-01 9.393210e-01 1.242460e+00 1.324397e+00 1.496400e+00 1.901740e+00 1.780651e+00 1.803969e+00 1.726919e+00 1.430944e+00 1.179275e+00 3.783611e-01
<GCONST> 9.133002e+01
<STATE> 4
<MEAN> 25
 8.177530e+00 -2.680661e+00 -7.293503e+00 -5.932261e+00 -3.758124e+00 -2.794274e+00 1.176165e+00 -3.390664e-01 -1.368642e+00 2.573896e-01 2.133668e+00 3.287408e+00 -4.538044e-01 8.704351e-01 7.276899e-01 4.679444e-01 4.150407e-01 5.706517e-01 -1.937626e-01 -1.382255e-01 1.753797e-02 -1.629017e-01 -2.942949e-01 -3.140077e-01 -8.826797e-01
<VARIANCE> 25
 2.215926e+01 3.099335e+01 3.486272e+01 3.668752e+01 3.283007e+01 3.965223e+01 3.500597e+01 3.826480e+01 3.512437e+01 3.170736e+01 2.563973e+01 2.200531e+01 5.861269e-01 9.910762e-01 1.080531e+00 1.252255e+00 1.395680e+00 1.835312e+00 1.787168e+00 1.826652e+00 1.993582e+00 1.853269e+00 1.609923e+00 1.318195e+00 6.483233e-01
<GCONST> 9.086413e+01
~t "T_a"
<ENDHMM>
~h "rr-a+r"
<BEGINHMM>
<NUMSTATES> 5
<STATE> 2
<MEAN> 25
 8.084209e+00 -3.246555e+00 -4.886938e+00 -2.890126e+00 -1.922659e+00 -4.591505e+00 -1.062124e+00 -1.533606e+00 -3.011539e+00 -1.419097e+00 7.822737e-01 1.974153e+00 8.531939e-01 -1.219489e+00 -1.591901e+00 -1.511451e+00 -1.099942e+00 -1.081241e+00 3.296968e-01 2.435892e-01 2.131322e-01 7.433307e-01 1.096173e+00 1.076555e+00 1.531909e+00
<VARIANCE> 25
 3.102556e+01 3.982352e+01 4.648204e+01 6.052976e+01 4.865224e+01 5.364120e+01 4.957391e+01 5.206113e+01 4.994263e+01 4.377484e+01 3.566540e+01 3.010361e+01 2.105191e+00 2.133569e+00 2.607650e+00 3.361774e+00 2.917656e+00 3.954443e+00 3.398865e+00 3.319243e+00 3.668817e+00 4.076825e+00 3.093344e+00 2.673295e+00 1.675560e+00
<GCONST> 1.052759e+02
<STATE> 3
<MEAN> 25
 9.462610e+00 -6.897775e+00 -8.743549e+00 -6.083593e+00 -4.604442e+00 -5.470979e+00 1.397076e+00 -2.830499e-01 -1.629562e+00 7.007640e-01 2.659651e+00 3.340820e+00 3.290816e-02 -1.735238e-01 -3.625012e-01 -3.627358e-01 -1.769637e-01 2.254089e-01 4.766614e-01 2.827543e-01 2.371980e-01 1.767752e-01 8.445666e-02 6.974697e-02 8.193482e-02
<VARIANCE> 25
 2.840129e+01 3.570125e+01 4.138834e+01 4.038225e+01 4.118876e+01 4.148624e+01 4.739182e+01 4.747406e+01 4.473821e+01 4.189992e+01 3.449903e+01 2.805832e+01 3.302394e-01 8.424883e-01 9.393210e-01 1.242460e+00 1.324397e+00 1.496400e+00 1.901740e+00 1.780651e+00 1.803969e+00 1.726919e+00 1.430944e+00 1.179275e+00 3.783611e-01
<GCONST> 9.133002e+01
<STATE> 4
<MEAN> 25
 8.177530e+00 -2.680661e+00 -7.293503e+00 -5.932261e+00 -3.758124e+00 -2.794274e+00 1.176165e+00 -3.390664e-01 -1.368642e+00 2.573896e-01 2.133668e+00 3.287408e+00 -4.538044e-01 8.704351e-01 7.276899e-01 4.679444e-01 4.150407e-01 5.706517e-01 -1.937626e-01 -1.382255e-01 1.753797e-02 -1.629017e-01 -2.942949e-01 -3.140077e-01 -8.826797e-01
<VARIANCE> 25
 2.215926e+01 3.099335e+01 3.486272e+01 3.668752e+01 3.283007e+01 3.965223e+01 3.500597e+01 3.826480e+01 3.512437e+01 3.170736e+01 2.563973e+01 2.200531e+01 5.861269e-01 9.910762e-01 1.080531e+00 1.252255e+00 1.395680e+00 1.835312e+00 1.787168e+00 1.826652e+00 1.993582e+00 1.853269e+00 1.609923e+00 1.318195e+00 6.483233e-01
<GCONST> 9.086413e+01
~t "T_a"
<ENDHMM>
~h "rr-a+s"
<BEGINHMM>
<NUMSTATES> 5
<STATE> 2
<MEAN> 25
 8.084209e+00 -3.246555e+00 -4.886938e+00 -2.890126e+00 -1.922659e+00 -4.591505e+00 -1.062124e+00 -1.533606e+00 -3.011539e+00 -1.419097e+00 7.822737e-01 1.974153e+00 8.531939e-01 -1.219489e+00 -1.591901e+00 -1.511451e+00 -1.099942e+00 -1.081241e+00 3.296968e-01 2.435892e-01 2.131322e-01 7.433307e-01 1.096173e+00 1.076555e+00 1.531909e+00
<VARIANCE> 25
 3.102556e+01 3.982352e+01 4.648204e+01 6.052976e+01 4.865224e+01 5.364120e+01 4.957391e+01 5.206113e+01 4.994263e+01 4.377484e+01 3.566540e+01 3.010361e+01 2.105191e+00 2.133569e+00 2.607650e+00 3.361774e+00 2.917656e+00 3.954443e+00 3.398865e+00 3.319243e+00 3.668817e+00 4.076825e+00 3.093344e+00 2.673295e+00 1.675560e+00
<GCONST> 1.052759e+02
<STATE> 3
<MEAN> 25
 9.462610e+00 -6.897775e+00 -8.743549e+00 -6.083593e+00 -4.604442e+00 -5.470979e+00 1.397076e+00 -2.830499e-01 -1.629562e+00 7.007640e-01 2.659651e+00 3.340820e+00 3.290816e-02 -1.735238e-01 -3.625012e-01 -3.627358e-01 -1.769637e-01 2.254089e-01 4.766614e-01 2.827543e-01 2.371980e-01 1.767752e-01 8.445666e-02 6.974697e-02 8.193482e-02
<VARIANCE> 25
 2.840129e+01 3.570125e+01 4.138834e+01 4.038225e+01 4.118876e+01 4.148624e+01 4.739182e+01 4.747406e+01 4.473821e+01 4.189992e+01 3.449903e+01 2.805832e+01 3.302394e-01 8.424883e-01 9.393210e-01 1.242460e+00 1.324397e+00 1.496400e+00 1.901740e+00 1.780651e+00 1.803969e+00 1.726919e+00 1.430944e+00 1.179275e+00 3.783611e-01
<GCONST> 9.133002e+01
<STATE> 4
<MEAN> 25
 8.177530e+00 -2.680661e+00 -7.293503e+00 -5.932261e+00 -3.758124e+00 -2.794274e+00 1.176165e+00 -3.390664e-01 -1.368642e+00 2.573896e-01 2.133668e+00 3.287408e+00 -4.538044e-01 8.704351e-01 7.276899e-01 4.679444e-01 4.150407e-01 5.706517e-01 -1.937626e-01 -1.382255e-01 1.753797e-02 -1.629017e-01 -2.942949e-01 -3.140077e-01 -8.826797e-01
<VARIANCE> 25
 2.215926e+01 3.099335e+01 3.486272e+01 3.668752e+01 3.283007e+01 3.965223e+01 3.500597e+01 3.826480e+01 3.512437e+01 3.170736e+01 2.563973e+01 2.200531e+01 5.861269e-01 9.910762e-01 1.080531e+00 1.252255e+00 1.395680e+00 1.835312e+00 1.787168e+00 1.826652e+00 1.993582e+00 1.853269e+00 1.609923e+00 1.318195e+00 6.483233e-01
<GCONST> 9.086413e+01
~t "T_a"
<ENDHMM>
~h "b+a"
<BEGINHMM>
<NUMSTATES> 5
<STATE> 2
<MEAN> 25
 7.453249e+00 1.854894e+00 -3.055483e+00 1.129761e-01 -5.903215e-01 -2.019453e+00 -9.623871e-01 -2.498531e-01 -2.357596e+00 -3.923417e+00 -3.094668e+00 -1.821743e+00 4.853825e-02 1.296036e+00 3.276203e-01 2.709658e-02 -3.125394e-01 5.880693e-01 7.153720e-01 7.017969e-01 4.376649e-01 -1.752225e-01 -7.070358e-01 -5.481036e-01 -9.195412e-01
<VARIANCE> 25
 3.346801e+01 3.947591e+01 4.344426e+01 5.973069e+01 5.670771e+01 4.925726e+01 3.268375e+01 4.100950e+01 4.737400e+01 3.473342e+01 2.501481e+01 2.451253e+01 1.081666e+00 1.334289e+00 1.641493e+00 2.853810e+00 3.615987e+00 2.742803e+00 2.493510e+00 2.804891e+00 2.849236e+00 2.749629e+00 2.209752e+00 1.999554e+00 1.226195e+00
<GCONST> 9.985339e+01
<STATE> 3
<MEAN> 25
 6.949950e+00 3.740428e+00 -1.714613e+00 3.235494e-01 -9.867709e-01 -1.327352e+00 -1.314925e-01 7.956891e-01 -1.145713e+00 -3.079894e+00 -3.591807e+00 -2.550094e+00 -8.611151e-02 4.030907e-01 1.799360e-01 7.571537e-02 -3.430426e-02 2.170843e-01 1.954542e-01 1.316523e-01 1.675814e-01 3.952383e-02 -1.006096e-01 -8.349357e-02 -3.062887e-01
<VARIANCE> 25
 2.692079e+01 3.626947e+01 4.409764e+01 5.273486e+01 4.805618e+01 4.925530e+01 3.155102e+01 3.594095e+01 4.166383e+01 3.111368e+01 2.364136e+01 2.366270e+01 4.684736e-01 6.017178e-01 8.846315e-01 1.491829e+00 2.014702e+00 1.665077e+00 1.348875e+00 1.519242e+00 1.830568e+00 1.490714e+00 1.216153e+00 1.152516e+00 3.799050e-01
<GCONST> 9.019222e+01
<STATE> 4
<MEAN> 25
 6.578341e+00 4.712523e+00 -1.122386e+00 6.479018e-01 -1.106130e+00 -1.354586e+00 -2.909619e-01 1.025624e+00 -5.704058e-01 -2.493345e+00 -3.110632e+00 -2.025941e+00 1.390214e-01 -3.549204e-01 -1.764275e-01 -3.578497e-02 6.442415e-02 -2.743158e-01 -2.597390e-01 -2.456179e-01 -2.362213e-01 -5.547573e-03 2.503186e-01 3.078200e-01 3.261120e-01
<VARIANCE> 25
 2.816606e+01 3.491276e+01 4.524225e+01 4.909471e+01 4.680241e+01 5.250218e+01 3.074101e+01 3.258335e+01 3.859496e+01 2.864092e+01 2.050313e+01 1.999232e+01 3.488529e-01 7.084572e-01 8.258898e-01 1.390724e+00 1.873912e+00 1.648457e+00 1.367848e+00 1.515477e+00 1.712910e+00 1.390957e+00 1.179897e+00 1.095034e+00 3.408834e-01
<GCONST> 8.892953e+01
~t "T_b"
<ENDHMM>
~h "b+e"
<BEGINHMM>
<NUMSTATES> 5
<STATE> 2
<MEAN> 25
 7.453249e+00 1.854894e+00 -3.055483e+00 1.129761e-01 -5.903215e-01 -2.019453e+00 -9.623871e-01 -2.498531e-01 -2.357596e+00 -3.923417e+00 -3.094668e+00 -1.821743e+00 4.853825e-02 1.296036e+00 3.276203e-01 2.709658e-02 -3.125394e-01 5.880693e-01 7.153720e-01 7.017969e-01 4.376649e-01 -1.752225e-01 -7.070358e-01 -5.481036e-01 -9.195412e-01
<VARIANCE> 25
 3.346801e+01 3.947591e+01 4.344426e+01 5.973069e+01 5.670771e+01 4.925726e+01 3.268375e+01 4.100950e+01 4.737400e+01 3.473342e+01 2.501481e+01 2.451253e+01 1.081666e+00 1.334289e+00 1.641493e+00 2.853810e+00 3.615987e+00 2.742803e+00 2.493510e+00 2.804891e+00 2.849236e+00 2.749629e+00 2.209752e+00 1.999554e+00 1.226195e+00
<GCONST> 9.985339e+01
<STATE> 3
<MEAN> 25
 6.949950e+00 3.740428e+00 -1.714613e+00 3.235494e-01 -9.867709e-01 -1.327352e+00 -1.314925e-01 7.956891e-01 -1.145713e+00 -3.079894e+00 -3.591807e+00 -2.550094e+00 -8.611151e-02 4.030907e-01 1.799360e-01 7.571537e-02 -3.430426e-02 2.170843e-01 1.954542e-01 1.316523e-01 1.675814e-01 3.952383e-02 -1.006096e-01 -8.349357e-02 -3.062887e-01
<VARIANCE> 25
 2.692079e+01 3.626947e+01 4.409764e+01 5.273486e+01 4.805618e+01 4.925530e+01 3.155102e+01 3.594095e+01 4.166383e+01 3.111368e+01 2.364136e+01 2.366270e+01 4.684736e-01 6.017178e-01 8.846315e-01 1.491829e+00 2.014702e+00 1.665077e+00 1.348875e+00 1.519242e+00 1.830568e+00 1.490714e+00 1.216153e+00 1.152516e+00 3.799050e-01
<GCONST> 9.019222e+01
<STATE> 4
<MEAN> 25
 6.578341e+00 4.712523e+00 -1.122386e+00 6.479018e-01 -1.106130e+00 -1.354586e+00 -2.909619e-01 1.025624e+00 -5.704058e-01 -2.493345e+00 -3.110632e+00 -2.025941e+00 1.390214e-01 -3.549204e-01 -1.764275e-01 -3.578497e-02 6.442415e-02 -2.743158e-01 -2.597390e-01 -2.456179e-01 -2.362213e-01 -5.547573e-03 2.503186e-01 3.078200e-01 3.261120e-01
<VARIANCE> 25
 2.816606e+01 3.491276e+01 4.524225e+01 4.909471e+01 4.680241e+01 5.250218e+01 3.074101e+01 3.258335e+01 3.859496e+01 2.864092e+01 2.050313e+01 1.999232e+01 3.488529e-01 7.084572e-01 8.258898e-01 1.390724e+00 1.873912e+00 1.648457e+00 1.367848e+00 1.515477e+00 1.712910e+00 1.390957e+00 1.179897e+00 1.095034e+00 3.408834e-01
<GCONST> 8.892953e+01
~t "T_b"
<ENDHMM>
~h "b+i"
<BEGINHMM>
<NUMSTATES> 5
<STATE> 2
<MEAN> 25
 7.453249e+00 1.854894e+00 -3.055483e+00 1.129761e-01 -5.903215e-01 -2.019453e+00 -9.623871e-01 -2.498531e-01 -2.357596e+00 -3.923417e+00 -3.094668e+00 -1.821743e+00 4.853825e-02 1.296036e+00 3.276203e-01 2.709658e-02 -3.125394e-01 5.880693e-01 7.153720e-01 7.017969e-01 4.376649e-01 -1.752225e-01 -7.070358e-01 -5.481036e-01 -9.195412e-01
<VARIANCE> 25
 3.346801e+01 3.947591e+01 4.344426e+01 5.973069e+01 5.670771e+01 4.925726e+01 3.268375e+01 4.100950e+01 4.737400e+01 3.473342e+01 2.501481e+01 2.451253e+01 1.081666e+00 1.334289e+00 1.641493e+00 2.853810e+00 3.615987e+00 2.742803e+00 2.493510e+00 2.804891e+00 2.849236e+00 2.749629e+00 2.209752e+00 1.999554e+00 1.226195e+00
<GCONST> 9.985339e+01
<STATE> 3
<MEAN> 25
 6.949950e+00 3.740428e+00 -1.714613e+00 3.235494e-01 -9.867709e-01 -1.327352e+00 -1.314925e-01 7.956891e-01 -1.145713e+00 -3.079894e+00 -3.591807e+00 -2.550094e+00 -8.611151e-02 4.030907e-01 1.799360e-01 7.571537e-02 -3.430426e-02 2.170843e-01 1.954542e-01 1.316523e-01 1.675814e-01 3.952383e-02 -1.006096e-01 -8.349357e-02 -3.062887e-01
<VARIANCE> 25
 2.692079e+01 3.626947e+01 4.409764e+01 5.273486e+01 4.805618e+01 4.925530e+01 3.155102e+01 3.594095e+01 4.166383e+01 3.111368e+01 2.364136e+01 2.366270e+01 4.684736e-01 6.017178e-01 8.846315e-01 1.491829e+00 2.014702e+00 1.665077e+00 1.348875e+00 1.519242e+00 1.830568e+00 1.490714e+00 1.216153e+00 1.152516e+00 3.799050e-01
<GCONST> 9.019222e+01
<STATE> 4
<MEAN> 25
 6.578341e+00 4.712523e+00 -1.122386e+00 6.479018e-01 -1.106130e+00 -1.354586e+00 -2.909619e-01 1.025624e+00 -5.704058e-01 -2.493345e+00 -3.110632e+00 -2.025941e+00 1.390214e-01 -3.549204e-01 -1.764275e-01 -3.578497e-02 6.442415e-02 -2.743158e-01 -2.597390e-01 -2.456179e-01 -2.362213e-01 -5.547573e-03 2.503186e-01 3.078200e-01 3.261120e-01
<VARIANCE> 25
 2.816606e+01 3.491276e+01 4.524225e+01 4.909471e+01 4.680241e+01 5.250218e+01 3.074101e+01 3.258335e+01 3.859496e+01 2.864092e+01 2.050313e+01 1.999232e+01 3.488529e-01 7.084572e-01 8.258898e-01 1.390724e+00 1.873912e+00 1.648457e+00 1.367848e+00 1.515477e+00 1.712910e+00 1.390957e+00 1.179897e+00 1.095034e+00 3.408834e-01
<GCONST> 8.892953e+01
~t "T_b"
<ENDHMM>
~h "b+l"
<BEGINHMM>
<NUMSTATES> 5
<STATE> 2
<MEAN> 25
 7.453249e+00 1.854894e+00 -3.055483e+00 1.129761e-01 -5.903215e-01 -2.019453e+00 -9.623871e-01 -2.498531e-01 -2.357596e+00 -3.923417e+00 -3.094668e+00 -1.821743e+00 4.853825e-02 1.296036e+00 3.276203e-01 2.709658e-02 -3.125394e-01 5.880693e-01 7.153720e-01 7.017969e-01 4.376649e-01 -1.752225e-01 -7.070358e-01 -5.481036e-01 -9.195412e-01
<VARIANCE> 25
 3.346801e+01 3.947591e+01 4.344426e+01 5.973069e+01 5.670771e+01 4.925726e+01 3.268375e+01 4.100950e+01 4.737400e+01 3.473342e+01 2.501481e+01 2.451253e+01 1.081666e+00 1.334289e+00 1.641493e+00 2.853810e+00 3.615987e+00 2.742803e+00 2.493510e+00 2.804891e+00 2.849236e+00 2.749629e+00 2.209752e+00 1.999554e+00 1.226195e+00
<GCONST> 9.985339e+01
<STATE> 3
<MEAN> 25
 6.949950e+00 3.740428e+00 -1.714613e+00 3.235494e-01 -9.867709e-01 -1.327352e+00 -1.314925e-01 7.956891e-01 -1.145713e+00 -3.079894e+00 -3.591807e+00 -2.550094e+00 -8.611151e-02 4.030907e-01 1.799360e-01 7.571537e-02 -3.430426e-02 2.170843e-01 1.954542e-01 1.316523e-01 1.675814e-01 3.952383e-02 -1.006096e-01 -8.349357e-02 -3.062887e-01
<VARIANCE> 25
 2.692079e+01 3.626947e+01 4.409764e+01 5.273486e+01 4.805618e+01 4.925530e+01 3.155102e+01 3.594095e+01 4.166383e+01 3.111368e+01 2.364136e+01 2.366270e+01 4.684736e-01 6.017178e-01 8.846315e-01 1.491829e+00 2.014702e+00 1.665077e+00 1.348875e+00 1.519242e+00 1.830568e+00 1.490714e+00 1.216153e+00 1.152516e+00 3.799050e-01
<GCONST> 9.019222e+01
<STATE> 4
<MEAN> 25
 6.578341e+00 4.712523e+00 -1.122386e+00 6.479018e-01 -1.106130e+00 -1.354586e+00 -2.909619e-01 1.025624e+00 -5.704058e-01 -2.493345e+00 -3.110632e+00 -2.025941e+00 1.390214e-01 -3.549204e-01 -1.764275e-01 -3.578497e-02 6.442415e-02 -2.743158e-01 -2.597390e-01 -2.456179e-01 -2.362213e-01 -5.547573e-03 2.503186e-01 3.078200e-01 3.261120e-01
<VARIANCE> 25
 2.816606e+01 3.491276e+01 4.524225e+01 4.909471e+01 4.680241e+01 5.250218e+01 3.074101e+01 3.258335e+01 3.859496e+01 2.864092e+01 2.050313e+01 1.999232e+01 3.488529e-01 7.084572e-01 8.258898e-01 1.390724e+00 1.873912e+00 1.648457e+00 1.367848e+00 1.515477e+00 1.712910e+00 1.390957e+00 1.179897e+00 1.095034e+00 3.408834e-01
<GCONST> 8.892953e+01
~t "T_b"
<ENDHMM>
~h "b+o"
<BEGINHMM>
<NUMSTATES> 5
<STATE> 2
<MEAN> 25
 7.453249e+00 1.854894e+00 -3.055483e+00 1.129761e-01 -5.903215e-01 -2.019453e+00 -9.623871e-01 -2.498531e-01 -2.357596e+00 -3.923417e+00 -3.094668e+00 -1.821743e+00 4.853825e-02 1.296036e+00 3.276203e-01 2.709658e-02 -3.125394e-01 5.880693e-01 7.153720e-01 7.017969e-01 4.376649e-01 -1.752225e-01 -7.070358e-01 -5.481036e-01 -9.195412e-01
<VARIANCE> 25
 3.346801e+01 3.947591e+01 4.344426e+01 5.973069e+01 5.670771e+01 4.925726e+01 3.268375e+01 4.100950e+01 4.737400e+01 3.473342e+01 2.501481e+01 2.451253e+01 1.081666e+00 1.334289e+00 1.641493e+00 2.853810e+00 3.615987e+00 2.742803e+00 2.493510e+00 2.804891e+00 2.849236e+00 2.749629e+00 2.209752e+00 1.999554e+00 1.226195e+00
<GCONST> 9.985339e+01
<STATE> 3
<MEAN> 25
 6.949950e+00 3.740428e+00 -1.714613e+00 3.235494e-01 -9.867709e-01 -1.327352e+00 -1.314925e-01 7.956891e-01 -1.145713e+00 -3.079894e+00 -3.591807e+00 -2.550094e+00 -8.611151e-02 4.030907e-01 1.799360e-01 7.571537e-02 -3.430426e-02 2.170843e-01 1.954542e-01 1.316523e-01 1.675814e-01 3.952383e-02 -1.006096e-01 -8.349357e-02 -3.062887e-01
<VARIANCE> 25
 2.692079e+01 3.626947e+01 4.409764e+01 5.273486e+01 4.805618e+01 4.925530e+01 3.155102e+01 3.594095e+01 4.166383e+01 3.111368e+01 2.364136e+01 2.366270e+01 4.684736e-01 6.017178e-01 8.846315e-01 1.491829e+00 2.014702e+00 1.665077e+00 1.348875e+00 1.519242e+00 1.830568e+00 1.490714e+00 1.216153e+00 1.152516e+00 3.799050e-01
<GCONST> 9.019222e+01
<STATE> 4
<MEAN> 25
 6.578341e+00 4.712523e+00 -1.122386e+00 6.479018e-01 -1.106130e+00 -1.354586e+00 -2.909619e-01 1.025624e+00 -5.704058e-01 -2.493345e+00 -3.110632e+00 -2.025941e+00 1.390214e-01 -3.549204e-01 -1.764275e-01 -3.578497e-02 6.442415e-02 -2.743158e-01 -2.597390e-01 -2.456179e-01 -2.362213e-01 -5.547573e-03 2.503186e-01 3.078200e-01 3.261120e-01
<VARIANCE> 25
 2.816606e+01 3.491276e+01 4.524225e+01 4.909471e+01 4.680241e+01 5.250218e+01 3.074101e+01 3.258335e+01 3.859496e+01 2.864092e+01 2.050313e+01 1.999232e+01 3.488529e-01 7.084572e-01 8.258898e-01 1.390724e+00 1.873912e+00 1.648457e+00 1.367848e+00 1.515477e+00 1.712910e+00 1.390957e+00 1.179897e+00 1.095034e+00 3.408834e-01
<GCONST> 8.892953e+01
~t "T_b"
<ENDHMM>
~h "b+u"
<BEGINHMM>
<NUMSTATES> 5
<STATE> 2
<MEAN> 25
 7.453249e+00 1.854894e+00 -3.055483e+00 1.129761e-01 -5.903215e-01 -2.019453e+00 -9.623871e-01 -2.498531e-01 -2.357596e+00 -3.923417e+00 -3.094668e+00 -1.821743e+00 4.853825e-02 1.296036e+00 3.276203e-01 2.709658e-02 -3.125394e-01 5.880693e-01 7.153720e-01 7.017969e-01 4.376649e-01 -1.752225e-01 -7.070358e-01 -5.481036e-01 -9.195412e-01
<VARIANCE> 25
 3.346801e+01 3.947591e+01 4.344426e+01 5.973069e+01 5.670771e+01 4.925726e+01 3.268375e+01 4.100950e+01 4.737400e+01 3.473342e+01 2.501481e+01 2.451253e+01 1.081666e+00 1.334289e+00 1.641493e+00 2.853810e+00 3.615987e+00 2.742803e+00 2.493510e+00 2.804891e+00 2.849236e+00 2.749629e+00 2.209752e+00 1.999554e+00 1.226195e+00
<GCONST> 9.985339e+01
<STATE> 3
<MEAN> 25
 6.949950e+00 3.740428e+00 -1.714613e+00 3.235494e-01 -9.867709e-01 -1.327352e+00 -1.314925e-01 7.956891e-01 -1.145713e+00 -3.079894e+00 -3.591807e+00 -2.550094e+00 -8.611151e-02 4.030907e-01 1.799360e-01 7.571537e-02 -3.430426e-02 2.170843e-01 1.954542e-01 1.316523e-01 1.675814e-01 3.952383e-02 -1.006096e-01 -8.349357e-02 -3.062887e-01
<VARIANCE> 25
 2.692079e+01 3.626947e+01 4.409764e+01 5.273486e+01 4.805618e+01 4.925530e+01 3.155102e+01 3.594095e+01 4.166383e+01 3.111368e+01 2.364136e+01 2.366270e+01 4.684736e-01 6.017178e-01 8.846315e-01 1.491829e+00 2.014702e+00 1.665077e+00 1.348875e+00 1.519242e+00 1.830568e+00 1.490714e+00 1.216153e+00 1.152516e+00 3.799050e-01
<GCONST> 9.019222e+01
<STATE> 4
<MEAN> 25
 6.578341e+00 4.712523e+00 -1.122386e+00 6.479018e-01 -1.106130e+00 -1.354586e+00 -2.909619e-01 1.025624e+00 -5.704058e-01 -2.493345e+00 -3.110632e+00 -2.025941e+00 1.390214e-01 -3.549204e-01 -1.764275e-01 -3.578497e-02 6.442415e-02 -2.743158e-01 -2.597390e-01 -2.456179e-01 -2.362213e-01 -5.547573e-03 2.503186e-01 3.078200e-01 3.261120e-01
<VARIANCE> 25
 2.816606e+01 3.491276e+01 4.524225e+01 4.909471e+01 4.680241e+01 5.250218e+01 3.074101e+01 3.258335e+01 3.859496e+01 2.864092e+01 2.050313e+01 1.999232e+01 3.488529e-01 7.084572e-01 8.258898e-01 1.390724e+00 1.873912e+00 1.648457e+00 1.367848e+00 1.515477e+00 1.712910e+00 1.390957e+00 1.179897e+00 1.095034e+00 3.408834e-01
<GCONST> 8.892953e+01
~t "T_b"
<ENDHMM>
~h "b-a"
<BEGINHMM>
<NUMSTATES> 5
<STATE> 2
<MEAN> 25
 8.084209e+00 -3.246555e+00 -4.886938e+00 -2.890126e+00 -1.922659e+00 -4.591505e+00 -1.062124e+00 -1.533606e+00 -3.011539e+00 -1.419097e+00 7.822737e-01 1.974153e+00 8.531939e-01 -1.219489e+00 -1.591901e+00 -1.511451e+00 -1.099942e+00 -1.081241e+00 3.296968e-01 2.435892e-01 2.131322e-01 7.433307e-01 1.096173e+00 1.076555e+00 1.531909e+00
<VARIANCE> 25
 3.102556e+01 3.982352e+01 4.648204e+01 6.052976e+01 4.865224e+01 5.364120e+01 4.957391e+01 5.206113e+01 4.994263e+01 4.377484e+01 3.566540e+01 3.010361e+01 2.105191e+00 2.133569e+00 2.607650e+00 3.361774e+00 2.917656e+00 3.954443e+00 3.398865e+00 3.319243e+00 3.668817e+00 4.076825e+00 3.093344e+00 2.673295e+00 1.675560e+00
<GCONST> 1.052759e+02
<STATE> 3
<MEAN> 25
 9.462610e+00 -6.897775e+00 -8.743549e+00 -6.083593e+00 -4.604442e+00 -5.470979e+00 1.397076e+00 -2.830499e-01 -1.629562e+00 7.007640e-01 2.659651e+00 3.340820e+00 3.290816e-02 -1.735238e-01 -3.625012e-01 -3.627358e-01 -1.769637e-01 2.254089e-01 4.766614e-01 2.827543e-01 2.371980e-01 1.767752e-01 8.445666e-02 6.974697e-02 8.193482e-02
<VARIANCE> 25
 2.840129e+01 3.570125e+01 4.138834e+01 4.038225e+01 4.118876e+01 4.148624e+01 4.739182e+01 4.747406e+01 4.473821e+01 4.189992e+01 3.449903e+01 2.805832e+01 3.302394e-01 8.424883e-01 9.393210e-01 1.242460e+00 1.324397e+00 1.496400e+00 1.901740e+00 1.780651e+00 1.803969e+00 1.726919e+00 1.430944e+00 1.179275e+00 3.783611e-01
<GCONST> 9.133002e+01
<STATE> 4
<MEAN> 25
 8.177530e+00 -2.680661e+00 -7.293503e+00 -5.932261e+00 -3.758124e+00 -2.794274e+00 1.176165e+00 -3.390664e-01 -1.368642e+00 2.573896e-01 2.133668e+00 3.287408e+00 -4.538044e-01 8.704351e-01 7.276899e-01 4.679444e-01 4.150407e-01 5.706517e-01 -1.937626e-01 -1.382255e-01 1.753797e-02 -1.629017e-01 -2.942949e-01 -3.140077e-01 -8.826797e-01
<VARIANCE> 25
 2.215926e+01 3.099335e+01 3.486272e+01 3.668752e+01 3.283007e+01 3.965223e+01 3.500597e+01 3.826480e+01 3.512437e+01 3.170736e+01 2.563973e+01 2.200531e+01 5.861269e-01 9.910762e-01 1.080531e+00 1.252255e+00 1.395680e+00 1.835312e+00 1.787168e+00 1.826652e+00 1.993582e+00 1.853269e+00 1.609923e+00 1.318195e+00 6.483233e-01
<GCONST> 9.086413e+01
~t "T_a"
<ENDHMM>
~h "b-e"
<BEGINHMM>
<NUMSTATES> 5
<STATE> 2
<MEAN> 25
 4.917822e+00 -3.046909e+00 -7.860230e-01 1.961976e+00 3.296882e+00 -3.095960e+00 -4.445966e+00 -4.378197e+00 -4.194638e+00 -1.446952e+00 1.146220e-01 1.648807e-01 1.062938e+00 -1.285595e+00 -6.981800e-01 4.423747e-01 5.001229e-01 -1.895295e+00 -1.787762e+00 -1.308817e+00 -1.084860e+00 1.344622e-01 6.617222e-01 3.701210e-01 1.670173e+00
<VARIANCE> 25
 3.577217e+01 3.706077e+01 4.774310e+01 6.015227e+01 4.925949e+01 6.036604e+01 5.010396e+01 4.977269e+01 4.858726e+01 3.950971e+01 3.013842e+01 2.473536e+01 2.384392e+00 2.958043e+00 2.685448e+00 3.858023e+00 3.340221e+00 5.064232e+00 4.063103e+00 3.681123e+00 4.037725e+00 4.174648e+00 3.332788e+00 2.898063e+00 2.226966e+00
<GCONST> 1.068105e+02
<STATE> 3
<MEAN> 25
 7.191195e+00 -7.001473e+00 -2.328277e+00 2.836691e+00 3.888689e+00 -7.911126e+00 -8.482172e+00 -6.657192e+00 -5.470276e+00 -1.285404e-01 1.987994e+00 7.147580e-01 8.514885e-02 -4.249433e-01 -1.496204e-01 2.818093e-01 1.203487e-01 -6.073316e-01 -4.420330e-01 -1.406531e-01 1.603031e-01 5.093133e-01 3.347531e-01 -4.041983e-02 2.952766e-01
<VARIANCE> 25
 2.837927e+01 3.550758e+01 4.376701e+01 6.339727e+01 5.782299e+01 6.153004e+01 4.445435e+01 4.665985e+01 4.438187e+01 4.603452e+01 3.686113e+01 3.249733e+01 5.579238e-01 9.633060e-01 1.396090e+00 1.826277e+00 1.583154e+00 2.003756e+00 1.982185e+00 1.856537e+00 2.013892e+00 2.006657e+00 1.751121e+00 1.508502e+00 5.828047e-01
<GCONST> 9.591582e+01
<STATE> 4
<MEAN> 25
 5.895019e+00 -4.724988e+00 -1.197292e+00 3.906052e+00 3.870449e+00 -6.545651e+00 -8.215060e+00 -6.679025e+00 -4.172563e+00 5.337154e-01 9.279272e-01 -6.742178e-01 -3.232698e-01 7.992764e-01 3.300467e-01 -6.339286e-02 7.912491e-02 1.004552e+00 6.088396e-01 3.772415e-01 3.436322e-01 -1.313366e-01 -2.720630e-01 -1.298955e-01 -7.956876e-01
<VARIANCE> 25
 2.029749e+01 3.066547e+01 3.368494e+01 5.057070e+01 4.296806e+01 5.593891e+01 3.659196e+01 3.710094e+01 4.034227e+01 3.575679e+01 3.262199e+01 2.925796e+01 5.569103e-01 1.011105e+00 1.171097e+00 1.448238e+00 1.440968e+00 2.011663e+00 1.814593e+00 1.739066e+00 1.905525e+00 1.867028e+00 1.539982e+00 1.274082e+00 7.538318e-01
<GCONST> 9.278246e+01
~t "T_e"
<ENDHMM>
~h "b-o"
<BEGINHMM>
<NUMSTATES> 5
<STATE> 2
<MEAN> 25
 8.202134e+00 8.756948e-01 -1.556870e+00 -2.412576e+00 -4.135490e+00 -5.283045e+00 -1.325630e+00 5.514442e-01 -3.256593e+00 -4.464030e+00 -3.179199e+00 -1.018459e+00 8.533680e-01 5.628624e-02 -4.272498e-01 -1.163086e+00 -1.742013e+00 -1.833407e+00 -1.006363e-01 8.327968e-01 2.565329e-01 -1.784475e-01 -2.551433e-01 1.000556e-01 7.841955e-01
<VARIANCE> 25
 2.727819e+01 4.614404e+01 4.546624e+01 5.624189e+01 6.257309e+01 6.102062e+01 4.518742e+01 4.939813e+01 5.469617e+01 4.219932e+01 3.056493e+01 2.847985e+01 1.604221e+00 2.714622e+00 2.414845e+00 3.306103e+00 3.399673e+00 4.293542e+00 4.410888e+00 3.910635e+00 3.812121e+00 3.509329e+00 2.851977e+00 2.694980e+00 1.552250e+00
<GCONST> 1.055529e+02
<STATE> 3
<MEAN> 25
 9.608891e+00 1.841884e+00 -1.624231e+00 -4.843653e+00 -1.056682e+01 -1.047259e+01 -3.275502e-01 4.228262e+00 -8.981493e-01 -3.707518e+00 -3.771726e+00 -1.847208e+00 -1.603226e-01 3.746803e-01 2.492852e-02 -5.283350e-02 -1.316152e-01 2.060792e-01 2.320018e-01 3.473101e-01 4.636069e-01 2.421327e-01 -1.011645e-03 -9.001540e-02 -4.208844e-01
<VARIANCE> 25
 2.191664e+01 3.832346e+01 3.536129e+01 4.552036e+01 5.146196e+01 5.402416e+01 4.532333e+01 4.316967e+01 5.194213e+01 3.791486e+01 2.724122e+01 2.477335e+01 5.759985e-01 1.296905e+00 1.329783e+00 1.436117e+00 2.015944e+00 2.854960e+00 1.984985e+00 2.227589e+00 2.343580e+00 2.045362e+00 1.638120e+00 1.449960e+00 1.066268e+00
<GCONST> 9.576168e+01
<STATE> 4
<MEAN> 25
 5.920141e+00 4.729104e+00 -6.619071e-01 -3.592440e+00 -6.668617e+00 -4.437122e+00 3.776827e-01 3.175261e+00 9.050462e-01 -1.454790e+00 -2.326509e+00 -1.249121e+00 -6.257654e-01 -3.906129e-02 1.678127e-01 4.218079e-01 7.039407e-01 9.980335e-01 2.885799e-01 -2.038472e-01 -1.773957e-02 1.877047e-01 2.155907e-01 8.154663e-02 -5.345345e-01
<VARIANCE> 25
 2.381943e+01 3.168683e+01 3.073319e+01 3.372535e+01 3.205265e+01 4.222814e+01 3.201194e+01 3.300840e+01 3.498757e+01 3.150789e+01 2.243595e+01 1.901501e+01 4.852379e-01 7.335701e-01 1.011674e+00 1.084659e+00 1.496157e+00 1.967000e+00 1.648281e+00 1.688958e+00 1.686677e+00 1.518985e+00 1.305284e+00 1.193857e+00 3.831035e-01
<GCONST> 8.833953e+01
~t "T_o"
<ENDHMM>
~h "b-u"
<BEGINHMM>
<NUMSTATES> 5
<STATE> 2
<MEAN> 25
 5.841117e+00 4.888117e+00 2.686566e+00 -7.820466e-01 -3.509169e+00 -4.456264e+00 -1.667651e+00 1.072235e+00 -1.711213e+00 -3.398537e+00 -2.842877e+00 -2.182095e+00 1.576147e+00 1.045471e+00 4.197832e-01 -3.047917e-01 -1.355020e+00 -2.229248e+00 -1.097899e+00 2.456878e-01 -2.158980e-01 -6.960759e-01 -8.961666e-01 -8.212398e-01 8.114035e-01
<VARIANCE> 25
 3.111406e+01 4.019774e+01 4.504975e+01 4.146431e+01 4.849731e+01 5.661042e+01 4.281160e+01 4.095763e+01 5.025994e+01 4.244762e+01 3.143690e+01 2.546618e+01 2.317891e+00 3.149550e+00 3.087908e+00 3.151040e+00 3.396149e+00 4.573932e+00 4.195843e+00 4.035922e+00 4.034451e+00 3.409064e+00 3.195040e+00 2.762604e+00 1.784756e+00
<GCONST> 1.055627e+02
<STATE> 3
<MEAN> 25
 8.658910e+00 5.000401e+00 2.954348e+00 -2.671335e+00 -7.457289e+00 -1.043769e+01 -3.682248e+00 2.342003e+00 -1.993913e+00 -4.053403e+00 -3.655970e+00 -3.858294e+00 3.619523e-01 -4.174033e-01 -5.004941e-01 -5.413764e-01 -3.661138e-01 -3.691237e-01 1.985084e-01 6.194838e-01 2.091379e-01 -3.094780e-01 -4.365371e-01 -2.890210e-01 4.863066e-01
<VARIANCE> 25
 1.982055e+01 3.754977e+01 4.485072e+01 4.602500e+01 4.835411e+01 5.230594e+01 4.533890e+01 4.689768e+01 6.356376e+01 4.307386e+01 3.556441e+01 3.444476e+01 5.694164e-01 2.171613e+00 2.316406e+00 1.907328e+00 2.369149e+00 3.386717e+00 2.927253e+00 3.053224e+00 2.962884e+00 2.837181e+00 2.662840e+00 2.209183e+00 9.819031e-01
<GCONST> 1.005687e+02
<STATE> 4
<MEAN> 25
 7.936549e+00 5.316041e+00 2.239468e+00 -2.040418e+00 -5.537446e+00 -6.998611e+00 -2.096663e+00 2.982105e+00 -1.124920e+00 -4.924550e+00 -4.786534e+00 -3.909861e+00 -1.936503e-01 -3.466140e-01 -3.004697e-01 2.804921e-01 7.471921e-01 1.043675e+00 4.173047e-01 -2.147343e-01 -1.894316e-01 -7.248510e-02 1.116081e-02 1.502710e-01 -1.055882e-01
<VARIANCE> 25
 1.968233e+01 3.080829e+01 3.984565e+01 3.763365e+01 3.553752e+01 4.067476e+01 4.069976e+01 3.915368e+01 5.144368e+01 3.819278e+01 3.066512e+01 2.631176e+01 3.753779e-01 1.220878e+00 1.362571e+00 1.493957e+00 2.004738e+00 2.727168e+00 2.026844e+00 2.105258e+00 2.403310e+00 2.200738e+00 1.975419e+00 1.823615e+00 5.097307e-01
<GCONST> 9.394715e+01
~t "T_u"
<ENDHMM>
~h "m-a+b"
<BEGINHMM>
<NUMSTATES> 5
<STATE> 2
<MEAN> 25
 8.084209e+00 -3.246555e+00 -4.886938e+00 -2.890126e+00 -1.922659e+00 -4.591505e+00 -1.062124e+00 -1.533606e+00 -3.011539e+00 -1.419097e+00 7.822737e-01 1.974153e+00 8.531939e-01 -1.219489e+00 -1.591901e+00 -1.511451e+00 -1.099942e+00 -1.081241e+00 3.296968e-01 2.435892e-01 2.131322e-01 7.433307e-01 1.096173e+00 1.076555e+00 1.531909e+00
<VARIANCE> 25
 3.102556e+01 3.982352e+01 4.648204e+01 6.052976e+01 4.865224e+01 5.364120e+01 4.957391e+01 5.206113e+01 4.994263e+01 4.377484e+01 3.566540e+01 3.010361e+01 2.105191e+00 2.133569e+00 2.607650e+00 3.361774e+00 2.917656e+00 3.954443e+00 3.398865e+00 3.319243e+00 3.668817e+00 4.076825e+00 3.093344e+00 2.673295e+00 1.675560e+00
<GCONST> 1.052759e+02
<STATE> 3
<MEAN> 25
 9.462610e+00 -6.897775e+00 -8.743549e+00 -6.083593e+00 -4.604442e+00 -5.470979e+00 1.397076e+00 -2.830499e-01 -1.629562e+00 7.007640e-01 2.659651e+00 3.340820e+00 3.290816e-02 -1.735238e-01 -3.625012e-01 -3.627358e-01 -1.769637e-01 2.254089e-01 4.766614e-01 2.827543e-01 2.371980e-01 1.767752e-01 8.445666e-02 6.974697e-02 8.193482e-02
<VARIANCE> 25
 2.840129e+01 3.570125e+01 4.138834e+01 4.038225e+01 4.118876e+01 4.148624e+01 4.739182e+01 4.747406e+01 4.473821e+01 4.189992e+01 3.449903e+01 2.805832e+01 3.302394e-01 8.424883e-01 9.393210e-01 1.242460e+00 1.324397e+00 1.496400e+00 1.901740e+00 1.780651e+00 1.803969e+00 1.726919e+00 1.430944e+00 1.179275e+00 3.783611e-01
<GCONST> 9.133002e+01
<STATE> 4
<MEAN> 25
 8.177530e+00 -2.680661e+00 -7.293503e+00 -5.932261e+00 -3.758124e+00 -2.794274e+00 1.176165e+00 -3.390664e-01 -1.368642e+00 2.573896e-01 2.133668e+00 3.287408e+00 -4.538044e-01 8.704351e-01 7.276899e-01 4.679444e-01 4.150407e-01 5.706517e-01 -1.937626e-01 -1.382255e-01 1.753797e-02 -1.629017e-01 -2.942949e-01 -3.140077e-01 -8.826797e-01
<VARIANCE> 25
 2.215926e+01 3.099335e+01 3.486272e+01 3.668752e+01 3.283007e+01 3.965223e+01 3.500597e+01 3.826480e+01 3.512437e+01 3.170736e+01 2.563973e+01 2.200531e+01 5.861269e-01 9.910762e-01 1.080531e+00 1.252255e+00 1.395680e+00 1.835312e+00 1.787168e+00 1.826652e+00 1.993582e+00 1.853269e+00 1.609923e+00 1.318195e+00 6.483233e-01
<GCONST> 9.086413e+01
~t "T_a"
<ENDHMM>
~h "m-a+d"
<BEGINHMM>
<NUMSTATES> 5
<STATE> 2
<MEAN> 25
 8.084209e+00 -3.246555e+00 -4.886938e+00 -2.890126e+00 -1.922659e+00 -4.591505e+00 -1.062124e+00 -1.533606e+00 -3.011539e+00 -1.419097e+00 7.822737e-01 1.974153e+00 8.531939e-01 -1.219489e+00 -1.591901e+00 -1.511451e+00 -1.099942e+00 -1.081241e+00 3.296968e-01 2.435892e-01 2.131322e-01 7.433307e-01 1.096173e+00 1.076555e+00 1.531909e+00
<VARIANCE> 25
 3.102556e+01 3.982352e+01 4.648204e+01 6.052976e+01 4.865224e+01 5.364120e+01 4.957391e+01 5.206113e+01 4.994263e+01 4.377484e+01 3.566540e+01 3.010361e+01 2.105191e+00 2.133569e+00 2.607650e+00 3.361774e+00 2.917656e+00 3.954443e+00 3.398865e+00 3.319243e+00 3.668817e+00 4.076825e+00 3.093344e+00 2.673295e+00 1.675560e+00
<GCONST> 1.052759e+02
<STATE> 3
<MEAN> 25
 9.462610e+00 -6.897775e+00 -8.743549e+00 -6.083593e+00 -4.604442e+00 -5.470979e+00 1.397076e+00 -2.830499e-01 -1.629562e+00 7.007640e-01 2.659651e+00 3.340820e+00 3.290816e-02 -1.735238e-01 -3.625012e-01 -3.627358e-01 -1.769637e-01 2.254089e-01 4.766614e-01 2.827543e-01 2.371980e-01 1.767752e-01 8.445666e-02 6.974697e-02 8.193482e-02
<VARIANCE> 25
 2.840129e+01 3.570125e+01 4.138834e+01 4.038225e+01 4.118876e+01 4.148624e+01 4.739182e+01 4.747406e+01 4.473821e+01 4.189992e+01 3.449903e+01 2.805832e+01 3.302394e-01 8.424883e-01 9.393210e-01 1.242460e+00 1.324397e+00 1.496400e+00 1.901740e+00 1.780651e+00 1.803969e+00 1.726919e+00 1.430944e+00 1.179275e+00 3.783611e-01
<GCONST> 9.133002e+01
<STATE> 4
<MEAN> 25
 8.177530e+00 -2.680661e+00 -7.293503e+00 -5.932261e+00 -3.758124e+00 -2.794274e+00 1.176165e+00 -3.390664e-01 -1.368642e+00 2.573896e-01 2.133668e+00 3.287408e+00 -4.538044e-01 8.704351e-01 7.276899e-01 4.679444e-01 4.150407e-01 5.706517e-01 -1.937626e-01 -1.382255e-01 1.753797e-02 -1.629017e-01 -2.942949e-01 -3.140077e-01 -8.826797e-01
<VARIANCE> 25
 2.215926e+01 3.099335e+01 3.486272e+01 3.668752e+01 3.283007e+01 3.965223e+01 3.500597e+01 3.826480e+01 3.512437e+01 3.170736e+01 2.563973e+01 2.200531e+01 5.861269e-01 9.910762e-01 1.080531e+00 1.252255e+00 1.395680e+00 1.835312e+00 1.787168e+00 1.826652e+00 1.993582e+00 1.853269e+00 1.609923e+00 1.318195e+00 6.483233e-01
<GCONST> 9.086413e+01
~t "T_a"
<ENDHMM>
~h "m-a+g"
<BEGINHMM>
<NUMSTATES> 5
<STATE> 2
<MEAN> 25
 8.084209e+00 -3.246555e+00 -4.886938e+00 -2.890126e+00 -1.922659e+00 -4.591505e+00 -1.062124e+00 -1.533606e+00 -3.011539e+00 -1.419097e+00 7.822737e-01 1.974153e+00 8.531939e-01 -1.219489e+00 -1.591901e+00 -1.511451e+00 -1.099942e+00 -1.081241e+00 3.296968e-01 2.435892e-01 2.131322e-01 7.433307e-01 1.096173e+00 1.076555e+00 1.531909e+00
<VARIANCE> 25
 3.102556e+01 3.982352e+01 4.648204e+01 6.052976e+01 4.865224e+01 5.364120e+01 4.957391e+01 5.206113e+01 4.994263e+01 4.377484e+01 3.566540e+01 3.010361e+01 2.105191e+00 2.133569e+00 2.607650e+00 3.361774e+00 2.917656e+00 3.954443e+00 3.398865e+00 3.319243e+00 3.668817e+00 4.076825e+00 3.093344e+00 2.673295e+00 1.675560e+00
<GCONST> 1.052759e+02
<STATE> 3
<MEAN> 25
 9.462610e+00 -6.897775e+00 -8.743549e+00 -6.083593e+00 -4.604442e+00 -5.470979e+00 1.397076e+00 -2.830499e-01 -1.629562e+00 7.007640e-01 2.659651e+00 3.340820e+00 3.290816e-02 -1.735238e-01 -3.625012e-01 -3.627358e-01 -1.769637e-01 2.254089e-01 4.766614e-01 2.827543e-01 2.371980e-01 1.767752e-01 8.445666e-02 6.974697e-02 8.193482e-02
<VARIANCE> 25
 2.840129e+01 3.570125e+01 4.138834e+01 4.038225e+01 4.118876e+01 4.148624e+01 4.739182e+01 4.747406e+01 4.473821e+01 4.189992e+01 3.449903e+01 2.805832e+01 3.302394e-01 8.424883e-01 9.393210e-01 1.242460e+00 1.324397e+00 1.496400e+00 1.901740e+00 1.780651e+00 1.803969e+00 1.726919e+00 1.430944e+00 1.179275e+00 3.783611e-01
<GCONST> 9.133002e+01
<STATE> 4
<MEAN> 25
 8.177530e+00 -2.680661e+00 -7.293503e+00 -5.932261e+00 -3.758124e+00 -2.794274e+00 1.176165e+00 -3.390664e-01 -1.368642e+00 2.573896e-01 2.133668e+00 3.287408e+00 -4.538044e-01 8.704351e-01 7.276899e-01 4.679444e-01 4.150407e-01 5.706517e-01 -1.937626e-01 -1.382255e-01 1.753797e-02 -1.629017e-01 -2.942949e-01 -3.140077e-01 -8.826797e-01
<VARIANCE> 25
 2.215926e+01 3.099335e+01 3.486272e+01 3.668752e+01 3.283007e+01 3.965223e+01 3.500597e+01 3.826480e+01 3.512437e+01 3.170736e+01 2.563973e+01 2.200531e+01 5.861269e-01 9.910762e-01 1.080531e+00 1.252255e+00 1.395680e+00 1.835312e+00 1.787168e+00 1.826652e+00 1.993582e+00 1.853269e+00 1.609923e+00 1.318195e+00 6.483233e-01
<GCONST> 9.086413e+01
~t "T_a"
<ENDHMM>
~h "m-a+k"
<BEGINHMM>
<NUMSTATES> 5
<STATE> 2
<MEAN> 25
 8.084209e+00 -3.246555e+00 -4.886938e+00 -2.890126e+00 -1.922659e+00 -4.591505e+00 -1.062124e+00 -1.533606e+00 -3.011539e+00 -1.419097e+00 7.822737e-01 1.974153e+00 8.531939e-01 -1.219489e+00 -1.591901e+00 -1.511451e+00 -1.099942e+00 -1.081241e+00 3.296968e-01 2.435892e-01 2.131322e-01 7.433307e-01 1.096173e+00 1.076555e+00 1.531909e+00
<VARIANCE> 25
 3.102556e+01 3.982352e+01 4.648204e+01 6.052976e+01 4.865224e+01 5.364120e+01 4.957391e+01 5.206113e+01 4.994263e+01 4.377484e+01 3.566540e+01 3.010361e+01 2.105191e+00 2.133569e+00 2.607650e+00 3.361774e+00 2.917656e+00 3.954443e+00 3.398865e+00 3.319243e+00 3.668817e+00 4.076825e+00 3.093344e+00 2.673295e+00 1.675560e+00
<GCONST> 1.052759e+02
<STATE> 3
<MEAN> 25
 9.462610e+00 -6.897775e+00 -8.743549e+00 -6.083593e+00 -4.604442e+00 -5.470979e+00 1.397076e+00 -2.830499e-01 -1.629562e+00 7.007640e-01 2.659651e+00 3.340820e+00 3.290816e-02 -1.735238e-01 -3.625012e-01 -3.627358e-01 -1.769637e-01 2.254089e-01 4.766614e-01 2.827543e-01 2.371980e-01 1.767752e-01 8.445666e-02 6.974697e-02 8.193482e-02
<VARIANCE> 25
 2.840129e+01 3.570125e+01 4.138834e+01 4.038225e+01 4.118876e+01 4.148624e+01 4.739182e+01 4.747406e+01 4.473821e+01 4.189992e+01 3.449903e+01 2.805832e+01 3.302394e-01 8.424883e-01 9.393210e-01 1.242460e+00 1.324397e+00 1.496400e+00 1.901740e+00 1.780651e+00 1.803969e+00 1.726919e+00 1.430944e+00 1.179275e+00 3.783611e-01
<GCONST> 9.133002e+01
<STATE> 4
<MEAN> 25
 8.177530e+00 -2.680661e+00 -7.293503e+00 -5.932261e+00 -3.758124e+00 -2.794274e+00 1.176165e+00 -3.390664e-01 -1.368642e+00 2.573896e-01 2.133668e+00 3.287408e+00 -4.538044e-01 8.704351e-01 7.276899e-01 4.679444e-01 4.150407e-01 5.706517e-01 -1.937626e-01 -1.382255e-01 1.753797e-02 -1.629017e-01 -2.942949e-01 -3.140077e-01 -8.826797e-01
<VARIANCE> 25
 2.215926e+01 3.099335e+01 3.486272e+01 3.668752e+01 3.283007e+01 3.965223e+01 3.500597e+01 3.826480e+01 3.512437e+01 3.170736e+01 2.563973e+01 2.200531e+01 5.861269e-01 9.910762e-01 1.080531e+00 1.252255e+00 1.395680e+00 1.835312e+00 1.787168e+00 1.826652e+00 1.993582e+00 1.853269e+00 1.609923e+00 1.318195e+00 6.483233e-01
<GCONST> 9.086413e+01
~t "T_a"
<ENDHMM>
~h "m-a+l"
<BEGINHMM>
<NUMSTATES> 5
<STATE> 2
<MEAN> 25
 8.084209e+00 -3.246555e+00 -4.886938e+00 -2.890126e+00 -1.922659e+00 -4.591505e+00 -1.062124e+00 -1.533606e+00 -3.011539e+00 -1.419097e+00 7.822737e-01 1.974153e+00 8.531939e-01 -1.219489e+00 -1.591901e+00 -1.511451e+00 -1.099942e+00 -1.081241e+00 3.296968e-01 2.435892e-01 2.131322e-01 7.433307e-01 1.096173e+00 1.076555e+00 1.531909e+00
<VARIANCE> 25
 3.102556e+01 3.982352e+01 4.648204e+01 6.052976e+01 4.865224e+01 5.364120e+01 4.957391e+01 5.206113e+01 4.994263e+01 4.377484e+01 3.566540e+01 3.010361e+01 2.105191e+00 2.133569e+00 2.607650e+00 3.361774e+00 2.917656e+00 3.954443e+00 3.398865e+00 3.319243e+00 3.668817e+00 4.076825e+00 3.093344e+00 2.673295e+00 1.675560e+00
<GCONST> 1.052759e+02
<STATE> 3
<MEAN> 25
 9.462610e+00 -6.897775e+00 -8.743549e+00 -6.083593e+00 -4.604442e+00 -5.470979e+00 1.397076e+00 -2.830499e-01 -1.629562e+00 7.007640e-01 2.659651e+00 3.340820e+00 3.290816e-02 -1.735238e-01 -3.625012e-01 -3.627358e-01 -1.769637e-01 2.254089e-01 4.766614e-01 2.827543e-01 2.371980e-01 1.767752e-01 8.445666e-02 6.974697e-02 8.193482e-02
<VARIANCE> 25
 2.840129e+01 3.570125e+01 4.138834e+01 4.038225e+01 4.118876e+01 4.148624e+01 4.739182e+01 4.747406e+01 4.473821e+01 4.189992e+01 3.449903e+01 2.805832e+01 3.302394e-01 8.424883e-01 9.393210e-01 1.242460e+00 1.324397e+00 1.496400e+00 1.901740e+00 1.780651e+00 1.803969e+00 1.726919e+00 1.430944e+00 1.179275e+00 3.783611e-01
<GCONST> 9.133002e+01
<STATE> 4
<MEAN> 25
 8.177530e+00 -2.680661e+00 -7.293503e+00 -5.932261e+00 -3.758124e+00 -2.794274e+00 1.176165e+00 -3.390664e-01 -1.368642e+00 2.573896e-01 2.133668e+00 3.287408e+00 -4.538044e-01 8.704351e-01 7.276899e-01 4.679444e-01 4.150407e-01 5.706517e-01 -1.937626e-01 -1.382255e-01 1.753797e-02 -1.629017e-01 -2.942949e-01 -3.140077e-01 -8.826797e-01
<VARIANCE> 25
 2.215926e+01 3.099335e+01 3.486272e+01 3.668752e+01 3.283007e+01 3.965223e+01 3.500597e+01 3.826480e+01 3.512437e+01 3.170736e+01 2.563973e+01 2.200531e+01 5.861269e-01 9.910762e-01 1.080531e+00 1.252255e+00 1.395680e+00 1.835312e+00 1.787168e+00 1.826652e+00 1.993582e+00 1.853269e+00 1.609923e+00 1.318195e+00 6.483233e-01
<GCONST> 9.086413e+01
~t "T_a"
<ENDHMM>
~h "m-a+n"
<BEGINHMM>
<NUMSTATES> 5
<STATE> 2
<MEAN> 25
 8.084209e+00 -3.246555e+00 -4.886938e+00 -2.890126e+00 -1.922659e+00 -4.591505e+00 -1.062124e+00 -1.533606e+00 -3.011539e+00 -1.419097e+00 7.822737e-01 1.974153e+00 8.531939e-01 -1.219489e+00 -1.591901e+00 -1.511451e+00 -1.099942e+00 -1.081241e+00 3.296968e-01 2.435892e-01 2.131322e-01 7.433307e-01 1.096173e+00 1.076555e+00 1.531909e+00
<VARIANCE> 25
 3.102556e+01 3.982352e+01 4.648204e+01 6.052976e+01 4.865224e+01 5.364120e+01 4.957391e+01 5.206113e+01 4.994263e+01 4.377484e+01 3.566540e+01 3.010361e+01 2.105191e+00 2.133569e+00 2.607650e+00 3.361774e+00 2.917656e+00 3.954443e+00 3.398865e+00 3.319243e+00 3.668817e+00 4.076825e+00 3.093344e+00 2.673295e+00 1.675560e+00
<GCONST> 1.052759e+02
<STATE> 3
<MEAN> 25
 9.462610e+00 -6.897775e+00 -8.743549e+00 -6.083593e+00 -4.604442e+00 -5.470979e+00 1.397076e+00 -2.830499e-01 -1.629562e+00 7.007640e-01 2.659651e+00 3.340820e+00 3.290816e-02 -1.735238e-01 -3.625012e-01 -3.627358e-01 -1.769637e-01 2.254089e-01 4.766614e-01 2.827543e-01 2.371980e-01 1.767752e-01 8.445666e-02 6.974697e-02 8.193482e-02
<VARIANCE> 25
 2.840129e+01 3.570125e+01 4.138834e+01 4.038225e+01 4.118876e+01 4.148624e+01 4.739182e+01 4.747406e+01 4.473821e+01 4.189992e+01 3.449903e+01 2.805832e+01 3.302394e-01 8.424883e-01 9.393210e-01 1.242460e+00 1.324397e+00 1.496400e+00 1.901740e+00 1.780651e+00 1.803969e+00 1.726919e+00 1.430944e+00 1.179275e+00 3.783611e-01
<GCONST> 9.133002e+01
<STATE> 4
<MEAN> 25
 8.177530e+00 -2.680661e+00 -7.293503e+00 -5.932261e+00 -3.758124e+00 -2.794274e+00 1.176165e+00 -3.390664e-01 -1.368642e+00 2.573896e-01 2.133668e+00 3.287408e+00 -4.538044e-01 8.704351e-01 7.276899e-01 4.679444e-01 4.150407e-01 5.706517e-01 -1.937626e-01 -1.382255e-01 1.753797e-02 -1.629017e-01 -2.942949e-01 -3.140077e-01 -8.826797e-01
<VARIANCE> 25
 2.215926e+01 3.099335e+01 3.486272e+01 3.668752e+01 3.283007e+01 3.965223e+01 3.500597e+01 3.826480e+01 3.512437e+01 3.170736e+01 2.563973e+01 2.200531e+01 5.861269e-01 9.910762e-01 1.080531e+00 1.252255e+00 1.395680e+00 1.835312e+00 1.787168e+00 1.826652e+00 1.993582e+00 1.853269e+00 1.609923e+00 1.318195e+00 6.483233e-01
<GCONST> 9.086413e+01
~t "T_a"
<ENDHMM>
~h "m-a+r"
<BEGINHMM>
<NUMSTATES> 5
<STATE> 2
<MEAN> 25
 8.084209e+00 -3.246555e+00 -4.886938e+00 -2.890126e+00 -1.922659e+00 -4.591505e+00 -1.062124e+00 -1.533606e+00 -3.011539e+00 -1.419097e+00 7.822737e-01 1.974153e+00 8.531939e-01 -1.219489e+00 -1.591901e+00 -1.511451e+00 -1.099942e+00 -1.081241e+00 3.296968e-01 2.435892e-01 2.131322e-01 7.433307e-01 1.096173e+00 1.076555e+00 1.531909e+00
<VARIANCE> 25
 3.102556e+01 3.982352e+01 4.648204e+01 6.052976e+01 4.865224e+01 5.364120e+01 4.957391e+01 5.206113e+01 4.994263e+01 4.377484e+01 3.566540e+01 3.010361e+01 2.105191e+00 2.133569e+00 2.607650e+00 3.361774e+00 2.917656e+00 3.954443e+00 3.398865e+00 3.319243e+00 3.668817e+00 4.076825e+00 3.093344e+00 2.673295e+00 1.675560e+00
<GCONST> 1.052759e+02
<STATE> 3
<MEAN> 25
 9.462610e+00 -6.897775e+00 -8.743549e+00 -6.083593e+00 -4.604442e+00 -5.470979e+00 1.397076e+00 -2.830499e-01 -1.629562e+00 7.007640e-01 2.659651e+00 3.340820e+00 3.290816e-02 -1.735238e-01 -3.625012e-01 -3.627358e-01 -1.769637e-01 2.254089e-01 4.766614e-01 2.827543e-01 2.371980e-01 1.767752e-01 8.445666e-02 6.974697e-02 8.193482e-02
<VARIANCE> 25
 2.840129e+01 3.570125e+01 4.138834e+01 4.038225e+01 4.118876e+01 4.148624e+01 4.739182e+01 4.747406e+01 4.473821e+01 4.189992e+01 3.449903e+01 2.805832e+01 3.302394e-01 8.424883e-01 9.393210e-01 1.242460e+00 1.324397e+00 1.496400e+00 1.901740e+00 1.780651e+00 1.803969e+00 1.726919e+00 1.430944e+00 1.179275e+00 3.783611e-01
<GCONST> 9.133002e+01
<STATE> 4
<MEAN> 25
 8.177530e+00 -2.680661e+00 -7.293503e+00 -5.932261e+00 -3.758124e+00 -2.794274e+00 1.176165e+00 -3.390664e-01 -1.368642e+00 2.573896e-01 2.133668e+00 3.287408e+00 -4.538044e-01 8.704351e-01 7.276899e-01 4.679444e-01 4.150407e-01 5.706517e-01 -1.937626e-01 -1.382255e-01 1.753797e-02 -1.629017e-01 -2.942949e-01 -3.140077e-01 -8.826797e-01
<VARIANCE> 25
 2.215926e+01 3.099335e+01 3.486272e+01 3.668752e+01 3.283007e+01 3.965223e+01 3.500597e+01 3.826480e+01 3.512437e+01 3.170736e+01 2.563973e+01 2.200531e+01 5.861269e-01 9.910762e-01 1.080531e+00 1.252255e+00 1.395680e+00 1.835312e+00 1.787168e+00 1.826652e+00 1.993582e+00 1.853269e+00 1.609923e+00 1.318195e+00 6.483233e-01
<GCONST> 9.086413e+01
~t "T_a"
<ENDHMM>
~h "m-a+s"
<BEGINHMM>
<NUMSTATES> 5
<STATE> 2
<MEAN> 25
 8.084209e+00 -3.246555e+00 -4.886938e+00 -2.890126e+00 -1.922659e+00 -4.591505e+00 -1.062124e+00 -1.533606e+00 -3.011539e+00 -1.419097e+00 7.822737e-01 1.974153e+00 8.531939e-01 -1.219489e+00 -1.591901e+00 -1.511451e+00 -1.099942e+00 -1.081241e+00 3.296968e-01 2.435892e-01 2.131322e-01 7.433307e-01 1.096173e+00 1.076555e+00 1.531909e+00
<VARIANCE> 25
 3.102556e+01 3.982352e+01 4.648204e+01 6.052976e+01 4.865224e+01 5.364120e+01 4.957391e+01 5.206113e+01 4.994263e+01 4.377484e+01 3.566540e+01 3.010361e+01 2.105191e+00 2.133569e+00 2.607650e+00 3.361774e+00 2.917656e+00 3.954443e+00 3.398865e+00 3.319243e+00 3.668817e+00 4.076825e+00 3.093344e+00 2.673295e+00 1.675560e+00
<GCONST> 1.052759e+02
<STATE> 3
<MEAN> 25
 9.462610e+00 -6.897775e+00 -8.743549e+00 -6.083593e+00 -4.604442e+00 -5.470979e+00 1.397076e+00 -2.830499e-01 -1.629562e+00 7.007640e-01 2.659651e+00 3.340820e+00 3.290816e-02 -1.735238e-01 -3.625012e-01 -3.627358e-01 -1.769637e-01 2.254089e-01 4.766614e-01 2.827543e-01 2.371980e-01 1.767752e-01 8.445666e-02 6.974697e-02 8.193482e-02
<VARIANCE> 25
 2.840129e+01 3.570125e+01 4.138834e+01 4.038225e+01 4.118876e+01 4.148624e+01 4.739182e+01 4.747406e+01 4.473821e+01 4.189992e+01 3.449903e+01 2.805832e+01 3.302394e-01 8.424883e-01 9.393210e-01 1.242460e+00 1.324397e+00 1.496400e+00 1.901740e+00 1.780651e+00 1.803969e+00 1.726919e+00 1.430944e+00 1.179275e+00 3.783611e-01
<GCONST> 9.133002e+01
<STATE> 4
<MEAN> 25
 8.177530e+00 -2.680661e+00 -7.293503e+00 -5.932261e+00 -3.758124e+00 -2.794274e+00 1.176165e+00 -3.390664e-01 -1.368642e+00 2.573896e-01 2.133668e+00 3.287408e+00 -4.538044e-01 8.704351e-01 7.276899e-01 4.679444e-01 4.150407e-01 5.706517e-01 -1.937626e-01 -1.382255e-01 1.753797e-02 -1.629017e-01 -2.942949e-01 -3.140077e-01 -8.826797e-01
<VARIANCE> 25
 2.215926e+01 3.099335e+01 3.486272e+01 3.668752e+01 3.283007e+01 3.965223e+01 3.500597e+01 3.826480e+01 3.512437e+01 3.170736e+01 2.563973e+01 2.200531e+01 5.861269e-01 9.910762e-01 1.080531e+00 1.252255e+00 1.395680e+00 1.835312e+00 1.787168e+00 1.826652e+00 1.993582e+00 1.853269e+00 1.609923e+00 1.318195e+00 6.483233e-01
<GCONST> 9.086413e+01
~t "T_a"
<ENDHMM>
~h "m-a+t"
<BEGINHMM>
<NUMSTATES> 5
<STATE> 2
<MEAN> 25
 8.084209e+00 -3.246555e+00 -4.886938e+00 -2.890126e+00 -1.922659e+00 -4.591505e+00 -1.062124e+00 -1.533606e+00 -3.011539e+00 -1.419097e+00 7.822737e-01 1.974153e+00 8.531939e-01 -1.219489e+00 -1.591901e+00 -1.511451e+00 -1.099942e+00 -1.081241e+00 3.296968e-01 2.435892e-01 2.131322e-01 7.433307e-01 1.096173e+00 1.076555e+00 1.531909e+00
<VARIANCE> 25
 3.102556e+01 3.982352e+01 4.648204e+01 6.052976e+01 4.865224e+01 5.364120e+01 4.957391e+01 5.206113e+01 4.994263e+01 4.377484e+01 3.566540e+01 3.010361e+01 2.105191e+00 2.133569e+00 2.607650e+00 3.361774e+00 2.917656e+00 3.954443e+00 3.398865e+00 3.319243e+00 3.668817e+00 4.076825e+00 3.093344e+00 2.673295e+00 1.675560e+00
<GCONST> 1.052759e+02
<STATE> 3
<MEAN> 25
 9.462610e+00 -6.897775e+00 -8.743549e+00 -6.083593e+00 -4.604442e+00 -5.470979e+00 1.397076e+00 -2.830499e-01 -1.629562e+00 7.007640e-01 2.659651e+00 3.340820e+00 3.290816e-02 -1.735238e-01 -3.625012e-01 -3.627358e-01 -1.769637e-01 2.254089e-01 4.766614e-01 2.827543e-01 2.371980e-01 1.767752e-01 8.445666e-02 6.974697e-02 8.193482e-02
<VARIANCE> 25
 2.840129e+01 3.570125e+01 4.138834e+01 4.038225e+01 4.118876e+01 4.148624e+01 4.739182e+01 4.747406e+01 4.473821e+01 4.189992e+01 3.449903e+01 2.805832e+01 3.302394e-01 8.424883e-01 9.393210e-01 1.242460e+00 1.324397e+00 1.496400e+00 1.901740e+00 1.780651e+00 1.803969e+00 1.726919e+00 1.430944e+00 1.179275e+00 3.783611e-01
<GCONST> 9.133002e+01
<STATE> 4
<MEAN> 25
 8.177530e+00 -2.680661e+00 -7.293503e+00 -5.932261e+00 -3.758124e+00 -2.794274e+00 1.176165e+00 -3.390664e-01 -1.368642e+00 2.573896e-01 2.133668e+00 3.287408e+00 -4.538044e-01 8.704351e-01 7.276899e-01 4.679444e-01 4.150407e-01 5.706517e-01 -1.937626e-01 -1.382255e-01 1.753797e-02 -1.629017e-01 -2.942949e-01 -3.140077e-01 -8.826797e-01
<VARIANCE> 25
 2.215926e+01 3.099335e+01 3.486272e+01 3.668752e+01 3.283007e+01 3.965223e+01 3.500597e+01 3.826480e+01 3.512437e+01 3.170736e+01 2.563973e+01 2.200531e+01 5.861269e-01 9.910762e-01 1.080531e+00 1.252255e+00 1.395680e+00 1.835312e+00 1.787168e+00 1.826652e+00 1.993582e+00 1.853269e+00 1.609923e+00 1.318195e+00 6.483233e-01
<GCONST> 9.086413e+01
~t "T_a"
<ENDHMM>
~h "m-b+a"
<BEGINHMM>
<NUMSTATES> 5
<STATE> 2
<MEAN> 25
 7.453249e+00 1.854894e+00 -3.055483e+00 1.129761e-01 -5.903215e-01 -2.019453e+00 -9.623871e-01 -2.498531e-01 -2.357596e+00 -3.923417e+00 -3.094668e+00 -1.821743e+00 4.853825e-02 1.296036e+00 3.276203e-01 2.709658e-02 -3.125394e-01 5.880693e-01 7.153720e-01 7.017969e-01 4.376649e-01 -1.752225e-01 -7.070358e-01 -5.481036e-01 -9.195412e-01
<VARIANCE> 25
 3.346801e+01 3.947591e+01 4.344426e+01 5.973069e+01 5.670771e+01 4.925726e+01 3.268375e+01 4.100950e+01 4.737400e+01 3.473342e+01 2.501481e+01 2.451253e+01 1.081666e+00 1.334289e+00 1.641493e+00 2.853810e+00 3.615987e+00 2.742803e+00 2.493510e+00 2.804891e+00 2.849236e+00 2.749629e+00 2.209752e+00 1.999554e+00 1.226195e+00
<GCONST> 9.985339e+01
<STATE> 3
<MEAN> 25
 6.949950e+00 3.740428e+00 -1.714613e+00 3.235494e-01 -9.867709e-01 -1.327352e+00 -1.314925e-01 7.956891e-01 -1.145713e+00 -3.079894e+00 -3.591807e+00 -2.550094e+00 -8.611151e-02 4.030907e-01 1.799360e-01 7.571537e-02 -3.430426e-02 2.170843e-01 1.954542e-01 1.316523e-01 1.675814e-01 3.952383e-02 -1.006096e-01 -8.349357e-02 -3.062887e-01
<VARIANCE> 25
 2.692079e+01 3.626947e+01 4.409764e+01 5.273486e+01 4.805618e+01 4.925530e+01 3.155102e+01 3.594095e+01 4.166383e+01 3.111368e+01 2.364136e+01 2.366270e+01 4.684736e-01 6.017178e-01 8.846315e-01 1.491829e+00 2.014702e+00 1.665077e+00 1.348875e+00 1.519242e+00 1.830568e+00 1.490714e+00 1.216153e+00 1.152516e+00 3.799050e-01
<GCONST> 9.019222e+01
<STATE> 4
<MEAN> 25
 6.578341e+00 4.712523e+00 -1.122386e+00 6.479018e-01 -1.106130e+00 -1.354586e+00 -2.909619e-01 1.025624e+00 -5.704058e-01 -2.493345e+00 -3.110632e+00 -2.025941e+00 1.390214e-01 -3.549204e-01 -1.764275e-01 -3.578497e-02 6.442415e-02 -2.743158e-01 -2.597390e-01 -2.456179e-01 -2.362213e-01 -5.547573e-03 2.503186e-01 3.078200e-01 3.261120e-01
<VARIANCE> 25
 2.816606e+01 3.491276e+01 4.524225e+01 4.909471e+01 4.680241e+01 5.250218e+01 3.074101e+01 3.258335e+01 3.859496e+01 2.864092e+01 2.050313e+01 1.999232e+01 3.488529e-01 7.084572e-01 8.258898e-01 1.390724e+00 1.873912e+00 1.648457e+00 1.367848e+00 1.515477e+00 1.712910e+00 1.390957e+00 1.179897e+00 1.095034e+00 3.408834e-01
<GCONST> 8.892953e+01
~t "T_b"
<ENDHMM>
~h "m-b+e"
<BEGINHMM>
<NUMSTATES> 5
<STATE> 2
<MEAN> 25
 7.453249e+00 1.854894e+00 -3.055483e+00 1.129761e-01 -5.903215e-01 -2.019453e+00 -9.623871e-01 -2.498531e-01 -2.357596e+00 -3.923417e+00 -3.094668e+00 -1.821743e+00 4.853825e-02 1.296036e+00 3.276203e-01 2.709658e-02 -3.125394e-01 5.880693e-01 7.153720e-01 7.017969e-01 4.376649e-01 -1.752225e-01 -7.070358e-01 -5.481036e-01 -9.195412e-01
<VARIANCE> 25
 3.346801e+01 3.947591e+01 4.344426e+01 5.973069e+01 5.670771e+01 4.925726e+01 3.268375e+01 4.100950e+01 4.737400e+01 3.473342e+01 2.501481e+01 2.451253e+01 1.081666e+00 1.334289e+00 1.641493e+00 2.853810e+00 3.615987e+00 2.742803e+00 2.493510e+00 2.804891e+00 2.849236e+00 2.749629e+00 2.209752e+00 1.999554e+00 1.226195e+00
<GCONST> 9.985339e+01
<STATE> 3
<MEAN> 25
 6.949950e+00 3.740428e+00 -1.714613e+00 3.235494e-01 -9.867709e-01 -1.327352e+00 -1.314925e-01 7.956891e-01 -1.145713e+00 -3.079894e+00 -3.591807e+00 -2.550094e+00 -8.611151e-02 4.030907e-01 1.799360e-01 7.571537e-02 -3.430426e-02 2.170843e-01 1.954542e-01 1.316523e-01 1.675814e-01 3.952383e-02 -1.006096e-01 -8.349357e-02 -3.062887e-01
<VARIANCE> 25
 2.692079e+01 3.626947e+01 4.409764e+01 5.273486e+01 4.805618e+01 4.925530e+01 3.155102e+01 3.594095e+01 4.166383e+01 3.111368e+01 2.364136e+01 2.366270e+01 4.684736e-01 6.017178e-01 8.846315e-01 1.491829e+00 2.014702e+00 1.665077e+00 1.348875e+00 1.519242e+00 1.830568e+00 1.490714e+00 1.216153e+00 1.152516e+00 3.799050e-01
<GCONST> 9.019222e+01
<STATE> 4
<MEAN> 25
 6.578341e+00 4.712523e+00 -1.122386e+00 6.479018e-01 -1.106130e+00 -1.354586e+00 -2.909619e-01 1.025624e+00 -5.704058e-01 -2.493345e+00 -3.110632e+00 -2.025941e+00 1.390214e-01 -3.549204e-01 -1.764275e-01 -3.578497e-02 6.442415e-02 -2.743158e-01 -2.597390e-01 -2.456179e-01 -2.362213e-01 -5.547573e-03 2.503186e-01 3.078200e-01 3.261120e-01
<VARIANCE> 25
 2.816606e+01 3.491276e+01 4.524225e+01 4.909471e+01 4.680241e+01 5.250218e+01 3.074101e+01 3.258335e+01 3.859496e+01 2.864092e+01 2.050313e+01 1.999232e+01 3.488529e-01 7.084572e-01 8.258898e-01 1.390724e+00 1.873912e+00 1.648457e+00 1.367848e+00 1.515477e+00 1.712910e+00 1.390957e+00 1.179897e+00 1.095034e+00 3.408834e-01
<GCONST> 8.892953e+01
~t "T_b"
<ENDHMM>
~h "m-b+i"
<BEGINHMM>
<NUMSTATES> 5
<STATE> 2
<MEAN> 25
 7.453249e+00 1.854894e+00 -3.055483e+00 1.129761e-01 -5.903215e-01 -2.019453e+00 -9.623871e-01 -2.498531e-01 -2.357596e+00 -3.923417e+00 -3.094668e+00 -1.821743e+00 4.853825e-02 1.296036e+00 3.276203e-01 2.709658e-02 -3.125394e-01 5.880693e-01 7.153720e-01 7.017969e-01 4.376649e-01 -1.752225e-01 -7.070358e-01 -5.481036e-01 -9.195412e-01
<VARIANCE> 25
 3.346801e+01 3.947591e+01 4.344426e+01 5.973069e+01 5.670771e+01 4.925726e+01 3.268375e+01 4.100950e+01 4.737400e+01 3.473342e+01 2.501481e+01 2.451253e+01 1.081666e+00 1.334289e+00 1.641493e+00 2.853810e+00 3.615987e+00 2.742803e+00 2.493510e+00 2.804891e+00 2.849236e+00 2.749629e+00 2.209752e+00 1.999554e+00 1.226195e+00
<GCONST> 9.985339e+01
<STATE> 3
<MEAN> 25
 6.949950e+00 3.740428e+00 -1.714613e+00 3.235494e-01 -9.867709e-01 -1.327352e+00 -1.314925e-01 7.956891e-01 -1.145713e+00 -3.079894e+00 -3.591807e+00 -2.550094e+00 -8.611151e-02 4.030907e-01 1.799360e-01 7.571537e-02 -3.430426e-02 2.170843e-01 1.954542e-01 1.316523e-01 1.675814e-01 3.952383e-02 -1.006096e-01 -8.349357e-02 -3.062887e-01
<VARIANCE> 25
 2.692079e+01 3.626947e+01 4.409764e+01 5.273486e+01 4.805618e+01 4.925530e+01 3.155102e+01 3.594095e+01 4.166383e+01 3.111368e+01 2.364136e+01 2.366270e+01 4.684736e-01 6.017178e-01 8.846315e-01 1.491829e+00 2.014702e+00 1.665077e+00 1.348875e+00 1.519242e+00 1.830568e+00 1.490714e+00 1.216153e+00 1.152516e+00 3.799050e-01
<GCONST> 9.019222e+01
<STATE> 4
<MEAN> 25
 6.578341e+00 4.712523e+00 -1.122386e+00 6.479018e-01 -1.106130e+00 -1.354586e+00 -2.909619e-01 1.025624e+00 -5.704058e-01 -2.493345e+00 -3.110632e+00 -2.025941e+00 1.390214e-01 -3.549204e-01 -1.764275e-01 -3.578497e-02 6.442415e-02 -2.743158e-01 -2.597390e-01 -2.456179e-01 -2.362213e-01 -5.547573e-03 2.503186e-01 3.078200e-01 3.261120e-01
<VARIANCE> 25
 2.816606e+01 3.491276e+01 4.524225e+01 4.909471e+01 4.680241e+01 5.250218e+01 3.074101e+01 3.258335e+01 3.859496e+01 2.864092e+01 2.050313e+01 1.999232e+01 3.488529e-01 7.084572e-01 8.258898e-01 1.390724e+00 1.873912e+00 1.648457e+00 1.367848e+00 1.515477e+00 1.712910e+00 1.390957e+00 1.179897e+00 1.095034e+00 3.408834e-01
<GCONST> 8.892953e+01
~t "T_b"
<ENDHMM>
~h "m-b+l"
<BEGINHMM>
<NUMSTATES> 5
<STATE> 2
<MEAN> 25
 7.453249e+00 1.854894e+00 -3.055483e+00 1.129761e-01 -5.903215e-01 -2.019453e+00 -9.623871e-01 -2.498531e-01 -2.357596e+00 -3.923417e+00 -3.094668e+00 -1.821743e+00 4.853825e-02 1.296036e+00 3.276203e-01 2.709658e-02 -3.125394e-01 5.880693e-01 7.153720e-01 7.017969e-01 4.376649e-01 -1.752225e-01 -7.070358e-01 -5.481036e-01 -9.195412e-01
<VARIANCE> 25
 3.346801e+01 3.947591e+01 4.344426e+01 5.973069e+01 5.670771e+01 4.925726e+01 3.268375e+01 4.100950e+01 4.737400e+01 3.473342e+01 2.501481e+01 2.451253e+01 1.081666e+00 1.334289e+00 1.641493e+00 2.853810e+00 3.615987e+00 2.742803e+00 2.493510e+00 2.804891e+00 2.849236e+00 2.749629e+00 2.209752e+00 1.999554e+00 1.226195e+00
<GCONST> 9.985339e+01
<STATE> 3
<MEAN> 25
 6.949950e+00 3.740428e+00 -1.714613e+00 3.235494e-01 -9.867709e-01 -1.327352e+00 -1.314925e-01 7.956891e-01 -1.145713e+00 -3.079894e+00 -3.591807e+00 -2.550094e+00 -8.611151e-02 4.030907e-01 1.799360e-01 7.571537e-02 -3.430426e-02 2.170843e-01 1.954542e-01 1.316523e-01 1.675814e-01 3.952383e-02 -1.006096e-01 -8.349357e-02 -3.062887e-01
<VARIANCE> 25
 2.692079e+01 3.626947e+01 4.409764e+01 5.273486e+01 4.805618e+01 4.925530e+01 3.155102e+01 3.594095e+01 4.166383e+01 3.111368e+01 2.364136e+01 2.366270e+01 4.684736e-01 6.017178e-01 8.846315e-01 1.491829e+00 2.014702e+00 1.665077e+00 1.348875e+00 1.519242e+00 1.830568e+00 1.490714e+00 1.216153e+00 1.152516e+00 3.799050e-01
<GCONST> 9.019222e+01
<STATE> 4
<MEAN> 25
 6.578341e+00 4.712523e+00 -1.122386e+00 6.479018e-01 -1.106130e+00 -1.354586e+00 -2.909619e-01 1.025624e+00 -5.704058e-01 -2.493345e+00 -3.110632e+00 -2.025941e+00 1.390214e-01 -3.549204e-01 -1.764275e-01 -3.578497e-02 6.442415e-02 -2.743158e-01 -2.597390e-01 -2.456179e-01 -2.362213e-01 -5.547573e-03 2.503186e-01 3.078200e-01 3.261120e-01
<VARIANCE> 25
 2.816606e+01 3.491276e+01 4.524225e+01 4.909471e+01 4.680241e+01 5.250218e+01 3.074101e+01 3.258335e+01 3.859496e+01 2.864092e+01 2.050313e+01 1.999232e+01 3.488529e-01 7.084572e-01 8.258898e-01 1.390724e+00 1.873912e+00 1.648457e+00 1.367848e+00 1.515477e+00 1.712910e+00 1.390957e+00 1.179897e+00 1.095034e+00 3.408834e-01
<GCONST> 8.892953e+01
~t "T_b"
<ENDHMM>
~h "m-b+r"
<BEGINHMM>
<NUMSTATES> 5
<STATE> 2
<MEAN> 25
 7.453249e+00 1.854894e+00 -3.055483e+00 1.129761e-01 -5.903215e-01 -2.019453e+00 -9.623871e-01 -2.498531e-01 -2.357596e+00 -3.923417e+00 -3.094668e+00 -1.821743e+00 4.853825e-02 1.296036e+00 3.276203e-01 2.709658e-02 -3.125394e-01 5.880693e-01 7.153720e-01 7.017969e-01 4.376649e-01 -1.752225e-01 -7.070358e-01 -5.481036e-01 -9.195412e-01
<VARIANCE> 25
 3.346801e+01 3.947591e+01 4.344426e+01 5.973069e+01 5.670771e+01 4.925726e+01 3.268375e+01 4.100950e+01 4.737400e+01 3.473342e+01 2.501481e+01 2.451253e+01 1.081666e+00 1.334289e+00 1.641493e+00 2.853810e+00 3.615987e+00 2.742803e+00 2.493510e+00 2.804891e+00 2.849236e+00 2.749629e+00 2.209752e+00 1.999554e+00 1.226195e+00
<GCONST> 9.985339e+01
<STATE> 3
<MEAN> 25
 6.949950e+00 3.740428e+00 -1.714613e+00 3.235494e-01 -9.867709e-01 -1.327352e+00 -1.314925e-01 7.956891e-01 -1.145713e+00 -3.079894e+00 -3.591807e+00 -2.550094e+00 -8.611151e-02 4.030907e-01 1.799360e-01 7.571537e-02 -3.430426e-02 2.170843e-01 1.954542e-01 1.316523e-01 1.675814e-01 3.952383e-02 -1.006096e-01 -8.349357e-02 -3.062887e-01
<VARIANCE> 25
 2.692079e+01 3.626947e+01 4.409764e+01 5.273486e+01 4.805618e+01 4.925530e+01 3.155102e+01 3.594095e+01 4.166383e+01 3.111368e+01 2.364136e+01 2.366270e+01 4.684736e-01 6.017178e-01 8.846315e-01 1.491829e+00 2.014702e+00 1.665077e+00 1.348875e+00 1.519242e+00 1.830568e+00 1.490714e+00 1.216153e+00 1.152516e+00 3.799050e-01
<GCONST> 9.019222e+01
<STATE> 4
<MEAN> 25
 6.578341e+00 4.712523e+00 -1.122386e+00 6.479018e-01 -1.106130e+00 -1.354586e+00 -2.909619e-01 1.025624e+00 -5.704058e-01 -2.493345e+00 -3.110632e+00 -2.025941e+00 1.390214e-01 -3.549204e-01 -1.764275e-01 -3.578497e-02 6.442415e-02 -2.743158e-01 -2.597390e-01 -2.456179e-01 -2.362213e-01 -5.547573e-03 2.503186e-01 3.078200e-01 3.261120e-01
<VARIANCE> 25
 2.816606e+01 3.491276e+01 4.524225e+01 4.909471e+01 4.680241e+01 5.250218e+01 3.074101e+01 3.258335e+01 3.859496e+01 2.864092e+01 2.050313e+01 1.999232e+01 3.488529e-01 7.084572e-01 8.258898e-01 1.390724e+00 1.873912e+00 1.648457e+00 1.367848e+00 1.515477e+00 1.712910e+00 1.390957e+00 1.179897e+00 1.095034e+00 3.408834e-01
<GCONST> 8.892953e+01
~t "T_b"
<ENDHMM>
~h "m-b+u"
<BEGINHMM>
<NUMSTATES> 5
<STATE> 2
<MEAN> 25
 7.453249e+00 1.854894e+00 -3.055483e+00 1.129761e-01 -5.903215e-01 -2.019453e+00 -9.623871e-01 -2.498531e-01 -2.357596e+00 -3.923417e+00 -3.094668e+00 -1.821743e+00 4.853825e-02 1.296036e+00 3.276203e-01 2.709658e-02 -3.125394e-01 5.880693e-01 7.153720e-01 7.017969e-01 4.376649e-01 -1.752225e-01 -7.070358e-01 -5.481036e-01 -9.195412e-01
<VARIANCE> 25
 3.346801e+01 3.947591e+01 4.344426e+01 5.973069e+01 5.670771e+01 4.925726e+01 3.268375e+01 4.100950e+01 4.737400e+01 3.473342e+01 2.501481e+01 2.451253e+01 1.081666e+00 1.334289e+00 1.641493e+00 2.853810e+00 3.615987e+00 2.742803e+00 2.493510e+00 2.804891e+00 2.849236e+00 2.749629e+00 2.209752e+00 1.999554e+00 1.226195e+00
<GCONST> 9.985339e+01
<STATE> 3
<MEAN> 25
 6.949950e+00 3.740428e+00 -1.714613e+00 3.235494e-01 -9.867709e-01 -1.327352e+00 -1.314925e-01 7.956891e-01 -1.145713e+00 -3.079894e+00 -3.591807e+00 -2.550094e+00 -8.611151e-02 4.030907e-01 1.799360e-01 7.571537e-02 -3.430426e-02 2.170843e-01 1.954542e-01 1.316523e-01 1.675814e-01 3.952383e-02 -1.006096e-01 -8.349357e-02 -3.062887e-01
<VARIANCE> 25
 2.692079e+01 3.626947e+01 4.409764e+01 5.273486e+01 4.805618e+01 4.925530e+01 3.155102e+01 3.594095e+01 4.166383e+01 3.111368e+01 2.364136e+01 2.366270e+01 4.684736e-01 6.017178e-01 8.846315e-01 1.491829e+00 2.014702e+00 1.665077e+00 1.348875e+00 1.519242e+00 1.830568e+00 1.490714e+00 1.216153e+00 1.152516e+00 3.799050e-01
<GCONST> 9.019222e+01
<STATE> 4
<MEAN> 25
 6.578341e+00 4.712523e+00 -1.122386e+00 6.479018e-01 -1.106130e+00 -1.354586e+00 -2.909619e-01 1.025624e+00 -5.704058e-01 -2.493345e+00 -3.110632e+00 -2.025941e+00 1.390214e-01 -3.549204e-01 -1.764275e-01 -3.578497e-02 6.442415e-02 -2.743158e-01 -2.597390e-01 -2.456179e-01 -2.362213e-01 -5.547573e-03 2.503186e-01 3.078200e-01 3.261120e-01
<VARIANCE> 25
 2.816606e+01 3.491276e+01 4.524225e+01 4.909471e+01 4.680241e+01 5.250218e+01 3.074101e+01 3.258335e+01 3.859496e+01 2.864092e+01 2.050313e+01 1.999232e+01 3.488529e-01 7.084572e-01 8.258898e-01 1.390724e+00 1.873912e+00 1.648457e+00 1.367848e+00 1.515477e+00 1.712910e+00 1.390957e+00 1.179897e+00 1.095034e+00 3.408834e-01
<GCONST> 8.892953e+01
~t "T_b"
<ENDHMM>
~h "d+a"
<BEGINHMM>
<NUMSTATES> 5
<STATE> 2
<MEAN> 25
 4.986747e+00 1.173107e+00 -3.532605e-03 -2.869664e-01 -8.792292e-01 -2.943893e-01 -1.157155e-01 -1.781017e+00 -2.767115e+00 -2.582419e+00 -1.706980e+00 -5.448081e-01 -2.492582e-01 7.052330e-01 5.542889e-01 4.937656e-01 3.336083e-01 7.560925e-01 3.487482e-01 9.874161e-02 5.457619e-02 -1.007866e-01 -2.741712e-01 -1.678351e-01 -6.813607e-01
<VARIANCE> 25
 3.575130e+01 4.199368e+01 4.126587e+01 5.860994e+01 5.800882e+01 5.540382e+01 4.170780e+01 4.906739e+01 4.723788e+01 3.940030e+01 2.930230e+01 2.850399e+01 1.251378e+00 1.493562e+00 1.629822e+00 2.081238e+00 2.239027e+00 2.528253e+00 2.284125e+00 2.485779e+00 2.461237e+00 2.372278e+00 2.008663e+00 1.836602e+00 1.659663e+00
<GCONST> 9.990127e+01
<STATE> 3
<MEAN> 25
 4.914427e+00 1.635913e+00 8.481176e-01 5.874320e-01 -1.860407e-01 2.406812e-01 -3.938809e-02 -1.716778e+00 -2.743559e+00 -2.302445e+00 -1.865128e+00 -5.342951e-01 -2.087076e-01 3.739429e-02 2.673025e-01 1.669757e-01 1.145322e-01 1.772111e-01 9.942254e-02 -5.373251e-02 -6.358257e-02 -4.126178e-02 1.807586e-02 1.027398e-01 -1.237136e-01
<VARIANCE> 25
 2.888018e+01 4.287783e+01 4.231509e+01 5.601795e+01 5.643327e+01 5.696796e+01 4.082035e+01 4.643125e+01 4.334551e+01 3.674223e+01 2.845123e+01 2.631162e+01 6.074597e-01 9.825633e-01 1.005929e+00 1.402578e+00 1.643439e+00 1.440409e+00 1.691248e+00 1.775282e+00 1.692227e+00 1.545876e+00 1.368715e+00 1.293374e+00 5.901869e-01
<GCONST> 9.324805e+01
<STATE> 4
<MEAN> 25
 4.336635e+00 1.898943e+00 1.592930e+00 1.054985e+00 7.405771e-02 9.789971e-01 5.451074e-02 -1.993555e+00 -2.809552e+00 -2.274028e+00 -1.686451e+00 -2.280605e-01 4.773585e-02 -5.405355e-01 -1.993422e-02 -3.128903e-02 -5.543578e-02 -4.109922e-01 -2.349472e-01 -2.260227e-01 -2.361541e-01 -3.670364e-05 2.079962e-01 2.329595e-01 4.070511e-01
<VARIANCE> 25
 2.717667e+01 4.477932e+01 4.206721e+01 5.259300e+01 5.149903e+01 5.344878e+01 3.844084e+01 4.642159e+01 4.322847e+01 3.436483e+01 2.569947e+01 2.370034e+01 4.915567e-01 1.268307e+00 9.630365e-01 1.468139e+00 1.692315e+00 1.473882e+00 1.775575e+00 2.010480e+00 1.839599e+00 1.618163e+00 1.409668e+00 1.328542e+00 7.107434e-01
<GCONST> 9.331273e+01
~t "T_d"
<ENDHMM>
~h "d+e"
<BEGINHMM>
<NUMSTATES> 5
<STATE> 2
<MEAN> 25
 4.986747e+00 1.173107e+00 -3.532605e-03 -2.869664e-01 -8.792292e-01 -2.943893e-01 -1.157155e-01 -1.781017e+00 -2.767115e+00 -2.582419e+00 -1.706980e+00 -5.448081e-01 -2.492582e-01 7.052330e-01 5.542889e-01 4.937656e-01 3.336083e-01 7.560925e-01 3.487482e-01 9.874161e-02 5.457619e-02 -1.007866e-01 -2.741712e-01 -1.678351e-01 -6.813607e-01
<VARIANCE> 25
 3.575130e+01 4.199368e+01 4.126587e+01 5.860994e+01 5.800882e+01 5.540382e+01 4.170780e+01 4.906739e+01 4.723788e+01 3.940030e+01 2.930230e+01 2.850399e+01 1.251378e+00 1.493562e+00 1.629822e+00 2.081238e+00 2.239027e+00 2.528253e+00 2.284125e+00 2.485779e+00 2.461237e+00 2.372278e+00 2.008663e+00 1.836602e+00 1.659663e+00
<GCONST> 9.990127e+01
<STATE> 3
<MEAN> 25
 4.914427e+00 1.635913e+00 8.481176e-01 5.874320e-01 -1.860407e-01 2.406812e-01 -3.938809e-02 -1.716778e+00 -2.743559e+00 -2.302445e+00 -1.865128e+00 -5.342951e-01 -2.087076e-01 3.739429e-02 2.673025e-01 1.669757e-01 1.145322e-01 1.772111e-01 9.942254e-02 -5.373251e-02 -6.358257e-02 -4.126178e-02 1.807586e-02 1.027398e-01 -1.237136e-01
<VARIANCE> 25
 2.888018e+01 4.287783e+01 4.231509e+01 5.601795e+01 5.643327e+01 5.696796e+01 4.082035e+01 4.643125e+01 4.334551e+01 3.674223e+01 2.845123e+01 2.631162e+01 6.074597e-01 9.825633e-01 1.005929e+00 1.402578e+00 1.643439e+00 1.440409e+00 1.691248e+00 1.775282e+00 1.692227e+00 1.545876e+00 1.368715e+00 1.293374e+00 5.901869e-01
<GCONST> 9.324805e+01
<STATE> 4
<MEAN> 25
 4.336635e+00 1.898943e+00 1.592930e+00 1.054985e+00 7.405771e-02 9.789971e-01 5.451074e-02 -1.993555e+00 -2.809552e+00 -2.274028e+00 -1.686451e+00 -2.280605e-01 4.773585e-02 -5.405355e-01 -1.993422e-02 -3.128903e-02 -5.543578e-02 -4.109922e-01 -2.349472e-01 -2.260227e-01 -2.361541e-01 -3.670364e-05 2.079962e-01 2.329595e-01 4.070511e-01
<VARIANCE> 25
 2.717667e+01 4.477932e+01 4.206721e+01 5.259300e+01 5.149903e+01 5.344878e+01 3.844084e+01 4.642159e+01 4.322847e+01 3.436483e+01 2.569947e+01 2.370034e+01 4.915567e-01 1.268307e+00 9.630365e-01 1.468139e+00 1.692315e+00 1.473882e+00 1.775575e+00 2.010480e+00 1.839599e+00 1.618163e+00 1.409668e+00 1.328542e+00 7.107434e-01
<GCONST> 9.331273e+01
~t "T_d"
<ENDHMM>
~h "d+i"
<BEGINHMM>
<NUMSTATES> 5
<STATE> 2
<MEAN> 25
 4.986747e+00 1.173107e+00 -3.532605e-03 -2.869664e-01 -8.792292e-01 -2.943893e-01 -1.157155e-01 -1.781017e+00 -2.767115e+00 -2.582419e+00 -1.706980e+00 -5.448081e-01 -2.492582e-01 7.052330e-01 5.542889e-01 4.937656e-01 3.336083e-01 7.560925e-01 3.487482e-01 9.874161e-02 5.457619e-02 -1.007866e-01 -2.741712e-01 -1.678351e-01 -6.813607e-01
<VARIANCE> 25
 3.575130e+01 4.199368e+01 4.126587e+01 5.860994e+01 5.800882e+01 5.540382e+01 4.170780e+01 4.906739e+01 4.723788e+01 3.940030e+01 2.930230e+01 2.850399e+01 1.251378e+00 1.493562e+00 1.629822e+00 2.081238e+00 2.239027e+00 2.528253e+00 2.284125e+00 2.485779e+00 2.461237e+00 2.372278e+00 2.008663e+00 1.836602e+00 1.659663e+00
<GCONST> 9.990127e+01
<STATE> 3
<MEAN> 25
 4.914427e+00 1.635913e+00 8.481176e-01 5.874320e-01 -1.860407e-01 2.406812e-01 -3.938809e-02 -1.716778e+00 -2.743559e+00 -2.302445e+00 -1.865128e+00 -5.342951e-01 -2.087076e-01 3.739429e-02 2.673025e-01 1.669757e-01 1.145322e-01 1.772111e-01 9.942254e-02 -5.373251e-02 -6.358257e-02 -4.126178e-02 1.807586e-02 1.027398e-01 -1.237136e-01
<VARIANCE> 25
 2.888018e+01 4.287783e+01 4.231509e+01 5.601795e+01 5.643327e+01 5.696796e+01 4.082035e+01 4.643125e+01 4.334551e+01 3.674223e+01 2.845123e+01 2.631162e+01 6.074597e-01 9.825633e-01 1.005929e+00 1.402578e+00 1.643439e+00 1.440409e+00 1.691248e+00 1.775282e+00 1.692227e+00 1.545876e+00 1.368715e+00 1.293374e+00 5.901869e-01
<GCONST> 9.324805e+01
<STATE> 4
<MEAN> 25
 4.336635e+00 1.898943e+00 1.592930e+00 1.054985e+00 7.405771e-02 9.789971e-01 5.451074e-02 -1.993555e+00 -2.809552e+00 -2.274028e+00 -1.686451e+00 -2.280605e-01 4.773585e-02 -5.405355e-01 -1.993422e-02 -3.128903e-02 -5.543578e-02 -4.109922e-01 -2.349472e-01 -2.260227e-01 -2.361541e-01 -3.670364e-05 2.079962e-01 2.329595e-01 4.070511e-01
<VARIANCE> 25
 2.717667e+01 4.477932e+01 4.206721e+01 5.259300e+01 5.149903e+01 5.344878e+01 3.844084e+01 4.642159e+01 4.322847e+01 3.436483e+01 2.569947e+01 2.370034e+01 4.915567e-01 1.268307e+00 9.630365e-01 1.468139e+00 1.692315e+00 1.473882e+00 1.775575e+00 2.010480e+00 1.839599e+00 1.618163e+00 1.409668e+00 1.328542e+00 7.107434e-01
<GCONST> 9.331273e+01
~t "T_d"
<ENDHMM>
~h "d+o"
<BEGINHMM>
<NUMSTATES> 5
<STATE> 2
<MEAN> 25
 4.986747e+00 1.173107e+00 -3.532605e-03 -2.869664e-01 -8.792292e-01 -2.943893e-01 -1.157155e-01 -1.781017e+00 -2.767115e+00 -2.582419e+00 -1.706980e+00 -5.448081e-01 -2.492582e-01 7.052330e-01 5.542889e-01 4.937656e-01 3.336083e-01 7.560925e-01 3.487482e-01 9.874161e-02 5.457619e-02 -1.007866e-01 -2.741712e-01 -1.678351e-01 -6.813607e-01
<VARIANCE> 25
 3.575130e+01 4.199368e+01 4.126587e+01 5.860994e+01 5.800882e+01 5.540382e+01 4.170780e+01 4.906739e+01 4.723788e+01 3.940030e+01 2.930230e+01 2.850399e+01 1.251378e+00 1.493562e+00 1.629822e+00 2.081238e+00 2.239027e+00 2.528253e+00 2.284125e+00 2.485779e+00 2.461237e+00 2.372278e+00 2.008663e+00 1.836602e+00 1.659663e+00
<GCONST> 9.990127e+01
<STATE> 3
<MEAN> 25
 4.914427e+00 1.635913e+00 8.481176e-01 5.874320e-01 -1.860407e-01 2.406812e-01 -3.938809e-02 -1.716778e+00 -2.743559e+00 -2.302445e+00 -1.865128e+00 -5.342951e-01 -2.087076e-01 3.739429e-02 2.673025e-01 1.669757e-01 1.145322e-01 1.772111e-01 9.942254e-02 -5.373251e-02 -6.358257e-02 -4.126178e-02 1.807586e-02 1.027398e-01 -1.237136e-01
<VARIANCE> 25
 2.888018e+01 4.287783e+01 4.231509e+01 5.601795e+01 5.643327e+01 5.696796e+01 4.082035e+01 4.643125e+01 4.334551e+01 3.674223e+01 2.845123e+01 2.631162e+01 6.074597e-01 9.825633e-01 1.005929e+00 1.402578e+00 1.643439e+00 1.440409e+00 1.691248e+00 1.775282e+00 1.692227e+00 1.545876e+00 1.368715e+00 1.293374e+00 5.901869e-01
<GCONST> 9.324805e+01
<STATE> 4
<MEAN> 25
 4.336635e+00 1.898943e+00 1.592930e+00 1.054985e+00 7.405771e-02 9.789971e-01 5.451074e-02 -1.993555e+00 -2.809552e+00 -2.274028e+00 -1.686451e+00 -2.280605e-01 4.773585e-02 -5.405355e-01 -1.993422e-02 -3.128903e-02 -5.543578e-02 -4.109922e-01 -2.349472e-01 -2.260227e-01 -2.361541e-01 -3.670364e-05 2.079962e-01 2.329595e-01 4.070511e-01
<VARIANCE> 25
 2.717667e+01 4.477932e+01 4.206721e+01 5.259300e+01 5.149903e+01 5.344878e+01 3.844084e+01 4.642159e+01 4.322847e+01 3.436483e+01 2.569947e+01 2.370034e+01 4.915567e-01 1.268307e+00 9.630365e-01 1.468139e+00 1.692315e+00 1.473882e+00 1.775575e+00 2.010480e+00 1.839599e+00 1.618163e+00 1.409668e+00 1.328542e+00 7.107434e-01
<GCONST> 9.331273e+01
~t "T_d"
<ENDHMM>
~h "d+u"
<BEGINHMM>
<NUMSTATES> 5
<STATE> 2
<MEAN> 25
 4.986747e+00 1.173107e+00 -3.532605e-03 -2.869664e-01 -8.792292e-01 -2.943893e-01 -1.157155e-01 -1.781017e+00 -2.767115e+00 -2.582419e+00 -1.706980e+00 -5.448081e-01 -2.492582e-01 7.052330e-01 5.542889e-01 4.937656e-01 3.336083e-01 7.560925e-01 3.487482e-01 9.874161e-02 5.457619e-02 -1.007866e-01 -2.741712e-01 -1.678351e-01 -6.813607e-01
<VARIANCE> 25
 3.575130e+01 4.199368e+01 4.126587e+01 5.860994e+01 5.800882e+01 5.540382e+01 4.170780e+01 4.906739e+01 4.723788e+01 3.940030e+01 2.930230e+01 2.850399e+01 1.251378e+00 1.493562e+00 1.629822e+00 2.081238e+00 2.239027e+00 2.528253e+00 2.284125e+00 2.485779e+00 2.461237e+00 2.372278e+00 2.008663e+00 1.836602e+00 1.659663e+00
<GCONST> 9.990127e+01
<STATE> 3
<MEAN> 25
 4.914427e+00 1.635913e+00 8.481176e-01 5.874320e-01 -1.860407e-01 2.406812e-01 -3.938809e-02 -1.716778e+00 -2.743559e+00 -2.302445e+00 -1.865128e+00 -5.342951e-01 -2.087076e-01 3.739429e-02 2.673025e-01 1.669757e-01 1.145322e-01 1.772111e-01 9.942254e-02 -5.373251e-02 -6.358257e-02 -4.126178e-02 1.807586e-02 1.027398e-01 -1.237136e-01
<VARIANCE> 25
 2.888018e+01 4.287783e+01 4.231509e+01 5.601795e+01 5.643327e+01 5.696796e+01 4.082035e+01 4.643125e+01 4.334551e+01 3.674223e+01 2.845123e+01 2.631162e+01 6.074597e-01 9.825633e-01 1.005929e+00 1.402578e+00 1.643439e+00 1.440409e+00 1.691248e+00 1.775282e+00 1.692227e+00 1.545876e+00 1.368715e+00 1.293374e+00 5.901869e-01
<GCONST> 9.324805e+01
<STATE> 4
<MEAN> 25
 4.336635e+00 1.898943e+00 1.592930e+00 1.054985e+00 7.405771e-02 9.789971e-01 5.451074e-02 -1.993555e+00 -2.809552e+00 -2.274028e+00 -1.686451e+00 -2.280605e-01 4.773585e-02 -5.405355e-01 -1.993422e-02 -3.128903e-02 -5.543578e-02 -4.109922e-01 -2.349472e-01 -2.260227e-01 -2.361541e-01 -3.670364e-05 2.079962e-01 2.329595e-01 4.070511e-01
<VARIANCE> 25
 2.717667e+01 4.477932e+01 4.206721e+01 5.259300e+01 5.149903e+01 5.344878e+01 3.844084e+01 4.642159e+01 4.322847e+01 3.436483e+01 2.569947e+01 2.370034e+01 4.915567e-01 1.268307e+00 9.630365e-01 1.468139e+00 1.692315e+00 1.473882e+00 1.775575e+00 2.010480e+00 1.839599e+00 1.618163e+00 1.409668e+00 1.328542e+00 7.107434e-01
<GCONST> 9.331273e+01
~t "T_d"
<ENDHMM>
~h "d-a"
<BEGINHMM>
<NUMSTATES> 5
<STATE> 2
<MEAN> 25
 8.084209e+00 -3.246555e+00 -4.886938e+00 -2.890126e+00 -1.922659e+00 -4.591505e+00 -1.062124e+00 -1.533606e+00 -3.011539e+00 -1.419097e+00 7.822737e-01 1.974153e+00 8.531939e-01 -1.219489e+00 -1.591901e+00 -1.511451e+00 -1.099942e+00 -1.081241e+00 3.296968e-01 2.435892e-01 2.131322e-01 7.433307e-01 1.096173e+00 1.076555e+00 1.531909e+00
<VARIANCE> 25
 3.102556e+01 3.982352e+01 4.648204e+01 6.052976e+01 4.865224e+01 5.364120e+01 4.957391e+01 5.206113e+01 4.994263e+01 4.377484e+01 3.566540e+01 3.010361e+01 2.105191e+00 2.133569e+00 2.607650e+00 3.361774e+00 2.917656e+00 3.954443e+00 3.398865e+00 3.319243e+00 3.668817e+00 4.076825e+00 3.093344e+00 2.673295e+00 1.675560e+00
<GCONST> 1.052759e+02
<STATE> 3
<MEAN> 25
 9.462610e+00 -6.897775e+00 -8.743549e+00 -6.083593e+00 -4.604442e+00 -5.470979e+00 1.397076e+00 -2.830499e-01 -1.629562e+00 7.007640e-01 2.659651e+00 3.340820e+00 3.290816e-02 -1.735238e-01 -3.625012e-01 -3.627358e-01 -1.769637e-01 2.254089e-01 4.766614e-01 2.827543e-01 2.371980e-01 1.767752e-01 8.445666e-02 6.974697e-02 8.193482e-02
<VARIANCE> 25
 2.840129e+01 3.570125e+01 4.138834e+01 4.038225e+01 4.118876e+01 4.148624e+01 4.739182e+01 4.747406e+01 4.473821e+01 4.189992e+01 3.449903e+01 2.805832e+01 3.302394e-01 8.424883e-01 9.393210e-01 1.242460e+00 1.324397e+00 1.496400e+00 1.901740e+00 1.780651e+00 1.803969e+00 1.726919e+00 1.430944e+00 1.179275e+00 3.783611e-01
<GCONST> 9.133002e+01
<STATE> 4
<MEAN> 25
 8.177530e+00 -2.680661e+00 -7.293503e+00 -5.932261e+00 -3.758124e+00 -2.794274e+00 1.176165e+00 -3.390664e-01 -1.368642e+00 2.573896e-01 2.133668e+00 3.287408e+00 -4.538044e-01 8.704351e-01 7.276899e-01 4.679444e-01 4.150407e-01 5.706517e-01 -1.937626e-01 -1.382255e-01 1.753797e-02 -1.629017e-01 -2.942949e-01 -3.140077e-01 -8.826797e-01
<VARIANCE> 25
 2.215926e+01 3.099335e+01 3.486272e+01 3.668752e+01 3.283007e+01 3.965223e+01 3.500597e+01 3.826480e+01 3.512437e+01 3.170736e+01 2.563973e+01 2.200531e+01 5.861269e-01 9.910762e-01 1.080531e+00 1.252255e+00 1.395680e+00 1.835312e+00 1.787168e+00 1.826652e+00 1.993582e+00 1.853269e+00 1.609923e+00 1.318195e+00 6.483233e-01
<GCONST> 9.086413e+01
~t "T_a"
<ENDHMM>
~h "d-e"
<BEGINHMM>
<NUMSTATES> 5
<STATE> 2
<MEAN> 25
 4.917822e+00 -3.046909e+00 -7.860230e-01 1.961976e+00 3.296882e+00 -3.095960e+00 -4.445966e+00 -4.378197e+00 -4.194638e+00 -1.446952e+00 1.146220e-01 1.648807e-01 1.062938e+00 -1.285595e+00 -6.981800e-01 4.423747e-01 5.001229e-01 -1.895295e+00 -1.787762e+00 -1.308817e+00 -1.084860e+00 1.344622e-01 6.617222e-01 3.701210e-01 1.670173e+00
<VARIANCE> 25
 3.577217e+01 3.706077e+01 4.774310e+01 6.015227e+01 4.925949e+01 6.036604e+01 5.010396e+01 4.977269e+01 4.858726e+01 3.950971e+01 3.013842e+01 2.473536e+01 2.384392e+00 2.958043e+00 2.685448e+00 3.858023e+00 3.340221e+00 5.064232e+00 4.063103e+00 3.681123e+00 4.037725e+00 4.174648e+00 3.332788e+00 2.898063e+00 2.226966e+00
<GCONST> 1.068105e+02
<STATE> 3
<MEAN> 25
 7.191195e+00 -7.001473e+00 -2.328277e+00 2.836691e+00 3.888689e+00 -7.911126e+00 -8.482172e+00 -6.657192e+00 -5.470276e+00 -1.285404e-01 1.987994e+00 7.147580e-01 8.514885e-02 -4.249433e-01 -1.496204e-01 2.818093e-01 1.203487e-01 -6.073316e-01 -4.420330e-01 -1.406531e-01 1.603031e-01 5.093133e-01 3.347531e-01 -4.041983e-02 2.952766e-01
<VARIANCE> 25
 2.837927e+01 3.550758e+01 4.376701e+01 6.339727e+01 5.782299e+01 6.153004e+01 4.445435e+01 4.665985e+01 4.438187e+01 4.603452e+01 3.686113e+01 3.249733e+01 5.579238e-01 9.633060e-01 1.396090e+00 1.826277e+00 1.583154e+00 2.003756e+00 1.982185e+00 1.856537e+00 2.013892e+00 2.006657e+00 1.751121e+00 1.508502e+00 5.828047e-01
<GCONST> 9.591582e+01
<STATE> 4
<MEAN> 25
 5.895019e+00 -4.724988e+00 -1.197292e+00 3.906052e+00 3.870449e+00 -6.545651e+00 -8.215060e+00 -6.679025e+00 -4.172563e+00 5.337154e-01 9.279272e-01 -6.742178e-01 -3.232698e-01 7.992764e-01 3.300467e-01 -6.339286e-02 7.912491e-02 1.004552e+00 6.088396e-01 3.772415e-01 3.436322e-01 -1.313366e-01 -2.720630e-01 -1.298955e-01 -7.956876e-01
<VARIANCE> 25
 2.029749e+01 3.066547e+01 3.368494e+01 5.057070e+01 4.296806e+01 5.593891e+01 3.659196e+01 3.710094e+01 4.034227e+01 3.575679e+01 3.262199e+01 2.925796e+01 5.569103e-01 1.011105e+00 1.171097e+00 1.448238e+00 1.440968e+00 2.011663e+00 1.814593e+00 1.739066e+00 1.905525e+00 1.867028e+00 1.539982e+00 1.274082e+00 7.538318e-01
<GCONST> 9.278246e+01
~t "T_e"
<ENDHMM>
~h "d-o"
<BEGINHMM>
<NUMSTATES> 5
<STATE> 2
<MEAN> 25
 8.202134e+00 8.756948e-01 -1.556870e+00 -2.412576e+00 -4.135490e+00 -5.283045e+00 -1.325630e+00 5.514442e-01 -3.256593e+00 -4.464030e+00 -3.179199e+00 -1.018459e+00 8.533680e-01 5.628624e-02 -4.272498e-01 -1.163086e+00 -1.742013e+00 -1.833407e+00 -1.006363e-01 8.327968e-01 2.565329e-01 -1.784475e-01 -2.551433e-01 1.000556e-01 7.841955e-01
<VARIANCE> 25
 2.727819e+01 4.614404e+01 4.546624e+01 5.624189e+01 6.257309e+01 6.102062e+01 4.518742e+01 4.939813e+01 5.469617e+01 4.219932e+01 3.056493e+01 2.847985e+01 1.604221e+00 2.714622e+00 2.414845e+00 3.306103e+00 3.399673e+00 4.293542e+00 4.410888e+00 3.910635e+00 3.812121e+00 3.509329e+00 2.851977e+00 2.694980e+00 1.552250e+00
<GCONST> 1.055529e+02
<STATE> 3
<MEAN> 25
 9.608891e+00 1.841884e+00 -1.624231e+00 -4.843653e+00 -1.056682e+01 -1.047259e+01 -3.275502e-01 4.228262e+00 -8.981493e-01 -3.707518e+00 -3.771726e+00 -1.847208e+00 -1.603226e-01 3.746803e-01 2.492852e-02 -5.283350e-02 -1.316152e-01 2.060792e-01 2.320018e-01 3.473101e-01 4.636069e-01 2.421327e-01 -1.011645e-03 -9.001540e-02 -4.208844e-01
<VARIANCE> 25
 2.191664e+01 3.832346e+01 3.536129e+01 4.552036e+01 5.146196e+01 5.402416e+01 4.532333e+01 4.316967e+01 5.194213e+01 3.791486e+01 2.724122e+01 2.477335e+01 5.759985e-01 1.296905e+00 1.329783e+00 1.436117e+00 2.015944e+00 2.854960e+00 1.984985e+00 2.227589e+00 2.343580e+00 2.045362e+00 1.638120e+00 1.449960e+00 1.066268e+00
<GCONST> 9.576168e+01
<STATE> 4
<MEAN> 25
 5.920141e+00 4.729104e+00 -6.619071e-01 -3.592440e+00 -6.668617e+00 -4.437122e+00 3.776827e-01 3.175261e+00 9.050462e-01 -1.454790e+00 -2.326509e+00 -1.249121e+00 -6.257654e-01 -3.906129e-02 1.678127e-01 4.218079e-01 7.039407e-01 9.980335e-01 2.885799e-01 -2.038472e-01 -1.773957e-02 1.877047e-01 2.155907e-01 8.154663e-02 -5.345345e-01
<VARIANCE> 25
 2.381943e+01 3.168683e+01 3.073319e+01 3.372535e+01 3.205265e+01 4.222814e+01 3.201194e+01 3.300840e+01 3.498757e+01 3.150789e+01 2.243595e+01 1.901501e+01 4.852379e-01 7.335701e-01 1.011674e+00 1.084659e+00 1.496157e+00 1.967000e+00 1.648281e+00 1.688958e+00 1.686677e+00 1.518985e+00 1.305284e+00 1.193857e+00 3.831035e-01
<GCONST> 8.833953e+01
~t "T_o"
<ENDHMM>
~h "k-th+e"
<BEGINHMM>
<NUMSTATES> 5
<STATE> 2
<MEAN> 25
 -5.632880e+00 -3.854063e+00 1.516733e+01 -6.320058e+00 2.140140e+00 2.455597e+00 3.235808e+00 -2.117743e+00 -4.823162e-01 1.348089e+00 8.720768e-02 -2.654986e-01 -3.624942e+00 -1.473371e+00 2.833224e+00 -1.734421e+00 -1.021341e-01 6.912473e-01 1.388689e+00 -1.476209e-01 6.915943e-01 5.759441e-01 5.913332e-01 2.648686e-01 5.795045e-01
<VARIANCE> 25
 6.831219e+01 5.101052e+01 9.769680e+01 8.345584e+01 8.229661e+01 6.781025e+01 8.005181e+01 6.789198e+01 6.046149e+01 4.864940e+01 3.799240e+01 2.866057e+01 2.483551e+00 3.884926e+00 3.833339e+00 4.342094e+00 3.744481e+00 5.492457e+00 3.865437e+00 3.177013e+00 3.737395e+00 3.366478e+00 3.085365e+00 2.236720e+00 1.021638e+00
<GCONST> 1.104123e+02
<STATE> 3
<MEAN> 25
 -1.727112e+01 -8.257788e+00 1.949447e+01 -1.180675e+01 1.947106e+00 1.331353e+00 6.016316e+00 -2.654345e+00 1.263386e+00 2.144119e+00 1.879954e+00 3.925450e-01 -1.316139e-01 -5.102527e-01 -3.761988e-01 1.679360e-01 1.177314e-02 -9.135841e-02 -9.154829e-02 -1.859931e-02 1.217610e-01 1.754421e-01 1.592440e-01 1.295594e-02 -6.405007e-02
<VARIANCE> 25
 3.926363e+01 8.026629e+01 8.774121e+01 1.006794e+02 8.994701e+01 7.935870e+01 7.173088e+01 6.903039e+01 6.770055e+01 4.795404e+01 3.895676e+01 2.661696e+01 1.988035e+00 1.045411e+00 1.457392e+00 2.010195e+00 1.328030e+00 1.433358e+00 1.615375e+00 1.621984e+00 1.538399e+00 1.449418e+00 1.211479e+00 1.100959e+00 4.380694e-01
<GCONST> 9.917685e+01
<STATE> 4
<MEAN> 25
 -9.271607e+00 -9.057722e+00 1.468838e+01 -6.365356e+00 1.965114e+00 2.341074e+00 3.013284e+00 -2.966129e+00 2.363478e-03 3.011927e+00 1.883378e+00 8.863983e-02 4.015340e+00 1.801579e+00 -2.265525e+00 2.241422e+00 5.355793e-01 -2.967038e-01 -2.138270e+00 -4.493863e-01 -1.154973e+00 -7.945148e-01 -8.732439e-01 -3.801412e-01 -6.645188e-01
<VARIANCE> 25
 5.233046e+01 6.291172e+01 6.801148e+01 8.587710e+01 6.436635e+01 5.830358e+01 5.761609e+01 5.580789e+01 5.802547e+01 4.261039e+01 3.626220e+01 2.619216e+01 3.238315e+00 3.795416e+00 2.980920e+00 3.903574e+00 4.405891e+00 4.908393e+00 3.968453e+00 3.498078e+00 3.993294e+00 3.501172e+00 3.218621e+00 2.491385e+00 1.196708e+00
<GCONST> 1.092605e+02
~t "T_th"
<ENDHMM>
~h "k-th+i"
<BEGINHMM>
<NUMSTATES> 5
<STATE> 2
<MEAN> 25
 -5.632880e+00 -3.854063e+00 1.516733e+01 -6.320058e+00 2.140140e+00 2.455597e+00 3.235808e+00 -2.117743e+00 -4.823162e-01 1.348089e+00 8.720768e-02 -2.654986e-01 -3.624942e+00 -1.473371e+00 2.833224e+00 -1.734421e+00 -1.021341e-01 6.912473e-01 1.388689e+00 -1.476209e-01 6.915943e-01 5.759441e-01 5.913332e-01 2.648686e-01 5.795045e-01
<VARIANCE> 25
 6.831219e+01 5.101052e+01 9.769680e+01 8.345584e+01 8.229661e+01 6.781025e+01 8.005181e+01 6.789198e+01 6.046149e+01 4.864940e+01 3.799240e+01 2.866057e+01 2.483551e+00 3.884926e+00 3.833339e+00 4.342094e+00 3.744481e+00 5.492457e+00 3.865437e+00 3.177013e+00 3.737395e+00 3.366478e+00 3.085365e+00 2.236720e+00 1.021638e+00
<GCONST> 1.104123e+02
<STATE> 3
<MEAN> 25
 -1.727112e+01 -8.257788e+00 1.949447e+01 -1.180675e+01 1.947106e+00 1.331353e+00 6.016316e+00 -2.654345e+00 1.263386e+00 2.144119e+00 1.879954e+00 3.925450e-01 -1.316139e-01 -5.102527e-01 -3.761988e-01 1.679360e-01 1.177314e-02 -9.135841e-02 -9.154829e-02 -1.859931e-02 1.217610e-01 1.754421e-01 1.592440e-01 1.295594e-02 -6.405007e-02
<VARIANCE> 25
 3.926363e+01 8.026629e+01 8.774121e+01 1.006794e+02 8.994701e+01 7.935870e+01 7.173088e+01 6.903039e+01 6.770055e+01 4.795404e+01 3.895676e+01 2.661696e+01 1.988035e+00 1.045411e+00 1.457392e+00 2.010195e+00 1.328030e+00 1.433358e+00 1.615375e+00 1.621984e+00 1.538399e+00 1.449418e+00 1.211479e+00 1.100959e+00 4.380694e-01
<GCONST> 9.917685e+01
<STATE> 4
<MEAN> 25
 -9.271607e+00 -9.057722e+00 1.468838e+01 -6.365356e+00 1.965114e+00 2.341074e+00 3.013284e+00 -2.966129e+00 2.363478e-03 3.011927e+00 1.883378e+00 8.863983e-02 4.015340e+00 1.801579e+00 -2.265525e+00 2.241422e+00 5.355793e-01 -2.967038e-01 -2.138270e+00 -4.493863e-01 -1.154973e+00 -7.945148e-01 -8.732439e-01 -3.801412e-01 -6.645188e-01
<VARIANCE> 25
 5.233046e+01 6.291172e+01 6.801148e+01 8.587710e+01 6.436635e+01 5.830358e+01 5.761609e+01 5.580789e+01 5.802547e+01 4.261039e+01 3.626220e+01 2.619216e+01 3.238315e+00 3.795416e+00 2.980920e+00 3.903574e+00 4.405891e+00 4.908393e+00 3.968453e+00 3.498078e+00 3.993294e+00 3.501172e+00 3.218621e+00 2.491385e+00 1.196708e+00
<GCONST> 1.092605e+02
~t "T_th"
<ENDHMM>
~h "s-u+rr"
<BEGINHMM>
<NUMSTATES> 5
<STATE> 2
<MEAN> 25
 5.841117e+00 4.888117e+00 2.686566e+00 -7.820466e-01 -3.509169e+00 -4.456264e+00 -1.667651e+00 1.072235e+00 -1.711213e+00 -3.398537e+00 -2.842877e+00 -2.182095e+00 1.576147e+00 1.045471e+00 4.197832e-01 -3.047917e-01 -1.355020e+00 -2.229248e+00 -1.097899e+00 2.456878e-01 -2.158980e-01 -6.960759e-01 -8.961666e-01 -8.212398e-01 8.114035e-01
<VARIANCE> 25
 3.111406e+01 4.019774e+01 4.504975e+01 4.146431e+01 4.849731e+01 5.661042e+01 4.281160e+01 4.095763e+01 5.025994e+01 4.244762e+01 3.143690e+01 2.546618e+01 2.317891e+00 3.149550e+00 3.087908e+00 3.151040e+00 3.396149e+00 4.573932e+00 4.195843e+00 4.035922e+00 4.034451e+00 3.409064e+00 3.195040e+00 2.762604e+00 1.784756e+00
<GCONST> 1.055627e+02
<STATE> 3
<MEAN> 25
 8.658910e+00 5.000401e+00 2.954348e+00 -2.671335e+00 -7.457289e+00 -1.043769e+01 -3.682248e+00 2.342003e+00 -1.993913e+00 -4.053403e+00 -3.655970e+00 -3.858294e+00 3.619523e-01 -4.174033e-01 -5.004941e-01 -5.413764e-01 -3.661138e-01 -3.691237e-01 1.985084e-01 6.194838e-01 2.091379e-01 -3.094780e-01 -4.365371e-01 -2.890210e-01 4.863066e-01
<VARIANCE> 25
 1.982055e+01 3.754977e+01 4.485072e+01 4.602500e+01 4.835411e+01 5.230594e+01 4.533890e+01 4.689768e+01 6.356376e+01 4.307386e+01 3.556441e+01 3.444476e+01 5.694164e-01 2.171613e+00 2.316406e+00 1.907328e+00 2.369149e+00 3.386717e+00 2.927253e+00 3.053224e+00 2.962884e+00 2.837181e+00 2.662840e+00 2.209183e+00 9.819031e-01
<GCONST> 1.005687e+02
<STATE> 4
<MEAN> 25
 7.936549e+00 5.316041e+00 2.239468e+00 -2.040418e+00 -5.537446e+00 -6.998611e+00 -2.096663e+00 2.982105e+00 -1.124920e+00 -4.924550e+00 -4.786534e+00 -3.909861e+00 -1.936503e-01 -3.466140e-01 -3.004697e-01 2.804921e-01 7.471921e-01 1.043675e+00 4.173047e-01 -2.147343e-01 -1.894316e-01 -7.248510e-02 1.116081e-02 1.502710e-01 -1.055882e-01
<VARIANCE> 25
 1.968233e+01 3.080829e+01 3.984565e+01 3.763365e+01 3.553752e+01 4.067476e+01 4.069976e+01 3.915368e+01 5.144368e+01 3.819278e+01 3.066512e+01 2.631176e+01 3.753779e-01 1.220878e+00 1.362571e+00 1.493957e+00 2.004738e+00 2.727168e+00 2.026844e+00 2.105258e+00 2.403310e+00 2.200738e+00 1.975419e+00 1.823615e+00 5.097307e-01
<GCONST> 9.394715e+01
~t "T_u"
<ENDHMM>
~h "n-i+ll"
<BEGINHMM>
<NUMSTATES> 5
<STATE> 2
<MEAN> 25
 2.824880e+00 -2.961581e+00 4.292364e+00 7.499251e+00 7.346193e+00 -2.067250e+00 -5.297520e+00 -2.873806e+00 -2.378581e+00 -1.973293e+00 -2.520489e+00 -3.736685e+00 1.015099e+00 -9.724852e-01 2.479329e-01 2.179622e+00 1.426837e+00 -2.128228e+00 -2.309814e+00 -3.848035e-01 -7.270547e-01 -7.560874e-01 -6.794949e-01 -8.365397e-01 1.175898e+00
<VARIANCE> 25
 3.374600e+01 3.967356e+01 6.750194e+01 6.375350e+01 5.781096e+01 6.437442e+01 4.980933e+01 4.415491e+01 4.445846e+01 3.540117e+01 3.356274e+01 2.704606e+01 3.132528e+00 4.137255e+00 3.621446e+00 4.487921e+00 4.215056e+00 5.312013e+00 4.005538e+00 3.824685e+00 4.409300e+00 4.209664e+00 3.923692e+00 2.984154e+00 1.617640e+00
<GCONST> 1.086541e+02
<STATE> 3
<MEAN> 25
 3.691633e+00 -6.378765e+00 6.166086e+00 1.236009e+01 7.380941e+00 -9.047977e+00 -9.580333e+00 -1.629763e+00 -3.102339e+00 -4.599288e+00 -4.548250e+00 -5.048493e+00 8.359629e-02 -2.991736e-01 1.296623e-01 4.305927e-01 9.667514e-03 -8.290642e-01 -5.818837e-01 1.603395e-01 8.957740e-02 -1.876646e-01 -1.591199e-01 -1.092843e-01 2.681427e-01
<VARIANCE> 25
 2.149308e+01 3.103732e+01 4.970968e+01 5.873264e+01 7.158559e+01 6.920425e+01 3.966159e+01 4.495304e+01 4.204121e+01 4.275245e+01 4.102441e+01 2.954641e+01 6.639252e-01 9.264812e-01 1.883231e+00 1.858640e+00 1.558079e+00 2.146437e+00 1.929194e+00 2.097977e+00 1.840118e+00 1.884095e+00 1.595546e+00 1.333590e+00 5.259222e-01
<GCONST> 9.574519e+01
<STATE> 4
<MEAN> 25
 4.036044e+00 -4.218312e+00 4.209880e+00 1.037407e+01 7.996428e+00 -6.247262e+00 -9.419474e+00 -3.331409e+00 -2.663913e+00 -2.918104e+00 -3.142705e+00 -4.376024e+00 3.821991e-02 8.336469e-01 -6.000085e-01 -1.181883e+00 -5.675405e-01 1.117856e+00 8.718380e-01 -2.187419e-01 -3.897155e-02 3.511441e-01 4.869802e-01 5.886047e-01 -5.325214e-01
<VARIANCE> 25
 1.972391e+01 3.227742e+01 4.309776e+01 5.167957e+01 5.495691e+01 6.691110e+01 3.850472e+01 4.351723e+01 4.154246e+01 3.556070e+01 3.517086e+01 2.803684e+01 6.999541e-01 1.390189e+00 1.663853e+00 1.824908e+00 1.964548e+00 2.784639e+00 2.501812e+00 2.236512e+00 2.341234e+00 2.148965e+00 1.947036e+00 1.699689e+00 1.056007e+00
<GCONST> 9.730878e+01
~t "T_i"
<ENDHMM>
~h "e+b"
<BEGINHMM>
<NUMSTATES> 5
<STATE> 2
<MEAN> 25
 4.917822e+00 -3.046909e+00 -7.860230e-01 1.961976e+00 3.296882e+00 -3.095960e+00 -4.445966e+00 -4.378197e+00 -4.194638e+00 -1.446952e+00 1.146220e-01 1.648807e-01 1.062938e+00 -1.285595e+00 -6.981800e-01 4.423747e-01 5.001229e-01 -1.895295e+00 -1.787762e+00 -1.308817e+00 -1.084860e+00 1.344622e-01 6.617222e-01 3.701210e-01 1.670173e+00
<VARIANCE> 25
 3.577217e+01 3.706077e+01 4.774310e+01 6.015227e+01 4.925949e+01 6.036604e+01 5.010396e+01 4.977269e+01 4.858726e+01 3.950971e+01 3.013842e+01 2.473536e+01 2.384392e+00 2.958043e+00 2.685448e+00 3.858023e+00 3.340221e+00 5.064232e+00 4.063103e+00 3.681123e+00 4.037725e+00 4.174648e+00 3.332788e+00 2.898063e+00 2.226966e+00
<GCONST> 1.068105e+02
<STATE> 3
<MEAN> 25
 7.191195e+00 -7.001473e+00 -2.328277e+00 2.836691e+00 3.888689e+00 -7.911126e+00 -8.482172e+00 -6.657192e+00 -5.470276e+00 -1.285404e-01 1.987994e+00 7.147580e-01 8.514885e-02 -4.249433e-01 -1.496204e-01 2.818093e-01 1.203487e-01 -6.073316e-01 -4.420330e-01 -1.406531e-01 1.603031e-01 5.093133e-01 3.347531e-01 -4.041983e-02 2.952766e-01
<VARIANCE> 25
 2.837927e+01 3.550758e+01 4.376701e+01 6.339727e+01 5.782299e+01 6.153004e+01 4.445435e+01 4.665985e+01 4.438187e+01 4.603452e+01 3.686113e+01 3.249733e+01 5.579238e-01 9.633060e-01 1.396090e+00 1.826277e+00 1.583154e+00 2.003756e+00 1.982185e+00 1.856537e+00 2.013892e+00 2.006657e+00 1.751121e+00 1.508502e+00 5.828047e-01
<GCONST> 9.591582e+01
<STATE> 4
<MEAN> 25
 5.895019e+00 -4.724988e+00 -1.197292e+00 3.906052e+00 3.870449e+00 -6.545651e+00 -8.215060e+00 -6.679025e+00 -4.172563e+00 5.337154e-01 9.279272e-01 -6.742178e-01 -3.232698e-01 7.992764e-01 3.300467e-01 -6.339286e-02 7.912491e-02 1.004552e+00 6.088396e-01 3.772415e-01 3.436322e-01 -1.313366e-01 -2.720630e-01 -1.298955e-01 -7.956876e-01
<VARIANCE> 25
 2.029749e+01 3.066547e+01 3.368494e+01 5.057070e+01 4.296806e+01 5.593891e+01 3.659196e+01 3.710094e+01 4.034227e+01 3.575679e+01 3.262199e+01 2.925796e+01 5.569103e-01 1.011105e+00 1.171097e+00 1.448238e+00 1.440968e+00 2.011663e+00 1.814593e+00 1.739066e+00 1.905525e+00 1.867028e+00 1.539982e+00 1.274082e+00 7.538318e-01
<GCONST> 9.278246e+01
~t "T_e"
<ENDHMM>
~h "e+d"
<BEGINHMM>
<NUMSTATES> 5
<STATE> 2
<MEAN> 25
 4.917822e+00 -3.046909e+00 -7.860230e-01 1.961976e+00 3.296882e+00 -3.095960e+00 -4.445966e+00 -4.378197e+00 -4.194638e+00 -1.446952e+00 1.146220e-01 1.648807e-01 1.062938e+00 -1.285595e+00 -6.981800e-01 4.423747e-01 5.001229e-01 -1.895295e+00 -1.787762e+00 -1.308817e+00 -1.084860e+00 1.344622e-01 6.617222e-01 3.701210e-01 1.670173e+00
<VARIANCE> 25
 3.577217e+01 3.706077e+01 4.774310e+01 6.015227e+01 4.925949e+01 6.036604e+01 5.010396e+01 4.977269e+01 4.858726e+01 3.950971e+01 3.013842e+01 2.473536e+01 2.384392e+00 2.958043e+00 2.685448e+00 3.858023e+00 3.340221e+00 5.064232e+00 4.063103e+00 3.681123e+00 4.037725e+00 4.174648e+00 3.332788e+00 2.898063e+00 2.226966e+00
<GCONST> 1.068105e+02
<STATE> 3
<MEAN> 25
 7.191195e+00 -7.001473e+00 -2.328277e+00 2.836691e+00 3.888689e+00 -7.911126e+00 -8.482172e+00 -6.657192e+00 -5.470276e+00 -1.285404e-01 1.987994e+00 7.147580e-01 8.514885e-02 -4.249433e-01 -1.496204e-01 2.818093e-01 1.203487e-01 -6.073316e-01 -4.420330e-01 -1.406531e-01 1.603031e-01 5.093133e-01 3.347531e-01 -4.041983e-02 2.952766e-01
<VARIANCE> 25
 2.837927e+01 3.550758e+01 4.376701e+01 6.339727e+01 5.782299e+01 6.153004e+01 4.445435e+01 4.665985e+01 4.438187e+01 4.603452e+01 3.686113e+01 3.249733e+01 5.579238e-01 9.633060e-01 1.396090e+00 1.826277e+00 1.583154e+00 2.003756e+00 1.982185e+00 1.856537e+00 2.013892e+00 2.006657e+00 1.751121e+00 1.508502e+00 5.828047e-01
<GCONST> 9.591582e+01
<STATE> 4
<MEAN> 25
 5.895019e+00 -4.724988e+00 -1.197292e+00 3.906052e+00 3.870449e+00 -6.545651e+00 -8.215060e+00 -6.679025e+00 -4.172563e+00 5.337154e-01 9.279272e-01 -6.742178e-01 -3.232698e-01 7.992764e-01 3.300467e-01 -6.339286e-02 7.912491e-02 1.004552e+00 6.088396e-01 3.772415e-01 3.436322e-01 -1.313366e-01 -2.720630e-01 -1.298955e-01 -7.956876e-01
<VARIANCE> 25
 2.029749e+01 3.066547e+01 3.368494e+01 5.057070e+01 4.296806e+01 5.593891e+01 3.659196e+01 3.710094e+01 4.034227e+01 3.575679e+01 3.262199e+01 2.925796e+01 5.569103e-01 1.011105e+00 1.171097e+00 1.448238e+00 1.440968e+00 2.011663e+00 1.814593e+00 1.739066e+00 1.905525e+00 1.867028e+00 1.539982e+00 1.274082e+00 7.538318e-01
<GCONST> 9.278246e+01
~t "T_e"
<ENDHMM>
~h "e+k"
<BEGINHMM>
<NUMSTATES> 5
<STATE> 2
<MEAN> 25
 4.917822e+00 -3.046909e+00 -7.860230e-01 1.961976e+00 3.296882e+00 -3.095960e+00 -4.445966e+00 -4.378197e+00 -4.194638e+00 -1.446952e+00 1.146220e-01 1.648807e-01 1.062938e+00 -1.285595e+00 -6.981800e-01 4.423747e-01 5.001229e-01 -1.895295e+00 -1.787762e+00 -1.308817e+00 -1.084860e+00 1.344622e-01 6.617222e-01 3.701210e-01 1.670173e+00
<VARIANCE> 25
 3.577217e+01 3.706077e+01 4.774310e+01 6.015227e+01 4.925949e+01 6.036604e+01 5.010396e+01 4.977269e+01 4.858726e+01 3.950971e+01 3.013842e+01 2.473536e+01 2.384392e+00 2.958043e+00 2.685448e+00 3.858023e+00 3.340221e+00 5.064232e+00 4.063103e+00 3.681123e+00 4.037725e+00 4.174648e+00 3.332788e+00 2.898063e+00 2.226966e+00
<GCONST> 1.068105e+02
<STATE> 3
<MEAN> 25
 7.191195e+00 -7.001473e+00 -2.328277e+00 2.836691e+00 3.888689e+00 -7.911126e+00 -8.482172e+00 -6.657192e+00 -5.470276e+00 -1.285404e-01 1.987994e+00 7.147580e-01 8.514885e-02 -4.249433e-01 -1.496204e-01 2.818093e-01 1.203487e-01 -6.073316e-01 -4.420330e-01 -1.406531e-01 1.603031e-01 5.093133e-01 3.347531e-01 -4.041983e-02 2.952766e-01
<VARIANCE> 25
 2.837927e+01 3.550758e+01 4.376701e+01 6.339727e+01 5.782299e+01 6.153004e+01 4.445435e+01 4.665985e+01 4.438187e+01 4.603452e+01 3.686113e+01 3.249733e+01 5.579238e-01 9.633060e-01 1.396090e+00 1.826277e+00 1.583154e+00 2.003756e+00 1.982185e+00 1.856537e+00 2.013892e+00 2.006657e+00 1.751121e+00 1.508502e+00 5.828047e-01
<GCONST> 9.591582e+01
<STATE> 4
<MEAN> 25
 5.895019e+00 -4.724988e+00 -1.197292e+00 3.906052e+00 3.870449e+00 -6.545651e+00 -8.215060e+00 -6.679025e+00 -4.172563e+00 5.337154e-01 9.279272e-01 -6.742178e-01 -3.232698e-01 7.992764e-01 3.300467e-01 -6.339286e-02 7.912491e-02 1.004552e+00 6.088396e-01 3.772415e-01 3.436322e-01 -1.313366e-01 -2.720630e-01 -1.298955e-01 -7.956876e-01
<VARIANCE> 25
 2.029749e+01 3.066547e+01 3.368494e+01 5.057070e+01 4.296806e+01 5.593891e+01 3.659196e+01 3.710094e+01 4.034227e+01 3.575679e+01 3.262199e+01 2.925796e+01 5.569103e-01 1.011105e+00 1.171097e+00 1.448238e+00 1.440968e+00 2.011663e+00 1.814593e+00 1.739066e+00 1.905525e+00 1.867028e+00 1.539982e+00 1.274082e+00 7.538318e-01
<GCONST> 9.278246e+01
~t "T_e"
<ENDHMM>
~h "e+l"
<BEGINHMM>
<NUMSTATES> 5
<STATE> 2
<MEAN> 25
 4.917822e+00 -3.046909e+00 -7.860230e-01 1.961976e+00 3.296882e+00 -3.095960e+00 -4.445966e+00 -4.378197e+00 -4.194638e+00 -1.446952e+00 1.146220e-01 1.648807e-01 1.062938e+00 -1.285595e+00 -6.981800e-01 4.423747e-01 5.001229e-01 -1.895295e+00 -1.787762e+00 -1.308817e+00 -1.084860e+00 1.344622e-01 6.617222e-01 3.701210e-01 1.670173e+00
<VARIANCE> 25
 3.577217e+01 3.706077e+01 4.774310e+01 6.015227e+01 4.925949e+01 6.036604e+01 5.010396e+01 4.977269e+01 4.858726e+01 3.950971e+01 3.013842e+01 2.473536e+01 2.384392e+00 2.958043e+00 2.685448e+00 3.858023e+00 3.340221e+00 5.064232e+00 4.063103e+00 3.681123e+00 4.037725e+00 4.174648e+00 3.332788e+00 2.898063e+00 2.226966e+00
<GCONST> 1.068105e+02
<STATE> 3
<MEAN> 25
 7.191195e+00 -7.001473e+00 -2.328277e+00 2.836691e+00 3.888689e+00 -7.911126e+00 -8.482172e+00 -6.657192e+00 -5.470276e+00 -1.285404e-01 1.987994e+00 7.147580e-01 8.514885e-02 -4.249433e-01 -1.496204e-01 2.818093e-01 1.203487e-01 -6.073316e-01 -4.420330e-01 -1.406531e-01 1.603031e-01 5.093133e-01 3.347531e-01 -4.041983e-02 2.952766e-01
<VARIANCE> 25
 2.837927e+01 3.550758e+01 4.376701e+01 6.339727e+01 5.782299e+01 6.153004e+01 4.445435e+01 4.665985e+01 4.438187e+01 4.603452e+01 3.686113e+01 3.249733e+01 5.579238e-01 9.633060e-01 1.396090e+00 1.826277e+00 1.583154e+00 2.003756e+00 1.982185e+00 1.856537e+00 2.013892e+00 2.006657e+00 1.751121e+00 1.508502e+00 5.828047e-01
<GCONST> 9.591582e+01
<STATE> 4
<MEAN> 25
 5.895019e+00 -4.724988e+00 -1.197292e+00 3.906052e+00 3.870449e+00 -6.545651e+00 -8.215060e+00 -6.679025e+00 -4.172563e+00 5.337154e-01 9.279272e-01 -6.742178e-01 -3.232698e-01 7.992764e-01 3.300467e-01 -6.339286e-02 7.912491e-02 1.004552e+00 6.088396e-01 3.772415e-01 3.436322e-01 -1.313366e-01 -2.720630e-01 -1.298955e-01 -7.956876e-01
<VARIANCE> 25
 2.029749e+01 3.066547e+01 3.368494e+01 5.057070e+01 4.296806e+01 5.593891e+01 3.659196e+01 3.710094e+01 4.034227e+01 3.575679e+01 3.262199e+01 2.925796e+01 5.569103e-01 1.011105e+00 1.171097e+00 1.448238e+00 1.440968e+00 2.011663e+00 1.814593e+00 1.739066e+00 1.905525e+00 1.867028e+00 1.539982e+00 1.274082e+00 7.538318e-01
<GCONST> 9.278246e+01
~t "T_e"
<ENDHMM>
~h "e+m"
<BEGINHMM>
<NUMSTATES> 5
<STATE> 2
<MEAN> 25
 4.917822e+00 -3.046909e+00 -7.860230e-01 1.961976e+00 3.296882e+00 -3.095960e+00 -4.445966e+00 -4.378197e+00 -4.194638e+00 -1.446952e+00 1.146220e-01 1.648807e-01 1.062938e+00 -1.285595e+00 -6.981800e-01 4.423747e-01 5.001229e-01 -1.895295e+00 -1.787762e+00 -1.308817e+00 -1.084860e+00 1.344622e-01 6.617222e-01 3.701210e-01 1.670173e+00
<VARIANCE> 25
 3.577217e+01 3.706077e+01 4.774310e+01 6.015227e+01 4.925949e+01 6.036604e+01 5.010396e+01 4.977269e+01 4.858726e+01 3.950971e+01 3.013842e+01 2.473536e+01 2.384392e+00 2.958043e+00 2.685448e+00 3.858023e+00 3.340221e+00 5.064232e+00 4.063103e+00 3.681123e+00 4.037725e+00 4.174648e+00 3.332788e+00 2.898063e+00 2.226966e+00
<GCONST> 1.068105e+02
<STATE> 3
<MEAN> 25
 7.191195e+00 -7.001473e+00 -2.328277e+00 2.836691e+00 3.888689e+00 -7.911126e+00 -8.482172e+00 -6.657192e+00 -5.470276e+00 -1.285404e-01 1.987994e+00 7.147580e-01 8.514885e-02 -4.249433e-01 -1.496204e-01 2.818093e-01 1.203487e-01 -6.073316e-01 -4.420330e-01 -1.406531e-01 1.603031e-01 5.093133e-01 3.347531e-01 -4.041983e-02 2.952766e-01
<VARIANCE> 25
 2.837927e+01 3.550758e+01 4.376701e+01 6.339727e+01 5.782299e+01 6.153004e+01 4.445435e+01 4.665985e+01 4.438187e+01 4.603452e+01 3.686113e+01 3.249733e+01 5.579238e-01 9.633060e-01 1.396090e+00 1.826277e+00 1.583154e+00 2.003756e+00 1.982185e+00 1.856537e+00 2.013892e+00 2.006657e+00 1.751121e+00 1.508502e+00 5.828047e-01
<GCONST> 9.591582e+01
<STATE> 4
<MEAN> 25
 5.895019e+00 -4.724988e+00 -1.197292e+00 3.906052e+00 3.870449e+00 -6.545651e+00 -8.215060e+00 -6.679025e+00 -4.172563e+00 5.337154e-01 9.279272e-01 -6.742178e-01 -3.232698e-01 7.992764e-01 3.300467e-01 -6.339286e-02 7.912491e-02 1.004552e+00 6.088396e-01 3.772415e-01 3.436322e-01 -1.313366e-01 -2.720630e-01 -1.298955e-01 -7.956876e-01
<VARIANCE> 25
 2.029749e+01 3.066547e+01 3.368494e+01 5.057070e+01 4.296806e+01 5.593891e+01 3.659196e+01 3.710094e+01 4.034227e+01 3.575679e+01 3.262199e+01 2.925796e+01 5.569103e-01 1.011105e+00 1.171097e+00 1.448238e+00 1.440968e+00 2.011663e+00 1.814593e+00 1.739066e+00 1.905525e+00 1.867028e+00 1.539982e+00 1.274082e+00 7.538318e-01
<GCONST> 9.278246e+01
~t "T_e"
<ENDHMM>
~h "e+n"
<BEGINHMM>
<NUMSTATES> 5
<STATE> 2
<MEAN> 25
 4.917822e+00 -3.046909e+00 -7.860230e-01 1.961976e+00 3.296882e+00 -3.095960e+00 -4.445966e+00 -4.378197e+00 -4.194638e+00 -1.446952e+00 1.146220e-01 1.648807e-01 1.062938e+00 -1.285595e+00 -6.981800e-01 4.423747e-01 5.001229e-01 -1.895295e+00 -1.787762e+00 -1.308817e+00 -1.084860e+00 1.344622e-01 6.617222e-01 3.701210e-01 1.670173e+00
<VARIANCE> 25
 3.577217e+01 3.706077e+01 4.774310e+01 6.015227e+01 4.925949e+01 6.036604e+01 5.010396e+01 4.977269e+01 4.858726e+01 3.950971e+01 3.013842e+01 2.473536e+01 2.384392e+00 2.958043e+00 2.685448e+00 3.858023e+00 3.340221e+00 5.064232e+00 4.063103e+00 3.681123e+00 4.037725e+00 4.174648e+00 3.332788e+00 2.898063e+00 2.226966e+00
<GCONST> 1.068105e+02
<STATE> 3
<MEAN> 25
 7.191195e+00 -7.001473e+00 -2.328277e+00 2.836691e+00 3.888689e+00 -7.911126e+00 -8.482172e+00 -6.657192e+00 -5.470276e+00 -1.285404e-01 1.987994e+00 7.147580e-01 8.514885e-02 -4.249433e-01 -1.496204e-01 2.818093e-01 1.203487e-01 -6.073316e-01 -4.420330e-01 -1.406531e-01 1.603031e-01 5.093133e-01 3.347531e-01 -4.041983e-02 2.952766e-01
<VARIANCE> 25
 2.837927e+01 3.550758e+01 4.376701e+01 6.339727e+01 5.782299e+01 6.153004e+01 4.445435e+01 4.665985e+01 4.438187e+01 4.603452e+01 3.686113e+01 3.249733e+01 5.579238e-01 9.633060e-01 1.396090e+00 1.826277e+00 1.583154e+00 2.003756e+00 1.982185e+00 1.856537e+00 2.013892e+00 2.006657e+00 1.751121e+00 1.508502e+00 5.828047e-01
<GCONST> 9.591582e+01
<STATE> 4
<MEAN> 25
 5.895019e+00 -4.724988e+00 -1.197292e+00 3.906052e+00 3.870449e+00 -6.545651e+00 -8.215060e+00 -6.679025e+00 -4.172563e+00 5.337154e-01 9.279272e-01 -6.742178e-01 -3.232698e-01 7.992764e-01 3.300467e-01 -6.339286e-02 7.912491e-02 1.004552e+00 6.088396e-01 3.772415e-01 3.436322e-01 -1.313366e-01 -2.720630e-01 -1.298955e-01 -7.956876e-01
<VARIANCE> 25
 2.029749e+01 3.066547e+01 3.368494e+01 5.057070e+01 4.296806e+01 5.593891e+01 3.659196e+01 3.710094e+01 4.034227e+01 3.575679e+01 3.262199e+01 2.925796e+01 5.569103e-01 1.011105e+00 1.171097e+00 1.448238e+00 1.440968e+00 2.011663e+00 1.814593e+00 1.739066e+00 1.905525e+00 1.867028e+00 1.539982e+00 1.274082e+00 7.538318e-01
<GCONST> 9.278246e+01
~t "T_e"
<ENDHMM>
~h "e+r"
<BEGINHMM>
<NUMSTATES> 5
<STATE> 2
<MEAN> 25
 4.917822e+00 -3.046909e+00 -7.860230e-01 1.961976e+00 3.296882e+00 -3.095960e+00 -4.445966e+00 -4.378197e+00 -4.194638e+00 -1.446952e+00 1.146220e-01 1.648807e-01 1.062938e+00 -1.285595e+00 -6.981800e-01 4.423747e-01 5.001229e-01 -1.895295e+00 -1.787762e+00 -1.308817e+00 -1.084860e+00 1.344622e-01 6.617222e-01 3.701210e-01 1.670173e+00
<VARIANCE> 25
 3.577217e+01 3.706077e+01 4.774310e+01 6.015227e+01 4.925949e+01 6.036604e+01 5.010396e+01 4.977269e+01 4.858726e+01 3.950971e+01 3.013842e+01 2.473536e+01 2.384392e+00 2.958043e+00 2.685448e+00 3.858023e+00 3.340221e+00 5.064232e+00 4.063103e+00 3.681123e+00 4.037725e+00 4.174648e+00 3.332788e+00 2.898063e+00 2.226966e+00
<GCONST> 1.068105e+02
<STATE> 3
<MEAN> 25
 7.191195e+00 -7.001473e+00 -2.328277e+00 2.836691e+00 3.888689e+00 -7.911126e+00 -8.482172e+00 -6.657192e+00 -5.470276e+00 -1.285404e-01 1.987994e+00 7.147580e-01 8.514885e-02 -4.249433e-01 -1.496204e-01 2.818093e-01 1.203487e-01 -6.073316e-01 -4.420330e-01 -1.406531e-01 1.603031e-01 5.093133e-01 3.347531e-01 -4.041983e-02 2.952766e-01
<VARIANCE> 25
 2.837927e+01 3.550758e+01 4.376701e+01 6.339727e+01 5.782299e+01 6.153004e+01 4.445435e+01 4.665985e+01 4.438187e+01 4.603452e+01 3.686113e+01 3.249733e+01 5.579238e-01 9.633060e-01 1.396090e+00 1.826277e+00 1.583154e+00 2.003756e+00 1.982185e+00 1.856537e+00 2.013892e+00 2.006657e+00 1.751121e+00 1.508502e+00 5.828047e-01
<GCONST> 9.591582e+01
<STATE> 4
<MEAN> 25
 5.895019e+00 -4.724988e+00 -1.197292e+00 3.906052e+00 3.870449e+00 -6.545651e+00 -8.215060e+00 -6.679025e+00 -4.172563e+00 5.337154e-01 9.279272e-01 -6.742178e-01 -3.232698e-01 7.992764e-01 3.300467e-01 -6.339286e-02 7.912491e-02 1.004552e+00 6.088396e-01 3.772415e-01 3.436322e-01 -1.313366e-01 -2.720630e-01 -1.298955e-01 -7.956876e-01
<VARIANCE> 25
 2.029749e+01 3.066547e+01 3.368494e+01 5.057070e+01 4.296806e+01 5.593891e+01 3.659196e+01 3.710094e+01 4.034227e+01 3.575679e+01 3.262199e+01 2.925796e+01 5.569103e-01 1.011105e+00 1.171097e+00 1.448238e+00 1.440968e+00 2.011663e+00 1.814593e+00 1.739066e+00 1.905525e+00 1.867028e+00 1.539982e+00 1.274082e+00 7.538318e-01
<GCONST> 9.278246e+01
~t "T_e"
<ENDHMM>
~h "e+s"
<BEGINHMM>
<NUMSTATES> 5
<STATE> 2
<MEAN> 25
 4.917822e+00 -3.046909e+00 -7.860230e-01 1.961976e+00 3.296882e+00 -3.095960e+00 -4.445966e+00 -4.378197e+00 -4.194638e+00 -1.446952e+00 1.146220e-01 1.648807e-01 1.062938e+00 -1.285595e+00 -6.981800e-01 4.423747e-01 5.001229e-01 -1.895295e+00 -1.787762e+00 -1.308817e+00 -1.084860e+00 1.344622e-01 6.617222e-01 3.701210e-01 1.670173e+00
<VARIANCE> 25
 3.577217e+01 3.706077e+01 4.774310e+01 6.015227e+01 4.925949e+01 6.036604e+01 5.010396e+01 4.977269e+01 4.858726e+01 3.950971e+01 3.013842e+01 2.473536e+01 2.384392e+00 2.958043e+00 2.685448e+00 3.858023e+00 3.340221e+00 5.064232e+00 4.063103e+00 3.681123e+00 4.037725e+00 4.174648e+00 3.332788e+00 2.898063e+00 2.226966e+00
<GCONST> 1.068105e+02
<STATE> 3
<MEAN> 25
 7.191195e+00 -7.001473e+00 -2.328277e+00 2.836691e+00 3.888689e+00 -7.911126e+00 -8.482172e+00 -6.657192e+00 -5.470276e+00 -1.285404e-01 1.987994e+00 7.147580e-01 8.514885e-02 -4.249433e-01 -1.496204e-01 2.818093e-01 1.203487e-01 -6.073316e-01 -4.420330e-01 -1.406531e-01 1.603031e-01 5.093133e-01 3.347531e-01 -4.041983e-02 2.952766e-01
<VARIANCE> 25
 2.837927e+01 3.550758e+01 4.376701e+01 6.339727e+01 5.782299e+01 6.153004e+01 4.445435e+01 4.665985e+01 4.438187e+01 4.603452e+01 3.686113e+01 3.249733e+01 5.579238e-01 9.633060e-01 1.396090e+00 1.826277e+00 1.583154e+00 2.003756e+00 1.982185e+00 1.856537e+00 2.013892e+00 2.006657e+00 1.751121e+00 1.508502e+00 5.828047e-01
<GCONST> 9.591582e+01
<STATE> 4
<MEAN> 25
 5.895019e+00 -4.724988e+00 -1.197292e+00 3.906052e+00 3.870449e+00 -6.545651e+00 -8.215060e+00 -6.679025e+00 -4.172563e+00 5.337154e-01 9.279272e-01 -6.742178e-01 -3.232698e-01 7.992764e-01 3.300467e-01 -6.339286e-02 7.912491e-02 1.004552e+00 6.088396e-01 3.772415e-01 3.436322e-01 -1.313366e-01 -2.720630e-01 -1.298955e-01 -7.956876e-01
<VARIANCE> 25
 2.029749e+01 3.066547e+01 3.368494e+01 5.057070e+01 4.296806e+01 5.593891e+01 3.659196e+01 3.710094e+01 4.034227e+01 3.575679e+01 3.262199e+01 2.925796e+01 5.569103e-01 1.011105e+00 1.171097e+00 1.448238e+00 1.440968e+00 2.011663e+00 1.814593e+00 1.739066e+00 1.905525e+00 1.867028e+00 1.539982e+00 1.274082e+00 7.538318e-01
<GCONST> 9.278246e+01
~t "T_e"
<ENDHMM>
~h "e+u"
<BEGINHMM>
<NUMSTATES> 5
<STATE> 2
<MEAN> 25
 4.917822e+00 -3.046909e+00 -7.860230e-01 1.961976e+00 3.296882e+00 -3.095960e+00 -4.445966e+00 -4.378197e+00 -4.194638e+00 -1.446952e+00 1.146220e-01 1.648807e-01 1.062938e+00 -1.285595e+00 -6.981800e-01 4.423747e-01 5.001229e-01 -1.895295e+00 -1.787762e+00 -1.308817e+00 -1.084860e+00 1.344622e-01 6.617222e-01 3.701210e-01 1.670173e+00
<VARIANCE> 25
 3.577217e+01 3.706077e+01 4.774310e+01 6.015227e+01 4.925949e+01 6.036604e+01 5.010396e+01 4.977269e+01 4.858726e+01 3.950971e+01 3.013842e+01 2.473536e+01 2.384392e+00 2.958043e+00 2.685448e+00 3.858023e+00 3.340221e+00 5.064232e+00 4.063103e+00 3.681123e+00 4.037725e+00 4.174648e+00 3.332788e+00 2.898063e+00 2.226966e+00
<GCONST> 1.068105e+02
<STATE> 3
<MEAN> 25
 7.191195e+00 -7.001473e+00 -2.328277e+00 2.836691e+00 3.888689e+00 -7.911126e+00 -8.482172e+00 -6.657192e+00 -5.470276e+00 -1.285404e-01 1.987994e+00 7.147580e-01 8.514885e-02 -4.249433e-01 -1.496204e-01 2.818093e-01 1.203487e-01 -6.073316e-01 -4.420330e-01 -1.406531e-01 1.603031e-01 5.093133e-01 3.347531e-01 -4.041983e-02 2.952766e-01
<VARIANCE> 25
 2.837927e+01 3.550758e+01 4.376701e+01 6.339727e+01 5.782299e+01 6.153004e+01 4.445435e+01 4.665985e+01 4.438187e+01 4.603452e+01 3.686113e+01 3.249733e+01 5.579238e-01 9.633060e-01 1.396090e+00 1.826277e+00 1.583154e+00 2.003756e+00 1.982185e+00 1.856537e+00 2.013892e+00 2.006657e+00 1.751121e+00 1.508502e+00 5.828047e-01
<GCONST> 9.591582e+01
<STATE> 4
<MEAN> 25
 5.895019e+00 -4.724988e+00 -1.197292e+00 3.906052e+00 3.870449e+00 -6.545651e+00 -8.215060e+00 -6.679025e+00 -4.172563e+00 5.337154e-01 9.279272e-01 -6.742178e-01 -3.232698e-01 7.992764e-01 3.300467e-01 -6.339286e-02 7.912491e-02 1.004552e+00 6.088396e-01 3.772415e-01 3.436322e-01 -1.313366e-01 -2.720630e-01 -1.298955e-01 -7.956876e-01
<VARIANCE> 25
 2.029749e+01 3.066547e+01 3.368494e+01 5.057070e+01 4.296806e+01 5.593891e+01 3.659196e+01 3.710094e+01 4.034227e+01 3.575679e+01 3.262199e+01 2.925796e+01 5.569103e-01 1.011105e+00 1.171097e+00 1.448238e+00 1.440968e+00 2.011663e+00 1.814593e+00 1.739066e+00 1.905525e+00 1.867028e+00 1.539982e+00 1.274082e+00 7.538318e-01
<GCONST> 9.278246e+01
~t "T_e"
<ENDHMM>
~h "e+x"
<BEGINHMM>
<NUMSTATES> 5
<STATE> 2
<MEAN> 25
 4.917822e+00 -3.046909e+00 -7.860230e-01 1.961976e+00 3.296882e+00 -3.095960e+00 -4.445966e+00 -4.378197e+00 -4.194638e+00 -1.446952e+00 1.146220e-01 1.648807e-01 1.062938e+00 -1.285595e+00 -6.981800e-01 4.423747e-01 5.001229e-01 -1.895295e+00 -1.787762e+00 -1.308817e+00 -1.084860e+00 1.344622e-01 6.617222e-01 3.701210e-01 1.670173e+00
<VARIANCE> 25
 3.577217e+01 3.706077e+01 4.774310e+01 6.015227e+01 4.925949e+01 6.036604e+01 5.010396e+01 4.977269e+01 4.858726e+01 3.950971e+01 3.013842e+01 2.473536e+01 2.384392e+00 2.958043e+00 2.685448e+00 3.858023e+00 3.340221e+00 5.064232e+00 4.063103e+00 3.681123e+00 4.037725e+00 4.174648e+00 3.332788e+00 2.898063e+00 2.226966e+00
<GCONST> 1.068105e+02
<STATE> 3
<MEAN> 25
 7.191195e+00 -7.001473e+00 -2.328277e+00 2.836691e+00 3.888689e+00 -7.911126e+00 -8.482172e+00 -6.657192e+00 -5.470276e+00 -1.285404e-01 1.987994e+00 7.147580e-01 8.514885e-02 -4.249433e-01 -1.496204e-01 2.818093e-01 1.203487e-01 -6.073316e-01 -4.420330e-01 -1.406531e-01 1.603031e-01 5.093133e-01 3.347531e-01 -4.041983e-02 2.952766e-01
<VARIANCE> 25
 2.837927e+01 3.550758e+01 4.376701e+01 6.339727e+01 5.782299e+01 6.153004e+01 4.445435e+01 4.665985e+01 4.438187e+01 4.603452e+01 3.686113e+01 3.249733e+01 5.579238e-01 9.633060e-01 1.396090e+00 1.826277e+00 1.583154e+00 2.003756e+00 1.982185e+00 1.856537e+00 2.013892e+00 2.006657e+00 1.751121e+00 1.508502e+00 5.828047e-01
<GCONST> 9.591582e+01
<STATE> 4
<MEAN> 25
 5.895019e+00 -4.724988e+00 -1.197292e+00 3.906052e+00 3.870449e+00 -6.545651e+00 -8.215060e+00 -6.679025e+00 -4.172563e+00 5.337154e-01 9.279272e-01 -6.742178e-01 -3.232698e-01 7.992764e-01 3.300467e-01 -6.339286e-02 7.912491e-02 1.004552e+00 6.088396e-01 3.772415e-01 3.436322e-01 -1.313366e-01 -2.720630e-01 -1.298955e-01 -7.956876e-01
<VARIANCE> 25
 2.029749e+01 3.066547e+01 3.368494e+01 5.057070e+01 4.296806e+01 5.593891e+01 3.659196e+01 3.710094e+01 4.034227e+01 3.575679e+01 3.262199e+01 2.925796e+01 5.569103e-01 1.011105e+00 1.171097e+00 1.448238e+00 1.440968e+00 2.011663e+00 1.814593e+00 1.739066e+00 1.905525e+00 1.867028e+00 1.539982e+00 1.274082e+00 7.538318e-01
<GCONST> 9.278246e+01
~t "T_e"
<ENDHMM>
~h "n-i+ny"
<BEGINHMM>
<NUMSTATES> 5
<STATE> 2
<MEAN> 25
 2.824880e+00 -2.961581e+00 4.292364e+00 7.499251e+00 7.346193e+00 -2.067250e+00 -5.297520e+00 -2.873806e+00 -2.378581e+00 -1.973293e+00 -2.520489e+00 -3.736685e+00 1.015099e+00 -9.724852e-01 2.479329e-01 2.179622e+00 1.426837e+00 -2.128228e+00 -2.309814e+00 -3.848035e-01 -7.270547e-01 -7.560874e-01 -6.794949e-01 -8.365397e-01 1.175898e+00
<VARIANCE> 25
 3.374600e+01 3.967356e+01 6.750194e+01 6.375350e+01 5.781096e+01 6.437442e+01 4.980933e+01 4.415491e+01 4.445846e+01 3.540117e+01 3.356274e+01 2.704606e+01 3.132528e+00 4.137255e+00 3.621446e+00 4.487921e+00 4.215056e+00 5.312013e+00 4.005538e+00 3.824685e+00 4.409300e+00 4.209664e+00 3.923692e+00 2.984154e+00 1.617640e+00
<GCONST> 1.086541e+02
<STATE> 3
<MEAN> 25
 3.691633e+00 -6.378765e+00 6.166086e+00 1.236009e+01 7.380941e+00 -9.047977e+00 -9.580333e+00 -1.629763e+00 -3.102339e+00 -4.599288e+00 -4.548250e+00 -5.048493e+00 8.359629e-02 -2.991736e-01 1.296623e-01 4.305927e-01 9.667514e-03 -8.290642e-01 -5.818837e-01 1.603395e-01 8.957740e-02 -1.876646e-01 -1.591199e-01 -1.092843e-01 2.681427e-01
<VARIANCE> 25
 2.149308e+01 3.103732e+01 4.970968e+01 5.873264e+01 7.158559e+01 6.920425e+01 3.966159e+01 4.495304e+01 4.204121e+01 4.275245e+01 4.102441e+01 2.954641e+01 6.639252e-01 9.264812e-01 1.883231e+00 1.858640e+00 1.558079e+00 2.146437e+00 1.929194e+00 2.097977e+00 1.840118e+00 1.884095e+00 1.595546e+00 1.333590e+00 5.259222e-01
<GCONST> 9.574519e+01
<STATE> 4
<MEAN> 25
 4.036044e+00 -4.218312e+00 4.209880e+00 1.037407e+01 7.996428e+00 -6.247262e+00 -9.419474e+00 -3.331409e+00 -2.663913e+00 -2.918104e+00 -3.142705e+00 -4.376024e+00 3.821991e-02 8.336469e-01 -6.000085e-01 -1.181883e+00 -5.675405e-01 1.117856e+00 8.718380e-01 -2.187419e-01 -3.897155e-02 3.511441e-01 4.869802e-01 5.886047e-01 -5.325214e-01
<VARIANCE> 25
 1.972391e+01 3.227742e+01 4.309776e+01 5.167957e+01 5.495691e+01 6.691110e+01 3.850472e+01 4.351723e+01 4.154246e+01 3.556070e+01 3.517086e+01 2.803684e+01 6.999541e-01 1.390189e+00 1.663853e+00 1.824908e+00 1.964548e+00 2.784639e+00 2.501812e+00 2.236512e+00 2.341234e+00 2.148965e+00 1.947036e+00 1.699689e+00 1.056007e+00
<GCONST> 9.730878e+01
~t "T_i"
<ENDHMM>
~h "e-d"
<BEGINHMM>
<NUMSTATES> 5
<STATE> 2
<MEAN> 25
 4.986747e+00 1.173107e+00 -3.532605e-03 -2.869664e-01 -8.792292e-01 -2.943893e-01 -1.157155e-01 -1.781017e+00 -2.767115e+00 -2.582419e+00 -1.706980e+00 -5.448081e-01 -2.492582e-01 7.052330e-01 5.542889e-01 4.937656e-01 3.336083e-01 7.560925e-01 3.487482e-01 9.874161e-02 5.457619e-02 -1.007866e-01 -2.741712e-01 -1.678351e-01 -6.813607e-01
<VARIANCE> 25
 3.575130e+01 4.199368e+01 4.126587e+01 5.860994e+01 5.800882e+01 5.540382e+01 4.170780e+01 4.906739e+01 4.723788e+01 3.940030e+01 2.930230e+01 2.850399e+01 1.251378e+00 1.493562e+00 1.629822e+00 2.081238e+00 2.239027e+00 2.528253e+00 2.284125e+00 2.485779e+00 2.461237e+00 2.372278e+00 2.008663e+00 1.836602e+00 1.659663e+00
<GCONST> 9.990127e+01
<STATE> 3
<MEAN> 25
 4.914427e+00 1.635913e+00 8.481176e-01 5.874320e-01 -1.860407e-01 2.406812e-01 -3.938809e-02 -1.716778e+00 -2.743559e+00 -2.302445e+00 -1.865128e+00 -5.342951e-01 -2.087076e-01 3.739429e-02 2.673025e-01 1.669757e-01 1.145322e-01 1.772111e-01 9.942254e-02 -5.373251e-02 -6.358257e-02 -4.126178e-02 1.807586e-02 1.027398e-01 -1.237136e-01
<VARIANCE> 25
 2.888018e+01 4.287783e+01 4.231509e+01 5.601795e+01 5.643327e+01 5.696796e+01 4.082035e+01 4.643125e+01 4.334551e+01 3.674223e+01 2.845123e+01 2.631162e+01 6.074597e-01 9.825633e-01 1.005929e+00 1.402578e+00 1.643439e+00 1.440409e+00 1.691248e+00 1.775282e+00 1.692227e+00 1.545876e+00 1.368715e+00 1.293374e+00 5.901869e-01
<GCONST> 9.324805e+01
<STATE> 4
<MEAN> 25
 4.336635e+00 1.898943e+00 1.592930e+00 1.054985e+00 7.405771e-02 9.789971e-01 5.451074e-02 -1.993555e+00 -2.809552e+00 -2.274028e+00 -1.686451e+00 -2.280605e-01 4.773585e-02 -5.405355e-01 -1.993422e-02 -3.128903e-02 -5.543578e-02 -4.109922e-01 -2.349472e-01 -2.260227e-01 -2.361541e-01 -3.670364e-05 2.079962e-01 2.329595e-01 4.070511e-01
<VARIANCE> 25
 2.717667e+01 4.477932e+01 4.206721e+01 5.259300e+01 5.149903e+01 5.344878e+01 3.844084e+01 4.642159e+01 4.322847e+01 3.436483e+01 2.569947e+01 2.370034e+01 4.915567e-01 1.268307e+00 9.630365e-01 1.468139e+00 1.692315e+00 1.473882e+00 1.775575e+00 2.010480e+00 1.839599e+00 1.618163e+00 1.409668e+00 1.328542e+00 7.107434e-01
<GCONST> 9.331273e+01
~t "T_d"
<ENDHMM>
~h "e-i"
<BEGINHMM>
<NUMSTATES> 5
<STATE> 2
<MEAN> 25
 2.824880e+00 -2.961581e+00 4.292364e+00 7.499251e+00 7.346193e+00 -2.067250e+00 -5.297520e+00 -2.873806e+00 -2.378581e+00 -1.973293e+00 -2.520489e+00 -3.736685e+00 1.015099e+00 -9.724852e-01 2.479329e-01 2.179622e+00 1.426837e+00 -2.128228e+00 -2.309814e+00 -3.848035e-01 -7.270547e-01 -7.560874e-01 -6.794949e-01 -8.365397e-01 1.175898e+00
<VARIANCE> 25
 3.374600e+01 3.967356e+01 6.750194e+01 6.375350e+01 5.781096e+01 6.437442e+01 4.980933e+01 4.415491e+01 4.445846e+01 3.540117e+01 3.356274e+01 2.704606e+01 3.132528e+00 4.137255e+00 3.621446e+00 4.487921e+00 4.215056e+00 5.312013e+00 4.005538e+00 3.824685e+00 4.409300e+00 4.209664e+00 3.923692e+00 2.984154e+00 1.617640e+00
<GCONST> 1.086541e+02
<STATE> 3
<MEAN> 25
 3.691633e+00 -6.378765e+00 6.166086e+00 1.236009e+01 7.380941e+00 -9.047977e+00 -9.580333e+00 -1.629763e+00 -3.102339e+00 -4.599288e+00 -4.548250e+00 -5.048493e+00 8.359629e-02 -2.991736e-01 1.296623e-01 4.305927e-01 9.667514e-03 -8.290642e-01 -5.818837e-01 1.603395e-01 8.957740e-02 -1.876646e-01 -1.591199e-01 -1.092843e-01 2.681427e-01
<VARIANCE> 25
 2.149308e+01 3.103732e+01 4.970968e+01 5.873264e+01 7.158559e+01 6.920425e+01 3.966159e+01 4.495304e+01 4.204121e+01 4.275245e+01 4.102441e+01 2.954641e+01 6.639252e-01 9.264812e-01 1.883231e+00 1.858640e+00 1.558079e+00 2.146437e+00 1.929194e+00 2.097977e+00 1.840118e+00 1.884095e+00 1.595546e+00 1.333590e+00 5.259222e-01
<GCONST> 9.574519e+01
<STATE> 4
<MEAN> 25
 4.036044e+00 -4.218312e+00 4.209880e+00 1.037407e+01 7.996428e+00 -6.247262e+00 -9.419474e+00 -3.331409e+00 -2.663913e+00 -2.918104e+00 -3.142705e+00 -4.376024e+00 3.821991e-02 8.336469e-01 -6.000085e-01 -1.181883e+00 -5.675405e-01 1.117856e+00 8.718380e-01 -2.187419e-01 -3.897155e-02 3.511441e-01 4.869802e-01 5.886047e-01 -5.325214e-01
<VARIANCE> 25
 1.972391e+01 3.227742e+01 4.309776e+01 5.167957e+01 5.495691e+01 6.691110e+01 3.850472e+01 4.351723e+01 4.154246e+01 3.556070e+01 3.517086e+01 2.803684e+01 6.999541e-01 1.390189e+00 1.663853e+00 1.824908e+00 1.964548e+00 2.784639e+00 2.501812e+00 2.236512e+00 2.341234e+00 2.148965e+00 1.947036e+00 1.699689e+00 1.056007e+00
<GCONST> 9.730878e+01
~t "T_i"
<ENDHMM>
~h "e-l"
<BEGINHMM>
<NUMSTATES> 5
<STATE> 2
<MEAN> 25
 6.314451e+00 -2.836339e+00 -2.415431e+00 2.781851e+00 1.947059e+00 -2.800302e+00 -2.661815e+00 -2.324516e+00 -3.876258e+00 -3.683601e+00 -1.570764e+00 7.563966e-02 3.129438e-01 4.277349e-01 7.984434e-01 1.918523e+00 1.017305e+00 4.531452e-01 -1.293264e-01 2.709396e-01 -7.299022e-01 -1.606042e+00 -1.354267e+00 -7.730924e-01 -6.160657e-01
<VARIANCE> 25
 3.768519e+01 4.112976e+01 4.717404e+01 6.522243e+01 4.798243e+01 5.569359e+01 4.089912e+01 4.426613e+01 5.019736e+01 4.535135e+01 3.915966e+01 3.028901e+01 1.699836e+00 1.977105e+00 2.316171e+00 3.031282e+00 2.905935e+00 4.508301e+00 3.719640e+00 4.100824e+00 4.742221e+00 3.786747e+00 3.138241e+00 2.508972e+00 2.132987e+00
<GCONST> 1.056931e+02
<STATE> 3
<MEAN> 25
 7.308776e+00 -2.116291e+00 -5.915496e-01 8.047751e+00 4.512689e+00 -2.649817e+00 -3.380396e+00 -8.267048e-01 -5.005058e+00 -7.383716e+00 -4.765788e+00 -2.091391e+00 -2.042886e-01 4.120783e-01 5.339515e-01 7.017787e-01 3.444184e-01 2.565898e-01 1.210279e-01 4.571145e-01 1.694299e-01 -4.738842e-01 -6.538218e-01 -4.505804e-01 -4.639952e-01
<VARIANCE> 25
 2.202492e+01 3.481960e+01 3.887338e+01 6.391379e+01 4.331805e+01 4.796937e+01 4.158508e+01 4.477020e+01 4.591209e+01 3.888554e+01 3.268353e+01 2.532600e+01 8.968565e-01 1.265179e+00 1.520058e+00 2.136260e+00 1.615692e+00 2.971242e+00 2.029787e+00 2.106359e+00 2.521566e+00 2.456026e+00 1.921850e+00 1.679168e+00 9.447469e-01
<GCONST> 9.704557e+01
<STATE> 4
<MEAN> 25
 5.966500e+00 -3.820904e-01 3.151454e-01 7.105481e+00 4.340966e+00 -1.720254e+00 -3.097861e+00 -7.825651e-01 -3.803820e+00 -6.722578e+00 -5.169729e+00 -2.231982e+00 -1.248948e-01 3.641126e-02 -1.620759e-01 -8.538845e-01 -4.337227e-01 -1.165125e-01 1.175181e-01 -1.721042e-01 8.785849e-02 4.827425e-01 5.441091e-01 3.938914e-01 1.508765e-01
<VARIANCE> 25
 2.100273e+01 3.151579e+01 3.614806e+01 5.096074e+01 3.741170e+01 4.566805e+01 3.924998e+01 3.931923e+01 4.211623e+01 3.813666e+01 3.033226e+01 2.373476e+01 8.690925e-01 1.079303e+00 1.530230e+00 2.250370e+00 1.643832e+00 2.437176e+00 1.802907e+00 2.009850e+00 2.136790e+00 2.217616e+00 1.925478e+00 1.643911e+00 9.747648e-01
<GCONST> 9.523684e+01
~t "T_l"
<ENDHMM>
~h "e-n"
<BEGINHMM>
<NUMSTATES> 5
<STATE> 2
<MEAN> 25
 7.169885e+00 3.457295e-01 -9.706034e-01 1.822969e+00 2.203207e+00 -1.710077e+00 -1.541217e+00 -6.925409e-01 -3.499932e+00 -2.178467e+00 -7.829415e-01 -1.847775e+00 -1.776564e-01 1.685531e+00 6.899630e-01 1.139801e+00 6.890932e-01 2.057916e+00 4.165332e-01 -6.090450e-01 -1.683788e-01 -9.237592e-02 -7.342267e-01 -1.250047e+00 -1.560356e+00
<VARIANCE> 25
 2.165102e+01 3.528417e+01 4.496836e+01 6.788055e+01 4.849240e+01 5.297578e+01 4.589392e+01 4.388946e+01 4.575230e+01 3.900736e+01 3.414560e+01 3.704768e+01 9.116951e-01 1.700086e+00 1.786228e+00 4.035296e+00 3.243808e+00 3.321929e+00 3.851503e+00 3.338852e+00 3.444288e+00 2.962204e+00 2.780899e+00 2.558904e+00 1.011466e+00
<GCONST> 1.023394e+02
<STATE> 3
<MEAN> 25
 6.451331e+00 3.805457e+00 7.997720e-01 4.104099e+00 3.209973e+00 1.771652e+00 -1.687927e+00 -2.346424e+00 -2.799612e+00 -1.867672e+00 -2.654003e+00 -4.671466e+00 -4.288488e-01 8.661700e-01 6.104125e-01 6.183404e-01 3.940374e-01 1.045232e+00 2.131816e-01 -3.304687e-01 1.941549e-01 1.693209e-01 -3.405662e-01 -4.656930e-01 -8.459170e-01
<VARIANCE> 25
 1.605801e+01 2.327610e+01 3.427949e+01 4.943877e+01 3.551352e+01 4.001220e+01 3.662941e+01 3.266262e+01 4.372853e+01 3.314529e+01 2.653506e+01 2.688600e+01 4.240589e-01 7.692712e-01 1.020777e+00 1.824027e+00 1.598796e+00 1.636005e+00 1.955104e+00 1.795479e+00 2.067024e+00 1.608387e+00 1.611071e+00 1.827414e+00 4.028325e-01
<GCONST> 9.059154e+01
<STATE> 4
<MEAN> 25
 3.843240e+00 4.976631e+00 2.044346e+00 4.405276e+00 3.430595e+00 3.177998e+00 -7.137617e-01 -1.420924e+00 -8.184713e-01 -5.259312e-01 -2.154598e+00 -3.488309e+00 -4.377143e-01 -2.375585e-02 4.742600e-02 -6.740690e-02 -9.708463e-02 1.467522e-01 2.977267e-01 2.026634e-01 7.117245e-02 2.588364e-02 1.424470e-01 2.484765e-01 -3.065790e-01
<VARIANCE> 25
 1.843643e+01 1.784051e+01 2.607419e+01 3.130790e+01 2.558590e+01 2.868715e+01 2.686604e+01 2.596465e+01 3.096772e+01 2.389989e+01 1.980139e+01 1.923713e+01 4.635847e-01 5.872605e-01 8.780912e-01 9.187444e-01 9.726738e-01 1.154603e+00 1.138327e+00 1.124501e+00 1.193445e+00 1.121723e+00 1.058525e+00 1.099325e+00 4.008314e-01
<GCONST> 8.251925e+01
~t "T_n"
<ENDHMM>
~h "e-o"
<BEGINHMM>
<NUMSTATES> 5
<STATE> 2
<MEAN> 25
 8.202134e+00 8.756948e-01 -1.556870e+00 -2.412576e+00 -4.135490e+00 -5.283045e+00 -1.325630e+00 5.514442e-01 -3.256593e+00 -4.464030e+00 -3.179199e+00 -1.018459e+00 8.533680e-01 5.628624e-02 -4.272498e-01 -1.163086e+00 -1.742013e+00 -1.833407e+00 -1.006363e-01 8.327968e-01 2.565329e-01 -1.784475e-01 -2.551433e-01 1.000556e-01 7.841955e-01
<VARIANCE> 25
 2.727819e+01 4.614404e+01 4.546624e+01 5.624189e+01 6.257309e+01 6.102062e+01 4.518742e+01 4.939813e+01 5.469617e+01 4.219932e+01 3.056493e+01 2.847985e+01 1.604221e+00 2.714622e+00 2.414845e+00 3.306103e+00 3.399673e+00 4.293542e+00 4.410888e+00 3.910635e+00 3.812121e+00 3.509329e+00 2.851977e+00 2.694980e+00 1.552250e+00
<GCONST> 1.055529e+02
<STATE> 3
<MEAN> 25
 9.608891e+00 1.841884e+00 -1.624231e+00 -4.843653e+00 -1.056682e+01 -1.047259e+01 -3.275502e-01 4.228262e+00 -8.981493e-01 -3.707518e+00 -3.771726e+00 -1.847208e+00 -1.603226e-01 3.746803e-01 2.492852e-02 -5.283350e-02 -1.316152e-01 2.060792e-01 2.320018e-01 3.473101e-01 4.636069e-01 2.421327e-01 -1.011645e-03 -9.001540e-02 -4.208844e-01
<VARIANCE> 25
 2.191664e+01 3.832346e+01 3.536129e+01 4.552036e+01 5.146196e+01 5.402416e+01 4.532333e+01 4.316967e+01 5.194213e+01 3.791486e+01 2.724122e+01 2.477335e+01 5.759985e-01 1.296905e+00 1.329783e+00 1.436117e+00 2.015944e+00 2.854960e+00 1.984985e+00 2.227589e+00 2.343580e+00 2.045362e+00 1.638120e+00 1.449960e+00 1.066268e+00
<GCONST> 9.576168e+01
<STATE> 4
<MEAN> 25
 5.920141e+00 4.729104e+00 -6.619071e-01 -3.592440e+00 -6.668617e+00 -4.437122e+00 3.776827e-01 3.175261e+00 9.050462e-01 -1.454790e+00 -2.326509e+00 -1.249121e+00 -6.257654e-01 -3.906129e-02 1.678127e-01 4.218079e-01 7.039407e-01 9.980335e-01 2.885799e-01 -2.038472e-01 -1.773957e-02 1.877047e-01 2.155907e-01 8.154663e-02 -5.345345e-01
<VARIANCE> 25
 2.381943e+01 3.168683e+01 3.073319e+01 3.372535e+01 3.205265e+01 4.222814e+01 3.201194e+01 3.300840e+01 3.498757e+01 3.150789e+01 2.243595e+01 1.901501e+01 4.852379e-01 7.335701e-01 1.011674e+00 1.084659e+00 1.496157e+00 1.967000e+00 1.648281e+00 1.688958e+00 1.686677e+00 1.518985e+00 1.305284e+00 1.193857e+00 3.831035e-01
<GCONST> 8.833953e+01
~t "T_o"
<ENDHMM>
~h "e-r"
<BEGINHMM>
<NUMSTATES> 5
<STATE> 2
<MEAN> 25
 8.643217e+00 -2.787229e+00 -6.224000e+00 -3.124852e+00 1.355937e+00 -3.755785e+00 -4.512966e+00 -3.933424e+00 -2.882520e+00 -2.216112e+00 -7.354643e-01 1.580987e+00 1.561792e-01 8.974332e-01 -3.782570e-01 5.168830e-01 1.252811e+00 1.208448e+00 -3.267309e-01 -2.546778e-01 -2.021774e-01 -5.815746e-01 -5.138835e-01 -2.330100e-02 -1.076871e+00
<VARIANCE> 25
 3.211975e+01 4.498290e+01 5.062462e+01 5.935705e+01 5.828969e+01 5.106108e+01 4.451467e+01 4.801496e+01 4.760433e+01 4.023750e+01 3.850442e+01 3.225385e+01 1.654517e+00 2.112823e+00 2.382579e+00 2.979533e+00 3.407424e+00 4.447104e+00 3.988335e+00 3.638894e+00 3.461148e+00 2.960581e+00 2.838124e+00 2.399935e+00 1.986631e+00
<GCONST> 1.051154e+02
<STATE> 3
<MEAN> 25
 7.898341e+00 6.769122e-01 -5.980435e+00 -1.402799e+00 3.525082e+00 4.491480e-01 -3.918551e+00 -3.587373e+00 -2.649347e+00 -2.842372e+00 -1.689278e+00 1.021962e+00 -7.756338e-01 7.563383e-01 5.502752e-01 8.270113e-01 2.798240e-01 1.325491e+00 7.032835e-01 3.596233e-01 3.082208e-01 -5.154090e-03 -2.048264e-01 -3.199293e-01 -1.361292e+00
<VARIANCE> 25
 2.876068e+01 3.251756e+01 4.847742e+01 5.875251e+01 4.849226e+01 4.357820e+01 4.282160e+01 3.805943e+01 3.575104e+01 3.216047e+01 2.785275e+01 2.531534e+01 1.549412e+00 2.112714e+00 2.763809e+00 3.039823e+00 3.358799e+00 3.590118e+00 3.448425e+00 3.136224e+00 3.408474e+00 2.967985e+00 2.623605e+00 2.237263e+00 1.636310e+00
<GCONST> 1.021613e+02
<STATE> 4
<MEAN> 25
 5.412677e+00 1.833103e+00 -4.028427e+00 -5.085419e-01 2.267809e+00 2.085018e+00 -1.665371e+00 -2.343382e+00 -1.808912e+00 -2.284674e+00 -1.413052e+00 3.313459e-01 -4.867756e-01 -6.988044e-02 4.821670e-01 3.639740e-01 -2.038538e-01 -1.353530e-01 2.935330e-01 3.202356e-01 4.707072e-02 1.700878e-01 1.382703e-01 -1.182176e-01 -2.790100e-01
<VARIANCE> 25
 2.738630e+01 3.117259e+01 4.332304e+01 4.824800e+01 3.927319e+01 3.631243e+01 3.395251e+01 3.381007e+01 3.105561e+01 2.732073e+01 2.547030e+01 2.190276e+01 1.094292e+00 1.505075e+00 2.021805e+00 2.286807e+00 2.216540e+00 2.356158e+00 2.429886e+00 2.174607e+00 2.300617e+00 2.008530e+00 1.813168e+00 1.681972e+00 1.042680e+00
<GCONST> 9.575272e+01
~t "T_r"
<ENDHMM>
~h "e-s"
<BEGINHMM>
<NUMSTATES> 5
<STATE> 2
<MEAN> 25
 -2.672227e+00 -3.270423e+00 1.004953e+01 -4.440532e+00 1.809237e-01 1.463706e+00 2.479738e+00 -8.504221e-01 -6.740083e-01 7.527752e-01 2.025366e-01 -1.215088e-01 -2.952475e+00 -1.081467e+00 2.472686e+00 -1.170398e+00 1.552520e-01 9.225060e-01 1.190610e+00 1.466946e-02 5.599615e-01 4.710526e-01 5.590721e-01 2.782978e-01 2.598815e-01
<VARIANCE> 25
 6.090248e+01 4.096783e+01 9.645750e+01 7.985217e+01 7.116714e+01 6.051644e+01 6.688841e+01 7.043929e+01 5.318323e+01 4.527814e+01 3.572353e+01 2.664364e+01 3.096100e+00 3.809794e+00 4.041855e+00 4.010174e+00 3.633645e+00 4.631847e+00 3.728845e+00 3.332037e+00 3.740141e+00 3.394577e+00 2.906559e+00 2.198195e+00 1.359681e+00
<GCONST> 1.094882e+02
<STATE> 3
<MEAN> 25
 -1.388278e+01 -7.547144e+00 1.724523e+01 -1.016027e+01 5.564176e-01 9.960555e-01 5.586256e+00 -1.188120e+00 5.186584e-01 1.813791e+00 1.467571e+00 5.005577e-01 -2.925702e-01 -1.122364e-01 -2.537486e-01 7.632152e-02 -1.322451e-02 7.181087e-02 4.822661e-02 6.459653e-02 8.100856e-02 3.569933e-02 1.088791e-01 9.543600e-02 -2.908385e-01
<VARIANCE> 25
 7.703424e+01 8.092426e+01 1.181283e+02 1.229016e+02 1.058419e+02 8.350800e+01 7.997587e+01 8.339116e+01 7.095995e+01 5.324371e+01 4.210551e+01 2.871686e+01 2.398076e+00 1.604921e+00 2.021634e+00 2.360392e+00 1.573115e+00 1.834233e+00 1.877151e+00 1.805621e+00 1.722814e+00 1.544063e+00 1.343992e+00 1.183776e+00 8.760858e-01
<GCONST> 1.039959e+02
<STATE> 4
<MEAN> 25
 -6.362659e+00 -4.423155e+00 9.820220e+00 -4.903218e+00 -3.681852e-01 2.570100e+00 3.167925e+00 -5.793936e-01 -8.759587e-02 1.059100e+00 1.291414e+00 8.679242e-01 2.306367e+00 1.451382e+00 -1.806829e+00 1.135726e+00 -1.512867e-01 -5.723754e-03 -1.025580e+00 -6.012088e-02 -4.432604e-01 -4.086378e-01 -5.183563e-01 -1.828476e-01 -1.028221e+00
<VARIANCE> 25
 5.843802e+01 5.417876e+01 7.380061e+01 6.748988e+01 5.934891e+01 5.204456e+01 5.172548e+01 5.419441e+01 4.946672e+01 4.243489e+01 3.060479e+01 2.467298e+01 5.810026e+00 3.654878e+00 3.590863e+00 3.486390e+00 3.299611e+00 3.667934e+00 3.647548e+00 3.210599e+00 3.578302e+00 3.155891e+00 2.695603e+00 2.113597e+00 1.871167e+00
<GCONST> 1.080983e+02
~t "T_s"
<ENDHMM>
~h "e-t"
<BEGINHMM>
<NUMSTATES> 5
<STATE> 2
<MEAN> 25
 -1.105155e+00 3.531708e+00 3.428654e-04 2.035812e+00 1.206108e-01 3.856581e+00 4.077179e-01 -5.965847e-01 8.127027e-01 7.627032e-01 3.199013e-01 6.893349e-02 -6.225701e-01 -2.968751e-01 -4.327019e-01 -2.591668e-01 -4.670320e-01 5.148919e-02 2.475624e-01 2.473967e-01 4.056443e-01 2.193291e-01 2.135402e-01 2.370846e-01 -4.553078e-01
<VARIANCE> 25
 1.757349e+01 1.922104e+01 3.467615e+01 3.267662e+01 2.919297e+01 2.473142e+01 2.491181e+01 2.517140e+01 2.366685e+01 1.964377e+01 1.771473e+01 1.668316e+01 8.811969e-01 1.897543e+00 1.485499e+00 1.704934e+00 1.593071e+00 1.769392e+00 1.715915e+00 1.659040e+00 1.614757e+00 1.490305e+00 1.287322e+00 1.257182e+00 1.985336e+00
<GCONST> 8.922695e+01
<STATE> 3
<MEAN> 25
 -2.661848e+00 -1.497703e+00 5.282218e-02 -3.497691e-01 -1.323973e+00 2.477841e+00 1.625346e+00 -2.516246e-01 1.776590e+00 1.439802e+00 5.119318e-01 3.112603e-01 3.591390e-01 -2.639185e+00 1.089064e+00 -1.295514e+00 3.863864e-02 -1.159161e+00 1.705076e-01 -5.860544e-01 -5.879141e-01 -1.566525e-01 -8.659262e-03 1.297800e-01 3.161201e+00
<VARIANCE> 25
 2.167913e+01 5.237593e+01 4.070385e+01 5.008830e+01 3.684749e+01 3.489187e+01 3.228013e+01 3.020567e+01 2.734658e+01 2.465602e+01 2.112542e+01 1.802548e+01 2.104158e+00 3.082623e+00 3.689658e+00 4.205109e+00 3.861122e+00 3.443296e+00 3.636282e+00 3.397777e+00 3.384237e+00 2.689384e+00 2.275631e+00 2.211970e+00 2.531482e+00
<GCONST> 1.015656e+02
<STATE> 4
<MEAN> 25
 6.725208e-02 -5.150090e+00 3.443682e+00 -2.513680e+00 -2.271353e-01 -2.479110e-01 1.068287e+00 -2.403555e+00 -1.349449e+00 3.935923e-02 2.190253e-01 7.620124e-01 2.674966e+00 -7.274120e-02 -3.204739e-01 3.668221e-01 1.818312e-01 -1.773539e+00 -1.494750e+00 -9.235156e-01 -1.947002e+00 -1.262686e+00 -4.662289e-01 5.305367e-02 2.229213e+00
<VARIANCE> 25
 3.678450e+01 4.006910e+01 4.787255e+01 5.576718e+01 5.168572e+01 4.239035e+01 4.381770e+01 4.481693e+01 4.380044e+01 3.419241e+01 2.507265e+01 1.988425e+01 2.029730e+00 4.721550e+00 4.108329e+00 5.850153e+00 5.617827e+00 4.736856e+00 4.321757e+00 4.812273e+00 4.380567e+00 4.659930e+00 3.916073e+00 3.285652e+00 3.656609e+00
<GCONST> 1.085535e+02
~t "T_t"
<ENDHMM>
~h "n-i+th"
<BEGINHMM>
<NUMSTATES> 5
<STATE> 2
<MEAN> 25
 2.824880e+00 -2.961581e+00 4.292364e+00 7.499251e+00 7.346193e+00 -2.067250e+00 -5.297520e+00 -2.873806e+00 -2.378581e+00 -1.973293e+00 -2.520489e+00 -3.736685e+00 1.015099e+00 -9.724852e-01 2.479329e-01 2.179622e+00 1.426837e+00 -2.128228e+00 -2.309814e+00 -3.848035e-01 -7.270547e-01 -7.560874e-01 -6.794949e-01 -8.365397e-01 1.175898e+00
<VARIANCE> 25
 3.374600e+01 3.967356e+01 6.750194e+01 6.375350e+01 5.781096e+01 6.437442e+01 4.980933e+01 4.415491e+01 4.445846e+01 3.540117e+01 3.356274e+01 2.704606e+01 3.132528e+00 4.137255e+00 3.621446e+00 4.487921e+00 4.215056e+00 5.312013e+00 4.005538e+00 3.824685e+00 4.409300e+00 4.209664e+00 3.923692e+00 2.984154e+00 1.617640e+00
<GCONST> 1.086541e+02
<STATE> 3
<MEAN> 25
 3.691633e+00 -6.378765e+00 6.166086e+00 1.236009e+01 7.380941e+00 -9.047977e+00 -9.580333e+00 -1.629763e+00 -3.102339e+00 -4.599288e+00 -4.548250e+00 -5.048493e+00 8.359629e-02 -2.991736e-01 1.296623e-01 4.305927e-01 9.667514e-03 -8.290642e-01 -5.818837e-01 1.603395e-01 8.957740e-02 -1.876646e-01 -1.591199e-01 -1.092843e-01 2.681427e-01
<VARIANCE> 25
 2.149308e+01 3.103732e+01 4.970968e+01 5.873264e+01 7.158559e+01 6.920425e+01 3.966159e+01 4.495304e+01 4.204121e+01 4.275245e+01 4.102441e+01 2.954641e+01 6.639252e-01 9.264812e-01 1.883231e+00 1.858640e+00 1.558079e+00 2.146437e+00 1.929194e+00 2.097977e+00 1.840118e+00 1.884095e+00 1.595546e+00 1.333590e+00 5.259222e-01
<GCONST> 9.574519e+01
<STATE> 4
<MEAN> 25
 4.036044e+00 -4.218312e+00 4.209880e+00 1.037407e+01 7.996428e+00 -6.247262e+00 -9.419474e+00 -3.331409e+00 -2.663913e+00 -2.918104e+00 -3.142705e+00 -4.376024e+00 3.821991e-02 8.336469e-01 -6.000085e-01 -1.181883e+00 -5.675405e-01 1.117856e+00 8.718380e-01 -2.187419e-01 -3.897155e-02 3.511441e-01 4.869802e-01 5.886047e-01 -5.325214e-01
<VARIANCE> 25
 1.972391e+01 3.227742e+01 4.309776e+01 5.167957e+01 5.495691e+01 6.691110e+01 3.850472e+01 4.351723e+01 4.154246e+01 3.556070e+01 3.517086e+01 2.803684e+01 6.999541e-01 1.390189e+00 1.663853e+00 1.824908e+00 1.964548e+00 2.784639e+00 2.501812e+00 2.236512e+00 2.341234e+00 2.148965e+00 1.947036e+00 1.699689e+00 1.056007e+00
<GCONST> 9.730878e+01
~t "T_i"
<ENDHMM>
~h "rr-e+a"
<BEGINHMM>
<NUMSTATES> 5
<STATE> 2
<MEAN> 25
 4.917822e+00 -3.046909e+00 -7.860230e-01 1.961976e+00 3.296882e+00 -3.095960e+00 -4.445966e+00 -4.378197e+00 -4.194638e+00 -1.446952e+00 1.146220e-01 1.648807e-01 1.062938e+00 -1.285595e+00 -6.981800e-01 4.423747e-01 5.001229e-01 -1.895295e+00 -1.787762e+00 -1.308817e+00 -1.084860e+00 1.344622e-01 6.617222e-01 3.701210e-01 1.670173e+00
<VARIANCE> 25
 3.577217e+01 3.706077e+01 4.774310e+01 6.015227e+01 4.925949e+01 6.036604e+01 5.010396e+01 4.977269e+01 4.858726e+01 3.950971e+01 3.013842e+01 2.473536e+01 2.384392e+00 2.958043e+00 2.685448e+00 3.858023e+00 3.340221e+00 5.064232e+00 4.063103e+00 3.681123e+00 4.037725e+00 4.174648e+00 3.332788e+00 2.898063e+00 2.226966e+00
<GCONST> 1.068105e+02
<STATE> 3
<MEAN> 25
 7.191195e+00 -7.001473e+00 -2.328277e+00 2.836691e+00 3.888689e+00 -7.911126e+00 -8.482172e+00 -6.657192e+00 -5.470276e+00 -1.285404e-01 1.987994e+00 7.147580e-01 8.514885e-02 -4.249433e-01 -1.496204e-01 2.818093e-01 1.203487e-01 -6.073316e-01 -4.420330e-01 -1.406531e-01 1.603031e-01 5.093133e-01 3.347531e-01 -4.041983e-02 2.952766e-01
<VARIANCE> 25
 2.837927e+01 3.550758e+01 4.376701e+01 6.339727e+01 5.782299e+01 6.153004e+01 4.445435e+01 4.665985e+01 4.438187e+01 4.603452e+01 3.686113e+01 3.249733e+01 5.579238e-01 9.633060e-01 1.396090e+00 1.826277e+00 1.583154e+00 2.003756e+00 1.982185e+00 1.856537e+00 2.013892e+00 2.006657e+00 1.751121e+00 1.508502e+00 5.828047e-01
<GCONST> 9.591582e+01
<STATE> 4
<MEAN> 25
 5.895019e+00 -4.724988e+00 -1.197292e+00 3.906052e+00 3.870449e+00 -6.545651e+00 -8.215060e+00 -6.679025e+00 -4.172563e+00 5.337154e-01 9.279272e-01 -6.742178e-01 -3.232698e-01 7.992764e-01 3.300467e-01 -6.339286e-02 7.912491e-02 1.004552e+00 6.088396e-01 3.772415e-01 3.436322e-01 -1.313366e-01 -2.720630e-01 -1.298955e-01 -7.956876e-01
<VARIANCE> 25
 2.029749e+01 3.066547e+01 3.368494e+01 5.057070e+01 4.296806e+01 5.593891e+01 3.659196e+01 3.710094e+01 4.034227e+01 3.575679e+01 3.262199e+01 2.925796e+01 5.569103e-01 1.011105e+00 1.171097e+00 1.448238e+00 1.440968e+00 2.011663e+00 1.814593e+00 1.739066e+00 1.905525e+00 1.867028e+00 1.539982e+00 1.274082e+00 7.538318e-01
<GCONST> 9.278246e+01
~t "T_e"
<ENDHMM>
~h "rr-e+d"
<BEGINHMM>
<NUMSTATES> 5
<STATE> 2
<MEAN> 25
 4.917822e+00 -3.046909e+00 -7.860230e-01 1.961976e+00 3.296882e+00 -3.095960e+00 -4.445966e+00 -4.378197e+00 -4.194638e+00 -1.446952e+00 1.146220e-01 1.648807e-01 1.062938e+00 -1.285595e+00 -6.981800e-01 4.423747e-01 5.001229e-01 -1.895295e+00 -1.787762e+00 -1.308817e+00 -1.084860e+00 1.344622e-01 6.617222e-01 3.701210e-01 1.670173e+00
<VARIANCE> 25
 3.577217e+01 3.706077e+01 4.774310e+01 6.015227e+01 4.925949e+01 6.036604e+01 5.010396e+01 4.977269e+01 4.858726e+01 3.950971e+01 3.013842e+01 2.473536e+01 2.384392e+00 2.958043e+00 2.685448e+00 3.858023e+00 3.340221e+00 5.064232e+00 4.063103e+00 3.681123e+00 4.037725e+00 4.174648e+00 3.332788e+00 2.898063e+00 2.226966e+00
<GCONST> 1.068105e+02
<STATE> 3
<MEAN> 25
 7.191195e+00 -7.001473e+00 -2.328277e+00 2.836691e+00 3.888689e+00 -7.911126e+00 -8.482172e+00 -6.657192e+00 -5.470276e+00 -1.285404e-01 1.987994e+00 7.147580e-01 8.514885e-02 -4.249433e-01 -1.496204e-01 2.818093e-01 1.203487e-01 -6.073316e-01 -4.420330e-01 -1.406531e-01 1.603031e-01 5.093133e-01 3.347531e-01 -4.041983e-02 2.952766e-01
<VARIANCE> 25
 2.837927e+01 3.550758e+01 4.376701e+01 6.339727e+01 5.782299e+01 6.153004e+01 4.445435e+01 4.665985e+01 4.438187e+01 4.603452e+01 3.686113e+01 3.249733e+01 5.579238e-01 9.633060e-01 1.396090e+00 1.826277e+00 1.583154e+00 2.003756e+00 1.982185e+00 1.856537e+00 2.013892e+00 2.006657e+00 1.751121e+00 1.508502e+00 5.828047e-01
<GCONST> 9.591582e+01
<STATE> 4
<MEAN> 25
 5.895019e+00 -4.724988e+00 -1.197292e+00 3.906052e+00 3.870449e+00 -6.545651e+00 -8.215060e+00 -6.679025e+00 -4.172563e+00 5.337154e-01 9.279272e-01 -6.742178e-01 -3.232698e-01 7.992764e-01 3.300467e-01 -6.339286e-02 7.912491e-02 1.004552e+00 6.088396e-01 3.772415e-01 3.436322e-01 -1.313366e-01 -2.720630e-01 -1.298955e-01 -7.956876e-01
<VARIANCE> 25
 2.029749e+01 3.066547e+01 3.368494e+01 5.057070e+01 4.296806e+01 5.593891e+01 3.659196e+01 3.710094e+01 4.034227e+01 3.575679e+01 3.262199e+01 2.925796e+01 5.569103e-01 1.011105e+00 1.171097e+00 1.448238e+00 1.440968e+00 2.011663e+00 1.814593e+00 1.739066e+00 1.905525e+00 1.867028e+00 1.539982e+00 1.274082e+00 7.538318e-01
<GCONST> 9.278246e+01
~t "T_e"
<ENDHMM>
~h "rr-e+f"
<BEGINHMM>
<NUMSTATES> 5
<STATE> 2
<MEAN> 25
 4.917822e+00 -3.046909e+00 -7.860230e-01 1.961976e+00 3.296882e+00 -3.095960e+00 -4.445966e+00 -4.378197e+00 -4.194638e+00 -1.446952e+00 1.146220e-01 1.648807e-01 1.062938e+00 -1.285595e+00 -6.981800e-01 4.423747e-01 5.001229e-01 -1.895295e+00 -1.787762e+00 -1.308817e+00 -1.084860e+00 1.344622e-01 6.617222e-01 3.701210e-01 1.670173e+00
<VARIANCE> 25
 3.577217e+01 3.706077e+01 4.774310e+01 6.015227e+01 4.925949e+01 6.036604e+01 5.010396e+01 4.977269e+01 4.858726e+01 3.950971e+01 3.013842e+01 2.473536e+01 2.384392e+00 2.958043e+00 2.685448e+00 3.858023e+00 3.340221e+00 5.064232e+00 4.063103e+00 3.681123e+00 4.037725e+00 4.174648e+00 3.332788e+00 2.898063e+00 2.226966e+00
<GCONST> 1.068105e+02
<STATE> 3
<MEAN> 25
 7.191195e+00 -7.001473e+00 -2.328277e+00 2.836691e+00 3.888689e+00 -7.911126e+00 -8.482172e+00 -6.657192e+00 -5.470276e+00 -1.285404e-01 1.987994e+00 7.147580e-01 8.514885e-02 -4.249433e-01 -1.496204e-01 2.818093e-01 1.203487e-01 -6.073316e-01 -4.420330e-01 -1.406531e-01 1.603031e-01 5.093133e-01 3.347531e-01 -4.041983e-02 2.952766e-01
<VARIANCE> 25
 2.837927e+01 3.550758e+01 4.376701e+01 6.339727e+01 5.782299e+01 6.153004e+01 4.445435e+01 4.665985e+01 4.438187e+01 4.603452e+01 3.686113e+01 3.249733e+01 5.579238e-01 9.633060e-01 1.396090e+00 1.826277e+00 1.583154e+00 2.003756e+00 1.982185e+00 1.856537e+00 2.013892e+00 2.006657e+00 1.751121e+00 1.508502e+00 5.828047e-01
<GCONST> 9.591582e+01
<STATE> 4
<MEAN> 25
 5.895019e+00 -4.724988e+00 -1.197292e+00 3.906052e+00 3.870449e+00 -6.545651e+00 -8.215060e+00 -6.679025e+00 -4.172563e+00 5.337154e-01 9.279272e-01 -6.742178e-01 -3.232698e-01 7.992764e-01 3.300467e-01 -6.339286e-02 7.912491e-02 1.004552e+00 6.088396e-01 3.772415e-01 3.436322e-01 -1.313366e-01 -2.720630e-01 -1.298955e-01 -7.956876e-01
<VARIANCE> 25
 2.029749e+01 3.066547e+01 3.368494e+01 5.057070e+01 4.296806e+01 5.593891e+01 3.659196e+01 3.710094e+01 4.034227e+01 3.575679e+01 3.262199e+01 2.925796e+01 5.569103e-01 1.011105e+00 1.171097e+00 1.448238e+00 1.440968e+00 2.011663e+00 1.814593e+00 1.739066e+00 1.905525e+00 1.867028e+00 1.539982e+00 1.274082e+00 7.538318e-01
<GCONST> 9.278246e+01
~t "T_e"
<ENDHMM>
~h "rr-e+g"
<BEGINHMM>
<NUMSTATES> 5
<STATE> 2
<MEAN> 25
 4.917822e+00 -3.046909e+00 -7.860230e-01 1.961976e+00 3.296882e+00 -3.095960e+00 -4.445966e+00 -4.378197e+00 -4.194638e+00 -1.446952e+00 1.146220e-01 1.648807e-01 1.062938e+00 -1.285595e+00 -6.981800e-01 4.423747e-01 5.001229e-01 -1.895295e+00 -1.787762e+00 -1.308817e+00 -1.084860e+00 1.344622e-01 6.617222e-01 3.701210e-01 1.670173e+00
<VARIANCE> 25
 3.577217e+01 3.706077e+01 4.774310e+01 6.015227e+01 4.925949e+01 6.036604e+01 5.010396e+01 4.977269e+01 4.858726e+01 3.950971e+01 3.013842e+01 2.473536e+01 2.384392e+00 2.958043e+00 2.685448e+00 3.858023e+00 3.340221e+00 5.064232e+00 4.063103e+00 3.681123e+00 4.037725e+00 4.174648e+00 3.332788e+00 2.898063e+00 2.226966e+00
<GCONST> 1.068105e+02
<STATE> 3
<MEAN> 25
 7.191195e+00 -7.001473e+00 -2.328277e+00 2.836691e+00 3.888689e+00 -7.911126e+00 -8.482172e+00 -6.657192e+00 -5.470276e+00 -1.285404e-01 1.987994e+00 7.147580e-01 8.514885e-02 -4.249433e-01 -1.496204e-01 2.818093e-01 1.203487e-01 -6.073316e-01 -4.420330e-01 -1.406531e-01 1.603031e-01 5.093133e-01 3.347531e-01 -4.041983e-02 2.952766e-01
<VARIANCE> 25
 2.837927e+01 3.550758e+01 4.376701e+01 6.339727e+01 5.782299e+01 6.153004e+01 4.445435e+01 4.665985e+01 4.438187e+01 4.603452e+01 3.686113e+01 3.249733e+01 5.579238e-01 9.633060e-01 1.396090e+00 1.826277e+00 1.583154e+00 2.003756e+00 1.982185e+00 1.856537e+00 2.013892e+00 2.006657e+00 1.751121e+00 1.508502e+00 5.828047e-01
<GCONST> 9.591582e+01
<STATE> 4
<MEAN> 25
 5.895019e+00 -4.724988e+00 -1.197292e+00 3.906052e+00 3.870449e+00 -6.545651e+00 -8.215060e+00 -6.679025e+00 -4.172563e+00 5.337154e-01 9.279272e-01 -6.742178e-01 -3.232698e-01 7.992764e-01 3.300467e-01 -6.339286e-02 7.912491e-02 1.004552e+00 6.088396e-01 3.772415e-01 3.436322e-01 -1.313366e-01 -2.720630e-01 -1.298955e-01 -7.956876e-01
<VARIANCE> 25
 2.029749e+01 3.066547e+01 3.368494e+01 5.057070e+01 4.296806e+01 5.593891e+01 3.659196e+01 3.710094e+01 4.034227e+01 3.575679e+01 3.262199e+01 2.925796e+01 5.569103e-01 1.011105e+00 1.171097e+00 1.448238e+00 1.440968e+00 2.011663e+00 1.814593e+00 1.739066e+00 1.905525e+00 1.867028e+00 1.539982e+00 1.274082e+00 7.538318e-01
<GCONST> 9.278246e+01
~t "T_e"
<ENDHMM>
~h "rr-e+i"
<BEGINHMM>
<NUMSTATES> 5
<STATE> 2
<MEAN> 25
 4.917822e+00 -3.046909e+00 -7.860230e-01 1.961976e+00 3.296882e+00 -3.095960e+00 -4.445966e+00 -4.378197e+00 -4.194638e+00 -1.446952e+00 1.146220e-01 1.648807e-01 1.062938e+00 -1.285595e+00 -6.981800e-01 4.423747e-01 5.001229e-01 -1.895295e+00 -1.787762e+00 -1.308817e+00 -1.084860e+00 1.344622e-01 6.617222e-01 3.701210e-01 1.670173e+00
<VARIANCE> 25
 3.577217e+01 3.706077e+01 4.774310e+01 6.015227e+01 4.925949e+01 6.036604e+01 5.010396e+01 4.977269e+01 4.858726e+01 3.950971e+01 3.013842e+01 2.473536e+01 2.384392e+00 2.958043e+00 2.685448e+00 3.858023e+00 3.340221e+00 5.064232e+00 4.063103e+00 3.681123e+00 4.037725e+00 4.174648e+00 3.332788e+00 2.898063e+00 2.226966e+00
<GCONST> 1.068105e+02
<STATE> 3
<MEAN> 25
 7.191195e+00 -7.001473e+00 -2.328277e+00 2.836691e+00 3.888689e+00 -7.911126e+00 -8.482172e+00 -6.657192e+00 -5.470276e+00 -1.285404e-01 1.987994e+00 7.147580e-01 8.514885e-02 -4.249433e-01 -1.496204e-01 2.818093e-01 1.203487e-01 -6.073316e-01 -4.420330e-01 -1.406531e-01 1.603031e-01 5.093133e-01 3.347531e-01 -4.041983e-02 2.952766e-01
<VARIANCE> 25
 2.837927e+01 3.550758e+01 4.376701e+01 6.339727e+01 5.782299e+01 6.153004e+01 4.445435e+01 4.665985e+01 4.438187e+01 4.603452e+01 3.686113e+01 3.249733e+01 5.579238e-01 9.633060e-01 1.396090e+00 1.826277e+00 1.583154e+00 2.003756e+00 1.982185e+00 1.856537e+00 2.013892e+00 2.006657e+00 1.751121e+00 1.508502e+00 5.828047e-01
<GCONST> 9.591582e+01
<STATE> 4
<MEAN> 25
 5.895019e+00 -4.724988e+00 -1.197292e+00 3.906052e+00 3.870449e+00 -6.545651e+00 -8.215060e+00 -6.679025e+00 -4.172563e+00 5.337154e-01 9.279272e-01 -6.742178e-01 -3.232698e-01 7.992764e-01 3.300467e-01 -6.339286e-02 7.912491e-02 1.004552e+00 6.088396e-01 3.772415e-01 3.436322e-01 -1.313366e-01 -2.720630e-01 -1.298955e-01 -7.956876e-01
<VARIANCE> 25
 2.029749e+01 3.066547e+01 3.368494e+01 5.057070e+01 4.296806e+01 5.593891e+01 3.659196e+01 3.710094e+01 4.034227e+01 3.575679e+01 3.262199e+01 2.925796e+01 5.569103e-01 1.011105e+00 1.171097e+00 1.448238e+00 1.440968e+00 2.011663e+00 1.814593e+00 1.739066e+00 1.905525e+00 1.867028e+00 1.539982e+00 1.274082e+00 7.538318e-01
<GCONST> 9.278246e+01
~t "T_e"
<ENDHMM>
~h "rr-e+k"
<BEGINHMM>
<NUMSTATES> 5
<STATE> 2
<MEAN> 25
 4.917822e+00 -3.046909e+00 -7.860230e-01 1.961976e+00 3.296882e+00 -3.095960e+00 -4.445966e+00 -4.378197e+00 -4.194638e+00 -1.446952e+00 1.146220e-01 1.648807e-01 1.062938e+00 -1.285595e+00 -6.981800e-01 4.423747e-01 5.001229e-01 -1.895295e+00 -1.787762e+00 -1.308817e+00 -1.084860e+00 1.344622e-01 6.617222e-01 3.701210e-01 1.670173e+00
<VARIANCE> 25
 3.577217e+01 3.706077e+01 4.774310e+01 6.015227e+01 4.925949e+01 6.036604e+01 5.010396e+01 4.977269e+01 4.858726e+01 3.950971e+01 3.013842e+01 2.473536e+01 2.384392e+00 2.958043e+00 2.685448e+00 3.858023e+00 3.340221e+00 5.064232e+00 4.063103e+00 3.681123e+00 4.037725e+00 4.174648e+00 3.332788e+00 2.898063e+00 2.226966e+00
<GCONST> 1.068105e+02
<STATE> 3
<MEAN> 25
 7.191195e+00 -7.001473e+00 -2.328277e+00 2.836691e+00 3.888689e+00 -7.911126e+00 -8.482172e+00 -6.657192e+00 -5.470276e+00 -1.285404e-01 1.987994e+00 7.147580e-01 8.514885e-02 -4.249433e-01 -1.496204e-01 2.818093e-01 1.203487e-01 -6.073316e-01 -4.420330e-01 -1.406531e-01 1.603031e-01 5.093133e-01 3.347531e-01 -4.041983e-02 2.952766e-01
<VARIANCE> 25
 2.837927e+01 3.550758e+01 4.376701e+01 6.339727e+01 5.782299e+01 6.153004e+01 4.445435e+01 4.665985e+01 4.438187e+01 4.603452e+01 3.686113e+01 3.249733e+01 5.579238e-01 9.633060e-01 1.396090e+00 1.826277e+00 1.583154e+00 2.003756e+00 1.982185e+00 1.856537e+00 2.013892e+00 2.006657e+00 1.751121e+00 1.508502e+00 5.828047e-01
<GCONST> 9.591582e+01
<STATE> 4
<MEAN> 25
 5.895019e+00 -4.724988e+00 -1.197292e+00 3.906052e+00 3.870449e+00 -6.545651e+00 -8.215060e+00 -6.679025e+00 -4.172563e+00 5.337154e-01 9.279272e-01 -6.742178e-01 -3.232698e-01 7.992764e-01 3.300467e-01 -6.339286e-02 7.912491e-02 1.004552e+00 6.088396e-01 3.772415e-01 3.436322e-01 -1.313366e-01 -2.720630e-01 -1.298955e-01 -7.956876e-01
<VARIANCE> 25
 2.029749e+01 3.066547e+01 3.368494e+01 5.057070e+01 4.296806e+01 5.593891e+01 3.659196e+01 3.710094e+01 4.034227e+01 3.575679e+01 3.262199e+01 2.925796e+01 5.569103e-01 1.011105e+00 1.171097e+00 1.448238e+00 1.440968e+00 2.011663e+00 1.814593e+00 1.739066e+00 1.905525e+00 1.867028e+00 1.539982e+00 1.274082e+00 7.538318e-01
<GCONST> 9.278246e+01
~t "T_e"
<ENDHMM>
~h "rr-e+o"
<BEGINHMM>
<NUMSTATES> 5
<STATE> 2
<MEAN> 25
 4.917822e+00 -3.046909e+00 -7.860230e-01 1.961976e+00 3.296882e+00 -3.095960e+00 -4.445966e+00 -4.378197e+00 -4.194638e+00 -1.446952e+00 1.146220e-01 1.648807e-01 1.062938e+00 -1.285595e+00 -6.981800e-01 4.423747e-01 5.001229e-01 -1.895295e+00 -1.787762e+00 -1.308817e+00 -1.084860e+00 1.344622e-01 6.617222e-01 3.701210e-01 1.670173e+00
<VARIANCE> 25
 3.577217e+01 3.706077e+01 4.774310e+01 6.015227e+01 4.925949e+01 6.036604e+01 5.010396e+01 4.977269e+01 4.858726e+01 3.950971e+01 3.013842e+01 2.473536e+01 2.384392e+00 2.958043e+00 2.685448e+00 3.858023e+00 3.340221e+00 5.064232e+00 4.063103e+00 3.681123e+00 4.037725e+00 4.174648e+00 3.332788e+00 2.898063e+00 2.226966e+00
<GCONST> 1.068105e+02
<STATE> 3
<MEAN> 25
 7.191195e+00 -7.001473e+00 -2.328277e+00 2.836691e+00 3.888689e+00 -7.911126e+00 -8.482172e+00 -6.657192e+00 -5.470276e+00 -1.285404e-01 1.987994e+00 7.147580e-01 8.514885e-02 -4.249433e-01 -1.496204e-01 2.818093e-01 1.203487e-01 -6.073316e-01 -4.420330e-01 -1.406531e-01 1.603031e-01 5.093133e-01 3.347531e-01 -4.041983e-02 2.952766e-01
<VARIANCE> 25
 2.837927e+01 3.550758e+01 4.376701e+01 6.339727e+01 5.782299e+01 6.153004e+01 4.445435e+01 4.665985e+01 4.438187e+01 4.603452e+01 3.686113e+01 3.249733e+01 5.579238e-01 9.633060e-01 1.396090e+00 1.826277e+00 1.583154e+00 2.003756e+00 1.982185e+00 1.856537e+00 2.013892e+00 2.006657e+00 1.751121e+00 1.508502e+00 5.828047e-01
<GCONST> 9.591582e+01
<STATE> 4
<MEAN> 25
 5.895019e+00 -4.724988e+00 -1.197292e+00 3.906052e+00 3.870449e+00 -6.545651e+00 -8.215060e+00 -6.679025e+00 -4.172563e+00 5.337154e-01 9.279272e-01 -6.742178e-01 -3.232698e-01 7.992764e-01 3.300467e-01 -6.339286e-02 7.912491e-02 1.004552e+00 6.088396e-01 3.772415e-01 3.436322e-01 -1.313366e-01 -2.720630e-01 -1.298955e-01 -7.956876e-01
<VARIANCE> 25
 2.029749e+01 3.066547e+01 3.368494e+01 5.057070e+01 4.296806e+01 5.593891e+01 3.659196e+01 3.710094e+01 4.034227e+01 3.575679e+01 3.262199e+01 2.925796e+01 5.569103e-01 1.011105e+00 1.171097e+00 1.448238e+00 1.440968e+00 2.011663e+00 1.814593e+00 1.739066e+00 1.905525e+00 1.867028e+00 1.539982e+00 1.274082e+00 7.538318e-01
<GCONST> 9.278246e+01
~t "T_e"
<ENDHMM>
~h "rr-e+p"
<BEGINHMM>
<NUMSTATES> 5
<STATE> 2
<MEAN> 25
 4.917822e+00 -3.046909e+00 -7.860230e-01 1.961976e+00 3.296882e+00 -3.095960e+00 -4.445966e+00 -4.378197e+00 -4.194638e+00 -1.446952e+00 1.146220e-01 1.648807e-01 1.062938e+00 -1.285595e+00 -6.981800e-01 4.423747e-01 5.001229e-01 -1.895295e+00 -1.787762e+00 -1.308817e+00 -1.084860e+00 1.344622e-01 6.617222e-01 3.701210e-01 1.670173e+00
<VARIANCE> 25
 3.577217e+01 3.706077e+01 4.774310e+01 6.015227e+01 4.925949e+01 6.036604e+01 5.010396e+01 4.977269e+01 4.858726e+01 3.950971e+01 3.013842e+01 2.473536e+01 2.384392e+00 2.958043e+00 2.685448e+00 3.858023e+00 3.340221e+00 5.064232e+00 4.063103e+00 3.681123e+00 4.037725e+00 4.174648e+00 3.332788e+00 2.898063e+00 2.226966e+00
<GCONST> 1.068105e+02
<STATE> 3
<MEAN> 25
 7.191195e+00 -7.001473e+00 -2.328277e+00 2.836691e+00 3.888689e+00 -7.911126e+00 -8.482172e+00 -6.657192e+00 -5.470276e+00 -1.285404e-01 1.987994e+00 7.147580e-01 8.514885e-02 -4.249433e-01 -1.496204e-01 2.818093e-01 1.203487e-01 -6.073316e-01 -4.420330e-01 -1.406531e-01 1.603031e-01 5.093133e-01 3.347531e-01 -4.041983e-02 2.952766e-01
<VARIANCE> 25
 2.837927e+01 3.550758e+01 4.376701e+01 6.339727e+01 5.782299e+01 6.153004e+01 4.445435e+01 4.665985e+01 4.438187e+01 4.603452e+01 3.686113e+01 3.249733e+01 5.579238e-01 9.633060e-01 1.396090e+00 1.826277e+00 1.583154e+00 2.003756e+00 1.982185e+00 1.856537e+00 2.013892e+00 2.006657e+00 1.751121e+00 1.508502e+00 5.828047e-01
<GCONST> 9.591582e+01
<STATE> 4
<MEAN> 25
 5.895019e+00 -4.724988e+00 -1.197292e+00 3.906052e+00 3.870449e+00 -6.545651e+00 -8.215060e+00 -6.679025e+00 -4.172563e+00 5.337154e-01 9.279272e-01 -6.742178e-01 -3.232698e-01 7.992764e-01 3.300467e-01 -6.339286e-02 7.912491e-02 1.004552e+00 6.088396e-01 3.772415e-01 3.436322e-01 -1.313366e-01 -2.720630e-01 -1.298955e-01 -7.956876e-01
<VARIANCE> 25
 2.029749e+01 3.066547e+01 3.368494e+01 5.057070e+01 4.296806e+01 5.593891e+01 3.659196e+01 3.710094e+01 4.034227e+01 3.575679e+01 3.262199e+01 2.925796e+01 5.569103e-01 1.011105e+00 1.171097e+00 1.448238e+00 1.440968e+00 2.011663e+00 1.814593e+00 1.739066e+00 1.905525e+00 1.867028e+00 1.539982e+00 1.274082e+00 7.538318e-01
<GCONST> 9.278246e+01
~t "T_e"
<ENDHMM>
~h "rr-e+s"
<BEGINHMM>
<NUMSTATES> 5
<STATE> 2
<MEAN> 25
 4.917822e+00 -3.046909e+00 -7.860230e-01 1.961976e+00 3.296882e+00 -3.095960e+00 -4.445966e+00 -4.378197e+00 -4.194638e+00 -1.446952e+00 1.146220e-01 1.648807e-01 1.062938e+00 -1.285595e+00 -6.981800e-01 4.423747e-01 5.001229e-01 -1.895295e+00 -1.787762e+00 -1.308817e+00 -1.084860e+00 1.344622e-01 6.617222e-01 3.701210e-01 1.670173e+00
<VARIANCE> 25
 3.577217e+01 3.706077e+01 4.774310e+01 6.015227e+01 4.925949e+01 6.036604e+01 5.010396e+01 4.977269e+01 4.858726e+01 3.950971e+01 3.013842e+01 2.473536e+01 2.384392e+00 2.958043e+00 2.685448e+00 3.858023e+00 3.340221e+00 5.064232e+00 4.063103e+00 3.681123e+00 4.037725e+00 4.174648e+00 3.332788e+00 2.898063e+00 2.226966e+00
<GCONST> 1.068105e+02
<STATE> 3
<MEAN> 25
 7.191195e+00 -7.001473e+00 -2.328277e+00 2.836691e+00 3.888689e+00 -7.911126e+00 -8.482172e+00 -6.657192e+00 -5.470276e+00 -1.285404e-01 1.987994e+00 7.147580e-01 8.514885e-02 -4.249433e-01 -1.496204e-01 2.818093e-01 1.203487e-01 -6.073316e-01 -4.420330e-01 -1.406531e-01 1.603031e-01 5.093133e-01 3.347531e-01 -4.041983e-02 2.952766e-01
<VARIANCE> 25
 2.837927e+01 3.550758e+01 4.376701e+01 6.339727e+01 5.782299e+01 6.153004e+01 4.445435e+01 4.665985e+01 4.438187e+01 4.603452e+01 3.686113e+01 3.249733e+01 5.579238e-01 9.633060e-01 1.396090e+00 1.826277e+00 1.583154e+00 2.003756e+00 1.982185e+00 1.856537e+00 2.013892e+00 2.006657e+00 1.751121e+00 1.508502e+00 5.828047e-01
<GCONST> 9.591582e+01
<STATE> 4
<MEAN> 25
 5.895019e+00 -4.724988e+00 -1.197292e+00 3.906052e+00 3.870449e+00 -6.545651e+00 -8.215060e+00 -6.679025e+00 -4.172563e+00 5.337154e-01 9.279272e-01 -6.742178e-01 -3.232698e-01 7.992764e-01 3.300467e-01 -6.339286e-02 7.912491e-02 1.004552e+00 6.088396e-01 3.772415e-01 3.436322e-01 -1.313366e-01 -2.720630e-01 -1.298955e-01 -7.956876e-01
<VARIANCE> 25
 2.029749e+01 3.066547e+01 3.368494e+01 5.057070e+01 4.296806e+01 5.593891e+01 3.659196e+01 3.710094e+01 4.034227e+01 3.575679e+01 3.262199e+01 2.925796e+01 5.569103e-01 1.011105e+00 1.171097e+00 1.448238e+00 1.440968e+00 2.011663e+00 1.814593e+00 1.739066e+00 1.905525e+00 1.867028e+00 1.539982e+00 1.274082e+00 7.538318e-01
<GCONST> 9.278246e+01
~t "T_e"
<ENDHMM>
~h "rr-e+t"
<BEGINHMM>
<NUMSTATES> 5
<STATE> 2
<MEAN> 25
 4.917822e+00 -3.046909e+00 -7.860230e-01 1.961976e+00 3.296882e+00 -3.095960e+00 -4.445966e+00 -4.378197e+00 -4.194638e+00 -1.446952e+00 1.146220e-01 1.648807e-01 1.062938e+00 -1.285595e+00 -6.981800e-01 4.423747e-01 5.001229e-01 -1.895295e+00 -1.787762e+00 -1.308817e+00 -1.084860e+00 1.344622e-01 6.617222e-01 3.701210e-01 1.670173e+00
<VARIANCE> 25
 3.577217e+01 3.706077e+01 4.774310e+01 6.015227e+01 4.925949e+01 6.036604e+01 5.010396e+01 4.977269e+01 4.858726e+01 3.950971e+01 3.013842e+01 2.473536e+01 2.384392e+00 2.958043e+00 2.685448e+00 3.858023e+00 3.340221e+00 5.064232e+00 4.063103e+00 3.681123e+00 4.037725e+00 4.174648e+00 3.332788e+00 2.898063e+00 2.226966e+00
<GCONST> 1.068105e+02
<STATE> 3
<MEAN> 25
 7.191195e+00 -7.001473e+00 -2.328277e+00 2.836691e+00 3.888689e+00 -7.911126e+00 -8.482172e+00 -6.657192e+00 -5.470276e+00 -1.285404e-01 1.987994e+00 7.147580e-01 8.514885e-02 -4.249433e-01 -1.496204e-01 2.818093e-01 1.203487e-01 -6.073316e-01 -4.420330e-01 -1.406531e-01 1.603031e-01 5.093133e-01 3.347531e-01 -4.041983e-02 2.952766e-01
<VARIANCE> 25
 2.837927e+01 3.550758e+01 4.376701e+01 6.339727e+01 5.782299e+01 6.153004e+01 4.445435e+01 4.665985e+01 4.438187e+01 4.603452e+01 3.686113e+01 3.249733e+01 5.579238e-01 9.633060e-01 1.396090e+00 1.826277e+00 1.583154e+00 2.003756e+00 1.982185e+00 1.856537e+00 2.013892e+00 2.006657e+00 1.751121e+00 1.508502e+00 5.828047e-01
<GCONST> 9.591582e+01
<STATE> 4
<MEAN> 25
 5.895019e+00 -4.724988e+00 -1.197292e+00 3.906052e+00 3.870449e+00 -6.545651e+00 -8.215060e+00 -6.679025e+00 -4.172563e+00 5.337154e-01 9.279272e-01 -6.742178e-01 -3.232698e-01 7.992764e-01 3.300467e-01 -6.339286e-02 7.912491e-02 1.004552e+00 6.088396e-01 3.772415e-01 3.436322e-01 -1.313366e-01 -2.720630e-01 -1.298955e-01 -7.956876e-01
<VARIANCE> 25
 2.029749e+01 3.066547e+01 3.368494e+01 5.057070e+01 4.296806e+01 5.593891e+01 3.659196e+01 3.710094e+01 4.034227e+01 3.575679e+01 3.262199e+01 2.925796e+01 5.569103e-01 1.011105e+00 1.171097e+00 1.448238e+00 1.440968e+00 2.011663e+00 1.814593e+00 1.739066e+00 1.905525e+00 1.867028e+00 1.539982e+00 1.274082e+00 7.538318e-01
<GCONST> 9.278246e+01
~t "T_e"
<ENDHMM>
~h "rr-e+x"
<BEGINHMM>
<NUMSTATES> 5
<STATE> 2
<MEAN> 25
 4.917822e+00 -3.046909e+00 -7.860230e-01 1.961976e+00 3.296882e+00 -3.095960e+00 -4.445966e+00 -4.378197e+00 -4.194638e+00 -1.446952e+00 1.146220e-01 1.648807e-01 1.062938e+00 -1.285595e+00 -6.981800e-01 4.423747e-01 5.001229e-01 -1.895295e+00 -1.787762e+00 -1.308817e+00 -1.084860e+00 1.344622e-01 6.617222e-01 3.701210e-01 1.670173e+00
<VARIANCE> 25
 3.577217e+01 3.706077e+01 4.774310e+01 6.015227e+01 4.925949e+01 6.036604e+01 5.010396e+01 4.977269e+01 4.858726e+01 3.950971e+01 3.013842e+01 2.473536e+01 2.384392e+00 2.958043e+00 2.685448e+00 3.858023e+00 3.340221e+00 5.064232e+00 4.063103e+00 3.681123e+00 4.037725e+00 4.174648e+00 3.332788e+00 2.898063e+00 2.226966e+00
<GCONST> 1.068105e+02
<STATE> 3
<MEAN> 25
 7.191195e+00 -7.001473e+00 -2.328277e+00 2.836691e+00 3.888689e+00 -7.911126e+00 -8.482172e+00 -6.657192e+00 -5.470276e+00 -1.285404e-01 1.987994e+00 7.147580e-01 8.514885e-02 -4.249433e-01 -1.496204e-01 2.818093e-01 1.203487e-01 -6.073316e-01 -4.420330e-01 -1.406531e-01 1.603031e-01 5.093133e-01 3.347531e-01 -4.041983e-02 2.952766e-01
<VARIANCE> 25
 2.837927e+01 3.550758e+01 4.376701e+01 6.339727e+01 5.782299e+01 6.153004e+01 4.445435e+01 4.665985e+01 4.438187e+01 4.603452e+01 3.686113e+01 3.249733e+01 5.579238e-01 9.633060e-01 1.396090e+00 1.826277e+00 1.583154e+00 2.003756e+00 1.982185e+00 1.856537e+00 2.013892e+00 2.006657e+00 1.751121e+00 1.508502e+00 5.828047e-01
<GCONST> 9.591582e+01
<STATE> 4
<MEAN> 25
 5.895019e+00 -4.724988e+00 -1.197292e+00 3.906052e+00 3.870449e+00 -6.545651e+00 -8.215060e+00 -6.679025e+00 -4.172563e+00 5.337154e-01 9.279272e-01 -6.742178e-01 -3.232698e-01 7.992764e-01 3.300467e-01 -6.339286e-02 7.912491e-02 1.004552e+00 6.088396e-01 3.772415e-01 3.436322e-01 -1.313366e-01 -2.720630e-01 -1.298955e-01 -7.956876e-01
<VARIANCE> 25
 2.029749e+01 3.066547e+01 3.368494e+01 5.057070e+01 4.296806e+01 5.593891e+01 3.659196e+01 3.710094e+01 4.034227e+01 3.575679e+01 3.262199e+01 2.925796e+01 5.569103e-01 1.011105e+00 1.171097e+00 1.448238e+00 1.440968e+00 2.011663e+00 1.814593e+00 1.739066e+00 1.905525e+00 1.867028e+00 1.539982e+00 1.274082e+00 7.538318e-01
<GCONST> 9.278246e+01
~t "T_e"
<ENDHMM>
~h "f+a"
<BEGINHMM>
<NUMSTATES> 5
<STATE> 2
<MEAN> 25
 -2.921499e+00 2.216532e+00 1.683841e+00 -2.246150e+00 4.969630e+00 -5.509380e-01 3.351402e+00 -1.211751e+00 2.223065e+00 -4.889780e-01 1.141946e+00 -2.723400e-01 -3.091264e+00 -2.187721e-01 5.649842e-01 -7.482041e-01 7.319014e-01 2.992108e-01 1.346503e+00 -2.772227e-01 7.784485e-01 2.630200e-02 4.751500e-01 2.915594e-01 -1.593239e-01
<VARIANCE> 25
 5.889521e+01 3.254332e+01 4.898185e+01 6.740195e+01 6.829653e+01 4.811531e+01 5.360291e+01 4.290142e+01 4.377955e+01 3.534988e+01 2.978639e+01 2.594387e+01 3.113435e+00 3.501048e+00 2.947656e+00 3.883082e+00 3.471006e+00 4.806132e+00 4.554536e+00 3.170251e+00 3.424818e+00 3.097497e+00 3.020186e+00 2.207278e+00 1.658051e+00
<GCONST> 1.065149e+02
<STATE> 3
<MEAN> 25
 -1.204405e+01 -6.315144e-01 2.378402e+00 -5.487898e+00 7.831375e+00 -1.741687e+00 5.601410e+00 -2.383173e+00 3.250614e+00 -9.547754e-01 1.631793e+00 1.689934e-01 -7.918698e-02 -6.822809e-01 -2.811957e-01 -3.029425e-01 8.794511e-02 1.254451e-01 9.581987e-02 4.164742e-02 1.511693e-03 2.448684e-02 2.112143e-02 4.153352e-02 1.406359e-01
<VARIANCE> 25
 3.955381e+01 4.454638e+01 5.203875e+01 7.429533e+01 6.271706e+01 6.759596e+01 5.966618e+01 5.088220e+01 5.673976e+01 3.983142e+01 3.692179e+01 2.523423e+01 2.031468e+00 1.413474e+00 1.044568e+00 1.424712e+00 1.410816e+00 1.579707e+00 1.480687e+00 1.560026e+00 1.360781e+00 1.167955e+00 1.157101e+00 9.813937e-01 6.439654e-01
<GCONST> 9.585310e+01
<STATE> 4
<MEAN> 25
 -4.610052e+00 -1.518341e+00 7.515143e-01 -5.277138e+00 4.724607e+00 -2.217829e-01 4.041139e+00 -1.100402e+00 2.596362e+00 -3.536729e-01 1.306920e+00 1.224594e-01 4.275613e+00 1.174036e+00 -3.978401e-01 9.296944e-01 -1.436768e+00 -6.998600e-01 -2.286903e+00 -1.079536e-01 -9.768302e-01 -2.019849e-01 -8.412417e-01 -6.099735e-01 2.728841e-02
<VARIANCE> 25
 5.717005e+01 4.372955e+01 3.685680e+01 5.787862e+01 6.797121e+01 5.627831e+01 4.502947e+01 4.687963e+01 4.114095e+01 3.671113e+01 2.842795e+01 2.193906e+01 3.158249e+00 3.584108e+00 3.416423e+00 5.561674e+00 5.552020e+00 6.572505e+00 4.474904e+00 3.591626e+00 4.049541e+00 3.179907e+00 3.182887e+00 2.428447e+00 1.252232e+00
<GCONST> 1.076670e+02
~t "T_f"
<ENDHMM>
~h "f+e"
<BEGINHMM>
<NUMSTATES> 5
<STATE> 2
<MEAN> 25
 -2.921499e+00 2.216532e+00 1.683841e+00 -2.246150e+00 4.969630e+00 -5.509380e-01 3.351402e+00 -1.211751e+00 2.223065e+00 -4.889780e-01 1.141946e+00 -2.723400e-01 -3.091264e+00 -2.187721e-01 5.649842e-01 -7.482041e-01 7.319014e-01 2.992108e-01 1.346503e+00 -2.772227e-01 7.784485e-01 2.630200e-02 4.751500e-01 2.915594e-01 -1.593239e-01
<VARIANCE> 25
 5.889521e+01 3.254332e+01 4.898185e+01 6.740195e+01 6.829653e+01 4.811531e+01 5.360291e+01 4.290142e+01 4.377955e+01 3.534988e+01 2.978639e+01 2.594387e+01 3.113435e+00 3.501048e+00 2.947656e+00 3.883082e+00 3.471006e+00 4.806132e+00 4.554536e+00 3.170251e+00 3.424818e+00 3.097497e+00 3.020186e+00 2.207278e+00 1.658051e+00
<GCONST> 1.065149e+02
<STATE> 3
<MEAN> 25
 -1.204405e+01 -6.315144e-01 2.378402e+00 -5.487898e+00 7.831375e+00 -1.741687e+00 5.601410e+00 -2.383173e+00 3.250614e+00 -9.547754e-01 1.631793e+00 1.689934e-01 -7.918698e-02 -6.822809e-01 -2.811957e-01 -3.029425e-01 8.794511e-02 1.254451e-01 9.581987e-02 4.164742e-02 1.511693e-03 2.448684e-02 2.112143e-02 4.153352e-02 1.406359e-01
<VARIANCE> 25
 3.955381e+01 4.454638e+01 5.203875e+01 7.429533e+01 6.271706e+01 6.759596e+01 5.966618e+01 5.088220e+01 5.673976e+01 3.983142e+01 3.692179e+01 2.523423e+01 2.031468e+00 1.413474e+00 1.044568e+00 1.424712e+00 1.410816e+00 1.579707e+00 1.480687e+00 1.560026e+00 1.360781e+00 1.167955e+00 1.157101e+00 9.813937e-01 6.439654e-01
<GCONST> 9.585310e+01
<STATE> 4
<MEAN> 25
 -4.610052e+00 -1.518341e+00 7.515143e-01 -5.277138e+00 4.724607e+00 -2.217829e-01 4.041139e+00 -1.100402e+00 2.596362e+00 -3.536729e-01 1.306920e+00 1.224594e-01 4.275613e+00 1.174036e+00 -3.978401e-01 9.296944e-01 -1.436768e+00 -6.998600e-01 -2.286903e+00 -1.079536e-01 -9.768302e-01 -2.019849e-01 -8.412417e-01 -6.099735e-01 2.728841e-02
<VARIANCE> 25
 5.717005e+01 4.372955e+01 3.685680e+01 5.787862e+01 6.797121e+01 5.627831e+01 4.502947e+01 4.687963e+01 4.114095e+01 3.671113e+01 2.842795e+01 2.193906e+01 3.158249e+00 3.584108e+00 3.416423e+00 5.561674e+00 5.552020e+00 6.572505e+00 4.474904e+00 3.591626e+00 4.049541e+00 3.179907e+00 3.182887e+00 2.428447e+00 1.252232e+00
<GCONST> 1.076670e+02
~t "T_f"
<ENDHMM>
~h "f+i"
<BEGINHMM>
<NUMSTATES> 5
<STATE> 2
<MEAN> 25
 -2.921499e+00 2.216532e+00 1.683841e+00 -2.246150e+00 4.969630e+00 -5.509380e-01 3.351402e+00 -1.211751e+00 2.223065e+00 -4.889780e-01 1.141946e+00 -2.723400e-01 -3.091264e+00 -2.187721e-01 5.649842e-01 -7.482041e-01 7.319014e-01 2.992108e-01 1.346503e+00 -2.772227e-01 7.784485e-01 2.630200e-02 4.751500e-01 2.915594e-01 -1.593239e-01
<VARIANCE> 25
 5.889521e+01 3.254332e+01 4.898185e+01 6.740195e+01 6.829653e+01 4.811531e+01 5.360291e+01 4.290142e+01 4.377955e+01 3.534988e+01 2.978639e+01 2.594387e+01 3.113435e+00 3.501048e+00 2.947656e+00 3.883082e+00 3.471006e+00 4.806132e+00 4.554536e+00 3.170251e+00 3.424818e+00 3.097497e+00 3.020186e+00 2.207278e+00 1.658051e+00
<GCONST> 1.065149e+02
<STATE> 3
<MEAN> 25
 -1.204405e+01 -6.315144e-01 2.378402e+00 -5.487898e+00 7.831375e+00 -1.741687e+00 5.601410e+00 -2.383173e+00 3.250614e+00 -9.547754e-01 1.631793e+00 1.689934e-01 -7.918698e-02 -6.822809e-01 -2.811957e-01 -3.029425e-01 8.794511e-02 1.254451e-01 9.581987e-02 4.164742e-02 1.511693e-03 2.448684e-02 2.112143e-02 4.153352e-02 1.406359e-01
<VARIANCE> 25
 3.955381e+01 4.454638e+01 5.203875e+01 7.429533e+01 6.271706e+01 6.759596e+01 5.966618e+01 5.088220e+01 5.673976e+01 3.983142e+01 3.692179e+01 2.523423e+01 2.031468e+00 1.413474e+00 1.044568e+00 1.424712e+00 1.410816e+00 1.579707e+00 1.480687e+00 1.560026e+00 1.360781e+00 1.167955e+00 1.157101e+00 9.813937e-01 6.439654e-01
<GCONST> 9.585310e+01
<STATE> 4
<MEAN> 25
 -4.610052e+00 -1.518341e+00 7.515143e-01 -5.277138e+00 4.724607e+00 -2.217829e-01 4.041139e+00 -1.100402e+00 2.596362e+00 -3.536729e-01 1.306920e+00 1.224594e-01 4.275613e+00 1.174036e+00 -3.978401e-01 9.296944e-01 -1.436768e+00 -6.998600e-01 -2.286903e+00 -1.079536e-01 -9.768302e-01 -2.019849e-01 -8.412417e-01 -6.099735e-01 2.728841e-02
<VARIANCE> 25
 5.717005e+01 4.372955e+01 3.685680e+01 5.787862e+01 6.797121e+01 5.627831e+01 4.502947e+01 4.687963e+01 4.114095e+01 3.671113e+01 2.842795e+01 2.193906e+01 3.158249e+00 3.584108e+00 3.416423e+00 5.561674e+00 5.552020e+00 6.572505e+00 4.474904e+00 3.591626e+00 4.049541e+00 3.179907e+00 3.182887e+00 2.428447e+00 1.252232e+00
<GCONST> 1.076670e+02
~t "T_f"
<ENDHMM>
~h "f+l"
<BEGINHMM>
<NUMSTATES> 5
<STATE> 2
<MEAN> 25
 -2.921499e+00 2.216532e+00 1.683841e+00 -2.246150e+00 4.969630e+00 -5.509380e-01 3.351402e+00 -1.211751e+00 2.223065e+00 -4.889780e-01 1.141946e+00 -2.723400e-01 -3.091264e+00 -2.187721e-01 5.649842e-01 -7.482041e-01 7.319014e-01 2.992108e-01 1.346503e+00 -2.772227e-01 7.784485e-01 2.630200e-02 4.751500e-01 2.915594e-01 -1.593239e-01
<VARIANCE> 25
 5.889521e+01 3.254332e+01 4.898185e+01 6.740195e+01 6.829653e+01 4.811531e+01 5.360291e+01 4.290142e+01 4.377955e+01 3.534988e+01 2.978639e+01 2.594387e+01 3.113435e+00 3.501048e+00 2.947656e+00 3.883082e+00 3.471006e+00 4.806132e+00 4.554536e+00 3.170251e+00 3.424818e+00 3.097497e+00 3.020186e+00 2.207278e+00 1.658051e+00
<GCONST> 1.065149e+02
<STATE> 3
<MEAN> 25
 -1.204405e+01 -6.315144e-01 2.378402e+00 -5.487898e+00 7.831375e+00 -1.741687e+00 5.601410e+00 -2.383173e+00 3.250614e+00 -9.547754e-01 1.631793e+00 1.689934e-01 -7.918698e-02 -6.822809e-01 -2.811957e-01 -3.029425e-01 8.794511e-02 1.254451e-01 9.581987e-02 4.164742e-02 1.511693e-03 2.448684e-02 2.112143e-02 4.153352e-02 1.406359e-01
<VARIANCE> 25
 3.955381e+01 4.454638e+01 5.203875e+01 7.429533e+01 6.271706e+01 6.759596e+01 5.966618e+01 5.088220e+01 5.673976e+01 3.983142e+01 3.692179e+01 2.523423e+01 2.031468e+00 1.413474e+00 1.044568e+00 1.424712e+00 1.410816e+00 1.579707e+00 1.480687e+00 1.560026e+00 1.360781e+00 1.167955e+00 1.157101e+00 9.813937e-01 6.439654e-01
<GCONST> 9.585310e+01
<STATE> 4
<MEAN> 25
 -4.610052e+00 -1.518341e+00 7.515143e-01 -5.277138e+00 4.724607e+00 -2.217829e-01 4.041139e+00 -1.100402e+00 2.596362e+00 -3.536729e-01 1.306920e+00 1.224594e-01 4.275613e+00 1.174036e+00 -3.978401e-01 9.296944e-01 -1.436768e+00 -6.998600e-01 -2.286903e+00 -1.079536e-01 -9.768302e-01 -2.019849e-01 -8.412417e-01 -6.099735e-01 2.728841e-02
<VARIANCE> 25
 5.717005e+01 4.372955e+01 3.685680e+01 5.787862e+01 6.797121e+01 5.627831e+01 4.502947e+01 4.687963e+01 4.114095e+01 3.671113e+01 2.842795e+01 2.193906e+01 3.158249e+00 3.584108e+00 3.416423e+00 5.561674e+00 5.552020e+00 6.572505e+00 4.474904e+00 3.591626e+00 4.049541e+00 3.179907e+00 3.182887e+00 2.428447e+00 1.252232e+00
<GCONST> 1.076670e+02
~t "T_f"
<ENDHMM>
~h "f+o"
<BEGINHMM>
<NUMSTATES> 5
<STATE> 2
<MEAN> 25
 -2.921499e+00 2.216532e+00 1.683841e+00 -2.246150e+00 4.969630e+00 -5.509380e-01 3.351402e+00 -1.211751e+00 2.223065e+00 -4.889780e-01 1.141946e+00 -2.723400e-01 -3.091264e+00 -2.187721e-01 5.649842e-01 -7.482041e-01 7.319014e-01 2.992108e-01 1.346503e+00 -2.772227e-01 7.784485e-01 2.630200e-02 4.751500e-01 2.915594e-01 -1.593239e-01
<VARIANCE> 25
 5.889521e+01 3.254332e+01 4.898185e+01 6.740195e+01 6.829653e+01 4.811531e+01 5.360291e+01 4.290142e+01 4.377955e+01 3.534988e+01 2.978639e+01 2.594387e+01 3.113435e+00 3.501048e+00 2.947656e+00 3.883082e+00 3.471006e+00 4.806132e+00 4.554536e+00 3.170251e+00 3.424818e+00 3.097497e+00 3.020186e+00 2.207278e+00 1.658051e+00
<GCONST> 1.065149e+02
<STATE> 3
<MEAN> 25
 -1.204405e+01 -6.315144e-01 2.378402e+00 -5.487898e+00 7.831375e+00 -1.741687e+00 5.601410e+00 -2.383173e+00 3.250614e+00 -9.547754e-01 1.631793e+00 1.689934e-01 -7.918698e-02 -6.822809e-01 -2.811957e-01 -3.029425e-01 8.794511e-02 1.254451e-01 9.581987e-02 4.164742e-02 1.511693e-03 2.448684e-02 2.112143e-02 4.153352e-02 1.406359e-01
<VARIANCE> 25
 3.955381e+01 4.454638e+01 5.203875e+01 7.429533e+01 6.271706e+01 6.759596e+01 5.966618e+01 5.088220e+01 5.673976e+01 3.983142e+01 3.692179e+01 2.523423e+01 2.031468e+00 1.413474e+00 1.044568e+00 1.424712e+00 1.410816e+00 1.579707e+00 1.480687e+00 1.560026e+00 1.360781e+00 1.167955e+00 1.157101e+00 9.813937e-01 6.439654e-01
<GCONST> 9.585310e+01
<STATE> 4
<MEAN> 25
 -4.610052e+00 -1.518341e+00 7.515143e-01 -5.277138e+00 4.724607e+00 -2.217829e-01 4.041139e+00 -1.100402e+00 2.596362e+00 -3.536729e-01 1.306920e+00 1.224594e-01 4.275613e+00 1.174036e+00 -3.978401e-01 9.296944e-01 -1.436768e+00 -6.998600e-01 -2.286903e+00 -1.079536e-01 -9.768302e-01 -2.019849e-01 -8.412417e-01 -6.099735e-01 2.728841e-02
<VARIANCE> 25
 5.717005e+01 4.372955e+01 3.685680e+01 5.787862e+01 6.797121e+01 5.627831e+01 4.502947e+01 4.687963e+01 4.114095e+01 3.671113e+01 2.842795e+01 2.193906e+01 3.158249e+00 3.584108e+00 3.416423e+00 5.561674e+00 5.552020e+00 6.572505e+00 4.474904e+00 3.591626e+00 4.049541e+00 3.179907e+00 3.182887e+00 2.428447e+00 1.252232e+00
<GCONST> 1.076670e+02
~t "T_f"
<ENDHMM>
~h "f+r"
<BEGINHMM>
<NUMSTATES> 5
<STATE> 2
<MEAN> 25
 -2.921499e+00 2.216532e+00 1.683841e+00 -2.246150e+00 4.969630e+00 -5.509380e-01 3.351402e+00 -1.211751e+00 2.223065e+00 -4.889780e-01 1.141946e+00 -2.723400e-01 -3.091264e+00 -2.187721e-01 5.649842e-01 -7.482041e-01 7.319014e-01 2.992108e-01 1.346503e+00 -2.772227e-01 7.784485e-01 2.630200e-02 4.751500e-01 2.915594e-01 -1.593239e-01
<VARIANCE> 25
 5.889521e+01 3.254332e+01 4.898185e+01 6.740195e+01 6.829653e+01 4.811531e+01 5.360291e+01 4.290142e+01 4.377955e+01 3.534988e+01 2.978639e+01 2.594387e+01 3.113435e+00 3.501048e+00 2.947656e+00 3.883082e+00 3.471006e+00 4.806132e+00 4.554536e+00 3.170251e+00 3.424818e+00 3.097497e+00 3.020186e+00 2.207278e+00 1.658051e+00
<GCONST> 1.065149e+02
<STATE> 3
<MEAN> 25
 -1.204405e+01 -6.315144e-01 2.378402e+00 -5.487898e+00 7.831375e+00 -1.741687e+00 5.601410e+00 -2.383173e+00 3.250614e+00 -9.547754e-01 1.631793e+00 1.689934e-01 -7.918698e-02 -6.822809e-01 -2.811957e-01 -3.029425e-01 8.794511e-02 1.254451e-01 9.581987e-02 4.164742e-02 1.511693e-03 2.448684e-02 2.112143e-02 4.153352e-02 1.406359e-01
<VARIANCE> 25
 3.955381e+01 4.454638e+01 5.203875e+01 7.429533e+01 6.271706e+01 6.759596e+01 5.966618e+01 5.088220e+01 5.673976e+01 3.983142e+01 3.692179e+01 2.523423e+01 2.031468e+00 1.413474e+00 1.044568e+00 1.424712e+00 1.410816e+00 1.579707e+00 1.480687e+00 1.560026e+00 1.360781e+00 1.167955e+00 1.157101e+00 9.813937e-01 6.439654e-01
<GCONST> 9.585310e+01
<STATE> 4
<MEAN> 25
 -4.610052e+00 -1.518341e+00 7.515143e-01 -5.277138e+00 4.724607e+00 -2.217829e-01 4.041139e+00 -1.100402e+00 2.596362e+00 -3.536729e-01 1.306920e+00 1.224594e-01 4.275613e+00 1.174036e+00 -3.978401e-01 9.296944e-01 -1.436768e+00 -6.998600e-01 -2.286903e+00 -1.079536e-01 -9.768302e-01 -2.019849e-01 -8.412417e-01 -6.099735e-01 2.728841e-02
<VARIANCE> 25
 5.717005e+01 4.372955e+01 3.685680e+01 5.787862e+01 6.797121e+01 5.627831e+01 4.502947e+01 4.687963e+01 4.114095e+01 3.671113e+01 2.842795e+01 2.193906e+01 3.158249e+00 3.584108e+00 3.416423e+00 5.561674e+00 5.552020e+00 6.572505e+00 4.474904e+00 3.591626e+00 4.049541e+00 3.179907e+00 3.182887e+00 2.428447e+00 1.252232e+00
<GCONST> 1.076670e+02
~t "T_f"
<ENDHMM>
~h "f+u"
<BEGINHMM>
<NUMSTATES> 5
<STATE> 2
<MEAN> 25
 -2.921499e+00 2.216532e+00 1.683841e+00 -2.246150e+00 4.969630e+00 -5.509380e-01 3.351402e+00 -1.211751e+00 2.223065e+00 -4.889780e-01 1.141946e+00 -2.723400e-01 -3.091264e+00 -2.187721e-01 5.649842e-01 -7.482041e-01 7.319014e-01 2.992108e-01 1.346503e+00 -2.772227e-01 7.784485e-01 2.630200e-02 4.751500e-01 2.915594e-01 -1.593239e-01
<VARIANCE> 25
 5.889521e+01 3.254332e+01 4.898185e+01 6.740195e+01 6.829653e+01 4.811531e+01 5.360291e+01 4.290142e+01 4.377955e+01 3.534988e+01 2.978639e+01 2.594387e+01 3.113435e+00 3.501048e+00 2.947656e+00 3.883082e+00 3.471006e+00 4.806132e+00 4.554536e+00 3.170251e+00 3.424818e+00 3.097497e+00 3.020186e+00 2.207278e+00 1.658051e+00
<GCONST> 1.065149e+02
<STATE> 3
<MEAN> 25
 -1.204405e+01 -6.315144e-01 2.378402e+00 -5.487898e+00 7.831375e+00 -1.741687e+00 5.601410e+00 -2.383173e+00 3.250614e+00 -9.547754e-01 1.631793e+00 1.689934e-01 -7.918698e-02 -6.822809e-01 -2.811957e-01 -3.029425e-01 8.794511e-02 1.254451e-01 9.581987e-02 4.164742e-02 1.511693e-03 2.448684e-02 2.112143e-02 4.153352e-02 1.406359e-01
<VARIANCE> 25
 3.955381e+01 4.454638e+01 5.203875e+01 7.429533e+01 6.271706e+01 6.759596e+01 5.966618e+01 5.088220e+01 5.673976e+01 3.983142e+01 3.692179e+01 2.523423e+01 2.031468e+00 1.413474e+00 1.044568e+00 1.424712e+00 1.410816e+00 1.579707e+00 1.480687e+00 1.560026e+00 1.360781e+00 1.167955e+00 1.157101e+00 9.813937e-01 6.439654e-01
<GCONST> 9.585310e+01
<STATE> 4
<MEAN> 25
 -4.610052e+00 -1.518341e+00 7.515143e-01 -5.277138e+00 4.724607e+00 -2.217829e-01 4.041139e+00 -1.100402e+00 2.596362e+00 -3.536729e-01 1.306920e+00 1.224594e-01 4.275613e+00 1.174036e+00 -3.978401e-01 9.296944e-01 -1.436768e+00 -6.998600e-01 -2.286903e+00 -1.079536e-01 -9.768302e-01 -2.019849e-01 -8.412417e-01 -6.099735e-01 2.728841e-02
<VARIANCE> 25
 5.717005e+01 4.372955e+01 3.685680e+01 5.787862e+01 6.797121e+01 5.627831e+01 4.502947e+01 4.687963e+01 4.114095e+01 3.671113e+01 2.842795e+01 2.193906e+01 3.158249e+00 3.584108e+00 3.416423e+00 5.561674e+00 5.552020e+00 6.572505e+00 4.474904e+00 3.591626e+00 4.049541e+00 3.179907e+00 3.182887e+00 2.428447e+00 1.252232e+00
<GCONST> 1.076670e+02
~t "T_f"
<ENDHMM>
~h "m-e+a"
<BEGINHMM>
<NUMSTATES> 5
<STATE> 2
<MEAN> 25
 4.917822e+00 -3.046909e+00 -7.860230e-01 1.961976e+00 3.296882e+00 -3.095960e+00 -4.445966e+00 -4.378197e+00 -4.194638e+00 -1.446952e+00 1.146220e-01 1.648807e-01 1.062938e+00 -1.285595e+00 -6.981800e-01 4.423747e-01 5.001229e-01 -1.895295e+00 -1.787762e+00 -1.308817e+00 -1.084860e+00 1.344622e-01 6.617222e-01 3.701210e-01 1.670173e+00
<VARIANCE> 25
 3.577217e+01 3.706077e+01 4.774310e+01 6.015227e+01 4.925949e+01 6.036604e+01 5.010396e+01 4.977269e+01 4.858726e+01 3.950971e+01 3.013842e+01 2.473536e+01 2.384392e+00 2.958043e+00 2.685448e+00 3.858023e+00 3.340221e+00 5.064232e+00 4.063103e+00 3.681123e+00 4.037725e+00 4.174648e+00 3.332788e+00 2.898063e+00 2.226966e+00
<GCONST> 1.068105e+02
<STATE> 3
<MEAN> 25
 7.191195e+00 -7.001473e+00 -2.328277e+00 2.836691e+00 3.888689e+00 -7.911126e+00 -8.482172e+00 -6.657192e+00 -5.470276e+00 -1.285404e-01 1.987994e+00 7.147580e-01 8.514885e-02 -4.249433e-01 -1.496204e-01 2.818093e-01 1.203487e-01 -6.073316e-01 -4.420330e-01 -1.406531e-01 1.603031e-01 5.093133e-01 3.347531e-01 -4.041983e-02 2.952766e-01
<VARIANCE> 25
 2.837927e+01 3.550758e+01 4.376701e+01 6.339727e+01 5.782299e+01 6.153004e+01 4.445435e+01 4.665985e+01 4.438187e+01 4.603452e+01 3.686113e+01 3.249733e+01 5.579238e-01 9.633060e-01 1.396090e+00 1.826277e+00 1.583154e+00 2.003756e+00 1.982185e+00 1.856537e+00 2.013892e+00 2.006657e+00 1.751121e+00 1.508502e+00 5.828047e-01
<GCONST> 9.591582e+01
<STATE> 4
<MEAN> 25
 5.895019e+00 -4.724988e+00 -1.197292e+00 3.906052e+00 3.870449e+00 -6.545651e+00 -8.215060e+00 -6.679025e+00 -4.172563e+00 5.337154e-01 9.279272e-01 -6.742178e-01 -3.232698e-01 7.992764e-01 3.300467e-01 -6.339286e-02 7.912491e-02 1.004552e+00 6.088396e-01 3.772415e-01 3.436322e-01 -1.313366e-01 -2.720630e-01 -1.298955e-01 -7.956876e-01
<VARIANCE> 25
 2.029749e+01 3.066547e+01 3.368494e+01 5.057070e+01 4.296806e+01 5.593891e+01 3.659196e+01 3.710094e+01 4.034227e+01 3.575679e+01 3.262199e+01 2.925796e+01 5.569103e-01 1.011105e+00 1.171097e+00 1.448238e+00 1.440968e+00 2.011663e+00 1.814593e+00 1.739066e+00 1.905525e+00 1.867028e+00 1.539982e+00 1.274082e+00 7.538318e-01
<GCONST> 9.278246e+01
~t "T_e"
<ENDHMM>
~h "m-e+d"
<BEGINHMM>
<NUMSTATES> 5
<STATE> 2
<MEAN> 25
 4.917822e+00 -3.046909e+00 -7.860230e-01 1.961976e+00 3.296882e+00 -3.095960e+00 -4.445966e+00 -4.378197e+00 -4.194638e+00 -1.446952e+00 1.146220e-01 1.648807e-01 1.062938e+00 -1.285595e+00 -6.981800e-01 4.423747e-01 5.001229e-01 -1.895295e+00 -1.787762e+00 -1.308817e+00 -1.084860e+00 1.344622e-01 6.617222e-01 3.701210e-01 1.670173e+00
<VARIANCE> 25
 3.577217e+01 3.706077e+01 4.774310e+01 6.015227e+01 4.925949e+01 6.036604e+01 5.010396e+01 4.977269e+01 4.858726e+01 3.950971e+01 3.013842e+01 2.473536e+01 2.384392e+00 2.958043e+00 2.685448e+00 3.858023e+00 3.340221e+00 5.064232e+00 4.063103e+00 3.681123e+00 4.037725e+00 4.174648e+00 3.332788e+00 2.898063e+00 2.226966e+00
<GCONST> 1.068105e+02
<STATE> 3
<MEAN> 25
 7.191195e+00 -7.001473e+00 -2.328277e+00 2.836691e+00 3.888689e+00 -7.911126e+00 -8.482172e+00 -6.657192e+00 -5.470276e+00 -1.285404e-01 1.987994e+00 7.147580e-01 8.514885e-02 -4.249433e-01 -1.496204e-01 2.818093e-01 1.203487e-01 -6.073316e-01 -4.420330e-01 -1.406531e-01 1.603031e-01 5.093133e-01 3.347531e-01 -4.041983e-02 2.952766e-01
<VARIANCE> 25
 2.837927e+01 3.550758e+01 4.376701e+01 6.339727e+01 5.782299e+01 6.153004e+01 4.445435e+01 4.665985e+01 4.438187e+01 4.603452e+01 3.686113e+01 3.249733e+01 5.579238e-01 9.633060e-01 1.396090e+00 1.826277e+00 1.583154e+00 2.003756e+00 1.982185e+00 1.856537e+00 2.013892e+00 2.006657e+00 1.751121e+00 1.508502e+00 5.828047e-01
<GCONST> 9.591582e+01
<STATE> 4
<MEAN> 25
 5.895019e+00 -4.724988e+00 -1.197292e+00 3.906052e+00 3.870449e+00 -6.545651e+00 -8.215060e+00 -6.679025e+00 -4.172563e+00 5.337154e-01 9.279272e-01 -6.742178e-01 -3.232698e-01 7.992764e-01 3.300467e-01 -6.339286e-02 7.912491e-02 1.004552e+00 6.088396e-01 3.772415e-01 3.436322e-01 -1.313366e-01 -2.720630e-01 -1.298955e-01 -7.956876e-01
<VARIANCE> 25
 2.029749e+01 3.066547e+01 3.368494e+01 5.057070e+01 4.296806e+01 5.593891e+01 3.659196e+01 3.710094e+01 4.034227e+01 3.575679e+01 3.262199e+01 2.925796e+01 5.569103e-01 1.011105e+00 1.171097e+00 1.448238e+00 1.440968e+00 2.011663e+00 1.814593e+00 1.739066e+00 1.905525e+00 1.867028e+00 1.539982e+00 1.274082e+00 7.538318e-01
<GCONST> 9.278246e+01
~t "T_e"
<ENDHMM>
~h "m-e+l"
<BEGINHMM>
<NUMSTATES> 5
<STATE> 2
<MEAN> 25
 4.917822e+00 -3.046909e+00 -7.860230e-01 1.961976e+00 3.296882e+00 -3.095960e+00 -4.445966e+00 -4.378197e+00 -4.194638e+00 -1.446952e+00 1.146220e-01 1.648807e-01 1.062938e+00 -1.285595e+00 -6.981800e-01 4.423747e-01 5.001229e-01 -1.895295e+00 -1.787762e+00 -1.308817e+00 -1.084860e+00 1.344622e-01 6.617222e-01 3.701210e-01 1.670173e+00
<VARIANCE> 25
 3.577217e+01 3.706077e+01 4.774310e+01 6.015227e+01 4.925949e+01 6.036604e+01 5.010396e+01 4.977269e+01 4.858726e+01 3.950971e+01 3.013842e+01 2.473536e+01 2.384392e+00 2.958043e+00 2.685448e+00 3.858023e+00 3.340221e+00 5.064232e+00 4.063103e+00 3.681123e+00 4.037725e+00 4.174648e+00 3.332788e+00 2.898063e+00 2.226966e+00
<GCONST> 1.068105e+02
<STATE> 3
<MEAN> 25
 7.191195e+00 -7.001473e+00 -2.328277e+00 2.836691e+00 3.888689e+00 -7.911126e+00 -8.482172e+00 -6.657192e+00 -5.470276e+00 -1.285404e-01 1.987994e+00 7.147580e-01 8.514885e-02 -4.249433e-01 -1.496204e-01 2.818093e-01 1.203487e-01 -6.073316e-01 -4.420330e-01 -1.406531e-01 1.603031e-01 5.093133e-01 3.347531e-01 -4.041983e-02 2.952766e-01
<VARIANCE> 25
 2.837927e+01 3.550758e+01 4.376701e+01 6.339727e+01 5.782299e+01 6.153004e+01 4.445435e+01 4.665985e+01 4.438187e+01 4.603452e+01 3.686113e+01 3.249733e+01 5.579238e-01 9.633060e-01 1.396090e+00 1.826277e+00 1.583154e+00 2.003756e+00 1.982185e+00 1.856537e+00 2.013892e+00 2.006657e+00 1.751121e+00 1.508502e+00 5.828047e-01
<GCONST> 9.591582e+01
<STATE> 4
<MEAN> 25
 5.895019e+00 -4.724988e+00 -1.197292e+00 3.906052e+00 3.870449e+00 -6.545651e+00 -8.215060e+00 -6.679025e+00 -4.172563e+00 5.337154e-01 9.279272e-01 -6.742178e-01 -3.232698e-01 7.992764e-01 3.300467e-01 -6.339286e-02 7.912491e-02 1.004552e+00 6.088396e-01 3.772415e-01 3.436322e-01 -1.313366e-01 -2.720630e-01 -1.298955e-01 -7.956876e-01
<VARIANCE> 25
 2.029749e+01 3.066547e+01 3.368494e+01 5.057070e+01 4.296806e+01 5.593891e+01 3.659196e+01 3.710094e+01 4.034227e+01 3.575679e+01 3.262199e+01 2.925796e+01 5.569103e-01 1.011105e+00 1.171097e+00 1.448238e+00 1.440968e+00 2.011663e+00 1.814593e+00 1.739066e+00 1.905525e+00 1.867028e+00 1.539982e+00 1.274082e+00 7.538318e-01
<GCONST> 9.278246e+01
~t "T_e"
<ENDHMM>
~h "m-e+n"
<BEGINHMM>
<NUMSTATES> 5
<STATE> 2
<MEAN> 25
 4.917822e+00 -3.046909e+00 -7.860230e-01 1.961976e+00 3.296882e+00 -3.095960e+00 -4.445966e+00 -4.378197e+00 -4.194638e+00 -1.446952e+00 1.146220e-01 1.648807e-01 1.062938e+00 -1.285595e+00 -6.981800e-01 4.423747e-01 5.001229e-01 -1.895295e+00 -1.787762e+00 -1.308817e+00 -1.084860e+00 1.344622e-01 6.617222e-01 3.701210e-01 1.670173e+00
<VARIANCE> 25
 3.577217e+01 3.706077e+01 4.774310e+01 6.015227e+01 4.925949e+01 6.036604e+01 5.010396e+01 4.977269e+01 4.858726e+01 3.950971e+01 3.013842e+01 2.473536e+01 2.384392e+00 2.958043e+00 2.685448e+00 3.858023e+00 3.340221e+00 5.064232e+00 4.063103e+00 3.681123e+00 4.037725e+00 4.174648e+00 3.332788e+00 2.898063e+00 2.226966e+00
<GCONST> 1.068105e+02
<STATE> 3
<MEAN> 25
 7.191195e+00 -7.001473e+00 -2.328277e+00 2.836691e+00 3.888689e+00 -7.911126e+00 -8.482172e+00 -6.657192e+00 -5.470276e+00 -1.285404e-01 1.987994e+00 7.147580e-01 8.514885e-02 -4.249433e-01 -1.496204e-01 2.818093e-01 1.203487e-01 -6.073316e-01 -4.420330e-01 -1.406531e-01 1.603031e-01 5.093133e-01 3.347531e-01 -4.041983e-02 2.952766e-01
<VARIANCE> 25
 2.837927e+01 3.550758e+01 4.376701e+01 6.339727e+01 5.782299e+01 6.153004e+01 4.445435e+01 4.665985e+01 4.438187e+01 4.603452e+01 3.686113e+01 3.249733e+01 5.579238e-01 9.633060e-01 1.396090e+00 1.826277e+00 1.583154e+00 2.003756e+00 1.982185e+00 1.856537e+00 2.013892e+00 2.006657e+00 1.751121e+00 1.508502e+00 5.828047e-01
<GCONST> 9.591582e+01
<STATE> 4
<MEAN> 25
 5.895019e+00 -4.724988e+00 -1.197292e+00 3.906052e+00 3.870449e+00 -6.545651e+00 -8.215060e+00 -6.679025e+00 -4.172563e+00 5.337154e-01 9.279272e-01 -6.742178e-01 -3.232698e-01 7.992764e-01 3.300467e-01 -6.339286e-02 7.912491e-02 1.004552e+00 6.088396e-01 3.772415e-01 3.436322e-01 -1.313366e-01 -2.720630e-01 -1.298955e-01 -7.956876e-01
<VARIANCE> 25
 2.029749e+01 3.066547e+01 3.368494e+01 5.057070e+01 4.296806e+01 5.593891e+01 3.659196e+01 3.710094e+01 4.034227e+01 3.575679e+01 3.262199e+01 2.925796e+01 5.569103e-01 1.011105e+00 1.171097e+00 1.448238e+00 1.440968e+00 2.011663e+00 1.814593e+00 1.739066e+00 1.905525e+00 1.867028e+00 1.539982e+00 1.274082e+00 7.538318e-01
<GCONST> 9.278246e+01
~t "T_e"
<ENDHMM>
~h "m-e+r"
<BEGINHMM>
<NUMSTATES> 5
<STATE> 2
<MEAN> 25
 4.917822e+00 -3.046909e+00 -7.860230e-01 1.961976e+00 3.296882e+00 -3.095960e+00 -4.445966e+00 -4.378197e+00 -4.194638e+00 -1.446952e+00 1.146220e-01 1.648807e-01 1.062938e+00 -1.285595e+00 -6.981800e-01 4.423747e-01 5.001229e-01 -1.895295e+00 -1.787762e+00 -1.308817e+00 -1.084860e+00 1.344622e-01 6.617222e-01 3.701210e-01 1.670173e+00
<VARIANCE> 25
 3.577217e+01 3.706077e+01 4.774310e+01 6.015227e+01 4.925949e+01 6.036604e+01 5.010396e+01 4.977269e+01 4.858726e+01 3.950971e+01 3.013842e+01 2.473536e+01 2.384392e+00 2.958043e+00 2.685448e+00 3.858023e+00 3.340221e+00 5.064232e+00 4.063103e+00 3.681123e+00 4.037725e+00 4.174648e+00 3.332788e+00 2.898063e+00 2.226966e+00
<GCONST> 1.068105e+02
<STATE> 3
<MEAN> 25
 7.191195e+00 -7.001473e+00 -2.328277e+00 2.836691e+00 3.888689e+00 -7.911126e+00 -8.482172e+00 -6.657192e+00 -5.470276e+00 -1.285404e-01 1.987994e+00 7.147580e-01 8.514885e-02 -4.249433e-01 -1.496204e-01 2.818093e-01 1.203487e-01 -6.073316e-01 -4.420330e-01 -1.406531e-01 1.603031e-01 5.093133e-01 3.347531e-01 -4.041983e-02 2.952766e-01
<VARIANCE> 25
 2.837927e+01 3.550758e+01 4.376701e+01 6.339727e+01 5.782299e+01 6.153004e+01 4.445435e+01 4.665985e+01 4.438187e+01 4.603452e+01 3.686113e+01 3.249733e+01 5.579238e-01 9.633060e-01 1.396090e+00 1.826277e+00 1.583154e+00 2.003756e+00 1.982185e+00 1.856537e+00 2.013892e+00 2.006657e+00 1.751121e+00 1.508502e+00 5.828047e-01
<GCONST> 9.591582e+01
<STATE> 4
<MEAN> 25
 5.895019e+00 -4.724988e+00 -1.197292e+00 3.906052e+00 3.870449e+00 -6.545651e+00 -8.215060e+00 -6.679025e+00 -4.172563e+00 5.337154e-01 9.279272e-01 -6.742178e-01 -3.232698e-01 7.992764e-01 3.300467e-01 -6.339286e-02 7.912491e-02 1.004552e+00 6.088396e-01 3.772415e-01 3.436322e-01 -1.313366e-01 -2.720630e-01 -1.298955e-01 -7.956876e-01
<VARIANCE> 25
 2.029749e+01 3.066547e+01 3.368494e+01 5.057070e+01 4.296806e+01 5.593891e+01 3.659196e+01 3.710094e+01 4.034227e+01 3.575679e+01 3.262199e+01 2.925796e+01 5.569103e-01 1.011105e+00 1.171097e+00 1.448238e+00 1.440968e+00 2.011663e+00 1.814593e+00 1.739066e+00 1.905525e+00 1.867028e+00 1.539982e+00 1.274082e+00 7.538318e-01
<GCONST> 9.278246e+01
~t "T_e"
<ENDHMM>
~h "m-e+s"
<BEGINHMM>
<NUMSTATES> 5
<STATE> 2
<MEAN> 25
 4.917822e+00 -3.046909e+00 -7.860230e-01 1.961976e+00 3.296882e+00 -3.095960e+00 -4.445966e+00 -4.378197e+00 -4.194638e+00 -1.446952e+00 1.146220e-01 1.648807e-01 1.062938e+00 -1.285595e+00 -6.981800e-01 4.423747e-01 5.001229e-01 -1.895295e+00 -1.787762e+00 -1.308817e+00 -1.084860e+00 1.344622e-01 6.617222e-01 3.701210e-01 1.670173e+00
<VARIANCE> 25
 3.577217e+01 3.706077e+01 4.774310e+01 6.015227e+01 4.925949e+01 6.036604e+01 5.010396e+01 4.977269e+01 4.858726e+01 3.950971e+01 3.013842e+01 2.473536e+01 2.384392e+00 2.958043e+00 2.685448e+00 3.858023e+00 3.340221e+00 5.064232e+00 4.063103e+00 3.681123e+00 4.037725e+00 4.174648e+00 3.332788e+00 2.898063e+00 2.226966e+00
<GCONST> 1.068105e+02
<STATE> 3
<MEAN> 25
 7.191195e+00 -7.001473e+00 -2.328277e+00 2.836691e+00 3.888689e+00 -7.911126e+00 -8.482172e+00 -6.657192e+00 -5.470276e+00 -1.285404e-01 1.987994e+00 7.147580e-01 8.514885e-02 -4.249433e-01 -1.496204e-01 2.818093e-01 1.203487e-01 -6.073316e-01 -4.420330e-01 -1.406531e-01 1.603031e-01 5.093133e-01 3.347531e-01 -4.041983e-02 2.952766e-01
<VARIANCE> 25
 2.837927e+01 3.550758e+01 4.376701e+01 6.339727e+01 5.782299e+01 6.153004e+01 4.445435e+01 4.665985e+01 4.438187e+01 4.603452e+01 3.686113e+01 3.249733e+01 5.579238e-01 9.633060e-01 1.396090e+00 1.826277e+00 1.583154e+00 2.003756e+00 1.982185e+00 1.856537e+00 2.013892e+00 2.006657e+00 1.751121e+00 1.508502e+00 5.828047e-01
<GCONST> 9.591582e+01
<STATE> 4
<MEAN> 25
 5.895019e+00 -4.724988e+00 -1.197292e+00 3.906052e+00 3.870449e+00 -6.545651e+00 -8.215060e+00 -6.679025e+00 -4.172563e+00 5.337154e-01 9.279272e-01 -6.742178e-01 -3.232698e-01 7.992764e-01 3.300467e-01 -6.339286e-02 7.912491e-02 1.004552e+00 6.088396e-01 3.772415e-01 3.436322e-01 -1.313366e-01 -2.720630e-01 -1.298955e-01 -7.956876e-01
<VARIANCE> 25
 2.029749e+01 3.066547e+01 3.368494e+01 5.057070e+01 4.296806e+01 5.593891e+01 3.659196e+01 3.710094e+01 4.034227e+01 3.575679e+01 3.262199e+01 2.925796e+01 5.569103e-01 1.011105e+00 1.171097e+00 1.448238e+00 1.440968e+00 2.011663e+00 1.814593e+00 1.739066e+00 1.905525e+00 1.867028e+00 1.539982e+00 1.274082e+00 7.538318e-01
<GCONST> 9.278246e+01
~t "T_e"
<ENDHMM>
~h "m-e+t"
<BEGINHMM>
<NUMSTATES> 5
<STATE> 2
<MEAN> 25
 4.917822e+00 -3.046909e+00 -7.860230e-01 1.961976e+00 3.296882e+00 -3.095960e+00 -4.445966e+00 -4.378197e+00 -4.194638e+00 -1.446952e+00 1.146220e-01 1.648807e-01 1.062938e+00 -1.285595e+00 -6.981800e-01 4.423747e-01 5.001229e-01 -1.895295e+00 -1.787762e+00 -1.308817e+00 -1.084860e+00 1.344622e-01 6.617222e-01 3.701210e-01 1.670173e+00
<VARIANCE> 25
 3.577217e+01 3.706077e+01 4.774310e+01 6.015227e+01 4.925949e+01 6.036604e+01 5.010396e+01 4.977269e+01 4.858726e+01 3.950971e+01 3.013842e+01 2.473536e+01 2.384392e+00 2.958043e+00 2.685448e+00 3.858023e+00 3.340221e+00 5.064232e+00 4.063103e+00 3.681123e+00 4.037725e+00 4.174648e+00 3.332788e+00 2.898063e+00 2.226966e+00
<GCONST> 1.068105e+02
<STATE> 3
<MEAN> 25
 7.191195e+00 -7.001473e+00 -2.328277e+00 2.836691e+00 3.888689e+00 -7.911126e+00 -8.482172e+00 -6.657192e+00 -5.470276e+00 -1.285404e-01 1.987994e+00 7.147580e-01 8.514885e-02 -4.249433e-01 -1.496204e-01 2.818093e-01 1.203487e-01 -6.073316e-01 -4.420330e-01 -1.406531e-01 1.603031e-01 5.093133e-01 3.347531e-01 -4.041983e-02 2.952766e-01
<VARIANCE> 25
 2.837927e+01 3.550758e+01 4.376701e+01 6.339727e+01 5.782299e+01 6.153004e+01 4.445435e+01 4.665985e+01 4.438187e+01 4.603452e+01 3.686113e+01 3.249733e+01 5.579238e-01 9.633060e-01 1.396090e+00 1.826277e+00 1.583154e+00 2.003756e+00 1.982185e+00 1.856537e+00 2.013892e+00 2.006657e+00 1.751121e+00 1.508502e+00 5.828047e-01
<GCONST> 9.591582e+01
<STATE> 4
<MEAN> 25
 5.895019e+00 -4.724988e+00 -1.197292e+00 3.906052e+00 3.870449e+00 -6.545651e+00 -8.215060e+00 -6.679025e+00 -4.172563e+00 5.337154e-01 9.279272e-01 -6.742178e-01 -3.232698e-01 7.992764e-01 3.300467e-01 -6.339286e-02 7.912491e-02 1.004552e+00 6.088396e-01 3.772415e-01 3.436322e-01 -1.313366e-01 -2.720630e-01 -1.298955e-01 -7.956876e-01
<VARIANCE> 25
 2.029749e+01 3.066547e+01 3.368494e+01 5.057070e+01 4.296806e+01 5.593891e+01 3.659196e+01 3.710094e+01 4.034227e+01 3.575679e+01 3.262199e+01 2.925796e+01 5.569103e-01 1.011105e+00 1.171097e+00 1.448238e+00 1.440968e+00 2.011663e+00 1.814593e+00 1.739066e+00 1.905525e+00 1.867028e+00 1.539982e+00 1.274082e+00 7.538318e-01
<GCONST> 9.278246e+01
~t "T_e"
<ENDHMM>
~h "m-e+x"
<BEGINHMM>
<NUMSTATES> 5
<STATE> 2
<MEAN> 25
 4.917822e+00 -3.046909e+00 -7.860230e-01 1.961976e+00 3.296882e+00 -3.095960e+00 -4.445966e+00 -4.378197e+00 -4.194638e+00 -1.446952e+00 1.146220e-01 1.648807e-01 1.062938e+00 -1.285595e+00 -6.981800e-01 4.423747e-01 5.001229e-01 -1.895295e+00 -1.787762e+00 -1.308817e+00 -1.084860e+00 1.344622e-01 6.617222e-01 3.701210e-01 1.670173e+00
<VARIANCE> 25
 3.577217e+01 3.706077e+01 4.774310e+01 6.015227e+01 4.925949e+01 6.036604e+01 5.010396e+01 4.977269e+01 4.858726e+01 3.950971e+01 3.013842e+01 2.473536e+01 2.384392e+00 2.958043e+00 2.685448e+00 3.858023e+00 3.340221e+00 5.064232e+00 4.063103e+00 3.681123e+00 4.037725e+00 4.174648e+00 3.332788e+00 2.898063e+00 2.226966e+00
<GCONST> 1.068105e+02
<STATE> 3
<MEAN> 25
 7.191195e+00 -7.001473e+00 -2.328277e+00 2.836691e+00 3.888689e+00 -7.911126e+00 -8.482172e+00 -6.657192e+00 -5.470276e+00 -1.285404e-01 1.987994e+00 7.147580e-01 8.514885e-02 -4.249433e-01 -1.496204e-01 2.818093e-01 1.203487e-01 -6.073316e-01 -4.420330e-01 -1.406531e-01 1.603031e-01 5.093133e-01 3.347531e-01 -4.041983e-02 2.952766e-01
<VARIANCE> 25
 2.837927e+01 3.550758e+01 4.376701e+01 6.339727e+01 5.782299e+01 6.153004e+01 4.445435e+01 4.665985e+01 4.438187e+01 4.603452e+01 3.686113e+01 3.249733e+01 5.579238e-01 9.633060e-01 1.396090e+00 1.826277e+00 1.583154e+00 2.003756e+00 1.982185e+00 1.856537e+00 2.013892e+00 2.006657e+00 1.751121e+00 1.508502e+00 5.828047e-01
<GCONST> 9.591582e+01
<STATE> 4
<MEAN> 25
 5.895019e+00 -4.724988e+00 -1.197292e+00 3.906052e+00 3.870449e+00 -6.545651e+00 -8.215060e+00 -6.679025e+00 -4.172563e+00 5.337154e-01 9.279272e-01 -6.742178e-01 -3.232698e-01 7.992764e-01 3.300467e-01 -6.339286e-02 7.912491e-02 1.004552e+00 6.088396e-01 3.772415e-01 3.436322e-01 -1.313366e-01 -2.720630e-01 -1.298955e-01 -7.956876e-01
<VARIANCE> 25
 2.029749e+01 3.066547e+01 3.368494e+01 5.057070e+01 4.296806e+01 5.593891e+01 3.659196e+01 3.710094e+01 4.034227e+01 3.575679e+01 3.262199e+01 2.925796e+01 5.569103e-01 1.011105e+00 1.171097e+00 1.448238e+00 1.440968e+00 2.011663e+00 1.814593e+00 1.739066e+00 1.905525e+00 1.867028e+00 1.539982e+00 1.274082e+00 7.538318e-01
<GCONST> 9.278246e+01
~t "T_e"
<ENDHMM>
~h "g+a"
<BEGINHMM>
<NUMSTATES> 5
<STATE> 2
<MEAN> 25
 4.635559e+00 5.363365e-01 8.743733e-02 3.524290e-01 2.229798e+00 -1.743833e+00 -1.579602e+00 -2.043766e+00 -2.718624e+00 -2.152016e+00 -2.397058e+00 -2.887682e+00 -4.716252e-02 1.557592e-01 -1.047090e-03 -1.243150e-01 -1.916994e-01 4.209527e-03 1.893945e-01 -1.626682e-01 -2.188310e-01 -1.203275e-01 1.739263e-01 9.188620e-02 -8.254285e-02
<VARIANCE> 25
 3.401551e+01 4.746745e+01 6.590588e+01 6.888592e+01 6.231248e+01 4.789571e+01 4.945169e+01 4.794329e+01 4.512083e+01 4.021106e+01 3.828913e+01 3.100824e+01 1.276815e+00 2.578767e+00 2.202086e+00 2.691261e+00 3.435740e+00 3.242736e+00 3.975471e+00 4.328651e+00 3.473794e+00 3.157657e+00 2.566085e+00 2.366839e+00 2.285003e+00
<GCONST> 1.053621e+02
<STATE> 3
<MEAN> 25
 5.764225e+00 3.891699e-01 -5.608481e-01 1.503215e+00 2.225826e+00 -2.072252e+00 -2.398549e+00 -2.813673e+00 -3.874879e+00 -2.397335e+00 -1.524217e+00 -2.210126e+00 3.092694e-01 -2.237352e-01 -3.254337e-01 -4.003477e-01 -4.933417e-01 -6.627559e-01 -2.823527e-01 -4.113862e-01 -2.297902e-01 5.927902e-03 3.290078e-01 4.026391e-01 4.842063e-01
<VARIANCE> 25
 3.381005e+01 4.374036e+01 6.482644e+01 5.705393e+01 5.706469e+01 4.893034e+01 4.398737e+01 4.758787e+01 4.533967e+01 4.081097e+01 3.519007e+01 3.081927e+01 1.034496e+00 2.682821e+00 2.113194e+00 2.702207e+00 3.681077e+00 3.302796e+00 3.798752e+00 4.138144e+00 3.182972e+00 2.662963e+00 2.501869e+00 2.575583e+00 2.035024e+00
<GCONST> 1.042816e+02
<STATE> 4
<MEAN> 25
 5.245019e+00 -7.963865e-01 -1.977029e+00 -2.131719e-01 1.307271e+00 -3.815542e+00 -2.609585e+00 -4.350823e+00 -2.867312e+00 -1.488320e+00 -1.081758e-02 -1.045275e+00 3.514531e-01 -1.762642e-01 -2.754835e-01 -4.325965e-01 -5.898843e-01 -6.183972e-01 -2.581686e-01 -1.215939e-01 8.153636e-02 1.697690e-01 2.150972e-01 3.137886e-01 3.792997e-01
<VARIANCE> 25
 4.054366e+01 6.239736e+01 6.931887e+01 6.282769e+01 6.256241e+01 5.861941e+01 4.958038e+01 5.950143e+01 6.179900e+01 4.873711e+01 4.745664e+01 4.696631e+01 9.160993e-01 2.332375e+00 2.254871e+00 2.718161e+00 3.564646e+00 3.590911e+00 3.101396e+00 3.462668e+00 3.134885e+00 2.632264e+00 2.810844e+00 2.733017e+00 1.779732e+00
<GCONST> 1.062998e+02
~t "T_g"
<ENDHMM>
~h "g+o"
<BEGINHMM>
<NUMSTATES> 5
<STATE> 2
<MEAN> 25
 4.635559e+00 5.363365e-01 8.743733e-02 3.524290e-01 2.229798e+00 -1.743833e+00 -1.579602e+00 -2.043766e+00 -2.718624e+00 -2.152016e+00 -2.397058e+00 -2.887682e+00 -4.716252e-02 1.557592e-01 -1.047090e-03 -1.243150e-01 -1.916994e-01 4.209527e-03 1.893945e-01 -1.626682e-01 -2.188310e-01 -1.203275e-01 1.739263e-01 9.188620e-02 -8.254285e-02
<VARIANCE> 25
 3.401551e+01 4.746745e+01 6.590588e+01 6.888592e+01 6.231248e+01 4.789571e+01 4.945169e+01 4.794329e+01 4.512083e+01 4.021106e+01 3.828913e+01 3.100824e+01 1.276815e+00 2.578767e+00 2.202086e+00 2.691261e+00 3.435740e+00 3.242736e+00 3.975471e+00 4.328651e+00 3.473794e+00 3.157657e+00 2.566085e+00 2.366839e+00 2.285003e+00
<GCONST> 1.053621e+02
<STATE> 3
<MEAN> 25
 5.764225e+00 3.891699e-01 -5.608481e-01 1.503215e+00 2.225826e+00 -2.072252e+00 -2.398549e+00 -2.813673e+00 -3.874879e+00 -2.397335e+00 -1.524217e+00 -2.210126e+00 3.092694e-01 -2.237352e-01 -3.254337e-01 -4.003477e-01 -4.933417e-01 -6.627559e-01 -2.823527e-01 -4.113862e-01 -2.297902e-01 5.927902e-03 3.290078e-01 4.026391e-01 4.842063e-01
<VARIANCE> 25
 3.381005e+01 4.374036e+01 6.482644e+01 5.705393e+01 5.706469e+01 4.893034e+01 4.398737e+01 4.758787e+01 4.533967e+01 4.081097e+01 3.519007e+01 3.081927e+01 1.034496e+00 2.682821e+00 2.113194e+00 2.702207e+00 3.681077e+00 3.302796e+00 3.798752e+00 4.138144e+00 3.182972e+00 2.662963e+00 2.501869e+00 2.575583e+00 2.035024e+00
<GCONST> 1.042816e+02
<STATE> 4
<MEAN> 25
 5.245019e+00 -7.963865e-01 -1.977029e+00 -2.131719e-01 1.307271e+00 -3.815542e+00 -2.609585e+00 -4.350823e+00 -2.867312e+00 -1.488320e+00 -1.081758e-02 -1.045275e+00 3.514531e-01 -1.762642e-01 -2.754835e-01 -4.325965e-01 -5.898843e-01 -6.183972e-01 -2.581686e-01 -1.215939e-01 8.153636e-02 1.697690e-01 2.150972e-01 3.137886e-01 3.792997e-01
<VARIANCE> 25
 4.054366e+01 6.239736e+01 6.931887e+01 6.282769e+01 6.256241e+01 5.861941e+01 4.958038e+01 5.950143e+01 6.179900e+01 4.873711e+01 4.745664e+01 4.696631e+01 9.160993e-01 2.332375e+00 2.254871e+00 2.718161e+00 3.564646e+00 3.590911e+00 3.101396e+00 3.462668e+00 3.134885e+00 2.632264e+00 2.810844e+00 2.733017e+00 1.779732e+00
<GCONST> 1.062998e+02
~t "T_g"
<ENDHMM>
~h "g+r"
<BEGINHMM>
<NUMSTATES> 5
<STATE> 2
<MEAN> 25
 4.635559e+00 5.363365e-01 8.743733e-02 3.524290e-01 2.229798e+00 -1.743833e+00 -1.579602e+00 -2.043766e+00 -2.718624e+00 -2.152016e+00 -2.397058e+00 -2.887682e+00 -4.716252e-02 1.557592e-01 -1.047090e-03 -1.243150e-01 -1.916994e-01 4.209527e-03 1.893945e-01 -1.626682e-01 -2.188310e-01 -1.203275e-01 1.739263e-01 9.188620e-02 -8.254285e-02
<VARIANCE> 25
 3.401551e+01 4.746745e+01 6.590588e+01 6.888592e+01 6.231248e+01 4.789571e+01 4.945169e+01 4.794329e+01 4.512083e+01 4.021106e+01 3.828913e+01 3.100824e+01 1.276815e+00 2.578767e+00 2.202086e+00 2.691261e+00 3.435740e+00 3.242736e+00 3.975471e+00 4.328651e+00 3.473794e+00 3.157657e+00 2.566085e+00 2.366839e+00 2.285003e+00
<GCONST> 1.053621e+02
<STATE> 3
<MEAN> 25
 5.764225e+00 3.891699e-01 -5.608481e-01 1.503215e+00 2.225826e+00 -2.072252e+00 -2.398549e+00 -2.813673e+00 -3.874879e+00 -2.397335e+00 -1.524217e+00 -2.210126e+00 3.092694e-01 -2.237352e-01 -3.254337e-01 -4.003477e-01 -4.933417e-01 -6.627559e-01 -2.823527e-01 -4.113862e-01 -2.297902e-01 5.927902e-03 3.290078e-01 4.026391e-01 4.842063e-01
<VARIANCE> 25
 3.381005e+01 4.374036e+01 6.482644e+01 5.705393e+01 5.706469e+01 4.893034e+01 4.398737e+01 4.758787e+01 4.533967e+01 4.081097e+01 3.519007e+01 3.081927e+01 1.034496e+00 2.682821e+00 2.113194e+00 2.702207e+00 3.681077e+00 3.302796e+00 3.798752e+00 4.138144e+00 3.182972e+00 2.662963e+00 2.501869e+00 2.575583e+00 2.035024e+00
<GCONST> 1.042816e+02
<STATE> 4
<MEAN> 25
 5.245019e+00 -7.963865e-01 -1.977029e+00 -2.131719e-01 1.307271e+00 -3.815542e+00 -2.609585e+00 -4.350823e+00 -2.867312e+00 -1.488320e+00 -1.081758e-02 -1.045275e+00 3.514531e-01 -1.762642e-01 -2.754835e-01 -4.325965e-01 -5.898843e-01 -6.183972e-01 -2.581686e-01 -1.215939e-01 8.153636e-02 1.697690e-01 2.150972e-01 3.137886e-01 3.792997e-01
<VARIANCE> 25
 4.054366e+01 6.239736e+01 6.931887e+01 6.282769e+01 6.256241e+01 5.861941e+01 4.958038e+01 5.950143e+01 6.179900e+01 4.873711e+01 4.745664e+01 4.696631e+01 9.160993e-01 2.332375e+00 2.254871e+00 2.718161e+00 3.564646e+00 3.590911e+00 3.101396e+00 3.462668e+00 3.134885e+00 2.632264e+00 2.810844e+00 2.733017e+00 1.779732e+00
<GCONST> 1.062998e+02
~t "T_g"
<ENDHMM>
~h "g+u"
<BEGINHMM>
<NUMSTATES> 5
<STATE> 2
<MEAN> 25
 4.635559e+00 5.363365e-01 8.743733e-02 3.524290e-01 2.229798e+00 -1.743833e+00 -1.579602e+00 -2.043766e+00 -2.718624e+00 -2.152016e+00 -2.397058e+00 -2.887682e+00 -4.716252e-02 1.557592e-01 -1.047090e-03 -1.243150e-01 -1.916994e-01 4.209527e-03 1.893945e-01 -1.626682e-01 -2.188310e-01 -1.203275e-01 1.739263e-01 9.188620e-02 -8.254285e-02
<VARIANCE> 25
 3.401551e+01 4.746745e+01 6.590588e+01 6.888592e+01 6.231248e+01 4.789571e+01 4.945169e+01 4.794329e+01 4.512083e+01 4.021106e+01 3.828913e+01 3.100824e+01 1.276815e+00 2.578767e+00 2.202086e+00 2.691261e+00 3.435740e+00 3.242736e+00 3.975471e+00 4.328651e+00 3.473794e+00 3.157657e+00 2.566085e+00 2.366839e+00 2.285003e+00
<GCONST> 1.053621e+02
<STATE> 3
<MEAN> 25
 5.764225e+00 3.891699e-01 -5.608481e-01 1.503215e+00 2.225826e+00 -2.072252e+00 -2.398549e+00 -2.813673e+00 -3.874879e+00 -2.397335e+00 -1.524217e+00 -2.210126e+00 3.092694e-01 -2.237352e-01 -3.254337e-01 -4.003477e-01 -4.933417e-01 -6.627559e-01 -2.823527e-01 -4.113862e-01 -2.297902e-01 5.927902e-03 3.290078e-01 4.026391e-01 4.842063e-01
<VARIANCE> 25
 3.381005e+01 4.374036e+01 6.482644e+01 5.705393e+01 5.706469e+01 4.893034e+01 4.398737e+01 4.758787e+01 4.533967e+01 4.081097e+01 3.519007e+01 3.081927e+01 1.034496e+00 2.682821e+00 2.113194e+00 2.702207e+00 3.681077e+00 3.302796e+00 3.798752e+00 4.138144e+00 3.182972e+00 2.662963e+00 2.501869e+00 2.575583e+00 2.035024e+00
<GCONST> 1.042816e+02
<STATE> 4
<MEAN> 25
 5.245019e+00 -7.963865e-01 -1.977029e+00 -2.131719e-01 1.307271e+00 -3.815542e+00 -2.609585e+00 -4.350823e+00 -2.867312e+00 -1.488320e+00 -1.081758e-02 -1.045275e+00 3.514531e-01 -1.762642e-01 -2.754835e-01 -4.325965e-01 -5.898843e-01 -6.183972e-01 -2.581686e-01 -1.215939e-01 8.153636e-02 1.697690e-01 2.150972e-01 3.137886e-01 3.792997e-01
<VARIANCE> 25
 4.054366e+01 6.239736e+01 6.931887e+01 6.282769e+01 6.256241e+01 5.861941e+01 4.958038e+01 5.950143e+01 6.179900e+01 4.873711e+01 4.745664e+01 4.696631e+01 9.160993e-01 2.332375e+00 2.254871e+00 2.718161e+00 3.564646e+00 3.590911e+00 3.101396e+00 3.462668e+00 3.134885e+00 2.632264e+00 2.810844e+00 2.733017e+00 1.779732e+00
<GCONST> 1.062998e+02
~t "T_g"
<ENDHMM>
~h "g-a"
<BEGINHMM>
<NUMSTATES> 5
<STATE> 2
<MEAN> 25
 8.084209e+00 -3.246555e+00 -4.886938e+00 -2.890126e+00 -1.922659e+00 -4.591505e+00 -1.062124e+00 -1.533606e+00 -3.011539e+00 -1.419097e+00 7.822737e-01 1.974153e+00 8.531939e-01 -1.219489e+00 -1.591901e+00 -1.511451e+00 -1.099942e+00 -1.081241e+00 3.296968e-01 2.435892e-01 2.131322e-01 7.433307e-01 1.096173e+00 1.076555e+00 1.531909e+00
<VARIANCE> 25
 3.102556e+01 3.982352e+01 4.648204e+01 6.052976e+01 4.865224e+01 5.364120e+01 4.957391e+01 5.206113e+01 4.994263e+01 4.377484e+01 3.566540e+01 3.010361e+01 2.105191e+00 2.133569e+00 2.607650e+00 3.361774e+00 2.917656e+00 3.954443e+00 3.398865e+00 3.319243e+00 3.668817e+00 4.076825e+00 3.093344e+00 2.673295e+00 1.675560e+00
<GCONST> 1.052759e+02
<STATE> 3
<MEAN> 25
 9.462610e+00 -6.897775e+00 -8.743549e+00 -6.083593e+00 -4.604442e+00 -5.470979e+00 1.397076e+00 -2.830499e-01 -1.629562e+00 7.007640e-01 2.659651e+00 3.340820e+00 3.290816e-02 -1.735238e-01 -3.625012e-01 -3.627358e-01 -1.769637e-01 2.254089e-01 4.766614e-01 2.827543e-01 2.371980e-01 1.767752e-01 8.445666e-02 6.974697e-02 8.193482e-02
<VARIANCE> 25
 2.840129e+01 3.570125e+01 4.138834e+01 4.038225e+01 4.118876e+01 4.148624e+01 4.739182e+01 4.747406e+01 4.473821e+01 4.189992e+01 3.449903e+01 2.805832e+01 3.302394e-01 8.424883e-01 9.393210e-01 1.242460e+00 1.324397e+00 1.496400e+00 1.901740e+00 1.780651e+00 1.803969e+00 1.726919e+00 1.430944e+00 1.179275e+00 3.783611e-01
<GCONST> 9.133002e+01
<STATE> 4
<MEAN> 25
 8.177530e+00 -2.680661e+00 -7.293503e+00 -5.932261e+00 -3.758124e+00 -2.794274e+00 1.176165e+00 -3.390664e-01 -1.368642e+00 2.573896e-01 2.133668e+00 3.287408e+00 -4.538044e-01 8.704351e-01 7.276899e-01 4.679444e-01 4.150407e-01 5.706517e-01 -1.937626e-01 -1.382255e-01 1.753797e-02 -1.629017e-01 -2.942949e-01 -3.140077e-01 -8.826797e-01
<VARIANCE> 25
 2.215926e+01 3.099335e+01 3.486272e+01 3.668752e+01 3.283007e+01 3.965223e+01 3.500597e+01 3.826480e+01 3.512437e+01 3.170736e+01 2.563973e+01 2.200531e+01 5.861269e-01 9.910762e-01 1.080531e+00 1.252255e+00 1.395680e+00 1.835312e+00 1.787168e+00 1.826652e+00 1.993582e+00 1.853269e+00 1.609923e+00 1.318195e+00 6.483233e-01
<GCONST> 9.086413e+01
~t "T_a"
<ENDHMM>
~h "g-e"
<BEGINHMM>
<NUMSTATES> 5
<STATE> 2
<MEAN> 25
 4.917822e+00 -3.046909e+00 -7.860230e-01 1.961976e+00 3.296882e+00 -3.095960e+00 -4.445966e+00 -4.378197e+00 -4.194638e+00 -1.446952e+00 1.146220e-01 1.648807e-01 1.062938e+00 -1.285595e+00 -6.981800e-01 4.423747e-01 5.001229e-01 -1.895295e+00 -1.787762e+00 -1.308817e+00 -1.084860e+00 1.344622e-01 6.617222e-01 3.701210e-01 1.670173e+00
<VARIANCE> 25
 3.577217e+01 3.706077e+01 4.774310e+01 6.015227e+01 4.925949e+01 6.036604e+01 5.010396e+01 4.977269e+01 4.858726e+01 3.950971e+01 3.013842e+01 2.473536e+01 2.384392e+00 2.958043e+00 2.685448e+00 3.858023e+00 3.340221e+00 5.064232e+00 4.063103e+00 3.681123e+00 4.037725e+00 4.174648e+00 3.332788e+00 2.898063e+00 2.226966e+00
<GCONST> 1.068105e+02
<STATE> 3
<MEAN> 25
 7.191195e+00 -7.001473e+00 -2.328277e+00 2.836691e+00 3.888689e+00 -7.911126e+00 -8.482172e+00 -6.657192e+00 -5.470276e+00 -1.285404e-01 1.987994e+00 7.147580e-01 8.514885e-02 -4.249433e-01 -1.496204e-01 2.818093e-01 1.203487e-01 -6.073316e-01 -4.420330e-01 -1.406531e-01 1.603031e-01 5.093133e-01 3.347531e-01 -4.041983e-02 2.952766e-01
<VARIANCE> 25
 2.837927e+01 3.550758e+01 4.376701e+01 6.339727e+01 5.782299e+01 6.153004e+01 4.445435e+01 4.665985e+01 4.438187e+01 4.603452e+01 3.686113e+01 3.249733e+01 5.579238e-01 9.633060e-01 1.396090e+00 1.826277e+00 1.583154e+00 2.003756e+00 1.982185e+00 1.856537e+00 2.013892e+00 2.006657e+00 1.751121e+00 1.508502e+00 5.828047e-01
<GCONST> 9.591582e+01
<STATE> 4
<MEAN> 25
 5.895019e+00 -4.724988e+00 -1.197292e+00 3.906052e+00 3.870449e+00 -6.545651e+00 -8.215060e+00 -6.679025e+00 -4.172563e+00 5.337154e-01 9.279272e-01 -6.742178e-01 -3.232698e-01 7.992764e-01 3.300467e-01 -6.339286e-02 7.912491e-02 1.004552e+00 6.088396e-01 3.772415e-01 3.436322e-01 -1.313366e-01 -2.720630e-01 -1.298955e-01 -7.956876e-01
<VARIANCE> 25
 2.029749e+01 3.066547e+01 3.368494e+01 5.057070e+01 4.296806e+01 5.593891e+01 3.659196e+01 3.710094e+01 4.034227e+01 3.575679e+01 3.262199e+01 2.925796e+01 5.569103e-01 1.011105e+00 1.171097e+00 1.448238e+00 1.440968e+00 2.011663e+00 1.814593e+00 1.739066e+00 1.905525e+00 1.867028e+00 1.539982e+00 1.274082e+00 7.538318e-01
<GCONST> 9.278246e+01
~t "T_e"
<ENDHMM>
~h "g-o"
<BEGINHMM>
<NUMSTATES> 5
<STATE> 2
<MEAN> 25
 8.202134e+00 8.756948e-01 -1.556870e+00 -2.412576e+00 -4.135490e+00 -5.283045e+00 -1.325630e+00 5.514442e-01 -3.256593e+00 -4.464030e+00 -3.179199e+00 -1.018459e+00 8.533680e-01 5.628624e-02 -4.272498e-01 -1.163086e+00 -1.742013e+00 -1.833407e+00 -1.006363e-01 8.327968e-01 2.565329e-01 -1.784475e-01 -2.551433e-01 1.000556e-01 7.841955e-01
<VARIANCE> 25
 2.727819e+01 4.614404e+01 4.546624e+01 5.624189e+01 6.257309e+01 6.102062e+01 4.518742e+01 4.939813e+01 5.469617e+01 4.219932e+01 3.056493e+01 2.847985e+01 1.604221e+00 2.714622e+00 2.414845e+00 3.306103e+00 3.399673e+00 4.293542e+00 4.410888e+00 3.910635e+00 3.812121e+00 3.509329e+00 2.851977e+00 2.694980e+00 1.552250e+00
<GCONST> 1.055529e+02
<STATE> 3
<MEAN> 25
 9.608891e+00 1.841884e+00 -1.624231e+00 -4.843653e+00 -1.056682e+01 -1.047259e+01 -3.275502e-01 4.228262e+00 -8.981493e-01 -3.707518e+00 -3.771726e+00 -1.847208e+00 -1.603226e-01 3.746803e-01 2.492852e-02 -5.283350e-02 -1.316152e-01 2.060792e-01 2.320018e-01 3.473101e-01 4.636069e-01 2.421327e-01 -1.011645e-03 -9.001540e-02 -4.208844e-01
<VARIANCE> 25
 2.191664e+01 3.832346e+01 3.536129e+01 4.552036e+01 5.146196e+01 5.402416e+01 4.532333e+01 4.316967e+01 5.194213e+01 3.791486e+01 2.724122e+01 2.477335e+01 5.759985e-01 1.296905e+00 1.329783e+00 1.436117e+00 2.015944e+00 2.854960e+00 1.984985e+00 2.227589e+00 2.343580e+00 2.045362e+00 1.638120e+00 1.449960e+00 1.066268e+00
<GCONST> 9.576168e+01
<STATE> 4
<MEAN> 25
 5.920141e+00 4.729104e+00 -6.619071e-01 -3.592440e+00 -6.668617e+00 -4.437122e+00 3.776827e-01 3.175261e+00 9.050462e-01 -1.454790e+00 -2.326509e+00 -1.249121e+00 -6.257654e-01 -3.906129e-02 1.678127e-01 4.218079e-01 7.039407e-01 9.980335e-01 2.885799e-01 -2.038472e-01 -1.773957e-02 1.877047e-01 2.155907e-01 8.154663e-02 -5.345345e-01
<VARIANCE> 25
 2.381943e+01 3.168683e+01 3.073319e+01 3.372535e+01 3.205265e+01 4.222814e+01 3.201194e+01 3.300840e+01 3.498757e+01 3.150789e+01 2.243595e+01 1.901501e+01 4.852379e-01 7.335701e-01 1.011674e+00 1.084659e+00 1.496157e+00 1.967000e+00 1.648281e+00 1.688958e+00 1.686677e+00 1.518985e+00 1.305284e+00 1.193857e+00 3.831035e-01
<GCONST> 8.833953e+01
~t "T_o"
<ENDHMM>
~h "m-e+th"
<BEGINHMM>
<NUMSTATES> 5
<STATE> 2
<MEAN> 25
 4.917822e+00 -3.046909e+00 -7.860230e-01 1.961976e+00 3.296882e+00 -3.095960e+00 -4.445966e+00 -4.378197e+00 -4.194638e+00 -1.446952e+00 1.146220e-01 1.648807e-01 1.062938e+00 -1.285595e+00 -6.981800e-01 4.423747e-01 5.001229e-01 -1.895295e+00 -1.787762e+00 -1.308817e+00 -1.084860e+00 1.344622e-01 6.617222e-01 3.701210e-01 1.670173e+00
<VARIANCE> 25
 3.577217e+01 3.706077e+01 4.774310e+01 6.015227e+01 4.925949e+01 6.036604e+01 5.010396e+01 4.977269e+01 4.858726e+01 3.950971e+01 3.013842e+01 2.473536e+01 2.384392e+00 2.958043e+00 2.685448e+00 3.858023e+00 3.340221e+00 5.064232e+00 4.063103e+00 3.681123e+00 4.037725e+00 4.174648e+00 3.332788e+00 2.898063e+00 2.226966e+00
<GCONST> 1.068105e+02
<STATE> 3
<MEAN> 25
 7.191195e+00 -7.001473e+00 -2.328277e+00 2.836691e+00 3.888689e+00 -7.911126e+00 -8.482172e+00 -6.657192e+00 -5.470276e+00 -1.285404e-01 1.987994e+00 7.147580e-01 8.514885e-02 -4.249433e-01 -1.496204e-01 2.818093e-01 1.203487e-01 -6.073316e-01 -4.420330e-01 -1.406531e-01 1.603031e-01 5.093133e-01 3.347531e-01 -4.041983e-02 2.952766e-01
<VARIANCE> 25
 2.837927e+01 3.550758e+01 4.376701e+01 6.339727e+01 5.782299e+01 6.153004e+01 4.445435e+01 4.665985e+01 4.438187e+01 4.603452e+01 3.686113e+01 3.249733e+01 5.579238e-01 9.633060e-01 1.396090e+00 1.826277e+00 1.583154e+00 2.003756e+00 1.982185e+00 1.856537e+00 2.013892e+00 2.006657e+00 1.751121e+00 1.508502e+00 5.828047e-01
<GCONST> 9.591582e+01
<STATE> 4
<MEAN> 25
 5.895019e+00 -4.724988e+00 -1.197292e+00 3.906052e+00 3.870449e+00 -6.545651e+00 -8.215060e+00 -6.679025e+00 -4.172563e+00 5.337154e-01 9.279272e-01 -6.742178e-01 -3.232698e-01 7.992764e-01 3.300467e-01 -6.339286e-02 7.912491e-02 1.004552e+00 6.088396e-01 3.772415e-01 3.436322e-01 -1.313366e-01 -2.720630e-01 -1.298955e-01 -7.956876e-01
<VARIANCE> 25
 2.029749e+01 3.066547e+01 3.368494e+01 5.057070e+01 4.296806e+01 5.593891e+01 3.659196e+01 3.710094e+01 4.034227e+01 3.575679e+01 3.262199e+01 2.925796e+01 5.569103e-01 1.011105e+00 1.171097e+00 1.448238e+00 1.440968e+00 2.011663e+00 1.814593e+00 1.739066e+00 1.905525e+00 1.867028e+00 1.539982e+00 1.274082e+00 7.538318e-01
<GCONST> 9.278246e+01
~t "T_e"
<ENDHMM>
~h "o+ch"
<BEGINHMM>
<NUMSTATES> 5
<STATE> 2
<MEAN> 25
 8.202134e+00 8.756948e-01 -1.556870e+00 -2.412576e+00 -4.135490e+00 -5.283045e+00 -1.325630e+00 5.514442e-01 -3.256593e+00 -4.464030e+00 -3.179199e+00 -1.018459e+00 8.533680e-01 5.628624e-02 -4.272498e-01 -1.163086e+00 -1.742013e+00 -1.833407e+00 -1.006363e-01 8.327968e-01 2.565329e-01 -1.784475e-01 -2.551433e-01 1.000556e-01 7.841955e-01
<VARIANCE> 25
 2.727819e+01 4.614404e+01 4.546624e+01 5.624189e+01 6.257309e+01 6.102062e+01 4.518742e+01 4.939813e+01 5.469617e+01 4.219932e+01 3.056493e+01 2.847985e+01 1.604221e+00 2.714622e+00 2.414845e+00 3.306103e+00 3.399673e+00 4.293542e+00 4.410888e+00 3.910635e+00 3.812121e+00 3.509329e+00 2.851977e+00 2.694980e+00 1.552250e+00
<GCONST> 1.055529e+02
<STATE> 3
<MEAN> 25
 9.608891e+00 1.841884e+00 -1.624231e+00 -4.843653e+00 -1.056682e+01 -1.047259e+01 -3.275502e-01 4.228262e+00 -8.981493e-01 -3.707518e+00 -3.771726e+00 -1.847208e+00 -1.603226e-01 3.746803e-01 2.492852e-02 -5.283350e-02 -1.316152e-01 2.060792e-01 2.320018e-01 3.473101e-01 4.636069e-01 2.421327e-01 -1.011645e-03 -9.001540e-02 -4.208844e-01
<VARIANCE> 25
 2.191664e+01 3.832346e+01 3.536129e+01 4.552036e+01 5.146196e+01 5.402416e+01 4.532333e+01 4.316967e+01 5.194213e+01 3.791486e+01 2.724122e+01 2.477335e+01 5.759985e-01 1.296905e+00 1.329783e+00 1.436117e+00 2.015944e+00 2.854960e+00 1.984985e+00 2.227589e+00 2.343580e+00 2.045362e+00 1.638120e+00 1.449960e+00 1.066268e+00
<GCONST> 9.576168e+01
<STATE> 4
<MEAN> 25
 5.920141e+00 4.729104e+00 -6.619071e-01 -3.592440e+00 -6.668617e+00 -4.437122e+00 3.776827e-01 3.175261e+00 9.050462e-01 -1.454790e+00 -2.326509e+00 -1.249121e+00 -6.257654e-01 -3.906129e-02 1.678127e-01 4.218079e-01 7.039407e-01 9.980335e-01 2.885799e-01 -2.038472e-01 -1.773957e-02 1.877047e-01 2.155907e-01 8.154663e-02 -5.345345e-01
<VARIANCE> 25
 2.381943e+01 3.168683e+01 3.073319e+01 3.372535e+01 3.205265e+01 4.222814e+01 3.201194e+01 3.300840e+01 3.498757e+01 3.150789e+01 2.243595e+01 1.901501e+01 4.852379e-01 7.335701e-01 1.011674e+00 1.084659e+00 1.496157e+00 1.967000e+00 1.648281e+00 1.688958e+00 1.686677e+00 1.518985e+00 1.305284e+00 1.193857e+00 3.831035e-01
<GCONST> 8.833953e+01
~t "T_o"
<ENDHMM>
~h "i+d"
<BEGINHMM>
<NUMSTATES> 5
<STATE> 2
<MEAN> 25
 2.824880e+00 -2.961581e+00 4.292364e+00 7.499251e+00 7.346193e+00 -2.067250e+00 -5.297520e+00 -2.873806e+00 -2.378581e+00 -1.973293e+00 -2.520489e+00 -3.736685e+00 1.015099e+00 -9.724852e-01 2.479329e-01 2.179622e+00 1.426837e+00 -2.128228e+00 -2.309814e+00 -3.848035e-01 -7.270547e-01 -7.560874e-01 -6.794949e-01 -8.365397e-01 1.175898e+00
<VARIANCE> 25
 3.374600e+01 3.967356e+01 6.750194e+01 6.375350e+01 5.781096e+01 6.437442e+01 4.980933e+01 4.415491e+01 4.445846e+01 3.540117e+01 3.356274e+01 2.704606e+01 3.132528e+00 4.137255e+00 3.621446e+00 4.487921e+00 4.215056e+00 5.312013e+00 4.005538e+00 3.824685e+00 4.409300e+00 4.209664e+00 3.923692e+00 2.984154e+00 1.617640e+00
<GCONST> 1.086541e+02
<STATE> 3
<MEAN> 25
 3.691633e+00 -6.378765e+00 6.166086e+00 1.236009e+01 7.380941e+00 -9.047977e+00 -9.580333e+00 -1.629763e+00 -3.102339e+00 -4.599288e+00 -4.548250e+00 -5.048493e+00 8.359629e-02 -2.991736e-01 1.296623e-01 4.305927e-01 9.667514e-03 -8.290642e-01 -5.818837e-01 1.603395e-01 8.957740e-02 -1.876646e-01 -1.591199e-01 -1.092843e-01 2.681427e-01
<VARIANCE> 25
 2.149308e+01 3.103732e+01 4.970968e+01 5.873264e+01 7.158559e+01 6.920425e+01 3.966159e+01 4.495304e+01 4.204121e+01 4.275245e+01 4.102441e+01 2.954641e+01 6.639252e-01 9.264812e-01 1.883231e+00 1.858640e+00 1.558079e+00 2.146437e+00 1.929194e+00 2.097977e+00 1.840118e+00 1.884095e+00 1.595546e+00 1.333590e+00 5.259222e-01
<GCONST> 9.574519e+01
<STATE> 4
<MEAN> 25
 4.036044e+00 -4.218312e+00 4.209880e+00 1.037407e+01 7.996428e+00 -6.247262e+00 -9.419474e+00 -3.331409e+00 -2.663913e+00 -2.918104e+00 -3.142705e+00 -4.376024e+00 3.821991e-02 8.336469e-01 -6.000085e-01 -1.181883e+00 -5.675405e-01 1.117856e+00 8.718380e-01 -2.187419e-01 -3.897155e-02 3.511441e-01 4.869802e-01 5.886047e-01 -5.325214e-01
<VARIANCE> 25
 1.972391e+01 3.227742e+01 4.309776e+01 5.167957e+01 5.495691e+01 6.691110e+01 3.850472e+01 4.351723e+01 4.154246e+01 3.556070e+01 3.517086e+01 2.803684e+01 6.999541e-01 1.390189e+00 1.663853e+00 1.824908e+00 1.964548e+00 2.784639e+00 2.501812e+00 2.236512e+00 2.341234e+00 2.148965e+00 1.947036e+00 1.699689e+00 1.056007e+00
<GCONST> 9.730878e+01
~t "T_i"
<ENDHMM>
~h "i+g"
<BEGINHMM>
<NUMSTATES> 5
<STATE> 2
<MEAN> 25
 2.824880e+00 -2.961581e+00 4.292364e+00 7.499251e+00 7.346193e+00 -2.067250e+00 -5.297520e+00 -2.873806e+00 -2.378581e+00 -1.973293e+00 -2.520489e+00 -3.736685e+00 1.015099e+00 -9.724852e-01 2.479329e-01 2.179622e+00 1.426837e+00 -2.128228e+00 -2.309814e+00 -3.848035e-01 -7.270547e-01 -7.560874e-01 -6.794949e-01 -8.365397e-01 1.175898e+00
<VARIANCE> 25
 3.374600e+01 3.967356e+01 6.750194e+01 6.375350e+01 5.781096e+01 6.437442e+01 4.980933e+01 4.415491e+01 4.445846e+01 3.540117e+01 3.356274e+01 2.704606e+01 3.132528e+00 4.137255e+00 3.621446e+00 4.487921e+00 4.215056e+00 5.312013e+00 4.005538e+00 3.824685e+00 4.409300e+00 4.209664e+00 3.923692e+00 2.984154e+00 1.617640e+00
<GCONST> 1.086541e+02
<STATE> 3
<MEAN> 25
 3.691633e+00 -6.378765e+00 6.166086e+00 1.236009e+01 7.380941e+00 -9.047977e+00 -9.580333e+00 -1.629763e+00 -3.102339e+00 -4.599288e+00 -4.548250e+00 -5.048493e+00 8.359629e-02 -2.991736e-01 1.296623e-01 4.305927e-01 9.667514e-03 -8.290642e-01 -5.818837e-01 1.603395e-01 8.957740e-02 -1.876646e-01 -1.591199e-01 -1.092843e-01 2.681427e-01
<VARIANCE> 25
 2.149308e+01 3.103732e+01 4.970968e+01 5.873264e+01 7.158559e+01 6.920425e+01 3.966159e+01 4.495304e+01 4.204121e+01 4.275245e+01 4.102441e+01 2.954641e+01 6.639252e-01 9.264812e-01 1.883231e+00 1.858640e+00 1.558079e+00 2.146437e+00 1.929194e+00 2.097977e+00 1.840118e+00 1.884095e+00 1.595546e+00 1.333590e+00 5.259222e-01
<GCONST> 9.574519e+01
<STATE> 4
<MEAN> 25
 4.036044e+00 -4.218312e+00 4.209880e+00 1.037407e+01 7.996428e+00 -6.247262e+00 -9.419474e+00 -3.331409e+00 -2.663913e+00 -2.918104e+00 -3.142705e+00 -4.376024e+00 3.821991e-02 8.336469e-01 -6.000085e-01 -1.181883e+00 -5.675405e-01 1.117856e+00 8.718380e-01 -2.187419e-01 -3.897155e-02 3.511441e-01 4.869802e-01 5.886047e-01 -5.325214e-01
<VARIANCE> 25
 1.972391e+01 3.227742e+01 4.309776e+01 5.167957e+01 5.495691e+01 6.691110e+01 3.850472e+01 4.351723e+01 4.154246e+01 3.556070e+01 3.517086e+01 2.803684e+01 6.999541e-01 1.390189e+00 1.663853e+00 1.824908e+00 1.964548e+00 2.784639e+00 2.501812e+00 2.236512e+00 2.341234e+00 2.148965e+00 1.947036e+00 1.699689e+00 1.056007e+00
<GCONST> 9.730878e+01
~t "T_i"
<ENDHMM>
~h "i+m"
<BEGINHMM>
<NUMSTATES> 5
<STATE> 2
<MEAN> 25
 2.824880e+00 -2.961581e+00 4.292364e+00 7.499251e+00 7.346193e+00 -2.067250e+00 -5.297520e+00 -2.873806e+00 -2.378581e+00 -1.973293e+00 -2.520489e+00 -3.736685e+00 1.015099e+00 -9.724852e-01 2.479329e-01 2.179622e+00 1.426837e+00 -2.128228e+00 -2.309814e+00 -3.848035e-01 -7.270547e-01 -7.560874e-01 -6.794949e-01 -8.365397e-01 1.175898e+00
<VARIANCE> 25
 3.374600e+01 3.967356e+01 6.750194e+01 6.375350e+01 5.781096e+01 6.437442e+01 4.980933e+01 4.415491e+01 4.445846e+01 3.540117e+01 3.356274e+01 2.704606e+01 3.132528e+00 4.137255e+00 3.621446e+00 4.487921e+00 4.215056e+00 5.312013e+00 4.005538e+00 3.824685e+00 4.409300e+00 4.209664e+00 3.923692e+00 2.984154e+00 1.617640e+00
<GCONST> 1.086541e+02
<STATE> 3
<MEAN> 25
 3.691633e+00 -6.378765e+00 6.166086e+00 1.236009e+01 7.380941e+00 -9.047977e+00 -9.580333e+00 -1.629763e+00 -3.102339e+00 -4.599288e+00 -4.548250e+00 -5.048493e+00 8.359629e-02 -2.991736e-01 1.296623e-01 4.305927e-01 9.667514e-03 -8.290642e-01 -5.818837e-01 1.603395e-01 8.957740e-02 -1.876646e-01 -1.591199e-01 -1.092843e-01 2.681427e-01
<VARIANCE> 25
 2.149308e+01 3.103732e+01 4.970968e+01 5.873264e+01 7.158559e+01 6.920425e+01 3.966159e+01 4.495304e+01 4.204121e+01 4.275245e+01 4.102441e+01 2.954641e+01 6.639252e-01 9.264812e-01 1.883231e+00 1.858640e+00 1.558079e+00 2.146437e+00 1.929194e+00 2.097977e+00 1.840118e+00 1.884095e+00 1.595546e+00 1.333590e+00 5.259222e-01
<GCONST> 9.574519e+01
<STATE> 4
<MEAN> 25
 4.036044e+00 -4.218312e+00 4.209880e+00 1.037407e+01 7.996428e+00 -6.247262e+00 -9.419474e+00 -3.331409e+00 -2.663913e+00 -2.918104e+00 -3.142705e+00 -4.376024e+00 3.821991e-02 8.336469e-01 -6.000085e-01 -1.181883e+00 -5.675405e-01 1.117856e+00 8.718380e-01 -2.187419e-01 -3.897155e-02 3.511441e-01 4.869802e-01 5.886047e-01 -5.325214e-01
<VARIANCE> 25
 1.972391e+01 3.227742e+01 4.309776e+01 5.167957e+01 5.495691e+01 6.691110e+01 3.850472e+01 4.351723e+01 4.154246e+01 3.556070e+01 3.517086e+01 2.803684e+01 6.999541e-01 1.390189e+00 1.663853e+00 1.824908e+00 1.964548e+00 2.784639e+00 2.501812e+00 2.236512e+00 2.341234e+00 2.148965e+00 1.947036e+00 1.699689e+00 1.056007e+00
<GCONST> 9.730878e+01
~t "T_i"
<ENDHMM>
~h "i+n"
<BEGINHMM>
<NUMSTATES> 5
<STATE> 2
<MEAN> 25
 2.824880e+00 -2.961581e+00 4.292364e+00 7.499251e+00 7.346193e+00 -2.067250e+00 -5.297520e+00 -2.873806e+00 -2.378581e+00 -1.973293e+00 -2.520489e+00 -3.736685e+00 1.015099e+00 -9.724852e-01 2.479329e-01 2.179622e+00 1.426837e+00 -2.128228e+00 -2.309814e+00 -3.848035e-01 -7.270547e-01 -7.560874e-01 -6.794949e-01 -8.365397e-01 1.175898e+00
<VARIANCE> 25
 3.374600e+01 3.967356e+01 6.750194e+01 6.375350e+01 5.781096e+01 6.437442e+01 4.980933e+01 4.415491e+01 4.445846e+01 3.540117e+01 3.356274e+01 2.704606e+01 3.132528e+00 4.137255e+00 3.621446e+00 4.487921e+00 4.215056e+00 5.312013e+00 4.005538e+00 3.824685e+00 4.409300e+00 4.209664e+00 3.923692e+00 2.984154e+00 1.617640e+00
<GCONST> 1.086541e+02
<STATE> 3
<MEAN> 25
 3.691633e+00 -6.378765e+00 6.166086e+00 1.236009e+01 7.380941e+00 -9.047977e+00 -9.580333e+00 -1.629763e+00 -3.102339e+00 -4.599288e+00 -4.548250e+00 -5.048493e+00 8.359629e-02 -2.991736e-01 1.296623e-01 4.305927e-01 9.667514e-03 -8.290642e-01 -5.818837e-01 1.603395e-01 8.957740e-02 -1.876646e-01 -1.591199e-01 -1.092843e-01 2.681427e-01
<VARIANCE> 25
 2.149308e+01 3.103732e+01 4.970968e+01 5.873264e+01 7.158559e+01 6.920425e+01 3.966159e+01 4.495304e+01 4.204121e+01 4.275245e+01 4.102441e+01 2.954641e+01 6.639252e-01 9.264812e-01 1.883231e+00 1.858640e+00 1.558079e+00 2.146437e+00 1.929194e+00 2.097977e+00 1.840118e+00 1.884095e+00 1.595546e+00 1.333590e+00 5.259222e-01
<GCONST> 9.574519e+01
<STATE> 4
<MEAN> 25
 4.036044e+00 -4.218312e+00 4.209880e+00 1.037407e+01 7.996428e+00 -6.247262e+00 -9.419474e+00 -3.331409e+00 -2.663913e+00 -2.918104e+00 -3.142705e+00 -4.376024e+00 3.821991e-02 8.336469e-01 -6.000085e-01 -1.181883e+00 -5.675405e-01 1.117856e+00 8.718380e-01 -2.187419e-01 -3.897155e-02 3.511441e-01 4.869802e-01 5.886047e-01 -5.325214e-01
<VARIANCE> 25
 1.972391e+01 3.227742e+01 4.309776e+01 5.167957e+01 5.495691e+01 6.691110e+01 3.850472e+01 4.351723e+01 4.154246e+01 3.556070e+01 3.517086e+01 2.803684e+01 6.999541e-01 1.390189e+00 1.663853e+00 1.824908e+00 1.964548e+00 2.784639e+00 2.501812e+00 2.236512e+00 2.341234e+00 2.148965e+00 1.947036e+00 1.699689e+00 1.056007e+00
<GCONST> 9.730878e+01
~t "T_i"
<ENDHMM>
~h "i+r"
<BEGINHMM>
<NUMSTATES> 5
<STATE> 2
<MEAN> 25
 2.824880e+00 -2.961581e+00 4.292364e+00 7.499251e+00 7.346193e+00 -2.067250e+00 -5.297520e+00 -2.873806e+00 -2.378581e+00 -1.973293e+00 -2.520489e+00 -3.736685e+00 1.015099e+00 -9.724852e-01 2.479329e-01 2.179622e+00 1.426837e+00 -2.128228e+00 -2.309814e+00 -3.848035e-01 -7.270547e-01 -7.560874e-01 -6.794949e-01 -8.365397e-01 1.175898e+00
<VARIANCE> 25
 3.374600e+01 3.967356e+01 6.750194e+01 6.375350e+01 5.781096e+01 6.437442e+01 4.980933e+01 4.415491e+01 4.445846e+01 3.540117e+01 3.356274e+01 2.704606e+01 3.132528e+00 4.137255e+00 3.621446e+00 4.487921e+00 4.215056e+00 5.312013e+00 4.005538e+00 3.824685e+00 4.409300e+00 4.209664e+00 3.923692e+00 2.984154e+00 1.617640e+00
<GCONST> 1.086541e+02
<STATE> 3
<MEAN> 25
 3.691633e+00 -6.378765e+00 6.166086e+00 1.236009e+01 7.380941e+00 -9.047977e+00 -9.580333e+00 -1.629763e+00 -3.102339e+00 -4.599288e+00 -4.548250e+00 -5.048493e+00 8.359629e-02 -2.991736e-01 1.296623e-01 4.305927e-01 9.667514e-03 -8.290642e-01 -5.818837e-01 1.603395e-01 8.957740e-02 -1.876646e-01 -1.591199e-01 -1.092843e-01 2.681427e-01
<VARIANCE> 25
 2.149308e+01 3.103732e+01 4.970968e+01 5.873264e+01 7.158559e+01 6.920425e+01 3.966159e+01 4.495304e+01 4.204121e+01 4.275245e+01 4.102441e+01 2.954641e+01 6.639252e-01 9.264812e-01 1.883231e+00 1.858640e+00 1.558079e+00 2.146437e+00 1.929194e+00 2.097977e+00 1.840118e+00 1.884095e+00 1.595546e+00 1.333590e+00 5.259222e-01
<GCONST> 9.574519e+01
<STATE> 4
<MEAN> 25
 4.036044e+00 -4.218312e+00 4.209880e+00 1.037407e+01 7.996428e+00 -6.247262e+00 -9.419474e+00 -3.331409e+00 -2.663913e+00 -2.918104e+00 -3.142705e+00 -4.376024e+00 3.821991e-02 8.336469e-01 -6.000085e-01 -1.181883e+00 -5.675405e-01 1.117856e+00 8.718380e-01 -2.187419e-01 -3.897155e-02 3.511441e-01 4.869802e-01 5.886047e-01 -5.325214e-01
<VARIANCE> 25
 1.972391e+01 3.227742e+01 4.309776e+01 5.167957e+01 5.495691e+01 6.691110e+01 3.850472e+01 4.351723e+01 4.154246e+01 3.556070e+01 3.517086e+01 2.803684e+01 6.999541e-01 1.390189e+00 1.663853e+00 1.824908e+00 1.964548e+00 2.784639e+00 2.501812e+00 2.236512e+00 2.341234e+00 2.148965e+00 1.947036e+00 1.699689e+00 1.056007e+00
<GCONST> 9.730878e+01
~t "T_i"
<ENDHMM>
~h "i+s"
<BEGINHMM>
<NUMSTATES> 5
<STATE> 2
<MEAN> 25
 2.824880e+00 -2.961581e+00 4.292364e+00 7.499251e+00 7.346193e+00 -2.067250e+00 -5.297520e+00 -2.873806e+00 -2.378581e+00 -1.973293e+00 -2.520489e+00 -3.736685e+00 1.015099e+00 -9.724852e-01 2.479329e-01 2.179622e+00 1.426837e+00 -2.128228e+00 -2.309814e+00 -3.848035e-01 -7.270547e-01 -7.560874e-01 -6.794949e-01 -8.365397e-01 1.175898e+00
<VARIANCE> 25
 3.374600e+01 3.967356e+01 6.750194e+01 6.375350e+01 5.781096e+01 6.437442e+01 4.980933e+01 4.415491e+01 4.445846e+01 3.540117e+01 3.356274e+01 2.704606e+01 3.132528e+00 4.137255e+00 3.621446e+00 4.487921e+00 4.215056e+00 5.312013e+00 4.005538e+00 3.824685e+00 4.409300e+00 4.209664e+00 3.923692e+00 2.984154e+00 1.617640e+00
<GCONST> 1.086541e+02
<STATE> 3
<MEAN> 25
 3.691633e+00 -6.378765e+00 6.166086e+00 1.236009e+01 7.380941e+00 -9.047977e+00 -9.580333e+00 -1.629763e+00 -3.102339e+00 -4.599288e+00 -4.548250e+00 -5.048493e+00 8.359629e-02 -2.991736e-01 1.296623e-01 4.305927e-01 9.667514e-03 -8.290642e-01 -5.818837e-01 1.603395e-01 8.957740e-02 -1.876646e-01 -1.591199e-01 -1.092843e-01 2.681427e-01
<VARIANCE> 25
 2.149308e+01 3.103732e+01 4.970968e+01 5.873264e+01 7.158559e+01 6.920425e+01 3.966159e+01 4.495304e+01 4.204121e+01 4.275245e+01 4.102441e+01 2.954641e+01 6.639252e-01 9.264812e-01 1.883231e+00 1.858640e+00 1.558079e+00 2.146437e+00 1.929194e+00 2.097977e+00 1.840118e+00 1.884095e+00 1.595546e+00 1.333590e+00 5.259222e-01
<GCONST> 9.574519e+01
<STATE> 4
<MEAN> 25
 4.036044e+00 -4.218312e+00 4.209880e+00 1.037407e+01 7.996428e+00 -6.247262e+00 -9.419474e+00 -3.331409e+00 -2.663913e+00 -2.918104e+00 -3.142705e+00 -4.376024e+00 3.821991e-02 8.336469e-01 -6.000085e-01 -1.181883e+00 -5.675405e-01 1.117856e+00 8.718380e-01 -2.187419e-01 -3.897155e-02 3.511441e-01 4.869802e-01 5.886047e-01 -5.325214e-01
<VARIANCE> 25
 1.972391e+01 3.227742e+01 4.309776e+01 5.167957e+01 5.495691e+01 6.691110e+01 3.850472e+01 4.351723e+01 4.154246e+01 3.556070e+01 3.517086e+01 2.803684e+01 6.999541e-01 1.390189e+00 1.663853e+00 1.824908e+00 1.964548e+00 2.784639e+00 2.501812e+00 2.236512e+00 2.341234e+00 2.148965e+00 1.947036e+00 1.699689e+00 1.056007e+00
<GCONST> 9.730878e+01
~t "T_i"
<ENDHMM>
~h "i-a"
<BEGINHMM>
<NUMSTATES> 5
<STATE> 2
<MEAN> 25
 8.084209e+00 -3.246555e+00 -4.886938e+00 -2.890126e+00 -1.922659e+00 -4.591505e+00 -1.062124e+00 -1.533606e+00 -3.011539e+00 -1.419097e+00 7.822737e-01 1.974153e+00 8.531939e-01 -1.219489e+00 -1.591901e+00 -1.511451e+00 -1.099942e+00 -1.081241e+00 3.296968e-01 2.435892e-01 2.131322e-01 7.433307e-01 1.096173e+00 1.076555e+00 1.531909e+00
<VARIANCE> 25
 3.102556e+01 3.982352e+01 4.648204e+01 6.052976e+01 4.865224e+01 5.364120e+01 4.957391e+01 5.206113e+01 4.994263e+01 4.377484e+01 3.566540e+01 3.010361e+01 2.105191e+00 2.133569e+00 2.607650e+00 3.361774e+00 2.917656e+00 3.954443e+00 3.398865e+00 3.319243e+00 3.668817e+00 4.076825e+00 3.093344e+00 2.673295e+00 1.675560e+00
<GCONST> 1.052759e+02
<STATE> 3
<MEAN> 25
 9.462610e+00 -6.897775e+00 -8.743549e+00 -6.083593e+00 -4.604442e+00 -5.470979e+00 1.397076e+00 -2.830499e-01 -1.629562e+00 7.007640e-01 2.659651e+00 3.340820e+00 3.290816e-02 -1.735238e-01 -3.625012e-01 -3.627358e-01 -1.769637e-01 2.254089e-01 4.766614e-01 2.827543e-01 2.371980e-01 1.767752e-01 8.445666e-02 6.974697e-02 8.193482e-02
<VARIANCE> 25
 2.840129e+01 3.570125e+01 4.138834e+01 4.038225e+01 4.118876e+01 4.148624e+01 4.739182e+01 4.747406e+01 4.473821e+01 4.189992e+01 3.449903e+01 2.805832e+01 3.302394e-01 8.424883e-01 9.393210e-01 1.242460e+00 1.324397e+00 1.496400e+00 1.901740e+00 1.780651e+00 1.803969e+00 1.726919e+00 1.430944e+00 1.179275e+00 3.783611e-01
<GCONST> 9.133002e+01
<STATE> 4
<MEAN> 25
 8.177530e+00 -2.680661e+00 -7.293503e+00 -5.932261e+00 -3.758124e+00 -2.794274e+00 1.176165e+00 -3.390664e-01 -1.368642e+00 2.573896e-01 2.133668e+00 3.287408e+00 -4.538044e-01 8.704351e-01 7.276899e-01 4.679444e-01 4.150407e-01 5.706517e-01 -1.937626e-01 -1.382255e-01 1.753797e-02 -1.629017e-01 -2.942949e-01 -3.140077e-01 -8.826797e-01
<VARIANCE> 25
 2.215926e+01 3.099335e+01 3.486272e+01 3.668752e+01 3.283007e+01 3.965223e+01 3.500597e+01 3.826480e+01 3.512437e+01 3.170736e+01 2.563973e+01 2.200531e+01 5.861269e-01 9.910762e-01 1.080531e+00 1.252255e+00 1.395680e+00 1.835312e+00 1.787168e+00 1.826652e+00 1.993582e+00 1.853269e+00 1.609923e+00 1.318195e+00 6.483233e-01
<GCONST> 9.086413e+01
~t "T_a"
<ENDHMM>
~h "i-e"
<BEGINHMM>
<NUMSTATES> 5
<STATE> 2
<MEAN> 25
 4.917822e+00 -3.046909e+00 -7.860230e-01 1.961976e+00 3.296882e+00 -3.095960e+00 -4.445966e+00 -4.378197e+00 -4.194638e+00 -1.446952e+00 1.146220e-01 1.648807e-01 1.062938e+00 -1.285595e+00 -6.981800e-01 4.423747e-01 5.001229e-01 -1.895295e+00 -1.787762e+00 -1.308817e+00 -1.084860e+00 1.344622e-01 6.617222e-01 3.701210e-01 1.670173e+00
<VARIANCE> 25
 3.577217e+01 3.706077e+01 4.774310e+01 6.015227e+01 4.925949e+01 6.036604e+01 5.010396e+01 4.977269e+01 4.858726e+01 3.950971e+01 3.013842e+01 2.473536e+01 2.384392e+00 2.958043e+00 2.685448e+00 3.858023e+00 3.340221e+00 5.064232e+00 4.063103e+00 3.681123e+00 4.037725e+00 4.174648e+00 3.332788e+00 2.898063e+00 2.226966e+00
<GCONST> 1.068105e+02
<STATE> 3
<MEAN> 25
 7.191195e+00 -7.001473e+00 -2.328277e+00 2.836691e+00 3.888689e+00 -7.911126e+00 -8.482172e+00 -6.657192e+00 -5.470276e+00 -1.285404e-01 1.987994e+00 7.147580e-01 8.514885e-02 -4.249433e-01 -1.496204e-01 2.818093e-01 1.203487e-01 -6.073316e-01 -4.420330e-01 -1.406531e-01 1.603031e-01 5.093133e-01 3.347531e-01 -4.041983e-02 2.952766e-01
<VARIANCE> 25
 2.837927e+01 3.550758e+01 4.376701e+01 6.339727e+01 5.782299e+01 6.153004e+01 4.445435e+01 4.665985e+01 4.438187e+01 4.603452e+01 3.686113e+01 3.249733e+01 5.579238e-01 9.633060e-01 1.396090e+00 1.826277e+00 1.583154e+00 2.003756e+00 1.982185e+00 1.856537e+00 2.013892e+00 2.006657e+00 1.751121e+00 1.508502e+00 5.828047e-01
<GCONST> 9.591582e+01
<STATE> 4
<MEAN> 25
 5.895019e+00 -4.724988e+00 -1.197292e+00 3.906052e+00 3.870449e+00 -6.545651e+00 -8.215060e+00 -6.679025e+00 -4.172563e+00 5.337154e-01 9.279272e-01 -6.742178e-01 -3.232698e-01 7.992764e-01 3.300467e-01 -6.339286e-02 7.912491e-02 1.004552e+00 6.088396e-01 3.772415e-01 3.436322e-01 -1.313366e-01 -2.720630e-01 -1.298955e-01 -7.956876e-01
<VARIANCE> 25
 2.029749e+01 3.066547e+01 3.368494e+01 5.057070e+01 4.296806e+01 5.593891e+01 3.659196e+01 3.710094e+01 4.034227e+01 3.575679e+01 3.262199e+01 2.925796e+01 5.569103e-01 1.011105e+00 1.171097e+00 1.448238e+00 1.440968e+00 2.011663e+00 1.814593e+00 1.739066e+00 1.905525e+00 1.867028e+00 1.539982e+00 1.274082e+00 7.538318e-01
<GCONST> 9.278246e+01
~t "T_e"
<ENDHMM>
~h "i-l"
<BEGINHMM>
<NUMSTATES> 5
<STATE> 2
<MEAN> 25
 6.314451e+00 -2.836339e+00 -2.415431e+00 2.781851e+00 1.947059e+00 -2.800302e+00 -2.661815e+00 -2.324516e+00 -3.876258e+00 -3.683601e+00 -1.570764e+00 7.563966e-02 3.129438e-01 4.277349e-01 7.984434e-01 1.918523e+00 1.017305e+00 4.531452e-01 -1.293264e-01 2.709396e-01 -7.299022e-01 -1.606042e+00 -1.354267e+00 -7.730924e-01 -6.160657e-01
<VARIANCE> 25
 3.768519e+01 4.112976e+01 4.717404e+01 6.522243e+01 4.798243e+01 5.569359e+01 4.089912e+01 4.426613e+01 5.019736e+01 4.535135e+01 3.915966e+01 3.028901e+01 1.699836e+00 1.977105e+00 2.316171e+00 3.031282e+00 2.905935e+00 4.508301e+00 3.719640e+00 4.100824e+00 4.742221e+00 3.786747e+00 3.138241e+00 2.508972e+00 2.132987e+00
<GCONST> 1.056931e+02
<STATE> 3
<MEAN> 25
 7.308776e+00 -2.116291e+00 -5.915496e-01 8.047751e+00 4.512689e+00 -2.649817e+00 -3.380396e+00 -8.267048e-01 -5.005058e+00 -7.383716e+00 -4.765788e+00 -2.091391e+00 -2.042886e-01 4.120783e-01 5.339515e-01 7.017787e-01 3.444184e-01 2.565898e-01 1.210279e-01 4.571145e-01 1.694299e-01 -4.738842e-01 -6.538218e-01 -4.505804e-01 -4.639952e-01
<VARIANCE> 25
 2.202492e+01 3.481960e+01 3.887338e+01 6.391379e+01 4.331805e+01 4.796937e+01 4.158508e+01 4.477020e+01 4.591209e+01 3.888554e+01 3.268353e+01 2.532600e+01 8.968565e-01 1.265179e+00 1.520058e+00 2.136260e+00 1.615692e+00 2.971242e+00 2.029787e+00 2.106359e+00 2.521566e+00 2.456026e+00 1.921850e+00 1.679168e+00 9.447469e-01
<GCONST> 9.704557e+01
<STATE> 4
<MEAN> 25
 5.966500e+00 -3.820904e-01 3.151454e-01 7.105481e+00 4.340966e+00 -1.720254e+00 -3.097861e+00 -7.825651e-01 -3.803820e+00 -6.722578e+00 -5.169729e+00 -2.231982e+00 -1.248948e-01 3.641126e-02 -1.620759e-01 -8.538845e-01 -4.337227e-01 -1.165125e-01 1.175181e-01 -1.721042e-01 8.785849e-02 4.827425e-01 5.441091e-01 3.938914e-01 1.508765e-01
<VARIANCE> 25
 2.100273e+01 3.151579e+01 3.614806e+01 5.096074e+01 3.741170e+01 4.566805e+01 3.924998e+01 3.931923e+01 4.211623e+01 3.813666e+01 3.033226e+01 2.373476e+01 8.690925e-01 1.079303e+00 1.530230e+00 2.250370e+00 1.643832e+00 2.437176e+00 1.802907e+00 2.009850e+00 2.136790e+00 2.217616e+00 1.925478e+00 1.643911e+00 9.747648e-01
<GCONST> 9.523684e+01
~t "T_l"
<ENDHMM>
~h "i-n"
<BEGINHMM>
<NUMSTATES> 5
<STATE> 2
<MEAN> 25
 7.169885e+00 3.457295e-01 -9.706034e-01 1.822969e+00 2.203207e+00 -1.710077e+00 -1.541217e+00 -6.925409e-01 -3.499932e+00 -2.178467e+00 -7.829415e-01 -1.847775e+00 -1.776564e-01 1.685531e+00 6.899630e-01 1.139801e+00 6.890932e-01 2.057916e+00 4.165332e-01 -6.090450e-01 -1.683788e-01 -9.237592e-02 -7.342267e-01 -1.250047e+00 -1.560356e+00
<VARIANCE> 25
 2.165102e+01 3.528417e+01 4.496836e+01 6.788055e+01 4.849240e+01 5.297578e+01 4.589392e+01 4.388946e+01 4.575230e+01 3.900736e+01 3.414560e+01 3.704768e+01 9.116951e-01 1.700086e+00 1.786228e+00 4.035296e+00 3.243808e+00 3.321929e+00 3.851503e+00 3.338852e+00 3.444288e+00 2.962204e+00 2.780899e+00 2.558904e+00 1.011466e+00
<GCONST> 1.023394e+02
<STATE> 3
<MEAN> 25
 6.451331e+00 3.805457e+00 7.997720e-01 4.104099e+00 3.209973e+00 1.771652e+00 -1.687927e+00 -2.346424e+00 -2.799612e+00 -1.867672e+00 -2.654003e+00 -4.671466e+00 -4.288488e-01 8.661700e-01 6.104125e-01 6.183404e-01 3.940374e-01 1.045232e+00 2.131816e-01 -3.304687e-01 1.941549e-01 1.693209e-01 -3.405662e-01 -4.656930e-01 -8.459170e-01
<VARIANCE> 25
 1.605801e+01 2.327610e+01 3.427949e+01 4.943877e+01 3.551352e+01 4.001220e+01 3.662941e+01 3.266262e+01 4.372853e+01 3.314529e+01 2.653506e+01 2.688600e+01 4.240589e-01 7.692712e-01 1.020777e+00 1.824027e+00 1.598796e+00 1.636005e+00 1.955104e+00 1.795479e+00 2.067024e+00 1.608387e+00 1.611071e+00 1.827414e+00 4.028325e-01
<GCONST> 9.059154e+01
<STATE> 4
<MEAN> 25
 3.843240e+00 4.976631e+00 2.044346e+00 4.405276e+00 3.430595e+00 3.177998e+00 -7.137617e-01 -1.420924e+00 -8.184713e-01 -5.259312e-01 -2.154598e+00 -3.488309e+00 -4.377143e-01 -2.375585e-02 4.742600e-02 -6.740690e-02 -9.708463e-02 1.467522e-01 2.977267e-01 2.026634e-01 7.117245e-02 2.588364e-02 1.424470e-01 2.484765e-01 -3.065790e-01
<VARIANCE> 25
 1.843643e+01 1.784051e+01 2.607419e+01 3.130790e+01 2.558590e+01 2.868715e+01 2.686604e+01 2.596465e+01 3.096772e+01 2.389989e+01 1.980139e+01 1.923713e+01 4.635847e-01 5.872605e-01 8.780912e-01 9.187444e-01 9.726738e-01 1.154603e+00 1.138327e+00 1.124501e+00 1.193445e+00 1.121723e+00 1.058525e+00 1.099325e+00 4.008314e-01
<GCONST> 8.251925e+01
~t "T_n"
<ENDHMM>
~h "i-o"
<BEGINHMM>
<NUMSTATES> 5
<STATE> 2
<MEAN> 25
 8.202134e+00 8.756948e-01 -1.556870e+00 -2.412576e+00 -4.135490e+00 -5.283045e+00 -1.325630e+00 5.514442e-01 -3.256593e+00 -4.464030e+00 -3.179199e+00 -1.018459e+00 8.533680e-01 5.628624e-02 -4.272498e-01 -1.163086e+00 -1.742013e+00 -1.833407e+00 -1.006363e-01 8.327968e-01 2.565329e-01 -1.784475e-01 -2.551433e-01 1.000556e-01 7.841955e-01
<VARIANCE> 25
 2.727819e+01 4.614404e+01 4.546624e+01 5.624189e+01 6.257309e+01 6.102062e+01 4.518742e+01 4.939813e+01 5.469617e+01 4.219932e+01 3.056493e+01 2.847985e+01 1.604221e+00 2.714622e+00 2.414845e+00 3.306103e+00 3.399673e+00 4.293542e+00 4.410888e+00 3.910635e+00 3.812121e+00 3.509329e+00 2.851977e+00 2.694980e+00 1.552250e+00
<GCONST> 1.055529e+02
<STATE> 3
<MEAN> 25
 9.608891e+00 1.841884e+00 -1.624231e+00 -4.843653e+00 -1.056682e+01 -1.047259e+01 -3.275502e-01 4.228262e+00 -8.981493e-01 -3.707518e+00 -3.771726e+00 -1.847208e+00 -1.603226e-01 3.746803e-01 2.492852e-02 -5.283350e-02 -1.316152e-01 2.060792e-01 2.320018e-01 3.473101e-01 4.636069e-01 2.421327e-01 -1.011645e-03 -9.001540e-02 -4.208844e-01
<VARIANCE> 25
 2.191664e+01 3.832346e+01 3.536129e+01 4.552036e+01 5.146196e+01 5.402416e+01 4.532333e+01 4.316967e+01 5.194213e+01 3.791486e+01 2.724122e+01 2.477335e+01 5.759985e-01 1.296905e+00 1.329783e+00 1.436117e+00 2.015944e+00 2.854960e+00 1.984985e+00 2.227589e+00 2.343580e+00 2.045362e+00 1.638120e+00 1.449960e+00 1.066268e+00
<GCONST> 9.576168e+01
<STATE> 4
<MEAN> 25
 5.920141e+00 4.729104e+00 -6.619071e-01 -3.592440e+00 -6.668617e+00 -4.437122e+00 3.776827e-01 3.175261e+00 9.050462e-01 -1.454790e+00 -2.326509e+00 -1.249121e+00 -6.257654e-01 -3.906129e-02 1.678127e-01 4.218079e-01 7.039407e-01 9.980335e-01 2.885799e-01 -2.038472e-01 -1.773957e-02 1.877047e-01 2.155907e-01 8.154663e-02 -5.345345e-01
<VARIANCE> 25
 2.381943e+01 3.168683e+01 3.073319e+01 3.372535e+01 3.205265e+01 4.222814e+01 3.201194e+01 3.300840e+01 3.498757e+01 3.150789e+01 2.243595e+01 1.901501e+01 4.852379e-01 7.335701e-01 1.011674e+00 1.084659e+00 1.496157e+00 1.967000e+00 1.648281e+00 1.688958e+00 1.686677e+00 1.518985e+00 1.305284e+00 1.193857e+00 3.831035e-01
<GCONST> 8.833953e+01
~t "T_o"
<ENDHMM>
~h "i-r"
<BEGINHMM>
<NUMSTATES> 5
<STATE> 2
<MEAN> 25
 8.643217e+00 -2.787229e+00 -6.224000e+00 -3.124852e+00 1.355937e+00 -3.755785e+00 -4.512966e+00 -3.933424e+00 -2.882520e+00 -2.216112e+00 -7.354643e-01 1.580987e+00 1.561792e-01 8.974332e-01 -3.782570e-01 5.168830e-01 1.252811e+00 1.208448e+00 -3.267309e-01 -2.546778e-01 -2.021774e-01 -5.815746e-01 -5.138835e-01 -2.330100e-02 -1.076871e+00
<VARIANCE> 25
 3.211975e+01 4.498290e+01 5.062462e+01 5.935705e+01 5.828969e+01 5.106108e+01 4.451467e+01 4.801496e+01 4.760433e+01 4.023750e+01 3.850442e+01 3.225385e+01 1.654517e+00 2.112823e+00 2.382579e+00 2.979533e+00 3.407424e+00 4.447104e+00 3.988335e+00 3.638894e+00 3.461148e+00 2.960581e+00 2.838124e+00 2.399935e+00 1.986631e+00
<GCONST> 1.051154e+02
<STATE> 3
<MEAN> 25
 7.898341e+00 6.769122e-01 -5.980435e+00 -1.402799e+00 3.525082e+00 4.491480e-01 -3.918551e+00 -3.587373e+00 -2.649347e+00 -2.842372e+00 -1.689278e+00 1.021962e+00 -7.756338e-01 7.563383e-01 5.502752e-01 8.270113e-01 2.798240e-01 1.325491e+00 7.032835e-01 3.596233e-01 3.082208e-01 -5.154090e-03 -2.048264e-01 -3.199293e-01 -1.361292e+00
<VARIANCE> 25
 2.876068e+01 3.251756e+01 4.847742e+01 5.875251e+01 4.849226e+01 4.357820e+01 4.282160e+01 3.805943e+01 3.575104e+01 3.216047e+01 2.785275e+01 2.531534e+01 1.549412e+00 2.112714e+00 2.763809e+00 3.039823e+00 3.358799e+00 3.590118e+00 3.448425e+00 3.136224e+00 3.408474e+00 2.967985e+00 2.623605e+00 2.237263e+00 1.636310e+00
<GCONST> 1.021613e+02
<STATE> 4
<MEAN> 25
 5.412677e+00 1.833103e+00 -4.028427e+00 -5.085419e-01 2.267809e+00 2.085018e+00 -1.665371e+00 -2.343382e+00 -1.808912e+00 -2.284674e+00 -1.413052e+00 3.313459e-01 -4.867756e-01 -6.988044e-02 4.821670e-01 3.639740e-01 -2.038538e-01 -1.353530e-01 2.935330e-01 3.202356e-01 4.707072e-02 1.700878e-01 1.382703e-01 -1.182176e-01 -2.790100e-01
<VARIANCE> 25
 2.738630e+01 3.117259e+01 4.332304e+01 4.824800e+01 3.927319e+01 3.631243e+01 3.395251e+01 3.381007e+01 3.105561e+01 2.732073e+01 2.547030e+01 2.190276e+01 1.094292e+00 1.505075e+00 2.021805e+00 2.286807e+00 2.216540e+00 2.356158e+00 2.429886e+00 2.174607e+00 2.300617e+00 2.008530e+00 1.813168e+00 1.681972e+00 1.042680e+00
<GCONST> 9.575272e+01
~t "T_r"
<ENDHMM>
~h "i-s"
<BEGINHMM>
<NUMSTATES> 5
<STATE> 2
<MEAN> 25
 -2.672227e+00 -3.270423e+00 1.004953e+01 -4.440532e+00 1.809237e-01 1.463706e+00 2.479738e+00 -8.504221e-01 -6.740083e-01 7.527752e-01 2.025366e-01 -1.215088e-01 -2.952475e+00 -1.081467e+00 2.472686e+00 -1.170398e+00 1.552520e-01 9.225060e-01 1.190610e+00 1.466946e-02 5.599615e-01 4.710526e-01 5.590721e-01 2.782978e-01 2.598815e-01
<VARIANCE> 25
 6.090248e+01 4.096783e+01 9.645750e+01 7.985217e+01 7.116714e+01 6.051644e+01 6.688841e+01 7.043929e+01 5.318323e+01 4.527814e+01 3.572353e+01 2.664364e+01 3.096100e+00 3.809794e+00 4.041855e+00 4.010174e+00 3.633645e+00 4.631847e+00 3.728845e+00 3.332037e+00 3.740141e+00 3.394577e+00 2.906559e+00 2.198195e+00 1.359681e+00
<GCONST> 1.094882e+02
<STATE> 3
<MEAN> 25
 -1.388278e+01 -7.547144e+00 1.724523e+01 -1.016027e+01 5.564176e-01 9.960555e-01 5.586256e+00 -1.188120e+00 5.186584e-01 1.813791e+00 1.467571e+00 5.005577e-01 -2.925702e-01 -1.122364e-01 -2.537486e-01 7.632152e-02 -1.322451e-02 7.181087e-02 4.822661e-02 6.459653e-02 8.100856e-02 3.569933e-02 1.088791e-01 9.543600e-02 -2.908385e-01
<VARIANCE> 25
 7.703424e+01 8.092426e+01 1.181283e+02 1.229016e+02 1.058419e+02 8.350800e+01 7.997587e+01 8.339116e+01 7.095995e+01 5.324371e+01 4.210551e+01 2.871686e+01 2.398076e+00 1.604921e+00 2.021634e+00 2.360392e+00 1.573115e+00 1.834233e+00 1.877151e+00 1.805621e+00 1.722814e+00 1.544063e+00 1.343992e+00 1.183776e+00 8.760858e-01
<GCONST> 1.039959e+02
<STATE> 4
<MEAN> 25
 -6.362659e+00 -4.423155e+00 9.820220e+00 -4.903218e+00 -3.681852e-01 2.570100e+00 3.167925e+00 -5.793936e-01 -8.759587e-02 1.059100e+00 1.291414e+00 8.679242e-01 2.306367e+00 1.451382e+00 -1.806829e+00 1.135726e+00 -1.512867e-01 -5.723754e-03 -1.025580e+00 -6.012088e-02 -4.432604e-01 -4.086378e-01 -5.183563e-01 -1.828476e-01 -1.028221e+00
<VARIANCE> 25
 5.843802e+01 5.417876e+01 7.380061e+01 6.748988e+01 5.934891e+01 5.204456e+01 5.172548e+01 5.419441e+01 4.946672e+01 4.243489e+01 3.060479e+01 2.467298e+01 5.810026e+00 3.654878e+00 3.590863e+00 3.486390e+00 3.299611e+00 3.667934e+00 3.647548e+00 3.210599e+00 3.578302e+00 3.155891e+00 2.695603e+00 2.113597e+00 1.871167e+00
<GCONST> 1.080983e+02
~t "T_s"
<ENDHMM>
~h "i-t"
<BEGINHMM>
<NUMSTATES> 5
<STATE> 2
<MEAN> 25
 -1.105155e+00 3.531708e+00 3.428654e-04 2.035812e+00 1.206108e-01 3.856581e+00 4.077179e-01 -5.965847e-01 8.127027e-01 7.627032e-01 3.199013e-01 6.893349e-02 -6.225701e-01 -2.968751e-01 -4.327019e-01 -2.591668e-01 -4.670320e-01 5.148919e-02 2.475624e-01 2.473967e-01 4.056443e-01 2.193291e-01 2.135402e-01 2.370846e-01 -4.553078e-01
<VARIANCE> 25
 1.757349e+01 1.922104e+01 3.467615e+01 3.267662e+01 2.919297e+01 2.473142e+01 2.491181e+01 2.517140e+01 2.366685e+01 1.964377e+01 1.771473e+01 1.668316e+01 8.811969e-01 1.897543e+00 1.485499e+00 1.704934e+00 1.593071e+00 1.769392e+00 1.715915e+00 1.659040e+00 1.614757e+00 1.490305e+00 1.287322e+00 1.257182e+00 1.985336e+00
<GCONST> 8.922695e+01
<STATE> 3
<MEAN> 25
 -2.661848e+00 -1.497703e+00 5.282218e-02 -3.497691e-01 -1.323973e+00 2.477841e+00 1.625346e+00 -2.516246e-01 1.776590e+00 1.439802e+00 5.119318e-01 3.112603e-01 3.591390e-01 -2.639185e+00 1.089064e+00 -1.295514e+00 3.863864e-02 -1.159161e+00 1.705076e-01 -5.860544e-01 -5.879141e-01 -1.566525e-01 -8.659262e-03 1.297800e-01 3.161201e+00
<VARIANCE> 25
 2.167913e+01 5.237593e+01 4.070385e+01 5.008830e+01 3.684749e+01 3.489187e+01 3.228013e+01 3.020567e+01 2.734658e+01 2.465602e+01 2.112542e+01 1.802548e+01 2.104158e+00 3.082623e+00 3.689658e+00 4.205109e+00 3.861122e+00 3.443296e+00 3.636282e+00 3.397777e+00 3.384237e+00 2.689384e+00 2.275631e+00 2.211970e+00 2.531482e+00
<GCONST> 1.015656e+02
<STATE> 4
<MEAN> 25
 6.725208e-02 -5.150090e+00 3.443682e+00 -2.513680e+00 -2.271353e-01 -2.479110e-01 1.068287e+00 -2.403555e+00 -1.349449e+00 3.935923e-02 2.190253e-01 7.620124e-01 2.674966e+00 -7.274120e-02 -3.204739e-01 3.668221e-01 1.818312e-01 -1.773539e+00 -1.494750e+00 -9.235156e-01 -1.947002e+00 -1.262686e+00 -4.662289e-01 5.305367e-02 2.229213e+00
<VARIANCE> 25
 3.678450e+01 4.006910e+01 4.787255e+01 5.576718e+01 5.168572e+01 4.239035e+01 4.381770e+01 4.481693e+01 4.380044e+01 3.419241e+01 2.507265e+01 1.988425e+01 2.029730e+00 4.721550e+00 4.108329e+00 5.850153e+00 5.617827e+00 4.736856e+00 4.321757e+00 4.812273e+00 4.380567e+00 4.659930e+00 3.916073e+00 3.285652e+00 3.656609e+00
<GCONST> 1.085535e+02
~t "T_t"
<ENDHMM>
~h "rr-i+b"
<BEGINHMM>
<NUMSTATES> 5
<STATE> 2
<MEAN> 25
 2.824880e+00 -2.961581e+00 4.292364e+00 7.499251e+00 7.346193e+00 -2.067250e+00 -5.297520e+00 -2.873806e+00 -2.378581e+00 -1.973293e+00 -2.520489e+00 -3.736685e+00 1.015099e+00 -9.724852e-01 2.479329e-01 2.179622e+00 1.426837e+00 -2.128228e+00 -2.309814e+00 -3.848035e-01 -7.270547e-01 -7.560874e-01 -6.794949e-01 -8.365397e-01 1.175898e+00
<VARIANCE> 25
 3.374600e+01 3.967356e+01 6.750194e+01 6.375350e+01 5.781096e+01 6.437442e+01 4.980933e+01 4.415491e+01 4.445846e+01 3.540117e+01 3.356274e+01 2.704606e+01 3.132528e+00 4.137255e+00 3.621446e+00 4.487921e+00 4.215056e+00 5.312013e+00 4.005538e+00 3.824685e+00 4.409300e+00 4.209664e+00 3.923692e+00 2.984154e+00 1.617640e+00
<GCONST> 1.086541e+02
<STATE> 3
<MEAN> 25
 3.691633e+00 -6.378765e+00 6.166086e+00 1.236009e+01 7.380941e+00 -9.047977e+00 -9.580333e+00 -1.629763e+00 -3.102339e+00 -4.599288e+00 -4.548250e+00 -5.048493e+00 8.359629e-02 -2.991736e-01 1.296623e-01 4.305927e-01 9.667514e-03 -8.290642e-01 -5.818837e-01 1.603395e-01 8.957740e-02 -1.876646e-01 -1.591199e-01 -1.092843e-01 2.681427e-01
<VARIANCE> 25
 2.149308e+01 3.103732e+01 4.970968e+01 5.873264e+01 7.158559e+01 6.920425e+01 3.966159e+01 4.495304e+01 4.204121e+01 4.275245e+01 4.102441e+01 2.954641e+01 6.639252e-01 9.264812e-01 1.883231e+00 1.858640e+00 1.558079e+00 2.146437e+00 1.929194e+00 2.097977e+00 1.840118e+00 1.884095e+00 1.595546e+00 1.333590e+00 5.259222e-01
<GCONST> 9.574519e+01
<STATE> 4
<MEAN> 25
 4.036044e+00 -4.218312e+00 4.209880e+00 1.037407e+01 7.996428e+00 -6.247262e+00 -9.419474e+00 -3.331409e+00 -2.663913e+00 -2.918104e+00 -3.142705e+00 -4.376024e+00 3.821991e-02 8.336469e-01 -6.000085e-01 -1.181883e+00 -5.675405e-01 1.117856e+00 8.718380e-01 -2.187419e-01 -3.897155e-02 3.511441e-01 4.869802e-01 5.886047e-01 -5.325214e-01
<VARIANCE> 25
 1.972391e+01 3.227742e+01 4.309776e+01 5.167957e+01 5.495691e+01 6.691110e+01 3.850472e+01 4.351723e+01 4.154246e+01 3.556070e+01 3.517086e+01 2.803684e+01 6.999541e-01 1.390189e+00 1.663853e+00 1.824908e+00 1.964548e+00 2.784639e+00 2.501812e+00 2.236512e+00 2.341234e+00 2.148965e+00 1.947036e+00 1.699689e+00 1.056007e+00
<GCONST> 9.730878e+01
~t "T_i"
<ENDHMM>
~h "rr-i+e"
<BEGINHMM>
<NUMSTATES> 5
<STATE> 2
<MEAN> 25
 2.824880e+00 -2.961581e+00 4.292364e+00 7.499251e+00 7.346193e+00 -2.067250e+00 -5.297520e+00 -2.873806e+00 -2.378581e+00 -1.973293e+00 -2.520489e+00 -3.736685e+00 1.015099e+00 -9.724852e-01 2.479329e-01 2.179622e+00 1.426837e+00 -2.128228e+00 -2.309814e+00 -3.848035e-01 -7.270547e-01 -7.560874e-01 -6.794949e-01 -8.365397e-01 1.175898e+00
<VARIANCE> 25
 3.374600e+01 3.967356e+01 6.750194e+01 6.375350e+01 5.781096e+01 6.437442e+01 4.980933e+01 4.415491e+01 4.445846e+01 3.540117e+01 3.356274e+01 2.704606e+01 3.132528e+00 4.137255e+00 3.621446e+00 4.487921e+00 4.215056e+00 5.312013e+00 4.005538e+00 3.824685e+00 4.409300e+00 4.209664e+00 3.923692e+00 2.984154e+00 1.617640e+00
<GCONST> 1.086541e+02
<STATE> 3
<MEAN> 25
 3.691633e+00 -6.378765e+00 6.166086e+00 1.236009e+01 7.380941e+00 -9.047977e+00 -9.580333e+00 -1.629763e+00 -3.102339e+00 -4.599288e+00 -4.548250e+00 -5.048493e+00 8.359629e-02 -2.991736e-01 1.296623e-01 4.305927e-01 9.667514e-03 -8.290642e-01 -5.818837e-01 1.603395e-01 8.957740e-02 -1.876646e-01 -1.591199e-01 -1.092843e-01 2.681427e-01
<VARIANCE> 25
 2.149308e+01 3.103732e+01 4.970968e+01 5.873264e+01 7.158559e+01 6.920425e+01 3.966159e+01 4.495304e+01 4.204121e+01 4.275245e+01 4.102441e+01 2.954641e+01 6.639252e-01 9.264812e-01 1.883231e+00 1.858640e+00 1.558079e+00 2.146437e+00 1.929194e+00 2.097977e+00 1.840118e+00 1.884095e+00 1.595546e+00 1.333590e+00 5.259222e-01
<GCONST> 9.574519e+01
<STATE> 4
<MEAN> 25
 4.036044e+00 -4.218312e+00 4.209880e+00 1.037407e+01 7.996428e+00 -6.247262e+00 -9.419474e+00 -3.331409e+00 -2.663913e+00 -2.918104e+00 -3.142705e+00 -4.376024e+00 3.821991e-02 8.336469e-01 -6.000085e-01 -1.181883e+00 -5.675405e-01 1.117856e+00 8.718380e-01 -2.187419e-01 -3.897155e-02 3.511441e-01 4.869802e-01 5.886047e-01 -5.325214e-01
<VARIANCE> 25
 1.972391e+01 3.227742e+01 4.309776e+01 5.167957e+01 5.495691e+01 6.691110e+01 3.850472e+01 4.351723e+01 4.154246e+01 3.556070e+01 3.517086e+01 2.803684e+01 6.999541e-01 1.390189e+00 1.663853e+00 1.824908e+00 1.964548e+00 2.784639e+00 2.501812e+00 2.236512e+00 2.341234e+00 2.148965e+00 1.947036e+00 1.699689e+00 1.056007e+00
<GCONST> 9.730878e+01
~t "T_i"
<ENDHMM>
~h "rr-i+s"
<BEGINHMM>
<NUMSTATES> 5
<STATE> 2
<MEAN> 25
 2.824880e+00 -2.961581e+00 4.292364e+00 7.499251e+00 7.346193e+00 -2.067250e+00 -5.297520e+00 -2.873806e+00 -2.378581e+00 -1.973293e+00 -2.520489e+00 -3.736685e+00 1.015099e+00 -9.724852e-01 2.479329e-01 2.179622e+00 1.426837e+00 -2.128228e+00 -2.309814e+00 -3.848035e-01 -7.270547e-01 -7.560874e-01 -6.794949e-01 -8.365397e-01 1.175898e+00
<VARIANCE> 25
 3.374600e+01 3.967356e+01 6.750194e+01 6.375350e+01 5.781096e+01 6.437442e+01 4.980933e+01 4.415491e+01 4.445846e+01 3.540117e+01 3.356274e+01 2.704606e+01 3.132528e+00 4.137255e+00 3.621446e+00 4.487921e+00 4.215056e+00 5.312013e+00 4.005538e+00 3.824685e+00 4.409300e+00 4.209664e+00 3.923692e+00 2.984154e+00 1.617640e+00
<GCONST> 1.086541e+02
<STATE> 3
<MEAN> 25
 3.691633e+00 -6.378765e+00 6.166086e+00 1.236009e+01 7.380941e+00 -9.047977e+00 -9.580333e+00 -1.629763e+00 -3.102339e+00 -4.599288e+00 -4.548250e+00 -5.048493e+00 8.359629e-02 -2.991736e-01 1.296623e-01 4.305927e-01 9.667514e-03 -8.290642e-01 -5.818837e-01 1.603395e-01 8.957740e-02 -1.876646e-01 -1.591199e-01 -1.092843e-01 2.681427e-01
<VARIANCE> 25
 2.149308e+01 3.103732e+01 4.970968e+01 5.873264e+01 7.158559e+01 6.920425e+01 3.966159e+01 4.495304e+01 4.204121e+01 4.275245e+01 4.102441e+01 2.954641e+01 6.639252e-01 9.264812e-01 1.883231e+00 1.858640e+00 1.558079e+00 2.146437e+00 1.929194e+00 2.097977e+00 1.840118e+00 1.884095e+00 1.595546e+00 1.333590e+00 5.259222e-01
<GCONST> 9.574519e+01
<STATE> 4
<MEAN> 25
 4.036044e+00 -4.218312e+00 4.209880e+00 1.037407e+01 7.996428e+00 -6.247262e+00 -9.419474e+00 -3.331409e+00 -2.663913e+00 -2.918104e+00 -3.142705e+00 -4.376024e+00 3.821991e-02 8.336469e-01 -6.000085e-01 -1.181883e+00 -5.675405e-01 1.117856e+00 8.718380e-01 -2.187419e-01 -3.897155e-02 3.511441e-01 4.869802e-01 5.886047e-01 -5.325214e-01
<VARIANCE> 25
 1.972391e+01 3.227742e+01 4.309776e+01 5.167957e+01 5.495691e+01 6.691110e+01 3.850472e+01 4.351723e+01 4.154246e+01 3.556070e+01 3.517086e+01 2.803684e+01 6.999541e-01 1.390189e+00 1.663853e+00 1.824908e+00 1.964548e+00 2.784639e+00 2.501812e+00 2.236512e+00 2.341234e+00 2.148965e+00 1.947036e+00 1.699689e+00 1.056007e+00
<GCONST> 9.730878e+01
~t "T_i"
<ENDHMM>
~h "rr-i+t"
<BEGINHMM>
<NUMSTATES> 5
<STATE> 2
<MEAN> 25
 2.824880e+00 -2.961581e+00 4.292364e+00 7.499251e+00 7.346193e+00 -2.067250e+00 -5.297520e+00 -2.873806e+00 -2.378581e+00 -1.973293e+00 -2.520489e+00 -3.736685e+00 1.015099e+00 -9.724852e-01 2.479329e-01 2.179622e+00 1.426837e+00 -2.128228e+00 -2.309814e+00 -3.848035e-01 -7.270547e-01 -7.560874e-01 -6.794949e-01 -8.365397e-01 1.175898e+00
<VARIANCE> 25
 3.374600e+01 3.967356e+01 6.750194e+01 6.375350e+01 5.781096e+01 6.437442e+01 4.980933e+01 4.415491e+01 4.445846e+01 3.540117e+01 3.356274e+01 2.704606e+01 3.132528e+00 4.137255e+00 3.621446e+00 4.487921e+00 4.215056e+00 5.312013e+00 4.005538e+00 3.824685e+00 4.409300e+00 4.209664e+00 3.923692e+00 2.984154e+00 1.617640e+00
<GCONST> 1.086541e+02
<STATE> 3
<MEAN> 25
 3.691633e+00 -6.378765e+00 6.166086e+00 1.236009e+01 7.380941e+00 -9.047977e+00 -9.580333e+00 -1.629763e+00 -3.102339e+00 -4.599288e+00 -4.548250e+00 -5.048493e+00 8.359629e-02 -2.991736e-01 1.296623e-01 4.305927e-01 9.667514e-03 -8.290642e-01 -5.818837e-01 1.603395e-01 8.957740e-02 -1.876646e-01 -1.591199e-01 -1.092843e-01 2.681427e-01
<VARIANCE> 25
 2.149308e+01 3.103732e+01 4.970968e+01 5.873264e+01 7.158559e+01 6.920425e+01 3.966159e+01 4.495304e+01 4.204121e+01 4.275245e+01 4.102441e+01 2.954641e+01 6.639252e-01 9.264812e-01 1.883231e+00 1.858640e+00 1.558079e+00 2.146437e+00 1.929194e+00 2.097977e+00 1.840118e+00 1.884095e+00 1.595546e+00 1.333590e+00 5.259222e-01
<GCONST> 9.574519e+01
<STATE> 4
<MEAN> 25
 4.036044e+00 -4.218312e+00 4.209880e+00 1.037407e+01 7.996428e+00 -6.247262e+00 -9.419474e+00 -3.331409e+00 -2.663913e+00 -2.918104e+00 -3.142705e+00 -4.376024e+00 3.821991e-02 8.336469e-01 -6.000085e-01 -1.181883e+00 -5.675405e-01 1.117856e+00 8.718380e-01 -2.187419e-01 -3.897155e-02 3.511441e-01 4.869802e-01 5.886047e-01 -5.325214e-01
<VARIANCE> 25
 1.972391e+01 3.227742e+01 4.309776e+01 5.167957e+01 5.495691e+01 6.691110e+01 3.850472e+01 4.351723e+01 4.154246e+01 3.556070e+01 3.517086e+01 2.803684e+01 6.999541e-01 1.390189e+00 1.663853e+00 1.824908e+00 1.964548e+00 2.784639e+00 2.501812e+00 2.236512e+00 2.341234e+00 2.148965e+00 1.947036e+00 1.699689e+00 1.056007e+00
<GCONST> 9.730878e+01
~t "T_i"
<ENDHMM>
~h "rr-i+x"
<BEGINHMM>
<NUMSTATES> 5
<STATE> 2
<MEAN> 25
 2.824880e+00 -2.961581e+00 4.292364e+00 7.499251e+00 7.346193e+00 -2.067250e+00 -5.297520e+00 -2.873806e+00 -2.378581e+00 -1.973293e+00 -2.520489e+00 -3.736685e+00 1.015099e+00 -9.724852e-01 2.479329e-01 2.179622e+00 1.426837e+00 -2.128228e+00 -2.309814e+00 -3.848035e-01 -7.270547e-01 -7.560874e-01 -6.794949e-01 -8.365397e-01 1.175898e+00
<VARIANCE> 25
 3.374600e+01 3.967356e+01 6.750194e+01 6.375350e+01 5.781096e+01 6.437442e+01 4.980933e+01 4.415491e+01 4.445846e+01 3.540117e+01 3.356274e+01 2.704606e+01 3.132528e+00 4.137255e+00 3.621446e+00 4.487921e+00 4.215056e+00 5.312013e+00 4.005538e+00 3.824685e+00 4.409300e+00 4.209664e+00 3.923692e+00 2.984154e+00 1.617640e+00
<GCONST> 1.086541e+02
<STATE> 3
<MEAN> 25
 3.691633e+00 -6.378765e+00 6.166086e+00 1.236009e+01 7.380941e+00 -9.047977e+00 -9.580333e+00 -1.629763e+00 -3.102339e+00 -4.599288e+00 -4.548250e+00 -5.048493e+00 8.359629e-02 -2.991736e-01 1.296623e-01 4.305927e-01 9.667514e-03 -8.290642e-01 -5.818837e-01 1.603395e-01 8.957740e-02 -1.876646e-01 -1.591199e-01 -1.092843e-01 2.681427e-01
<VARIANCE> 25
 2.149308e+01 3.103732e+01 4.970968e+01 5.873264e+01 7.158559e+01 6.920425e+01 3.966159e+01 4.495304e+01 4.204121e+01 4.275245e+01 4.102441e+01 2.954641e+01 6.639252e-01 9.264812e-01 1.883231e+00 1.858640e+00 1.558079e+00 2.146437e+00 1.929194e+00 2.097977e+00 1.840118e+00 1.884095e+00 1.595546e+00 1.333590e+00 5.259222e-01
<GCONST> 9.574519e+01
<STATE> 4
<MEAN> 25
 4.036044e+00 -4.218312e+00 4.209880e+00 1.037407e+01 7.996428e+00 -6.247262e+00 -9.419474e+00 -3.331409e+00 -2.663913e+00 -2.918104e+00 -3.142705e+00 -4.376024e+00 3.821991e-02 8.336469e-01 -6.000085e-01 -1.181883e+00 -5.675405e-01 1.117856e+00 8.718380e-01 -2.187419e-01 -3.897155e-02 3.511441e-01 4.869802e-01 5.886047e-01 -5.325214e-01
<VARIANCE> 25
 1.972391e+01 3.227742e+01 4.309776e+01 5.167957e+01 5.495691e+01 6.691110e+01 3.850472e+01 4.351723e+01 4.154246e+01 3.556070e+01 3.517086e+01 2.803684e+01 6.999541e-01 1.390189e+00 1.663853e+00 1.824908e+00 1.964548e+00 2.784639e+00 2.501812e+00 2.236512e+00 2.341234e+00 2.148965e+00 1.947036e+00 1.699689e+00 1.056007e+00
<GCONST> 9.730878e+01
~t "T_i"
<ENDHMM>
~h "o-th"
<BEGINHMM>
<NUMSTATES> 5
<STATE> 2
<MEAN> 25
 -5.632880e+00 -3.854063e+00 1.516733e+01 -6.320058e+00 2.140140e+00 2.455597e+00 3.235808e+00 -2.117743e+00 -4.823162e-01 1.348089e+00 8.720768e-02 -2.654986e-01 -3.624942e+00 -1.473371e+00 2.833224e+00 -1.734421e+00 -1.021341e-01 6.912473e-01 1.388689e+00 -1.476209e-01 6.915943e-01 5.759441e-01 5.913332e-01 2.648686e-01 5.795045e-01
<VARIANCE> 25
 6.831219e+01 5.101052e+01 9.769680e+01 8.345584e+01 8.229661e+01 6.781025e+01 8.005181e+01 6.789198e+01 6.046149e+01 4.864940e+01 3.799240e+01 2.866057e+01 2.483551e+00 3.884926e+00 3.833339e+00 4.342094e+00 3.744481e+00 5.492457e+00 3.865437e+00 3.177013e+00 3.737395e+00 3.366478e+00 3.085365e+00 2.236720e+00 1.021638e+00
<GCONST> 1.104123e+02
<STATE> 3
<MEAN> 25
 -1.727112e+01 -8.257788e+00 1.949447e+01 -1.180675e+01 1.947106e+00 1.331353e+00 6.016316e+00 -2.654345e+00 1.263386e+00 2.144119e+00 1.879954e+00 3.925450e-01 -1.316139e-01 -5.102527e-01 -3.761988e-01 1.679360e-01 1.177314e-02 -9.135841e-02 -9.154829e-02 -1.859931e-02 1.217610e-01 1.754421e-01 1.592440e-01 1.295594e-02 -6.405007e-02
<VARIANCE> 25
 3.926363e+01 8.026629e+01 8.774121e+01 1.006794e+02 8.994701e+01 7.935870e+01 7.173088e+01 6.903039e+01 6.770055e+01 4.795404e+01 3.895676e+01 2.661696e+01 1.988035e+00 1.045411e+00 1.457392e+00 2.010195e+00 1.328030e+00 1.433358e+00 1.615375e+00 1.621984e+00 1.538399e+00 1.449418e+00 1.211479e+00 1.100959e+00 4.380694e-01
<GCONST> 9.917685e+01
<STATE> 4
<MEAN> 25
 -9.271607e+00 -9.057722e+00 1.468838e+01 -6.365356e+00 1.965114e+00 2.341074e+00 3.013284e+00 -2.966129e+00 2.363478e-03 3.011927e+00 1.883378e+00 8.863983e-02 4.015340e+00 1.801579e+00 -2.265525e+00 2.241422e+00 5.355793e-01 -2.967038e-01 -2.138270e+00 -4.493863e-01 -1.154973e+00 -7.945148e-01 -8.732439e-01 -3.801412e-01 -6.645188e-01
<VARIANCE> 25
 5.233046e+01 6.291172e+01 6.801148e+01 8.587710e+01 6.436635e+01 5.830358e+01 5.761609e+01 5.580789e+01 5.802547e+01 4.261039e+01 3.626220e+01 2.619216e+01 3.238315e+00 3.795416e+00 2.980920e+00 3.903574e+00 4.405891e+00 4.908393e+00 3.968453e+00 3.498078e+00 3.993294e+00 3.501172e+00 3.218621e+00 2.491385e+00 1.196708e+00
<GCONST> 1.092605e+02
~t "T_th"
<ENDHMM>
~h "l-a+th"
<BEGINHMM>
<NUMSTATES> 5
<STATE> 2
<MEAN> 25
 8.084209e+00 -3.246555e+00 -4.886938e+00 -2.890126e+00 -1.922659e+00 -4.591505e+00 -1.062124e+00 -1.533606e+00 -3.011539e+00 -1.419097e+00 7.822737e-01 1.974153e+00 8.531939e-01 -1.219489e+00 -1.591901e+00 -1.511451e+00 -1.099942e+00 -1.081241e+00 3.296968e-01 2.435892e-01 2.131322e-01 7.433307e-01 1.096173e+00 1.076555e+00 1.531909e+00
<VARIANCE> 25
 3.102556e+01 3.982352e+01 4.648204e+01 6.052976e+01 4.865224e+01 5.364120e+01 4.957391e+01 5.206113e+01 4.994263e+01 4.377484e+01 3.566540e+01 3.010361e+01 2.105191e+00 2.133569e+00 2.607650e+00 3.361774e+00 2.917656e+00 3.954443e+00 3.398865e+00 3.319243e+00 3.668817e+00 4.076825e+00 3.093344e+00 2.673295e+00 1.675560e+00
<GCONST> 1.052759e+02
<STATE> 3
<MEAN> 25
 9.462610e+00 -6.897775e+00 -8.743549e+00 -6.083593e+00 -4.604442e+00 -5.470979e+00 1.397076e+00 -2.830499e-01 -1.629562e+00 7.007640e-01 2.659651e+00 3.340820e+00 3.290816e-02 -1.735238e-01 -3.625012e-01 -3.627358e-01 -1.769637e-01 2.254089e-01 4.766614e-01 2.827543e-01 2.371980e-01 1.767752e-01 8.445666e-02 6.974697e-02 8.193482e-02
<VARIANCE> 25
 2.840129e+01 3.570125e+01 4.138834e+01 4.038225e+01 4.118876e+01 4.148624e+01 4.739182e+01 4.747406e+01 4.473821e+01 4.189992e+01 3.449903e+01 2.805832e+01 3.302394e-01 8.424883e-01 9.393210e-01 1.242460e+00 1.324397e+00 1.496400e+00 1.901740e+00 1.780651e+00 1.803969e+00 1.726919e+00 1.430944e+00 1.179275e+00 3.783611e-01
<GCONST> 9.133002e+01
<STATE> 4
<MEAN> 25
 8.177530e+00 -2.680661e+00 -7.293503e+00 -5.932261e+00 -3.758124e+00 -2.794274e+00 1.176165e+00 -3.390664e-01 -1.368642e+00 2.573896e-01 2.133668e+00 3.287408e+00 -4.538044e-01 8.704351e-01 7.276899e-01 4.679444e-01 4.150407e-01 5.706517e-01 -1.937626e-01 -1.382255e-01 1.753797e-02 -1.629017e-01 -2.942949e-01 -3.140077e-01 -8.826797e-01
<VARIANCE> 25
 2.215926e+01 3.099335e+01 3.486272e+01 3.668752e+01 3.283007e+01 3.965223e+01 3.500597e+01 3.826480e+01 3.512437e+01 3.170736e+01 2.563973e+01 2.200531e+01 5.861269e-01 9.910762e-01 1.080531e+00 1.252255e+00 1.395680e+00 1.835312e+00 1.787168e+00 1.826652e+00 1.993582e+00 1.853269e+00 1.609923e+00 1.318195e+00 6.483233e-01
<GCONST> 9.086413e+01
~t "T_a"
<ENDHMM>
~h "m-i+a"
<BEGINHMM>
<NUMSTATES> 5
<STATE> 2
<MEAN> 25
 2.824880e+00 -2.961581e+00 4.292364e+00 7.499251e+00 7.346193e+00 -2.067250e+00 -5.297520e+00 -2.873806e+00 -2.378581e+00 -1.973293e+00 -2.520489e+00 -3.736685e+00 1.015099e+00 -9.724852e-01 2.479329e-01 2.179622e+00 1.426837e+00 -2.128228e+00 -2.309814e+00 -3.848035e-01 -7.270547e-01 -7.560874e-01 -6.794949e-01 -8.365397e-01 1.175898e+00
<VARIANCE> 25
 3.374600e+01 3.967356e+01 6.750194e+01 6.375350e+01 5.781096e+01 6.437442e+01 4.980933e+01 4.415491e+01 4.445846e+01 3.540117e+01 3.356274e+01 2.704606e+01 3.132528e+00 4.137255e+00 3.621446e+00 4.487921e+00 4.215056e+00 5.312013e+00 4.005538e+00 3.824685e+00 4.409300e+00 4.209664e+00 3.923692e+00 2.984154e+00 1.617640e+00
<GCONST> 1.086541e+02
<STATE> 3
<MEAN> 25
 3.691633e+00 -6.378765e+00 6.166086e+00 1.236009e+01 7.380941e+00 -9.047977e+00 -9.580333e+00 -1.629763e+00 -3.102339e+00 -4.599288e+00 -4.548250e+00 -5.048493e+00 8.359629e-02 -2.991736e-01 1.296623e-01 4.305927e-01 9.667514e-03 -8.290642e-01 -5.818837e-01 1.603395e-01 8.957740e-02 -1.876646e-01 -1.591199e-01 -1.092843e-01 2.681427e-01
<VARIANCE> 25
 2.149308e+01 3.103732e+01 4.970968e+01 5.873264e+01 7.158559e+01 6.920425e+01 3.966159e+01 4.495304e+01 4.204121e+01 4.275245e+01 4.102441e+01 2.954641e+01 6.639252e-01 9.264812e-01 1.883231e+00 1.858640e+00 1.558079e+00 2.146437e+00 1.929194e+00 2.097977e+00 1.840118e+00 1.884095e+00 1.595546e+00 1.333590e+00 5.259222e-01
<GCONST> 9.574519e+01
<STATE> 4
<MEAN> 25
 4.036044e+00 -4.218312e+00 4.209880e+00 1.037407e+01 7.996428e+00 -6.247262e+00 -9.419474e+00 -3.331409e+00 -2.663913e+00 -2.918104e+00 -3.142705e+00 -4.376024e+00 3.821991e-02 8.336469e-01 -6.000085e-01 -1.181883e+00 -5.675405e-01 1.117856e+00 8.718380e-01 -2.187419e-01 -3.897155e-02 3.511441e-01 4.869802e-01 5.886047e-01 -5.325214e-01
<VARIANCE> 25
 1.972391e+01 3.227742e+01 4.309776e+01 5.167957e+01 5.495691e+01 6.691110e+01 3.850472e+01 4.351723e+01 4.154246e+01 3.556070e+01 3.517086e+01 2.803684e+01 6.999541e-01 1.390189e+00 1.663853e+00 1.824908e+00 1.964548e+00 2.784639e+00 2.501812e+00 2.236512e+00 2.341234e+00 2.148965e+00 1.947036e+00 1.699689e+00 1.056007e+00
<GCONST> 9.730878e+01
~t "T_i"
<ENDHMM>
~h "m-i+d"
<BEGINHMM>
<NUMSTATES> 5
<STATE> 2
<MEAN> 25
 2.824880e+00 -2.961581e+00 4.292364e+00 7.499251e+00 7.346193e+00 -2.067250e+00 -5.297520e+00 -2.873806e+00 -2.378581e+00 -1.973293e+00 -2.520489e+00 -3.736685e+00 1.015099e+00 -9.724852e-01 2.479329e-01 2.179622e+00 1.426837e+00 -2.128228e+00 -2.309814e+00 -3.848035e-01 -7.270547e-01 -7.560874e-01 -6.794949e-01 -8.365397e-01 1.175898e+00
<VARIANCE> 25
 3.374600e+01 3.967356e+01 6.750194e+01 6.375350e+01 5.781096e+01 6.437442e+01 4.980933e+01 4.415491e+01 4.445846e+01 3.540117e+01 3.356274e+01 2.704606e+01 3.132528e+00 4.137255e+00 3.621446e+00 4.487921e+00 4.215056e+00 5.312013e+00 4.005538e+00 3.824685e+00 4.409300e+00 4.209664e+00 3.923692e+00 2.984154e+00 1.617640e+00
<GCONST> 1.086541e+02
<STATE> 3
<MEAN> 25
 3.691633e+00 -6.378765e+00 6.166086e+00 1.236009e+01 7.380941e+00 -9.047977e+00 -9.580333e+00 -1.629763e+00 -3.102339e+00 -4.599288e+00 -4.548250e+00 -5.048493e+00 8.359629e-02 -2.991736e-01 1.296623e-01 4.305927e-01 9.667514e-03 -8.290642e-01 -5.818837e-01 1.603395e-01 8.957740e-02 -1.876646e-01 -1.591199e-01 -1.092843e-01 2.681427e-01
<VARIANCE> 25
 2.149308e+01 3.103732e+01 4.970968e+01 5.873264e+01 7.158559e+01 6.920425e+01 3.966159e+01 4.495304e+01 4.204121e+01 4.275245e+01 4.102441e+01 2.954641e+01 6.639252e-01 9.264812e-01 1.883231e+00 1.858640e+00 1.558079e+00 2.146437e+00 1.929194e+00 2.097977e+00 1.840118e+00 1.884095e+00 1.595546e+00 1.333590e+00 5.259222e-01
<GCONST> 9.574519e+01
<STATE> 4
<MEAN> 25
 4.036044e+00 -4.218312e+00 4.209880e+00 1.037407e+01 7.996428e+00 -6.247262e+00 -9.419474e+00 -3.331409e+00 -2.663913e+00 -2.918104e+00 -3.142705e+00 -4.376024e+00 3.821991e-02 8.336469e-01 -6.000085e-01 -1.181883e+00 -5.675405e-01 1.117856e+00 8.718380e-01 -2.187419e-01 -3.897155e-02 3.511441e-01 4.869802e-01 5.886047e-01 -5.325214e-01
<VARIANCE> 25
 1.972391e+01 3.227742e+01 4.309776e+01 5.167957e+01 5.495691e+01 6.691110e+01 3.850472e+01 4.351723e+01 4.154246e+01 3.556070e+01 3.517086e+01 2.803684e+01 6.999541e-01 1.390189e+00 1.663853e+00 1.824908e+00 1.964548e+00 2.784639e+00 2.501812e+00 2.236512e+00 2.341234e+00 2.148965e+00 1.947036e+00 1.699689e+00 1.056007e+00
<GCONST> 9.730878e+01
~t "T_i"
<ENDHMM>
~h "m-i+e"
<BEGINHMM>
<NUMSTATES> 5
<STATE> 2
<MEAN> 25
 2.824880e+00 -2.961581e+00 4.292364e+00 7.499251e+00 7.346193e+00 -2.067250e+00 -5.297520e+00 -2.873806e+00 -2.378581e+00 -1.973293e+00 -2.520489e+00 -3.736685e+00 1.015099e+00 -9.724852e-01 2.479329e-01 2.179622e+00 1.426837e+00 -2.128228e+00 -2.309814e+00 -3.848035e-01 -7.270547e-01 -7.560874e-01 -6.794949e-01 -8.365397e-01 1.175898e+00
<VARIANCE> 25
 3.374600e+01 3.967356e+01 6.750194e+01 6.375350e+01 5.781096e+01 6.437442e+01 4.980933e+01 4.415491e+01 4.445846e+01 3.540117e+01 3.356274e+01 2.704606e+01 3.132528e+00 4.137255e+00 3.621446e+00 4.487921e+00 4.215056e+00 5.312013e+00 4.005538e+00 3.824685e+00 4.409300e+00 4.209664e+00 3.923692e+00 2.984154e+00 1.617640e+00
<GCONST> 1.086541e+02
<STATE> 3
<MEAN> 25
 3.691633e+00 -6.378765e+00 6.166086e+00 1.236009e+01 7.380941e+00 -9.047977e+00 -9.580333e+00 -1.629763e+00 -3.102339e+00 -4.599288e+00 -4.548250e+00 -5.048493e+00 8.359629e-02 -2.991736e-01 1.296623e-01 4.305927e-01 9.667514e-03 -8.290642e-01 -5.818837e-01 1.603395e-01 8.957740e-02 -1.876646e-01 -1.591199e-01 -1.092843e-01 2.681427e-01
<VARIANCE> 25
 2.149308e+01 3.103732e+01 4.970968e+01 5.873264e+01 7.158559e+01 6.920425e+01 3.966159e+01 4.495304e+01 4.204121e+01 4.275245e+01 4.102441e+01 2.954641e+01 6.639252e-01 9.264812e-01 1.883231e+00 1.858640e+00 1.558079e+00 2.146437e+00 1.929194e+00 2.097977e+00 1.840118e+00 1.884095e+00 1.595546e+00 1.333590e+00 5.259222e-01
<GCONST> 9.574519e+01
<STATE> 4
<MEAN> 25
 4.036044e+00 -4.218312e+00 4.209880e+00 1.037407e+01 7.996428e+00 -6.247262e+00 -9.419474e+00 -3.331409e+00 -2.663913e+00 -2.918104e+00 -3.142705e+00 -4.376024e+00 3.821991e-02 8.336469e-01 -6.000085e-01 -1.181883e+00 -5.675405e-01 1.117856e+00 8.718380e-01 -2.187419e-01 -3.897155e-02 3.511441e-01 4.869802e-01 5.886047e-01 -5.325214e-01
<VARIANCE> 25
 1.972391e+01 3.227742e+01 4.309776e+01 5.167957e+01 5.495691e+01 6.691110e+01 3.850472e+01 4.351723e+01 4.154246e+01 3.556070e+01 3.517086e+01 2.803684e+01 6.999541e-01 1.390189e+00 1.663853e+00 1.824908e+00 1.964548e+00 2.784639e+00 2.501812e+00 2.236512e+00 2.341234e+00 2.148965e+00 1.947036e+00 1.699689e+00 1.056007e+00
<GCONST> 9.730878e+01
~t "T_i"
<ENDHMM>
~h "m-i+g"
<BEGINHMM>
<NUMSTATES> 5
<STATE> 2
<MEAN> 25
 2.824880e+00 -2.961581e+00 4.292364e+00 7.499251e+00 7.346193e+00 -2.067250e+00 -5.297520e+00 -2.873806e+00 -2.378581e+00 -1.973293e+00 -2.520489e+00 -3.736685e+00 1.015099e+00 -9.724852e-01 2.479329e-01 2.179622e+00 1.426837e+00 -2.128228e+00 -2.309814e+00 -3.848035e-01 -7.270547e-01 -7.560874e-01 -6.794949e-01 -8.365397e-01 1.175898e+00
<VARIANCE> 25
 3.374600e+01 3.967356e+01 6.750194e+01 6.375350e+01 5.781096e+01 6.437442e+01 4.980933e+01 4.415491e+01 4.445846e+01 3.540117e+01 3.356274e+01 2.704606e+01 3.132528e+00 4.137255e+00 3.621446e+00 4.487921e+00 4.215056e+00 5.312013e+00 4.005538e+00 3.824685e+00 4.409300e+00 4.209664e+00 3.923692e+00 2.984154e+00 1.617640e+00
<GCONST> 1.086541e+02
<STATE> 3
<MEAN> 25
 3.691633e+00 -6.378765e+00 6.166086e+00 1.236009e+01 7.380941e+00 -9.047977e+00 -9.580333e+00 -1.629763e+00 -3.102339e+00 -4.599288e+00 -4.548250e+00 -5.048493e+00 8.359629e-02 -2.991736e-01 1.296623e-01 4.305927e-01 9.667514e-03 -8.290642e-01 -5.818837e-01 1.603395e-01 8.957740e-02 -1.876646e-01 -1.591199e-01 -1.092843e-01 2.681427e-01
<VARIANCE> 25
 2.149308e+01 3.103732e+01 4.970968e+01 5.873264e+01 7.158559e+01 6.920425e+01 3.966159e+01 4.495304e+01 4.204121e+01 4.275245e+01 4.102441e+01 2.954641e+01 6.639252e-01 9.264812e-01 1.883231e+00 1.858640e+00 1.558079e+00 2.146437e+00 1.929194e+00 2.097977e+00 1.840118e+00 1.884095e+00 1.595546e+00 1.333590e+00 5.259222e-01
<GCONST> 9.574519e+01
<STATE> 4
<MEAN> 25
 4.036044e+00 -4.218312e+00 4.209880e+00 1.037407e+01 7.996428e+00 -6.247262e+00 -9.419474e+00 -3.331409e+00 -2.663913e+00 -2.918104e+00 -3.142705e+00 -4.376024e+00 3.821991e-02 8.336469e-01 -6.000085e-01 -1.181883e+00 -5.675405e-01 1.117856e+00 8.718380e-01 -2.187419e-01 -3.897155e-02 3.511441e-01 4.869802e-01 5.886047e-01 -5.325214e-01
<VARIANCE> 25
 1.972391e+01 3.227742e+01 4.309776e+01 5.167957e+01 5.495691e+01 6.691110e+01 3.850472e+01 4.351723e+01 4.154246e+01 3.556070e+01 3.517086e+01 2.803684e+01 6.999541e-01 1.390189e+00 1.663853e+00 1.824908e+00 1.964548e+00 2.784639e+00 2.501812e+00 2.236512e+00 2.341234e+00 2.148965e+00 1.947036e+00 1.699689e+00 1.056007e+00
<GCONST> 9.730878e+01
~t "T_i"
<ENDHMM>
~h "m-i+k"
<BEGINHMM>
<NUMSTATES> 5
<STATE> 2
<MEAN> 25
 2.824880e+00 -2.961581e+00 4.292364e+00 7.499251e+00 7.346193e+00 -2.067250e+00 -5.297520e+00 -2.873806e+00 -2.378581e+00 -1.973293e+00 -2.520489e+00 -3.736685e+00 1.015099e+00 -9.724852e-01 2.479329e-01 2.179622e+00 1.426837e+00 -2.128228e+00 -2.309814e+00 -3.848035e-01 -7.270547e-01 -7.560874e-01 -6.794949e-01 -8.365397e-01 1.175898e+00
<VARIANCE> 25
 3.374600e+01 3.967356e+01 6.750194e+01 6.375350e+01 5.781096e+01 6.437442e+01 4.980933e+01 4.415491e+01 4.445846e+01 3.540117e+01 3.356274e+01 2.704606e+01 3.132528e+00 4.137255e+00 3.621446e+00 4.487921e+00 4.215056e+00 5.312013e+00 4.005538e+00 3.824685e+00 4.409300e+00 4.209664e+00 3.923692e+00 2.984154e+00 1.617640e+00
<GCONST> 1.086541e+02
<STATE> 3
<MEAN> 25
 3.691633e+00 -6.378765e+00 6.166086e+00 1.236009e+01 7.380941e+00 -9.047977e+00 -9.580333e+00 -1.629763e+00 -3.102339e+00 -4.599288e+00 -4.548250e+00 -5.048493e+00 8.359629e-02 -2.991736e-01 1.296623e-01 4.305927e-01 9.667514e-03 -8.290642e-01 -5.818837e-01 1.603395e-01 8.957740e-02 -1.876646e-01 -1.591199e-01 -1.092843e-01 2.681427e-01
<VARIANCE> 25
 2.149308e+01 3.103732e+01 4.970968e+01 5.873264e+01 7.158559e+01 6.920425e+01 3.966159e+01 4.495304e+01 4.204121e+01 4.275245e+01 4.102441e+01 2.954641e+01 6.639252e-01 9.264812e-01 1.883231e+00 1.858640e+00 1.558079e+00 2.146437e+00 1.929194e+00 2.097977e+00 1.840118e+00 1.884095e+00 1.595546e+00 1.333590e+00 5.259222e-01
<GCONST> 9.574519e+01
<STATE> 4
<MEAN> 25
 4.036044e+00 -4.218312e+00 4.209880e+00 1.037407e+01 7.996428e+00 -6.247262e+00 -9.419474e+00 -3.331409e+00 -2.663913e+00 -2.918104e+00 -3.142705e+00 -4.376024e+00 3.821991e-02 8.336469e-01 -6.000085e-01 -1.181883e+00 -5.675405e-01 1.117856e+00 8.718380e-01 -2.187419e-01 -3.897155e-02 3.511441e-01 4.869802e-01 5.886047e-01 -5.325214e-01
<VARIANCE> 25
 1.972391e+01 3.227742e+01 4.309776e+01 5.167957e+01 5.495691e+01 6.691110e+01 3.850472e+01 4.351723e+01 4.154246e+01 3.556070e+01 3.517086e+01 2.803684e+01 6.999541e-01 1.390189e+00 1.663853e+00 1.824908e+00 1.964548e+00 2.784639e+00 2.501812e+00 2.236512e+00 2.341234e+00 2.148965e+00 1.947036e+00 1.699689e+00 1.056007e+00
<GCONST> 9.730878e+01
~t "T_i"
<ENDHMM>
~h "m-i+l"
<BEGINHMM>
<NUMSTATES> 5
<STATE> 2
<MEAN> 25
 2.824880e+00 -2.961581e+00 4.292364e+00 7.499251e+00 7.346193e+00 -2.067250e+00 -5.297520e+00 -2.873806e+00 -2.378581e+00 -1.973293e+00 -2.520489e+00 -3.736685e+00 1.015099e+00 -9.724852e-01 2.479329e-01 2.179622e+00 1.426837e+00 -2.128228e+00 -2.309814e+00 -3.848035e-01 -7.270547e-01 -7.560874e-01 -6.794949e-01 -8.365397e-01 1.175898e+00
<VARIANCE> 25
 3.374600e+01 3.967356e+01 6.750194e+01 6.375350e+01 5.781096e+01 6.437442e+01 4.980933e+01 4.415491e+01 4.445846e+01 3.540117e+01 3.356274e+01 2.704606e+01 3.132528e+00 4.137255e+00 3.621446e+00 4.487921e+00 4.215056e+00 5.312013e+00 4.005538e+00 3.824685e+00 4.409300e+00 4.209664e+00 3.923692e+00 2.984154e+00 1.617640e+00
<GCONST> 1.086541e+02
<STATE> 3
<MEAN> 25
 3.691633e+00 -6.378765e+00 6.166086e+00 1.236009e+01 7.380941e+00 -9.047977e+00 -9.580333e+00 -1.629763e+00 -3.102339e+00 -4.599288e+00 -4.548250e+00 -5.048493e+00 8.359629e-02 -2.991736e-01 1.296623e-01 4.305927e-01 9.667514e-03 -8.290642e-01 -5.818837e-01 1.603395e-01 8.957740e-02 -1.876646e-01 -1.591199e-01 -1.092843e-01 2.681427e-01
<VARIANCE> 25
 2.149308e+01 3.103732e+01 4.970968e+01 5.873264e+01 7.158559e+01 6.920425e+01 3.966159e+01 4.495304e+01 4.204121e+01 4.275245e+01 4.102441e+01 2.954641e+01 6.639252e-01 9.264812e-01 1.883231e+00 1.858640e+00 1.558079e+00 2.146437e+00 1.929194e+00 2.097977e+00 1.840118e+00 1.884095e+00 1.595546e+00 1.333590e+00 5.259222e-01
<GCONST> 9.574519e+01
<STATE> 4
<MEAN> 25
 4.036044e+00 -4.218312e+00 4.209880e+00 1.037407e+01 7.996428e+00 -6.247262e+00 -9.419474e+00 -3.331409e+00 -2.663913e+00 -2.918104e+00 -3.142705e+00 -4.376024e+00 3.821991e-02 8.336469e-01 -6.000085e-01 -1.181883e+00 -5.675405e-01 1.117856e+00 8.718380e-01 -2.187419e-01 -3.897155e-02 3.511441e-01 4.869802e-01 5.886047e-01 -5.325214e-01
<VARIANCE> 25
 1.972391e+01 3.227742e+01 4.309776e+01 5.167957e+01 5.495691e+01 6.691110e+01 3.850472e+01 4.351723e+01 4.154246e+01 3.556070e+01 3.517086e+01 2.803684e+01 6.999541e-01 1.390189e+00 1.663853e+00 1.824908e+00 1.964548e+00 2.784639e+00 2.501812e+00 2.236512e+00 2.341234e+00 2.148965e+00 1.947036e+00 1.699689e+00 1.056007e+00
<GCONST> 9.730878e+01
~t "T_i"
<ENDHMM>
~h "m-i+m"
<BEGINHMM>
<NUMSTATES> 5
<STATE> 2
<MEAN> 25
 2.824880e+00 -2.961581e+00 4.292364e+00 7.499251e+00 7.346193e+00 -2.067250e+00 -5.297520e+00 -2.873806e+00 -2.378581e+00 -1.973293e+00 -2.520489e+00 -3.736685e+00 1.015099e+00 -9.724852e-01 2.479329e-01 2.179622e+00 1.426837e+00 -2.128228e+00 -2.309814e+00 -3.848035e-01 -7.270547e-01 -7.560874e-01 -6.794949e-01 -8.365397e-01 1.175898e+00
<VARIANCE> 25
 3.374600e+01 3.967356e+01 6.750194e+01 6.375350e+01 5.781096e+01 6.437442e+01 4.980933e+01 4.415491e+01 4.445846e+01 3.540117e+01 3.356274e+01 2.704606e+01 3.132528e+00 4.137255e+00 3.621446e+00 4.487921e+00 4.215056e+00 5.312013e+00 4.005538e+00 3.824685e+00 4.409300e+00 4.209664e+00 3.923692e+00 2.984154e+00 1.617640e+00
<GCONST> 1.086541e+02
<STATE> 3
<MEAN> 25
 3.691633e+00 -6.378765e+00 6.166086e+00 1.236009e+01 7.380941e+00 -9.047977e+00 -9.580333e+00 -1.629763e+00 -3.102339e+00 -4.599288e+00 -4.548250e+00 -5.048493e+00 8.359629e-02 -2.991736e-01 1.296623e-01 4.305927e-01 9.667514e-03 -8.290642e-01 -5.818837e-01 1.603395e-01 8.957740e-02 -1.876646e-01 -1.591199e-01 -1.092843e-01 2.681427e-01
<VARIANCE> 25
 2.149308e+01 3.103732e+01 4.970968e+01 5.873264e+01 7.158559e+01 6.920425e+01 3.966159e+01 4.495304e+01 4.204121e+01 4.275245e+01 4.102441e+01 2.954641e+01 6.639252e-01 9.264812e-01 1.883231e+00 1.858640e+00 1.558079e+00 2.146437e+00 1.929194e+00 2.097977e+00 1.840118e+00 1.884095e+00 1.595546e+00 1.333590e+00 5.259222e-01
<GCONST> 9.574519e+01
<STATE> 4
<MEAN> 25
 4.036044e+00 -4.218312e+00 4.209880e+00 1.037407e+01 7.996428e+00 -6.247262e+00 -9.419474e+00 -3.331409e+00 -2.663913e+00 -2.918104e+00 -3.142705e+00 -4.376024e+00 3.821991e-02 8.336469e-01 -6.000085e-01 -1.181883e+00 -5.675405e-01 1.117856e+00 8.718380e-01 -2.187419e-01 -3.897155e-02 3.511441e-01 4.869802e-01 5.886047e-01 -5.325214e-01
<VARIANCE> 25
 1.972391e+01 3.227742e+01 4.309776e+01 5.167957e+01 5.495691e+01 6.691110e+01 3.850472e+01 4.351723e+01 4.154246e+01 3.556070e+01 3.517086e+01 2.803684e+01 6.999541e-01 1.390189e+00 1.663853e+00 1.824908e+00 1.964548e+00 2.784639e+00 2.501812e+00 2.236512e+00 2.341234e+00 2.148965e+00 1.947036e+00 1.699689e+00 1.056007e+00
<GCONST> 9.730878e+01
~t "T_i"
<ENDHMM>
~h "m-i+n"
<BEGINHMM>
<NUMSTATES> 5
<STATE> 2
<MEAN> 25
 2.824880e+00 -2.961581e+00 4.292364e+00 7.499251e+00 7.346193e+00 -2.067250e+00 -5.297520e+00 -2.873806e+00 -2.378581e+00 -1.973293e+00 -2.520489e+00 -3.736685e+00 1.015099e+00 -9.724852e-01 2.479329e-01 2.179622e+00 1.426837e+00 -2.128228e+00 -2.309814e+00 -3.848035e-01 -7.270547e-01 -7.560874e-01 -6.794949e-01 -8.365397e-01 1.175898e+00
<VARIANCE> 25
 3.374600e+01 3.967356e+01 6.750194e+01 6.375350e+01 5.781096e+01 6.437442e+01 4.980933e+01 4.415491e+01 4.445846e+01 3.540117e+01 3.356274e+01 2.704606e+01 3.132528e+00 4.137255e+00 3.621446e+00 4.487921e+00 4.215056e+00 5.312013e+00 4.005538e+00 3.824685e+00 4.409300e+00 4.209664e+00 3.923692e+00 2.984154e+00 1.617640e+00
<GCONST> 1.086541e+02
<STATE> 3
<MEAN> 25
 3.691633e+00 -6.378765e+00 6.166086e+00 1.236009e+01 7.380941e+00 -9.047977e+00 -9.580333e+00 -1.629763e+00 -3.102339e+00 -4.599288e+00 -4.548250e+00 -5.048493e+00 8.359629e-02 -2.991736e-01 1.296623e-01 4.305927e-01 9.667514e-03 -8.290642e-01 -5.818837e-01 1.603395e-01 8.957740e-02 -1.876646e-01 -1.591199e-01 -1.092843e-01 2.681427e-01
<VARIANCE> 25
 2.149308e+01 3.103732e+01 4.970968e+01 5.873264e+01 7.158559e+01 6.920425e+01 3.966159e+01 4.495304e+01 4.204121e+01 4.275245e+01 4.102441e+01 2.954641e+01 6.639252e-01 9.264812e-01 1.883231e+00 1.858640e+00 1.558079e+00 2.146437e+00 1.929194e+00 2.097977e+00 1.840118e+00 1.884095e+00 1.595546e+00 1.333590e+00 5.259222e-01
<GCONST> 9.574519e+01
<STATE> 4
<MEAN> 25
 4.036044e+00 -4.218312e+00 4.209880e+00 1.037407e+01 7.996428e+00 -6.247262e+00 -9.419474e+00 -3.331409e+00 -2.663913e+00 -2.918104e+00 -3.142705e+00 -4.376024e+00 3.821991e-02 8.336469e-01 -6.000085e-01 -1.181883e+00 -5.675405e-01 1.117856e+00 8.718380e-01 -2.187419e-01 -3.897155e-02 3.511441e-01 4.869802e-01 5.886047e-01 -5.325214e-01
<VARIANCE> 25
 1.972391e+01 3.227742e+01 4.309776e+01 5.167957e+01 5.495691e+01 6.691110e+01 3.850472e+01 4.351723e+01 4.154246e+01 3.556070e+01 3.517086e+01 2.803684e+01 6.999541e-01 1.390189e+00 1.663853e+00 1.824908e+00 1.964548e+00 2.784639e+00 2.501812e+00 2.236512e+00 2.341234e+00 2.148965e+00 1.947036e+00 1.699689e+00 1.056007e+00
<GCONST> 9.730878e+01
~t "T_i"
<ENDHMM>
~h "m-i+o"
<BEGINHMM>
<NUMSTATES> 5
<STATE> 2
<MEAN> 25
 2.824880e+00 -2.961581e+00 4.292364e+00 7.499251e+00 7.346193e+00 -2.067250e+00 -5.297520e+00 -2.873806e+00 -2.378581e+00 -1.973293e+00 -2.520489e+00 -3.736685e+00 1.015099e+00 -9.724852e-01 2.479329e-01 2.179622e+00 1.426837e+00 -2.128228e+00 -2.309814e+00 -3.848035e-01 -7.270547e-01 -7.560874e-01 -6.794949e-01 -8.365397e-01 1.175898e+00
<VARIANCE> 25
 3.374600e+01 3.967356e+01 6.750194e+01 6.375350e+01 5.781096e+01 6.437442e+01 4.980933e+01 4.415491e+01 4.445846e+01 3.540117e+01 3.356274e+01 2.704606e+01 3.132528e+00 4.137255e+00 3.621446e+00 4.487921e+00 4.215056e+00 5.312013e+00 4.005538e+00 3.824685e+00 4.409300e+00 4.209664e+00 3.923692e+00 2.984154e+00 1.617640e+00
<GCONST> 1.086541e+02
<STATE> 3
<MEAN> 25
 3.691633e+00 -6.378765e+00 6.166086e+00 1.236009e+01 7.380941e+00 -9.047977e+00 -9.580333e+00 -1.629763e+00 -3.102339e+00 -4.599288e+00 -4.548250e+00 -5.048493e+00 8.359629e-02 -2.991736e-01 1.296623e-01 4.305927e-01 9.667514e-03 -8.290642e-01 -5.818837e-01 1.603395e-01 8.957740e-02 -1.876646e-01 -1.591199e-01 -1.092843e-01 2.681427e-01
<VARIANCE> 25
 2.149308e+01 3.103732e+01 4.970968e+01 5.873264e+01 7.158559e+01 6.920425e+01 3.966159e+01 4.495304e+01 4.204121e+01 4.275245e+01 4.102441e+01 2.954641e+01 6.639252e-01 9.264812e-01 1.883231e+00 1.858640e+00 1.558079e+00 2.146437e+00 1.929194e+00 2.097977e+00 1.840118e+00 1.884095e+00 1.595546e+00 1.333590e+00 5.259222e-01
<GCONST> 9.574519e+01
<STATE> 4
<MEAN> 25
 4.036044e+00 -4.218312e+00 4.209880e+00 1.037407e+01 7.996428e+00 -6.247262e+00 -9.419474e+00 -3.331409e+00 -2.663913e+00 -2.918104e+00 -3.142705e+00 -4.376024e+00 3.821991e-02 8.336469e-01 -6.000085e-01 -1.181883e+00 -5.675405e-01 1.117856e+00 8.718380e-01 -2.187419e-01 -3.897155e-02 3.511441e-01 4.869802e-01 5.886047e-01 -5.325214e-01
<VARIANCE> 25
 1.972391e+01 3.227742e+01 4.309776e+01 5.167957e+01 5.495691e+01 6.691110e+01 3.850472e+01 4.351723e+01 4.154246e+01 3.556070e+01 3.517086e+01 2.803684e+01 6.999541e-01 1.390189e+00 1.663853e+00 1.824908e+00 1.964548e+00 2.784639e+00 2.501812e+00 2.236512e+00 2.341234e+00 2.148965e+00 1.947036e+00 1.699689e+00 1.056007e+00
<GCONST> 9.730878e+01
~t "T_i"
<ENDHMM>
~h "m-i+r"
<BEGINHMM>
<NUMSTATES> 5
<STATE> 2
<MEAN> 25
 2.824880e+00 -2.961581e+00 4.292364e+00 7.499251e+00 7.346193e+00 -2.067250e+00 -5.297520e+00 -2.873806e+00 -2.378581e+00 -1.973293e+00 -2.520489e+00 -3.736685e+00 1.015099e+00 -9.724852e-01 2.479329e-01 2.179622e+00 1.426837e+00 -2.128228e+00 -2.309814e+00 -3.848035e-01 -7.270547e-01 -7.560874e-01 -6.794949e-01 -8.365397e-01 1.175898e+00
<VARIANCE> 25
 3.374600e+01 3.967356e+01 6.750194e+01 6.375350e+01 5.781096e+01 6.437442e+01 4.980933e+01 4.415491e+01 4.445846e+01 3.540117e+01 3.356274e+01 2.704606e+01 3.132528e+00 4.137255e+00 3.621446e+00 4.487921e+00 4.215056e+00 5.312013e+00 4.005538e+00 3.824685e+00 4.409300e+00 4.209664e+00 3.923692e+00 2.984154e+00 1.617640e+00
<GCONST> 1.086541e+02
<STATE> 3
<MEAN> 25
 3.691633e+00 -6.378765e+00 6.166086e+00 1.236009e+01 7.380941e+00 -9.047977e+00 -9.580333e+00 -1.629763e+00 -3.102339e+00 -4.599288e+00 -4.548250e+00 -5.048493e+00 8.359629e-02 -2.991736e-01 1.296623e-01 4.305927e-01 9.667514e-03 -8.290642e-01 -5.818837e-01 1.603395e-01 8.957740e-02 -1.876646e-01 -1.591199e-01 -1.092843e-01 2.681427e-01
<VARIANCE> 25
 2.149308e+01 3.103732e+01 4.970968e+01 5.873264e+01 7.158559e+01 6.920425e+01 3.966159e+01 4.495304e+01 4.204121e+01 4.275245e+01 4.102441e+01 2.954641e+01 6.639252e-01 9.264812e-01 1.883231e+00 1.858640e+00 1.558079e+00 2.146437e+00 1.929194e+00 2.097977e+00 1.840118e+00 1.884095e+00 1.595546e+00 1.333590e+00 5.259222e-01
<GCONST> 9.574519e+01
<STATE> 4
<MEAN> 25
 4.036044e+00 -4.218312e+00 4.209880e+00 1.037407e+01 7.996428e+00 -6.247262e+00 -9.419474e+00 -3.331409e+00 -2.663913e+00 -2.918104e+00 -3.142705e+00 -4.376024e+00 3.821991e-02 8.336469e-01 -6.000085e-01 -1.181883e+00 -5.675405e-01 1.117856e+00 8.718380e-01 -2.187419e-01 -3.897155e-02 3.511441e-01 4.869802e-01 5.886047e-01 -5.325214e-01
<VARIANCE> 25
 1.972391e+01 3.227742e+01 4.309776e+01 5.167957e+01 5.495691e+01 6.691110e+01 3.850472e+01 4.351723e+01 4.154246e+01 3.556070e+01 3.517086e+01 2.803684e+01 6.999541e-01 1.390189e+00 1.663853e+00 1.824908e+00 1.964548e+00 2.784639e+00 2.501812e+00 2.236512e+00 2.341234e+00 2.148965e+00 1.947036e+00 1.699689e+00 1.056007e+00
<GCONST> 9.730878e+01
~t "T_i"
<ENDHMM>
~h "m-i+s"
<BEGINHMM>
<NUMSTATES> 5
<STATE> 2
<MEAN> 25
 2.824880e+00 -2.961581e+00 4.292364e+00 7.499251e+00 7.346193e+00 -2.067250e+00 -5.297520e+00 -2.873806e+00 -2.378581e+00 -1.973293e+00 -2.520489e+00 -3.736685e+00 1.015099e+00 -9.724852e-01 2.479329e-01 2.179622e+00 1.426837e+00 -2.128228e+00 -2.309814e+00 -3.848035e-01 -7.270547e-01 -7.560874e-01 -6.794949e-01 -8.365397e-01 1.175898e+00
<VARIANCE> 25
 3.374600e+01 3.967356e+01 6.750194e+01 6.375350e+01 5.781096e+01 6.437442e+01 4.980933e+01 4.415491e+01 4.445846e+01 3.540117e+01 3.356274e+01 2.704606e+01 3.132528e+00 4.137255e+00 3.621446e+00 4.487921e+00 4.215056e+00 5.312013e+00 4.005538e+00 3.824685e+00 4.409300e+00 4.209664e+00 3.923692e+00 2.984154e+00 1.617640e+00
<GCONST> 1.086541e+02
<STATE> 3
<MEAN> 25
 3.691633e+00 -6.378765e+00 6.166086e+00 1.236009e+01 7.380941e+00 -9.047977e+00 -9.580333e+00 -1.629763e+00 -3.102339e+00 -4.599288e+00 -4.548250e+00 -5.048493e+00 8.359629e-02 -2.991736e-01 1.296623e-01 4.305927e-01 9.667514e-03 -8.290642e-01 -5.818837e-01 1.603395e-01 8.957740e-02 -1.876646e-01 -1.591199e-01 -1.092843e-01 2.681427e-01
<VARIANCE> 25
 2.149308e+01 3.103732e+01 4.970968e+01 5.873264e+01 7.158559e+01 6.920425e+01 3.966159e+01 4.495304e+01 4.204121e+01 4.275245e+01 4.102441e+01 2.954641e+01 6.639252e-01 9.264812e-01 1.883231e+00 1.858640e+00 1.558079e+00 2.146437e+00 1.929194e+00 2.097977e+00 1.840118e+00 1.884095e+00 1.595546e+00 1.333590e+00 5.259222e-01
<GCONST> 9.574519e+01
<STATE> 4
<MEAN> 25
 4.036044e+00 -4.218312e+00 4.209880e+00 1.037407e+01 7.996428e+00 -6.247262e+00 -9.419474e+00 -3.331409e+00 -2.663913e+00 -2.918104e+00 -3.142705e+00 -4.376024e+00 3.821991e-02 8.336469e-01 -6.000085e-01 -1.181883e+00 -5.675405e-01 1.117856e+00 8.718380e-01 -2.187419e-01 -3.897155e-02 3.511441e-01 4.869802e-01 5.886047e-01 -5.325214e-01
<VARIANCE> 25
 1.972391e+01 3.227742e+01 4.309776e+01 5.167957e+01 5.495691e+01 6.691110e+01 3.850472e+01 4.351723e+01 4.154246e+01 3.556070e+01 3.517086e+01 2.803684e+01 6.999541e-01 1.390189e+00 1.663853e+00 1.824908e+00 1.964548e+00 2.784639e+00 2.501812e+00 2.236512e+00 2.341234e+00 2.148965e+00 1.947036e+00 1.699689e+00 1.056007e+00
<GCONST> 9.730878e+01
~t "T_i"
<ENDHMM>
~h "m-i+t"
<BEGINHMM>
<NUMSTATES> 5
<STATE> 2
<MEAN> 25
 2.824880e+00 -2.961581e+00 4.292364e+00 7.499251e+00 7.346193e+00 -2.067250e+00 -5.297520e+00 -2.873806e+00 -2.378581e+00 -1.973293e+00 -2.520489e+00 -3.736685e+00 1.015099e+00 -9.724852e-01 2.479329e-01 2.179622e+00 1.426837e+00 -2.128228e+00 -2.309814e+00 -3.848035e-01 -7.270547e-01 -7.560874e-01 -6.794949e-01 -8.365397e-01 1.175898e+00
<VARIANCE> 25
 3.374600e+01 3.967356e+01 6.750194e+01 6.375350e+01 5.781096e+01 6.437442e+01 4.980933e+01 4.415491e+01 4.445846e+01 3.540117e+01 3.356274e+01 2.704606e+01 3.132528e+00 4.137255e+00 3.621446e+00 4.487921e+00 4.215056e+00 5.312013e+00 4.005538e+00 3.824685e+00 4.409300e+00 4.209664e+00 3.923692e+00 2.984154e+00 1.617640e+00
<GCONST> 1.086541e+02
<STATE> 3
<MEAN> 25
 3.691633e+00 -6.378765e+00 6.166086e+00 1.236009e+01 7.380941e+00 -9.047977e+00 -9.580333e+00 -1.629763e+00 -3.102339e+00 -4.599288e+00 -4.548250e+00 -5.048493e+00 8.359629e-02 -2.991736e-01 1.296623e-01 4.305927e-01 9.667514e-03 -8.290642e-01 -5.818837e-01 1.603395e-01 8.957740e-02 -1.876646e-01 -1.591199e-01 -1.092843e-01 2.681427e-01
<VARIANCE> 25
 2.149308e+01 3.103732e+01 4.970968e+01 5.873264e+01 7.158559e+01 6.920425e+01 3.966159e+01 4.495304e+01 4.204121e+01 4.275245e+01 4.102441e+01 2.954641e+01 6.639252e-01 9.264812e-01 1.883231e+00 1.858640e+00 1.558079e+00 2.146437e+00 1.929194e+00 2.097977e+00 1.840118e+00 1.884095e+00 1.595546e+00 1.333590e+00 5.259222e-01
<GCONST> 9.574519e+01
<STATE> 4
<MEAN> 25
 4.036044e+00 -4.218312e+00 4.209880e+00 1.037407e+01 7.996428e+00 -6.247262e+00 -9.419474e+00 -3.331409e+00 -2.663913e+00 -2.918104e+00 -3.142705e+00 -4.376024e+00 3.821991e-02 8.336469e-01 -6.000085e-01 -1.181883e+00 -5.675405e-01 1.117856e+00 8.718380e-01 -2.187419e-01 -3.897155e-02 3.511441e-01 4.869802e-01 5.886047e-01 -5.325214e-01
<VARIANCE> 25
 1.972391e+01 3.227742e+01 4.309776e+01 5.167957e+01 5.495691e+01 6.691110e+01 3.850472e+01 4.351723e+01 4.154246e+01 3.556070e+01 3.517086e+01 2.803684e+01 6.999541e-01 1.390189e+00 1.663853e+00 1.824908e+00 1.964548e+00 2.784639e+00 2.501812e+00 2.236512e+00 2.341234e+00 2.148965e+00 1.947036e+00 1.699689e+00 1.056007e+00
<GCONST> 9.730878e+01
~t "T_i"
<ENDHMM>
~h "k+a"
<BEGINHMM>
<NUMSTATES> 5
<STATE> 2
<MEAN> 25
 -2.312355e-01 1.961118e+00 -8.483832e-01 1.450593e+00 1.457601e+00 2.408843e+00 -4.597814e-01 -1.728608e+00 -1.790877e-01 8.893732e-01 6.985575e-01 -3.931130e-01 -7.720011e-01 -7.842530e-02 -5.205820e-01 -9.070294e-01 -7.591282e-01 3.915028e-01 7.773291e-01 4.507853e-01 3.840126e-01 1.228299e-01 3.643597e-01 2.747205e-01 -4.715713e-01
<VARIANCE> 25
 2.273778e+01 2.853440e+01 3.812323e+01 4.159114e+01 4.112223e+01 3.378465e+01 3.233773e+01 3.354189e+01 3.298198e+01 2.542086e+01 2.348176e+01 2.239305e+01 1.604517e+00 4.217481e+00 2.607781e+00 4.085482e+00 3.966224e+00 4.291962e+00 3.567861e+00 3.176125e+00 3.109658e+00 2.588859e+00 2.471189e+00 2.213985e+00 5.200278e+00
<GCONST> 1.019870e+02
<STATE> 3
<MEAN> 25
 -1.427904e+00 -2.522660e+00 -2.585010e+00 -5.629199e+00 -8.787394e-01 -3.528969e-01 2.678309e+00 -7.877849e-01 7.780784e-01 5.548463e-01 2.357178e+00 4.609265e-01 3.902499e-01 -8.271015e-01 2.816469e-01 -1.033817e+00 -3.860129e-01 -9.675173e-01 2.915441e-01 -2.320813e-02 -3.249466e-01 -1.045423e-01 2.656671e-02 -1.464451e-01 1.487963e+00
<VARIANCE> 25
 2.691691e+01 7.003792e+01 5.256176e+01 6.985202e+01 8.061441e+01 6.468961e+01 6.198301e+01 6.249512e+01 4.851157e+01 4.706096e+01 4.291992e+01 3.999689e+01 2.103719e+00 4.420229e+00 3.587986e+00 5.717131e+00 5.819118e+00 5.228204e+00 4.675033e+00 4.933011e+00 4.070527e+00 3.372667e+00 3.275937e+00 3.025996e+00 4.842046e+00
<GCONST> 1.119947e+02
<STATE> 4
<MEAN> 25
 1.419271e+00 -3.539429e-01 4.778248e-01 -3.932618e+00 -2.930405e+00 -2.244887e+00 1.284940e+00 5.541340e-02 -5.615529e-01 7.321874e-01 8.684695e-01 -6.447970e-01 1.883814e+00 8.443043e-01 8.145797e-01 1.344449e+00 6.578749e-02 -1.397391e+00 -1.716680e+00 -6.972357e-01 -6.383767e-01 -3.624772e-01 -5.773226e-01 -2.933102e-01 8.197570e-01
<VARIANCE> 25
 3.267832e+01 6.014273e+01 4.649751e+01 6.060592e+01 7.995394e+01 5.549017e+01 4.596269e+01 5.674486e+01 4.103881e+01 2.995664e+01 2.814278e+01 2.626648e+01 2.782798e+00 2.967987e+00 2.976174e+00 4.358909e+00 4.870712e+00 5.839102e+00 4.260954e+00 3.580991e+00 3.656567e+00 3.403094e+00 3.130402e+00 2.638721e+00 2.321630e+00
<GCONST> 1.076801e+02
~t "T_k"
<ENDHMM>
~h "k+e"
<BEGINHMM>
<NUMSTATES> 5
<STATE> 2
<MEAN> 25
 -2.312355e-01 1.961118e+00 -8.483832e-01 1.450593e+00 1.457601e+00 2.408843e+00 -4.597814e-01 -1.728608e+00 -1.790877e-01 8.893732e-01 6.985575e-01 -3.931130e-01 -7.720011e-01 -7.842530e-02 -5.205820e-01 -9.070294e-01 -7.591282e-01 3.915028e-01 7.773291e-01 4.507853e-01 3.840126e-01 1.228299e-01 3.643597e-01 2.747205e-01 -4.715713e-01
<VARIANCE> 25
 2.273778e+01 2.853440e+01 3.812323e+01 4.159114e+01 4.112223e+01 3.378465e+01 3.233773e+01 3.354189e+01 3.298198e+01 2.542086e+01 2.348176e+01 2.239305e+01 1.604517e+00 4.217481e+00 2.607781e+00 4.085482e+00 3.966224e+00 4.291962e+00 3.567861e+00 3.176125e+00 3.109658e+00 2.588859e+00 2.471189e+00 2.213985e+00 5.200278e+00
<GCONST> 1.019870e+02
<STATE> 3
<MEAN> 25
 -1.427904e+00 -2.522660e+00 -2.585010e+00 -5.629199e+00 -8.787394e-01 -3.528969e-01 2.678309e+00 -7.877849e-01 7.780784e-01 5.548463e-01 2.357178e+00 4.609265e-01 3.902499e-01 -8.271015e-01 2.816469e-01 -1.033817e+00 -3.860129e-01 -9.675173e-01 2.915441e-01 -2.320813e-02 -3.249466e-01 -1.045423e-01 2.656671e-02 -1.464451e-01 1.487963e+00
<VARIANCE> 25
 2.691691e+01 7.003792e+01 5.256176e+01 6.985202e+01 8.061441e+01 6.468961e+01 6.198301e+01 6.249512e+01 4.851157e+01 4.706096e+01 4.291992e+01 3.999689e+01 2.103719e+00 4.420229e+00 3.587986e+00 5.717131e+00 5.819118e+00 5.228204e+00 4.675033e+00 4.933011e+00 4.070527e+00 3.372667e+00 3.275937e+00 3.025996e+00 4.842046e+00
<GCONST> 1.119947e+02
<STATE> 4
<MEAN> 25
 1.419271e+00 -3.539429e-01 4.778248e-01 -3.932618e+00 -2.930405e+00 -2.244887e+00 1.284940e+00 5.541340e-02 -5.615529e-01 7.321874e-01 8.684695e-01 -6.447970e-01 1.883814e+00 8.443043e-01 8.145797e-01 1.344449e+00 6.578749e-02 -1.397391e+00 -1.716680e+00 -6.972357e-01 -6.383767e-01 -3.624772e-01 -5.773226e-01 -2.933102e-01 8.197570e-01
<VARIANCE> 25
 3.267832e+01 6.014273e+01 4.649751e+01 6.060592e+01 7.995394e+01 5.549017e+01 4.596269e+01 5.674486e+01 4.103881e+01 2.995664e+01 2.814278e+01 2.626648e+01 2.782798e+00 2.967987e+00 2.976174e+00 4.358909e+00 4.870712e+00 5.839102e+00 4.260954e+00 3.580991e+00 3.656567e+00 3.403094e+00 3.130402e+00 2.638721e+00 2.321630e+00
<GCONST> 1.076801e+02
~t "T_k"
<ENDHMM>
~h "k+i"
<BEGINHMM>
<NUMSTATES> 5
<STATE> 2
<MEAN> 25
 -2.312355e-01 1.961118e+00 -8.483832e-01 1.450593e+00 1.457601e+00 2.408843e+00 -4.597814e-01 -1.728608e+00 -1.790877e-01 8.893732e-01 6.985575e-01 -3.931130e-01 -7.720011e-01 -7.842530e-02 -5.205820e-01 -9.070294e-01 -7.591282e-01 3.915028e-01 7.773291e-01 4.507853e-01 3.840126e-01 1.228299e-01 3.643597e-01 2.747205e-01 -4.715713e-01
<VARIANCE> 25
 2.273778e+01 2.853440e+01 3.812323e+01 4.159114e+01 4.112223e+01 3.378465e+01 3.233773e+01 3.354189e+01 3.298198e+01 2.542086e+01 2.348176e+01 2.239305e+01 1.604517e+00 4.217481e+00 2.607781e+00 4.085482e+00 3.966224e+00 4.291962e+00 3.567861e+00 3.176125e+00 3.109658e+00 2.588859e+00 2.471189e+00 2.213985e+00 5.200278e+00
<GCONST> 1.019870e+02
<STATE> 3
<MEAN> 25
 -1.427904e+00 -2.522660e+00 -2.585010e+00 -5.629199e+00 -8.787394e-01 -3.528969e-01 2.678309e+00 -7.877849e-01 7.780784e-01 5.548463e-01 2.357178e+00 4.609265e-01 3.902499e-01 -8.271015e-01 2.816469e-01 -1.033817e+00 -3.860129e-01 -9.675173e-01 2.915441e-01 -2.320813e-02 -3.249466e-01 -1.045423e-01 2.656671e-02 -1.464451e-01 1.487963e+00
<VARIANCE> 25
 2.691691e+01 7.003792e+01 5.256176e+01 6.985202e+01 8.061441e+01 6.468961e+01 6.198301e+01 6.249512e+01 4.851157e+01 4.706096e+01 4.291992e+01 3.999689e+01 2.103719e+00 4.420229e+00 3.587986e+00 5.717131e+00 5.819118e+00 5.228204e+00 4.675033e+00 4.933011e+00 4.070527e+00 3.372667e+00 3.275937e+00 3.025996e+00 4.842046e+00
<GCONST> 1.119947e+02
<STATE> 4
<MEAN> 25
 1.419271e+00 -3.539429e-01 4.778248e-01 -3.932618e+00 -2.930405e+00 -2.244887e+00 1.284940e+00 5.541340e-02 -5.615529e-01 7.321874e-01 8.684695e-01 -6.447970e-01 1.883814e+00 8.443043e-01 8.145797e-01 1.344449e+00 6.578749e-02 -1.397391e+00 -1.716680e+00 -6.972357e-01 -6.383767e-01 -3.624772e-01 -5.773226e-01 -2.933102e-01 8.197570e-01
<VARIANCE> 25
 3.267832e+01 6.014273e+01 4.649751e+01 6.060592e+01 7.995394e+01 5.549017e+01 4.596269e+01 5.674486e+01 4.103881e+01 2.995664e+01 2.814278e+01 2.626648e+01 2.782798e+00 2.967987e+00 2.976174e+00 4.358909e+00 4.870712e+00 5.839102e+00 4.260954e+00 3.580991e+00 3.656567e+00 3.403094e+00 3.130402e+00 2.638721e+00 2.321630e+00
<GCONST> 1.076801e+02
~t "T_k"
<ENDHMM>
~h "k+l"
<BEGINHMM>
<NUMSTATES> 5
<STATE> 2
<MEAN> 25
 -2.312355e-01 1.961118e+00 -8.483832e-01 1.450593e+00 1.457601e+00 2.408843e+00 -4.597814e-01 -1.728608e+00 -1.790877e-01 8.893732e-01 6.985575e-01 -3.931130e-01 -7.720011e-01 -7.842530e-02 -5.205820e-01 -9.070294e-01 -7.591282e-01 3.915028e-01 7.773291e-01 4.507853e-01 3.840126e-01 1.228299e-01 3.643597e-01 2.747205e-01 -4.715713e-01
<VARIANCE> 25
 2.273778e+01 2.853440e+01 3.812323e+01 4.159114e+01 4.112223e+01 3.378465e+01 3.233773e+01 3.354189e+01 3.298198e+01 2.542086e+01 2.348176e+01 2.239305e+01 1.604517e+00 4.217481e+00 2.607781e+00 4.085482e+00 3.966224e+00 4.291962e+00 3.567861e+00 3.176125e+00 3.109658e+00 2.588859e+00 2.471189e+00 2.213985e+00 5.200278e+00
<GCONST> 1.019870e+02
<STATE> 3
<MEAN> 25
 -1.427904e+00 -2.522660e+00 -2.585010e+00 -5.629199e+00 -8.787394e-01 -3.528969e-01 2.678309e+00 -7.877849e-01 7.780784e-01 5.548463e-01 2.357178e+00 4.609265e-01 3.902499e-01 -8.271015e-01 2.816469e-01 -1.033817e+00 -3.860129e-01 -9.675173e-01 2.915441e-01 -2.320813e-02 -3.249466e-01 -1.045423e-01 2.656671e-02 -1.464451e-01 1.487963e+00
<VARIANCE> 25
 2.691691e+01 7.003792e+01 5.256176e+01 6.985202e+01 8.061441e+01 6.468961e+01 6.198301e+01 6.249512e+01 4.851157e+01 4.706096e+01 4.291992e+01 3.999689e+01 2.103719e+00 4.420229e+00 3.587986e+00 5.717131e+00 5.819118e+00 5.228204e+00 4.675033e+00 4.933011e+00 4.070527e+00 3.372667e+00 3.275937e+00 3.025996e+00 4.842046e+00
<GCONST> 1.119947e+02
<STATE> 4
<MEAN> 25
 1.419271e+00 -3.539429e-01 4.778248e-01 -3.932618e+00 -2.930405e+00 -2.244887e+00 1.284940e+00 5.541340e-02 -5.615529e-01 7.321874e-01 8.684695e-01 -6.447970e-01 1.883814e+00 8.443043e-01 8.145797e-01 1.344449e+00 6.578749e-02 -1.397391e+00 -1.716680e+00 -6.972357e-01 -6.383767e-01 -3.624772e-01 -5.773226e-01 -2.933102e-01 8.197570e-01
<VARIANCE> 25
 3.267832e+01 6.014273e+01 4.649751e+01 6.060592e+01 7.995394e+01 5.549017e+01 4.596269e+01 5.674486e+01 4.103881e+01 2.995664e+01 2.814278e+01 2.626648e+01 2.782798e+00 2.967987e+00 2.976174e+00 4.358909e+00 4.870712e+00 5.839102e+00 4.260954e+00 3.580991e+00 3.656567e+00 3.403094e+00 3.130402e+00 2.638721e+00 2.321630e+00
<GCONST> 1.076801e+02
~t "T_k"
<ENDHMM>
~h "k+o"
<BEGINHMM>
<NUMSTATES> 5
<STATE> 2
<MEAN> 25
 -2.312355e-01 1.961118e+00 -8.483832e-01 1.450593e+00 1.457601e+00 2.408843e+00 -4.597814e-01 -1.728608e+00 -1.790877e-01 8.893732e-01 6.985575e-01 -3.931130e-01 -7.720011e-01 -7.842530e-02 -5.205820e-01 -9.070294e-01 -7.591282e-01 3.915028e-01 7.773291e-01 4.507853e-01 3.840126e-01 1.228299e-01 3.643597e-01 2.747205e-01 -4.715713e-01
<VARIANCE> 25
 2.273778e+01 2.853440e+01 3.812323e+01 4.159114e+01 4.112223e+01 3.378465e+01 3.233773e+01 3.354189e+01 3.298198e+01 2.542086e+01 2.348176e+01 2.239305e+01 1.604517e+00 4.217481e+00 2.607781e+00 4.085482e+00 3.966224e+00 4.291962e+00 3.567861e+00 3.176125e+00 3.109658e+00 2.588859e+00 2.471189e+00 2.213985e+00 5.200278e+00
<GCONST> 1.019870e+02
<STATE> 3
<MEAN> 25
 -1.427904e+00 -2.522660e+00 -2.585010e+00 -5.629199e+00 -8.787394e-01 -3.528969e-01 2.678309e+00 -7.877849e-01 7.780784e-01 5.548463e-01 2.357178e+00 4.609265e-01 3.902499e-01 -8.271015e-01 2.816469e-01 -1.033817e+00 -3.860129e-01 -9.675173e-01 2.915441e-01 -2.320813e-02 -3.249466e-01 -1.045423e-01 2.656671e-02 -1.464451e-01 1.487963e+00
<VARIANCE> 25
 2.691691e+01 7.003792e+01 5.256176e+01 6.985202e+01 8.061441e+01 6.468961e+01 6.198301e+01 6.249512e+01 4.851157e+01 4.706096e+01 4.291992e+01 3.999689e+01 2.103719e+00 4.420229e+00 3.587986e+00 5.717131e+00 5.819118e+00 5.228204e+00 4.675033e+00 4.933011e+00 4.070527e+00 3.372667e+00 3.275937e+00 3.025996e+00 4.842046e+00
<GCONST> 1.119947e+02
<STATE> 4
<MEAN> 25
 1.419271e+00 -3.539429e-01 4.778248e-01 -3.932618e+00 -2.930405e+00 -2.244887e+00 1.284940e+00 5.541340e-02 -5.615529e-01 7.321874e-01 8.684695e-01 -6.447970e-01 1.883814e+00 8.443043e-01 8.145797e-01 1.344449e+00 6.578749e-02 -1.397391e+00 -1.716680e+00 -6.972357e-01 -6.383767e-01 -3.624772e-01 -5.773226e-01 -2.933102e-01 8.197570e-01
<VARIANCE> 25
 3.267832e+01 6.014273e+01 4.649751e+01 6.060592e+01 7.995394e+01 5.549017e+01 4.596269e+01 5.674486e+01 4.103881e+01 2.995664e+01 2.814278e+01 2.626648e+01 2.782798e+00 2.967987e+00 2.976174e+00 4.358909e+00 4.870712e+00 5.839102e+00 4.260954e+00 3.580991e+00 3.656567e+00 3.403094e+00 3.130402e+00 2.638721e+00 2.321630e+00
<GCONST> 1.076801e+02
~t "T_k"
<ENDHMM>
~h "k+r"
<BEGINHMM>
<NUMSTATES> 5
<STATE> 2
<MEAN> 25
 -2.312355e-01 1.961118e+00 -8.483832e-01 1.450593e+00 1.457601e+00 2.408843e+00 -4.597814e-01 -1.728608e+00 -1.790877e-01 8.893732e-01 6.985575e-01 -3.931130e-01 -7.720011e-01 -7.842530e-02 -5.205820e-01 -9.070294e-01 -7.591282e-01 3.915028e-01 7.773291e-01 4.507853e-01 3.840126e-01 1.228299e-01 3.643597e-01 2.747205e-01 -4.715713e-01
<VARIANCE> 25
 2.273778e+01 2.853440e+01 3.812323e+01 4.159114e+01 4.112223e+01 3.378465e+01 3.233773e+01 3.354189e+01 3.298198e+01 2.542086e+01 2.348176e+01 2.239305e+01 1.604517e+00 4.217481e+00 2.607781e+00 4.085482e+00 3.966224e+00 4.291962e+00 3.567861e+00 3.176125e+00 3.109658e+00 2.588859e+00 2.471189e+00 2.213985e+00 5.200278e+00
<GCONST> 1.019870e+02
<STATE> 3
<MEAN> 25
 -1.427904e+00 -2.522660e+00 -2.585010e+00 -5.629199e+00 -8.787394e-01 -3.528969e-01 2.678309e+00 -7.877849e-01 7.780784e-01 5.548463e-01 2.357178e+00 4.609265e-01 3.902499e-01 -8.271015e-01 2.816469e-01 -1.033817e+00 -3.860129e-01 -9.675173e-01 2.915441e-01 -2.320813e-02 -3.249466e-01 -1.045423e-01 2.656671e-02 -1.464451e-01 1.487963e+00
<VARIANCE> 25
 2.691691e+01 7.003792e+01 5.256176e+01 6.985202e+01 8.061441e+01 6.468961e+01 6.198301e+01 6.249512e+01 4.851157e+01 4.706096e+01 4.291992e+01 3.999689e+01 2.103719e+00 4.420229e+00 3.587986e+00 5.717131e+00 5.819118e+00 5.228204e+00 4.675033e+00 4.933011e+00 4.070527e+00 3.372667e+00 3.275937e+00 3.025996e+00 4.842046e+00
<GCONST> 1.119947e+02
<STATE> 4
<MEAN> 25
 1.419271e+00 -3.539429e-01 4.778248e-01 -3.932618e+00 -2.930405e+00 -2.244887e+00 1.284940e+00 5.541340e-02 -5.615529e-01 7.321874e-01 8.684695e-01 -6.447970e-01 1.883814e+00 8.443043e-01 8.145797e-01 1.344449e+00 6.578749e-02 -1.397391e+00 -1.716680e+00 -6.972357e-01 -6.383767e-01 -3.624772e-01 -5.773226e-01 -2.933102e-01 8.197570e-01
<VARIANCE> 25
 3.267832e+01 6.014273e+01 4.649751e+01 6.060592e+01 7.995394e+01 5.549017e+01 4.596269e+01 5.674486e+01 4.103881e+01 2.995664e+01 2.814278e+01 2.626648e+01 2.782798e+00 2.967987e+00 2.976174e+00 4.358909e+00 4.870712e+00 5.839102e+00 4.260954e+00 3.580991e+00 3.656567e+00 3.403094e+00 3.130402e+00 2.638721e+00 2.321630e+00
<GCONST> 1.076801e+02
~t "T_k"
<ENDHMM>
~h "k+u"
<BEGINHMM>
<NUMSTATES> 5
<STATE> 2
<MEAN> 25
 -2.312355e-01 1.961118e+00 -8.483832e-01 1.450593e+00 1.457601e+00 2.408843e+00 -4.597814e-01 -1.728608e+00 -1.790877e-01 8.893732e-01 6.985575e-01 -3.931130e-01 -7.720011e-01 -7.842530e-02 -5.205820e-01 -9.070294e-01 -7.591282e-01 3.915028e-01 7.773291e-01 4.507853e-01 3.840126e-01 1.228299e-01 3.643597e-01 2.747205e-01 -4.715713e-01
<VARIANCE> 25
 2.273778e+01 2.853440e+01 3.812323e+01 4.159114e+01 4.112223e+01 3.378465e+01 3.233773e+01 3.354189e+01 3.298198e+01 2.542086e+01 2.348176e+01 2.239305e+01 1.604517e+00 4.217481e+00 2.607781e+00 4.085482e+00 3.966224e+00 4.291962e+00 3.567861e+00 3.176125e+00 3.109658e+00 2.588859e+00 2.471189e+00 2.213985e+00 5.200278e+00
<GCONST> 1.019870e+02
<STATE> 3
<MEAN> 25
 -1.427904e+00 -2.522660e+00 -2.585010e+00 -5.629199e+00 -8.787394e-01 -3.528969e-01 2.678309e+00 -7.877849e-01 7.780784e-01 5.548463e-01 2.357178e+00 4.609265e-01 3.902499e-01 -8.271015e-01 2.816469e-01 -1.033817e+00 -3.860129e-01 -9.675173e-01 2.915441e-01 -2.320813e-02 -3.249466e-01 -1.045423e-01 2.656671e-02 -1.464451e-01 1.487963e+00
<VARIANCE> 25
 2.691691e+01 7.003792e+01 5.256176e+01 6.985202e+01 8.061441e+01 6.468961e+01 6.198301e+01 6.249512e+01 4.851157e+01 4.706096e+01 4.291992e+01 3.999689e+01 2.103719e+00 4.420229e+00 3.587986e+00 5.717131e+00 5.819118e+00 5.228204e+00 4.675033e+00 4.933011e+00 4.070527e+00 3.372667e+00 3.275937e+00 3.025996e+00 4.842046e+00
<GCONST> 1.119947e+02
<STATE> 4
<MEAN> 25
 1.419271e+00 -3.539429e-01 4.778248e-01 -3.932618e+00 -2.930405e+00 -2.244887e+00 1.284940e+00 5.541340e-02 -5.615529e-01 7.321874e-01 8.684695e-01 -6.447970e-01 1.883814e+00 8.443043e-01 8.145797e-01 1.344449e+00 6.578749e-02 -1.397391e+00 -1.716680e+00 -6.972357e-01 -6.383767e-01 -3.624772e-01 -5.773226e-01 -2.933102e-01 8.197570e-01
<VARIANCE> 25
 3.267832e+01 6.014273e+01 4.649751e+01 6.060592e+01 7.995394e+01 5.549017e+01 4.596269e+01 5.674486e+01 4.103881e+01 2.995664e+01 2.814278e+01 2.626648e+01 2.782798e+00 2.967987e+00 2.976174e+00 4.358909e+00 4.870712e+00 5.839102e+00 4.260954e+00 3.580991e+00 3.656567e+00 3.403094e+00 3.130402e+00 2.638721e+00 2.321630e+00
<GCONST> 1.076801e+02
~t "T_k"
<ENDHMM>
~h "k-a"
<BEGINHMM>
<NUMSTATES> 5
<STATE> 2
<MEAN> 25
 8.084209e+00 -3.246555e+00 -4.886938e+00 -2.890126e+00 -1.922659e+00 -4.591505e+00 -1.062124e+00 -1.533606e+00 -3.011539e+00 -1.419097e+00 7.822737e-01 1.974153e+00 8.531939e-01 -1.219489e+00 -1.591901e+00 -1.511451e+00 -1.099942e+00 -1.081241e+00 3.296968e-01 2.435892e-01 2.131322e-01 7.433307e-01 1.096173e+00 1.076555e+00 1.531909e+00
<VARIANCE> 25
 3.102556e+01 3.982352e+01 4.648204e+01 6.052976e+01 4.865224e+01 5.364120e+01 4.957391e+01 5.206113e+01 4.994263e+01 4.377484e+01 3.566540e+01 3.010361e+01 2.105191e+00 2.133569e+00 2.607650e+00 3.361774e+00 2.917656e+00 3.954443e+00 3.398865e+00 3.319243e+00 3.668817e+00 4.076825e+00 3.093344e+00 2.673295e+00 1.675560e+00
<GCONST> 1.052759e+02
<STATE> 3
<MEAN> 25
 9.462610e+00 -6.897775e+00 -8.743549e+00 -6.083593e+00 -4.604442e+00 -5.470979e+00 1.397076e+00 -2.830499e-01 -1.629562e+00 7.007640e-01 2.659651e+00 3.340820e+00 3.290816e-02 -1.735238e-01 -3.625012e-01 -3.627358e-01 -1.769637e-01 2.254089e-01 4.766614e-01 2.827543e-01 2.371980e-01 1.767752e-01 8.445666e-02 6.974697e-02 8.193482e-02
<VARIANCE> 25
 2.840129e+01 3.570125e+01 4.138834e+01 4.038225e+01 4.118876e+01 4.148624e+01 4.739182e+01 4.747406e+01 4.473821e+01 4.189992e+01 3.449903e+01 2.805832e+01 3.302394e-01 8.424883e-01 9.393210e-01 1.242460e+00 1.324397e+00 1.496400e+00 1.901740e+00 1.780651e+00 1.803969e+00 1.726919e+00 1.430944e+00 1.179275e+00 3.783611e-01
<GCONST> 9.133002e+01
<STATE> 4
<MEAN> 25
 8.177530e+00 -2.680661e+00 -7.293503e+00 -5.932261e+00 -3.758124e+00 -2.794274e+00 1.176165e+00 -3.390664e-01 -1.368642e+00 2.573896e-01 2.133668e+00 3.287408e+00 -4.538044e-01 8.704351e-01 7.276899e-01 4.679444e-01 4.150407e-01 5.706517e-01 -1.937626e-01 -1.382255e-01 1.753797e-02 -1.629017e-01 -2.942949e-01 -3.140077e-01 -8.826797e-01
<VARIANCE> 25
 2.215926e+01 3.099335e+01 3.486272e+01 3.668752e+01 3.283007e+01 3.965223e+01 3.500597e+01 3.826480e+01 3.512437e+01 3.170736e+01 2.563973e+01 2.200531e+01 5.861269e-01 9.910762e-01 1.080531e+00 1.252255e+00 1.395680e+00 1.835312e+00 1.787168e+00 1.826652e+00 1.993582e+00 1.853269e+00 1.609923e+00 1.318195e+00 6.483233e-01
<GCONST> 9.086413e+01
~t "T_a"
<ENDHMM>
~h "k-e"
<BEGINHMM>
<NUMSTATES> 5
<STATE> 2
<MEAN> 25
 4.917822e+00 -3.046909e+00 -7.860230e-01 1.961976e+00 3.296882e+00 -3.095960e+00 -4.445966e+00 -4.378197e+00 -4.194638e+00 -1.446952e+00 1.146220e-01 1.648807e-01 1.062938e+00 -1.285595e+00 -6.981800e-01 4.423747e-01 5.001229e-01 -1.895295e+00 -1.787762e+00 -1.308817e+00 -1.084860e+00 1.344622e-01 6.617222e-01 3.701210e-01 1.670173e+00
<VARIANCE> 25
 3.577217e+01 3.706077e+01 4.774310e+01 6.015227e+01 4.925949e+01 6.036604e+01 5.010396e+01 4.977269e+01 4.858726e+01 3.950971e+01 3.013842e+01 2.473536e+01 2.384392e+00 2.958043e+00 2.685448e+00 3.858023e+00 3.340221e+00 5.064232e+00 4.063103e+00 3.681123e+00 4.037725e+00 4.174648e+00 3.332788e+00 2.898063e+00 2.226966e+00
<GCONST> 1.068105e+02
<STATE> 3
<MEAN> 25
 7.191195e+00 -7.001473e+00 -2.328277e+00 2.836691e+00 3.888689e+00 -7.911126e+00 -8.482172e+00 -6.657192e+00 -5.470276e+00 -1.285404e-01 1.987994e+00 7.147580e-01 8.514885e-02 -4.249433e-01 -1.496204e-01 2.818093e-01 1.203487e-01 -6.073316e-01 -4.420330e-01 -1.406531e-01 1.603031e-01 5.093133e-01 3.347531e-01 -4.041983e-02 2.952766e-01
<VARIANCE> 25
 2.837927e+01 3.550758e+01 4.376701e+01 6.339727e+01 5.782299e+01 6.153004e+01 4.445435e+01 4.665985e+01 4.438187e+01 4.603452e+01 3.686113e+01 3.249733e+01 5.579238e-01 9.633060e-01 1.396090e+00 1.826277e+00 1.583154e+00 2.003756e+00 1.982185e+00 1.856537e+00 2.013892e+00 2.006657e+00 1.751121e+00 1.508502e+00 5.828047e-01
<GCONST> 9.591582e+01
<STATE> 4
<MEAN> 25
 5.895019e+00 -4.724988e+00 -1.197292e+00 3.906052e+00 3.870449e+00 -6.545651e+00 -8.215060e+00 -6.679025e+00 -4.172563e+00 5.337154e-01 9.279272e-01 -6.742178e-01 -3.232698e-01 7.992764e-01 3.300467e-01 -6.339286e-02 7.912491e-02 1.004552e+00 6.088396e-01 3.772415e-01 3.436322e-01 -1.313366e-01 -2.720630e-01 -1.298955e-01 -7.956876e-01
<VARIANCE> 25
 2.029749e+01 3.066547e+01 3.368494e+01 5.057070e+01 4.296806e+01 5.593891e+01 3.659196e+01 3.710094e+01 4.034227e+01 3.575679e+01 3.262199e+01 2.925796e+01 5.569103e-01 1.011105e+00 1.171097e+00 1.448238e+00 1.440968e+00 2.011663e+00 1.814593e+00 1.739066e+00 1.905525e+00 1.867028e+00 1.539982e+00 1.274082e+00 7.538318e-01
<GCONST> 9.278246e+01
~t "T_e"
<ENDHMM>
~h "k-i"
<BEGINHMM>
<NUMSTATES> 5
<STATE> 2
<MEAN> 25
 2.824880e+00 -2.961581e+00 4.292364e+00 7.499251e+00 7.346193e+00 -2.067250e+00 -5.297520e+00 -2.873806e+00 -2.378581e+00 -1.973293e+00 -2.520489e+00 -3.736685e+00 1.015099e+00 -9.724852e-01 2.479329e-01 2.179622e+00 1.426837e+00 -2.128228e+00 -2.309814e+00 -3.848035e-01 -7.270547e-01 -7.560874e-01 -6.794949e-01 -8.365397e-01 1.175898e+00
<VARIANCE> 25
 3.374600e+01 3.967356e+01 6.750194e+01 6.375350e+01 5.781096e+01 6.437442e+01 4.980933e+01 4.415491e+01 4.445846e+01 3.540117e+01 3.356274e+01 2.704606e+01 3.132528e+00 4.137255e+00 3.621446e+00 4.487921e+00 4.215056e+00 5.312013e+00 4.005538e+00 3.824685e+00 4.409300e+00 4.209664e+00 3.923692e+00 2.984154e+00 1.617640e+00
<GCONST> 1.086541e+02
<STATE> 3
<MEAN> 25
 3.691633e+00 -6.378765e+00 6.166086e+00 1.236009e+01 7.380941e+00 -9.047977e+00 -9.580333e+00 -1.629763e+00 -3.102339e+00 -4.599288e+00 -4.548250e+00 -5.048493e+00 8.359629e-02 -2.991736e-01 1.296623e-01 4.305927e-01 9.667514e-03 -8.290642e-01 -5.818837e-01 1.603395e-01 8.957740e-02 -1.876646e-01 -1.591199e-01 -1.092843e-01 2.681427e-01
<VARIANCE> 25
 2.149308e+01 3.103732e+01 4.970968e+01 5.873264e+01 7.158559e+01 6.920425e+01 3.966159e+01 4.495304e+01 4.204121e+01 4.275245e+01 4.102441e+01 2.954641e+01 6.639252e-01 9.264812e-01 1.883231e+00 1.858640e+00 1.558079e+00 2.146437e+00 1.929194e+00 2.097977e+00 1.840118e+00 1.884095e+00 1.595546e+00 1.333590e+00 5.259222e-01
<GCONST> 9.574519e+01
<STATE> 4
<MEAN> 25
 4.036044e+00 -4.218312e+00 4.209880e+00 1.037407e+01 7.996428e+00 -6.247262e+00 -9.419474e+00 -3.331409e+00 -2.663913e+00 -2.918104e+00 -3.142705e+00 -4.376024e+00 3.821991e-02 8.336469e-01 -6.000085e-01 -1.181883e+00 -5.675405e-01 1.117856e+00 8.718380e-01 -2.187419e-01 -3.897155e-02 3.511441e-01 4.869802e-01 5.886047e-01 -5.325214e-01
<VARIANCE> 25
 1.972391e+01 3.227742e+01 4.309776e+01 5.167957e+01 5.495691e+01 6.691110e+01 3.850472e+01 4.351723e+01 4.154246e+01 3.556070e+01 3.517086e+01 2.803684e+01 6.999541e-01 1.390189e+00 1.663853e+00 1.824908e+00 1.964548e+00 2.784639e+00 2.501812e+00 2.236512e+00 2.341234e+00 2.148965e+00 1.947036e+00 1.699689e+00 1.056007e+00
<GCONST> 9.730878e+01
~t "T_i"
<ENDHMM>
~h "k-k"
<BEGINHMM>
<NUMSTATES> 5
<STATE> 2
<MEAN> 25
 -2.312355e-01 1.961118e+00 -8.483832e-01 1.450593e+00 1.457601e+00 2.408843e+00 -4.597814e-01 -1.728608e+00 -1.790877e-01 8.893732e-01 6.985575e-01 -3.931130e-01 -7.720011e-01 -7.842530e-02 -5.205820e-01 -9.070294e-01 -7.591282e-01 3.915028e-01 7.773291e-01 4.507853e-01 3.840126e-01 1.228299e-01 3.643597e-01 2.747205e-01 -4.715713e-01
<VARIANCE> 25
 2.273778e+01 2.853440e+01 3.812323e+01 4.159114e+01 4.112223e+01 3.378465e+01 3.233773e+01 3.354189e+01 3.298198e+01 2.542086e+01 2.348176e+01 2.239305e+01 1.604517e+00 4.217481e+00 2.607781e+00 4.085482e+00 3.966224e+00 4.291962e+00 3.567861e+00 3.176125e+00 3.109658e+00 2.588859e+00 2.471189e+00 2.213985e+00 5.200278e+00
<GCONST> 1.019870e+02
<STATE> 3
<MEAN> 25
 -1.427904e+00 -2.522660e+00 -2.585010e+00 -5.629199e+00 -8.787394e-01 -3.528969e-01 2.678309e+00 -7.877849e-01 7.780784e-01 5.548463e-01 2.357178e+00 4.609265e-01 3.902499e-01 -8.271015e-01 2.816469e-01 -1.033817e+00 -3.860129e-01 -9.675173e-01 2.915441e-01 -2.320813e-02 -3.249466e-01 -1.045423e-01 2.656671e-02 -1.464451e-01 1.487963e+00
<VARIANCE> 25
 2.691691e+01 7.003792e+01 5.256176e+01 6.985202e+01 8.061441e+01 6.468961e+01 6.198301e+01 6.249512e+01 4.851157e+01 4.706096e+01 4.291992e+01 3.999689e+01 2.103719e+00 4.420229e+00 3.587986e+00 5.717131e+00 5.819118e+00 5.228204e+00 4.675033e+00 4.933011e+00 4.070527e+00 3.372667e+00 3.275937e+00 3.025996e+00 4.842046e+00
<GCONST> 1.119947e+02
<STATE> 4
<MEAN> 25
 1.419271e+00 -3.539429e-01 4.778248e-01 -3.932618e+00 -2.930405e+00 -2.244887e+00 1.284940e+00 5.541340e-02 -5.615529e-01 7.321874e-01 8.684695e-01 -6.447970e-01 1.883814e+00 8.443043e-01 8.145797e-01 1.344449e+00 6.578749e-02 -1.397391e+00 -1.716680e+00 -6.972357e-01 -6.383767e-01 -3.624772e-01 -5.773226e-01 -2.933102e-01 8.197570e-01
<VARIANCE> 25
 3.267832e+01 6.014273e+01 4.649751e+01 6.060592e+01 7.995394e+01 5.549017e+01 4.596269e+01 5.674486e+01 4.103881e+01 2.995664e+01 2.814278e+01 2.626648e+01 2.782798e+00 2.967987e+00 2.976174e+00 4.358909e+00 4.870712e+00 5.839102e+00 4.260954e+00 3.580991e+00 3.656567e+00 3.403094e+00 3.130402e+00 2.638721e+00 2.321630e+00
<GCONST> 1.076801e+02
~t "T_k"
<ENDHMM>
~h "k-o"
<BEGINHMM>
<NUMSTATES> 5
<STATE> 2
<MEAN> 25
 8.202134e+00 8.756948e-01 -1.556870e+00 -2.412576e+00 -4.135490e+00 -5.283045e+00 -1.325630e+00 5.514442e-01 -3.256593e+00 -4.464030e+00 -3.179199e+00 -1.018459e+00 8.533680e-01 5.628624e-02 -4.272498e-01 -1.163086e+00 -1.742013e+00 -1.833407e+00 -1.006363e-01 8.327968e-01 2.565329e-01 -1.784475e-01 -2.551433e-01 1.000556e-01 7.841955e-01
<VARIANCE> 25
 2.727819e+01 4.614404e+01 4.546624e+01 5.624189e+01 6.257309e+01 6.102062e+01 4.518742e+01 4.939813e+01 5.469617e+01 4.219932e+01 3.056493e+01 2.847985e+01 1.604221e+00 2.714622e+00 2.414845e+00 3.306103e+00 3.399673e+00 4.293542e+00 4.410888e+00 3.910635e+00 3.812121e+00 3.509329e+00 2.851977e+00 2.694980e+00 1.552250e+00
<GCONST> 1.055529e+02
<STATE> 3
<MEAN> 25
 9.608891e+00 1.841884e+00 -1.624231e+00 -4.843653e+00 -1.056682e+01 -1.047259e+01 -3.275502e-01 4.228262e+00 -8.981493e-01 -3.707518e+00 -3.771726e+00 -1.847208e+00 -1.603226e-01 3.746803e-01 2.492852e-02 -5.283350e-02 -1.316152e-01 2.060792e-01 2.320018e-01 3.473101e-01 4.636069e-01 2.421327e-01 -1.011645e-03 -9.001540e-02 -4.208844e-01
<VARIANCE> 25
 2.191664e+01 3.832346e+01 3.536129e+01 4.552036e+01 5.146196e+01 5.402416e+01 4.532333e+01 4.316967e+01 5.194213e+01 3.791486e+01 2.724122e+01 2.477335e+01 5.759985e-01 1.296905e+00 1.329783e+00 1.436117e+00 2.015944e+00 2.854960e+00 1.984985e+00 2.227589e+00 2.343580e+00 2.045362e+00 1.638120e+00 1.449960e+00 1.066268e+00
<GCONST> 9.576168e+01
<STATE> 4
<MEAN> 25
 5.920141e+00 4.729104e+00 -6.619071e-01 -3.592440e+00 -6.668617e+00 -4.437122e+00 3.776827e-01 3.175261e+00 9.050462e-01 -1.454790e+00 -2.326509e+00 -1.249121e+00 -6.257654e-01 -3.906129e-02 1.678127e-01 4.218079e-01 7.039407e-01 9.980335e-01 2.885799e-01 -2.038472e-01 -1.773957e-02 1.877047e-01 2.155907e-01 8.154663e-02 -5.345345e-01
<VARIANCE> 25
 2.381943e+01 3.168683e+01 3.073319e+01 3.372535e+01 3.205265e+01 4.222814e+01 3.201194e+01 3.300840e+01 3.498757e+01 3.150789e+01 2.243595e+01 1.901501e+01 4.852379e-01 7.335701e-01 1.011674e+00 1.084659e+00 1.496157e+00 1.967000e+00 1.648281e+00 1.688958e+00 1.686677e+00 1.518985e+00 1.305284e+00 1.193857e+00 3.831035e-01
<GCONST> 8.833953e+01
~t "T_o"
<ENDHMM>
~h "o-ch+e"
<BEGINHMM>
<NUMSTATES> 5
<STATE> 2
<MEAN> 25
 -3.515305e+00 -5.826408e+00 6.770669e+00 1.690331e+00 -1.433543e+00 1.311194e+00 -8.473504e-01 -1.564756e-02 1.486803e+00 -1.773934e+00 -4.531376e-01 4.916118e-02 -1.929486e+00 -2.286035e+00 1.432176e+00 -1.023099e-01 -2.989334e-01 3.851319e-02 2.564107e-01 1.889517e-01 9.482999e-01 1.769091e-01 2.801395e-01 3.219435e-01 8.950387e-01
<VARIANCE> 25
 4.331898e+01 7.936980e+01 6.833836e+01 4.999400e+01 4.801806e+01 4.844822e+01 4.646045e+01 4.836494e+01 4.783947e+01 3.791654e+01 3.232258e+01 2.454547e+01 1.851286e+00 7.669931e+00 6.159750e+00 3.452475e+00 3.472772e+00 4.140024e+00 3.523978e+00 3.569549e+00 3.155254e+00 2.976944e+00 2.255540e+00 2.050224e+00 6.671400e+00
<GCONST> 1.084521e+02
<STATE> 3
<MEAN> 25
 -1.108798e+01 -1.948901e+01 1.376653e+01 1.118908e+00 -4.445756e-01 -1.846460e-01 -1.224519e+00 -4.334573e-01 5.340496e+00 -8.536438e-02 1.277094e+00 2.056511e+00 1.302766e+00 6.569036e-01 -9.409735e-01 5.642725e-01 8.434920e-01 6.904846e-01 -3.385284e-01 -7.616201e-01 -4.334902e-01 4.428429e-01 1.827114e-01 1.404145e-01 -3.099542e-01
<VARIANCE> 25
 3.591089e+01 5.767048e+01 9.091859e+01 8.055508e+01 6.350099e+01 7.100402e+01 7.317664e+01 6.533994e+01 4.447422e+01 4.331369e+01 3.181114e+01 2.763056e+01 3.482492e+00 4.879806e+00 3.392511e+00 2.994451e+00 2.214943e+00 3.134732e+00 3.190136e+00 2.739042e+00 2.630057e+00 2.111520e+00 1.913656e+00 1.603518e+00 1.794401e+00
<GCONST> 1.063869e+02
<STATE> 4
<MEAN> 25
 -1.721438e+00 -1.021468e+01 6.895911e+00 2.611857e+00 7.177784e-01 3.217569e+00 -1.804813e+00 -2.833560e+00 1.391455e+00 -1.063743e+00 1.320703e-01 1.758912e+00 3.473007e+00 3.063818e+00 -1.771192e+00 -1.458062e-01 -3.454653e-01 -6.482190e-01 -8.350406e-01 -3.921632e-01 -1.795598e+00 -9.135399e-01 -9.172798e-01 -5.811502e-01 -6.058986e-01
<VARIANCE> 25
 3.350431e+01 3.652498e+01 5.543996e+01 4.107544e+01 3.849805e+01 4.208282e+01 4.809691e+01 4.542126e+01 3.864191e+01 3.712645e+01 2.983387e+01 2.518701e+01 2.997148e+00 2.974293e+00 3.189521e+00 4.118366e+00 3.599472e+00 4.296028e+00 4.654088e+00 4.965402e+00 3.636896e+00 3.091180e+00 2.790794e+00 2.614336e+00 1.042577e+00
<GCONST> 1.048478e+02
~t "T_ch"
<ENDHMM>
~h "o-ch+o"
<BEGINHMM>
<NUMSTATES> 5
<STATE> 2
<MEAN> 25
 -3.515305e+00 -5.826408e+00 6.770669e+00 1.690331e+00 -1.433543e+00 1.311194e+00 -8.473504e-01 -1.564756e-02 1.486803e+00 -1.773934e+00 -4.531376e-01 4.916118e-02 -1.929486e+00 -2.286035e+00 1.432176e+00 -1.023099e-01 -2.989334e-01 3.851319e-02 2.564107e-01 1.889517e-01 9.482999e-01 1.769091e-01 2.801395e-01 3.219435e-01 8.950387e-01
<VARIANCE> 25
 4.331898e+01 7.936980e+01 6.833836e+01 4.999400e+01 4.801806e+01 4.844822e+01 4.646045e+01 4.836494e+01 4.783947e+01 3.791654e+01 3.232258e+01 2.454547e+01 1.851286e+00 7.669931e+00 6.159750e+00 3.452475e+00 3.472772e+00 4.140024e+00 3.523978e+00 3.569549e+00 3.155254e+00 2.976944e+00 2.255540e+00 2.050224e+00 6.671400e+00
<GCONST> 1.084521e+02
<STATE> 3
<MEAN> 25
 -1.108798e+01 -1.948901e+01 1.376653e+01 1.118908e+00 -4.445756e-01 -1.846460e-01 -1.224519e+00 -4.334573e-01 5.340496e+00 -8.536438e-02 1.277094e+00 2.056511e+00 1.302766e+00 6.569036e-01 -9.409735e-01 5.642725e-01 8.434920e-01 6.904846e-01 -3.385284e-01 -7.616201e-01 -4.334902e-01 4.428429e-01 1.827114e-01 1.404145e-01 -3.099542e-01
<VARIANCE> 25
 3.591089e+01 5.767048e+01 9.091859e+01 8.055508e+01 6.350099e+01 7.100402e+01 7.317664e+01 6.533994e+01 4.447422e+01 4.331369e+01 3.181114e+01 2.763056e+01 3.482492e+00 4.879806e+00 3.392511e+00 2.994451e+00 2.214943e+00 3.134732e+00 3.190136e+00 2.739042e+00 2.630057e+00 2.111520e+00 1.913656e+00 1.603518e+00 1.794401e+00
<GCONST> 1.063869e+02
<STATE> 4
<MEAN> 25
 -1.721438e+00 -1.021468e+01 6.895911e+00 2.611857e+00 7.177784e-01 3.217569e+00 -1.804813e+00 -2.833560e+00 1.391455e+00 -1.063743e+00 1.320703e-01 1.758912e+00 3.473007e+00 3.063818e+00 -1.771192e+00 -1.458062e-01 -3.454653e-01 -6.482190e-01 -8.350406e-01 -3.921632e-01 -1.795598e+00 -9.135399e-01 -9.172798e-01 -5.811502e-01 -6.058986e-01
<VARIANCE> 25
 3.350431e+01 3.652498e+01 5.543996e+01 4.107544e+01 3.849805e+01 4.208282e+01 4.809691e+01 4.542126e+01 3.864191e+01 3.712645e+01 2.983387e+01 2.518701e+01 2.997148e+00 2.974293e+00 3.189521e+00 4.118366e+00 3.599472e+00 4.296028e+00 4.654088e+00 4.965402e+00 3.636896e+00 3.091180e+00 2.790794e+00 2.614336e+00 1.042577e+00
<GCONST> 1.048478e+02
~t "T_ch"
<ENDHMM>
~h "l+a"
<BEGINHMM>
<NUMSTATES> 5
<STATE> 2
<MEAN> 25
 6.314451e+00 -2.836339e+00 -2.415431e+00 2.781851e+00 1.947059e+00 -2.800302e+00 -2.661815e+00 -2.324516e+00 -3.876258e+00 -3.683601e+00 -1.570764e+00 7.563966e-02 3.129438e-01 4.277349e-01 7.984434e-01 1.918523e+00 1.017305e+00 4.531452e-01 -1.293264e-01 2.709396e-01 -7.299022e-01 -1.606042e+00 -1.354267e+00 -7.730924e-01 -6.160657e-01
<VARIANCE> 25
 3.768519e+01 4.112976e+01 4.717404e+01 6.522243e+01 4.798243e+01 5.569359e+01 4.089912e+01 4.426613e+01 5.019736e+01 4.535135e+01 3.915966e+01 3.028901e+01 1.699836e+00 1.977105e+00 2.316171e+00 3.031282e+00 2.905935e+00 4.508301e+00 3.719640e+00 4.100824e+00 4.742221e+00 3.786747e+00 3.138241e+00 2.508972e+00 2.132987e+00
<GCONST> 1.056931e+02
<STATE> 3
<MEAN> 25
 7.308776e+00 -2.116291e+00 -5.915496e-01 8.047751e+00 4.512689e+00 -2.649817e+00 -3.380396e+00 -8.267048e-01 -5.005058e+00 -7.383716e+00 -4.765788e+00 -2.091391e+00 -2.042886e-01 4.120783e-01 5.339515e-01 7.017787e-01 3.444184e-01 2.565898e-01 1.210279e-01 4.571145e-01 1.694299e-01 -4.738842e-01 -6.538218e-01 -4.505804e-01 -4.639952e-01
<VARIANCE> 25
 2.202492e+01 3.481960e+01 3.887338e+01 6.391379e+01 4.331805e+01 4.796937e+01 4.158508e+01 4.477020e+01 4.591209e+01 3.888554e+01 3.268353e+01 2.532600e+01 8.968565e-01 1.265179e+00 1.520058e+00 2.136260e+00 1.615692e+00 2.971242e+00 2.029787e+00 2.106359e+00 2.521566e+00 2.456026e+00 1.921850e+00 1.679168e+00 9.447469e-01
<GCONST> 9.704557e+01
<STATE> 4
<MEAN> 25
 5.966500e+00 -3.820904e-01 3.151454e-01 7.105481e+00 4.340966e+00 -1.720254e+00 -3.097861e+00 -7.825651e-01 -3.803820e+00 -6.722578e+00 -5.169729e+00 -2.231982e+00 -1.248948e-01 3.641126e-02 -1.620759e-01 -8.538845e-01 -4.337227e-01 -1.165125e-01 1.175181e-01 -1.721042e-01 8.785849e-02 4.827425e-01 5.441091e-01 3.938914e-01 1.508765e-01
<VARIANCE> 25
 2.100273e+01 3.151579e+01 3.614806e+01 5.096074e+01 3.741170e+01 4.566805e+01 3.924998e+01 3.931923e+01 4.211623e+01 3.813666e+01 3.033226e+01 2.373476e+01 8.690925e-01 1.079303e+00 1.530230e+00 2.250370e+00 1.643832e+00 2.437176e+00 1.802907e+00 2.009850e+00 2.136790e+00 2.217616e+00 1.925478e+00 1.643911e+00 9.747648e-01
<GCONST> 9.523684e+01
~t "T_l"
<ENDHMM>
~h "l+e"
<BEGINHMM>
<NUMSTATES> 5
<STATE> 2
<MEAN> 25
 6.314451e+00 -2.836339e+00 -2.415431e+00 2.781851e+00 1.947059e+00 -2.800302e+00 -2.661815e+00 -2.324516e+00 -3.876258e+00 -3.683601e+00 -1.570764e+00 7.563966e-02 3.129438e-01 4.277349e-01 7.984434e-01 1.918523e+00 1.017305e+00 4.531452e-01 -1.293264e-01 2.709396e-01 -7.299022e-01 -1.606042e+00 -1.354267e+00 -7.730924e-01 -6.160657e-01
<VARIANCE> 25
 3.768519e+01 4.112976e+01 4.717404e+01 6.522243e+01 4.798243e+01 5.569359e+01 4.089912e+01 4.426613e+01 5.019736e+01 4.535135e+01 3.915966e+01 3.028901e+01 1.699836e+00 1.977105e+00 2.316171e+00 3.031282e+00 2.905935e+00 4.508301e+00 3.719640e+00 4.100824e+00 4.742221e+00 3.786747e+00 3.138241e+00 2.508972e+00 2.132987e+00
<GCONST> 1.056931e+02
<STATE> 3
<MEAN> 25
 7.308776e+00 -2.116291e+00 -5.915496e-01 8.047751e+00 4.512689e+00 -2.649817e+00 -3.380396e+00 -8.267048e-01 -5.005058e+00 -7.383716e+00 -4.765788e+00 -2.091391e+00 -2.042886e-01 4.120783e-01 5.339515e-01 7.017787e-01 3.444184e-01 2.565898e-01 1.210279e-01 4.571145e-01 1.694299e-01 -4.738842e-01 -6.538218e-01 -4.505804e-01 -4.639952e-01
<VARIANCE> 25
 2.202492e+01 3.481960e+01 3.887338e+01 6.391379e+01 4.331805e+01 4.796937e+01 4.158508e+01 4.477020e+01 4.591209e+01 3.888554e+01 3.268353e+01 2.532600e+01 8.968565e-01 1.265179e+00 1.520058e+00 2.136260e+00 1.615692e+00 2.971242e+00 2.029787e+00 2.106359e+00 2.521566e+00 2.456026e+00 1.921850e+00 1.679168e+00 9.447469e-01
<GCONST> 9.704557e+01
<STATE> 4
<MEAN> 25
 5.966500e+00 -3.820904e-01 3.151454e-01 7.105481e+00 4.340966e+00 -1.720254e+00 -3.097861e+00 -7.825651e-01 -3.803820e+00 -6.722578e+00 -5.169729e+00 -2.231982e+00 -1.248948e-01 3.641126e-02 -1.620759e-01 -8.538845e-01 -4.337227e-01 -1.165125e-01 1.175181e-01 -1.721042e-01 8.785849e-02 4.827425e-01 5.441091e-01 3.938914e-01 1.508765e-01
<VARIANCE> 25
 2.100273e+01 3.151579e+01 3.614806e+01 5.096074e+01 3.741170e+01 4.566805e+01 3.924998e+01 3.931923e+01 4.211623e+01 3.813666e+01 3.033226e+01 2.373476e+01 8.690925e-01 1.079303e+00 1.530230e+00 2.250370e+00 1.643832e+00 2.437176e+00 1.802907e+00 2.009850e+00 2.136790e+00 2.217616e+00 1.925478e+00 1.643911e+00 9.747648e-01
<GCONST> 9.523684e+01
~t "T_l"
<ENDHMM>
~h "l+i"
<BEGINHMM>
<NUMSTATES> 5
<STATE> 2
<MEAN> 25
 6.314451e+00 -2.836339e+00 -2.415431e+00 2.781851e+00 1.947059e+00 -2.800302e+00 -2.661815e+00 -2.324516e+00 -3.876258e+00 -3.683601e+00 -1.570764e+00 7.563966e-02 3.129438e-01 4.277349e-01 7.984434e-01 1.918523e+00 1.017305e+00 4.531452e-01 -1.293264e-01 2.709396e-01 -7.299022e-01 -1.606042e+00 -1.354267e+00 -7.730924e-01 -6.160657e-01
<VARIANCE> 25
 3.768519e+01 4.112976e+01 4.717404e+01 6.522243e+01 4.798243e+01 5.569359e+01 4.089912e+01 4.426613e+01 5.019736e+01 4.535135e+01 3.915966e+01 3.028901e+01 1.699836e+00 1.977105e+00 2.316171e+00 3.031282e+00 2.905935e+00 4.508301e+00 3.719640e+00 4.100824e+00 4.742221e+00 3.786747e+00 3.138241e+00 2.508972e+00 2.132987e+00
<GCONST> 1.056931e+02
<STATE> 3
<MEAN> 25
 7.308776e+00 -2.116291e+00 -5.915496e-01 8.047751e+00 4.512689e+00 -2.649817e+00 -3.380396e+00 -8.267048e-01 -5.005058e+00 -7.383716e+00 -4.765788e+00 -2.091391e+00 -2.042886e-01 4.120783e-01 5.339515e-01 7.017787e-01 3.444184e-01 2.565898e-01 1.210279e-01 4.571145e-01 1.694299e-01 -4.738842e-01 -6.538218e-01 -4.505804e-01 -4.639952e-01
<VARIANCE> 25
 2.202492e+01 3.481960e+01 3.887338e+01 6.391379e+01 4.331805e+01 4.796937e+01 4.158508e+01 4.477020e+01 4.591209e+01 3.888554e+01 3.268353e+01 2.532600e+01 8.968565e-01 1.265179e+00 1.520058e+00 2.136260e+00 1.615692e+00 2.971242e+00 2.029787e+00 2.106359e+00 2.521566e+00 2.456026e+00 1.921850e+00 1.679168e+00 9.447469e-01
<GCONST> 9.704557e+01
<STATE> 4
<MEAN> 25
 5.966500e+00 -3.820904e-01 3.151454e-01 7.105481e+00 4.340966e+00 -1.720254e+00 -3.097861e+00 -7.825651e-01 -3.803820e+00 -6.722578e+00 -5.169729e+00 -2.231982e+00 -1.248948e-01 3.641126e-02 -1.620759e-01 -8.538845e-01 -4.337227e-01 -1.165125e-01 1.175181e-01 -1.721042e-01 8.785849e-02 4.827425e-01 5.441091e-01 3.938914e-01 1.508765e-01
<VARIANCE> 25
 2.100273e+01 3.151579e+01 3.614806e+01 5.096074e+01 3.741170e+01 4.566805e+01 3.924998e+01 3.931923e+01 4.211623e+01 3.813666e+01 3.033226e+01 2.373476e+01 8.690925e-01 1.079303e+00 1.530230e+00 2.250370e+00 1.643832e+00 2.437176e+00 1.802907e+00 2.009850e+00 2.136790e+00 2.217616e+00 1.925478e+00 1.643911e+00 9.747648e-01
<GCONST> 9.523684e+01
~t "T_l"
<ENDHMM>
~h "l+o"
<BEGINHMM>
<NUMSTATES> 5
<STATE> 2
<MEAN> 25
 6.314451e+00 -2.836339e+00 -2.415431e+00 2.781851e+00 1.947059e+00 -2.800302e+00 -2.661815e+00 -2.324516e+00 -3.876258e+00 -3.683601e+00 -1.570764e+00 7.563966e-02 3.129438e-01 4.277349e-01 7.984434e-01 1.918523e+00 1.017305e+00 4.531452e-01 -1.293264e-01 2.709396e-01 -7.299022e-01 -1.606042e+00 -1.354267e+00 -7.730924e-01 -6.160657e-01
<VARIANCE> 25
 3.768519e+01 4.112976e+01 4.717404e+01 6.522243e+01 4.798243e+01 5.569359e+01 4.089912e+01 4.426613e+01 5.019736e+01 4.535135e+01 3.915966e+01 3.028901e+01 1.699836e+00 1.977105e+00 2.316171e+00 3.031282e+00 2.905935e+00 4.508301e+00 3.719640e+00 4.100824e+00 4.742221e+00 3.786747e+00 3.138241e+00 2.508972e+00 2.132987e+00
<GCONST> 1.056931e+02
<STATE> 3
<MEAN> 25
 7.308776e+00 -2.116291e+00 -5.915496e-01 8.047751e+00 4.512689e+00 -2.649817e+00 -3.380396e+00 -8.267048e-01 -5.005058e+00 -7.383716e+00 -4.765788e+00 -2.091391e+00 -2.042886e-01 4.120783e-01 5.339515e-01 7.017787e-01 3.444184e-01 2.565898e-01 1.210279e-01 4.571145e-01 1.694299e-01 -4.738842e-01 -6.538218e-01 -4.505804e-01 -4.639952e-01
<VARIANCE> 25
 2.202492e+01 3.481960e+01 3.887338e+01 6.391379e+01 4.331805e+01 4.796937e+01 4.158508e+01 4.477020e+01 4.591209e+01 3.888554e+01 3.268353e+01 2.532600e+01 8.968565e-01 1.265179e+00 1.520058e+00 2.136260e+00 1.615692e+00 2.971242e+00 2.029787e+00 2.106359e+00 2.521566e+00 2.456026e+00 1.921850e+00 1.679168e+00 9.447469e-01
<GCONST> 9.704557e+01
<STATE> 4
<MEAN> 25
 5.966500e+00 -3.820904e-01 3.151454e-01 7.105481e+00 4.340966e+00 -1.720254e+00 -3.097861e+00 -7.825651e-01 -3.803820e+00 -6.722578e+00 -5.169729e+00 -2.231982e+00 -1.248948e-01 3.641126e-02 -1.620759e-01 -8.538845e-01 -4.337227e-01 -1.165125e-01 1.175181e-01 -1.721042e-01 8.785849e-02 4.827425e-01 5.441091e-01 3.938914e-01 1.508765e-01
<VARIANCE> 25
 2.100273e+01 3.151579e+01 3.614806e+01 5.096074e+01 3.741170e+01 4.566805e+01 3.924998e+01 3.931923e+01 4.211623e+01 3.813666e+01 3.033226e+01 2.373476e+01 8.690925e-01 1.079303e+00 1.530230e+00 2.250370e+00 1.643832e+00 2.437176e+00 1.802907e+00 2.009850e+00 2.136790e+00 2.217616e+00 1.925478e+00 1.643911e+00 9.747648e-01
<GCONST> 9.523684e+01
~t "T_l"
<ENDHMM>
~h "l+u"
<BEGINHMM>
<NUMSTATES> 5
<STATE> 2
<MEAN> 25
 6.314451e+00 -2.836339e+00 -2.415431e+00 2.781851e+00 1.947059e+00 -2.800302e+00 -2.661815e+00 -2.324516e+00 -3.876258e+00 -3.683601e+00 -1.570764e+00 7.563966e-02 3.129438e-01 4.277349e-01 7.984434e-01 1.918523e+00 1.017305e+00 4.531452e-01 -1.293264e-01 2.709396e-01 -7.299022e-01 -1.606042e+00 -1.354267e+00 -7.730924e-01 -6.160657e-01
<VARIANCE> 25
 3.768519e+01 4.112976e+01 4.717404e+01 6.522243e+01 4.798243e+01 5.569359e+01 4.089912e+01 4.426613e+01 5.019736e+01 4.535135e+01 3.915966e+01 3.028901e+01 1.699836e+00 1.977105e+00 2.316171e+00 3.031282e+00 2.905935e+00 4.508301e+00 3.719640e+00 4.100824e+00 4.742221e+00 3.786747e+00 3.138241e+00 2.508972e+00 2.132987e+00
<GCONST> 1.056931e+02
<STATE> 3
<MEAN> 25
 7.308776e+00 -2.116291e+00 -5.915496e-01 8.047751e+00 4.512689e+00 -2.649817e+00 -3.380396e+00 -8.267048e-01 -5.005058e+00 -7.383716e+00 -4.765788e+00 -2.091391e+00 -2.042886e-01 4.120783e-01 5.339515e-01 7.017787e-01 3.444184e-01 2.565898e-01 1.210279e-01 4.571145e-01 1.694299e-01 -4.738842e-01 -6.538218e-01 -4.505804e-01 -4.639952e-01
<VARIANCE> 25
 2.202492e+01 3.481960e+01 3.887338e+01 6.391379e+01 4.331805e+01 4.796937e+01 4.158508e+01 4.477020e+01 4.591209e+01 3.888554e+01 3.268353e+01 2.532600e+01 8.968565e-01 1.265179e+00 1.520058e+00 2.136260e+00 1.615692e+00 2.971242e+00 2.029787e+00 2.106359e+00 2.521566e+00 2.456026e+00 1.921850e+00 1.679168e+00 9.447469e-01
<GCONST> 9.704557e+01
<STATE> 4
<MEAN> 25
 5.966500e+00 -3.820904e-01 3.151454e-01 7.105481e+00 4.340966e+00 -1.720254e+00 -3.097861e+00 -7.825651e-01 -3.803820e+00 -6.722578e+00 -5.169729e+00 -2.231982e+00 -1.248948e-01 3.641126e-02 -1.620759e-01 -8.538845e-01 -4.337227e-01 -1.165125e-01 1.175181e-01 -1.721042e-01 8.785849e-02 4.827425e-01 5.441091e-01 3.938914e-01 1.508765e-01
<VARIANCE> 25
 2.100273e+01 3.151579e+01 3.614806e+01 5.096074e+01 3.741170e+01 4.566805e+01 3.924998e+01 3.931923e+01 4.211623e+01 3.813666e+01 3.033226e+01 2.373476e+01 8.690925e-01 1.079303e+00 1.530230e+00 2.250370e+00 1.643832e+00 2.437176e+00 1.802907e+00 2.009850e+00 2.136790e+00 2.217616e+00 1.925478e+00 1.643911e+00 9.747648e-01
<GCONST> 9.523684e+01
~t "T_l"
<ENDHMM>
~h "l-a"
<BEGINHMM>
<NUMSTATES> 5
<STATE> 2
<MEAN> 25
 8.084209e+00 -3.246555e+00 -4.886938e+00 -2.890126e+00 -1.922659e+00 -4.591505e+00 -1.062124e+00 -1.533606e+00 -3.011539e+00 -1.419097e+00 7.822737e-01 1.974153e+00 8.531939e-01 -1.219489e+00 -1.591901e+00 -1.511451e+00 -1.099942e+00 -1.081241e+00 3.296968e-01 2.435892e-01 2.131322e-01 7.433307e-01 1.096173e+00 1.076555e+00 1.531909e+00
<VARIANCE> 25
 3.102556e+01 3.982352e+01 4.648204e+01 6.052976e+01 4.865224e+01 5.364120e+01 4.957391e+01 5.206113e+01 4.994263e+01 4.377484e+01 3.566540e+01 3.010361e+01 2.105191e+00 2.133569e+00 2.607650e+00 3.361774e+00 2.917656e+00 3.954443e+00 3.398865e+00 3.319243e+00 3.668817e+00 4.076825e+00 3.093344e+00 2.673295e+00 1.675560e+00
<GCONST> 1.052759e+02
<STATE> 3
<MEAN> 25
 9.462610e+00 -6.897775e+00 -8.743549e+00 -6.083593e+00 -4.604442e+00 -5.470979e+00 1.397076e+00 -2.830499e-01 -1.629562e+00 7.007640e-01 2.659651e+00 3.340820e+00 3.290816e-02 -1.735238e-01 -3.625012e-01 -3.627358e-01 -1.769637e-01 2.254089e-01 4.766614e-01 2.827543e-01 2.371980e-01 1.767752e-01 8.445666e-02 6.974697e-02 8.193482e-02
<VARIANCE> 25
 2.840129e+01 3.570125e+01 4.138834e+01 4.038225e+01 4.118876e+01 4.148624e+01 4.739182e+01 4.747406e+01 4.473821e+01 4.189992e+01 3.449903e+01 2.805832e+01 3.302394e-01 8.424883e-01 9.393210e-01 1.242460e+00 1.324397e+00 1.496400e+00 1.901740e+00 1.780651e+00 1.803969e+00 1.726919e+00 1.430944e+00 1.179275e+00 3.783611e-01
<GCONST> 9.133002e+01
<STATE> 4
<MEAN> 25
 8.177530e+00 -2.680661e+00 -7.293503e+00 -5.932261e+00 -3.758124e+00 -2.794274e+00 1.176165e+00 -3.390664e-01 -1.368642e+00 2.573896e-01 2.133668e+00 3.287408e+00 -4.538044e-01 8.704351e-01 7.276899e-01 4.679444e-01 4.150407e-01 5.706517e-01 -1.937626e-01 -1.382255e-01 1.753797e-02 -1.629017e-01 -2.942949e-01 -3.140077e-01 -8.826797e-01
<VARIANCE> 25
 2.215926e+01 3.099335e+01 3.486272e+01 3.668752e+01 3.283007e+01 3.965223e+01 3.500597e+01 3.826480e+01 3.512437e+01 3.170736e+01 2.563973e+01 2.200531e+01 5.861269e-01 9.910762e-01 1.080531e+00 1.252255e+00 1.395680e+00 1.835312e+00 1.787168e+00 1.826652e+00 1.993582e+00 1.853269e+00 1.609923e+00 1.318195e+00 6.483233e-01
<GCONST> 9.086413e+01
~t "T_a"
<ENDHMM>
~h "l-e"
<BEGINHMM>
<NUMSTATES> 5
<STATE> 2
<MEAN> 25
 4.917822e+00 -3.046909e+00 -7.860230e-01 1.961976e+00 3.296882e+00 -3.095960e+00 -4.445966e+00 -4.378197e+00 -4.194638e+00 -1.446952e+00 1.146220e-01 1.648807e-01 1.062938e+00 -1.285595e+00 -6.981800e-01 4.423747e-01 5.001229e-01 -1.895295e+00 -1.787762e+00 -1.308817e+00 -1.084860e+00 1.344622e-01 6.617222e-01 3.701210e-01 1.670173e+00
<VARIANCE> 25
 3.577217e+01 3.706077e+01 4.774310e+01 6.015227e+01 4.925949e+01 6.036604e+01 5.010396e+01 4.977269e+01 4.858726e+01 3.950971e+01 3.013842e+01 2.473536e+01 2.384392e+00 2.958043e+00 2.685448e+00 3.858023e+00 3.340221e+00 5.064232e+00 4.063103e+00 3.681123e+00 4.037725e+00 4.174648e+00 3.332788e+00 2.898063e+00 2.226966e+00
<GCONST> 1.068105e+02
<STATE> 3
<MEAN> 25
 7.191195e+00 -7.001473e+00 -2.328277e+00 2.836691e+00 3.888689e+00 -7.911126e+00 -8.482172e+00 -6.657192e+00 -5.470276e+00 -1.285404e-01 1.987994e+00 7.147580e-01 8.514885e-02 -4.249433e-01 -1.496204e-01 2.818093e-01 1.203487e-01 -6.073316e-01 -4.420330e-01 -1.406531e-01 1.603031e-01 5.093133e-01 3.347531e-01 -4.041983e-02 2.952766e-01
<VARIANCE> 25
 2.837927e+01 3.550758e+01 4.376701e+01 6.339727e+01 5.782299e+01 6.153004e+01 4.445435e+01 4.665985e+01 4.438187e+01 4.603452e+01 3.686113e+01 3.249733e+01 5.579238e-01 9.633060e-01 1.396090e+00 1.826277e+00 1.583154e+00 2.003756e+00 1.982185e+00 1.856537e+00 2.013892e+00 2.006657e+00 1.751121e+00 1.508502e+00 5.828047e-01
<GCONST> 9.591582e+01
<STATE> 4
<MEAN> 25
 5.895019e+00 -4.724988e+00 -1.197292e+00 3.906052e+00 3.870449e+00 -6.545651e+00 -8.215060e+00 -6.679025e+00 -4.172563e+00 5.337154e-01 9.279272e-01 -6.742178e-01 -3.232698e-01 7.992764e-01 3.300467e-01 -6.339286e-02 7.912491e-02 1.004552e+00 6.088396e-01 3.772415e-01 3.436322e-01 -1.313366e-01 -2.720630e-01 -1.298955e-01 -7.956876e-01
<VARIANCE> 25
 2.029749e+01 3.066547e+01 3.368494e+01 5.057070e+01 4.296806e+01 5.593891e+01 3.659196e+01 3.710094e+01 4.034227e+01 3.575679e+01 3.262199e+01 2.925796e+01 5.569103e-01 1.011105e+00 1.171097e+00 1.448238e+00 1.440968e+00 2.011663e+00 1.814593e+00 1.739066e+00 1.905525e+00 1.867028e+00 1.539982e+00 1.274082e+00 7.538318e-01
<GCONST> 9.278246e+01
~t "T_e"
<ENDHMM>
~h "l-o"
<BEGINHMM>
<NUMSTATES> 5
<STATE> 2
<MEAN> 25
 8.202134e+00 8.756948e-01 -1.556870e+00 -2.412576e+00 -4.135490e+00 -5.283045e+00 -1.325630e+00 5.514442e-01 -3.256593e+00 -4.464030e+00 -3.179199e+00 -1.018459e+00 8.533680e-01 5.628624e-02 -4.272498e-01 -1.163086e+00 -1.742013e+00 -1.833407e+00 -1.006363e-01 8.327968e-01 2.565329e-01 -1.784475e-01 -2.551433e-01 1.000556e-01 7.841955e-01
<VARIANCE> 25
 2.727819e+01 4.614404e+01 4.546624e+01 5.624189e+01 6.257309e+01 6.102062e+01 4.518742e+01 4.939813e+01 5.469617e+01 4.219932e+01 3.056493e+01 2.847985e+01 1.604221e+00 2.714622e+00 2.414845e+00 3.306103e+00 3.399673e+00 4.293542e+00 4.410888e+00 3.910635e+00 3.812121e+00 3.509329e+00 2.851977e+00 2.694980e+00 1.552250e+00
<GCONST> 1.055529e+02
<STATE> 3
<MEAN> 25
 9.608891e+00 1.841884e+00 -1.624231e+00 -4.843653e+00 -1.056682e+01 -1.047259e+01 -3.275502e-01 4.228262e+00 -8.981493e-01 -3.707518e+00 -3.771726e+00 -1.847208e+00 -1.603226e-01 3.746803e-01 2.492852e-02 -5.283350e-02 -1.316152e-01 2.060792e-01 2.320018e-01 3.473101e-01 4.636069e-01 2.421327e-01 -1.011645e-03 -9.001540e-02 -4.208844e-01
<VARIANCE> 25
 2.191664e+01 3.832346e+01 3.536129e+01 4.552036e+01 5.146196e+01 5.402416e+01 4.532333e+01 4.316967e+01 5.194213e+01 3.791486e+01 2.724122e+01 2.477335e+01 5.759985e-01 1.296905e+00 1.329783e+00 1.436117e+00 2.015944e+00 2.854960e+00 1.984985e+00 2.227589e+00 2.343580e+00 2.045362e+00 1.638120e+00 1.449960e+00 1.066268e+00
<GCONST> 9.576168e+01
<STATE> 4
<MEAN> 25
 5.920141e+00 4.729104e+00 -6.619071e-01 -3.592440e+00 -6.668617e+00 -4.437122e+00 3.776827e-01 3.175261e+00 9.050462e-01 -1.454790e+00 -2.326509e+00 -1.249121e+00 -6.257654e-01 -3.906129e-02 1.678127e-01 4.218079e-01 7.039407e-01 9.980335e-01 2.885799e-01 -2.038472e-01 -1.773957e-02 1.877047e-01 2.155907e-01 8.154663e-02 -5.345345e-01
<VARIANCE> 25
 2.381943e+01 3.168683e+01 3.073319e+01 3.372535e+01 3.205265e+01 4.222814e+01 3.201194e+01 3.300840e+01 3.498757e+01 3.150789e+01 2.243595e+01 1.901501e+01 4.852379e-01 7.335701e-01 1.011674e+00 1.084659e+00 1.496157e+00 1.967000e+00 1.648281e+00 1.688958e+00 1.686677e+00 1.518985e+00 1.305284e+00 1.193857e+00 3.831035e-01
<GCONST> 8.833953e+01
~t "T_o"
<ENDHMM>
~h "i-n+ch"
<BEGINHMM>
<NUMSTATES> 5
<STATE> 2
<MEAN> 25
 7.169885e+00 3.457295e-01 -9.706034e-01 1.822969e+00 2.203207e+00 -1.710077e+00 -1.541217e+00 -6.925409e-01 -3.499932e+00 -2.178467e+00 -7.829415e-01 -1.847775e+00 -1.776564e-01 1.685531e+00 6.899630e-01 1.139801e+00 6.890932e-01 2.057916e+00 4.165332e-01 -6.090450e-01 -1.683788e-01 -9.237592e-02 -7.342267e-01 -1.250047e+00 -1.560356e+00
<VARIANCE> 25
 2.165102e+01 3.528417e+01 4.496836e+01 6.788055e+01 4.849240e+01 5.297578e+01 4.589392e+01 4.388946e+01 4.575230e+01 3.900736e+01 3.414560e+01 3.704768e+01 9.116951e-01 1.700086e+00 1.786228e+00 4.035296e+00 3.243808e+00 3.321929e+00 3.851503e+00 3.338852e+00 3.444288e+00 2.962204e+00 2.780899e+00 2.558904e+00 1.011466e+00
<GCONST> 1.023394e+02
<STATE> 3
<MEAN> 25
 6.451331e+00 3.805457e+00 7.997720e-01 4.104099e+00 3.209973e+00 1.771652e+00 -1.687927e+00 -2.346424e+00 -2.799612e+00 -1.867672e+00 -2.654003e+00 -4.671466e+00 -4.288488e-01 8.661700e-01 6.104125e-01 6.183404e-01 3.940374e-01 1.045232e+00 2.131816e-01 -3.304687e-01 1.941549e-01 1.693209e-01 -3.405662e-01 -4.656930e-01 -8.459170e-01
<VARIANCE> 25
 1.605801e+01 2.327610e+01 3.427949e+01 4.943877e+01 3.551352e+01 4.001220e+01 3.662941e+01 3.266262e+01 4.372853e+01 3.314529e+01 2.653506e+01 2.688600e+01 4.240589e-01 7.692712e-01 1.020777e+00 1.824027e+00 1.598796e+00 1.636005e+00 1.955104e+00 1.795479e+00 2.067024e+00 1.608387e+00 1.611071e+00 1.827414e+00 4.028325e-01
<GCONST> 9.059154e+01
<STATE> 4
<MEAN> 25
 3.843240e+00 4.976631e+00 2.044346e+00 4.405276e+00 3.430595e+00 3.177998e+00 -7.137617e-01 -1.420924e+00 -8.184713e-01 -5.259312e-01 -2.154598e+00 -3.488309e+00 -4.377143e-01 -2.375585e-02 4.742600e-02 -6.740690e-02 -9.708463e-02 1.467522e-01 2.977267e-01 2.026634e-01 7.117245e-02 2.588364e-02 1.424470e-01 2.484765e-01 -3.065790e-01
<VARIANCE> 25
 1.843643e+01 1.784051e+01 2.607419e+01 3.130790e+01 2.558590e+01 2.868715e+01 2.686604e+01 2.596465e+01 3.096772e+01 2.389989e+01 1.980139e+01 1.923713e+01 4.635847e-01 5.872605e-01 8.780912e-01 9.187444e-01 9.726738e-01 1.154603e+00 1.138327e+00 1.124501e+00 1.193445e+00 1.121723e+00 1.058525e+00 1.099325e+00 4.008314e-01
<GCONST> 8.251925e+01
~t "T_n"
<ENDHMM>
~h "p-i+th"
<BEGINHMM>
<NUMSTATES> 5
<STATE> 2
<MEAN> 25
 2.824880e+00 -2.961581e+00 4.292364e+00 7.499251e+00 7.346193e+00 -2.067250e+00 -5.297520e+00 -2.873806e+00 -2.378581e+00 -1.973293e+00 -2.520489e+00 -3.736685e+00 1.015099e+00 -9.724852e-01 2.479329e-01 2.179622e+00 1.426837e+00 -2.128228e+00 -2.309814e+00 -3.848035e-01 -7.270547e-01 -7.560874e-01 -6.794949e-01 -8.365397e-01 1.175898e+00
<VARIANCE> 25
 3.374600e+01 3.967356e+01 6.750194e+01 6.375350e+01 5.781096e+01 6.437442e+01 4.980933e+01 4.415491e+01 4.445846e+01 3.540117e+01 3.356274e+01 2.704606e+01 3.132528e+00 4.137255e+00 3.621446e+00 4.487921e+00 4.215056e+00 5.312013e+00 4.005538e+00 3.824685e+00 4.409300e+00 4.209664e+00 3.923692e+00 2.984154e+00 1.617640e+00
<GCONST> 1.086541e+02
<STATE> 3
<MEAN> 25
 3.691633e+00 -6.378765e+00 6.166086e+00 1.236009e+01 7.380941e+00 -9.047977e+00 -9.580333e+00 -1.629763e+00 -3.102339e+00 -4.599288e+00 -4.548250e+00 -5.048493e+00 8.359629e-02 -2.991736e-01 1.296623e-01 4.305927e-01 9.667514e-03 -8.290642e-01 -5.818837e-01 1.603395e-01 8.957740e-02 -1.876646e-01 -1.591199e-01 -1.092843e-01 2.681427e-01
<VARIANCE> 25
 2.149308e+01 3.103732e+01 4.970968e+01 5.873264e+01 7.158559e+01 6.920425e+01 3.966159e+01 4.495304e+01 4.204121e+01 4.275245e+01 4.102441e+01 2.954641e+01 6.639252e-01 9.264812e-01 1.883231e+00 1.858640e+00 1.558079e+00 2.146437e+00 1.929194e+00 2.097977e+00 1.840118e+00 1.884095e+00 1.595546e+00 1.333590e+00 5.259222e-01
<GCONST> 9.574519e+01
<STATE> 4
<MEAN> 25
 4.036044e+00 -4.218312e+00 4.209880e+00 1.037407e+01 7.996428e+00 -6.247262e+00 -9.419474e+00 -3.331409e+00 -2.663913e+00 -2.918104e+00 -3.142705e+00 -4.376024e+00 3.821991e-02 8.336469e-01 -6.000085e-01 -1.181883e+00 -5.675405e-01 1.117856e+00 8.718380e-01 -2.187419e-01 -3.897155e-02 3.511441e-01 4.869802e-01 5.886047e-01 -5.325214e-01
<VARIANCE> 25
 1.972391e+01 3.227742e+01 4.309776e+01 5.167957e+01 5.495691e+01 6.691110e+01 3.850472e+01 4.351723e+01 4.154246e+01 3.556070e+01 3.517086e+01 2.803684e+01 6.999541e-01 1.390189e+00 1.663853e+00 1.824908e+00 1.964548e+00 2.784639e+00 2.501812e+00 2.236512e+00 2.341234e+00 2.148965e+00 1.947036e+00 1.699689e+00 1.056007e+00
<GCONST> 9.730878e+01
~t "T_i"
<ENDHMM>
~h "i-n+th"
<BEGINHMM>
<NUMSTATES> 5
<STATE> 2
<MEAN> 25
 7.169885e+00 3.457295e-01 -9.706034e-01 1.822969e+00 2.203207e+00 -1.710077e+00 -1.541217e+00 -6.925409e-01 -3.499932e+00 -2.178467e+00 -7.829415e-01 -1.847775e+00 -1.776564e-01 1.685531e+00 6.899630e-01 1.139801e+00 6.890932e-01 2.057916e+00 4.165332e-01 -6.090450e-01 -1.683788e-01 -9.237592e-02 -7.342267e-01 -1.250047e+00 -1.560356e+00
<VARIANCE> 25
 2.165102e+01 3.528417e+01 4.496836e+01 6.788055e+01 4.849240e+01 5.297578e+01 4.589392e+01 4.388946e+01 4.575230e+01 3.900736e+01 3.414560e+01 3.704768e+01 9.116951e-01 1.700086e+00 1.786228e+00 4.035296e+00 3.243808e+00 3.321929e+00 3.851503e+00 3.338852e+00 3.444288e+00 2.962204e+00 2.780899e+00 2.558904e+00 1.011466e+00
<GCONST> 1.023394e+02
<STATE> 3
<MEAN> 25
 6.451331e+00 3.805457e+00 7.997720e-01 4.104099e+00 3.209973e+00 1.771652e+00 -1.687927e+00 -2.346424e+00 -2.799612e+00 -1.867672e+00 -2.654003e+00 -4.671466e+00 -4.288488e-01 8.661700e-01 6.104125e-01 6.183404e-01 3.940374e-01 1.045232e+00 2.131816e-01 -3.304687e-01 1.941549e-01 1.693209e-01 -3.405662e-01 -4.656930e-01 -8.459170e-01
<VARIANCE> 25
 1.605801e+01 2.327610e+01 3.427949e+01 4.943877e+01 3.551352e+01 4.001220e+01 3.662941e+01 3.266262e+01 4.372853e+01 3.314529e+01 2.653506e+01 2.688600e+01 4.240589e-01 7.692712e-01 1.020777e+00 1.824027e+00 1.598796e+00 1.636005e+00 1.955104e+00 1.795479e+00 2.067024e+00 1.608387e+00 1.611071e+00 1.827414e+00 4.028325e-01
<GCONST> 9.059154e+01
<STATE> 4
<MEAN> 25
 3.843240e+00 4.976631e+00 2.044346e+00 4.405276e+00 3.430595e+00 3.177998e+00 -7.137617e-01 -1.420924e+00 -8.184713e-01 -5.259312e-01 -2.154598e+00 -3.488309e+00 -4.377143e-01 -2.375585e-02 4.742600e-02 -6.740690e-02 -9.708463e-02 1.467522e-01 2.977267e-01 2.026634e-01 7.117245e-02 2.588364e-02 1.424470e-01 2.484765e-01 -3.065790e-01
<VARIANCE> 25
 1.843643e+01 1.784051e+01 2.607419e+01 3.130790e+01 2.558590e+01 2.868715e+01 2.686604e+01 2.596465e+01 3.096772e+01 2.389989e+01 1.980139e+01 1.923713e+01 4.635847e-01 5.872605e-01 8.780912e-01 9.187444e-01 9.726738e-01 1.154603e+00 1.138327e+00 1.124501e+00 1.193445e+00 1.121723e+00 1.058525e+00 1.099325e+00 4.008314e-01
<GCONST> 8.251925e+01
~t "T_n"
<ENDHMM>
~h "m+a"
<BEGINHMM>
<NUMSTATES> 5
<STATE> 2
<MEAN> 25
 7.548775e+00 2.607854e+00 -2.102983e+00 4.346527e-01 8.082584e-01 9.021307e-01 6.144225e-01 8.268155e-01 -1.237094e+00 -2.310319e+00 -2.608431e+00 -3.108366e+00 -1.797019e-01 1.273914e+00 7.998855e-01 1.091742e+00 7.315946e-01 1.888878e+00 1.063340e+00 1.975945e-01 -9.558619e-02 -2.353920e-01 -8.953397e-01 -1.563288e+00 -1.207566e+00
<VARIANCE> 25
 2.775693e+01 3.253825e+01 4.646520e+01 5.028252e+01 4.394492e+01 4.523094e+01 3.715427e+01 3.382478e+01 4.342428e+01 3.434188e+01 2.442644e+01 3.211829e+01 1.185310e+00 1.893670e+00 1.789684e+00 3.486195e+00 3.584235e+00 3.238808e+00 3.284998e+00 2.704141e+00 3.304344e+00 3.214128e+00 2.384440e+00 2.359962e+00 1.375406e+00
<GCONST> 1.008971e+02
<STATE> 3
<MEAN> 25
 6.220848e+00 4.772701e+00 5.252566e-01 2.877606e+00 2.598014e+00 3.498492e+00 1.213324e+00 6.923475e-01 -7.689387e-01 -1.961661e+00 -3.632575e+00 -5.278195e+00 -7.126752e-02 8.531751e-02 1.286000e-01 1.251273e-01 1.169438e-01 2.010717e-01 1.808041e-01 4.610286e-02 -8.495778e-03 -3.835244e-02 -1.209151e-01 -2.196753e-01 -6.887542e-02
<VARIANCE> 25
 1.855869e+01 1.867837e+01 3.135711e+01 3.267927e+01 3.053080e+01 3.023534e+01 3.066374e+01 2.707565e+01 4.045082e+01 3.238166e+01 2.111422e+01 2.286841e+01 2.486276e-01 4.200025e-01 5.990037e-01 7.999274e-01 8.217130e-01 9.086192e-01 9.282346e-01 9.278805e-01 1.016802e+00 9.133210e-01 8.226467e-01 9.005458e-01 2.172809e-01
<GCONST> 8.029716e+01
<STATE> 4
<MEAN> 25
 6.860100e+00 4.454634e+00 4.674924e-02 2.128716e+00 1.891875e+00 3.227122e+00 1.878703e+00 1.082704e+00 -8.831809e-01 -1.881544e+00 -3.649952e+00 -5.456431e+00 3.623773e-01 -6.383294e-01 -6.348953e-01 -9.845536e-01 -7.848371e-01 -1.462937e+00 -6.459333e-01 7.814296e-02 -9.017757e-02 -7.700860e-02 5.040931e-01 1.155138e+00 8.107449e-01
<VARIANCE> 25
 1.989024e+01 2.237800e+01 3.543090e+01 3.925693e+01 3.831349e+01 3.554395e+01 3.319180e+01 2.993235e+01 4.311877e+01 3.359512e+01 2.268687e+01 2.678186e+01 5.137467e-01 1.101111e+00 1.252599e+00 2.638350e+00 2.525054e+00 2.299931e+00 2.038847e+00 1.819399e+00 1.983290e+00 1.852884e+00 1.639309e+00 1.938033e+00 6.037184e-01
<GCONST> 9.273713e+01
~t "T_m"
<ENDHMM>
~h "m+e"
<BEGINHMM>
<NUMSTATES> 5
<STATE> 2
<MEAN> 25
 7.548775e+00 2.607854e+00 -2.102983e+00 4.346527e-01 8.082584e-01 9.021307e-01 6.144225e-01 8.268155e-01 -1.237094e+00 -2.310319e+00 -2.608431e+00 -3.108366e+00 -1.797019e-01 1.273914e+00 7.998855e-01 1.091742e+00 7.315946e-01 1.888878e+00 1.063340e+00 1.975945e-01 -9.558619e-02 -2.353920e-01 -8.953397e-01 -1.563288e+00 -1.207566e+00
<VARIANCE> 25
 2.775693e+01 3.253825e+01 4.646520e+01 5.028252e+01 4.394492e+01 4.523094e+01 3.715427e+01 3.382478e+01 4.342428e+01 3.434188e+01 2.442644e+01 3.211829e+01 1.185310e+00 1.893670e+00 1.789684e+00 3.486195e+00 3.584235e+00 3.238808e+00 3.284998e+00 2.704141e+00 3.304344e+00 3.214128e+00 2.384440e+00 2.359962e+00 1.375406e+00
<GCONST> 1.008971e+02
<STATE> 3
<MEAN> 25
 6.220848e+00 4.772701e+00 5.252566e-01 2.877606e+00 2.598014e+00 3.498492e+00 1.213324e+00 6.923475e-01 -7.689387e-01 -1.961661e+00 -3.632575e+00 -5.278195e+00 -7.126752e-02 8.531751e-02 1.286000e-01 1.251273e-01 1.169438e-01 2.010717e-01 1.808041e-01 4.610286e-02 -8.495778e-03 -3.835244e-02 -1.209151e-01 -2.196753e-01 -6.887542e-02
<VARIANCE> 25
 1.855869e+01 1.867837e+01 3.135711e+01 3.267927e+01 3.053080e+01 3.023534e+01 3.066374e+01 2.707565e+01 4.045082e+01 3.238166e+01 2.111422e+01 2.286841e+01 2.486276e-01 4.200025e-01 5.990037e-01 7.999274e-01 8.217130e-01 9.086192e-01 9.282346e-01 9.278805e-01 1.016802e+00 9.133210e-01 8.226467e-01 9.005458e-01 2.172809e-01
<GCONST> 8.029716e+01
<STATE> 4
<MEAN> 25
 6.860100e+00 4.454634e+00 4.674924e-02 2.128716e+00 1.891875e+00 3.227122e+00 1.878703e+00 1.082704e+00 -8.831809e-01 -1.881544e+00 -3.649952e+00 -5.456431e+00 3.623773e-01 -6.383294e-01 -6.348953e-01 -9.845536e-01 -7.848371e-01 -1.462937e+00 -6.459333e-01 7.814296e-02 -9.017757e-02 -7.700860e-02 5.040931e-01 1.155138e+00 8.107449e-01
<VARIANCE> 25
 1.989024e+01 2.237800e+01 3.543090e+01 3.925693e+01 3.831349e+01 3.554395e+01 3.319180e+01 2.993235e+01 4.311877e+01 3.359512e+01 2.268687e+01 2.678186e+01 5.137467e-01 1.101111e+00 1.252599e+00 2.638350e+00 2.525054e+00 2.299931e+00 2.038847e+00 1.819399e+00 1.983290e+00 1.852884e+00 1.639309e+00 1.938033e+00 6.037184e-01
<GCONST> 9.273713e+01
~t "T_m"
<ENDHMM>
~h "m+i"
<BEGINHMM>
<NUMSTATES> 5
<STATE> 2
<MEAN> 25
 7.548775e+00 2.607854e+00 -2.102983e+00 4.346527e-01 8.082584e-01 9.021307e-01 6.144225e-01 8.268155e-01 -1.237094e+00 -2.310319e+00 -2.608431e+00 -3.108366e+00 -1.797019e-01 1.273914e+00 7.998855e-01 1.091742e+00 7.315946e-01 1.888878e+00 1.063340e+00 1.975945e-01 -9.558619e-02 -2.353920e-01 -8.953397e-01 -1.563288e+00 -1.207566e+00
<VARIANCE> 25
 2.775693e+01 3.253825e+01 4.646520e+01 5.028252e+01 4.394492e+01 4.523094e+01 3.715427e+01 3.382478e+01 4.342428e+01 3.434188e+01 2.442644e+01 3.211829e+01 1.185310e+00 1.893670e+00 1.789684e+00 3.486195e+00 3.584235e+00 3.238808e+00 3.284998e+00 2.704141e+00 3.304344e+00 3.214128e+00 2.384440e+00 2.359962e+00 1.375406e+00
<GCONST> 1.008971e+02
<STATE> 3
<MEAN> 25
 6.220848e+00 4.772701e+00 5.252566e-01 2.877606e+00 2.598014e+00 3.498492e+00 1.213324e+00 6.923475e-01 -7.689387e-01 -1.961661e+00 -3.632575e+00 -5.278195e+00 -7.126752e-02 8.531751e-02 1.286000e-01 1.251273e-01 1.169438e-01 2.010717e-01 1.808041e-01 4.610286e-02 -8.495778e-03 -3.835244e-02 -1.209151e-01 -2.196753e-01 -6.887542e-02
<VARIANCE> 25
 1.855869e+01 1.867837e+01 3.135711e+01 3.267927e+01 3.053080e+01 3.023534e+01 3.066374e+01 2.707565e+01 4.045082e+01 3.238166e+01 2.111422e+01 2.286841e+01 2.486276e-01 4.200025e-01 5.990037e-01 7.999274e-01 8.217130e-01 9.086192e-01 9.282346e-01 9.278805e-01 1.016802e+00 9.133210e-01 8.226467e-01 9.005458e-01 2.172809e-01
<GCONST> 8.029716e+01
<STATE> 4
<MEAN> 25
 6.860100e+00 4.454634e+00 4.674924e-02 2.128716e+00 1.891875e+00 3.227122e+00 1.878703e+00 1.082704e+00 -8.831809e-01 -1.881544e+00 -3.649952e+00 -5.456431e+00 3.623773e-01 -6.383294e-01 -6.348953e-01 -9.845536e-01 -7.848371e-01 -1.462937e+00 -6.459333e-01 7.814296e-02 -9.017757e-02 -7.700860e-02 5.040931e-01 1.155138e+00 8.107449e-01
<VARIANCE> 25
 1.989024e+01 2.237800e+01 3.543090e+01 3.925693e+01 3.831349e+01 3.554395e+01 3.319180e+01 2.993235e+01 4.311877e+01 3.359512e+01 2.268687e+01 2.678186e+01 5.137467e-01 1.101111e+00 1.252599e+00 2.638350e+00 2.525054e+00 2.299931e+00 2.038847e+00 1.819399e+00 1.983290e+00 1.852884e+00 1.639309e+00 1.938033e+00 6.037184e-01
<GCONST> 9.273713e+01
~t "T_m"
<ENDHMM>
~h "m+o"
<BEGINHMM>
<NUMSTATES> 5
<STATE> 2
<MEAN> 25
 7.548775e+00 2.607854e+00 -2.102983e+00 4.346527e-01 8.082584e-01 9.021307e-01 6.144225e-01 8.268155e-01 -1.237094e+00 -2.310319e+00 -2.608431e+00 -3.108366e+00 -1.797019e-01 1.273914e+00 7.998855e-01 1.091742e+00 7.315946e-01 1.888878e+00 1.063340e+00 1.975945e-01 -9.558619e-02 -2.353920e-01 -8.953397e-01 -1.563288e+00 -1.207566e+00
<VARIANCE> 25
 2.775693e+01 3.253825e+01 4.646520e+01 5.028252e+01 4.394492e+01 4.523094e+01 3.715427e+01 3.382478e+01 4.342428e+01 3.434188e+01 2.442644e+01 3.211829e+01 1.185310e+00 1.893670e+00 1.789684e+00 3.486195e+00 3.584235e+00 3.238808e+00 3.284998e+00 2.704141e+00 3.304344e+00 3.214128e+00 2.384440e+00 2.359962e+00 1.375406e+00
<GCONST> 1.008971e+02
<STATE> 3
<MEAN> 25
 6.220848e+00 4.772701e+00 5.252566e-01 2.877606e+00 2.598014e+00 3.498492e+00 1.213324e+00 6.923475e-01 -7.689387e-01 -1.961661e+00 -3.632575e+00 -5.278195e+00 -7.126752e-02 8.531751e-02 1.286000e-01 1.251273e-01 1.169438e-01 2.010717e-01 1.808041e-01 4.610286e-02 -8.495778e-03 -3.835244e-02 -1.209151e-01 -2.196753e-01 -6.887542e-02
<VARIANCE> 25
 1.855869e+01 1.867837e+01 3.135711e+01 3.267927e+01 3.053080e+01 3.023534e+01 3.066374e+01 2.707565e+01 4.045082e+01 3.238166e+01 2.111422e+01 2.286841e+01 2.486276e-01 4.200025e-01 5.990037e-01 7.999274e-01 8.217130e-01 9.086192e-01 9.282346e-01 9.278805e-01 1.016802e+00 9.133210e-01 8.226467e-01 9.005458e-01 2.172809e-01
<GCONST> 8.029716e+01
<STATE> 4
<MEAN> 25
 6.860100e+00 4.454634e+00 4.674924e-02 2.128716e+00 1.891875e+00 3.227122e+00 1.878703e+00 1.082704e+00 -8.831809e-01 -1.881544e+00 -3.649952e+00 -5.456431e+00 3.623773e-01 -6.383294e-01 -6.348953e-01 -9.845536e-01 -7.848371e-01 -1.462937e+00 -6.459333e-01 7.814296e-02 -9.017757e-02 -7.700860e-02 5.040931e-01 1.155138e+00 8.107449e-01
<VARIANCE> 25
 1.989024e+01 2.237800e+01 3.543090e+01 3.925693e+01 3.831349e+01 3.554395e+01 3.319180e+01 2.993235e+01 4.311877e+01 3.359512e+01 2.268687e+01 2.678186e+01 5.137467e-01 1.101111e+00 1.252599e+00 2.638350e+00 2.525054e+00 2.299931e+00 2.038847e+00 1.819399e+00 1.983290e+00 1.852884e+00 1.639309e+00 1.938033e+00 6.037184e-01
<GCONST> 9.273713e+01
~t "T_m"
<ENDHMM>
~h "m+u"
<BEGINHMM>
<NUMSTATES> 5
<STATE> 2
<MEAN> 25
 7.548775e+00 2.607854e+00 -2.102983e+00 4.346527e-01 8.082584e-01 9.021307e-01 6.144225e-01 8.268155e-01 -1.237094e+00 -2.310319e+00 -2.608431e+00 -3.108366e+00 -1.797019e-01 1.273914e+00 7.998855e-01 1.091742e+00 7.315946e-01 1.888878e+00 1.063340e+00 1.975945e-01 -9.558619e-02 -2.353920e-01 -8.953397e-01 -1.563288e+00 -1.207566e+00
<VARIANCE> 25
 2.775693e+01 3.253825e+01 4.646520e+01 5.028252e+01 4.394492e+01 4.523094e+01 3.715427e+01 3.382478e+01 4.342428e+01 3.434188e+01 2.442644e+01 3.211829e+01 1.185310e+00 1.893670e+00 1.789684e+00 3.486195e+00 3.584235e+00 3.238808e+00 3.284998e+00 2.704141e+00 3.304344e+00 3.214128e+00 2.384440e+00 2.359962e+00 1.375406e+00
<GCONST> 1.008971e+02
<STATE> 3
<MEAN> 25
 6.220848e+00 4.772701e+00 5.252566e-01 2.877606e+00 2.598014e+00 3.498492e+00 1.213324e+00 6.923475e-01 -7.689387e-01 -1.961661e+00 -3.632575e+00 -5.278195e+00 -7.126752e-02 8.531751e-02 1.286000e-01 1.251273e-01 1.169438e-01 2.010717e-01 1.808041e-01 4.610286e-02 -8.495778e-03 -3.835244e-02 -1.209151e-01 -2.196753e-01 -6.887542e-02
<VARIANCE> 25
 1.855869e+01 1.867837e+01 3.135711e+01 3.267927e+01 3.053080e+01 3.023534e+01 3.066374e+01 2.707565e+01 4.045082e+01 3.238166e+01 2.111422e+01 2.286841e+01 2.486276e-01 4.200025e-01 5.990037e-01 7.999274e-01 8.217130e-01 9.086192e-01 9.282346e-01 9.278805e-01 1.016802e+00 9.133210e-01 8.226467e-01 9.005458e-01 2.172809e-01
<GCONST> 8.029716e+01
<STATE> 4
<MEAN> 25
 6.860100e+00 4.454634e+00 4.674924e-02 2.128716e+00 1.891875e+00 3.227122e+00 1.878703e+00 1.082704e+00 -8.831809e-01 -1.881544e+00 -3.649952e+00 -5.456431e+00 3.623773e-01 -6.383294e-01 -6.348953e-01 -9.845536e-01 -7.848371e-01 -1.462937e+00 -6.459333e-01 7.814296e-02 -9.017757e-02 -7.700860e-02 5.040931e-01 1.155138e+00 8.107449e-01
<VARIANCE> 25
 1.989024e+01 2.237800e+01 3.543090e+01 3.925693e+01 3.831349e+01 3.554395e+01 3.319180e+01 2.993235e+01 4.311877e+01 3.359512e+01 2.268687e+01 2.678186e+01 5.137467e-01 1.101111e+00 1.252599e+00 2.638350e+00 2.525054e+00 2.299931e+00 2.038847e+00 1.819399e+00 1.983290e+00 1.852884e+00 1.639309e+00 1.938033e+00 6.037184e-01
<GCONST> 9.273713e+01
~t "T_m"
<ENDHMM>
~h "m-a"
<BEGINHMM>
<NUMSTATES> 5
<STATE> 2
<MEAN> 25
 8.084209e+00 -3.246555e+00 -4.886938e+00 -2.890126e+00 -1.922659e+00 -4.591505e+00 -1.062124e+00 -1.533606e+00 -3.011539e+00 -1.419097e+00 7.822737e-01 1.974153e+00 8.531939e-01 -1.219489e+00 -1.591901e+00 -1.511451e+00 -1.099942e+00 -1.081241e+00 3.296968e-01 2.435892e-01 2.131322e-01 7.433307e-01 1.096173e+00 1.076555e+00 1.531909e+00
<VARIANCE> 25
 3.102556e+01 3.982352e+01 4.648204e+01 6.052976e+01 4.865224e+01 5.364120e+01 4.957391e+01 5.206113e+01 4.994263e+01 4.377484e+01 3.566540e+01 3.010361e+01 2.105191e+00 2.133569e+00 2.607650e+00 3.361774e+00 2.917656e+00 3.954443e+00 3.398865e+00 3.319243e+00 3.668817e+00 4.076825e+00 3.093344e+00 2.673295e+00 1.675560e+00
<GCONST> 1.052759e+02
<STATE> 3
<MEAN> 25
 9.462610e+00 -6.897775e+00 -8.743549e+00 -6.083593e+00 -4.604442e+00 -5.470979e+00 1.397076e+00 -2.830499e-01 -1.629562e+00 7.007640e-01 2.659651e+00 3.340820e+00 3.290816e-02 -1.735238e-01 -3.625012e-01 -3.627358e-01 -1.769637e-01 2.254089e-01 4.766614e-01 2.827543e-01 2.371980e-01 1.767752e-01 8.445666e-02 6.974697e-02 8.193482e-02
<VARIANCE> 25
 2.840129e+01 3.570125e+01 4.138834e+01 4.038225e+01 4.118876e+01 4.148624e+01 4.739182e+01 4.747406e+01 4.473821e+01 4.189992e+01 3.449903e+01 2.805832e+01 3.302394e-01 8.424883e-01 9.393210e-01 1.242460e+00 1.324397e+00 1.496400e+00 1.901740e+00 1.780651e+00 1.803969e+00 1.726919e+00 1.430944e+00 1.179275e+00 3.783611e-01
<GCONST> 9.133002e+01
<STATE> 4
<MEAN> 25
 8.177530e+00 -2.680661e+00 -7.293503e+00 -5.932261e+00 -3.758124e+00 -2.794274e+00 1.176165e+00 -3.390664e-01 -1.368642e+00 2.573896e-01 2.133668e+00 3.287408e+00 -4.538044e-01 8.704351e-01 7.276899e-01 4.679444e-01 4.150407e-01 5.706517e-01 -1.937626e-01 -1.382255e-01 1.753797e-02 -1.629017e-01 -2.942949e-01 -3.140077e-01 -8.826797e-01
<VARIANCE> 25
 2.215926e+01 3.099335e+01 3.486272e+01 3.668752e+01 3.283007e+01 3.965223e+01 3.500597e+01 3.826480e+01 3.512437e+01 3.170736e+01 2.563973e+01 2.200531e+01 5.861269e-01 9.910762e-01 1.080531e+00 1.252255e+00 1.395680e+00 1.835312e+00 1.787168e+00 1.826652e+00 1.993582e+00 1.853269e+00 1.609923e+00 1.318195e+00 6.483233e-01
<GCONST> 9.086413e+01
~t "T_a"
<ENDHMM>
~h "m-e"
<BEGINHMM>
<NUMSTATES> 5
<STATE> 2
<MEAN> 25
 4.917822e+00 -3.046909e+00 -7.860230e-01 1.961976e+00 3.296882e+00 -3.095960e+00 -4.445966e+00 -4.378197e+00 -4.194638e+00 -1.446952e+00 1.146220e-01 1.648807e-01 1.062938e+00 -1.285595e+00 -6.981800e-01 4.423747e-01 5.001229e-01 -1.895295e+00 -1.787762e+00 -1.308817e+00 -1.084860e+00 1.344622e-01 6.617222e-01 3.701210e-01 1.670173e+00
<VARIANCE> 25
 3.577217e+01 3.706077e+01 4.774310e+01 6.015227e+01 4.925949e+01 6.036604e+01 5.010396e+01 4.977269e+01 4.858726e+01 3.950971e+01 3.013842e+01 2.473536e+01 2.384392e+00 2.958043e+00 2.685448e+00 3.858023e+00 3.340221e+00 5.064232e+00 4.063103e+00 3.681123e+00 4.037725e+00 4.174648e+00 3.332788e+00 2.898063e+00 2.226966e+00
<GCONST> 1.068105e+02
<STATE> 3
<MEAN> 25
 7.191195e+00 -7.001473e+00 -2.328277e+00 2.836691e+00 3.888689e+00 -7.911126e+00 -8.482172e+00 -6.657192e+00 -5.470276e+00 -1.285404e-01 1.987994e+00 7.147580e-01 8.514885e-02 -4.249433e-01 -1.496204e-01 2.818093e-01 1.203487e-01 -6.073316e-01 -4.420330e-01 -1.406531e-01 1.603031e-01 5.093133e-01 3.347531e-01 -4.041983e-02 2.952766e-01
<VARIANCE> 25
 2.837927e+01 3.550758e+01 4.376701e+01 6.339727e+01 5.782299e+01 6.153004e+01 4.445435e+01 4.665985e+01 4.438187e+01 4.603452e+01 3.686113e+01 3.249733e+01 5.579238e-01 9.633060e-01 1.396090e+00 1.826277e+00 1.583154e+00 2.003756e+00 1.982185e+00 1.856537e+00 2.013892e+00 2.006657e+00 1.751121e+00 1.508502e+00 5.828047e-01
<GCONST> 9.591582e+01
<STATE> 4
<MEAN> 25
 5.895019e+00 -4.724988e+00 -1.197292e+00 3.906052e+00 3.870449e+00 -6.545651e+00 -8.215060e+00 -6.679025e+00 -4.172563e+00 5.337154e-01 9.279272e-01 -6.742178e-01 -3.232698e-01 7.992764e-01 3.300467e-01 -6.339286e-02 7.912491e-02 1.004552e+00 6.088396e-01 3.772415e-01 3.436322e-01 -1.313366e-01 -2.720630e-01 -1.298955e-01 -7.956876e-01
<VARIANCE> 25
 2.029749e+01 3.066547e+01 3.368494e+01 5.057070e+01 4.296806e+01 5.593891e+01 3.659196e+01 3.710094e+01 4.034227e+01 3.575679e+01 3.262199e+01 2.925796e+01 5.569103e-01 1.011105e+00 1.171097e+00 1.448238e+00 1.440968e+00 2.011663e+00 1.814593e+00 1.739066e+00 1.905525e+00 1.867028e+00 1.539982e+00 1.274082e+00 7.538318e-01
<GCONST> 9.278246e+01
~t "T_e"
<ENDHMM>
~h "m-i"
<BEGINHMM>
<NUMSTATES> 5
<STATE> 2
<MEAN> 25
 2.824880e+00 -2.961581e+00 4.292364e+00 7.499251e+00 7.346193e+00 -2.067250e+00 -5.297520e+00 -2.873806e+00 -2.378581e+00 -1.973293e+00 -2.520489e+00 -3.736685e+00 1.015099e+00 -9.724852e-01 2.479329e-01 2.179622e+00 1.426837e+00 -2.128228e+00 -2.309814e+00 -3.848035e-01 -7.270547e-01 -7.560874e-01 -6.794949e-01 -8.365397e-01 1.175898e+00
<VARIANCE> 25
 3.374600e+01 3.967356e+01 6.750194e+01 6.375350e+01 5.781096e+01 6.437442e+01 4.980933e+01 4.415491e+01 4.445846e+01 3.540117e+01 3.356274e+01 2.704606e+01 3.132528e+00 4.137255e+00 3.621446e+00 4.487921e+00 4.215056e+00 5.312013e+00 4.005538e+00 3.824685e+00 4.409300e+00 4.209664e+00 3.923692e+00 2.984154e+00 1.617640e+00
<GCONST> 1.086541e+02
<STATE> 3
<MEAN> 25
 3.691633e+00 -6.378765e+00 6.166086e+00 1.236009e+01 7.380941e+00 -9.047977e+00 -9.580333e+00 -1.629763e+00 -3.102339e+00 -4.599288e+00 -4.548250e+00 -5.048493e+00 8.359629e-02 -2.991736e-01 1.296623e-01 4.305927e-01 9.667514e-03 -8.290642e-01 -5.818837e-01 1.603395e-01 8.957740e-02 -1.876646e-01 -1.591199e-01 -1.092843e-01 2.681427e-01
<VARIANCE> 25
 2.149308e+01 3.103732e+01 4.970968e+01 5.873264e+01 7.158559e+01 6.920425e+01 3.966159e+01 4.495304e+01 4.204121e+01 4.275245e+01 4.102441e+01 2.954641e+01 6.639252e-01 9.264812e-01 1.883231e+00 1.858640e+00 1.558079e+00 2.146437e+00 1.929194e+00 2.097977e+00 1.840118e+00 1.884095e+00 1.595546e+00 1.333590e+00 5.259222e-01
<GCONST> 9.574519e+01
<STATE> 4
<MEAN> 25
 4.036044e+00 -4.218312e+00 4.209880e+00 1.037407e+01 7.996428e+00 -6.247262e+00 -9.419474e+00 -3.331409e+00 -2.663913e+00 -2.918104e+00 -3.142705e+00 -4.376024e+00 3.821991e-02 8.336469e-01 -6.000085e-01 -1.181883e+00 -5.675405e-01 1.117856e+00 8.718380e-01 -2.187419e-01 -3.897155e-02 3.511441e-01 4.869802e-01 5.886047e-01 -5.325214e-01
<VARIANCE> 25
 1.972391e+01 3.227742e+01 4.309776e+01 5.167957e+01 5.495691e+01 6.691110e+01 3.850472e+01 4.351723e+01 4.154246e+01 3.556070e+01 3.517086e+01 2.803684e+01 6.999541e-01 1.390189e+00 1.663853e+00 1.824908e+00 1.964548e+00 2.784639e+00 2.501812e+00 2.236512e+00 2.341234e+00 2.148965e+00 1.947036e+00 1.699689e+00 1.056007e+00
<GCONST> 9.730878e+01
~t "T_i"
<ENDHMM>
~h "m-o"
<BEGINHMM>
<NUMSTATES> 5
<STATE> 2
<MEAN> 25
 8.202134e+00 8.756948e-01 -1.556870e+00 -2.412576e+00 -4.135490e+00 -5.283045e+00 -1.325630e+00 5.514442e-01 -3.256593e+00 -4.464030e+00 -3.179199e+00 -1.018459e+00 8.533680e-01 5.628624e-02 -4.272498e-01 -1.163086e+00 -1.742013e+00 -1.833407e+00 -1.006363e-01 8.327968e-01 2.565329e-01 -1.784475e-01 -2.551433e-01 1.000556e-01 7.841955e-01
<VARIANCE> 25
 2.727819e+01 4.614404e+01 4.546624e+01 5.624189e+01 6.257309e+01 6.102062e+01 4.518742e+01 4.939813e+01 5.469617e+01 4.219932e+01 3.056493e+01 2.847985e+01 1.604221e+00 2.714622e+00 2.414845e+00 3.306103e+00 3.399673e+00 4.293542e+00 4.410888e+00 3.910635e+00 3.812121e+00 3.509329e+00 2.851977e+00 2.694980e+00 1.552250e+00
<GCONST> 1.055529e+02
<STATE> 3
<MEAN> 25
 9.608891e+00 1.841884e+00 -1.624231e+00 -4.843653e+00 -1.056682e+01 -1.047259e+01 -3.275502e-01 4.228262e+00 -8.981493e-01 -3.707518e+00 -3.771726e+00 -1.847208e+00 -1.603226e-01 3.746803e-01 2.492852e-02 -5.283350e-02 -1.316152e-01 2.060792e-01 2.320018e-01 3.473101e-01 4.636069e-01 2.421327e-01 -1.011645e-03 -9.001540e-02 -4.208844e-01
<VARIANCE> 25
 2.191664e+01 3.832346e+01 3.536129e+01 4.552036e+01 5.146196e+01 5.402416e+01 4.532333e+01 4.316967e+01 5.194213e+01 3.791486e+01 2.724122e+01 2.477335e+01 5.759985e-01 1.296905e+00 1.329783e+00 1.436117e+00 2.015944e+00 2.854960e+00 1.984985e+00 2.227589e+00 2.343580e+00 2.045362e+00 1.638120e+00 1.449960e+00 1.066268e+00
<GCONST> 9.576168e+01
<STATE> 4
<MEAN> 25
 5.920141e+00 4.729104e+00 -6.619071e-01 -3.592440e+00 -6.668617e+00 -4.437122e+00 3.776827e-01 3.175261e+00 9.050462e-01 -1.454790e+00 -2.326509e+00 -1.249121e+00 -6.257654e-01 -3.906129e-02 1.678127e-01 4.218079e-01 7.039407e-01 9.980335e-01 2.885799e-01 -2.038472e-01 -1.773957e-02 1.877047e-01 2.155907e-01 8.154663e-02 -5.345345e-01
<VARIANCE> 25
 2.381943e+01 3.168683e+01 3.073319e+01 3.372535e+01 3.205265e+01 4.222814e+01 3.201194e+01 3.300840e+01 3.498757e+01 3.150789e+01 2.243595e+01 1.901501e+01 4.852379e-01 7.335701e-01 1.011674e+00 1.084659e+00 1.496157e+00 1.967000e+00 1.648281e+00 1.688958e+00 1.686677e+00 1.518985e+00 1.305284e+00 1.193857e+00 3.831035e-01
<GCONST> 8.833953e+01
~t "T_o"
<ENDHMM>
~h "i-ll+a"
<BEGINHMM>
<NUMSTATES> 5
<STATE> 2
<MEAN> 25
 3.212471e+00 -2.951287e+00 4.323708e+00 8.410697e+00 2.788220e+00 -1.935065e+00 -1.747923e+00 8.391452e-02 -2.637424e+00 -1.581116e+00 -6.247452e-01 -1.540875e+00 -2.188163e-01 -4.430611e-01 8.618621e-01 1.067031e+00 6.207041e-01 -1.448503e-01 -4.251457e-01 -1.209111e-01 -3.200509e-01 -3.793057e-01 -3.794066e-01 -4.406834e-01 1.135523e-01
<VARIANCE> 25
 3.954158e+01 4.888305e+01 7.001929e+01 7.442691e+01 4.999314e+01 6.646969e+01 5.267068e+01 4.823973e+01 4.327724e+01 3.409306e+01 3.101496e+01 2.490006e+01 2.074605e+00 4.279892e+00 3.420694e+00 4.001318e+00 3.367984e+00 4.949061e+00 5.046401e+00 4.234818e+00 3.539297e+00 2.989798e+00 2.465955e+00 2.130456e+00 3.378630e+00
<GCONST> 1.078784e+02
<STATE> 3
<MEAN> 25
 5.845975e+00 -6.557073e+00 3.317025e+00 1.269852e+01 6.821661e+00 -6.851101e+00 -8.228510e+00 -3.712974e+00 -6.055174e+00 -4.384605e+00 -1.842642e+00 -2.637305e+00 1.161601e+00 -3.497964e-01 -1.748255e+00 -1.039612e+00 -1.023872e-01 -1.126238e+00 -1.311410e+00 -1.242101e+00 -8.171799e-01 -3.470524e-02 5.469254e-01 7.039791e-01 1.082235e+00
<VARIANCE> 25
 2.284479e+01 2.646275e+01 3.987304e+01 6.100370e+01 6.157007e+01 5.622474e+01 4.059973e+01 4.629984e+01 3.791869e+01 3.027633e+01 2.953214e+01 2.345895e+01 1.101586e+00 1.286474e+00 2.290552e+00 2.601848e+00 2.260683e+00 3.307712e+00 3.644923e+00 2.808527e+00 3.231163e+00 3.109841e+00 2.243085e+00 1.853376e+00 7.294656e-01
<GCONST> 9.931143e+01
<STATE> 4
<MEAN> 25
 6.903928e+00 -5.119917e+00 -6.370137e-01 7.196602e+00 3.752772e+00 -6.617359e+00 -7.630206e+00 -4.237154e+00 -5.773923e+00 -3.432392e+00 -1.383355e-01 2.270406e-01 3.532740e-01 1.402729e-01 -1.005013e+00 -1.572629e+00 -9.562680e-01 -6.739819e-02 5.709735e-01 2.909666e-01 3.566037e-01 4.653815e-01 4.380224e-01 6.594865e-01 2.652628e-01
<VARIANCE> 25
 2.485456e+01 3.116670e+01 3.369991e+01 4.996317e+01 4.769045e+01 6.074029e+01 3.860729e+01 4.537725e+01 3.515932e+01 5.286123e+01 3.456664e+01 2.363072e+01 3.052286e-01 6.844740e-01 1.423032e+00 1.637507e+00 1.733776e+00 1.588886e+00 1.935019e+00 2.034065e+00 1.932827e+00 2.487600e+00 2.167042e+00 1.462642e+00 3.067801e-01
<GCONST> 9.290681e+01
~t "T_ll"
<ENDHMM>
~h "i-ll+e"
<BEGINHMM>
<NUMSTATES> 5
<STATE> 2
<MEAN> 25
 3.212471e+00 -2.951287e+00 4.323708e+00 8.410697e+00 2.788220e+00 -1.935065e+00 -1.747923e+00 8.391452e-02 -2.637424e+00 -1.581116e+00 -6.247452e-01 -1.540875e+00 -2.188163e-01 -4.430611e-01 8.618621e-01 1.067031e+00 6.207041e-01 -1.448503e-01 -4.251457e-01 -1.209111e-01 -3.200509e-01 -3.793057e-01 -3.794066e-01 -4.406834e-01 1.135523e-01
<VARIANCE> 25
 3.954158e+01 4.888305e+01 7.001929e+01 7.442691e+01 4.999314e+01 6.646969e+01 5.267068e+01 4.823973e+01 4.327724e+01 3.409306e+01 3.101496e+01 2.490006e+01 2.074605e+00 4.279892e+00 3.420694e+00 4.001318e+00 3.367984e+00 4.949061e+00 5.046401e+00 4.234818e+00 3.539297e+00 2.989798e+00 2.465955e+00 2.130456e+00 3.378630e+00
<GCONST> 1.078784e+02
<STATE> 3
<MEAN> 25
 5.845975e+00 -6.557073e+00 3.317025e+00 1.269852e+01 6.821661e+00 -6.851101e+00 -8.228510e+00 -3.712974e+00 -6.055174e+00 -4.384605e+00 -1.842642e+00 -2.637305e+00 1.161601e+00 -3.497964e-01 -1.748255e+00 -1.039612e+00 -1.023872e-01 -1.126238e+00 -1.311410e+00 -1.242101e+00 -8.171799e-01 -3.470524e-02 5.469254e-01 7.039791e-01 1.082235e+00
<VARIANCE> 25
 2.284479e+01 2.646275e+01 3.987304e+01 6.100370e+01 6.157007e+01 5.622474e+01 4.059973e+01 4.629984e+01 3.791869e+01 3.027633e+01 2.953214e+01 2.345895e+01 1.101586e+00 1.286474e+00 2.290552e+00 2.601848e+00 2.260683e+00 3.307712e+00 3.644923e+00 2.808527e+00 3.231163e+00 3.109841e+00 2.243085e+00 1.853376e+00 7.294656e-01
<GCONST> 9.931143e+01
<STATE> 4
<MEAN> 25
 6.903928e+00 -5.119917e+00 -6.370137e-01 7.196602e+00 3.752772e+00 -6.617359e+00 -7.630206e+00 -4.237154e+00 -5.773923e+00 -3.432392e+00 -1.383355e-01 2.270406e-01 3.532740e-01 1.402729e-01 -1.005013e+00 -1.572629e+00 -9.562680e-01 -6.739819e-02 5.709735e-01 2.909666e-01 3.566037e-01 4.653815e-01 4.380224e-01 6.594865e-01 2.652628e-01
<VARIANCE> 25
 2.485456e+01 3.116670e+01 3.369991e+01 4.996317e+01 4.769045e+01 6.074029e+01 3.860729e+01 4.537725e+01 3.515932e+01 5.286123e+01 3.456664e+01 2.363072e+01 3.052286e-01 6.844740e-01 1.423032e+00 1.637507e+00 1.733776e+00 1.588886e+00 1.935019e+00 2.034065e+00 1.932827e+00 2.487600e+00 2.167042e+00 1.462642e+00 3.067801e-01
<GCONST> 9.290681e+01
~t "T_ll"
<ENDHMM>
~h "i-ll+o"
<BEGINHMM>
<NUMSTATES> 5
<STATE> 2
<MEAN> 25
 3.212471e+00 -2.951287e+00 4.323708e+00 8.410697e+00 2.788220e+00 -1.935065e+00 -1.747923e+00 8.391452e-02 -2.637424e+00 -1.581116e+00 -6.247452e-01 -1.540875e+00 -2.188163e-01 -4.430611e-01 8.618621e-01 1.067031e+00 6.207041e-01 -1.448503e-01 -4.251457e-01 -1.209111e-01 -3.200509e-01 -3.793057e-01 -3.794066e-01 -4.406834e-01 1.135523e-01
<VARIANCE> 25
 3.954158e+01 4.888305e+01 7.001929e+01 7.442691e+01 4.999314e+01 6.646969e+01 5.267068e+01 4.823973e+01 4.327724e+01 3.409306e+01 3.101496e+01 2.490006e+01 2.074605e+00 4.279892e+00 3.420694e+00 4.001318e+00 3.367984e+00 4.949061e+00 5.046401e+00 4.234818e+00 3.539297e+00 2.989798e+00 2.465955e+00 2.130456e+00 3.378630e+00
<GCONST> 1.078784e+02
<STATE> 3
<MEAN> 25
 5.845975e+00 -6.557073e+00 3.317025e+00 1.269852e+01 6.821661e+00 -6.851101e+00 -8.228510e+00 -3.712974e+00 -6.055174e+00 -4.384605e+00 -1.842642e+00 -2.637305e+00 1.161601e+00 -3.497964e-01 -1.748255e+00 -1.039612e+00 -1.023872e-01 -1.126238e+00 -1.311410e+00 -1.242101e+00 -8.171799e-01 -3.470524e-02 5.469254e-01 7.039791e-01 1.082235e+00
<VARIANCE> 25
 2.284479e+01 2.646275e+01 3.987304e+01 6.100370e+01 6.157007e+01 5.622474e+01 4.059973e+01 4.629984e+01 3.791869e+01 3.027633e+01 2.953214e+01 2.345895e+01 1.101586e+00 1.286474e+00 2.290552e+00 2.601848e+00 2.260683e+00 3.307712e+00 3.644923e+00 2.808527e+00 3.231163e+00 3.109841e+00 2.243085e+00 1.853376e+00 7.294656e-01
<GCONST> 9.931143e+01
<STATE> 4
<MEAN> 25
 6.903928e+00 -5.119917e+00 -6.370137e-01 7.196602e+00 3.752772e+00 -6.617359e+00 -7.630206e+00 -4.237154e+00 -5.773923e+00 -3.432392e+00 -1.383355e-01 2.270406e-01 3.532740e-01 1.402729e-01 -1.005013e+00 -1.572629e+00 -9.562680e-01 -6.739819e-02 5.709735e-01 2.909666e-01 3.566037e-01 4.653815e-01 4.380224e-01 6.594865e-01 2.652628e-01
<VARIANCE> 25
 2.485456e+01 3.116670e+01 3.369991e+01 4.996317e+01 4.769045e+01 6.074029e+01 3.860729e+01 4.537725e+01 3.515932e+01 5.286123e+01 3.456664e+01 2.363072e+01 3.052286e-01 6.844740e-01 1.423032e+00 1.637507e+00 1.733776e+00 1.588886e+00 1.935019e+00 2.034065e+00 1.932827e+00 2.487600e+00 2.167042e+00 1.462642e+00 3.067801e-01
<GCONST> 9.290681e+01
~t "T_ll"
<ENDHMM>
~h "n+a"
<BEGINHMM>
<NUMSTATES> 5
<STATE> 2
<MEAN> 25
 7.169885e+00 3.457295e-01 -9.706034e-01 1.822969e+00 2.203207e+00 -1.710077e+00 -1.541217e+00 -6.925409e-01 -3.499932e+00 -2.178467e+00 -7.829415e-01 -1.847775e+00 -1.776564e-01 1.685531e+00 6.899630e-01 1.139801e+00 6.890932e-01 2.057916e+00 4.165332e-01 -6.090450e-01 -1.683788e-01 -9.237592e-02 -7.342267e-01 -1.250047e+00 -1.560356e+00
<VARIANCE> 25
 2.165102e+01 3.528417e+01 4.496836e+01 6.788055e+01 4.849240e+01 5.297578e+01 4.589392e+01 4.388946e+01 4.575230e+01 3.900736e+01 3.414560e+01 3.704768e+01 9.116951e-01 1.700086e+00 1.786228e+00 4.035296e+00 3.243808e+00 3.321929e+00 3.851503e+00 3.338852e+00 3.444288e+00 2.962204e+00 2.780899e+00 2.558904e+00 1.011466e+00
<GCONST> 1.023394e+02
<STATE> 3
<MEAN> 25
 6.451331e+00 3.805457e+00 7.997720e-01 4.104099e+00 3.209973e+00 1.771652e+00 -1.687927e+00 -2.346424e+00 -2.799612e+00 -1.867672e+00 -2.654003e+00 -4.671466e+00 -4.288488e-01 8.661700e-01 6.104125e-01 6.183404e-01 3.940374e-01 1.045232e+00 2.131816e-01 -3.304687e-01 1.941549e-01 1.693209e-01 -3.405662e-01 -4.656930e-01 -8.459170e-01
<VARIANCE> 25
 1.605801e+01 2.327610e+01 3.427949e+01 4.943877e+01 3.551352e+01 4.001220e+01 3.662941e+01 3.266262e+01 4.372853e+01 3.314529e+01 2.653506e+01 2.688600e+01 4.240589e-01 7.692712e-01 1.020777e+00 1.824027e+00 1.598796e+00 1.636005e+00 1.955104e+00 1.795479e+00 2.067024e+00 1.608387e+00 1.611071e+00 1.827414e+00 4.028325e-01
<GCONST> 9.059154e+01
<STATE> 4
<MEAN> 25
 3.843240e+00 4.976631e+00 2.044346e+00 4.405276e+00 3.430595e+00 3.177998e+00 -7.137617e-01 -1.420924e+00 -8.184713e-01 -5.259312e-01 -2.154598e+00 -3.488309e+00 -4.377143e-01 -2.375585e-02 4.742600e-02 -6.740690e-02 -9.708463e-02 1.467522e-01 2.977267e-01 2.026634e-01 7.117245e-02 2.588364e-02 1.424470e-01 2.484765e-01 -3.065790e-01
<VARIANCE> 25
 1.843643e+01 1.784051e+01 2.607419e+01 3.130790e+01 2.558590e+01 2.868715e+01 2.686604e+01 2.596465e+01 3.096772e+01 2.389989e+01 1.980139e+01 1.923713e+01 4.635847e-01 5.872605e-01 8.780912e-01 9.187444e-01 9.726738e-01 1.154603e+00 1.138327e+00 1.124501e+00 1.193445e+00 1.121723e+00 1.058525e+00 1.099325e+00 4.008314e-01
<GCONST> 8.251925e+01
~t "T_n"
<ENDHMM>
~h "n+e"
<BEGINHMM>
<NUMSTATES> 5
<STATE> 2
<MEAN> 25
 7.169885e+00 3.457295e-01 -9.706034e-01 1.822969e+00 2.203207e+00 -1.710077e+00 -1.541217e+00 -6.925409e-01 -3.499932e+00 -2.178467e+00 -7.829415e-01 -1.847775e+00 -1.776564e-01 1.685531e+00 6.899630e-01 1.139801e+00 6.890932e-01 2.057916e+00 4.165332e-01 -6.090450e-01 -1.683788e-01 -9.237592e-02 -7.342267e-01 -1.250047e+00 -1.560356e+00
<VARIANCE> 25
 2.165102e+01 3.528417e+01 4.496836e+01 6.788055e+01 4.849240e+01 5.297578e+01 4.589392e+01 4.388946e+01 4.575230e+01 3.900736e+01 3.414560e+01 3.704768e+01 9.116951e-01 1.700086e+00 1.786228e+00 4.035296e+00 3.243808e+00 3.321929e+00 3.851503e+00 3.338852e+00 3.444288e+00 2.962204e+00 2.780899e+00 2.558904e+00 1.011466e+00
<GCONST> 1.023394e+02
<STATE> 3
<MEAN> 25
 6.451331e+00 3.805457e+00 7.997720e-01 4.104099e+00 3.209973e+00 1.771652e+00 -1.687927e+00 -2.346424e+00 -2.799612e+00 -1.867672e+00 -2.654003e+00 -4.671466e+00 -4.288488e-01 8.661700e-01 6.104125e-01 6.183404e-01 3.940374e-01 1.045232e+00 2.131816e-01 -3.304687e-01 1.941549e-01 1.693209e-01 -3.405662e-01 -4.656930e-01 -8.459170e-01
<VARIANCE> 25
 1.605801e+01 2.327610e+01 3.427949e+01 4.943877e+01 3.551352e+01 4.001220e+01 3.662941e+01 3.266262e+01 4.372853e+01 3.314529e+01 2.653506e+01 2.688600e+01 4.240589e-01 7.692712e-01 1.020777e+00 1.824027e+00 1.598796e+00 1.636005e+00 1.955104e+00 1.795479e+00 2.067024e+00 1.608387e+00 1.611071e+00 1.827414e+00 4.028325e-01
<GCONST> 9.059154e+01
<STATE> 4
<MEAN> 25
 3.843240e+00 4.976631e+00 2.044346e+00 4.405276e+00 3.430595e+00 3.177998e+00 -7.137617e-01 -1.420924e+00 -8.184713e-01 -5.259312e-01 -2.154598e+00 -3.488309e+00 -4.377143e-01 -2.375585e-02 4.742600e-02 -6.740690e-02 -9.708463e-02 1.467522e-01 2.977267e-01 2.026634e-01 7.117245e-02 2.588364e-02 1.424470e-01 2.484765e-01 -3.065790e-01
<VARIANCE> 25
 1.843643e+01 1.784051e+01 2.607419e+01 3.130790e+01 2.558590e+01 2.868715e+01 2.686604e+01 2.596465e+01 3.096772e+01 2.389989e+01 1.980139e+01 1.923713e+01 4.635847e-01 5.872605e-01 8.780912e-01 9.187444e-01 9.726738e-01 1.154603e+00 1.138327e+00 1.124501e+00 1.193445e+00 1.121723e+00 1.058525e+00 1.099325e+00 4.008314e-01
<GCONST> 8.251925e+01
~t "T_n"
<ENDHMM>
~h "n+i"
<BEGINHMM>
<NUMSTATES> 5
<STATE> 2
<MEAN> 25
 7.169885e+00 3.457295e-01 -9.706034e-01 1.822969e+00 2.203207e+00 -1.710077e+00 -1.541217e+00 -6.925409e-01 -3.499932e+00 -2.178467e+00 -7.829415e-01 -1.847775e+00 -1.776564e-01 1.685531e+00 6.899630e-01 1.139801e+00 6.890932e-01 2.057916e+00 4.165332e-01 -6.090450e-01 -1.683788e-01 -9.237592e-02 -7.342267e-01 -1.250047e+00 -1.560356e+00
<VARIANCE> 25
 2.165102e+01 3.528417e+01 4.496836e+01 6.788055e+01 4.849240e+01 5.297578e+01 4.589392e+01 4.388946e+01 4.575230e+01 3.900736e+01 3.414560e+01 3.704768e+01 9.116951e-01 1.700086e+00 1.786228e+00 4.035296e+00 3.243808e+00 3.321929e+00 3.851503e+00 3.338852e+00 3.444288e+00 2.962204e+00 2.780899e+00 2.558904e+00 1.011466e+00
<GCONST> 1.023394e+02
<STATE> 3
<MEAN> 25
 6.451331e+00 3.805457e+00 7.997720e-01 4.104099e+00 3.209973e+00 1.771652e+00 -1.687927e+00 -2.346424e+00 -2.799612e+00 -1.867672e+00 -2.654003e+00 -4.671466e+00 -4.288488e-01 8.661700e-01 6.104125e-01 6.183404e-01 3.940374e-01 1.045232e+00 2.131816e-01 -3.304687e-01 1.941549e-01 1.693209e-01 -3.405662e-01 -4.656930e-01 -8.459170e-01
<VARIANCE> 25
 1.605801e+01 2.327610e+01 3.427949e+01 4.943877e+01 3.551352e+01 4.001220e+01 3.662941e+01 3.266262e+01 4.372853e+01 3.314529e+01 2.653506e+01 2.688600e+01 4.240589e-01 7.692712e-01 1.020777e+00 1.824027e+00 1.598796e+00 1.636005e+00 1.955104e+00 1.795479e+00 2.067024e+00 1.608387e+00 1.611071e+00 1.827414e+00 4.028325e-01
<GCONST> 9.059154e+01
<STATE> 4
<MEAN> 25
 3.843240e+00 4.976631e+00 2.044346e+00 4.405276e+00 3.430595e+00 3.177998e+00 -7.137617e-01 -1.420924e+00 -8.184713e-01 -5.259312e-01 -2.154598e+00 -3.488309e+00 -4.377143e-01 -2.375585e-02 4.742600e-02 -6.740690e-02 -9.708463e-02 1.467522e-01 2.977267e-01 2.026634e-01 7.117245e-02 2.588364e-02 1.424470e-01 2.484765e-01 -3.065790e-01
<VARIANCE> 25
 1.843643e+01 1.784051e+01 2.607419e+01 3.130790e+01 2.558590e+01 2.868715e+01 2.686604e+01 2.596465e+01 3.096772e+01 2.389989e+01 1.980139e+01 1.923713e+01 4.635847e-01 5.872605e-01 8.780912e-01 9.187444e-01 9.726738e-01 1.154603e+00 1.138327e+00 1.124501e+00 1.193445e+00 1.121723e+00 1.058525e+00 1.099325e+00 4.008314e-01
<GCONST> 8.251925e+01
~t "T_n"
<ENDHMM>
~h "n+o"
<BEGINHMM>
<NUMSTATES> 5
<STATE> 2
<MEAN> 25
 7.169885e+00 3.457295e-01 -9.706034e-01 1.822969e+00 2.203207e+00 -1.710077e+00 -1.541217e+00 -6.925409e-01 -3.499932e+00 -2.178467e+00 -7.829415e-01 -1.847775e+00 -1.776564e-01 1.685531e+00 6.899630e-01 1.139801e+00 6.890932e-01 2.057916e+00 4.165332e-01 -6.090450e-01 -1.683788e-01 -9.237592e-02 -7.342267e-01 -1.250047e+00 -1.560356e+00
<VARIANCE> 25
 2.165102e+01 3.528417e+01 4.496836e+01 6.788055e+01 4.849240e+01 5.297578e+01 4.589392e+01 4.388946e+01 4.575230e+01 3.900736e+01 3.414560e+01 3.704768e+01 9.116951e-01 1.700086e+00 1.786228e+00 4.035296e+00 3.243808e+00 3.321929e+00 3.851503e+00 3.338852e+00 3.444288e+00 2.962204e+00 2.780899e+00 2.558904e+00 1.011466e+00
<GCONST> 1.023394e+02
<STATE> 3
<MEAN> 25
 6.451331e+00 3.805457e+00 7.997720e-01 4.104099e+00 3.209973e+00 1.771652e+00 -1.687927e+00 -2.346424e+00 -2.799612e+00 -1.867672e+00 -2.654003e+00 -4.671466e+00 -4.288488e-01 8.661700e-01 6.104125e-01 6.183404e-01 3.940374e-01 1.045232e+00 2.131816e-01 -3.304687e-01 1.941549e-01 1.693209e-01 -3.405662e-01 -4.656930e-01 -8.459170e-01
<VARIANCE> 25
 1.605801e+01 2.327610e+01 3.427949e+01 4.943877e+01 3.551352e+01 4.001220e+01 3.662941e+01 3.266262e+01 4.372853e+01 3.314529e+01 2.653506e+01 2.688600e+01 4.240589e-01 7.692712e-01 1.020777e+00 1.824027e+00 1.598796e+00 1.636005e+00 1.955104e+00 1.795479e+00 2.067024e+00 1.608387e+00 1.611071e+00 1.827414e+00 4.028325e-01
<GCONST> 9.059154e+01
<STATE> 4
<MEAN> 25
 3.843240e+00 4.976631e+00 2.044346e+00 4.405276e+00 3.430595e+00 3.177998e+00 -7.137617e-01 -1.420924e+00 -8.184713e-01 -5.259312e-01 -2.154598e+00 -3.488309e+00 -4.377143e-01 -2.375585e-02 4.742600e-02 -6.740690e-02 -9.708463e-02 1.467522e-01 2.977267e-01 2.026634e-01 7.117245e-02 2.588364e-02 1.424470e-01 2.484765e-01 -3.065790e-01
<VARIANCE> 25
 1.843643e+01 1.784051e+01 2.607419e+01 3.130790e+01 2.558590e+01 2.868715e+01 2.686604e+01 2.596465e+01 3.096772e+01 2.389989e+01 1.980139e+01 1.923713e+01 4.635847e-01 5.872605e-01 8.780912e-01 9.187444e-01 9.726738e-01 1.154603e+00 1.138327e+00 1.124501e+00 1.193445e+00 1.121723e+00 1.058525e+00 1.099325e+00 4.008314e-01
<GCONST> 8.251925e+01
~t "T_n"
<ENDHMM>
~h "n+u"
<BEGINHMM>
<NUMSTATES> 5
<STATE> 2
<MEAN> 25
 7.169885e+00 3.457295e-01 -9.706034e-01 1.822969e+00 2.203207e+00 -1.710077e+00 -1.541217e+00 -6.925409e-01 -3.499932e+00 -2.178467e+00 -7.829415e-01 -1.847775e+00 -1.776564e-01 1.685531e+00 6.899630e-01 1.139801e+00 6.890932e-01 2.057916e+00 4.165332e-01 -6.090450e-01 -1.683788e-01 -9.237592e-02 -7.342267e-01 -1.250047e+00 -1.560356e+00
<VARIANCE> 25
 2.165102e+01 3.528417e+01 4.496836e+01 6.788055e+01 4.849240e+01 5.297578e+01 4.589392e+01 4.388946e+01 4.575230e+01 3.900736e+01 3.414560e+01 3.704768e+01 9.116951e-01 1.700086e+00 1.786228e+00 4.035296e+00 3.243808e+00 3.321929e+00 3.851503e+00 3.338852e+00 3.444288e+00 2.962204e+00 2.780899e+00 2.558904e+00 1.011466e+00
<GCONST> 1.023394e+02
<STATE> 3
<MEAN> 25
 6.451331e+00 3.805457e+00 7.997720e-01 4.104099e+00 3.209973e+00 1.771652e+00 -1.687927e+00 -2.346424e+00 -2.799612e+00 -1.867672e+00 -2.654003e+00 -4.671466e+00 -4.288488e-01 8.661700e-01 6.104125e-01 6.183404e-01 3.940374e-01 1.045232e+00 2.131816e-01 -3.304687e-01 1.941549e-01 1.693209e-01 -3.405662e-01 -4.656930e-01 -8.459170e-01
<VARIANCE> 25
 1.605801e+01 2.327610e+01 3.427949e+01 4.943877e+01 3.551352e+01 4.001220e+01 3.662941e+01 3.266262e+01 4.372853e+01 3.314529e+01 2.653506e+01 2.688600e+01 4.240589e-01 7.692712e-01 1.020777e+00 1.824027e+00 1.598796e+00 1.636005e+00 1.955104e+00 1.795479e+00 2.067024e+00 1.608387e+00 1.611071e+00 1.827414e+00 4.028325e-01
<GCONST> 9.059154e+01
<STATE> 4
<MEAN> 25
 3.843240e+00 4.976631e+00 2.044346e+00 4.405276e+00 3.430595e+00 3.177998e+00 -7.137617e-01 -1.420924e+00 -8.184713e-01 -5.259312e-01 -2.154598e+00 -3.488309e+00 -4.377143e-01 -2.375585e-02 4.742600e-02 -6.740690e-02 -9.708463e-02 1.467522e-01 2.977267e-01 2.026634e-01 7.117245e-02 2.588364e-02 1.424470e-01 2.484765e-01 -3.065790e-01
<VARIANCE> 25
 1.843643e+01 1.784051e+01 2.607419e+01 3.130790e+01 2.558590e+01 2.868715e+01 2.686604e+01 2.596465e+01 3.096772e+01 2.389989e+01 1.980139e+01 1.923713e+01 4.635847e-01 5.872605e-01 8.780912e-01 9.187444e-01 9.726738e-01 1.154603e+00 1.138327e+00 1.124501e+00 1.193445e+00 1.121723e+00 1.058525e+00 1.099325e+00 4.008314e-01
<GCONST> 8.251925e+01
~t "T_n"
<ENDHMM>
~h "n-a"
<BEGINHMM>
<NUMSTATES> 5
<STATE> 2
<MEAN> 25
 8.084209e+00 -3.246555e+00 -4.886938e+00 -2.890126e+00 -1.922659e+00 -4.591505e+00 -1.062124e+00 -1.533606e+00 -3.011539e+00 -1.419097e+00 7.822737e-01 1.974153e+00 8.531939e-01 -1.219489e+00 -1.591901e+00 -1.511451e+00 -1.099942e+00 -1.081241e+00 3.296968e-01 2.435892e-01 2.131322e-01 7.433307e-01 1.096173e+00 1.076555e+00 1.531909e+00
<VARIANCE> 25
 3.102556e+01 3.982352e+01 4.648204e+01 6.052976e+01 4.865224e+01 5.364120e+01 4.957391e+01 5.206113e+01 4.994263e+01 4.377484e+01 3.566540e+01 3.010361e+01 2.105191e+00 2.133569e+00 2.607650e+00 3.361774e+00 2.917656e+00 3.954443e+00 3.398865e+00 3.319243e+00 3.668817e+00 4.076825e+00 3.093344e+00 2.673295e+00 1.675560e+00
<GCONST> 1.052759e+02
<STATE> 3
<MEAN> 25
 9.462610e+00 -6.897775e+00 -8.743549e+00 -6.083593e+00 -4.604442e+00 -5.470979e+00 1.397076e+00 -2.830499e-01 -1.629562e+00 7.007640e-01 2.659651e+00 3.340820e+00 3.290816e-02 -1.735238e-01 -3.625012e-01 -3.627358e-01 -1.769637e-01 2.254089e-01 4.766614e-01 2.827543e-01 2.371980e-01 1.767752e-01 8.445666e-02 6.974697e-02 8.193482e-02
<VARIANCE> 25
 2.840129e+01 3.570125e+01 4.138834e+01 4.038225e+01 4.118876e+01 4.148624e+01 4.739182e+01 4.747406e+01 4.473821e+01 4.189992e+01 3.449903e+01 2.805832e+01 3.302394e-01 8.424883e-01 9.393210e-01 1.242460e+00 1.324397e+00 1.496400e+00 1.901740e+00 1.780651e+00 1.803969e+00 1.726919e+00 1.430944e+00 1.179275e+00 3.783611e-01
<GCONST> 9.133002e+01
<STATE> 4
<MEAN> 25
 8.177530e+00 -2.680661e+00 -7.293503e+00 -5.932261e+00 -3.758124e+00 -2.794274e+00 1.176165e+00 -3.390664e-01 -1.368642e+00 2.573896e-01 2.133668e+00 3.287408e+00 -4.538044e-01 8.704351e-01 7.276899e-01 4.679444e-01 4.150407e-01 5.706517e-01 -1.937626e-01 -1.382255e-01 1.753797e-02 -1.629017e-01 -2.942949e-01 -3.140077e-01 -8.826797e-01
<VARIANCE> 25
 2.215926e+01 3.099335e+01 3.486272e+01 3.668752e+01 3.283007e+01 3.965223e+01 3.500597e+01 3.826480e+01 3.512437e+01 3.170736e+01 2.563973e+01 2.200531e+01 5.861269e-01 9.910762e-01 1.080531e+00 1.252255e+00 1.395680e+00 1.835312e+00 1.787168e+00 1.826652e+00 1.993582e+00 1.853269e+00 1.609923e+00 1.318195e+00 6.483233e-01
<GCONST> 9.086413e+01
~t "T_a"
<ENDHMM>
~h "n-e"
<BEGINHMM>
<NUMSTATES> 5
<STATE> 2
<MEAN> 25
 4.917822e+00 -3.046909e+00 -7.860230e-01 1.961976e+00 3.296882e+00 -3.095960e+00 -4.445966e+00 -4.378197e+00 -4.194638e+00 -1.446952e+00 1.146220e-01 1.648807e-01 1.062938e+00 -1.285595e+00 -6.981800e-01 4.423747e-01 5.001229e-01 -1.895295e+00 -1.787762e+00 -1.308817e+00 -1.084860e+00 1.344622e-01 6.617222e-01 3.701210e-01 1.670173e+00
<VARIANCE> 25
 3.577217e+01 3.706077e+01 4.774310e+01 6.015227e+01 4.925949e+01 6.036604e+01 5.010396e+01 4.977269e+01 4.858726e+01 3.950971e+01 3.013842e+01 2.473536e+01 2.384392e+00 2.958043e+00 2.685448e+00 3.858023e+00 3.340221e+00 5.064232e+00 4.063103e+00 3.681123e+00 4.037725e+00 4.174648e+00 3.332788e+00 2.898063e+00 2.226966e+00
<GCONST> 1.068105e+02
<STATE> 3
<MEAN> 25
 7.191195e+00 -7.001473e+00 -2.328277e+00 2.836691e+00 3.888689e+00 -7.911126e+00 -8.482172e+00 -6.657192e+00 -5.470276e+00 -1.285404e-01 1.987994e+00 7.147580e-01 8.514885e-02 -4.249433e-01 -1.496204e-01 2.818093e-01 1.203487e-01 -6.073316e-01 -4.420330e-01 -1.406531e-01 1.603031e-01 5.093133e-01 3.347531e-01 -4.041983e-02 2.952766e-01
<VARIANCE> 25
 2.837927e+01 3.550758e+01 4.376701e+01 6.339727e+01 5.782299e+01 6.153004e+01 4.445435e+01 4.665985e+01 4.438187e+01 4.603452e+01 3.686113e+01 3.249733e+01 5.579238e-01 9.633060e-01 1.396090e+00 1.826277e+00 1.583154e+00 2.003756e+00 1.982185e+00 1.856537e+00 2.013892e+00 2.006657e+00 1.751121e+00 1.508502e+00 5.828047e-01
<GCONST> 9.591582e+01
<STATE> 4
<MEAN> 25
 5.895019e+00 -4.724988e+00 -1.197292e+00 3.906052e+00 3.870449e+00 -6.545651e+00 -8.215060e+00 -6.679025e+00 -4.172563e+00 5.337154e-01 9.279272e-01 -6.742178e-01 -3.232698e-01 7.992764e-01 3.300467e-01 -6.339286e-02 7.912491e-02 1.004552e+00 6.088396e-01 3.772415e-01 3.436322e-01 -1.313366e-01 -2.720630e-01 -1.298955e-01 -7.956876e-01
<VARIANCE> 25
 2.029749e+01 3.066547e+01 3.368494e+01 5.057070e+01 4.296806e+01 5.593891e+01 3.659196e+01 3.710094e+01 4.034227e+01 3.575679e+01 3.262199e+01 2.925796e+01 5.569103e-01 1.011105e+00 1.171097e+00 1.448238e+00 1.440968e+00 2.011663e+00 1.814593e+00 1.739066e+00 1.905525e+00 1.867028e+00 1.539982e+00 1.274082e+00 7.538318e-01
<GCONST> 9.278246e+01
~t "T_e"
<ENDHMM>
~h "n-i"
<BEGINHMM>
<NUMSTATES> 5
<STATE> 2
<MEAN> 25
 2.824880e+00 -2.961581e+00 4.292364e+00 7.499251e+00 7.346193e+00 -2.067250e+00 -5.297520e+00 -2.873806e+00 -2.378581e+00 -1.973293e+00 -2.520489e+00 -3.736685e+00 1.015099e+00 -9.724852e-01 2.479329e-01 2.179622e+00 1.426837e+00 -2.128228e+00 -2.309814e+00 -3.848035e-01 -7.270547e-01 -7.560874e-01 -6.794949e-01 -8.365397e-01 1.175898e+00
<VARIANCE> 25
 3.374600e+01 3.967356e+01 6.750194e+01 6.375350e+01 5.781096e+01 6.437442e+01 4.980933e+01 4.415491e+01 4.445846e+01 3.540117e+01 3.356274e+01 2.704606e+01 3.132528e+00 4.137255e+00 3.621446e+00 4.487921e+00 4.215056e+00 5.312013e+00 4.005538e+00 3.824685e+00 4.409300e+00 4.209664e+00 3.923692e+00 2.984154e+00 1.617640e+00
<GCONST> 1.086541e+02
<STATE> 3
<MEAN> 25
 3.691633e+00 -6.378765e+00 6.166086e+00 1.236009e+01 7.380941e+00 -9.047977e+00 -9.580333e+00 -1.629763e+00 -3.102339e+00 -4.599288e+00 -4.548250e+00 -5.048493e+00 8.359629e-02 -2.991736e-01 1.296623e-01 4.305927e-01 9.667514e-03 -8.290642e-01 -5.818837e-01 1.603395e-01 8.957740e-02 -1.876646e-01 -1.591199e-01 -1.092843e-01 2.681427e-01
<VARIANCE> 25
 2.149308e+01 3.103732e+01 4.970968e+01 5.873264e+01 7.158559e+01 6.920425e+01 3.966159e+01 4.495304e+01 4.204121e+01 4.275245e+01 4.102441e+01 2.954641e+01 6.639252e-01 9.264812e-01 1.883231e+00 1.858640e+00 1.558079e+00 2.146437e+00 1.929194e+00 2.097977e+00 1.840118e+00 1.884095e+00 1.595546e+00 1.333590e+00 5.259222e-01
<GCONST> 9.574519e+01
<STATE> 4
<MEAN> 25
 4.036044e+00 -4.218312e+00 4.209880e+00 1.037407e+01 7.996428e+00 -6.247262e+00 -9.419474e+00 -3.331409e+00 -2.663913e+00 -2.918104e+00 -3.142705e+00 -4.376024e+00 3.821991e-02 8.336469e-01 -6.000085e-01 -1.181883e+00 -5.675405e-01 1.117856e+00 8.718380e-01 -2.187419e-01 -3.897155e-02 3.511441e-01 4.869802e-01 5.886047e-01 -5.325214e-01
<VARIANCE> 25
 1.972391e+01 3.227742e+01 4.309776e+01 5.167957e+01 5.495691e+01 6.691110e+01 3.850472e+01 4.351723e+01 4.154246e+01 3.556070e+01 3.517086e+01 2.803684e+01 6.999541e-01 1.390189e+00 1.663853e+00 1.824908e+00 1.964548e+00 2.784639e+00 2.501812e+00 2.236512e+00 2.341234e+00 2.148965e+00 1.947036e+00 1.699689e+00 1.056007e+00
<GCONST> 9.730878e+01
~t "T_i"
<ENDHMM>
~h "n-o"
<BEGINHMM>
<NUMSTATES> 5
<STATE> 2
<MEAN> 25
 8.202134e+00 8.756948e-01 -1.556870e+00 -2.412576e+00 -4.135490e+00 -5.283045e+00 -1.325630e+00 5.514442e-01 -3.256593e+00 -4.464030e+00 -3.179199e+00 -1.018459e+00 8.533680e-01 5.628624e-02 -4.272498e-01 -1.163086e+00 -1.742013e+00 -1.833407e+00 -1.006363e-01 8.327968e-01 2.565329e-01 -1.784475e-01 -2.551433e-01 1.000556e-01 7.841955e-01
<VARIANCE> 25
 2.727819e+01 4.614404e+01 4.546624e+01 5.624189e+01 6.257309e+01 6.102062e+01 4.518742e+01 4.939813e+01 5.469617e+01 4.219932e+01 3.056493e+01 2.847985e+01 1.604221e+00 2.714622e+00 2.414845e+00 3.306103e+00 3.399673e+00 4.293542e+00 4.410888e+00 3.910635e+00 3.812121e+00 3.509329e+00 2.851977e+00 2.694980e+00 1.552250e+00
<GCONST> 1.055529e+02
<STATE> 3
<MEAN> 25
 9.608891e+00 1.841884e+00 -1.624231e+00 -4.843653e+00 -1.056682e+01 -1.047259e+01 -3.275502e-01 4.228262e+00 -8.981493e-01 -3.707518e+00 -3.771726e+00 -1.847208e+00 -1.603226e-01 3.746803e-01 2.492852e-02 -5.283350e-02 -1.316152e-01 2.060792e-01 2.320018e-01 3.473101e-01 4.636069e-01 2.421327e-01 -1.011645e-03 -9.001540e-02 -4.208844e-01
<VARIANCE> 25
 2.191664e+01 3.832346e+01 3.536129e+01 4.552036e+01 5.146196e+01 5.402416e+01 4.532333e+01 4.316967e+01 5.194213e+01 3.791486e+01 2.724122e+01 2.477335e+01 5.759985e-01 1.296905e+00 1.329783e+00 1.436117e+00 2.015944e+00 2.854960e+00 1.984985e+00 2.227589e+00 2.343580e+00 2.045362e+00 1.638120e+00 1.449960e+00 1.066268e+00
<GCONST> 9.576168e+01
<STATE> 4
<MEAN> 25
 5.920141e+00 4.729104e+00 -6.619071e-01 -3.592440e+00 -6.668617e+00 -4.437122e+00 3.776827e-01 3.175261e+00 9.050462e-01 -1.454790e+00 -2.326509e+00 -1.249121e+00 -6.257654e-01 -3.906129e-02 1.678127e-01 4.218079e-01 7.039407e-01 9.980335e-01 2.885799e-01 -2.038472e-01 -1.773957e-02 1.877047e-01 2.155907e-01 8.154663e-02 -5.345345e-01
<VARIANCE> 25
 2.381943e+01 3.168683e+01 3.073319e+01 3.372535e+01 3.205265e+01 4.222814e+01 3.201194e+01 3.300840e+01 3.498757e+01 3.150789e+01 2.243595e+01 1.901501e+01 4.852379e-01 7.335701e-01 1.011674e+00 1.084659e+00 1.496157e+00 1.967000e+00 1.648281e+00 1.688958e+00 1.686677e+00 1.518985e+00 1.305284e+00 1.193857e+00 3.831035e-01
<GCONST> 8.833953e+01
~t "T_o"
<ENDHMM>
~h "n-u"
<BEGINHMM>
<NUMSTATES> 5
<STATE> 2
<MEAN> 25
 5.841117e+00 4.888117e+00 2.686566e+00 -7.820466e-01 -3.509169e+00 -4.456264e+00 -1.667651e+00 1.072235e+00 -1.711213e+00 -3.398537e+00 -2.842877e+00 -2.182095e+00 1.576147e+00 1.045471e+00 4.197832e-01 -3.047917e-01 -1.355020e+00 -2.229248e+00 -1.097899e+00 2.456878e-01 -2.158980e-01 -6.960759e-01 -8.961666e-01 -8.212398e-01 8.114035e-01
<VARIANCE> 25
 3.111406e+01 4.019774e+01 4.504975e+01 4.146431e+01 4.849731e+01 5.661042e+01 4.281160e+01 4.095763e+01 5.025994e+01 4.244762e+01 3.143690e+01 2.546618e+01 2.317891e+00 3.149550e+00 3.087908e+00 3.151040e+00 3.396149e+00 4.573932e+00 4.195843e+00 4.035922e+00 4.034451e+00 3.409064e+00 3.195040e+00 2.762604e+00 1.784756e+00
<GCONST> 1.055627e+02
<STATE> 3
<MEAN> 25
 8.658910e+00 5.000401e+00 2.954348e+00 -2.671335e+00 -7.457289e+00 -1.043769e+01 -3.682248e+00 2.342003e+00 -1.993913e+00 -4.053403e+00 -3.655970e+00 -3.858294e+00 3.619523e-01 -4.174033e-01 -5.004941e-01 -5.413764e-01 -3.661138e-01 -3.691237e-01 1.985084e-01 6.194838e-01 2.091379e-01 -3.094780e-01 -4.365371e-01 -2.890210e-01 4.863066e-01
<VARIANCE> 25
 1.982055e+01 3.754977e+01 4.485072e+01 4.602500e+01 4.835411e+01 5.230594e+01 4.533890e+01 4.689768e+01 6.356376e+01 4.307386e+01 3.556441e+01 3.444476e+01 5.694164e-01 2.171613e+00 2.316406e+00 1.907328e+00 2.369149e+00 3.386717e+00 2.927253e+00 3.053224e+00 2.962884e+00 2.837181e+00 2.662840e+00 2.209183e+00 9.819031e-01
<GCONST> 1.005687e+02
<STATE> 4
<MEAN> 25
 7.936549e+00 5.316041e+00 2.239468e+00 -2.040418e+00 -5.537446e+00 -6.998611e+00 -2.096663e+00 2.982105e+00 -1.124920e+00 -4.924550e+00 -4.786534e+00 -3.909861e+00 -1.936503e-01 -3.466140e-01 -3.004697e-01 2.804921e-01 7.471921e-01 1.043675e+00 4.173047e-01 -2.147343e-01 -1.894316e-01 -7.248510e-02 1.116081e-02 1.502710e-01 -1.055882e-01
<VARIANCE> 25
 1.968233e+01 3.080829e+01 3.984565e+01 3.763365e+01 3.553752e+01 4.067476e+01 4.069976e+01 3.915368e+01 5.144368e+01 3.819278e+01 3.066512e+01 2.631176e+01 3.753779e-01 1.220878e+00 1.362571e+00 1.493957e+00 2.004738e+00 2.727168e+00 2.026844e+00 2.105258e+00 2.403310e+00 2.200738e+00 1.975419e+00 1.823615e+00 5.097307e-01
<GCONST> 9.394715e+01
~t "T_u"
<ENDHMM>
~h "o+b"
<BEGINHMM>
<NUMSTATES> 5
<STATE> 2
<MEAN> 25
 8.202134e+00 8.756948e-01 -1.556870e+00 -2.412576e+00 -4.135490e+00 -5.283045e+00 -1.325630e+00 5.514442e-01 -3.256593e+00 -4.464030e+00 -3.179199e+00 -1.018459e+00 8.533680e-01 5.628624e-02 -4.272498e-01 -1.163086e+00 -1.742013e+00 -1.833407e+00 -1.006363e-01 8.327968e-01 2.565329e-01 -1.784475e-01 -2.551433e-01 1.000556e-01 7.841955e-01
<VARIANCE> 25
 2.727819e+01 4.614404e+01 4.546624e+01 5.624189e+01 6.257309e+01 6.102062e+01 4.518742e+01 4.939813e+01 5.469617e+01 4.219932e+01 3.056493e+01 2.847985e+01 1.604221e+00 2.714622e+00 2.414845e+00 3.306103e+00 3.399673e+00 4.293542e+00 4.410888e+00 3.910635e+00 3.812121e+00 3.509329e+00 2.851977e+00 2.694980e+00 1.552250e+00
<GCONST> 1.055529e+02
<STATE> 3
<MEAN> 25
 9.608891e+00 1.841884e+00 -1.624231e+00 -4.843653e+00 -1.056682e+01 -1.047259e+01 -3.275502e-01 4.228262e+00 -8.981493e-01 -3.707518e+00 -3.771726e+00 -1.847208e+00 -1.603226e-01 3.746803e-01 2.492852e-02 -5.283350e-02 -1.316152e-01 2.060792e-01 2.320018e-01 3.473101e-01 4.636069e-01 2.421327e-01 -1.011645e-03 -9.001540e-02 -4.208844e-01
<VARIANCE> 25
 2.191664e+01 3.832346e+01 3.536129e+01 4.552036e+01 5.146196e+01 5.402416e+01 4.532333e+01 4.316967e+01 5.194213e+01 3.791486e+01 2.724122e+01 2.477335e+01 5.759985e-01 1.296905e+00 1.329783e+00 1.436117e+00 2.015944e+00 2.854960e+00 1.984985e+00 2.227589e+00 2.343580e+00 2.045362e+00 1.638120e+00 1.449960e+00 1.066268e+00
<GCONST> 9.576168e+01
<STATE> 4
<MEAN> 25
 5.920141e+00 4.729104e+00 -6.619071e-01 -3.592440e+00 -6.668617e+00 -4.437122e+00 3.776827e-01 3.175261e+00 9.050462e-01 -1.454790e+00 -2.326509e+00 -1.249121e+00 -6.257654e-01 -3.906129e-02 1.678127e-01 4.218079e-01 7.039407e-01 9.980335e-01 2.885799e-01 -2.038472e-01 -1.773957e-02 1.877047e-01 2.155907e-01 8.154663e-02 -5.345345e-01
<VARIANCE> 25
 2.381943e+01 3.168683e+01 3.073319e+01 3.372535e+01 3.205265e+01 4.222814e+01 3.201194e+01 3.300840e+01 3.498757e+01 3.150789e+01 2.243595e+01 1.901501e+01 4.852379e-01 7.335701e-01 1.011674e+00 1.084659e+00 1.496157e+00 1.967000e+00 1.648281e+00 1.688958e+00 1.686677e+00 1.518985e+00 1.305284e+00 1.193857e+00 3.831035e-01
<GCONST> 8.833953e+01
~t "T_o"
<ENDHMM>
~h "o+i"
<BEGINHMM>
<NUMSTATES> 5
<STATE> 2
<MEAN> 25
 8.202134e+00 8.756948e-01 -1.556870e+00 -2.412576e+00 -4.135490e+00 -5.283045e+00 -1.325630e+00 5.514442e-01 -3.256593e+00 -4.464030e+00 -3.179199e+00 -1.018459e+00 8.533680e-01 5.628624e-02 -4.272498e-01 -1.163086e+00 -1.742013e+00 -1.833407e+00 -1.006363e-01 8.327968e-01 2.565329e-01 -1.784475e-01 -2.551433e-01 1.000556e-01 7.841955e-01
<VARIANCE> 25
 2.727819e+01 4.614404e+01 4.546624e+01 5.624189e+01 6.257309e+01 6.102062e+01 4.518742e+01 4.939813e+01 5.469617e+01 4.219932e+01 3.056493e+01 2.847985e+01 1.604221e+00 2.714622e+00 2.414845e+00 3.306103e+00 3.399673e+00 4.293542e+00 4.410888e+00 3.910635e+00 3.812121e+00 3.509329e+00 2.851977e+00 2.694980e+00 1.552250e+00
<GCONST> 1.055529e+02
<STATE> 3
<MEAN> 25
 9.608891e+00 1.841884e+00 -1.624231e+00 -4.843653e+00 -1.056682e+01 -1.047259e+01 -3.275502e-01 4.228262e+00 -8.981493e-01 -3.707518e+00 -3.771726e+00 -1.847208e+00 -1.603226e-01 3.746803e-01 2.492852e-02 -5.283350e-02 -1.316152e-01 2.060792e-01 2.320018e-01 3.473101e-01 4.636069e-01 2.421327e-01 -1.011645e-03 -9.001540e-02 -4.208844e-01
<VARIANCE> 25
 2.191664e+01 3.832346e+01 3.536129e+01 4.552036e+01 5.146196e+01 5.402416e+01 4.532333e+01 4.316967e+01 5.194213e+01 3.791486e+01 2.724122e+01 2.477335e+01 5.759985e-01 1.296905e+00 1.329783e+00 1.436117e+00 2.015944e+00 2.854960e+00 1.984985e+00 2.227589e+00 2.343580e+00 2.045362e+00 1.638120e+00 1.449960e+00 1.066268e+00
<GCONST> 9.576168e+01
<STATE> 4
<MEAN> 25
 5.920141e+00 4.729104e+00 -6.619071e-01 -3.592440e+00 -6.668617e+00 -4.437122e+00 3.776827e-01 3.175261e+00 9.050462e-01 -1.454790e+00 -2.326509e+00 -1.249121e+00 -6.257654e-01 -3.906129e-02 1.678127e-01 4.218079e-01 7.039407e-01 9.980335e-01 2.885799e-01 -2.038472e-01 -1.773957e-02 1.877047e-01 2.155907e-01 8.154663e-02 -5.345345e-01
<VARIANCE> 25
 2.381943e+01 3.168683e+01 3.073319e+01 3.372535e+01 3.205265e+01 4.222814e+01 3.201194e+01 3.300840e+01 3.498757e+01 3.150789e+01 2.243595e+01 1.901501e+01 4.852379e-01 7.335701e-01 1.011674e+00 1.084659e+00 1.496157e+00 1.967000e+00 1.648281e+00 1.688958e+00 1.686677e+00 1.518985e+00 1.305284e+00 1.193857e+00 3.831035e-01
<GCONST> 8.833953e+01
~t "T_o"
<ENDHMM>
~h "o+k"
<BEGINHMM>
<NUMSTATES> 5
<STATE> 2
<MEAN> 25
 8.202134e+00 8.756948e-01 -1.556870e+00 -2.412576e+00 -4.135490e+00 -5.283045e+00 -1.325630e+00 5.514442e-01 -3.256593e+00 -4.464030e+00 -3.179199e+00 -1.018459e+00 8.533680e-01 5.628624e-02 -4.272498e-01 -1.163086e+00 -1.742013e+00 -1.833407e+00 -1.006363e-01 8.327968e-01 2.565329e-01 -1.784475e-01 -2.551433e-01 1.000556e-01 7.841955e-01
<VARIANCE> 25
 2.727819e+01 4.614404e+01 4.546624e+01 5.624189e+01 6.257309e+01 6.102062e+01 4.518742e+01 4.939813e+01 5.469617e+01 4.219932e+01 3.056493e+01 2.847985e+01 1.604221e+00 2.714622e+00 2.414845e+00 3.306103e+00 3.399673e+00 4.293542e+00 4.410888e+00 3.910635e+00 3.812121e+00 3.509329e+00 2.851977e+00 2.694980e+00 1.552250e+00
<GCONST> 1.055529e+02
<STATE> 3
<MEAN> 25
 9.608891e+00 1.841884e+00 -1.624231e+00 -4.843653e+00 -1.056682e+01 -1.047259e+01 -3.275502e-01 4.228262e+00 -8.981493e-01 -3.707518e+00 -3.771726e+00 -1.847208e+00 -1.603226e-01 3.746803e-01 2.492852e-02 -5.283350e-02 -1.316152e-01 2.060792e-01 2.320018e-01 3.473101e-01 4.636069e-01 2.421327e-01 -1.011645e-03 -9.001540e-02 -4.208844e-01
<VARIANCE> 25
 2.191664e+01 3.832346e+01 3.536129e+01 4.552036e+01 5.146196e+01 5.402416e+01 4.532333e+01 4.316967e+01 5.194213e+01 3.791486e+01 2.724122e+01 2.477335e+01 5.759985e-01 1.296905e+00 1.329783e+00 1.436117e+00 2.015944e+00 2.854960e+00 1.984985e+00 2.227589e+00 2.343580e+00 2.045362e+00 1.638120e+00 1.449960e+00 1.066268e+00
<GCONST> 9.576168e+01
<STATE> 4
<MEAN> 25
 5.920141e+00 4.729104e+00 -6.619071e-01 -3.592440e+00 -6.668617e+00 -4.437122e+00 3.776827e-01 3.175261e+00 9.050462e-01 -1.454790e+00 -2.326509e+00 -1.249121e+00 -6.257654e-01 -3.906129e-02 1.678127e-01 4.218079e-01 7.039407e-01 9.980335e-01 2.885799e-01 -2.038472e-01 -1.773957e-02 1.877047e-01 2.155907e-01 8.154663e-02 -5.345345e-01
<VARIANCE> 25
 2.381943e+01 3.168683e+01 3.073319e+01 3.372535e+01 3.205265e+01 4.222814e+01 3.201194e+01 3.300840e+01 3.498757e+01 3.150789e+01 2.243595e+01 1.901501e+01 4.852379e-01 7.335701e-01 1.011674e+00 1.084659e+00 1.496157e+00 1.967000e+00 1.648281e+00 1.688958e+00 1.686677e+00 1.518985e+00 1.305284e+00 1.193857e+00 3.831035e-01
<GCONST> 8.833953e+01
~t "T_o"
<ENDHMM>
~h "o+l"
<BEGINHMM>
<NUMSTATES> 5
<STATE> 2
<MEAN> 25
 8.202134e+00 8.756948e-01 -1.556870e+00 -2.412576e+00 -4.135490e+00 -5.283045e+00 -1.325630e+00 5.514442e-01 -3.256593e+00 -4.464030e+00 -3.179199e+00 -1.018459e+00 8.533680e-01 5.628624e-02 -4.272498e-01 -1.163086e+00 -1.742013e+00 -1.833407e+00 -1.006363e-01 8.327968e-01 2.565329e-01 -1.784475e-01 -2.551433e-01 1.000556e-01 7.841955e-01
<VARIANCE> 25
 2.727819e+01 4.614404e+01 4.546624e+01 5.624189e+01 6.257309e+01 6.102062e+01 4.518742e+01 4.939813e+01 5.469617e+01 4.219932e+01 3.056493e+01 2.847985e+01 1.604221e+00 2.714622e+00 2.414845e+00 3.306103e+00 3.399673e+00 4.293542e+00 4.410888e+00 3.910635e+00 3.812121e+00 3.509329e+00 2.851977e+00 2.694980e+00 1.552250e+00
<GCONST> 1.055529e+02
<STATE> 3
<MEAN> 25
 9.608891e+00 1.841884e+00 -1.624231e+00 -4.843653e+00 -1.056682e+01 -1.047259e+01 -3.275502e-01 4.228262e+00 -8.981493e-01 -3.707518e+00 -3.771726e+00 -1.847208e+00 -1.603226e-01 3.746803e-01 2.492852e-02 -5.283350e-02 -1.316152e-01 2.060792e-01 2.320018e-01 3.473101e-01 4.636069e-01 2.421327e-01 -1.011645e-03 -9.001540e-02 -4.208844e-01
<VARIANCE> 25
 2.191664e+01 3.832346e+01 3.536129e+01 4.552036e+01 5.146196e+01 5.402416e+01 4.532333e+01 4.316967e+01 5.194213e+01 3.791486e+01 2.724122e+01 2.477335e+01 5.759985e-01 1.296905e+00 1.329783e+00 1.436117e+00 2.015944e+00 2.854960e+00 1.984985e+00 2.227589e+00 2.343580e+00 2.045362e+00 1.638120e+00 1.449960e+00 1.066268e+00
<GCONST> 9.576168e+01
<STATE> 4
<MEAN> 25
 5.920141e+00 4.729104e+00 -6.619071e-01 -3.592440e+00 -6.668617e+00 -4.437122e+00 3.776827e-01 3.175261e+00 9.050462e-01 -1.454790e+00 -2.326509e+00 -1.249121e+00 -6.257654e-01 -3.906129e-02 1.678127e-01 4.218079e-01 7.039407e-01 9.980335e-01 2.885799e-01 -2.038472e-01 -1.773957e-02 1.877047e-01 2.155907e-01 8.154663e-02 -5.345345e-01
<VARIANCE> 25
 2.381943e+01 3.168683e+01 3.073319e+01 3.372535e+01 3.205265e+01 4.222814e+01 3.201194e+01 3.300840e+01 3.498757e+01 3.150789e+01 2.243595e+01 1.901501e+01 4.852379e-01 7.335701e-01 1.011674e+00 1.084659e+00 1.496157e+00 1.967000e+00 1.648281e+00 1.688958e+00 1.686677e+00 1.518985e+00 1.305284e+00 1.193857e+00 3.831035e-01
<GCONST> 8.833953e+01
~t "T_o"
<ENDHMM>
~h "o+m"
<BEGINHMM>
<NUMSTATES> 5
<STATE> 2
<MEAN> 25
 8.202134e+00 8.756948e-01 -1.556870e+00 -2.412576e+00 -4.135490e+00 -5.283045e+00 -1.325630e+00 5.514442e-01 -3.256593e+00 -4.464030e+00 -3.179199e+00 -1.018459e+00 8.533680e-01 5.628624e-02 -4.272498e-01 -1.163086e+00 -1.742013e+00 -1.833407e+00 -1.006363e-01 8.327968e-01 2.565329e-01 -1.784475e-01 -2.551433e-01 1.000556e-01 7.841955e-01
<VARIANCE> 25
 2.727819e+01 4.614404e+01 4.546624e+01 5.624189e+01 6.257309e+01 6.102062e+01 4.518742e+01 4.939813e+01 5.469617e+01 4.219932e+01 3.056493e+01 2.847985e+01 1.604221e+00 2.714622e+00 2.414845e+00 3.306103e+00 3.399673e+00 4.293542e+00 4.410888e+00 3.910635e+00 3.812121e+00 3.509329e+00 2.851977e+00 2.694980e+00 1.552250e+00
<GCONST> 1.055529e+02
<STATE> 3
<MEAN> 25
 9.608891e+00 1.841884e+00 -1.624231e+00 -4.843653e+00 -1.056682e+01 -1.047259e+01 -3.275502e-01 4.228262e+00 -8.981493e-01 -3.707518e+00 -3.771726e+00 -1.847208e+00 -1.603226e-01 3.746803e-01 2.492852e-02 -5.283350e-02 -1.316152e-01 2.060792e-01 2.320018e-01 3.473101e-01 4.636069e-01 2.421327e-01 -1.011645e-03 -9.001540e-02 -4.208844e-01
<VARIANCE> 25
 2.191664e+01 3.832346e+01 3.536129e+01 4.552036e+01 5.146196e+01 5.402416e+01 4.532333e+01 4.316967e+01 5.194213e+01 3.791486e+01 2.724122e+01 2.477335e+01 5.759985e-01 1.296905e+00 1.329783e+00 1.436117e+00 2.015944e+00 2.854960e+00 1.984985e+00 2.227589e+00 2.343580e+00 2.045362e+00 1.638120e+00 1.449960e+00 1.066268e+00
<GCONST> 9.576168e+01
<STATE> 4
<MEAN> 25
 5.920141e+00 4.729104e+00 -6.619071e-01 -3.592440e+00 -6.668617e+00 -4.437122e+00 3.776827e-01 3.175261e+00 9.050462e-01 -1.454790e+00 -2.326509e+00 -1.249121e+00 -6.257654e-01 -3.906129e-02 1.678127e-01 4.218079e-01 7.039407e-01 9.980335e-01 2.885799e-01 -2.038472e-01 -1.773957e-02 1.877047e-01 2.155907e-01 8.154663e-02 -5.345345e-01
<VARIANCE> 25
 2.381943e+01 3.168683e+01 3.073319e+01 3.372535e+01 3.205265e+01 4.222814e+01 3.201194e+01 3.300840e+01 3.498757e+01 3.150789e+01 2.243595e+01 1.901501e+01 4.852379e-01 7.335701e-01 1.011674e+00 1.084659e+00 1.496157e+00 1.967000e+00 1.648281e+00 1.688958e+00 1.686677e+00 1.518985e+00 1.305284e+00 1.193857e+00 3.831035e-01
<GCONST> 8.833953e+01
~t "T_o"
<ENDHMM>
~h "o+n"
<BEGINHMM>
<NUMSTATES> 5
<STATE> 2
<MEAN> 25
 8.202134e+00 8.756948e-01 -1.556870e+00 -2.412576e+00 -4.135490e+00 -5.283045e+00 -1.325630e+00 5.514442e-01 -3.256593e+00 -4.464030e+00 -3.179199e+00 -1.018459e+00 8.533680e-01 5.628624e-02 -4.272498e-01 -1.163086e+00 -1.742013e+00 -1.833407e+00 -1.006363e-01 8.327968e-01 2.565329e-01 -1.784475e-01 -2.551433e-01 1.000556e-01 7.841955e-01
<VARIANCE> 25
 2.727819e+01 4.614404e+01 4.546624e+01 5.624189e+01 6.257309e+01 6.102062e+01 4.518742e+01 4.939813e+01 5.469617e+01 4.219932e+01 3.056493e+01 2.847985e+01 1.604221e+00 2.714622e+00 2.414845e+00 3.306103e+00 3.399673e+00 4.293542e+00 4.410888e+00 3.910635e+00 3.812121e+00 3.509329e+00 2.851977e+00 2.694980e+00 1.552250e+00
<GCONST> 1.055529e+02
<STATE> 3
<MEAN> 25
 9.608891e+00 1.841884e+00 -1.624231e+00 -4.843653e+00 -1.056682e+01 -1.047259e+01 -3.275502e-01 4.228262e+00 -8.981493e-01 -3.707518e+00 -3.771726e+00 -1.847208e+00 -1.603226e-01 3.746803e-01 2.492852e-02 -5.283350e-02 -1.316152e-01 2.060792e-01 2.320018e-01 3.473101e-01 4.636069e-01 2.421327e-01 -1.011645e-03 -9.001540e-02 -4.208844e-01
<VARIANCE> 25
 2.191664e+01 3.832346e+01 3.536129e+01 4.552036e+01 5.146196e+01 5.402416e+01 4.532333e+01 4.316967e+01 5.194213e+01 3.791486e+01 2.724122e+01 2.477335e+01 5.759985e-01 1.296905e+00 1.329783e+00 1.436117e+00 2.015944e+00 2.854960e+00 1.984985e+00 2.227589e+00 2.343580e+00 2.045362e+00 1.638120e+00 1.449960e+00 1.066268e+00
<GCONST> 9.576168e+01
<STATE> 4
<MEAN> 25
 5.920141e+00 4.729104e+00 -6.619071e-01 -3.592440e+00 -6.668617e+00 -4.437122e+00 3.776827e-01 3.175261e+00 9.050462e-01 -1.454790e+00 -2.326509e+00 -1.249121e+00 -6.257654e-01 -3.906129e-02 1.678127e-01 4.218079e-01 7.039407e-01 9.980335e-01 2.885799e-01 -2.038472e-01 -1.773957e-02 1.877047e-01 2.155907e-01 8.154663e-02 -5.345345e-01
<VARIANCE> 25
 2.381943e+01 3.168683e+01 3.073319e+01 3.372535e+01 3.205265e+01 4.222814e+01 3.201194e+01 3.300840e+01 3.498757e+01 3.150789e+01 2.243595e+01 1.901501e+01 4.852379e-01 7.335701e-01 1.011674e+00 1.084659e+00 1.496157e+00 1.967000e+00 1.648281e+00 1.688958e+00 1.686677e+00 1.518985e+00 1.305284e+00 1.193857e+00 3.831035e-01
<GCONST> 8.833953e+01
~t "T_o"
<ENDHMM>
~h "o+p"
<BEGINHMM>
<NUMSTATES> 5
<STATE> 2
<MEAN> 25
 8.202134e+00 8.756948e-01 -1.556870e+00 -2.412576e+00 -4.135490e+00 -5.283045e+00 -1.325630e+00 5.514442e-01 -3.256593e+00 -4.464030e+00 -3.179199e+00 -1.018459e+00 8.533680e-01 5.628624e-02 -4.272498e-01 -1.163086e+00 -1.742013e+00 -1.833407e+00 -1.006363e-01 8.327968e-01 2.565329e-01 -1.784475e-01 -2.551433e-01 1.000556e-01 7.841955e-01
<VARIANCE> 25
 2.727819e+01 4.614404e+01 4.546624e+01 5.624189e+01 6.257309e+01 6.102062e+01 4.518742e+01 4.939813e+01 5.469617e+01 4.219932e+01 3.056493e+01 2.847985e+01 1.604221e+00 2.714622e+00 2.414845e+00 3.306103e+00 3.399673e+00 4.293542e+00 4.410888e+00 3.910635e+00 3.812121e+00 3.509329e+00 2.851977e+00 2.694980e+00 1.552250e+00
<GCONST> 1.055529e+02
<STATE> 3
<MEAN> 25
 9.608891e+00 1.841884e+00 -1.624231e+00 -4.843653e+00 -1.056682e+01 -1.047259e+01 -3.275502e-01 4.228262e+00 -8.981493e-01 -3.707518e+00 -3.771726e+00 -1.847208e+00 -1.603226e-01 3.746803e-01 2.492852e-02 -5.283350e-02 -1.316152e-01 2.060792e-01 2.320018e-01 3.473101e-01 4.636069e-01 2.421327e-01 -1.011645e-03 -9.001540e-02 -4.208844e-01
<VARIANCE> 25
 2.191664e+01 3.832346e+01 3.536129e+01 4.552036e+01 5.146196e+01 5.402416e+01 4.532333e+01 4.316967e+01 5.194213e+01 3.791486e+01 2.724122e+01 2.477335e+01 5.759985e-01 1.296905e+00 1.329783e+00 1.436117e+00 2.015944e+00 2.854960e+00 1.984985e+00 2.227589e+00 2.343580e+00 2.045362e+00 1.638120e+00 1.449960e+00 1.066268e+00
<GCONST> 9.576168e+01
<STATE> 4
<MEAN> 25
 5.920141e+00 4.729104e+00 -6.619071e-01 -3.592440e+00 -6.668617e+00 -4.437122e+00 3.776827e-01 3.175261e+00 9.050462e-01 -1.454790e+00 -2.326509e+00 -1.249121e+00 -6.257654e-01 -3.906129e-02 1.678127e-01 4.218079e-01 7.039407e-01 9.980335e-01 2.885799e-01 -2.038472e-01 -1.773957e-02 1.877047e-01 2.155907e-01 8.154663e-02 -5.345345e-01
<VARIANCE> 25
 2.381943e+01 3.168683e+01 3.073319e+01 3.372535e+01 3.205265e+01 4.222814e+01 3.201194e+01 3.300840e+01 3.498757e+01 3.150789e+01 2.243595e+01 1.901501e+01 4.852379e-01 7.335701e-01 1.011674e+00 1.084659e+00 1.496157e+00 1.967000e+00 1.648281e+00 1.688958e+00 1.686677e+00 1.518985e+00 1.305284e+00 1.193857e+00 3.831035e-01
<GCONST> 8.833953e+01
~t "T_o"
<ENDHMM>
~h "o+r"
<BEGINHMM>
<NUMSTATES> 5
<STATE> 2
<MEAN> 25
 8.202134e+00 8.756948e-01 -1.556870e+00 -2.412576e+00 -4.135490e+00 -5.283045e+00 -1.325630e+00 5.514442e-01 -3.256593e+00 -4.464030e+00 -3.179199e+00 -1.018459e+00 8.533680e-01 5.628624e-02 -4.272498e-01 -1.163086e+00 -1.742013e+00 -1.833407e+00 -1.006363e-01 8.327968e-01 2.565329e-01 -1.784475e-01 -2.551433e-01 1.000556e-01 7.841955e-01
<VARIANCE> 25
 2.727819e+01 4.614404e+01 4.546624e+01 5.624189e+01 6.257309e+01 6.102062e+01 4.518742e+01 4.939813e+01 5.469617e+01 4.219932e+01 3.056493e+01 2.847985e+01 1.604221e+00 2.714622e+00 2.414845e+00 3.306103e+00 3.399673e+00 4.293542e+00 4.410888e+00 3.910635e+00 3.812121e+00 3.509329e+00 2.851977e+00 2.694980e+00 1.552250e+00
<GCONST> 1.055529e+02
<STATE> 3
<MEAN> 25
 9.608891e+00 1.841884e+00 -1.624231e+00 -4.843653e+00 -1.056682e+01 -1.047259e+01 -3.275502e-01 4.228262e+00 -8.981493e-01 -3.707518e+00 -3.771726e+00 -1.847208e+00 -1.603226e-01 3.746803e-01 2.492852e-02 -5.283350e-02 -1.316152e-01 2.060792e-01 2.320018e-01 3.473101e-01 4.636069e-01 2.421327e-01 -1.011645e-03 -9.001540e-02 -4.208844e-01
<VARIANCE> 25
 2.191664e+01 3.832346e+01 3.536129e+01 4.552036e+01 5.146196e+01 5.402416e+01 4.532333e+01 4.316967e+01 5.194213e+01 3.791486e+01 2.724122e+01 2.477335e+01 5.759985e-01 1.296905e+00 1.329783e+00 1.436117e+00 2.015944e+00 2.854960e+00 1.984985e+00 2.227589e+00 2.343580e+00 2.045362e+00 1.638120e+00 1.449960e+00 1.066268e+00
<GCONST> 9.576168e+01
<STATE> 4
<MEAN> 25
 5.920141e+00 4.729104e+00 -6.619071e-01 -3.592440e+00 -6.668617e+00 -4.437122e+00 3.776827e-01 3.175261e+00 9.050462e-01 -1.454790e+00 -2.326509e+00 -1.249121e+00 -6.257654e-01 -3.906129e-02 1.678127e-01 4.218079e-01 7.039407e-01 9.980335e-01 2.885799e-01 -2.038472e-01 -1.773957e-02 1.877047e-01 2.155907e-01 8.154663e-02 -5.345345e-01
<VARIANCE> 25
 2.381943e+01 3.168683e+01 3.073319e+01 3.372535e+01 3.205265e+01 4.222814e+01 3.201194e+01 3.300840e+01 3.498757e+01 3.150789e+01 2.243595e+01 1.901501e+01 4.852379e-01 7.335701e-01 1.011674e+00 1.084659e+00 1.496157e+00 1.967000e+00 1.648281e+00 1.688958e+00 1.686677e+00 1.518985e+00 1.305284e+00 1.193857e+00 3.831035e-01
<GCONST> 8.833953e+01
~t "T_o"
<ENDHMM>
~h "o+s"
<BEGINHMM>
<NUMSTATES> 5
<STATE> 2
<MEAN> 25
 8.202134e+00 8.756948e-01 -1.556870e+00 -2.412576e+00 -4.135490e+00 -5.283045e+00 -1.325630e+00 5.514442e-01 -3.256593e+00 -4.464030e+00 -3.179199e+00 -1.018459e+00 8.533680e-01 5.628624e-02 -4.272498e-01 -1.163086e+00 -1.742013e+00 -1.833407e+00 -1.006363e-01 8.327968e-01 2.565329e-01 -1.784475e-01 -2.551433e-01 1.000556e-01 7.841955e-01
<VARIANCE> 25
 2.727819e+01 4.614404e+01 4.546624e+01 5.624189e+01 6.257309e+01 6.102062e+01 4.518742e+01 4.939813e+01 5.469617e+01 4.219932e+01 3.056493e+01 2.847985e+01 1.604221e+00 2.714622e+00 2.414845e+00 3.306103e+00 3.399673e+00 4.293542e+00 4.410888e+00 3.910635e+00 3.812121e+00 3.509329e+00 2.851977e+00 2.694980e+00 1.552250e+00
<GCONST> 1.055529e+02
<STATE> 3
<MEAN> 25
 9.608891e+00 1.841884e+00 -1.624231e+00 -4.843653e+00 -1.056682e+01 -1.047259e+01 -3.275502e-01 4.228262e+00 -8.981493e-01 -3.707518e+00 -3.771726e+00 -1.847208e+00 -1.603226e-01 3.746803e-01 2.492852e-02 -5.283350e-02 -1.316152e-01 2.060792e-01 2.320018e-01 3.473101e-01 4.636069e-01 2.421327e-01 -1.011645e-03 -9.001540e-02 -4.208844e-01
<VARIANCE> 25
 2.191664e+01 3.832346e+01 3.536129e+01 4.552036e+01 5.146196e+01 5.402416e+01 4.532333e+01 4.316967e+01 5.194213e+01 3.791486e+01 2.724122e+01 2.477335e+01 5.759985e-01 1.296905e+00 1.329783e+00 1.436117e+00 2.015944e+00 2.854960e+00 1.984985e+00 2.227589e+00 2.343580e+00 2.045362e+00 1.638120e+00 1.449960e+00 1.066268e+00
<GCONST> 9.576168e+01
<STATE> 4
<MEAN> 25
 5.920141e+00 4.729104e+00 -6.619071e-01 -3.592440e+00 -6.668617e+00 -4.437122e+00 3.776827e-01 3.175261e+00 9.050462e-01 -1.454790e+00 -2.326509e+00 -1.249121e+00 -6.257654e-01 -3.906129e-02 1.678127e-01 4.218079e-01 7.039407e-01 9.980335e-01 2.885799e-01 -2.038472e-01 -1.773957e-02 1.877047e-01 2.155907e-01 8.154663e-02 -5.345345e-01
<VARIANCE> 25
 2.381943e+01 3.168683e+01 3.073319e+01 3.372535e+01 3.205265e+01 4.222814e+01 3.201194e+01 3.300840e+01 3.498757e+01 3.150789e+01 2.243595e+01 1.901501e+01 4.852379e-01 7.335701e-01 1.011674e+00 1.084659e+00 1.496157e+00 1.967000e+00 1.648281e+00 1.688958e+00 1.686677e+00 1.518985e+00 1.305284e+00 1.193857e+00 3.831035e-01
<GCONST> 8.833953e+01
~t "T_o"
<ENDHMM>
~h "o+t"
<BEGINHMM>
<NUMSTATES> 5
<STATE> 2
<MEAN> 25
 8.202134e+00 8.756948e-01 -1.556870e+00 -2.412576e+00 -4.135490e+00 -5.283045e+00 -1.325630e+00 5.514442e-01 -3.256593e+00 -4.464030e+00 -3.179199e+00 -1.018459e+00 8.533680e-01 5.628624e-02 -4.272498e-01 -1.163086e+00 -1.742013e+00 -1.833407e+00 -1.006363e-01 8.327968e-01 2.565329e-01 -1.784475e-01 -2.551433e-01 1.000556e-01 7.841955e-01
<VARIANCE> 25
 2.727819e+01 4.614404e+01 4.546624e+01 5.624189e+01 6.257309e+01 6.102062e+01 4.518742e+01 4.939813e+01 5.469617e+01 4.219932e+01 3.056493e+01 2.847985e+01 1.604221e+00 2.714622e+00 2.414845e+00 3.306103e+00 3.399673e+00 4.293542e+00 4.410888e+00 3.910635e+00 3.812121e+00 3.509329e+00 2.851977e+00 2.694980e+00 1.552250e+00
<GCONST> 1.055529e+02
<STATE> 3
<MEAN> 25
 9.608891e+00 1.841884e+00 -1.624231e+00 -4.843653e+00 -1.056682e+01 -1.047259e+01 -3.275502e-01 4.228262e+00 -8.981493e-01 -3.707518e+00 -3.771726e+00 -1.847208e+00 -1.603226e-01 3.746803e-01 2.492852e-02 -5.283350e-02 -1.316152e-01 2.060792e-01 2.320018e-01 3.473101e-01 4.636069e-01 2.421327e-01 -1.011645e-03 -9.001540e-02 -4.208844e-01
<VARIANCE> 25
 2.191664e+01 3.832346e+01 3.536129e+01 4.552036e+01 5.146196e+01 5.402416e+01 4.532333e+01 4.316967e+01 5.194213e+01 3.791486e+01 2.724122e+01 2.477335e+01 5.759985e-01 1.296905e+00 1.329783e+00 1.436117e+00 2.015944e+00 2.854960e+00 1.984985e+00 2.227589e+00 2.343580e+00 2.045362e+00 1.638120e+00 1.449960e+00 1.066268e+00
<GCONST> 9.576168e+01
<STATE> 4
<MEAN> 25
 5.920141e+00 4.729104e+00 -6.619071e-01 -3.592440e+00 -6.668617e+00 -4.437122e+00 3.776827e-01 3.175261e+00 9.050462e-01 -1.454790e+00 -2.326509e+00 -1.249121e+00 -6.257654e-01 -3.906129e-02 1.678127e-01 4.218079e-01 7.039407e-01 9.980335e-01 2.885799e-01 -2.038472e-01 -1.773957e-02 1.877047e-01 2.155907e-01 8.154663e-02 -5.345345e-01
<VARIANCE> 25
 2.381943e+01 3.168683e+01 3.073319e+01 3.372535e+01 3.205265e+01 4.222814e+01 3.201194e+01 3.300840e+01 3.498757e+01 3.150789e+01 2.243595e+01 1.901501e+01 4.852379e-01 7.335701e-01 1.011674e+00 1.084659e+00 1.496157e+00 1.967000e+00 1.648281e+00 1.688958e+00 1.686677e+00 1.518985e+00 1.305284e+00 1.193857e+00 3.831035e-01
<GCONST> 8.833953e+01
~t "T_o"
<ENDHMM>
~h "o+x"
<BEGINHMM>
<NUMSTATES> 5
<STATE> 2
<MEAN> 25
 8.202134e+00 8.756948e-01 -1.556870e+00 -2.412576e+00 -4.135490e+00 -5.283045e+00 -1.325630e+00 5.514442e-01 -3.256593e+00 -4.464030e+00 -3.179199e+00 -1.018459e+00 8.533680e-01 5.628624e-02 -4.272498e-01 -1.163086e+00 -1.742013e+00 -1.833407e+00 -1.006363e-01 8.327968e-01 2.565329e-01 -1.784475e-01 -2.551433e-01 1.000556e-01 7.841955e-01
<VARIANCE> 25
 2.727819e+01 4.614404e+01 4.546624e+01 5.624189e+01 6.257309e+01 6.102062e+01 4.518742e+01 4.939813e+01 5.469617e+01 4.219932e+01 3.056493e+01 2.847985e+01 1.604221e+00 2.714622e+00 2.414845e+00 3.306103e+00 3.399673e+00 4.293542e+00 4.410888e+00 3.910635e+00 3.812121e+00 3.509329e+00 2.851977e+00 2.694980e+00 1.552250e+00
<GCONST> 1.055529e+02
<STATE> 3
<MEAN> 25
 9.608891e+00 1.841884e+00 -1.624231e+00 -4.843653e+00 -1.056682e+01 -1.047259e+01 -3.275502e-01 4.228262e+00 -8.981493e-01 -3.707518e+00 -3.771726e+00 -1.847208e+00 -1.603226e-01 3.746803e-01 2.492852e-02 -5.283350e-02 -1.316152e-01 2.060792e-01 2.320018e-01 3.473101e-01 4.636069e-01 2.421327e-01 -1.011645e-03 -9.001540e-02 -4.208844e-01
<VARIANCE> 25
 2.191664e+01 3.832346e+01 3.536129e+01 4.552036e+01 5.146196e+01 5.402416e+01 4.532333e+01 4.316967e+01 5.194213e+01 3.791486e+01 2.724122e+01 2.477335e+01 5.759985e-01 1.296905e+00 1.329783e+00 1.436117e+00 2.015944e+00 2.854960e+00 1.984985e+00 2.227589e+00 2.343580e+00 2.045362e+00 1.638120e+00 1.449960e+00 1.066268e+00
<GCONST> 9.576168e+01
<STATE> 4
<MEAN> 25
 5.920141e+00 4.729104e+00 -6.619071e-01 -3.592440e+00 -6.668617e+00 -4.437122e+00 3.776827e-01 3.175261e+00 9.050462e-01 -1.454790e+00 -2.326509e+00 -1.249121e+00 -6.257654e-01 -3.906129e-02 1.678127e-01 4.218079e-01 7.039407e-01 9.980335e-01 2.885799e-01 -2.038472e-01 -1.773957e-02 1.877047e-01 2.155907e-01 8.154663e-02 -5.345345e-01
<VARIANCE> 25
 2.381943e+01 3.168683e+01 3.073319e+01 3.372535e+01 3.205265e+01 4.222814e+01 3.201194e+01 3.300840e+01 3.498757e+01 3.150789e+01 2.243595e+01 1.901501e+01 4.852379e-01 7.335701e-01 1.011674e+00 1.084659e+00 1.496157e+00 1.967000e+00 1.648281e+00 1.688958e+00 1.686677e+00 1.518985e+00 1.305284e+00 1.193857e+00 3.831035e-01
<GCONST> 8.833953e+01
~t "T_o"
<ENDHMM>
~h "o-i"
<BEGINHMM>
<NUMSTATES> 5
<STATE> 2
<MEAN> 25
 2.824880e+00 -2.961581e+00 4.292364e+00 7.499251e+00 7.346193e+00 -2.067250e+00 -5.297520e+00 -2.873806e+00 -2.378581e+00 -1.973293e+00 -2.520489e+00 -3.736685e+00 1.015099e+00 -9.724852e-01 2.479329e-01 2.179622e+00 1.426837e+00 -2.128228e+00 -2.309814e+00 -3.848035e-01 -7.270547e-01 -7.560874e-01 -6.794949e-01 -8.365397e-01 1.175898e+00
<VARIANCE> 25
 3.374600e+01 3.967356e+01 6.750194e+01 6.375350e+01 5.781096e+01 6.437442e+01 4.980933e+01 4.415491e+01 4.445846e+01 3.540117e+01 3.356274e+01 2.704606e+01 3.132528e+00 4.137255e+00 3.621446e+00 4.487921e+00 4.215056e+00 5.312013e+00 4.005538e+00 3.824685e+00 4.409300e+00 4.209664e+00 3.923692e+00 2.984154e+00 1.617640e+00
<GCONST> 1.086541e+02
<STATE> 3
<MEAN> 25
 3.691633e+00 -6.378765e+00 6.166086e+00 1.236009e+01 7.380941e+00 -9.047977e+00 -9.580333e+00 -1.629763e+00 -3.102339e+00 -4.599288e+00 -4.548250e+00 -5.048493e+00 8.359629e-02 -2.991736e-01 1.296623e-01 4.305927e-01 9.667514e-03 -8.290642e-01 -5.818837e-01 1.603395e-01 8.957740e-02 -1.876646e-01 -1.591199e-01 -1.092843e-01 2.681427e-01
<VARIANCE> 25
 2.149308e+01 3.103732e+01 4.970968e+01 5.873264e+01 7.158559e+01 6.920425e+01 3.966159e+01 4.495304e+01 4.204121e+01 4.275245e+01 4.102441e+01 2.954641e+01 6.639252e-01 9.264812e-01 1.883231e+00 1.858640e+00 1.558079e+00 2.146437e+00 1.929194e+00 2.097977e+00 1.840118e+00 1.884095e+00 1.595546e+00 1.333590e+00 5.259222e-01
<GCONST> 9.574519e+01
<STATE> 4
<MEAN> 25
 4.036044e+00 -4.218312e+00 4.209880e+00 1.037407e+01 7.996428e+00 -6.247262e+00 -9.419474e+00 -3.331409e+00 -2.663913e+00 -2.918104e+00 -3.142705e+00 -4.376024e+00 3.821991e-02 8.336469e-01 -6.000085e-01 -1.181883e+00 -5.675405e-01 1.117856e+00 8.718380e-01 -2.187419e-01 -3.897155e-02 3.511441e-01 4.869802e-01 5.886047e-01 -5.325214e-01
<VARIANCE> 25
 1.972391e+01 3.227742e+01 4.309776e+01 5.167957e+01 5.495691e+01 6.691110e+01 3.850472e+01 4.351723e+01 4.154246e+01 3.556070e+01 3.517086e+01 2.803684e+01 6.999541e-01 1.390189e+00 1.663853e+00 1.824908e+00 1.964548e+00 2.784639e+00 2.501812e+00 2.236512e+00 2.341234e+00 2.148965e+00 1.947036e+00 1.699689e+00 1.056007e+00
<GCONST> 9.730878e+01
~t "T_i"
<ENDHMM>
~h "o-n"
<BEGINHMM>
<NUMSTATES> 5
<STATE> 2
<MEAN> 25
 7.169885e+00 3.457295e-01 -9.706034e-01 1.822969e+00 2.203207e+00 -1.710077e+00 -1.541217e+00 -6.925409e-01 -3.499932e+00 -2.178467e+00 -7.829415e-01 -1.847775e+00 -1.776564e-01 1.685531e+00 6.899630e-01 1.139801e+00 6.890932e-01 2.057916e+00 4.165332e-01 -6.090450e-01 -1.683788e-01 -9.237592e-02 -7.342267e-01 -1.250047e+00 -1.560356e+00
<VARIANCE> 25
 2.165102e+01 3.528417e+01 4.496836e+01 6.788055e+01 4.849240e+01 5.297578e+01 4.589392e+01 4.388946e+01 4.575230e+01 3.900736e+01 3.414560e+01 3.704768e+01 9.116951e-01 1.700086e+00 1.786228e+00 4.035296e+00 3.243808e+00 3.321929e+00 3.851503e+00 3.338852e+00 3.444288e+00 2.962204e+00 2.780899e+00 2.558904e+00 1.011466e+00
<GCONST> 1.023394e+02
<STATE> 3
<MEAN> 25
 6.451331e+00 3.805457e+00 7.997720e-01 4.104099e+00 3.209973e+00 1.771652e+00 -1.687927e+00 -2.346424e+00 -2.799612e+00 -1.867672e+00 -2.654003e+00 -4.671466e+00 -4.288488e-01 8.661700e-01 6.104125e-01 6.183404e-01 3.940374e-01 1.045232e+00 2.131816e-01 -3.304687e-01 1.941549e-01 1.693209e-01 -3.405662e-01 -4.656930e-01 -8.459170e-01
<VARIANCE> 25
 1.605801e+01 2.327610e+01 3.427949e+01 4.943877e+01 3.551352e+01 4.001220e+01 3.662941e+01 3.266262e+01 4.372853e+01 3.314529e+01 2.653506e+01 2.688600e+01 4.240589e-01 7.692712e-01 1.020777e+00 1.824027e+00 1.598796e+00 1.636005e+00 1.955104e+00 1.795479e+00 2.067024e+00 1.608387e+00 1.611071e+00 1.827414e+00 4.028325e-01
<GCONST> 9.059154e+01
<STATE> 4
<MEAN> 25
 3.843240e+00 4.976631e+00 2.044346e+00 4.405276e+00 3.430595e+00 3.177998e+00 -7.137617e-01 -1.420924e+00 -8.184713e-01 -5.259312e-01 -2.154598e+00 -3.488309e+00 -4.377143e-01 -2.375585e-02 4.742600e-02 -6.740690e-02 -9.708463e-02 1.467522e-01 2.977267e-01 2.026634e-01 7.117245e-02 2.588364e-02 1.424470e-01 2.484765e-01 -3.065790e-01
<VARIANCE> 25
 1.843643e+01 1.784051e+01 2.607419e+01 3.130790e+01 2.558590e+01 2.868715e+01 2.686604e+01 2.596465e+01 3.096772e+01 2.389989e+01 1.980139e+01 1.923713e+01 4.635847e-01 5.872605e-01 8.780912e-01 9.187444e-01 9.726738e-01 1.154603e+00 1.138327e+00 1.124501e+00 1.193445e+00 1.121723e+00 1.058525e+00 1.099325e+00 4.008314e-01
<GCONST> 8.251925e+01
~t "T_n"
<ENDHMM>
~h "o-r"
<BEGINHMM>
<NUMSTATES> 5
<STATE> 2
<MEAN> 25
 8.643217e+00 -2.787229e+00 -6.224000e+00 -3.124852e+00 1.355937e+00 -3.755785e+00 -4.512966e+00 -3.933424e+00 -2.882520e+00 -2.216112e+00 -7.354643e-01 1.580987e+00 1.561792e-01 8.974332e-01 -3.782570e-01 5.168830e-01 1.252811e+00 1.208448e+00 -3.267309e-01 -2.546778e-01 -2.021774e-01 -5.815746e-01 -5.138835e-01 -2.330100e-02 -1.076871e+00
<VARIANCE> 25
 3.211975e+01 4.498290e+01 5.062462e+01 5.935705e+01 5.828969e+01 5.106108e+01 4.451467e+01 4.801496e+01 4.760433e+01 4.023750e+01 3.850442e+01 3.225385e+01 1.654517e+00 2.112823e+00 2.382579e+00 2.979533e+00 3.407424e+00 4.447104e+00 3.988335e+00 3.638894e+00 3.461148e+00 2.960581e+00 2.838124e+00 2.399935e+00 1.986631e+00
<GCONST> 1.051154e+02
<STATE> 3
<MEAN> 25
 7.898341e+00 6.769122e-01 -5.980435e+00 -1.402799e+00 3.525082e+00 4.491480e-01 -3.918551e+00 -3.587373e+00 -2.649347e+00 -2.842372e+00 -1.689278e+00 1.021962e+00 -7.756338e-01 7.563383e-01 5.502752e-01 8.270113e-01 2.798240e-01 1.325491e+00 7.032835e-01 3.596233e-01 3.082208e-01 -5.154090e-03 -2.048264e-01 -3.199293e-01 -1.361292e+00
<VARIANCE> 25
 2.876068e+01 3.251756e+01 4.847742e+01 5.875251e+01 4.849226e+01 4.357820e+01 4.282160e+01 3.805943e+01 3.575104e+01 3.216047e+01 2.785275e+01 2.531534e+01 1.549412e+00 2.112714e+00 2.763809e+00 3.039823e+00 3.358799e+00 3.590118e+00 3.448425e+00 3.136224e+00 3.408474e+00 2.967985e+00 2.623605e+00 2.237263e+00 1.636310e+00
<GCONST> 1.021613e+02
<STATE> 4
<MEAN> 25
 5.412677e+00 1.833103e+00 -4.028427e+00 -5.085419e-01 2.267809e+00 2.085018e+00 -1.665371e+00 -2.343382e+00 -1.808912e+00 -2.284674e+00 -1.413052e+00 3.313459e-01 -4.867756e-01 -6.988044e-02 4.821670e-01 3.639740e-01 -2.038538e-01 -1.353530e-01 2.935330e-01 3.202356e-01 4.707072e-02 1.700878e-01 1.382703e-01 -1.182176e-01 -2.790100e-01
<VARIANCE> 25
 2.738630e+01 3.117259e+01 4.332304e+01 4.824800e+01 3.927319e+01 3.631243e+01 3.395251e+01 3.381007e+01 3.105561e+01 2.732073e+01 2.547030e+01 2.190276e+01 1.094292e+00 1.505075e+00 2.021805e+00 2.286807e+00 2.216540e+00 2.356158e+00 2.429886e+00 2.174607e+00 2.300617e+00 2.008530e+00 1.813168e+00 1.681972e+00 1.042680e+00
<GCONST> 9.575272e+01
~t "T_r"
<ENDHMM>
~h "o-s"
<BEGINHMM>
<NUMSTATES> 5
<STATE> 2
<MEAN> 25
 -2.672227e+00 -3.270423e+00 1.004953e+01 -4.440532e+00 1.809237e-01 1.463706e+00 2.479738e+00 -8.504221e-01 -6.740083e-01 7.527752e-01 2.025366e-01 -1.215088e-01 -2.952475e+00 -1.081467e+00 2.472686e+00 -1.170398e+00 1.552520e-01 9.225060e-01 1.190610e+00 1.466946e-02 5.599615e-01 4.710526e-01 5.590721e-01 2.782978e-01 2.598815e-01
<VARIANCE> 25
 6.090248e+01 4.096783e+01 9.645750e+01 7.985217e+01 7.116714e+01 6.051644e+01 6.688841e+01 7.043929e+01 5.318323e+01 4.527814e+01 3.572353e+01 2.664364e+01 3.096100e+00 3.809794e+00 4.041855e+00 4.010174e+00 3.633645e+00 4.631847e+00 3.728845e+00 3.332037e+00 3.740141e+00 3.394577e+00 2.906559e+00 2.198195e+00 1.359681e+00
<GCONST> 1.094882e+02
<STATE> 3
<MEAN> 25
 -1.388278e+01 -7.547144e+00 1.724523e+01 -1.016027e+01 5.564176e-01 9.960555e-01 5.586256e+00 -1.188120e+00 5.186584e-01 1.813791e+00 1.467571e+00 5.005577e-01 -2.925702e-01 -1.122364e-01 -2.537486e-01 7.632152e-02 -1.322451e-02 7.181087e-02 4.822661e-02 6.459653e-02 8.100856e-02 3.569933e-02 1.088791e-01 9.543600e-02 -2.908385e-01
<VARIANCE> 25
 7.703424e+01 8.092426e+01 1.181283e+02 1.229016e+02 1.058419e+02 8.350800e+01 7.997587e+01 8.339116e+01 7.095995e+01 5.324371e+01 4.210551e+01 2.871686e+01 2.398076e+00 1.604921e+00 2.021634e+00 2.360392e+00 1.573115e+00 1.834233e+00 1.877151e+00 1.805621e+00 1.722814e+00 1.544063e+00 1.343992e+00 1.183776e+00 8.760858e-01
<GCONST> 1.039959e+02
<STATE> 4
<MEAN> 25
 -6.362659e+00 -4.423155e+00 9.820220e+00 -4.903218e+00 -3.681852e-01 2.570100e+00 3.167925e+00 -5.793936e-01 -8.759587e-02 1.059100e+00 1.291414e+00 8.679242e-01 2.306367e+00 1.451382e+00 -1.806829e+00 1.135726e+00 -1.512867e-01 -5.723754e-03 -1.025580e+00 -6.012088e-02 -4.432604e-01 -4.086378e-01 -5.183563e-01 -1.828476e-01 -1.028221e+00
<VARIANCE> 25
 5.843802e+01 5.417876e+01 7.380061e+01 6.748988e+01 5.934891e+01 5.204456e+01 5.172548e+01 5.419441e+01 4.946672e+01 4.243489e+01 3.060479e+01 2.467298e+01 5.810026e+00 3.654878e+00 3.590863e+00 3.486390e+00 3.299611e+00 3.667934e+00 3.647548e+00 3.210599e+00 3.578302e+00 3.155891e+00 2.695603e+00 2.113597e+00 1.871167e+00
<GCONST> 1.080983e+02
~t "T_s"
<ENDHMM>
~h "m-n+a"
<BEGINHMM>
<NUMSTATES> 5
<STATE> 2
<MEAN> 25
 7.169885e+00 3.457295e-01 -9.706034e-01 1.822969e+00 2.203207e+00 -1.710077e+00 -1.541217e+00 -6.925409e-01 -3.499932e+00 -2.178467e+00 -7.829415e-01 -1.847775e+00 -1.776564e-01 1.685531e+00 6.899630e-01 1.139801e+00 6.890932e-01 2.057916e+00 4.165332e-01 -6.090450e-01 -1.683788e-01 -9.237592e-02 -7.342267e-01 -1.250047e+00 -1.560356e+00
<VARIANCE> 25
 2.165102e+01 3.528417e+01 4.496836e+01 6.788055e+01 4.849240e+01 5.297578e+01 4.589392e+01 4.388946e+01 4.575230e+01 3.900736e+01 3.414560e+01 3.704768e+01 9.116951e-01 1.700086e+00 1.786228e+00 4.035296e+00 3.243808e+00 3.321929e+00 3.851503e+00 3.338852e+00 3.444288e+00 2.962204e+00 2.780899e+00 2.558904e+00 1.011466e+00
<GCONST> 1.023394e+02
<STATE> 3
<MEAN> 25
 6.451331e+00 3.805457e+00 7.997720e-01 4.104099e+00 3.209973e+00 1.771652e+00 -1.687927e+00 -2.346424e+00 -2.799612e+00 -1.867672e+00 -2.654003e+00 -4.671466e+00 -4.288488e-01 8.661700e-01 6.104125e-01 6.183404e-01 3.940374e-01 1.045232e+00 2.131816e-01 -3.304687e-01 1.941549e-01 1.693209e-01 -3.405662e-01 -4.656930e-01 -8.459170e-01
<VARIANCE> 25
 1.605801e+01 2.327610e+01 3.427949e+01 4.943877e+01 3.551352e+01 4.001220e+01 3.662941e+01 3.266262e+01 4.372853e+01 3.314529e+01 2.653506e+01 2.688600e+01 4.240589e-01 7.692712e-01 1.020777e+00 1.824027e+00 1.598796e+00 1.636005e+00 1.955104e+00 1.795479e+00 2.067024e+00 1.608387e+00 1.611071e+00 1.827414e+00 4.028325e-01
<GCONST> 9.059154e+01
<STATE> 4
<MEAN> 25
 3.843240e+00 4.976631e+00 2.044346e+00 4.405276e+00 3.430595e+00 3.177998e+00 -7.137617e-01 -1.420924e+00 -8.184713e-01 -5.259312e-01 -2.154598e+00 -3.488309e+00 -4.377143e-01 -2.375585e-02 4.742600e-02 -6.740690e-02 -9.708463e-02 1.467522e-01 2.977267e-01 2.026634e-01 7.117245e-02 2.588364e-02 1.424470e-01 2.484765e-01 -3.065790e-01
<VARIANCE> 25
 1.843643e+01 1.784051e+01 2.607419e+01 3.130790e+01 2.558590e+01 2.868715e+01 2.686604e+01 2.596465e+01 3.096772e+01 2.389989e+01 1.980139e+01 1.923713e+01 4.635847e-01 5.872605e-01 8.780912e-01 9.187444e-01 9.726738e-01 1.154603e+00 1.138327e+00 1.124501e+00 1.193445e+00 1.121723e+00 1.058525e+00 1.099325e+00 4.008314e-01
<GCONST> 8.251925e+01
~t "T_n"
<ENDHMM>
~h "rr-o+b"
<BEGINHMM>
<NUMSTATES> 5
<STATE> 2
<MEAN> 25
 8.202134e+00 8.756948e-01 -1.556870e+00 -2.412576e+00 -4.135490e+00 -5.283045e+00 -1.325630e+00 5.514442e-01 -3.256593e+00 -4.464030e+00 -3.179199e+00 -1.018459e+00 8.533680e-01 5.628624e-02 -4.272498e-01 -1.163086e+00 -1.742013e+00 -1.833407e+00 -1.006363e-01 8.327968e-01 2.565329e-01 -1.784475e-01 -2.551433e-01 1.000556e-01 7.841955e-01
<VARIANCE> 25
 2.727819e+01 4.614404e+01 4.546624e+01 5.624189e+01 6.257309e+01 6.102062e+01 4.518742e+01 4.939813e+01 5.469617e+01 4.219932e+01 3.056493e+01 2.847985e+01 1.604221e+00 2.714622e+00 2.414845e+00 3.306103e+00 3.399673e+00 4.293542e+00 4.410888e+00 3.910635e+00 3.812121e+00 3.509329e+00 2.851977e+00 2.694980e+00 1.552250e+00
<GCONST> 1.055529e+02
<STATE> 3
<MEAN> 25
 9.608891e+00 1.841884e+00 -1.624231e+00 -4.843653e+00 -1.056682e+01 -1.047259e+01 -3.275502e-01 4.228262e+00 -8.981493e-01 -3.707518e+00 -3.771726e+00 -1.847208e+00 -1.603226e-01 3.746803e-01 2.492852e-02 -5.283350e-02 -1.316152e-01 2.060792e-01 2.320018e-01 3.473101e-01 4.636069e-01 2.421327e-01 -1.011645e-03 -9.001540e-02 -4.208844e-01
<VARIANCE> 25
 2.191664e+01 3.832346e+01 3.536129e+01 4.552036e+01 5.146196e+01 5.402416e+01 4.532333e+01 4.316967e+01 5.194213e+01 3.791486e+01 2.724122e+01 2.477335e+01 5.759985e-01 1.296905e+00 1.329783e+00 1.436117e+00 2.015944e+00 2.854960e+00 1.984985e+00 2.227589e+00 2.343580e+00 2.045362e+00 1.638120e+00 1.449960e+00 1.066268e+00
<GCONST> 9.576168e+01
<STATE> 4
<MEAN> 25
 5.920141e+00 4.729104e+00 -6.619071e-01 -3.592440e+00 -6.668617e+00 -4.437122e+00 3.776827e-01 3.175261e+00 9.050462e-01 -1.454790e+00 -2.326509e+00 -1.249121e+00 -6.257654e-01 -3.906129e-02 1.678127e-01 4.218079e-01 7.039407e-01 9.980335e-01 2.885799e-01 -2.038472e-01 -1.773957e-02 1.877047e-01 2.155907e-01 8.154663e-02 -5.345345e-01
<VARIANCE> 25
 2.381943e+01 3.168683e+01 3.073319e+01 3.372535e+01 3.205265e+01 4.222814e+01 3.201194e+01 3.300840e+01 3.498757e+01 3.150789e+01 2.243595e+01 1.901501e+01 4.852379e-01 7.335701e-01 1.011674e+00 1.084659e+00 1.496157e+00 1.967000e+00 1.648281e+00 1.688958e+00 1.686677e+00 1.518985e+00 1.305284e+00 1.193857e+00 3.831035e-01
<GCONST> 8.833953e+01
~t "T_o"
<ENDHMM>
~h "rr-o+d"
<BEGINHMM>
<NUMSTATES> 5
<STATE> 2
<MEAN> 25
 8.202134e+00 8.756948e-01 -1.556870e+00 -2.412576e+00 -4.135490e+00 -5.283045e+00 -1.325630e+00 5.514442e-01 -3.256593e+00 -4.464030e+00 -3.179199e+00 -1.018459e+00 8.533680e-01 5.628624e-02 -4.272498e-01 -1.163086e+00 -1.742013e+00 -1.833407e+00 -1.006363e-01 8.327968e-01 2.565329e-01 -1.784475e-01 -2.551433e-01 1.000556e-01 7.841955e-01
<VARIANCE> 25
 2.727819e+01 4.614404e+01 4.546624e+01 5.624189e+01 6.257309e+01 6.102062e+01 4.518742e+01 4.939813e+01 5.469617e+01 4.219932e+01 3.056493e+01 2.847985e+01 1.604221e+00 2.714622e+00 2.414845e+00 3.306103e+00 3.399673e+00 4.293542e+00 4.410888e+00 3.910635e+00 3.812121e+00 3.509329e+00 2.851977e+00 2.694980e+00 1.552250e+00
<GCONST> 1.055529e+02
<STATE> 3
<MEAN> 25
 9.608891e+00 1.841884e+00 -1.624231e+00 -4.843653e+00 -1.056682e+01 -1.047259e+01 -3.275502e-01 4.228262e+00 -8.981493e-01 -3.707518e+00 -3.771726e+00 -1.847208e+00 -1.603226e-01 3.746803e-01 2.492852e-02 -5.283350e-02 -1.316152e-01 2.060792e-01 2.320018e-01 3.473101e-01 4.636069e-01 2.421327e-01 -1.011645e-03 -9.001540e-02 -4.208844e-01
<VARIANCE> 25
 2.191664e+01 3.832346e+01 3.536129e+01 4.552036e+01 5.146196e+01 5.402416e+01 4.532333e+01 4.316967e+01 5.194213e+01 3.791486e+01 2.724122e+01 2.477335e+01 5.759985e-01 1.296905e+00 1.329783e+00 1.436117e+00 2.015944e+00 2.854960e+00 1.984985e+00 2.227589e+00 2.343580e+00 2.045362e+00 1.638120e+00 1.449960e+00 1.066268e+00
<GCONST> 9.576168e+01
<STATE> 4
<MEAN> 25
 5.920141e+00 4.729104e+00 -6.619071e-01 -3.592440e+00 -6.668617e+00 -4.437122e+00 3.776827e-01 3.175261e+00 9.050462e-01 -1.454790e+00 -2.326509e+00 -1.249121e+00 -6.257654e-01 -3.906129e-02 1.678127e-01 4.218079e-01 7.039407e-01 9.980335e-01 2.885799e-01 -2.038472e-01 -1.773957e-02 1.877047e-01 2.155907e-01 8.154663e-02 -5.345345e-01
<VARIANCE> 25
 2.381943e+01 3.168683e+01 3.073319e+01 3.372535e+01 3.205265e+01 4.222814e+01 3.201194e+01 3.300840e+01 3.498757e+01 3.150789e+01 2.243595e+01 1.901501e+01 4.852379e-01 7.335701e-01 1.011674e+00 1.084659e+00 1.496157e+00 1.967000e+00 1.648281e+00 1.688958e+00 1.686677e+00 1.518985e+00 1.305284e+00 1.193857e+00 3.831035e-01
<GCONST> 8.833953e+01
~t "T_o"
<ENDHMM>
~h "rr-o+g"
<BEGINHMM>
<NUMSTATES> 5
<STATE> 2
<MEAN> 25
 8.202134e+00 8.756948e-01 -1.556870e+00 -2.412576e+00 -4.135490e+00 -5.283045e+00 -1.325630e+00 5.514442e-01 -3.256593e+00 -4.464030e+00 -3.179199e+00 -1.018459e+00 8.533680e-01 5.628624e-02 -4.272498e-01 -1.163086e+00 -1.742013e+00 -1.833407e+00 -1.006363e-01 8.327968e-01 2.565329e-01 -1.784475e-01 -2.551433e-01 1.000556e-01 7.841955e-01
<VARIANCE> 25
 2.727819e+01 4.614404e+01 4.546624e+01 5.624189e+01 6.257309e+01 6.102062e+01 4.518742e+01 4.939813e+01 5.469617e+01 4.219932e+01 3.056493e+01 2.847985e+01 1.604221e+00 2.714622e+00 2.414845e+00 3.306103e+00 3.399673e+00 4.293542e+00 4.410888e+00 3.910635e+00 3.812121e+00 3.509329e+00 2.851977e+00 2.694980e+00 1.552250e+00
<GCONST> 1.055529e+02
<STATE> 3
<MEAN> 25
 9.608891e+00 1.841884e+00 -1.624231e+00 -4.843653e+00 -1.056682e+01 -1.047259e+01 -3.275502e-01 4.228262e+00 -8.981493e-01 -3.707518e+00 -3.771726e+00 -1.847208e+00 -1.603226e-01 3.746803e-01 2.492852e-02 -5.283350e-02 -1.316152e-01 2.060792e-01 2.320018e-01 3.473101e-01 4.636069e-01 2.421327e-01 -1.011645e-03 -9.001540e-02 -4.208844e-01
<VARIANCE> 25
 2.191664e+01 3.832346e+01 3.536129e+01 4.552036e+01 5.146196e+01 5.402416e+01 4.532333e+01 4.316967e+01 5.194213e+01 3.791486e+01 2.724122e+01 2.477335e+01 5.759985e-01 1.296905e+00 1.329783e+00 1.436117e+00 2.015944e+00 2.854960e+00 1.984985e+00 2.227589e+00 2.343580e+00 2.045362e+00 1.638120e+00 1.449960e+00 1.066268e+00
<GCONST> 9.576168e+01
<STATE> 4
<MEAN> 25
 5.920141e+00 4.729104e+00 -6.619071e-01 -3.592440e+00 -6.668617e+00 -4.437122e+00 3.776827e-01 3.175261e+00 9.050462e-01 -1.454790e+00 -2.326509e+00 -1.249121e+00 -6.257654e-01 -3.906129e-02 1.678127e-01 4.218079e-01 7.039407e-01 9.980335e-01 2.885799e-01 -2.038472e-01 -1.773957e-02 1.877047e-01 2.155907e-01 8.154663e-02 -5.345345e-01
<VARIANCE> 25
 2.381943e+01 3.168683e+01 3.073319e+01 3.372535e+01 3.205265e+01 4.222814e+01 3.201194e+01 3.300840e+01 3.498757e+01 3.150789e+01 2.243595e+01 1.901501e+01 4.852379e-01 7.335701e-01 1.011674e+00 1.084659e+00 1.496157e+00 1.967000e+00 1.648281e+00 1.688958e+00 1.686677e+00 1.518985e+00 1.305284e+00 1.193857e+00 3.831035e-01
<GCONST> 8.833953e+01
~t "T_o"
<ENDHMM>
~h "rr-o+k"
<BEGINHMM>
<NUMSTATES> 5
<STATE> 2
<MEAN> 25
 8.202134e+00 8.756948e-01 -1.556870e+00 -2.412576e+00 -4.135490e+00 -5.283045e+00 -1.325630e+00 5.514442e-01 -3.256593e+00 -4.464030e+00 -3.179199e+00 -1.018459e+00 8.533680e-01 5.628624e-02 -4.272498e-01 -1.163086e+00 -1.742013e+00 -1.833407e+00 -1.006363e-01 8.327968e-01 2.565329e-01 -1.784475e-01 -2.551433e-01 1.000556e-01 7.841955e-01
<VARIANCE> 25
 2.727819e+01 4.614404e+01 4.546624e+01 5.624189e+01 6.257309e+01 6.102062e+01 4.518742e+01 4.939813e+01 5.469617e+01 4.219932e+01 3.056493e+01 2.847985e+01 1.604221e+00 2.714622e+00 2.414845e+00 3.306103e+00 3.399673e+00 4.293542e+00 4.410888e+00 3.910635e+00 3.812121e+00 3.509329e+00 2.851977e+00 2.694980e+00 1.552250e+00
<GCONST> 1.055529e+02
<STATE> 3
<MEAN> 25
 9.608891e+00 1.841884e+00 -1.624231e+00 -4.843653e+00 -1.056682e+01 -1.047259e+01 -3.275502e-01 4.228262e+00 -8.981493e-01 -3.707518e+00 -3.771726e+00 -1.847208e+00 -1.603226e-01 3.746803e-01 2.492852e-02 -5.283350e-02 -1.316152e-01 2.060792e-01 2.320018e-01 3.473101e-01 4.636069e-01 2.421327e-01 -1.011645e-03 -9.001540e-02 -4.208844e-01
<VARIANCE> 25
 2.191664e+01 3.832346e+01 3.536129e+01 4.552036e+01 5.146196e+01 5.402416e+01 4.532333e+01 4.316967e+01 5.194213e+01 3.791486e+01 2.724122e+01 2.477335e+01 5.759985e-01 1.296905e+00 1.329783e+00 1.436117e+00 2.015944e+00 2.854960e+00 1.984985e+00 2.227589e+00 2.343580e+00 2.045362e+00 1.638120e+00 1.449960e+00 1.066268e+00
<GCONST> 9.576168e+01
<STATE> 4
<MEAN> 25
 5.920141e+00 4.729104e+00 -6.619071e-01 -3.592440e+00 -6.668617e+00 -4.437122e+00 3.776827e-01 3.175261e+00 9.050462e-01 -1.454790e+00 -2.326509e+00 -1.249121e+00 -6.257654e-01 -3.906129e-02 1.678127e-01 4.218079e-01 7.039407e-01 9.980335e-01 2.885799e-01 -2.038472e-01 -1.773957e-02 1.877047e-01 2.155907e-01 8.154663e-02 -5.345345e-01
<VARIANCE> 25
 2.381943e+01 3.168683e+01 3.073319e+01 3.372535e+01 3.205265e+01 4.222814e+01 3.201194e+01 3.300840e+01 3.498757e+01 3.150789e+01 2.243595e+01 1.901501e+01 4.852379e-01 7.335701e-01 1.011674e+00 1.084659e+00 1.496157e+00 1.967000e+00 1.648281e+00 1.688958e+00 1.686677e+00 1.518985e+00 1.305284e+00 1.193857e+00 3.831035e-01
<GCONST> 8.833953e+01
~t "T_o"
<ENDHMM>
~h "rr-o+n"
<BEGINHMM>
<NUMSTATES> 5
<STATE> 2
<MEAN> 25
 8.202134e+00 8.756948e-01 -1.556870e+00 -2.412576e+00 -4.135490e+00 -5.283045e+00 -1.325630e+00 5.514442e-01 -3.256593e+00 -4.464030e+00 -3.179199e+00 -1.018459e+00 8.533680e-01 5.628624e-02 -4.272498e-01 -1.163086e+00 -1.742013e+00 -1.833407e+00 -1.006363e-01 8.327968e-01 2.565329e-01 -1.784475e-01 -2.551433e-01 1.000556e-01 7.841955e-01
<VARIANCE> 25
 2.727819e+01 4.614404e+01 4.546624e+01 5.624189e+01 6.257309e+01 6.102062e+01 4.518742e+01 4.939813e+01 5.469617e+01 4.219932e+01 3.056493e+01 2.847985e+01 1.604221e+00 2.714622e+00 2.414845e+00 3.306103e+00 3.399673e+00 4.293542e+00 4.410888e+00 3.910635e+00 3.812121e+00 3.509329e+00 2.851977e+00 2.694980e+00 1.552250e+00
<GCONST> 1.055529e+02
<STATE> 3
<MEAN> 25
 9.608891e+00 1.841884e+00 -1.624231e+00 -4.843653e+00 -1.056682e+01 -1.047259e+01 -3.275502e-01 4.228262e+00 -8.981493e-01 -3.707518e+00 -3.771726e+00 -1.847208e+00 -1.603226e-01 3.746803e-01 2.492852e-02 -5.283350e-02 -1.316152e-01 2.060792e-01 2.320018e-01 3.473101e-01 4.636069e-01 2.421327e-01 -1.011645e-03 -9.001540e-02 -4.208844e-01
<VARIANCE> 25
 2.191664e+01 3.832346e+01 3.536129e+01 4.552036e+01 5.146196e+01 5.402416e+01 4.532333e+01 4.316967e+01 5.194213e+01 3.791486e+01 2.724122e+01 2.477335e+01 5.759985e-01 1.296905e+00 1.329783e+00 1.436117e+00 2.015944e+00 2.854960e+00 1.984985e+00 2.227589e+00 2.343580e+00 2.045362e+00 1.638120e+00 1.449960e+00 1.066268e+00
<GCONST> 9.576168e+01
<STATE> 4
<MEAN> 25
 5.920141e+00 4.729104e+00 -6.619071e-01 -3.592440e+00 -6.668617e+00 -4.437122e+00 3.776827e-01 3.175261e+00 9.050462e-01 -1.454790e+00 -2.326509e+00 -1.249121e+00 -6.257654e-01 -3.906129e-02 1.678127e-01 4.218079e-01 7.039407e-01 9.980335e-01 2.885799e-01 -2.038472e-01 -1.773957e-02 1.877047e-01 2.155907e-01 8.154663e-02 -5.345345e-01
<VARIANCE> 25
 2.381943e+01 3.168683e+01 3.073319e+01 3.372535e+01 3.205265e+01 4.222814e+01 3.201194e+01 3.300840e+01 3.498757e+01 3.150789e+01 2.243595e+01 1.901501e+01 4.852379e-01 7.335701e-01 1.011674e+00 1.084659e+00 1.496157e+00 1.967000e+00 1.648281e+00 1.688958e+00 1.686677e+00 1.518985e+00 1.305284e+00 1.193857e+00 3.831035e-01
<GCONST> 8.833953e+01
~t "T_o"
<ENDHMM>
~h "rr-o+p"
<BEGINHMM>
<NUMSTATES> 5
<STATE> 2
<MEAN> 25
 8.202134e+00 8.756948e-01 -1.556870e+00 -2.412576e+00 -4.135490e+00 -5.283045e+00 -1.325630e+00 5.514442e-01 -3.256593e+00 -4.464030e+00 -3.179199e+00 -1.018459e+00 8.533680e-01 5.628624e-02 -4.272498e-01 -1.163086e+00 -1.742013e+00 -1.833407e+00 -1.006363e-01 8.327968e-01 2.565329e-01 -1.784475e-01 -2.551433e-01 1.000556e-01 7.841955e-01
<VARIANCE> 25
 2.727819e+01 4.614404e+01 4.546624e+01 5.624189e+01 6.257309e+01 6.102062e+01 4.518742e+01 4.939813e+01 5.469617e+01 4.219932e+01 3.056493e+01 2.847985e+01 1.604221e+00 2.714622e+00 2.414845e+00 3.306103e+00 3.399673e+00 4.293542e+00 4.410888e+00 3.910635e+00 3.812121e+00 3.509329e+00 2.851977e+00 2.694980e+00 1.552250e+00
<GCONST> 1.055529e+02
<STATE> 3
<MEAN> 25
 9.608891e+00 1.841884e+00 -1.624231e+00 -4.843653e+00 -1.056682e+01 -1.047259e+01 -3.275502e-01 4.228262e+00 -8.981493e-01 -3.707518e+00 -3.771726e+00 -1.847208e+00 -1.603226e-01 3.746803e-01 2.492852e-02 -5.283350e-02 -1.316152e-01 2.060792e-01 2.320018e-01 3.473101e-01 4.636069e-01 2.421327e-01 -1.011645e-03 -9.001540e-02 -4.208844e-01
<VARIANCE> 25
 2.191664e+01 3.832346e+01 3.536129e+01 4.552036e+01 5.146196e+01 5.402416e+01 4.532333e+01 4.316967e+01 5.194213e+01 3.791486e+01 2.724122e+01 2.477335e+01 5.759985e-01 1.296905e+00 1.329783e+00 1.436117e+00 2.015944e+00 2.854960e+00 1.984985e+00 2.227589e+00 2.343580e+00 2.045362e+00 1.638120e+00 1.449960e+00 1.066268e+00
<GCONST> 9.576168e+01
<STATE> 4
<MEAN> 25
 5.920141e+00 4.729104e+00 -6.619071e-01 -3.592440e+00 -6.668617e+00 -4.437122e+00 3.776827e-01 3.175261e+00 9.050462e-01 -1.454790e+00 -2.326509e+00 -1.249121e+00 -6.257654e-01 -3.906129e-02 1.678127e-01 4.218079e-01 7.039407e-01 9.980335e-01 2.885799e-01 -2.038472e-01 -1.773957e-02 1.877047e-01 2.155907e-01 8.154663e-02 -5.345345e-01
<VARIANCE> 25
 2.381943e+01 3.168683e+01 3.073319e+01 3.372535e+01 3.205265e+01 4.222814e+01 3.201194e+01 3.300840e+01 3.498757e+01 3.150789e+01 2.243595e+01 1.901501e+01 4.852379e-01 7.335701e-01 1.011674e+00 1.084659e+00 1.496157e+00 1.967000e+00 1.648281e+00 1.688958e+00 1.686677e+00 1.518985e+00 1.305284e+00 1.193857e+00 3.831035e-01
<GCONST> 8.833953e+01
~t "T_o"
<ENDHMM>
~h "rr-o+s"
<BEGINHMM>
<NUMSTATES> 5
<STATE> 2
<MEAN> 25
 8.202134e+00 8.756948e-01 -1.556870e+00 -2.412576e+00 -4.135490e+00 -5.283045e+00 -1.325630e+00 5.514442e-01 -3.256593e+00 -4.464030e+00 -3.179199e+00 -1.018459e+00 8.533680e-01 5.628624e-02 -4.272498e-01 -1.163086e+00 -1.742013e+00 -1.833407e+00 -1.006363e-01 8.327968e-01 2.565329e-01 -1.784475e-01 -2.551433e-01 1.000556e-01 7.841955e-01
<VARIANCE> 25
 2.727819e+01 4.614404e+01 4.546624e+01 5.624189e+01 6.257309e+01 6.102062e+01 4.518742e+01 4.939813e+01 5.469617e+01 4.219932e+01 3.056493e+01 2.847985e+01 1.604221e+00 2.714622e+00 2.414845e+00 3.306103e+00 3.399673e+00 4.293542e+00 4.410888e+00 3.910635e+00 3.812121e+00 3.509329e+00 2.851977e+00 2.694980e+00 1.552250e+00
<GCONST> 1.055529e+02
<STATE> 3
<MEAN> 25
 9.608891e+00 1.841884e+00 -1.624231e+00 -4.843653e+00 -1.056682e+01 -1.047259e+01 -3.275502e-01 4.228262e+00 -8.981493e-01 -3.707518e+00 -3.771726e+00 -1.847208e+00 -1.603226e-01 3.746803e-01 2.492852e-02 -5.283350e-02 -1.316152e-01 2.060792e-01 2.320018e-01 3.473101e-01 4.636069e-01 2.421327e-01 -1.011645e-03 -9.001540e-02 -4.208844e-01
<VARIANCE> 25
 2.191664e+01 3.832346e+01 3.536129e+01 4.552036e+01 5.146196e+01 5.402416e+01 4.532333e+01 4.316967e+01 5.194213e+01 3.791486e+01 2.724122e+01 2.477335e+01 5.759985e-01 1.296905e+00 1.329783e+00 1.436117e+00 2.015944e+00 2.854960e+00 1.984985e+00 2.227589e+00 2.343580e+00 2.045362e+00 1.638120e+00 1.449960e+00 1.066268e+00
<GCONST> 9.576168e+01
<STATE> 4
<MEAN> 25
 5.920141e+00 4.729104e+00 -6.619071e-01 -3.592440e+00 -6.668617e+00 -4.437122e+00 3.776827e-01 3.175261e+00 9.050462e-01 -1.454790e+00 -2.326509e+00 -1.249121e+00 -6.257654e-01 -3.906129e-02 1.678127e-01 4.218079e-01 7.039407e-01 9.980335e-01 2.885799e-01 -2.038472e-01 -1.773957e-02 1.877047e-01 2.155907e-01 8.154663e-02 -5.345345e-01
<VARIANCE> 25
 2.381943e+01 3.168683e+01 3.073319e+01 3.372535e+01 3.205265e+01 4.222814e+01 3.201194e+01 3.300840e+01 3.498757e+01 3.150789e+01 2.243595e+01 1.901501e+01 4.852379e-01 7.335701e-01 1.011674e+00 1.084659e+00 1.496157e+00 1.967000e+00 1.648281e+00 1.688958e+00 1.686677e+00 1.518985e+00 1.305284e+00 1.193857e+00 3.831035e-01
<GCONST> 8.833953e+01
~t "T_o"
<ENDHMM>
~h "rr-o+x"
<BEGINHMM>
<NUMSTATES> 5
<STATE> 2
<MEAN> 25
 8.202134e+00 8.756948e-01 -1.556870e+00 -2.412576e+00 -4.135490e+00 -5.283045e+00 -1.325630e+00 5.514442e-01 -3.256593e+00 -4.464030e+00 -3.179199e+00 -1.018459e+00 8.533680e-01 5.628624e-02 -4.272498e-01 -1.163086e+00 -1.742013e+00 -1.833407e+00 -1.006363e-01 8.327968e-01 2.565329e-01 -1.784475e-01 -2.551433e-01 1.000556e-01 7.841955e-01
<VARIANCE> 25
 2.727819e+01 4.614404e+01 4.546624e+01 5.624189e+01 6.257309e+01 6.102062e+01 4.518742e+01 4.939813e+01 5.469617e+01 4.219932e+01 3.056493e+01 2.847985e+01 1.604221e+00 2.714622e+00 2.414845e+00 3.306103e+00 3.399673e+00 4.293542e+00 4.410888e+00 3.910635e+00 3.812121e+00 3.509329e+00 2.851977e+00 2.694980e+00 1.552250e+00
<GCONST> 1.055529e+02
<STATE> 3
<MEAN> 25
 9.608891e+00 1.841884e+00 -1.624231e+00 -4.843653e+00 -1.056682e+01 -1.047259e+01 -3.275502e-01 4.228262e+00 -8.981493e-01 -3.707518e+00 -3.771726e+00 -1.847208e+00 -1.603226e-01 3.746803e-01 2.492852e-02 -5.283350e-02 -1.316152e-01 2.060792e-01 2.320018e-01 3.473101e-01 4.636069e-01 2.421327e-01 -1.011645e-03 -9.001540e-02 -4.208844e-01
<VARIANCE> 25
 2.191664e+01 3.832346e+01 3.536129e+01 4.552036e+01 5.146196e+01 5.402416e+01 4.532333e+01 4.316967e+01 5.194213e+01 3.791486e+01 2.724122e+01 2.477335e+01 5.759985e-01 1.296905e+00 1.329783e+00 1.436117e+00 2.015944e+00 2.854960e+00 1.984985e+00 2.227589e+00 2.343580e+00 2.045362e+00 1.638120e+00 1.449960e+00 1.066268e+00
<GCONST> 9.576168e+01
<STATE> 4
<MEAN> 25
 5.920141e+00 4.729104e+00 -6.619071e-01 -3.592440e+00 -6.668617e+00 -4.437122e+00 3.776827e-01 3.175261e+00 9.050462e-01 -1.454790e+00 -2.326509e+00 -1.249121e+00 -6.257654e-01 -3.906129e-02 1.678127e-01 4.218079e-01 7.039407e-01 9.980335e-01 2.885799e-01 -2.038472e-01 -1.773957e-02 1.877047e-01 2.155907e-01 8.154663e-02 -5.345345e-01
<VARIANCE> 25
 2.381943e+01 3.168683e+01 3.073319e+01 3.372535e+01 3.205265e+01 4.222814e+01 3.201194e+01 3.300840e+01 3.498757e+01 3.150789e+01 2.243595e+01 1.901501e+01 4.852379e-01 7.335701e-01 1.011674e+00 1.084659e+00 1.496157e+00 1.967000e+00 1.648281e+00 1.688958e+00 1.686677e+00 1.518985e+00 1.305284e+00 1.193857e+00 3.831035e-01
<GCONST> 8.833953e+01
~t "T_o"
<ENDHMM>
~h "p+a"
<BEGINHMM>
<NUMSTATES> 5
<STATE> 2
<MEAN> 25
 7.273674e-01 4.419045e+00 -1.642455e+00 1.125738e+00 -3.522553e-01 3.235282e+00 2.746772e-01 -5.568021e-02 1.165696e+00 4.750603e-01 9.688855e-02 3.759823e-01 -8.011376e-01 -8.197273e-02 6.961958e-03 -1.358314e-02 -1.177142e-01 3.702320e-01 1.830292e-01 5.311110e-02 2.254074e-01 2.447188e-01 2.399417e-01 2.407473e-01 -6.623852e-01
<VARIANCE> 25
 2.401776e+01 1.960782e+01 3.718217e+01 3.054975e+01 2.808158e+01 2.605350e+01 2.362480e+01 2.559509e+01 2.385701e+01 1.987996e+01 1.746951e+01 1.688129e+01 1.269404e+00 2.086987e+00 1.529043e+00 1.657745e+00 1.625266e+00 2.383349e+00 1.826928e+00 1.767557e+00 1.704675e+00 1.489995e+00 1.377780e+00 1.354460e+00 2.792160e+00
<GCONST> 9.099888e+01
<STATE> 3
<MEAN> 25
 -1.337869e+00 1.035469e+00 -7.838042e-01 -9.290963e-03 5.556262e-02 3.594203e+00 2.027818e+00 8.199463e-01 2.073685e+00 1.473826e+00 6.019089e-01 8.898576e-01 1.765188e+00 -1.028808e+00 4.021101e-02 -1.068706e+00 -5.371588e-02 -1.240200e+00 7.556494e-02 4.608671e-03 -3.994851e-01 -4.938613e-01 -4.782575e-01 -1.913889e-01 2.907336e+00
<VARIANCE> 25
 1.897703e+01 2.944050e+01 3.749300e+01 3.170806e+01 2.703956e+01 2.659766e+01 2.663577e+01 2.555534e+01 2.200160e+01 1.974789e+01 1.681893e+01 1.572850e+01 2.443307e+00 3.570506e+00 3.745036e+00 3.115236e+00 4.571411e+00 3.674390e+00 3.286592e+00 3.199915e+00 3.096100e+00 2.349700e+00 2.032326e+00 1.843453e+00 2.755321e+00
<GCONST> 9.822238e+01
<STATE> 4
<MEAN> 25
 5.176690e+00 1.157645e+00 -1.488065e+00 -2.820636e+00 -1.278942e+00 -5.157562e-01 5.626150e-01 4.191951e-01 5.586421e-01 -7.193927e-01 -1.273285e+00 -1.231566e-01 2.950639e+00 -2.090072e-01 -1.097889e+00 -1.007010e+00 -7.686905e-01 -2.226063e+00 -1.336651e+00 -5.428960e-01 -8.846589e-01 -9.306594e-01 -6.750229e-01 -2.558869e-01 2.670755e+00
<VARIANCE> 25
 3.736500e+01 4.107451e+01 4.575256e+01 4.207091e+01 4.778902e+01 4.715288e+01 3.255062e+01 3.267081e+01 3.013973e+01 2.514127e+01 1.985579e+01 1.664416e+01 2.039635e+00 5.257606e+00 4.280380e+00 5.203839e+00 6.958500e+00 6.059873e+00 4.287543e+00 4.485157e+00 4.812220e+00 3.423693e+00 3.071751e+00 2.633017e+00 2.926000e+00
<GCONST> 1.061059e+02
~t "T_p"
<ENDHMM>
~h "p+e"
<BEGINHMM>
<NUMSTATES> 5
<STATE> 2
<MEAN> 25
 7.273674e-01 4.419045e+00 -1.642455e+00 1.125738e+00 -3.522553e-01 3.235282e+00 2.746772e-01 -5.568021e-02 1.165696e+00 4.750603e-01 9.688855e-02 3.759823e-01 -8.011376e-01 -8.197273e-02 6.961958e-03 -1.358314e-02 -1.177142e-01 3.702320e-01 1.830292e-01 5.311110e-02 2.254074e-01 2.447188e-01 2.399417e-01 2.407473e-01 -6.623852e-01
<VARIANCE> 25
 2.401776e+01 1.960782e+01 3.718217e+01 3.054975e+01 2.808158e+01 2.605350e+01 2.362480e+01 2.559509e+01 2.385701e+01 1.987996e+01 1.746951e+01 1.688129e+01 1.269404e+00 2.086987e+00 1.529043e+00 1.657745e+00 1.625266e+00 2.383349e+00 1.826928e+00 1.767557e+00 1.704675e+00 1.489995e+00 1.377780e+00 1.354460e+00 2.792160e+00
<GCONST> 9.099888e+01
<STATE> 3
<MEAN> 25
 -1.337869e+00 1.035469e+00 -7.838042e-01 -9.290963e-03 5.556262e-02 3.594203e+00 2.027818e+00 8.199463e-01 2.073685e+00 1.473826e+00 6.019089e-01 8.898576e-01 1.765188e+00 -1.028808e+00 4.021101e-02 -1.068706e+00 -5.371588e-02 -1.240200e+00 7.556494e-02 4.608671e-03 -3.994851e-01 -4.938613e-01 -4.782575e-01 -1.913889e-01 2.907336e+00
<VARIANCE> 25
 1.897703e+01 2.944050e+01 3.749300e+01 3.170806e+01 2.703956e+01 2.659766e+01 2.663577e+01 2.555534e+01 2.200160e+01 1.974789e+01 1.681893e+01 1.572850e+01 2.443307e+00 3.570506e+00 3.745036e+00 3.115236e+00 4.571411e+00 3.674390e+00 3.286592e+00 3.199915e+00 3.096100e+00 2.349700e+00 2.032326e+00 1.843453e+00 2.755321e+00
<GCONST> 9.822238e+01
<STATE> 4
<MEAN> 25
 5.176690e+00 1.157645e+00 -1.488065e+00 -2.820636e+00 -1.278942e+00 -5.157562e-01 5.626150e-01 4.191951e-01 5.586421e-01 -7.193927e-01 -1.273285e+00 -1.231566e-01 2.950639e+00 -2.090072e-01 -1.097889e+00 -1.007010e+00 -7.686905e-01 -2.226063e+00 -1.336651e+00 -5.428960e-01 -8.846589e-01 -9.306594e-01 -6.750229e-01 -2.558869e-01 2.670755e+00
<VARIANCE> 25
 3.736500e+01 4.107451e+01 4.575256e+01 4.207091e+01 4.778902e+01 4.715288e+01 3.255062e+01 3.267081e+01 3.013973e+01 2.514127e+01 1.985579e+01 1.664416e+01 2.039635e+00 5.257606e+00 4.280380e+00 5.203839e+00 6.958500e+00 6.059873e+00 4.287543e+00 4.485157e+00 4.812220e+00 3.423693e+00 3.071751e+00 2.633017e+00 2.926000e+00
<GCONST> 1.061059e+02
~t "T_p"
<ENDHMM>
~h "p+i"
<BEGINHMM>
<NUMSTATES> 5
<STATE> 2
<MEAN> 25
 7.273674e-01 4.419045e+00 -1.642455e+00 1.125738e+00 -3.522553e-01 3.235282e+00 2.746772e-01 -5.568021e-02 1.165696e+00 4.750603e-01 9.688855e-02 3.759823e-01 -8.011376e-01 -8.197273e-02 6.961958e-03 -1.358314e-02 -1.177142e-01 3.702320e-01 1.830292e-01 5.311110e-02 2.254074e-01 2.447188e-01 2.399417e-01 2.407473e-01 -6.623852e-01
<VARIANCE> 25
 2.401776e+01 1.960782e+01 3.718217e+01 3.054975e+01 2.808158e+01 2.605350e+01 2.362480e+01 2.559509e+01 2.385701e+01 1.987996e+01 1.746951e+01 1.688129e+01 1.269404e+00 2.086987e+00 1.529043e+00 1.657745e+00 1.625266e+00 2.383349e+00 1.826928e+00 1.767557e+00 1.704675e+00 1.489995e+00 1.377780e+00 1.354460e+00 2.792160e+00
<GCONST> 9.099888e+01
<STATE> 3
<MEAN> 25
 -1.337869e+00 1.035469e+00 -7.838042e-01 -9.290963e-03 5.556262e-02 3.594203e+00 2.027818e+00 8.199463e-01 2.073685e+00 1.473826e+00 6.019089e-01 8.898576e-01 1.765188e+00 -1.028808e+00 4.021101e-02 -1.068706e+00 -5.371588e-02 -1.240200e+00 7.556494e-02 4.608671e-03 -3.994851e-01 -4.938613e-01 -4.782575e-01 -1.913889e-01 2.907336e+00
<VARIANCE> 25
 1.897703e+01 2.944050e+01 3.749300e+01 3.170806e+01 2.703956e+01 2.659766e+01 2.663577e+01 2.555534e+01 2.200160e+01 1.974789e+01 1.681893e+01 1.572850e+01 2.443307e+00 3.570506e+00 3.745036e+00 3.115236e+00 4.571411e+00 3.674390e+00 3.286592e+00 3.199915e+00 3.096100e+00 2.349700e+00 2.032326e+00 1.843453e+00 2.755321e+00
<GCONST> 9.822238e+01
<STATE> 4
<MEAN> 25
 5.176690e+00 1.157645e+00 -1.488065e+00 -2.820636e+00 -1.278942e+00 -5.157562e-01 5.626150e-01 4.191951e-01 5.586421e-01 -7.193927e-01 -1.273285e+00 -1.231566e-01 2.950639e+00 -2.090072e-01 -1.097889e+00 -1.007010e+00 -7.686905e-01 -2.226063e+00 -1.336651e+00 -5.428960e-01 -8.846589e-01 -9.306594e-01 -6.750229e-01 -2.558869e-01 2.670755e+00
<VARIANCE> 25
 3.736500e+01 4.107451e+01 4.575256e+01 4.207091e+01 4.778902e+01 4.715288e+01 3.255062e+01 3.267081e+01 3.013973e+01 2.514127e+01 1.985579e+01 1.664416e+01 2.039635e+00 5.257606e+00 4.280380e+00 5.203839e+00 6.958500e+00 6.059873e+00 4.287543e+00 4.485157e+00 4.812220e+00 3.423693e+00 3.071751e+00 2.633017e+00 2.926000e+00
<GCONST> 1.061059e+02
~t "T_p"
<ENDHMM>
~h "p+l"
<BEGINHMM>
<NUMSTATES> 5
<STATE> 2
<MEAN> 25
 7.273674e-01 4.419045e+00 -1.642455e+00 1.125738e+00 -3.522553e-01 3.235282e+00 2.746772e-01 -5.568021e-02 1.165696e+00 4.750603e-01 9.688855e-02 3.759823e-01 -8.011376e-01 -8.197273e-02 6.961958e-03 -1.358314e-02 -1.177142e-01 3.702320e-01 1.830292e-01 5.311110e-02 2.254074e-01 2.447188e-01 2.399417e-01 2.407473e-01 -6.623852e-01
<VARIANCE> 25
 2.401776e+01 1.960782e+01 3.718217e+01 3.054975e+01 2.808158e+01 2.605350e+01 2.362480e+01 2.559509e+01 2.385701e+01 1.987996e+01 1.746951e+01 1.688129e+01 1.269404e+00 2.086987e+00 1.529043e+00 1.657745e+00 1.625266e+00 2.383349e+00 1.826928e+00 1.767557e+00 1.704675e+00 1.489995e+00 1.377780e+00 1.354460e+00 2.792160e+00
<GCONST> 9.099888e+01
<STATE> 3
<MEAN> 25
 -1.337869e+00 1.035469e+00 -7.838042e-01 -9.290963e-03 5.556262e-02 3.594203e+00 2.027818e+00 8.199463e-01 2.073685e+00 1.473826e+00 6.019089e-01 8.898576e-01 1.765188e+00 -1.028808e+00 4.021101e-02 -1.068706e+00 -5.371588e-02 -1.240200e+00 7.556494e-02 4.608671e-03 -3.994851e-01 -4.938613e-01 -4.782575e-01 -1.913889e-01 2.907336e+00
<VARIANCE> 25
 1.897703e+01 2.944050e+01 3.749300e+01 3.170806e+01 2.703956e+01 2.659766e+01 2.663577e+01 2.555534e+01 2.200160e+01 1.974789e+01 1.681893e+01 1.572850e+01 2.443307e+00 3.570506e+00 3.745036e+00 3.115236e+00 4.571411e+00 3.674390e+00 3.286592e+00 3.199915e+00 3.096100e+00 2.349700e+00 2.032326e+00 1.843453e+00 2.755321e+00
<GCONST> 9.822238e+01
<STATE> 4
<MEAN> 25
 5.176690e+00 1.157645e+00 -1.488065e+00 -2.820636e+00 -1.278942e+00 -5.157562e-01 5.626150e-01 4.191951e-01 5.586421e-01 -7.193927e-01 -1.273285e+00 -1.231566e-01 2.950639e+00 -2.090072e-01 -1.097889e+00 -1.007010e+00 -7.686905e-01 -2.226063e+00 -1.336651e+00 -5.428960e-01 -8.846589e-01 -9.306594e-01 -6.750229e-01 -2.558869e-01 2.670755e+00
<VARIANCE> 25
 3.736500e+01 4.107451e+01 4.575256e+01 4.207091e+01 4.778902e+01 4.715288e+01 3.255062e+01 3.267081e+01 3.013973e+01 2.514127e+01 1.985579e+01 1.664416e+01 2.039635e+00 5.257606e+00 4.280380e+00 5.203839e+00 6.958500e+00 6.059873e+00 4.287543e+00 4.485157e+00 4.812220e+00 3.423693e+00 3.071751e+00 2.633017e+00 2.926000e+00
<GCONST> 1.061059e+02
~t "T_p"
<ENDHMM>
~h "p+o"
<BEGINHMM>
<NUMSTATES> 5
<STATE> 2
<MEAN> 25
 7.273674e-01 4.419045e+00 -1.642455e+00 1.125738e+00 -3.522553e-01 3.235282e+00 2.746772e-01 -5.568021e-02 1.165696e+00 4.750603e-01 9.688855e-02 3.759823e-01 -8.011376e-01 -8.197273e-02 6.961958e-03 -1.358314e-02 -1.177142e-01 3.702320e-01 1.830292e-01 5.311110e-02 2.254074e-01 2.447188e-01 2.399417e-01 2.407473e-01 -6.623852e-01
<VARIANCE> 25
 2.401776e+01 1.960782e+01 3.718217e+01 3.054975e+01 2.808158e+01 2.605350e+01 2.362480e+01 2.559509e+01 2.385701e+01 1.987996e+01 1.746951e+01 1.688129e+01 1.269404e+00 2.086987e+00 1.529043e+00 1.657745e+00 1.625266e+00 2.383349e+00 1.826928e+00 1.767557e+00 1.704675e+00 1.489995e+00 1.377780e+00 1.354460e+00 2.792160e+00
<GCONST> 9.099888e+01
<STATE> 3
<MEAN> 25
 -1.337869e+00 1.035469e+00 -7.838042e-01 -9.290963e-03 5.556262e-02 3.594203e+00 2.027818e+00 8.199463e-01 2.073685e+00 1.473826e+00 6.019089e-01 8.898576e-01 1.765188e+00 -1.028808e+00 4.021101e-02 -1.068706e+00 -5.371588e-02 -1.240200e+00 7.556494e-02 4.608671e-03 -3.994851e-01 -4.938613e-01 -4.782575e-01 -1.913889e-01 2.907336e+00
<VARIANCE> 25
 1.897703e+01 2.944050e+01 3.749300e+01 3.170806e+01 2.703956e+01 2.659766e+01 2.663577e+01 2.555534e+01 2.200160e+01 1.974789e+01 1.681893e+01 1.572850e+01 2.443307e+00 3.570506e+00 3.745036e+00 3.115236e+00 4.571411e+00 3.674390e+00 3.286592e+00 3.199915e+00 3.096100e+00 2.349700e+00 2.032326e+00 1.843453e+00 2.755321e+00
<GCONST> 9.822238e+01
<STATE> 4
<MEAN> 25
 5.176690e+00 1.157645e+00 -1.488065e+00 -2.820636e+00 -1.278942e+00 -5.157562e-01 5.626150e-01 4.191951e-01 5.586421e-01 -7.193927e-01 -1.273285e+00 -1.231566e-01 2.950639e+00 -2.090072e-01 -1.097889e+00 -1.007010e+00 -7.686905e-01 -2.226063e+00 -1.336651e+00 -5.428960e-01 -8.846589e-01 -9.306594e-01 -6.750229e-01 -2.558869e-01 2.670755e+00
<VARIANCE> 25
 3.736500e+01 4.107451e+01 4.575256e+01 4.207091e+01 4.778902e+01 4.715288e+01 3.255062e+01 3.267081e+01 3.013973e+01 2.514127e+01 1.985579e+01 1.664416e+01 2.039635e+00 5.257606e+00 4.280380e+00 5.203839e+00 6.958500e+00 6.059873e+00 4.287543e+00 4.485157e+00 4.812220e+00 3.423693e+00 3.071751e+00 2.633017e+00 2.926000e+00
<GCONST> 1.061059e+02
~t "T_p"
<ENDHMM>
~h "p+r"
<BEGINHMM>
<NUMSTATES> 5
<STATE> 2
<MEAN> 25
 7.273674e-01 4.419045e+00 -1.642455e+00 1.125738e+00 -3.522553e-01 3.235282e+00 2.746772e-01 -5.568021e-02 1.165696e+00 4.750603e-01 9.688855e-02 3.759823e-01 -8.011376e-01 -8.197273e-02 6.961958e-03 -1.358314e-02 -1.177142e-01 3.702320e-01 1.830292e-01 5.311110e-02 2.254074e-01 2.447188e-01 2.399417e-01 2.407473e-01 -6.623852e-01
<VARIANCE> 25
 2.401776e+01 1.960782e+01 3.718217e+01 3.054975e+01 2.808158e+01 2.605350e+01 2.362480e+01 2.559509e+01 2.385701e+01 1.987996e+01 1.746951e+01 1.688129e+01 1.269404e+00 2.086987e+00 1.529043e+00 1.657745e+00 1.625266e+00 2.383349e+00 1.826928e+00 1.767557e+00 1.704675e+00 1.489995e+00 1.377780e+00 1.354460e+00 2.792160e+00
<GCONST> 9.099888e+01
<STATE> 3
<MEAN> 25
 -1.337869e+00 1.035469e+00 -7.838042e-01 -9.290963e-03 5.556262e-02 3.594203e+00 2.027818e+00 8.199463e-01 2.073685e+00 1.473826e+00 6.019089e-01 8.898576e-01 1.765188e+00 -1.028808e+00 4.021101e-02 -1.068706e+00 -5.371588e-02 -1.240200e+00 7.556494e-02 4.608671e-03 -3.994851e-01 -4.938613e-01 -4.782575e-01 -1.913889e-01 2.907336e+00
<VARIANCE> 25
 1.897703e+01 2.944050e+01 3.749300e+01 3.170806e+01 2.703956e+01 2.659766e+01 2.663577e+01 2.555534e+01 2.200160e+01 1.974789e+01 1.681893e+01 1.572850e+01 2.443307e+00 3.570506e+00 3.745036e+00 3.115236e+00 4.571411e+00 3.674390e+00 3.286592e+00 3.199915e+00 3.096100e+00 2.349700e+00 2.032326e+00 1.843453e+00 2.755321e+00
<GCONST> 9.822238e+01
<STATE> 4
<MEAN> 25
 5.176690e+00 1.157645e+00 -1.488065e+00 -2.820636e+00 -1.278942e+00 -5.157562e-01 5.626150e-01 4.191951e-01 5.586421e-01 -7.193927e-01 -1.273285e+00 -1.231566e-01 2.950639e+00 -2.090072e-01 -1.097889e+00 -1.007010e+00 -7.686905e-01 -2.226063e+00 -1.336651e+00 -5.428960e-01 -8.846589e-01 -9.306594e-01 -6.750229e-01 -2.558869e-01 2.670755e+00
<VARIANCE> 25
 3.736500e+01 4.107451e+01 4.575256e+01 4.207091e+01 4.778902e+01 4.715288e+01 3.255062e+01 3.267081e+01 3.013973e+01 2.514127e+01 1.985579e+01 1.664416e+01 2.039635e+00 5.257606e+00 4.280380e+00 5.203839e+00 6.958500e+00 6.059873e+00 4.287543e+00 4.485157e+00 4.812220e+00 3.423693e+00 3.071751e+00 2.633017e+00 2.926000e+00
<GCONST> 1.061059e+02
~t "T_p"
<ENDHMM>
~h "p+u"
<BEGINHMM>
<NUMSTATES> 5
<STATE> 2
<MEAN> 25
 7.273674e-01 4.419045e+00 -1.642455e+00 1.125738e+00 -3.522553e-01 3.235282e+00 2.746772e-01 -5.568021e-02 1.165696e+00 4.750603e-01 9.688855e-02 3.759823e-01 -8.011376e-01 -8.197273e-02 6.961958e-03 -1.358314e-02 -1.177142e-01 3.702320e-01 1.830292e-01 5.311110e-02 2.254074e-01 2.447188e-01 2.399417e-01 2.407473e-01 -6.623852e-01
<VARIANCE> 25
 2.401776e+01 1.960782e+01 3.718217e+01 3.054975e+01 2.808158e+01 2.605350e+01 2.362480e+01 2.559509e+01 2.385701e+01 1.987996e+01 1.746951e+01 1.688129e+01 1.269404e+00 2.086987e+00 1.529043e+00 1.657745e+00 1.625266e+00 2.383349e+00 1.826928e+00 1.767557e+00 1.704675e+00 1.489995e+00 1.377780e+00 1.354460e+00 2.792160e+00
<GCONST> 9.099888e+01
<STATE> 3
<MEAN> 25
 -1.337869e+00 1.035469e+00 -7.838042e-01 -9.290963e-03 5.556262e-02 3.594203e+00 2.027818e+00 8.199463e-01 2.073685e+00 1.473826e+00 6.019089e-01 8.898576e-01 1.765188e+00 -1.028808e+00 4.021101e-02 -1.068706e+00 -5.371588e-02 -1.240200e+00 7.556494e-02 4.608671e-03 -3.994851e-01 -4.938613e-01 -4.782575e-01 -1.913889e-01 2.907336e+00
<VARIANCE> 25
 1.897703e+01 2.944050e+01 3.749300e+01 3.170806e+01 2.703956e+01 2.659766e+01 2.663577e+01 2.555534e+01 2.200160e+01 1.974789e+01 1.681893e+01 1.572850e+01 2.443307e+00 3.570506e+00 3.745036e+00 3.115236e+00 4.571411e+00 3.674390e+00 3.286592e+00 3.199915e+00 3.096100e+00 2.349700e+00 2.032326e+00 1.843453e+00 2.755321e+00
<GCONST> 9.822238e+01
<STATE> 4
<MEAN> 25
 5.176690e+00 1.157645e+00 -1.488065e+00 -2.820636e+00 -1.278942e+00 -5.157562e-01 5.626150e-01 4.191951e-01 5.586421e-01 -7.193927e-01 -1.273285e+00 -1.231566e-01 2.950639e+00 -2.090072e-01 -1.097889e+00 -1.007010e+00 -7.686905e-01 -2.226063e+00 -1.336651e+00 -5.428960e-01 -8.846589e-01 -9.306594e-01 -6.750229e-01 -2.558869e-01 2.670755e+00
<VARIANCE> 25
 3.736500e+01 4.107451e+01 4.575256e+01 4.207091e+01 4.778902e+01 4.715288e+01 3.255062e+01 3.267081e+01 3.013973e+01 2.514127e+01 1.985579e+01 1.664416e+01 2.039635e+00 5.257606e+00 4.280380e+00 5.203839e+00 6.958500e+00 6.059873e+00 4.287543e+00 4.485157e+00 4.812220e+00 3.423693e+00 3.071751e+00 2.633017e+00 2.926000e+00
<GCONST> 1.061059e+02
~t "T_p"
<ENDHMM>
~h "p-a"
<BEGINHMM>
<NUMSTATES> 5
<STATE> 2
<MEAN> 25
 8.084209e+00 -3.246555e+00 -4.886938e+00 -2.890126e+00 -1.922659e+00 -4.591505e+00 -1.062124e+00 -1.533606e+00 -3.011539e+00 -1.419097e+00 7.822737e-01 1.974153e+00 8.531939e-01 -1.219489e+00 -1.591901e+00 -1.511451e+00 -1.099942e+00 -1.081241e+00 3.296968e-01 2.435892e-01 2.131322e-01 7.433307e-01 1.096173e+00 1.076555e+00 1.531909e+00
<VARIANCE> 25
 3.102556e+01 3.982352e+01 4.648204e+01 6.052976e+01 4.865224e+01 5.364120e+01 4.957391e+01 5.206113e+01 4.994263e+01 4.377484e+01 3.566540e+01 3.010361e+01 2.105191e+00 2.133569e+00 2.607650e+00 3.361774e+00 2.917656e+00 3.954443e+00 3.398865e+00 3.319243e+00 3.668817e+00 4.076825e+00 3.093344e+00 2.673295e+00 1.675560e+00
<GCONST> 1.052759e+02
<STATE> 3
<MEAN> 25
 9.462610e+00 -6.897775e+00 -8.743549e+00 -6.083593e+00 -4.604442e+00 -5.470979e+00 1.397076e+00 -2.830499e-01 -1.629562e+00 7.007640e-01 2.659651e+00 3.340820e+00 3.290816e-02 -1.735238e-01 -3.625012e-01 -3.627358e-01 -1.769637e-01 2.254089e-01 4.766614e-01 2.827543e-01 2.371980e-01 1.767752e-01 8.445666e-02 6.974697e-02 8.193482e-02
<VARIANCE> 25
 2.840129e+01 3.570125e+01 4.138834e+01 4.038225e+01 4.118876e+01 4.148624e+01 4.739182e+01 4.747406e+01 4.473821e+01 4.189992e+01 3.449903e+01 2.805832e+01 3.302394e-01 8.424883e-01 9.393210e-01 1.242460e+00 1.324397e+00 1.496400e+00 1.901740e+00 1.780651e+00 1.803969e+00 1.726919e+00 1.430944e+00 1.179275e+00 3.783611e-01
<GCONST> 9.133002e+01
<STATE> 4
<MEAN> 25
 8.177530e+00 -2.680661e+00 -7.293503e+00 -5.932261e+00 -3.758124e+00 -2.794274e+00 1.176165e+00 -3.390664e-01 -1.368642e+00 2.573896e-01 2.133668e+00 3.287408e+00 -4.538044e-01 8.704351e-01 7.276899e-01 4.679444e-01 4.150407e-01 5.706517e-01 -1.937626e-01 -1.382255e-01 1.753797e-02 -1.629017e-01 -2.942949e-01 -3.140077e-01 -8.826797e-01
<VARIANCE> 25
 2.215926e+01 3.099335e+01 3.486272e+01 3.668752e+01 3.283007e+01 3.965223e+01 3.500597e+01 3.826480e+01 3.512437e+01 3.170736e+01 2.563973e+01 2.200531e+01 5.861269e-01 9.910762e-01 1.080531e+00 1.252255e+00 1.395680e+00 1.835312e+00 1.787168e+00 1.826652e+00 1.993582e+00 1.853269e+00 1.609923e+00 1.318195e+00 6.483233e-01
<GCONST> 9.086413e+01
~t "T_a"
<ENDHMM>
~h "p-e"
<BEGINHMM>
<NUMSTATES> 5
<STATE> 2
<MEAN> 25
 4.917822e+00 -3.046909e+00 -7.860230e-01 1.961976e+00 3.296882e+00 -3.095960e+00 -4.445966e+00 -4.378197e+00 -4.194638e+00 -1.446952e+00 1.146220e-01 1.648807e-01 1.062938e+00 -1.285595e+00 -6.981800e-01 4.423747e-01 5.001229e-01 -1.895295e+00 -1.787762e+00 -1.308817e+00 -1.084860e+00 1.344622e-01 6.617222e-01 3.701210e-01 1.670173e+00
<VARIANCE> 25
 3.577217e+01 3.706077e+01 4.774310e+01 6.015227e+01 4.925949e+01 6.036604e+01 5.010396e+01 4.977269e+01 4.858726e+01 3.950971e+01 3.013842e+01 2.473536e+01 2.384392e+00 2.958043e+00 2.685448e+00 3.858023e+00 3.340221e+00 5.064232e+00 4.063103e+00 3.681123e+00 4.037725e+00 4.174648e+00 3.332788e+00 2.898063e+00 2.226966e+00
<GCONST> 1.068105e+02
<STATE> 3
<MEAN> 25
 7.191195e+00 -7.001473e+00 -2.328277e+00 2.836691e+00 3.888689e+00 -7.911126e+00 -8.482172e+00 -6.657192e+00 -5.470276e+00 -1.285404e-01 1.987994e+00 7.147580e-01 8.514885e-02 -4.249433e-01 -1.496204e-01 2.818093e-01 1.203487e-01 -6.073316e-01 -4.420330e-01 -1.406531e-01 1.603031e-01 5.093133e-01 3.347531e-01 -4.041983e-02 2.952766e-01
<VARIANCE> 25
 2.837927e+01 3.550758e+01 4.376701e+01 6.339727e+01 5.782299e+01 6.153004e+01 4.445435e+01 4.665985e+01 4.438187e+01 4.603452e+01 3.686113e+01 3.249733e+01 5.579238e-01 9.633060e-01 1.396090e+00 1.826277e+00 1.583154e+00 2.003756e+00 1.982185e+00 1.856537e+00 2.013892e+00 2.006657e+00 1.751121e+00 1.508502e+00 5.828047e-01
<GCONST> 9.591582e+01
<STATE> 4
<MEAN> 25
 5.895019e+00 -4.724988e+00 -1.197292e+00 3.906052e+00 3.870449e+00 -6.545651e+00 -8.215060e+00 -6.679025e+00 -4.172563e+00 5.337154e-01 9.279272e-01 -6.742178e-01 -3.232698e-01 7.992764e-01 3.300467e-01 -6.339286e-02 7.912491e-02 1.004552e+00 6.088396e-01 3.772415e-01 3.436322e-01 -1.313366e-01 -2.720630e-01 -1.298955e-01 -7.956876e-01
<VARIANCE> 25
 2.029749e+01 3.066547e+01 3.368494e+01 5.057070e+01 4.296806e+01 5.593891e+01 3.659196e+01 3.710094e+01 4.034227e+01 3.575679e+01 3.262199e+01 2.925796e+01 5.569103e-01 1.011105e+00 1.171097e+00 1.448238e+00 1.440968e+00 2.011663e+00 1.814593e+00 1.739066e+00 1.905525e+00 1.867028e+00 1.539982e+00 1.274082e+00 7.538318e-01
<GCONST> 9.278246e+01
~t "T_e"
<ENDHMM>
~h "p-o"
<BEGINHMM>
<NUMSTATES> 5
<STATE> 2
<MEAN> 25
 8.202134e+00 8.756948e-01 -1.556870e+00 -2.412576e+00 -4.135490e+00 -5.283045e+00 -1.325630e+00 5.514442e-01 -3.256593e+00 -4.464030e+00 -3.179199e+00 -1.018459e+00 8.533680e-01 5.628624e-02 -4.272498e-01 -1.163086e+00 -1.742013e+00 -1.833407e+00 -1.006363e-01 8.327968e-01 2.565329e-01 -1.784475e-01 -2.551433e-01 1.000556e-01 7.841955e-01
<VARIANCE> 25
 2.727819e+01 4.614404e+01 4.546624e+01 5.624189e+01 6.257309e+01 6.102062e+01 4.518742e+01 4.939813e+01 5.469617e+01 4.219932e+01 3.056493e+01 2.847985e+01 1.604221e+00 2.714622e+00 2.414845e+00 3.306103e+00 3.399673e+00 4.293542e+00 4.410888e+00 3.910635e+00 3.812121e+00 3.509329e+00 2.851977e+00 2.694980e+00 1.552250e+00
<GCONST> 1.055529e+02
<STATE> 3
<MEAN> 25
 9.608891e+00 1.841884e+00 -1.624231e+00 -4.843653e+00 -1.056682e+01 -1.047259e+01 -3.275502e-01 4.228262e+00 -8.981493e-01 -3.707518e+00 -3.771726e+00 -1.847208e+00 -1.603226e-01 3.746803e-01 2.492852e-02 -5.283350e-02 -1.316152e-01 2.060792e-01 2.320018e-01 3.473101e-01 4.636069e-01 2.421327e-01 -1.011645e-03 -9.001540e-02 -4.208844e-01
<VARIANCE> 25
 2.191664e+01 3.832346e+01 3.536129e+01 4.552036e+01 5.146196e+01 5.402416e+01 4.532333e+01 4.316967e+01 5.194213e+01 3.791486e+01 2.724122e+01 2.477335e+01 5.759985e-01 1.296905e+00 1.329783e+00 1.436117e+00 2.015944e+00 2.854960e+00 1.984985e+00 2.227589e+00 2.343580e+00 2.045362e+00 1.638120e+00 1.449960e+00 1.066268e+00
<GCONST> 9.576168e+01
<STATE> 4
<MEAN> 25
 5.920141e+00 4.729104e+00 -6.619071e-01 -3.592440e+00 -6.668617e+00 -4.437122e+00 3.776827e-01 3.175261e+00 9.050462e-01 -1.454790e+00 -2.326509e+00 -1.249121e+00 -6.257654e-01 -3.906129e-02 1.678127e-01 4.218079e-01 7.039407e-01 9.980335e-01 2.885799e-01 -2.038472e-01 -1.773957e-02 1.877047e-01 2.155907e-01 8.154663e-02 -5.345345e-01
<VARIANCE> 25
 2.381943e+01 3.168683e+01 3.073319e+01 3.372535e+01 3.205265e+01 4.222814e+01 3.201194e+01 3.300840e+01 3.498757e+01 3.150789e+01 2.243595e+01 1.901501e+01 4.852379e-01 7.335701e-01 1.011674e+00 1.084659e+00 1.496157e+00 1.967000e+00 1.648281e+00 1.688958e+00 1.686677e+00 1.518985e+00 1.305284e+00 1.193857e+00 3.831035e-01
<GCONST> 8.833953e+01
~t "T_o"
<ENDHMM>
~h "m-o+b"
<BEGINHMM>
<NUMSTATES> 5
<STATE> 2
<MEAN> 25
 8.202134e+00 8.756948e-01 -1.556870e+00 -2.412576e+00 -4.135490e+00 -5.283045e+00 -1.325630e+00 5.514442e-01 -3.256593e+00 -4.464030e+00 -3.179199e+00 -1.018459e+00 8.533680e-01 5.628624e-02 -4.272498e-01 -1.163086e+00 -1.742013e+00 -1.833407e+00 -1.006363e-01 8.327968e-01 2.565329e-01 -1.784475e-01 -2.551433e-01 1.000556e-01 7.841955e-01
<VARIANCE> 25
 2.727819e+01 4.614404e+01 4.546624e+01 5.624189e+01 6.257309e+01 6.102062e+01 4.518742e+01 4.939813e+01 5.469617e+01 4.219932e+01 3.056493e+01 2.847985e+01 1.604221e+00 2.714622e+00 2.414845e+00 3.306103e+00 3.399673e+00 4.293542e+00 4.410888e+00 3.910635e+00 3.812121e+00 3.509329e+00 2.851977e+00 2.694980e+00 1.552250e+00
<GCONST> 1.055529e+02
<STATE> 3
<MEAN> 25
 9.608891e+00 1.841884e+00 -1.624231e+00 -4.843653e+00 -1.056682e+01 -1.047259e+01 -3.275502e-01 4.228262e+00 -8.981493e-01 -3.707518e+00 -3.771726e+00 -1.847208e+00 -1.603226e-01 3.746803e-01 2.492852e-02 -5.283350e-02 -1.316152e-01 2.060792e-01 2.320018e-01 3.473101e-01 4.636069e-01 2.421327e-01 -1.011645e-03 -9.001540e-02 -4.208844e-01
<VARIANCE> 25
 2.191664e+01 3.832346e+01 3.536129e+01 4.552036e+01 5.146196e+01 5.402416e+01 4.532333e+01 4.316967e+01 5.194213e+01 3.791486e+01 2.724122e+01 2.477335e+01 5.759985e-01 1.296905e+00 1.329783e+00 1.436117e+00 2.015944e+00 2.854960e+00 1.984985e+00 2.227589e+00 2.343580e+00 2.045362e+00 1.638120e+00 1.449960e+00 1.066268e+00
<GCONST> 9.576168e+01
<STATE> 4
<MEAN> 25
 5.920141e+00 4.729104e+00 -6.619071e-01 -3.592440e+00 -6.668617e+00 -4.437122e+00 3.776827e-01 3.175261e+00 9.050462e-01 -1.454790e+00 -2.326509e+00 -1.249121e+00 -6.257654e-01 -3.906129e-02 1.678127e-01 4.218079e-01 7.039407e-01 9.980335e-01 2.885799e-01 -2.038472e-01 -1.773957e-02 1.877047e-01 2.155907e-01 8.154663e-02 -5.345345e-01
<VARIANCE> 25
 2.381943e+01 3.168683e+01 3.073319e+01 3.372535e+01 3.205265e+01 4.222814e+01 3.201194e+01 3.300840e+01 3.498757e+01 3.150789e+01 2.243595e+01 1.901501e+01 4.852379e-01 7.335701e-01 1.011674e+00 1.084659e+00 1.496157e+00 1.967000e+00 1.648281e+00 1.688958e+00 1.686677e+00 1.518985e+00 1.305284e+00 1.193857e+00 3.831035e-01
<GCONST> 8.833953e+01
~t "T_o"
<ENDHMM>
~h "m-o+l"
<BEGINHMM>
<NUMSTATES> 5
<STATE> 2
<MEAN> 25
 8.202134e+00 8.756948e-01 -1.556870e+00 -2.412576e+00 -4.135490e+00 -5.283045e+00 -1.325630e+00 5.514442e-01 -3.256593e+00 -4.464030e+00 -3.179199e+00 -1.018459e+00 8.533680e-01 5.628624e-02 -4.272498e-01 -1.163086e+00 -1.742013e+00 -1.833407e+00 -1.006363e-01 8.327968e-01 2.565329e-01 -1.784475e-01 -2.551433e-01 1.000556e-01 7.841955e-01
<VARIANCE> 25
 2.727819e+01 4.614404e+01 4.546624e+01 5.624189e+01 6.257309e+01 6.102062e+01 4.518742e+01 4.939813e+01 5.469617e+01 4.219932e+01 3.056493e+01 2.847985e+01 1.604221e+00 2.714622e+00 2.414845e+00 3.306103e+00 3.399673e+00 4.293542e+00 4.410888e+00 3.910635e+00 3.812121e+00 3.509329e+00 2.851977e+00 2.694980e+00 1.552250e+00
<GCONST> 1.055529e+02
<STATE> 3
<MEAN> 25
 9.608891e+00 1.841884e+00 -1.624231e+00 -4.843653e+00 -1.056682e+01 -1.047259e+01 -3.275502e-01 4.228262e+00 -8.981493e-01 -3.707518e+00 -3.771726e+00 -1.847208e+00 -1.603226e-01 3.746803e-01 2.492852e-02 -5.283350e-02 -1.316152e-01 2.060792e-01 2.320018e-01 3.473101e-01 4.636069e-01 2.421327e-01 -1.011645e-03 -9.001540e-02 -4.208844e-01
<VARIANCE> 25
 2.191664e+01 3.832346e+01 3.536129e+01 4.552036e+01 5.146196e+01 5.402416e+01 4.532333e+01 4.316967e+01 5.194213e+01 3.791486e+01 2.724122e+01 2.477335e+01 5.759985e-01 1.296905e+00 1.329783e+00 1.436117e+00 2.015944e+00 2.854960e+00 1.984985e+00 2.227589e+00 2.343580e+00 2.045362e+00 1.638120e+00 1.449960e+00 1.066268e+00
<GCONST> 9.576168e+01
<STATE> 4
<MEAN> 25
 5.920141e+00 4.729104e+00 -6.619071e-01 -3.592440e+00 -6.668617e+00 -4.437122e+00 3.776827e-01 3.175261e+00 9.050462e-01 -1.454790e+00 -2.326509e+00 -1.249121e+00 -6.257654e-01 -3.906129e-02 1.678127e-01 4.218079e-01 7.039407e-01 9.980335e-01 2.885799e-01 -2.038472e-01 -1.773957e-02 1.877047e-01 2.155907e-01 8.154663e-02 -5.345345e-01
<VARIANCE> 25
 2.381943e+01 3.168683e+01 3.073319e+01 3.372535e+01 3.205265e+01 4.222814e+01 3.201194e+01 3.300840e+01 3.498757e+01 3.150789e+01 2.243595e+01 1.901501e+01 4.852379e-01 7.335701e-01 1.011674e+00 1.084659e+00 1.496157e+00 1.967000e+00 1.648281e+00 1.688958e+00 1.686677e+00 1.518985e+00 1.305284e+00 1.193857e+00 3.831035e-01
<GCONST> 8.833953e+01
~t "T_o"
<ENDHMM>
~h "m-o+n"
<BEGINHMM>
<NUMSTATES> 5
<STATE> 2
<MEAN> 25
 8.202134e+00 8.756948e-01 -1.556870e+00 -2.412576e+00 -4.135490e+00 -5.283045e+00 -1.325630e+00 5.514442e-01 -3.256593e+00 -4.464030e+00 -3.179199e+00 -1.018459e+00 8.533680e-01 5.628624e-02 -4.272498e-01 -1.163086e+00 -1.742013e+00 -1.833407e+00 -1.006363e-01 8.327968e-01 2.565329e-01 -1.784475e-01 -2.551433e-01 1.000556e-01 7.841955e-01
<VARIANCE> 25
 2.727819e+01 4.614404e+01 4.546624e+01 5.624189e+01 6.257309e+01 6.102062e+01 4.518742e+01 4.939813e+01 5.469617e+01 4.219932e+01 3.056493e+01 2.847985e+01 1.604221e+00 2.714622e+00 2.414845e+00 3.306103e+00 3.399673e+00 4.293542e+00 4.410888e+00 3.910635e+00 3.812121e+00 3.509329e+00 2.851977e+00 2.694980e+00 1.552250e+00
<GCONST> 1.055529e+02
<STATE> 3
<MEAN> 25
 9.608891e+00 1.841884e+00 -1.624231e+00 -4.843653e+00 -1.056682e+01 -1.047259e+01 -3.275502e-01 4.228262e+00 -8.981493e-01 -3.707518e+00 -3.771726e+00 -1.847208e+00 -1.603226e-01 3.746803e-01 2.492852e-02 -5.283350e-02 -1.316152e-01 2.060792e-01 2.320018e-01 3.473101e-01 4.636069e-01 2.421327e-01 -1.011645e-03 -9.001540e-02 -4.208844e-01
<VARIANCE> 25
 2.191664e+01 3.832346e+01 3.536129e+01 4.552036e+01 5.146196e+01 5.402416e+01 4.532333e+01 4.316967e+01 5.194213e+01 3.791486e+01 2.724122e+01 2.477335e+01 5.759985e-01 1.296905e+00 1.329783e+00 1.436117e+00 2.015944e+00 2.854960e+00 1.984985e+00 2.227589e+00 2.343580e+00 2.045362e+00 1.638120e+00 1.449960e+00 1.066268e+00
<GCONST> 9.576168e+01
<STATE> 4
<MEAN> 25
 5.920141e+00 4.729104e+00 -6.619071e-01 -3.592440e+00 -6.668617e+00 -4.437122e+00 3.776827e-01 3.175261e+00 9.050462e-01 -1.454790e+00 -2.326509e+00 -1.249121e+00 -6.257654e-01 -3.906129e-02 1.678127e-01 4.218079e-01 7.039407e-01 9.980335e-01 2.885799e-01 -2.038472e-01 -1.773957e-02 1.877047e-01 2.155907e-01 8.154663e-02 -5.345345e-01
<VARIANCE> 25
 2.381943e+01 3.168683e+01 3.073319e+01 3.372535e+01 3.205265e+01 4.222814e+01 3.201194e+01 3.300840e+01 3.498757e+01 3.150789e+01 2.243595e+01 1.901501e+01 4.852379e-01 7.335701e-01 1.011674e+00 1.084659e+00 1.496157e+00 1.967000e+00 1.648281e+00 1.688958e+00 1.686677e+00 1.518985e+00 1.305284e+00 1.193857e+00 3.831035e-01
<GCONST> 8.833953e+01
~t "T_o"
<ENDHMM>
~h "m-o+s"
<BEGINHMM>
<NUMSTATES> 5
<STATE> 2
<MEAN> 25
 8.202134e+00 8.756948e-01 -1.556870e+00 -2.412576e+00 -4.135490e+00 -5.283045e+00 -1.325630e+00 5.514442e-01 -3.256593e+00 -4.464030e+00 -3.179199e+00 -1.018459e+00 8.533680e-01 5.628624e-02 -4.272498e-01 -1.163086e+00 -1.742013e+00 -1.833407e+00 -1.006363e-01 8.327968e-01 2.565329e-01 -1.784475e-01 -2.551433e-01 1.000556e-01 7.841955e-01
<VARIANCE> 25
 2.727819e+01 4.614404e+01 4.546624e+01 5.624189e+01 6.257309e+01 6.102062e+01 4.518742e+01 4.939813e+01 5.469617e+01 4.219932e+01 3.056493e+01 2.847985e+01 1.604221e+00 2.714622e+00 2.414845e+00 3.306103e+00 3.399673e+00 4.293542e+00 4.410888e+00 3.910635e+00 3.812121e+00 3.509329e+00 2.851977e+00 2.694980e+00 1.552250e+00
<GCONST> 1.055529e+02
<STATE> 3
<MEAN> 25
 9.608891e+00 1.841884e+00 -1.624231e+00 -4.843653e+00 -1.056682e+01 -1.047259e+01 -3.275502e-01 4.228262e+00 -8.981493e-01 -3.707518e+00 -3.771726e+00 -1.847208e+00 -1.603226e-01 3.746803e-01 2.492852e-02 -5.283350e-02 -1.316152e-01 2.060792e-01 2.320018e-01 3.473101e-01 4.636069e-01 2.421327e-01 -1.011645e-03 -9.001540e-02 -4.208844e-01
<VARIANCE> 25
 2.191664e+01 3.832346e+01 3.536129e+01 4.552036e+01 5.146196e+01 5.402416e+01 4.532333e+01 4.316967e+01 5.194213e+01 3.791486e+01 2.724122e+01 2.477335e+01 5.759985e-01 1.296905e+00 1.329783e+00 1.436117e+00 2.015944e+00 2.854960e+00 1.984985e+00 2.227589e+00 2.343580e+00 2.045362e+00 1.638120e+00 1.449960e+00 1.066268e+00
<GCONST> 9.576168e+01
<STATE> 4
<MEAN> 25
 5.920141e+00 4.729104e+00 -6.619071e-01 -3.592440e+00 -6.668617e+00 -4.437122e+00 3.776827e-01 3.175261e+00 9.050462e-01 -1.454790e+00 -2.326509e+00 -1.249121e+00 -6.257654e-01 -3.906129e-02 1.678127e-01 4.218079e-01 7.039407e-01 9.980335e-01 2.885799e-01 -2.038472e-01 -1.773957e-02 1.877047e-01 2.155907e-01 8.154663e-02 -5.345345e-01
<VARIANCE> 25
 2.381943e+01 3.168683e+01 3.073319e+01 3.372535e+01 3.205265e+01 4.222814e+01 3.201194e+01 3.300840e+01 3.498757e+01 3.150789e+01 2.243595e+01 1.901501e+01 4.852379e-01 7.335701e-01 1.011674e+00 1.084659e+00 1.496157e+00 1.967000e+00 1.648281e+00 1.688958e+00 1.686677e+00 1.518985e+00 1.305284e+00 1.193857e+00 3.831035e-01
<GCONST> 8.833953e+01
~t "T_o"
<ENDHMM>
~h "m-o+t"
<BEGINHMM>
<NUMSTATES> 5
<STATE> 2
<MEAN> 25
 8.202134e+00 8.756948e-01 -1.556870e+00 -2.412576e+00 -4.135490e+00 -5.283045e+00 -1.325630e+00 5.514442e-01 -3.256593e+00 -4.464030e+00 -3.179199e+00 -1.018459e+00 8.533680e-01 5.628624e-02 -4.272498e-01 -1.163086e+00 -1.742013e+00 -1.833407e+00 -1.006363e-01 8.327968e-01 2.565329e-01 -1.784475e-01 -2.551433e-01 1.000556e-01 7.841955e-01
<VARIANCE> 25
 2.727819e+01 4.614404e+01 4.546624e+01 5.624189e+01 6.257309e+01 6.102062e+01 4.518742e+01 4.939813e+01 5.469617e+01 4.219932e+01 3.056493e+01 2.847985e+01 1.604221e+00 2.714622e+00 2.414845e+00 3.306103e+00 3.399673e+00 4.293542e+00 4.410888e+00 3.910635e+00 3.812121e+00 3.509329e+00 2.851977e+00 2.694980e+00 1.552250e+00
<GCONST> 1.055529e+02
<STATE> 3
<MEAN> 25
 9.608891e+00 1.841884e+00 -1.624231e+00 -4.843653e+00 -1.056682e+01 -1.047259e+01 -3.275502e-01 4.228262e+00 -8.981493e-01 -3.707518e+00 -3.771726e+00 -1.847208e+00 -1.603226e-01 3.746803e-01 2.492852e-02 -5.283350e-02 -1.316152e-01 2.060792e-01 2.320018e-01 3.473101e-01 4.636069e-01 2.421327e-01 -1.011645e-03 -9.001540e-02 -4.208844e-01
<VARIANCE> 25
 2.191664e+01 3.832346e+01 3.536129e+01 4.552036e+01 5.146196e+01 5.402416e+01 4.532333e+01 4.316967e+01 5.194213e+01 3.791486e+01 2.724122e+01 2.477335e+01 5.759985e-01 1.296905e+00 1.329783e+00 1.436117e+00 2.015944e+00 2.854960e+00 1.984985e+00 2.227589e+00 2.343580e+00 2.045362e+00 1.638120e+00 1.449960e+00 1.066268e+00
<GCONST> 9.576168e+01
<STATE> 4
<MEAN> 25
 5.920141e+00 4.729104e+00 -6.619071e-01 -3.592440e+00 -6.668617e+00 -4.437122e+00 3.776827e-01 3.175261e+00 9.050462e-01 -1.454790e+00 -2.326509e+00 -1.249121e+00 -6.257654e-01 -3.906129e-02 1.678127e-01 4.218079e-01 7.039407e-01 9.980335e-01 2.885799e-01 -2.038472e-01 -1.773957e-02 1.877047e-01 2.155907e-01 8.154663e-02 -5.345345e-01
<VARIANCE> 25
 2.381943e+01 3.168683e+01 3.073319e+01 3.372535e+01 3.205265e+01 4.222814e+01 3.201194e+01 3.300840e+01 3.498757e+01 3.150789e+01 2.243595e+01 1.901501e+01 4.852379e-01 7.335701e-01 1.011674e+00 1.084659e+00 1.496157e+00 1.967000e+00 1.648281e+00 1.688958e+00 1.686677e+00 1.518985e+00 1.305284e+00 1.193857e+00 3.831035e-01
<GCONST> 8.833953e+01
~t "T_o"
<ENDHMM>
~h "n-a+th"
<BEGINHMM>
<NUMSTATES> 5
<STATE> 2
<MEAN> 25
 8.084209e+00 -3.246555e+00 -4.886938e+00 -2.890126e+00 -1.922659e+00 -4.591505e+00 -1.062124e+00 -1.533606e+00 -3.011539e+00 -1.419097e+00 7.822737e-01 1.974153e+00 8.531939e-01 -1.219489e+00 -1.591901e+00 -1.511451e+00 -1.099942e+00 -1.081241e+00 3.296968e-01 2.435892e-01 2.131322e-01 7.433307e-01 1.096173e+00 1.076555e+00 1.531909e+00
<VARIANCE> 25
 3.102556e+01 3.982352e+01 4.648204e+01 6.052976e+01 4.865224e+01 5.364120e+01 4.957391e+01 5.206113e+01 4.994263e+01 4.377484e+01 3.566540e+01 3.010361e+01 2.105191e+00 2.133569e+00 2.607650e+00 3.361774e+00 2.917656e+00 3.954443e+00 3.398865e+00 3.319243e+00 3.668817e+00 4.076825e+00 3.093344e+00 2.673295e+00 1.675560e+00
<GCONST> 1.052759e+02
<STATE> 3
<MEAN> 25
 9.462610e+00 -6.897775e+00 -8.743549e+00 -6.083593e+00 -4.604442e+00 -5.470979e+00 1.397076e+00 -2.830499e-01 -1.629562e+00 7.007640e-01 2.659651e+00 3.340820e+00 3.290816e-02 -1.735238e-01 -3.625012e-01 -3.627358e-01 -1.769637e-01 2.254089e-01 4.766614e-01 2.827543e-01 2.371980e-01 1.767752e-01 8.445666e-02 6.974697e-02 8.193482e-02
<VARIANCE> 25
 2.840129e+01 3.570125e+01 4.138834e+01 4.038225e+01 4.118876e+01 4.148624e+01 4.739182e+01 4.747406e+01 4.473821e+01 4.189992e+01 3.449903e+01 2.805832e+01 3.302394e-01 8.424883e-01 9.393210e-01 1.242460e+00 1.324397e+00 1.496400e+00 1.901740e+00 1.780651e+00 1.803969e+00 1.726919e+00 1.430944e+00 1.179275e+00 3.783611e-01
<GCONST> 9.133002e+01
<STATE> 4
<MEAN> 25
 8.177530e+00 -2.680661e+00 -7.293503e+00 -5.932261e+00 -3.758124e+00 -2.794274e+00 1.176165e+00 -3.390664e-01 -1.368642e+00 2.573896e-01 2.133668e+00 3.287408e+00 -4.538044e-01 8.704351e-01 7.276899e-01 4.679444e-01 4.150407e-01 5.706517e-01 -1.937626e-01 -1.382255e-01 1.753797e-02 -1.629017e-01 -2.942949e-01 -3.140077e-01 -8.826797e-01
<VARIANCE> 25
 2.215926e+01 3.099335e+01 3.486272e+01 3.668752e+01 3.283007e+01 3.965223e+01 3.500597e+01 3.826480e+01 3.512437e+01 3.170736e+01 2.563973e+01 2.200531e+01 5.861269e-01 9.910762e-01 1.080531e+00 1.252255e+00 1.395680e+00 1.835312e+00 1.787168e+00 1.826652e+00 1.993582e+00 1.853269e+00 1.609923e+00 1.318195e+00 6.483233e-01
<GCONST> 9.086413e+01
~t "T_a"
<ENDHMM>
~h "m-p+a"
<BEGINHMM>
<NUMSTATES> 5
<STATE> 2
<MEAN> 25
 7.273674e-01 4.419045e+00 -1.642455e+00 1.125738e+00 -3.522553e-01 3.235282e+00 2.746772e-01 -5.568021e-02 1.165696e+00 4.750603e-01 9.688855e-02 3.759823e-01 -8.011376e-01 -8.197273e-02 6.961958e-03 -1.358314e-02 -1.177142e-01 3.702320e-01 1.830292e-01 5.311110e-02 2.254074e-01 2.447188e-01 2.399417e-01 2.407473e-01 -6.623852e-01
<VARIANCE> 25
 2.401776e+01 1.960782e+01 3.718217e+01 3.054975e+01 2.808158e+01 2.605350e+01 2.362480e+01 2.559509e+01 2.385701e+01 1.987996e+01 1.746951e+01 1.688129e+01 1.269404e+00 2.086987e+00 1.529043e+00 1.657745e+00 1.625266e+00 2.383349e+00 1.826928e+00 1.767557e+00 1.704675e+00 1.489995e+00 1.377780e+00 1.354460e+00 2.792160e+00
<GCONST> 9.099888e+01
<STATE> 3
<MEAN> 25
 -1.337869e+00 1.035469e+00 -7.838042e-01 -9.290963e-03 5.556262e-02 3.594203e+00 2.027818e+00 8.199463e-01 2.073685e+00 1.473826e+00 6.019089e-01 8.898576e-01 1.765188e+00 -1.028808e+00 4.021101e-02 -1.068706e+00 -5.371588e-02 -1.240200e+00 7.556494e-02 4.608671e-03 -3.994851e-01 -4.938613e-01 -4.782575e-01 -1.913889e-01 2.907336e+00
<VARIANCE> 25
 1.897703e+01 2.944050e+01 3.749300e+01 3.170806e+01 2.703956e+01 2.659766e+01 2.663577e+01 2.555534e+01 2.200160e+01 1.974789e+01 1.681893e+01 1.572850e+01 2.443307e+00 3.570506e+00 3.745036e+00 3.115236e+00 4.571411e+00 3.674390e+00 3.286592e+00 3.199915e+00 3.096100e+00 2.349700e+00 2.032326e+00 1.843453e+00 2.755321e+00
<GCONST> 9.822238e+01
<STATE> 4
<MEAN> 25
 5.176690e+00 1.157645e+00 -1.488065e+00 -2.820636e+00 -1.278942e+00 -5.157562e-01 5.626150e-01 4.191951e-01 5.586421e-01 -7.193927e-01 -1.273285e+00 -1.231566e-01 2.950639e+00 -2.090072e-01 -1.097889e+00 -1.007010e+00 -7.686905e-01 -2.226063e+00 -1.336651e+00 -5.428960e-01 -8.846589e-01 -9.306594e-01 -6.750229e-01 -2.558869e-01 2.670755e+00
<VARIANCE> 25
 3.736500e+01 4.107451e+01 4.575256e+01 4.207091e+01 4.778902e+01 4.715288e+01 3.255062e+01 3.267081e+01 3.013973e+01 2.514127e+01 1.985579e+01 1.664416e+01 2.039635e+00 5.257606e+00 4.280380e+00 5.203839e+00 6.958500e+00 6.059873e+00 4.287543e+00 4.485157e+00 4.812220e+00 3.423693e+00 3.071751e+00 2.633017e+00 2.926000e+00
<GCONST> 1.061059e+02
~t "T_p"
<ENDHMM>
~h "m-p+e"
<BEGINHMM>
<NUMSTATES> 5
<STATE> 2
<MEAN> 25
 7.273674e-01 4.419045e+00 -1.642455e+00 1.125738e+00 -3.522553e-01 3.235282e+00 2.746772e-01 -5.568021e-02 1.165696e+00 4.750603e-01 9.688855e-02 3.759823e-01 -8.011376e-01 -8.197273e-02 6.961958e-03 -1.358314e-02 -1.177142e-01 3.702320e-01 1.830292e-01 5.311110e-02 2.254074e-01 2.447188e-01 2.399417e-01 2.407473e-01 -6.623852e-01
<VARIANCE> 25
 2.401776e+01 1.960782e+01 3.718217e+01 3.054975e+01 2.808158e+01 2.605350e+01 2.362480e+01 2.559509e+01 2.385701e+01 1.987996e+01 1.746951e+01 1.688129e+01 1.269404e+00 2.086987e+00 1.529043e+00 1.657745e+00 1.625266e+00 2.383349e+00 1.826928e+00 1.767557e+00 1.704675e+00 1.489995e+00 1.377780e+00 1.354460e+00 2.792160e+00
<GCONST> 9.099888e+01
<STATE> 3
<MEAN> 25
 -1.337869e+00 1.035469e+00 -7.838042e-01 -9.290963e-03 5.556262e-02 3.594203e+00 2.027818e+00 8.199463e-01 2.073685e+00 1.473826e+00 6.019089e-01 8.898576e-01 1.765188e+00 -1.028808e+00 4.021101e-02 -1.068706e+00 -5.371588e-02 -1.240200e+00 7.556494e-02 4.608671e-03 -3.994851e-01 -4.938613e-01 -4.782575e-01 -1.913889e-01 2.907336e+00
<VARIANCE> 25
 1.897703e+01 2.944050e+01 3.749300e+01 3.170806e+01 2.703956e+01 2.659766e+01 2.663577e+01 2.555534e+01 2.200160e+01 1.974789e+01 1.681893e+01 1.572850e+01 2.443307e+00 3.570506e+00 3.745036e+00 3.115236e+00 4.571411e+00 3.674390e+00 3.286592e+00 3.199915e+00 3.096100e+00 2.349700e+00 2.032326e+00 1.843453e+00 2.755321e+00
<GCONST> 9.822238e+01
<STATE> 4
<MEAN> 25
 5.176690e+00 1.157645e+00 -1.488065e+00 -2.820636e+00 -1.278942e+00 -5.157562e-01 5.626150e-01 4.191951e-01 5.586421e-01 -7.193927e-01 -1.273285e+00 -1.231566e-01 2.950639e+00 -2.090072e-01 -1.097889e+00 -1.007010e+00 -7.686905e-01 -2.226063e+00 -1.336651e+00 -5.428960e-01 -8.846589e-01 -9.306594e-01 -6.750229e-01 -2.558869e-01 2.670755e+00
<VARIANCE> 25
 3.736500e+01 4.107451e+01 4.575256e+01 4.207091e+01 4.778902e+01 4.715288e+01 3.255062e+01 3.267081e+01 3.013973e+01 2.514127e+01 1.985579e+01 1.664416e+01 2.039635e+00 5.257606e+00 4.280380e+00 5.203839e+00 6.958500e+00 6.059873e+00 4.287543e+00 4.485157e+00 4.812220e+00 3.423693e+00 3.071751e+00 2.633017e+00 2.926000e+00
<GCONST> 1.061059e+02
~t "T_p"
<ENDHMM>
~h "m-p+i"
<BEGINHMM>
<NUMSTATES> 5
<STATE> 2
<MEAN> 25
 7.273674e-01 4.419045e+00 -1.642455e+00 1.125738e+00 -3.522553e-01 3.235282e+00 2.746772e-01 -5.568021e-02 1.165696e+00 4.750603e-01 9.688855e-02 3.759823e-01 -8.011376e-01 -8.197273e-02 6.961958e-03 -1.358314e-02 -1.177142e-01 3.702320e-01 1.830292e-01 5.311110e-02 2.254074e-01 2.447188e-01 2.399417e-01 2.407473e-01 -6.623852e-01
<VARIANCE> 25
 2.401776e+01 1.960782e+01 3.718217e+01 3.054975e+01 2.808158e+01 2.605350e+01 2.362480e+01 2.559509e+01 2.385701e+01 1.987996e+01 1.746951e+01 1.688129e+01 1.269404e+00 2.086987e+00 1.529043e+00 1.657745e+00 1.625266e+00 2.383349e+00 1.826928e+00 1.767557e+00 1.704675e+00 1.489995e+00 1.377780e+00 1.354460e+00 2.792160e+00
<GCONST> 9.099888e+01
<STATE> 3
<MEAN> 25
 -1.337869e+00 1.035469e+00 -7.838042e-01 -9.290963e-03 5.556262e-02 3.594203e+00 2.027818e+00 8.199463e-01 2.073685e+00 1.473826e+00 6.019089e-01 8.898576e-01 1.765188e+00 -1.028808e+00 4.021101e-02 -1.068706e+00 -5.371588e-02 -1.240200e+00 7.556494e-02 4.608671e-03 -3.994851e-01 -4.938613e-01 -4.782575e-01 -1.913889e-01 2.907336e+00
<VARIANCE> 25
 1.897703e+01 2.944050e+01 3.749300e+01 3.170806e+01 2.703956e+01 2.659766e+01 2.663577e+01 2.555534e+01 2.200160e+01 1.974789e+01 1.681893e+01 1.572850e+01 2.443307e+00 3.570506e+00 3.745036e+00 3.115236e+00 4.571411e+00 3.674390e+00 3.286592e+00 3.199915e+00 3.096100e+00 2.349700e+00 2.032326e+00 1.843453e+00 2.755321e+00
<GCONST> 9.822238e+01
<STATE> 4
<MEAN> 25
 5.176690e+00 1.157645e+00 -1.488065e+00 -2.820636e+00 -1.278942e+00 -5.157562e-01 5.626150e-01 4.191951e-01 5.586421e-01 -7.193927e-01 -1.273285e+00 -1.231566e-01 2.950639e+00 -2.090072e-01 -1.097889e+00 -1.007010e+00 -7.686905e-01 -2.226063e+00 -1.336651e+00 -5.428960e-01 -8.846589e-01 -9.306594e-01 -6.750229e-01 -2.558869e-01 2.670755e+00
<VARIANCE> 25
 3.736500e+01 4.107451e+01 4.575256e+01 4.207091e+01 4.778902e+01 4.715288e+01 3.255062e+01 3.267081e+01 3.013973e+01 2.514127e+01 1.985579e+01 1.664416e+01 2.039635e+00 5.257606e+00 4.280380e+00 5.203839e+00 6.958500e+00 6.059873e+00 4.287543e+00 4.485157e+00 4.812220e+00 3.423693e+00 3.071751e+00 2.633017e+00 2.926000e+00
<GCONST> 1.061059e+02
~t "T_p"
<ENDHMM>
~h "m-p+l"
<BEGINHMM>
<NUMSTATES> 5
<STATE> 2
<MEAN> 25
 7.273674e-01 4.419045e+00 -1.642455e+00 1.125738e+00 -3.522553e-01 3.235282e+00 2.746772e-01 -5.568021e-02 1.165696e+00 4.750603e-01 9.688855e-02 3.759823e-01 -8.011376e-01 -8.197273e-02 6.961958e-03 -1.358314e-02 -1.177142e-01 3.702320e-01 1.830292e-01 5.311110e-02 2.254074e-01 2.447188e-01 2.399417e-01 2.407473e-01 -6.623852e-01
<VARIANCE> 25
 2.401776e+01 1.960782e+01 3.718217e+01 3.054975e+01 2.808158e+01 2.605350e+01 2.362480e+01 2.559509e+01 2.385701e+01 1.987996e+01 1.746951e+01 1.688129e+01 1.269404e+00 2.086987e+00 1.529043e+00 1.657745e+00 1.625266e+00 2.383349e+00 1.826928e+00 1.767557e+00 1.704675e+00 1.489995e+00 1.377780e+00 1.354460e+00 2.792160e+00
<GCONST> 9.099888e+01
<STATE> 3
<MEAN> 25
 -1.337869e+00 1.035469e+00 -7.838042e-01 -9.290963e-03 5.556262e-02 3.594203e+00 2.027818e+00 8.199463e-01 2.073685e+00 1.473826e+00 6.019089e-01 8.898576e-01 1.765188e+00 -1.028808e+00 4.021101e-02 -1.068706e+00 -5.371588e-02 -1.240200e+00 7.556494e-02 4.608671e-03 -3.994851e-01 -4.938613e-01 -4.782575e-01 -1.913889e-01 2.907336e+00
<VARIANCE> 25
 1.897703e+01 2.944050e+01 3.749300e+01 3.170806e+01 2.703956e+01 2.659766e+01 2.663577e+01 2.555534e+01 2.200160e+01 1.974789e+01 1.681893e+01 1.572850e+01 2.443307e+00 3.570506e+00 3.745036e+00 3.115236e+00 4.571411e+00 3.674390e+00 3.286592e+00 3.199915e+00 3.096100e+00 2.349700e+00 2.032326e+00 1.843453e+00 2.755321e+00
<GCONST> 9.822238e+01
<STATE> 4
<MEAN> 25
 5.176690e+00 1.157645e+00 -1.488065e+00 -2.820636e+00 -1.278942e+00 -5.157562e-01 5.626150e-01 4.191951e-01 5.586421e-01 -7.193927e-01 -1.273285e+00 -1.231566e-01 2.950639e+00 -2.090072e-01 -1.097889e+00 -1.007010e+00 -7.686905e-01 -2.226063e+00 -1.336651e+00 -5.428960e-01 -8.846589e-01 -9.306594e-01 -6.750229e-01 -2.558869e-01 2.670755e+00
<VARIANCE> 25
 3.736500e+01 4.107451e+01 4.575256e+01 4.207091e+01 4.778902e+01 4.715288e+01 3.255062e+01 3.267081e+01 3.013973e+01 2.514127e+01 1.985579e+01 1.664416e+01 2.039635e+00 5.257606e+00 4.280380e+00 5.203839e+00 6.958500e+00 6.059873e+00 4.287543e+00 4.485157e+00 4.812220e+00 3.423693e+00 3.071751e+00 2.633017e+00 2.926000e+00
<GCONST> 1.061059e+02
~t "T_p"
<ENDHMM>
~h "m-p+o"
<BEGINHMM>
<NUMSTATES> 5
<STATE> 2
<MEAN> 25
 7.273674e-01 4.419045e+00 -1.642455e+00 1.125738e+00 -3.522553e-01 3.235282e+00 2.746772e-01 -5.568021e-02 1.165696e+00 4.750603e-01 9.688855e-02 3.759823e-01 -8.011376e-01 -8.197273e-02 6.961958e-03 -1.358314e-02 -1.177142e-01 3.702320e-01 1.830292e-01 5.311110e-02 2.254074e-01 2.447188e-01 2.399417e-01 2.407473e-01 -6.623852e-01
<VARIANCE> 25
 2.401776e+01 1.960782e+01 3.718217e+01 3.054975e+01 2.808158e+01 2.605350e+01 2.362480e+01 2.559509e+01 2.385701e+01 1.987996e+01 1.746951e+01 1.688129e+01 1.269404e+00 2.086987e+00 1.529043e+00 1.657745e+00 1.625266e+00 2.383349e+00 1.826928e+00 1.767557e+00 1.704675e+00 1.489995e+00 1.377780e+00 1.354460e+00 2.792160e+00
<GCONST> 9.099888e+01
<STATE> 3
<MEAN> 25
 -1.337869e+00 1.035469e+00 -7.838042e-01 -9.290963e-03 5.556262e-02 3.594203e+00 2.027818e+00 8.199463e-01 2.073685e+00 1.473826e+00 6.019089e-01 8.898576e-01 1.765188e+00 -1.028808e+00 4.021101e-02 -1.068706e+00 -5.371588e-02 -1.240200e+00 7.556494e-02 4.608671e-03 -3.994851e-01 -4.938613e-01 -4.782575e-01 -1.913889e-01 2.907336e+00
<VARIANCE> 25
 1.897703e+01 2.944050e+01 3.749300e+01 3.170806e+01 2.703956e+01 2.659766e+01 2.663577e+01 2.555534e+01 2.200160e+01 1.974789e+01 1.681893e+01 1.572850e+01 2.443307e+00 3.570506e+00 3.745036e+00 3.115236e+00 4.571411e+00 3.674390e+00 3.286592e+00 3.199915e+00 3.096100e+00 2.349700e+00 2.032326e+00 1.843453e+00 2.755321e+00
<GCONST> 9.822238e+01
<STATE> 4
<MEAN> 25
 5.176690e+00 1.157645e+00 -1.488065e+00 -2.820636e+00 -1.278942e+00 -5.157562e-01 5.626150e-01 4.191951e-01 5.586421e-01 -7.193927e-01 -1.273285e+00 -1.231566e-01 2.950639e+00 -2.090072e-01 -1.097889e+00 -1.007010e+00 -7.686905e-01 -2.226063e+00 -1.336651e+00 -5.428960e-01 -8.846589e-01 -9.306594e-01 -6.750229e-01 -2.558869e-01 2.670755e+00
<VARIANCE> 25
 3.736500e+01 4.107451e+01 4.575256e+01 4.207091e+01 4.778902e+01 4.715288e+01 3.255062e+01 3.267081e+01 3.013973e+01 2.514127e+01 1.985579e+01 1.664416e+01 2.039635e+00 5.257606e+00 4.280380e+00 5.203839e+00 6.958500e+00 6.059873e+00 4.287543e+00 4.485157e+00 4.812220e+00 3.423693e+00 3.071751e+00 2.633017e+00 2.926000e+00
<GCONST> 1.061059e+02
~t "T_p"
<ENDHMM>
~h "m-p+r"
<BEGINHMM>
<NUMSTATES> 5
<STATE> 2
<MEAN> 25
 7.273674e-01 4.419045e+00 -1.642455e+00 1.125738e+00 -3.522553e-01 3.235282e+00 2.746772e-01 -5.568021e-02 1.165696e+00 4.750603e-01 9.688855e-02 3.759823e-01 -8.011376e-01 -8.197273e-02 6.961958e-03 -1.358314e-02 -1.177142e-01 3.702320e-01 1.830292e-01 5.311110e-02 2.254074e-01 2.447188e-01 2.399417e-01 2.407473e-01 -6.623852e-01
<VARIANCE> 25
 2.401776e+01 1.960782e+01 3.718217e+01 3.054975e+01 2.808158e+01 2.605350e+01 2.362480e+01 2.559509e+01 2.385701e+01 1.987996e+01 1.746951e+01 1.688129e+01 1.269404e+00 2.086987e+00 1.529043e+00 1.657745e+00 1.625266e+00 2.383349e+00 1.826928e+00 1.767557e+00 1.704675e+00 1.489995e+00 1.377780e+00 1.354460e+00 2.792160e+00
<GCONST> 9.099888e+01
<STATE> 3
<MEAN> 25
 -1.337869e+00 1.035469e+00 -7.838042e-01 -9.290963e-03 5.556262e-02 3.594203e+00 2.027818e+00 8.199463e-01 2.073685e+00 1.473826e+00 6.019089e-01 8.898576e-01 1.765188e+00 -1.028808e+00 4.021101e-02 -1.068706e+00 -5.371588e-02 -1.240200e+00 7.556494e-02 4.608671e-03 -3.994851e-01 -4.938613e-01 -4.782575e-01 -1.913889e-01 2.907336e+00
<VARIANCE> 25
 1.897703e+01 2.944050e+01 3.749300e+01 3.170806e+01 2.703956e+01 2.659766e+01 2.663577e+01 2.555534e+01 2.200160e+01 1.974789e+01 1.681893e+01 1.572850e+01 2.443307e+00 3.570506e+00 3.745036e+00 3.115236e+00 4.571411e+00 3.674390e+00 3.286592e+00 3.199915e+00 3.096100e+00 2.349700e+00 2.032326e+00 1.843453e+00 2.755321e+00
<GCONST> 9.822238e+01
<STATE> 4
<MEAN> 25
 5.176690e+00 1.157645e+00 -1.488065e+00 -2.820636e+00 -1.278942e+00 -5.157562e-01 5.626150e-01 4.191951e-01 5.586421e-01 -7.193927e-01 -1.273285e+00 -1.231566e-01 2.950639e+00 -2.090072e-01 -1.097889e+00 -1.007010e+00 -7.686905e-01 -2.226063e+00 -1.336651e+00 -5.428960e-01 -8.846589e-01 -9.306594e-01 -6.750229e-01 -2.558869e-01 2.670755e+00
<VARIANCE> 25
 3.736500e+01 4.107451e+01 4.575256e+01 4.207091e+01 4.778902e+01 4.715288e+01 3.255062e+01 3.267081e+01 3.013973e+01 2.514127e+01 1.985579e+01 1.664416e+01 2.039635e+00 5.257606e+00 4.280380e+00 5.203839e+00 6.958500e+00 6.059873e+00 4.287543e+00 4.485157e+00 4.812220e+00 3.423693e+00 3.071751e+00 2.633017e+00 2.926000e+00
<GCONST> 1.061059e+02
~t "T_p"
<ENDHMM>
~h "r+e"
<BEGINHMM>
<NUMSTATES> 5
<STATE> 2
<MEAN> 25
 8.643217e+00 -2.787229e+00 -6.224000e+00 -3.124852e+00 1.355937e+00 -3.755785e+00 -4.512966e+00 -3.933424e+00 -2.882520e+00 -2.216112e+00 -7.354643e-01 1.580987e+00 1.561792e-01 8.974332e-01 -3.782570e-01 5.168830e-01 1.252811e+00 1.208448e+00 -3.267309e-01 -2.546778e-01 -2.021774e-01 -5.815746e-01 -5.138835e-01 -2.330100e-02 -1.076871e+00
<VARIANCE> 25
 3.211975e+01 4.498290e+01 5.062462e+01 5.935705e+01 5.828969e+01 5.106108e+01 4.451467e+01 4.801496e+01 4.760433e+01 4.023750e+01 3.850442e+01 3.225385e+01 1.654517e+00 2.112823e+00 2.382579e+00 2.979533e+00 3.407424e+00 4.447104e+00 3.988335e+00 3.638894e+00 3.461148e+00 2.960581e+00 2.838124e+00 2.399935e+00 1.986631e+00
<GCONST> 1.051154e+02
<STATE> 3
<MEAN> 25
 7.898341e+00 6.769122e-01 -5.980435e+00 -1.402799e+00 3.525082e+00 4.491480e-01 -3.918551e+00 -3.587373e+00 -2.649347e+00 -2.842372e+00 -1.689278e+00 1.021962e+00 -7.756338e-01 7.563383e-01 5.502752e-01 8.270113e-01 2.798240e-01 1.325491e+00 7.032835e-01 3.596233e-01 3.082208e-01 -5.154090e-03 -2.048264e-01 -3.199293e-01 -1.361292e+00
<VARIANCE> 25
 2.876068e+01 3.251756e+01 4.847742e+01 5.875251e+01 4.849226e+01 4.357820e+01 4.282160e+01 3.805943e+01 3.575104e+01 3.216047e+01 2.785275e+01 2.531534e+01 1.549412e+00 2.112714e+00 2.763809e+00 3.039823e+00 3.358799e+00 3.590118e+00 3.448425e+00 3.136224e+00 3.408474e+00 2.967985e+00 2.623605e+00 2.237263e+00 1.636310e+00
<GCONST> 1.021613e+02
<STATE> 4
<MEAN> 25
 5.412677e+00 1.833103e+00 -4.028427e+00 -5.085419e-01 2.267809e+00 2.085018e+00 -1.665371e+00 -2.343382e+00 -1.808912e+00 -2.284674e+00 -1.413052e+00 3.313459e-01 -4.867756e-01 -6.988044e-02 4.821670e-01 3.639740e-01 -2.038538e-01 -1.353530e-01 2.935330e-01 3.202356e-01 4.707072e-02 1.700878e-01 1.382703e-01 -1.182176e-01 -2.790100e-01
<VARIANCE> 25
 2.738630e+01 3.117259e+01 4.332304e+01 4.824800e+01 3.927319e+01 3.631243e+01 3.395251e+01 3.381007e+01 3.105561e+01 2.732073e+01 2.547030e+01 2.190276e+01 1.094292e+00 1.505075e+00 2.021805e+00 2.286807e+00 2.216540e+00 2.356158e+00 2.429886e+00 2.174607e+00 2.300617e+00 2.008530e+00 1.813168e+00 1.681972e+00 1.042680e+00
<GCONST> 9.575272e+01
~t "T_r"
<ENDHMM>
~h "r+o"
<BEGINHMM>
<NUMSTATES> 5
<STATE> 2
<MEAN> 25
 8.643217e+00 -2.787229e+00 -6.224000e+00 -3.124852e+00 1.355937e+00 -3.755785e+00 -4.512966e+00 -3.933424e+00 -2.882520e+00 -2.216112e+00 -7.354643e-01 1.580987e+00 1.561792e-01 8.974332e-01 -3.782570e-01 5.168830e-01 1.252811e+00 1.208448e+00 -3.267309e-01 -2.546778e-01 -2.021774e-01 -5.815746e-01 -5.138835e-01 -2.330100e-02 -1.076871e+00
<VARIANCE> 25
 3.211975e+01 4.498290e+01 5.062462e+01 5.935705e+01 5.828969e+01 5.106108e+01 4.451467e+01 4.801496e+01 4.760433e+01 4.023750e+01 3.850442e+01 3.225385e+01 1.654517e+00 2.112823e+00 2.382579e+00 2.979533e+00 3.407424e+00 4.447104e+00 3.988335e+00 3.638894e+00 3.461148e+00 2.960581e+00 2.838124e+00 2.399935e+00 1.986631e+00
<GCONST> 1.051154e+02
<STATE> 3
<MEAN> 25
 7.898341e+00 6.769122e-01 -5.980435e+00 -1.402799e+00 3.525082e+00 4.491480e-01 -3.918551e+00 -3.587373e+00 -2.649347e+00 -2.842372e+00 -1.689278e+00 1.021962e+00 -7.756338e-01 7.563383e-01 5.502752e-01 8.270113e-01 2.798240e-01 1.325491e+00 7.032835e-01 3.596233e-01 3.082208e-01 -5.154090e-03 -2.048264e-01 -3.199293e-01 -1.361292e+00
<VARIANCE> 25
 2.876068e+01 3.251756e+01 4.847742e+01 5.875251e+01 4.849226e+01 4.357820e+01 4.282160e+01 3.805943e+01 3.575104e+01 3.216047e+01 2.785275e+01 2.531534e+01 1.549412e+00 2.112714e+00 2.763809e+00 3.039823e+00 3.358799e+00 3.590118e+00 3.448425e+00 3.136224e+00 3.408474e+00 2.967985e+00 2.623605e+00 2.237263e+00 1.636310e+00
<GCONST> 1.021613e+02
<STATE> 4
<MEAN> 25
 5.412677e+00 1.833103e+00 -4.028427e+00 -5.085419e-01 2.267809e+00 2.085018e+00 -1.665371e+00 -2.343382e+00 -1.808912e+00 -2.284674e+00 -1.413052e+00 3.313459e-01 -4.867756e-01 -6.988044e-02 4.821670e-01 3.639740e-01 -2.038538e-01 -1.353530e-01 2.935330e-01 3.202356e-01 4.707072e-02 1.700878e-01 1.382703e-01 -1.182176e-01 -2.790100e-01
<VARIANCE> 25
 2.738630e+01 3.117259e+01 4.332304e+01 4.824800e+01 3.927319e+01 3.631243e+01 3.395251e+01 3.381007e+01 3.105561e+01 2.732073e+01 2.547030e+01 2.190276e+01 1.094292e+00 1.505075e+00 2.021805e+00 2.286807e+00 2.216540e+00 2.356158e+00 2.429886e+00 2.174607e+00 2.300617e+00 2.008530e+00 1.813168e+00 1.681972e+00 1.042680e+00
<GCONST> 9.575272e+01
~t "T_r"
<ENDHMM>
~h "r-a"
<BEGINHMM>
<NUMSTATES> 5
<STATE> 2
<MEAN> 25
 8.084209e+00 -3.246555e+00 -4.886938e+00 -2.890126e+00 -1.922659e+00 -4.591505e+00 -1.062124e+00 -1.533606e+00 -3.011539e+00 -1.419097e+00 7.822737e-01 1.974153e+00 8.531939e-01 -1.219489e+00 -1.591901e+00 -1.511451e+00 -1.099942e+00 -1.081241e+00 3.296968e-01 2.435892e-01 2.131322e-01 7.433307e-01 1.096173e+00 1.076555e+00 1.531909e+00
<VARIANCE> 25
 3.102556e+01 3.982352e+01 4.648204e+01 6.052976e+01 4.865224e+01 5.364120e+01 4.957391e+01 5.206113e+01 4.994263e+01 4.377484e+01 3.566540e+01 3.010361e+01 2.105191e+00 2.133569e+00 2.607650e+00 3.361774e+00 2.917656e+00 3.954443e+00 3.398865e+00 3.319243e+00 3.668817e+00 4.076825e+00 3.093344e+00 2.673295e+00 1.675560e+00
<GCONST> 1.052759e+02
<STATE> 3
<MEAN> 25
 9.462610e+00 -6.897775e+00 -8.743549e+00 -6.083593e+00 -4.604442e+00 -5.470979e+00 1.397076e+00 -2.830499e-01 -1.629562e+00 7.007640e-01 2.659651e+00 3.340820e+00 3.290816e-02 -1.735238e-01 -3.625012e-01 -3.627358e-01 -1.769637e-01 2.254089e-01 4.766614e-01 2.827543e-01 2.371980e-01 1.767752e-01 8.445666e-02 6.974697e-02 8.193482e-02
<VARIANCE> 25
 2.840129e+01 3.570125e+01 4.138834e+01 4.038225e+01 4.118876e+01 4.148624e+01 4.739182e+01 4.747406e+01 4.473821e+01 4.189992e+01 3.449903e+01 2.805832e+01 3.302394e-01 8.424883e-01 9.393210e-01 1.242460e+00 1.324397e+00 1.496400e+00 1.901740e+00 1.780651e+00 1.803969e+00 1.726919e+00 1.430944e+00 1.179275e+00 3.783611e-01
<GCONST> 9.133002e+01
<STATE> 4
<MEAN> 25
 8.177530e+00 -2.680661e+00 -7.293503e+00 -5.932261e+00 -3.758124e+00 -2.794274e+00 1.176165e+00 -3.390664e-01 -1.368642e+00 2.573896e-01 2.133668e+00 3.287408e+00 -4.538044e-01 8.704351e-01 7.276899e-01 4.679444e-01 4.150407e-01 5.706517e-01 -1.937626e-01 -1.382255e-01 1.753797e-02 -1.629017e-01 -2.942949e-01 -3.140077e-01 -8.826797e-01
<VARIANCE> 25
 2.215926e+01 3.099335e+01 3.486272e+01 3.668752e+01 3.283007e+01 3.965223e+01 3.500597e+01 3.826480e+01 3.512437e+01 3.170736e+01 2.563973e+01 2.200531e+01 5.861269e-01 9.910762e-01 1.080531e+00 1.252255e+00 1.395680e+00 1.835312e+00 1.787168e+00 1.826652e+00 1.993582e+00 1.853269e+00 1.609923e+00 1.318195e+00 6.483233e-01
<GCONST> 9.086413e+01
~t "T_a"
<ENDHMM>
~h "r-e"
<BEGINHMM>
<NUMSTATES> 5
<STATE> 2
<MEAN> 25
 4.917822e+00 -3.046909e+00 -7.860230e-01 1.961976e+00 3.296882e+00 -3.095960e+00 -4.445966e+00 -4.378197e+00 -4.194638e+00 -1.446952e+00 1.146220e-01 1.648807e-01 1.062938e+00 -1.285595e+00 -6.981800e-01 4.423747e-01 5.001229e-01 -1.895295e+00 -1.787762e+00 -1.308817e+00 -1.084860e+00 1.344622e-01 6.617222e-01 3.701210e-01 1.670173e+00
<VARIANCE> 25
 3.577217e+01 3.706077e+01 4.774310e+01 6.015227e+01 4.925949e+01 6.036604e+01 5.010396e+01 4.977269e+01 4.858726e+01 3.950971e+01 3.013842e+01 2.473536e+01 2.384392e+00 2.958043e+00 2.685448e+00 3.858023e+00 3.340221e+00 5.064232e+00 4.063103e+00 3.681123e+00 4.037725e+00 4.174648e+00 3.332788e+00 2.898063e+00 2.226966e+00
<GCONST> 1.068105e+02
<STATE> 3
<MEAN> 25
 7.191195e+00 -7.001473e+00 -2.328277e+00 2.836691e+00 3.888689e+00 -7.911126e+00 -8.482172e+00 -6.657192e+00 -5.470276e+00 -1.285404e-01 1.987994e+00 7.147580e-01 8.514885e-02 -4.249433e-01 -1.496204e-01 2.818093e-01 1.203487e-01 -6.073316e-01 -4.420330e-01 -1.406531e-01 1.603031e-01 5.093133e-01 3.347531e-01 -4.041983e-02 2.952766e-01
<VARIANCE> 25
 2.837927e+01 3.550758e+01 4.376701e+01 6.339727e+01 5.782299e+01 6.153004e+01 4.445435e+01 4.665985e+01 4.438187e+01 4.603452e+01 3.686113e+01 3.249733e+01 5.579238e-01 9.633060e-01 1.396090e+00 1.826277e+00 1.583154e+00 2.003756e+00 1.982185e+00 1.856537e+00 2.013892e+00 2.006657e+00 1.751121e+00 1.508502e+00 5.828047e-01
<GCONST> 9.591582e+01
<STATE> 4
<MEAN> 25
 5.895019e+00 -4.724988e+00 -1.197292e+00 3.906052e+00 3.870449e+00 -6.545651e+00 -8.215060e+00 -6.679025e+00 -4.172563e+00 5.337154e-01 9.279272e-01 -6.742178e-01 -3.232698e-01 7.992764e-01 3.300467e-01 -6.339286e-02 7.912491e-02 1.004552e+00 6.088396e-01 3.772415e-01 3.436322e-01 -1.313366e-01 -2.720630e-01 -1.298955e-01 -7.956876e-01
<VARIANCE> 25
 2.029749e+01 3.066547e+01 3.368494e+01 5.057070e+01 4.296806e+01 5.593891e+01 3.659196e+01 3.710094e+01 4.034227e+01 3.575679e+01 3.262199e+01 2.925796e+01 5.569103e-01 1.011105e+00 1.171097e+00 1.448238e+00 1.440968e+00 2.011663e+00 1.814593e+00 1.739066e+00 1.905525e+00 1.867028e+00 1.539982e+00 1.274082e+00 7.538318e-01
<GCONST> 9.278246e+01
~t "T_e"
<ENDHMM>
~h "r-o"
<BEGINHMM>
<NUMSTATES> 5
<STATE> 2
<MEAN> 25
 8.202134e+00 8.756948e-01 -1.556870e+00 -2.412576e+00 -4.135490e+00 -5.283045e+00 -1.325630e+00 5.514442e-01 -3.256593e+00 -4.464030e+00 -3.179199e+00 -1.018459e+00 8.533680e-01 5.628624e-02 -4.272498e-01 -1.163086e+00 -1.742013e+00 -1.833407e+00 -1.006363e-01 8.327968e-01 2.565329e-01 -1.784475e-01 -2.551433e-01 1.000556e-01 7.841955e-01
<VARIANCE> 25
 2.727819e+01 4.614404e+01 4.546624e+01 5.624189e+01 6.257309e+01 6.102062e+01 4.518742e+01 4.939813e+01 5.469617e+01 4.219932e+01 3.056493e+01 2.847985e+01 1.604221e+00 2.714622e+00 2.414845e+00 3.306103e+00 3.399673e+00 4.293542e+00 4.410888e+00 3.910635e+00 3.812121e+00 3.509329e+00 2.851977e+00 2.694980e+00 1.552250e+00
<GCONST> 1.055529e+02
<STATE> 3
<MEAN> 25
 9.608891e+00 1.841884e+00 -1.624231e+00 -4.843653e+00 -1.056682e+01 -1.047259e+01 -3.275502e-01 4.228262e+00 -8.981493e-01 -3.707518e+00 -3.771726e+00 -1.847208e+00 -1.603226e-01 3.746803e-01 2.492852e-02 -5.283350e-02 -1.316152e-01 2.060792e-01 2.320018e-01 3.473101e-01 4.636069e-01 2.421327e-01 -1.011645e-03 -9.001540e-02 -4.208844e-01
<VARIANCE> 25
 2.191664e+01 3.832346e+01 3.536129e+01 4.552036e+01 5.146196e+01 5.402416e+01 4.532333e+01 4.316967e+01 5.194213e+01 3.791486e+01 2.724122e+01 2.477335e+01 5.759985e-01 1.296905e+00 1.329783e+00 1.436117e+00 2.015944e+00 2.854960e+00 1.984985e+00 2.227589e+00 2.343580e+00 2.045362e+00 1.638120e+00 1.449960e+00 1.066268e+00
<GCONST> 9.576168e+01
<STATE> 4
<MEAN> 25
 5.920141e+00 4.729104e+00 -6.619071e-01 -3.592440e+00 -6.668617e+00 -4.437122e+00 3.776827e-01 3.175261e+00 9.050462e-01 -1.454790e+00 -2.326509e+00 -1.249121e+00 -6.257654e-01 -3.906129e-02 1.678127e-01 4.218079e-01 7.039407e-01 9.980335e-01 2.885799e-01 -2.038472e-01 -1.773957e-02 1.877047e-01 2.155907e-01 8.154663e-02 -5.345345e-01
<VARIANCE> 25
 2.381943e+01 3.168683e+01 3.073319e+01 3.372535e+01 3.205265e+01 4.222814e+01 3.201194e+01 3.300840e+01 3.498757e+01 3.150789e+01 2.243595e+01 1.901501e+01 4.852379e-01 7.335701e-01 1.011674e+00 1.084659e+00 1.496157e+00 1.967000e+00 1.648281e+00 1.688958e+00 1.686677e+00 1.518985e+00 1.305284e+00 1.193857e+00 3.831035e-01
<GCONST> 8.833953e+01
~t "T_o"
<ENDHMM>
~h "o-th+e"
<BEGINHMM>
<NUMSTATES> 5
<STATE> 2
<MEAN> 25
 -5.632880e+00 -3.854063e+00 1.516733e+01 -6.320058e+00 2.140140e+00 2.455597e+00 3.235808e+00 -2.117743e+00 -4.823162e-01 1.348089e+00 8.720768e-02 -2.654986e-01 -3.624942e+00 -1.473371e+00 2.833224e+00 -1.734421e+00 -1.021341e-01 6.912473e-01 1.388689e+00 -1.476209e-01 6.915943e-01 5.759441e-01 5.913332e-01 2.648686e-01 5.795045e-01
<VARIANCE> 25
 6.831219e+01 5.101052e+01 9.769680e+01 8.345584e+01 8.229661e+01 6.781025e+01 8.005181e+01 6.789198e+01 6.046149e+01 4.864940e+01 3.799240e+01 2.866057e+01 2.483551e+00 3.884926e+00 3.833339e+00 4.342094e+00 3.744481e+00 5.492457e+00 3.865437e+00 3.177013e+00 3.737395e+00 3.366478e+00 3.085365e+00 2.236720e+00 1.021638e+00
<GCONST> 1.104123e+02
<STATE> 3
<MEAN> 25
 -1.727112e+01 -8.257788e+00 1.949447e+01 -1.180675e+01 1.947106e+00 1.331353e+00 6.016316e+00 -2.654345e+00 1.263386e+00 2.144119e+00 1.879954e+00 3.925450e-01 -1.316139e-01 -5.102527e-01 -3.761988e-01 1.679360e-01 1.177314e-02 -9.135841e-02 -9.154829e-02 -1.859931e-02 1.217610e-01 1.754421e-01 1.592440e-01 1.295594e-02 -6.405007e-02
<VARIANCE> 25
 3.926363e+01 8.026629e+01 8.774121e+01 1.006794e+02 8.994701e+01 7.935870e+01 7.173088e+01 6.903039e+01 6.770055e+01 4.795404e+01 3.895676e+01 2.661696e+01 1.988035e+00 1.045411e+00 1.457392e+00 2.010195e+00 1.328030e+00 1.433358e+00 1.615375e+00 1.621984e+00 1.538399e+00 1.449418e+00 1.211479e+00 1.100959e+00 4.380694e-01
<GCONST> 9.917685e+01
<STATE> 4
<MEAN> 25
 -9.271607e+00 -9.057722e+00 1.468838e+01 -6.365356e+00 1.965114e+00 2.341074e+00 3.013284e+00 -2.966129e+00 2.363478e-03 3.011927e+00 1.883378e+00 8.863983e-02 4.015340e+00 1.801579e+00 -2.265525e+00 2.241422e+00 5.355793e-01 -2.967038e-01 -2.138270e+00 -4.493863e-01 -1.154973e+00 -7.945148e-01 -8.732439e-01 -3.801412e-01 -6.645188e-01
<VARIANCE> 25
 5.233046e+01 6.291172e+01 6.801148e+01 8.587710e+01 6.436635e+01 5.830358e+01 5.761609e+01 5.580789e+01 5.802547e+01 4.261039e+01 3.626220e+01 2.619216e+01 3.238315e+00 3.795416e+00 2.980920e+00 3.903574e+00 4.405891e+00 4.908393e+00 3.968453e+00 3.498078e+00 3.993294e+00 3.501172e+00 3.218621e+00 2.491385e+00 1.196708e+00
<GCONST> 1.092605e+02
~t "T_th"
<ENDHMM>
~h "o-th+i"
<BEGINHMM>
<NUMSTATES> 5
<STATE> 2
<MEAN> 25
 -5.632880e+00 -3.854063e+00 1.516733e+01 -6.320058e+00 2.140140e+00 2.455597e+00 3.235808e+00 -2.117743e+00 -4.823162e-01 1.348089e+00 8.720768e-02 -2.654986e-01 -3.624942e+00 -1.473371e+00 2.833224e+00 -1.734421e+00 -1.021341e-01 6.912473e-01 1.388689e+00 -1.476209e-01 6.915943e-01 5.759441e-01 5.913332e-01 2.648686e-01 5.795045e-01
<VARIANCE> 25
 6.831219e+01 5.101052e+01 9.769680e+01 8.345584e+01 8.229661e+01 6.781025e+01 8.005181e+01 6.789198e+01 6.046149e+01 4.864940e+01 3.799240e+01 2.866057e+01 2.483551e+00 3.884926e+00 3.833339e+00 4.342094e+00 3.744481e+00 5.492457e+00 3.865437e+00 3.177013e+00 3.737395e+00 3.366478e+00 3.085365e+00 2.236720e+00 1.021638e+00
<GCONST> 1.104123e+02
<STATE> 3
<MEAN> 25
 -1.727112e+01 -8.257788e+00 1.949447e+01 -1.180675e+01 1.947106e+00 1.331353e+00 6.016316e+00 -2.654345e+00 1.263386e+00 2.144119e+00 1.879954e+00 3.925450e-01 -1.316139e-01 -5.102527e-01 -3.761988e-01 1.679360e-01 1.177314e-02 -9.135841e-02 -9.154829e-02 -1.859931e-02 1.217610e-01 1.754421e-01 1.592440e-01 1.295594e-02 -6.405007e-02
<VARIANCE> 25
 3.926363e+01 8.026629e+01 8.774121e+01 1.006794e+02 8.994701e+01 7.935870e+01 7.173088e+01 6.903039e+01 6.770055e+01 4.795404e+01 3.895676e+01 2.661696e+01 1.988035e+00 1.045411e+00 1.457392e+00 2.010195e+00 1.328030e+00 1.433358e+00 1.615375e+00 1.621984e+00 1.538399e+00 1.449418e+00 1.211479e+00 1.100959e+00 4.380694e-01
<GCONST> 9.917685e+01
<STATE> 4
<MEAN> 25
 -9.271607e+00 -9.057722e+00 1.468838e+01 -6.365356e+00 1.965114e+00 2.341074e+00 3.013284e+00 -2.966129e+00 2.363478e-03 3.011927e+00 1.883378e+00 8.863983e-02 4.015340e+00 1.801579e+00 -2.265525e+00 2.241422e+00 5.355793e-01 -2.967038e-01 -2.138270e+00 -4.493863e-01 -1.154973e+00 -7.945148e-01 -8.732439e-01 -3.801412e-01 -6.645188e-01
<VARIANCE> 25
 5.233046e+01 6.291172e+01 6.801148e+01 8.587710e+01 6.436635e+01 5.830358e+01 5.761609e+01 5.580789e+01 5.802547e+01 4.261039e+01 3.626220e+01 2.619216e+01 3.238315e+00 3.795416e+00 2.980920e+00 3.903574e+00 4.405891e+00 4.908393e+00 3.968453e+00 3.498078e+00 3.993294e+00 3.501172e+00 3.218621e+00 2.491385e+00 1.196708e+00
<GCONST> 1.092605e+02
~t "T_th"
<ENDHMM>
~h "o-th+n"
<BEGINHMM>
<NUMSTATES> 5
<STATE> 2
<MEAN> 25
 -5.632880e+00 -3.854063e+00 1.516733e+01 -6.320058e+00 2.140140e+00 2.455597e+00 3.235808e+00 -2.117743e+00 -4.823162e-01 1.348089e+00 8.720768e-02 -2.654986e-01 -3.624942e+00 -1.473371e+00 2.833224e+00 -1.734421e+00 -1.021341e-01 6.912473e-01 1.388689e+00 -1.476209e-01 6.915943e-01 5.759441e-01 5.913332e-01 2.648686e-01 5.795045e-01
<VARIANCE> 25
 6.831219e+01 5.101052e+01 9.769680e+01 8.345584e+01 8.229661e+01 6.781025e+01 8.005181e+01 6.789198e+01 6.046149e+01 4.864940e+01 3.799240e+01 2.866057e+01 2.483551e+00 3.884926e+00 3.833339e+00 4.342094e+00 3.744481e+00 5.492457e+00 3.865437e+00 3.177013e+00 3.737395e+00 3.366478e+00 3.085365e+00 2.236720e+00 1.021638e+00
<GCONST> 1.104123e+02
<STATE> 3
<MEAN> 25
 -1.727112e+01 -8.257788e+00 1.949447e+01 -1.180675e+01 1.947106e+00 1.331353e+00 6.016316e+00 -2.654345e+00 1.263386e+00 2.144119e+00 1.879954e+00 3.925450e-01 -1.316139e-01 -5.102527e-01 -3.761988e-01 1.679360e-01 1.177314e-02 -9.135841e-02 -9.154829e-02 -1.859931e-02 1.217610e-01 1.754421e-01 1.592440e-01 1.295594e-02 -6.405007e-02
<VARIANCE> 25
 3.926363e+01 8.026629e+01 8.774121e+01 1.006794e+02 8.994701e+01 7.935870e+01 7.173088e+01 6.903039e+01 6.770055e+01 4.795404e+01 3.895676e+01 2.661696e+01 1.988035e+00 1.045411e+00 1.457392e+00 2.010195e+00 1.328030e+00 1.433358e+00 1.615375e+00 1.621984e+00 1.538399e+00 1.449418e+00 1.211479e+00 1.100959e+00 4.380694e-01
<GCONST> 9.917685e+01
<STATE> 4
<MEAN> 25
 -9.271607e+00 -9.057722e+00 1.468838e+01 -6.365356e+00 1.965114e+00 2.341074e+00 3.013284e+00 -2.966129e+00 2.363478e-03 3.011927e+00 1.883378e+00 8.863983e-02 4.015340e+00 1.801579e+00 -2.265525e+00 2.241422e+00 5.355793e-01 -2.967038e-01 -2.138270e+00 -4.493863e-01 -1.154973e+00 -7.945148e-01 -8.732439e-01 -3.801412e-01 -6.645188e-01
<VARIANCE> 25
 5.233046e+01 6.291172e+01 6.801148e+01 8.587710e+01 6.436635e+01 5.830358e+01 5.761609e+01 5.580789e+01 5.802547e+01 4.261039e+01 3.626220e+01 2.619216e+01 3.238315e+00 3.795416e+00 2.980920e+00 3.903574e+00 4.405891e+00 4.908393e+00 3.968453e+00 3.498078e+00 3.993294e+00 3.501172e+00 3.218621e+00 2.491385e+00 1.196708e+00
<GCONST> 1.092605e+02
~t "T_th"
<ENDHMM>
~h "r-i+ll"
<BEGINHMM>
<NUMSTATES> 5
<STATE> 2
<MEAN> 25
 2.824880e+00 -2.961581e+00 4.292364e+00 7.499251e+00 7.346193e+00 -2.067250e+00 -5.297520e+00 -2.873806e+00 -2.378581e+00 -1.973293e+00 -2.520489e+00 -3.736685e+00 1.015099e+00 -9.724852e-01 2.479329e-01 2.179622e+00 1.426837e+00 -2.128228e+00 -2.309814e+00 -3.848035e-01 -7.270547e-01 -7.560874e-01 -6.794949e-01 -8.365397e-01 1.175898e+00
<VARIANCE> 25
 3.374600e+01 3.967356e+01 6.750194e+01 6.375350e+01 5.781096e+01 6.437442e+01 4.980933e+01 4.415491e+01 4.445846e+01 3.540117e+01 3.356274e+01 2.704606e+01 3.132528e+00 4.137255e+00 3.621446e+00 4.487921e+00 4.215056e+00 5.312013e+00 4.005538e+00 3.824685e+00 4.409300e+00 4.209664e+00 3.923692e+00 2.984154e+00 1.617640e+00
<GCONST> 1.086541e+02
<STATE> 3
<MEAN> 25
 3.691633e+00 -6.378765e+00 6.166086e+00 1.236009e+01 7.380941e+00 -9.047977e+00 -9.580333e+00 -1.629763e+00 -3.102339e+00 -4.599288e+00 -4.548250e+00 -5.048493e+00 8.359629e-02 -2.991736e-01 1.296623e-01 4.305927e-01 9.667514e-03 -8.290642e-01 -5.818837e-01 1.603395e-01 8.957740e-02 -1.876646e-01 -1.591199e-01 -1.092843e-01 2.681427e-01
<VARIANCE> 25
 2.149308e+01 3.103732e+01 4.970968e+01 5.873264e+01 7.158559e+01 6.920425e+01 3.966159e+01 4.495304e+01 4.204121e+01 4.275245e+01 4.102441e+01 2.954641e+01 6.639252e-01 9.264812e-01 1.883231e+00 1.858640e+00 1.558079e+00 2.146437e+00 1.929194e+00 2.097977e+00 1.840118e+00 1.884095e+00 1.595546e+00 1.333590e+00 5.259222e-01
<GCONST> 9.574519e+01
<STATE> 4
<MEAN> 25
 4.036044e+00 -4.218312e+00 4.209880e+00 1.037407e+01 7.996428e+00 -6.247262e+00 -9.419474e+00 -3.331409e+00 -2.663913e+00 -2.918104e+00 -3.142705e+00 -4.376024e+00 3.821991e-02 8.336469e-01 -6.000085e-01 -1.181883e+00 -5.675405e-01 1.117856e+00 8.718380e-01 -2.187419e-01 -3.897155e-02 3.511441e-01 4.869802e-01 5.886047e-01 -5.325214e-01
<VARIANCE> 25
 1.972391e+01 3.227742e+01 4.309776e+01 5.167957e+01 5.495691e+01 6.691110e+01 3.850472e+01 4.351723e+01 4.154246e+01 3.556070e+01 3.517086e+01 2.803684e+01 6.999541e-01 1.390189e+00 1.663853e+00 1.824908e+00 1.964548e+00 2.784639e+00 2.501812e+00 2.236512e+00 2.341234e+00 2.148965e+00 1.947036e+00 1.699689e+00 1.056007e+00
<GCONST> 9.730878e+01
~t "T_i"
<ENDHMM>
~h "s+a"
<BEGINHMM>
<NUMSTATES> 5
<STATE> 2
<MEAN> 25
 -2.672227e+00 -3.270423e+00 1.004953e+01 -4.440532e+00 1.809237e-01 1.463706e+00 2.479738e+00 -8.504221e-01 -6.740083e-01 7.527752e-01 2.025366e-01 -1.215088e-01 -2.952475e+00 -1.081467e+00 2.472686e+00 -1.170398e+00 1.552520e-01 9.225060e-01 1.190610e+00 1.466946e-02 5.599615e-01 4.710526e-01 5.590721e-01 2.782978e-01 2.598815e-01
<VARIANCE> 25
 6.090248e+01 4.096783e+01 9.645750e+01 7.985217e+01 7.116714e+01 6.051644e+01 6.688841e+01 7.043929e+01 5.318323e+01 4.527814e+01 3.572353e+01 2.664364e+01 3.096100e+00 3.809794e+00 4.041855e+00 4.010174e+00 3.633645e+00 4.631847e+00 3.728845e+00 3.332037e+00 3.740141e+00 3.394577e+00 2.906559e+00 2.198195e+00 1.359681e+00
<GCONST> 1.094882e+02
<STATE> 3
<MEAN> 25
 -1.388278e+01 -7.547144e+00 1.724523e+01 -1.016027e+01 5.564176e-01 9.960555e-01 5.586256e+00 -1.188120e+00 5.186584e-01 1.813791e+00 1.467571e+00 5.005577e-01 -2.925702e-01 -1.122364e-01 -2.537486e-01 7.632152e-02 -1.322451e-02 7.181087e-02 4.822661e-02 6.459653e-02 8.100856e-02 3.569933e-02 1.088791e-01 9.543600e-02 -2.908385e-01
<VARIANCE> 25
 7.703424e+01 8.092426e+01 1.181283e+02 1.229016e+02 1.058419e+02 8.350800e+01 7.997587e+01 8.339116e+01 7.095995e+01 5.324371e+01 4.210551e+01 2.871686e+01 2.398076e+00 1.604921e+00 2.021634e+00 2.360392e+00 1.573115e+00 1.834233e+00 1.877151e+00 1.805621e+00 1.722814e+00 1.544063e+00 1.343992e+00 1.183776e+00 8.760858e-01
<GCONST> 1.039959e+02
<STATE> 4
<MEAN> 25
 -6.362659e+00 -4.423155e+00 9.820220e+00 -4.903218e+00 -3.681852e-01 2.570100e+00 3.167925e+00 -5.793936e-01 -8.759587e-02 1.059100e+00 1.291414e+00 8.679242e-01 2.306367e+00 1.451382e+00 -1.806829e+00 1.135726e+00 -1.512867e-01 -5.723754e-03 -1.025580e+00 -6.012088e-02 -4.432604e-01 -4.086378e-01 -5.183563e-01 -1.828476e-01 -1.028221e+00
<VARIANCE> 25
 5.843802e+01 5.417876e+01 7.380061e+01 6.748988e+01 5.934891e+01 5.204456e+01 5.172548e+01 5.419441e+01 4.946672e+01 4.243489e+01 3.060479e+01 2.467298e+01 5.810026e+00 3.654878e+00 3.590863e+00 3.486390e+00 3.299611e+00 3.667934e+00 3.647548e+00 3.210599e+00 3.578302e+00 3.155891e+00 2.695603e+00 2.113597e+00 1.871167e+00
<GCONST> 1.080983e+02
~t "T_s"
<ENDHMM>
~h "s+e"
<BEGINHMM>
<NUMSTATES> 5
<STATE> 2
<MEAN> 25
 -2.672227e+00 -3.270423e+00 1.004953e+01 -4.440532e+00 1.809237e-01 1.463706e+00 2.479738e+00 -8.504221e-01 -6.740083e-01 7.527752e-01 2.025366e-01 -1.215088e-01 -2.952475e+00 -1.081467e+00 2.472686e+00 -1.170398e+00 1.552520e-01 9.225060e-01 1.190610e+00 1.466946e-02 5.599615e-01 4.710526e-01 5.590721e-01 2.782978e-01 2.598815e-01
<VARIANCE> 25
 6.090248e+01 4.096783e+01 9.645750e+01 7.985217e+01 7.116714e+01 6.051644e+01 6.688841e+01 7.043929e+01 5.318323e+01 4.527814e+01 3.572353e+01 2.664364e+01 3.096100e+00 3.809794e+00 4.041855e+00 4.010174e+00 3.633645e+00 4.631847e+00 3.728845e+00 3.332037e+00 3.740141e+00 3.394577e+00 2.906559e+00 2.198195e+00 1.359681e+00
<GCONST> 1.094882e+02
<STATE> 3
<MEAN> 25
 -1.388278e+01 -7.547144e+00 1.724523e+01 -1.016027e+01 5.564176e-01 9.960555e-01 5.586256e+00 -1.188120e+00 5.186584e-01 1.813791e+00 1.467571e+00 5.005577e-01 -2.925702e-01 -1.122364e-01 -2.537486e-01 7.632152e-02 -1.322451e-02 7.181087e-02 4.822661e-02 6.459653e-02 8.100856e-02 3.569933e-02 1.088791e-01 9.543600e-02 -2.908385e-01
<VARIANCE> 25
 7.703424e+01 8.092426e+01 1.181283e+02 1.229016e+02 1.058419e+02 8.350800e+01 7.997587e+01 8.339116e+01 7.095995e+01 5.324371e+01 4.210551e+01 2.871686e+01 2.398076e+00 1.604921e+00 2.021634e+00 2.360392e+00 1.573115e+00 1.834233e+00 1.877151e+00 1.805621e+00 1.722814e+00 1.544063e+00 1.343992e+00 1.183776e+00 8.760858e-01
<GCONST> 1.039959e+02
<STATE> 4
<MEAN> 25
 -6.362659e+00 -4.423155e+00 9.820220e+00 -4.903218e+00 -3.681852e-01 2.570100e+00 3.167925e+00 -5.793936e-01 -8.759587e-02 1.059100e+00 1.291414e+00 8.679242e-01 2.306367e+00 1.451382e+00 -1.806829e+00 1.135726e+00 -1.512867e-01 -5.723754e-03 -1.025580e+00 -6.012088e-02 -4.432604e-01 -4.086378e-01 -5.183563e-01 -1.828476e-01 -1.028221e+00
<VARIANCE> 25
 5.843802e+01 5.417876e+01 7.380061e+01 6.748988e+01 5.934891e+01 5.204456e+01 5.172548e+01 5.419441e+01 4.946672e+01 4.243489e+01 3.060479e+01 2.467298e+01 5.810026e+00 3.654878e+00 3.590863e+00 3.486390e+00 3.299611e+00 3.667934e+00 3.647548e+00 3.210599e+00 3.578302e+00 3.155891e+00 2.695603e+00 2.113597e+00 1.871167e+00
<GCONST> 1.080983e+02
~t "T_s"
<ENDHMM>
~h "s+i"
<BEGINHMM>
<NUMSTATES> 5
<STATE> 2
<MEAN> 25
 -2.672227e+00 -3.270423e+00 1.004953e+01 -4.440532e+00 1.809237e-01 1.463706e+00 2.479738e+00 -8.504221e-01 -6.740083e-01 7.527752e-01 2.025366e-01 -1.215088e-01 -2.952475e+00 -1.081467e+00 2.472686e+00 -1.170398e+00 1.552520e-01 9.225060e-01 1.190610e+00 1.466946e-02 5.599615e-01 4.710526e-01 5.590721e-01 2.782978e-01 2.598815e-01
<VARIANCE> 25
 6.090248e+01 4.096783e+01 9.645750e+01 7.985217e+01 7.116714e+01 6.051644e+01 6.688841e+01 7.043929e+01 5.318323e+01 4.527814e+01 3.572353e+01 2.664364e+01 3.096100e+00 3.809794e+00 4.041855e+00 4.010174e+00 3.633645e+00 4.631847e+00 3.728845e+00 3.332037e+00 3.740141e+00 3.394577e+00 2.906559e+00 2.198195e+00 1.359681e+00
<GCONST> 1.094882e+02
<STATE> 3
<MEAN> 25
 -1.388278e+01 -7.547144e+00 1.724523e+01 -1.016027e+01 5.564176e-01 9.960555e-01 5.586256e+00 -1.188120e+00 5.186584e-01 1.813791e+00 1.467571e+00 5.005577e-01 -2.925702e-01 -1.122364e-01 -2.537486e-01 7.632152e-02 -1.322451e-02 7.181087e-02 4.822661e-02 6.459653e-02 8.100856e-02 3.569933e-02 1.088791e-01 9.543600e-02 -2.908385e-01
<VARIANCE> 25
 7.703424e+01 8.092426e+01 1.181283e+02 1.229016e+02 1.058419e+02 8.350800e+01 7.997587e+01 8.339116e+01 7.095995e+01 5.324371e+01 4.210551e+01 2.871686e+01 2.398076e+00 1.604921e+00 2.021634e+00 2.360392e+00 1.573115e+00 1.834233e+00 1.877151e+00 1.805621e+00 1.722814e+00 1.544063e+00 1.343992e+00 1.183776e+00 8.760858e-01
<GCONST> 1.039959e+02
<STATE> 4
<MEAN> 25
 -6.362659e+00 -4.423155e+00 9.820220e+00 -4.903218e+00 -3.681852e-01 2.570100e+00 3.167925e+00 -5.793936e-01 -8.759587e-02 1.059100e+00 1.291414e+00 8.679242e-01 2.306367e+00 1.451382e+00 -1.806829e+00 1.135726e+00 -1.512867e-01 -5.723754e-03 -1.025580e+00 -6.012088e-02 -4.432604e-01 -4.086378e-01 -5.183563e-01 -1.828476e-01 -1.028221e+00
<VARIANCE> 25
 5.843802e+01 5.417876e+01 7.380061e+01 6.748988e+01 5.934891e+01 5.204456e+01 5.172548e+01 5.419441e+01 4.946672e+01 4.243489e+01 3.060479e+01 2.467298e+01 5.810026e+00 3.654878e+00 3.590863e+00 3.486390e+00 3.299611e+00 3.667934e+00 3.647548e+00 3.210599e+00 3.578302e+00 3.155891e+00 2.695603e+00 2.113597e+00 1.871167e+00
<GCONST> 1.080983e+02
~t "T_s"
<ENDHMM>
~h "s+o"
<BEGINHMM>
<NUMSTATES> 5
<STATE> 2
<MEAN> 25
 -2.672227e+00 -3.270423e+00 1.004953e+01 -4.440532e+00 1.809237e-01 1.463706e+00 2.479738e+00 -8.504221e-01 -6.740083e-01 7.527752e-01 2.025366e-01 -1.215088e-01 -2.952475e+00 -1.081467e+00 2.472686e+00 -1.170398e+00 1.552520e-01 9.225060e-01 1.190610e+00 1.466946e-02 5.599615e-01 4.710526e-01 5.590721e-01 2.782978e-01 2.598815e-01
<VARIANCE> 25
 6.090248e+01 4.096783e+01 9.645750e+01 7.985217e+01 7.116714e+01 6.051644e+01 6.688841e+01 7.043929e+01 5.318323e+01 4.527814e+01 3.572353e+01 2.664364e+01 3.096100e+00 3.809794e+00 4.041855e+00 4.010174e+00 3.633645e+00 4.631847e+00 3.728845e+00 3.332037e+00 3.740141e+00 3.394577e+00 2.906559e+00 2.198195e+00 1.359681e+00
<GCONST> 1.094882e+02
<STATE> 3
<MEAN> 25
 -1.388278e+01 -7.547144e+00 1.724523e+01 -1.016027e+01 5.564176e-01 9.960555e-01 5.586256e+00 -1.188120e+00 5.186584e-01 1.813791e+00 1.467571e+00 5.005577e-01 -2.925702e-01 -1.122364e-01 -2.537486e-01 7.632152e-02 -1.322451e-02 7.181087e-02 4.822661e-02 6.459653e-02 8.100856e-02 3.569933e-02 1.088791e-01 9.543600e-02 -2.908385e-01
<VARIANCE> 25
 7.703424e+01 8.092426e+01 1.181283e+02 1.229016e+02 1.058419e+02 8.350800e+01 7.997587e+01 8.339116e+01 7.095995e+01 5.324371e+01 4.210551e+01 2.871686e+01 2.398076e+00 1.604921e+00 2.021634e+00 2.360392e+00 1.573115e+00 1.834233e+00 1.877151e+00 1.805621e+00 1.722814e+00 1.544063e+00 1.343992e+00 1.183776e+00 8.760858e-01
<GCONST> 1.039959e+02
<STATE> 4
<MEAN> 25
 -6.362659e+00 -4.423155e+00 9.820220e+00 -4.903218e+00 -3.681852e-01 2.570100e+00 3.167925e+00 -5.793936e-01 -8.759587e-02 1.059100e+00 1.291414e+00 8.679242e-01 2.306367e+00 1.451382e+00 -1.806829e+00 1.135726e+00 -1.512867e-01 -5.723754e-03 -1.025580e+00 -6.012088e-02 -4.432604e-01 -4.086378e-01 -5.183563e-01 -1.828476e-01 -1.028221e+00
<VARIANCE> 25
 5.843802e+01 5.417876e+01 7.380061e+01 6.748988e+01 5.934891e+01 5.204456e+01 5.172548e+01 5.419441e+01 4.946672e+01 4.243489e+01 3.060479e+01 2.467298e+01 5.810026e+00 3.654878e+00 3.590863e+00 3.486390e+00 3.299611e+00 3.667934e+00 3.647548e+00 3.210599e+00 3.578302e+00 3.155891e+00 2.695603e+00 2.113597e+00 1.871167e+00
<GCONST> 1.080983e+02
~t "T_s"
<ENDHMM>
~h "s+u"
<BEGINHMM>
<NUMSTATES> 5
<STATE> 2
<MEAN> 25
 -2.672227e+00 -3.270423e+00 1.004953e+01 -4.440532e+00 1.809237e-01 1.463706e+00 2.479738e+00 -8.504221e-01 -6.740083e-01 7.527752e-01 2.025366e-01 -1.215088e-01 -2.952475e+00 -1.081467e+00 2.472686e+00 -1.170398e+00 1.552520e-01 9.225060e-01 1.190610e+00 1.466946e-02 5.599615e-01 4.710526e-01 5.590721e-01 2.782978e-01 2.598815e-01
<VARIANCE> 25
 6.090248e+01 4.096783e+01 9.645750e+01 7.985217e+01 7.116714e+01 6.051644e+01 6.688841e+01 7.043929e+01 5.318323e+01 4.527814e+01 3.572353e+01 2.664364e+01 3.096100e+00 3.809794e+00 4.041855e+00 4.010174e+00 3.633645e+00 4.631847e+00 3.728845e+00 3.332037e+00 3.740141e+00 3.394577e+00 2.906559e+00 2.198195e+00 1.359681e+00
<GCONST> 1.094882e+02
<STATE> 3
<MEAN> 25
 -1.388278e+01 -7.547144e+00 1.724523e+01 -1.016027e+01 5.564176e-01 9.960555e-01 5.586256e+00 -1.188120e+00 5.186584e-01 1.813791e+00 1.467571e+00 5.005577e-01 -2.925702e-01 -1.122364e-01 -2.537486e-01 7.632152e-02 -1.322451e-02 7.181087e-02 4.822661e-02 6.459653e-02 8.100856e-02 3.569933e-02 1.088791e-01 9.543600e-02 -2.908385e-01
<VARIANCE> 25
 7.703424e+01 8.092426e+01 1.181283e+02 1.229016e+02 1.058419e+02 8.350800e+01 7.997587e+01 8.339116e+01 7.095995e+01 5.324371e+01 4.210551e+01 2.871686e+01 2.398076e+00 1.604921e+00 2.021634e+00 2.360392e+00 1.573115e+00 1.834233e+00 1.877151e+00 1.805621e+00 1.722814e+00 1.544063e+00 1.343992e+00 1.183776e+00 8.760858e-01
<GCONST> 1.039959e+02
<STATE> 4
<MEAN> 25
 -6.362659e+00 -4.423155e+00 9.820220e+00 -4.903218e+00 -3.681852e-01 2.570100e+00 3.167925e+00 -5.793936e-01 -8.759587e-02 1.059100e+00 1.291414e+00 8.679242e-01 2.306367e+00 1.451382e+00 -1.806829e+00 1.135726e+00 -1.512867e-01 -5.723754e-03 -1.025580e+00 -6.012088e-02 -4.432604e-01 -4.086378e-01 -5.183563e-01 -1.828476e-01 -1.028221e+00
<VARIANCE> 25
 5.843802e+01 5.417876e+01 7.380061e+01 6.748988e+01 5.934891e+01 5.204456e+01 5.172548e+01 5.419441e+01 4.946672e+01 4.243489e+01 3.060479e+01 2.467298e+01 5.810026e+00 3.654878e+00 3.590863e+00 3.486390e+00 3.299611e+00 3.667934e+00 3.647548e+00 3.210599e+00 3.578302e+00 3.155891e+00 2.695603e+00 2.113597e+00 1.871167e+00
<GCONST> 1.080983e+02
~t "T_s"
<ENDHMM>
~h "s-a"
<BEGINHMM>
<NUMSTATES> 5
<STATE> 2
<MEAN> 25
 8.084209e+00 -3.246555e+00 -4.886938e+00 -2.890126e+00 -1.922659e+00 -4.591505e+00 -1.062124e+00 -1.533606e+00 -3.011539e+00 -1.419097e+00 7.822737e-01 1.974153e+00 8.531939e-01 -1.219489e+00 -1.591901e+00 -1.511451e+00 -1.099942e+00 -1.081241e+00 3.296968e-01 2.435892e-01 2.131322e-01 7.433307e-01 1.096173e+00 1.076555e+00 1.531909e+00
<VARIANCE> 25
 3.102556e+01 3.982352e+01 4.648204e+01 6.052976e+01 4.865224e+01 5.364120e+01 4.957391e+01 5.206113e+01 4.994263e+01 4.377484e+01 3.566540e+01 3.010361e+01 2.105191e+00 2.133569e+00 2.607650e+00 3.361774e+00 2.917656e+00 3.954443e+00 3.398865e+00 3.319243e+00 3.668817e+00 4.076825e+00 3.093344e+00 2.673295e+00 1.675560e+00
<GCONST> 1.052759e+02
<STATE> 3
<MEAN> 25
 9.462610e+00 -6.897775e+00 -8.743549e+00 -6.083593e+00 -4.604442e+00 -5.470979e+00 1.397076e+00 -2.830499e-01 -1.629562e+00 7.007640e-01 2.659651e+00 3.340820e+00 3.290816e-02 -1.735238e-01 -3.625012e-01 -3.627358e-01 -1.769637e-01 2.254089e-01 4.766614e-01 2.827543e-01 2.371980e-01 1.767752e-01 8.445666e-02 6.974697e-02 8.193482e-02
<VARIANCE> 25
 2.840129e+01 3.570125e+01 4.138834e+01 4.038225e+01 4.118876e+01 4.148624e+01 4.739182e+01 4.747406e+01 4.473821e+01 4.189992e+01 3.449903e+01 2.805832e+01 3.302394e-01 8.424883e-01 9.393210e-01 1.242460e+00 1.324397e+00 1.496400e+00 1.901740e+00 1.780651e+00 1.803969e+00 1.726919e+00 1.430944e+00 1.179275e+00 3.783611e-01
<GCONST> 9.133002e+01
<STATE> 4
<MEAN> 25
 8.177530e+00 -2.680661e+00 -7.293503e+00 -5.932261e+00 -3.758124e+00 -2.794274e+00 1.176165e+00 -3.390664e-01 -1.368642e+00 2.573896e-01 2.133668e+00 3.287408e+00 -4.538044e-01 8.704351e-01 7.276899e-01 4.679444e-01 4.150407e-01 5.706517e-01 -1.937626e-01 -1.382255e-01 1.753797e-02 -1.629017e-01 -2.942949e-01 -3.140077e-01 -8.826797e-01
<VARIANCE> 25
 2.215926e+01 3.099335e+01 3.486272e+01 3.668752e+01 3.283007e+01 3.965223e+01 3.500597e+01 3.826480e+01 3.512437e+01 3.170736e+01 2.563973e+01 2.200531e+01 5.861269e-01 9.910762e-01 1.080531e+00 1.252255e+00 1.395680e+00 1.835312e+00 1.787168e+00 1.826652e+00 1.993582e+00 1.853269e+00 1.609923e+00 1.318195e+00 6.483233e-01
<GCONST> 9.086413e+01
~t "T_a"
<ENDHMM>
~h "s-e"
<BEGINHMM>
<NUMSTATES> 5
<STATE> 2
<MEAN> 25
 4.917822e+00 -3.046909e+00 -7.860230e-01 1.961976e+00 3.296882e+00 -3.095960e+00 -4.445966e+00 -4.378197e+00 -4.194638e+00 -1.446952e+00 1.146220e-01 1.648807e-01 1.062938e+00 -1.285595e+00 -6.981800e-01 4.423747e-01 5.001229e-01 -1.895295e+00 -1.787762e+00 -1.308817e+00 -1.084860e+00 1.344622e-01 6.617222e-01 3.701210e-01 1.670173e+00
<VARIANCE> 25
 3.577217e+01 3.706077e+01 4.774310e+01 6.015227e+01 4.925949e+01 6.036604e+01 5.010396e+01 4.977269e+01 4.858726e+01 3.950971e+01 3.013842e+01 2.473536e+01 2.384392e+00 2.958043e+00 2.685448e+00 3.858023e+00 3.340221e+00 5.064232e+00 4.063103e+00 3.681123e+00 4.037725e+00 4.174648e+00 3.332788e+00 2.898063e+00 2.226966e+00
<GCONST> 1.068105e+02
<STATE> 3
<MEAN> 25
 7.191195e+00 -7.001473e+00 -2.328277e+00 2.836691e+00 3.888689e+00 -7.911126e+00 -8.482172e+00 -6.657192e+00 -5.470276e+00 -1.285404e-01 1.987994e+00 7.147580e-01 8.514885e-02 -4.249433e-01 -1.496204e-01 2.818093e-01 1.203487e-01 -6.073316e-01 -4.420330e-01 -1.406531e-01 1.603031e-01 5.093133e-01 3.347531e-01 -4.041983e-02 2.952766e-01
<VARIANCE> 25
 2.837927e+01 3.550758e+01 4.376701e+01 6.339727e+01 5.782299e+01 6.153004e+01 4.445435e+01 4.665985e+01 4.438187e+01 4.603452e+01 3.686113e+01 3.249733e+01 5.579238e-01 9.633060e-01 1.396090e+00 1.826277e+00 1.583154e+00 2.003756e+00 1.982185e+00 1.856537e+00 2.013892e+00 2.006657e+00 1.751121e+00 1.508502e+00 5.828047e-01
<GCONST> 9.591582e+01
<STATE> 4
<MEAN> 25
 5.895019e+00 -4.724988e+00 -1.197292e+00 3.906052e+00 3.870449e+00 -6.545651e+00 -8.215060e+00 -6.679025e+00 -4.172563e+00 5.337154e-01 9.279272e-01 -6.742178e-01 -3.232698e-01 7.992764e-01 3.300467e-01 -6.339286e-02 7.912491e-02 1.004552e+00 6.088396e-01 3.772415e-01 3.436322e-01 -1.313366e-01 -2.720630e-01 -1.298955e-01 -7.956876e-01
<VARIANCE> 25
 2.029749e+01 3.066547e+01 3.368494e+01 5.057070e+01 4.296806e+01 5.593891e+01 3.659196e+01 3.710094e+01 4.034227e+01 3.575679e+01 3.262199e+01 2.925796e+01 5.569103e-01 1.011105e+00 1.171097e+00 1.448238e+00 1.440968e+00 2.011663e+00 1.814593e+00 1.739066e+00 1.905525e+00 1.867028e+00 1.539982e+00 1.274082e+00 7.538318e-01
<GCONST> 9.278246e+01
~t "T_e"
<ENDHMM>
~h "s-i"
<BEGINHMM>
<NUMSTATES> 5
<STATE> 2
<MEAN> 25
 2.824880e+00 -2.961581e+00 4.292364e+00 7.499251e+00 7.346193e+00 -2.067250e+00 -5.297520e+00 -2.873806e+00 -2.378581e+00 -1.973293e+00 -2.520489e+00 -3.736685e+00 1.015099e+00 -9.724852e-01 2.479329e-01 2.179622e+00 1.426837e+00 -2.128228e+00 -2.309814e+00 -3.848035e-01 -7.270547e-01 -7.560874e-01 -6.794949e-01 -8.365397e-01 1.175898e+00
<VARIANCE> 25
 3.374600e+01 3.967356e+01 6.750194e+01 6.375350e+01 5.781096e+01 6.437442e+01 4.980933e+01 4.415491e+01 4.445846e+01 3.540117e+01 3.356274e+01 2.704606e+01 3.132528e+00 4.137255e+00 3.621446e+00 4.487921e+00 4.215056e+00 5.312013e+00 4.005538e+00 3.824685e+00 4.409300e+00 4.209664e+00 3.923692e+00 2.984154e+00 1.617640e+00
<GCONST> 1.086541e+02
<STATE> 3
<MEAN> 25
 3.691633e+00 -6.378765e+00 6.166086e+00 1.236009e+01 7.380941e+00 -9.047977e+00 -9.580333e+00 -1.629763e+00 -3.102339e+00 -4.599288e+00 -4.548250e+00 -5.048493e+00 8.359629e-02 -2.991736e-01 1.296623e-01 4.305927e-01 9.667514e-03 -8.290642e-01 -5.818837e-01 1.603395e-01 8.957740e-02 -1.876646e-01 -1.591199e-01 -1.092843e-01 2.681427e-01
<VARIANCE> 25
 2.149308e+01 3.103732e+01 4.970968e+01 5.873264e+01 7.158559e+01 6.920425e+01 3.966159e+01 4.495304e+01 4.204121e+01 4.275245e+01 4.102441e+01 2.954641e+01 6.639252e-01 9.264812e-01 1.883231e+00 1.858640e+00 1.558079e+00 2.146437e+00 1.929194e+00 2.097977e+00 1.840118e+00 1.884095e+00 1.595546e+00 1.333590e+00 5.259222e-01
<GCONST> 9.574519e+01
<STATE> 4
<MEAN> 25
 4.036044e+00 -4.218312e+00 4.209880e+00 1.037407e+01 7.996428e+00 -6.247262e+00 -9.419474e+00 -3.331409e+00 -2.663913e+00 -2.918104e+00 -3.142705e+00 -4.376024e+00 3.821991e-02 8.336469e-01 -6.000085e-01 -1.181883e+00 -5.675405e-01 1.117856e+00 8.718380e-01 -2.187419e-01 -3.897155e-02 3.511441e-01 4.869802e-01 5.886047e-01 -5.325214e-01
<VARIANCE> 25
 1.972391e+01 3.227742e+01 4.309776e+01 5.167957e+01 5.495691e+01 6.691110e+01 3.850472e+01 4.351723e+01 4.154246e+01 3.556070e+01 3.517086e+01 2.803684e+01 6.999541e-01 1.390189e+00 1.663853e+00 1.824908e+00 1.964548e+00 2.784639e+00 2.501812e+00 2.236512e+00 2.341234e+00 2.148965e+00 1.947036e+00 1.699689e+00 1.056007e+00
<GCONST> 9.730878e+01
~t "T_i"
<ENDHMM>
~h "s-o"
<BEGINHMM>
<NUMSTATES> 5
<STATE> 2
<MEAN> 25
 8.202134e+00 8.756948e-01 -1.556870e+00 -2.412576e+00 -4.135490e+00 -5.283045e+00 -1.325630e+00 5.514442e-01 -3.256593e+00 -4.464030e+00 -3.179199e+00 -1.018459e+00 8.533680e-01 5.628624e-02 -4.272498e-01 -1.163086e+00 -1.742013e+00 -1.833407e+00 -1.006363e-01 8.327968e-01 2.565329e-01 -1.784475e-01 -2.551433e-01 1.000556e-01 7.841955e-01
<VARIANCE> 25
 2.727819e+01 4.614404e+01 4.546624e+01 5.624189e+01 6.257309e+01 6.102062e+01 4.518742e+01 4.939813e+01 5.469617e+01 4.219932e+01 3.056493e+01 2.847985e+01 1.604221e+00 2.714622e+00 2.414845e+00 3.306103e+00 3.399673e+00 4.293542e+00 4.410888e+00 3.910635e+00 3.812121e+00 3.509329e+00 2.851977e+00 2.694980e+00 1.552250e+00
<GCONST> 1.055529e+02
<STATE> 3
<MEAN> 25
 9.608891e+00 1.841884e+00 -1.624231e+00 -4.843653e+00 -1.056682e+01 -1.047259e+01 -3.275502e-01 4.228262e+00 -8.981493e-01 -3.707518e+00 -3.771726e+00 -1.847208e+00 -1.603226e-01 3.746803e-01 2.492852e-02 -5.283350e-02 -1.316152e-01 2.060792e-01 2.320018e-01 3.473101e-01 4.636069e-01 2.421327e-01 -1.011645e-03 -9.001540e-02 -4.208844e-01
<VARIANCE> 25
 2.191664e+01 3.832346e+01 3.536129e+01 4.552036e+01 5.146196e+01 5.402416e+01 4.532333e+01 4.316967e+01 5.194213e+01 3.791486e+01 2.724122e+01 2.477335e+01 5.759985e-01 1.296905e+00 1.329783e+00 1.436117e+00 2.015944e+00 2.854960e+00 1.984985e+00 2.227589e+00 2.343580e+00 2.045362e+00 1.638120e+00 1.449960e+00 1.066268e+00
<GCONST> 9.576168e+01
<STATE> 4
<MEAN> 25
 5.920141e+00 4.729104e+00 -6.619071e-01 -3.592440e+00 -6.668617e+00 -4.437122e+00 3.776827e-01 3.175261e+00 9.050462e-01 -1.454790e+00 -2.326509e+00 -1.249121e+00 -6.257654e-01 -3.906129e-02 1.678127e-01 4.218079e-01 7.039407e-01 9.980335e-01 2.885799e-01 -2.038472e-01 -1.773957e-02 1.877047e-01 2.155907e-01 8.154663e-02 -5.345345e-01
<VARIANCE> 25
 2.381943e+01 3.168683e+01 3.073319e+01 3.372535e+01 3.205265e+01 4.222814e+01 3.201194e+01 3.300840e+01 3.498757e+01 3.150789e+01 2.243595e+01 1.901501e+01 4.852379e-01 7.335701e-01 1.011674e+00 1.084659e+00 1.496157e+00 1.967000e+00 1.648281e+00 1.688958e+00 1.686677e+00 1.518985e+00 1.305284e+00 1.193857e+00 3.831035e-01
<GCONST> 8.833953e+01
~t "T_o"
<ENDHMM>
~h "s-u"
<BEGINHMM>
<NUMSTATES> 5
<STATE> 2
<MEAN> 25
 5.841117e+00 4.888117e+00 2.686566e+00 -7.820466e-01 -3.509169e+00 -4.456264e+00 -1.667651e+00 1.072235e+00 -1.711213e+00 -3.398537e+00 -2.842877e+00 -2.182095e+00 1.576147e+00 1.045471e+00 4.197832e-01 -3.047917e-01 -1.355020e+00 -2.229248e+00 -1.097899e+00 2.456878e-01 -2.158980e-01 -6.960759e-01 -8.961666e-01 -8.212398e-01 8.114035e-01
<VARIANCE> 25
 3.111406e+01 4.019774e+01 4.504975e+01 4.146431e+01 4.849731e+01 5.661042e+01 4.281160e+01 4.095763e+01 5.025994e+01 4.244762e+01 3.143690e+01 2.546618e+01 2.317891e+00 3.149550e+00 3.087908e+00 3.151040e+00 3.396149e+00 4.573932e+00 4.195843e+00 4.035922e+00 4.034451e+00 3.409064e+00 3.195040e+00 2.762604e+00 1.784756e+00
<GCONST> 1.055627e+02
<STATE> 3
<MEAN> 25
 8.658910e+00 5.000401e+00 2.954348e+00 -2.671335e+00 -7.457289e+00 -1.043769e+01 -3.682248e+00 2.342003e+00 -1.993913e+00 -4.053403e+00 -3.655970e+00 -3.858294e+00 3.619523e-01 -4.174033e-01 -5.004941e-01 -5.413764e-01 -3.661138e-01 -3.691237e-01 1.985084e-01 6.194838e-01 2.091379e-01 -3.094780e-01 -4.365371e-01 -2.890210e-01 4.863066e-01
<VARIANCE> 25
 1.982055e+01 3.754977e+01 4.485072e+01 4.602500e+01 4.835411e+01 5.230594e+01 4.533890e+01 4.689768e+01 6.356376e+01 4.307386e+01 3.556441e+01 3.444476e+01 5.694164e-01 2.171613e+00 2.316406e+00 1.907328e+00 2.369149e+00 3.386717e+00 2.927253e+00 3.053224e+00 2.962884e+00 2.837181e+00 2.662840e+00 2.209183e+00 9.819031e-01
<GCONST> 1.005687e+02
<STATE> 4
<MEAN> 25
 7.936549e+00 5.316041e+00 2.239468e+00 -2.040418e+00 -5.537446e+00 -6.998611e+00 -2.096663e+00 2.982105e+00 -1.124920e+00 -4.924550e+00 -4.786534e+00 -3.909861e+00 -1.936503e-01 -3.466140e-01 -3.004697e-01 2.804921e-01 7.471921e-01 1.043675e+00 4.173047e-01 -2.147343e-01 -1.894316e-01 -7.248510e-02 1.116081e-02 1.502710e-01 -1.055882e-01
<VARIANCE> 25
 1.968233e+01 3.080829e+01 3.984565e+01 3.763365e+01 3.553752e+01 4.067476e+01 4.069976e+01 3.915368e+01 5.144368e+01 3.819278e+01 3.066512e+01 2.631176e+01 3.753779e-01 1.220878e+00 1.362571e+00 1.493957e+00 2.004738e+00 2.727168e+00 2.026844e+00 2.105258e+00 2.403310e+00 2.200738e+00 1.975419e+00 1.823615e+00 5.097307e-01
<GCONST> 9.394715e+01
~t "T_u"
<ENDHMM>
~h "r-i+th"
<BEGINHMM>
<NUMSTATES> 5
<STATE> 2
<MEAN> 25
 2.824880e+00 -2.961581e+00 4.292364e+00 7.499251e+00 7.346193e+00 -2.067250e+00 -5.297520e+00 -2.873806e+00 -2.378581e+00 -1.973293e+00 -2.520489e+00 -3.736685e+00 1.015099e+00 -9.724852e-01 2.479329e-01 2.179622e+00 1.426837e+00 -2.128228e+00 -2.309814e+00 -3.848035e-01 -7.270547e-01 -7.560874e-01 -6.794949e-01 -8.365397e-01 1.175898e+00
<VARIANCE> 25
 3.374600e+01 3.967356e+01 6.750194e+01 6.375350e+01 5.781096e+01 6.437442e+01 4.980933e+01 4.415491e+01 4.445846e+01 3.540117e+01 3.356274e+01 2.704606e+01 3.132528e+00 4.137255e+00 3.621446e+00 4.487921e+00 4.215056e+00 5.312013e+00 4.005538e+00 3.824685e+00 4.409300e+00 4.209664e+00 3.923692e+00 2.984154e+00 1.617640e+00
<GCONST> 1.086541e+02
<STATE> 3
<MEAN> 25
 3.691633e+00 -6.378765e+00 6.166086e+00 1.236009e+01 7.380941e+00 -9.047977e+00 -9.580333e+00 -1.629763e+00 -3.102339e+00 -4.599288e+00 -4.548250e+00 -5.048493e+00 8.359629e-02 -2.991736e-01 1.296623e-01 4.305927e-01 9.667514e-03 -8.290642e-01 -5.818837e-01 1.603395e-01 8.957740e-02 -1.876646e-01 -1.591199e-01 -1.092843e-01 2.681427e-01
<VARIANCE> 25
 2.149308e+01 3.103732e+01 4.970968e+01 5.873264e+01 7.158559e+01 6.920425e+01 3.966159e+01 4.495304e+01 4.204121e+01 4.275245e+01 4.102441e+01 2.954641e+01 6.639252e-01 9.264812e-01 1.883231e+00 1.858640e+00 1.558079e+00 2.146437e+00 1.929194e+00 2.097977e+00 1.840118e+00 1.884095e+00 1.595546e+00 1.333590e+00 5.259222e-01
<GCONST> 9.574519e+01
<STATE> 4
<MEAN> 25
 4.036044e+00 -4.218312e+00 4.209880e+00 1.037407e+01 7.996428e+00 -6.247262e+00 -9.419474e+00 -3.331409e+00 -2.663913e+00 -2.918104e+00 -3.142705e+00 -4.376024e+00 3.821991e-02 8.336469e-01 -6.000085e-01 -1.181883e+00 -5.675405e-01 1.117856e+00 8.718380e-01 -2.187419e-01 -3.897155e-02 3.511441e-01 4.869802e-01 5.886047e-01 -5.325214e-01
<VARIANCE> 25
 1.972391e+01 3.227742e+01 4.309776e+01 5.167957e+01 5.495691e+01 6.691110e+01 3.850472e+01 4.351723e+01 4.154246e+01 3.556070e+01 3.517086e+01 2.803684e+01 6.999541e-01 1.390189e+00 1.663853e+00 1.824908e+00 1.964548e+00 2.784639e+00 2.501812e+00 2.236512e+00 2.341234e+00 2.148965e+00 1.947036e+00 1.699689e+00 1.056007e+00
<GCONST> 9.730878e+01
~t "T_i"
<ENDHMM>
~h "t+a"
<BEGINHMM>
<NUMSTATES> 5
<STATE> 2
<MEAN> 25
 -1.105155e+00 3.531708e+00 3.428654e-04 2.035812e+00 1.206108e-01 3.856581e+00 4.077179e-01 -5.965847e-01 8.127027e-01 7.627032e-01 3.199013e-01 6.893349e-02 -6.225701e-01 -2.968751e-01 -4.327019e-01 -2.591668e-01 -4.670320e-01 5.148919e-02 2.475624e-01 2.473967e-01 4.056443e-01 2.193291e-01 2.135402e-01 2.370846e-01 -4.553078e-01
<VARIANCE> 25
 1.757349e+01 1.922104e+01 3.467615e+01 3.267662e+01 2.919297e+01 2.473142e+01 2.491181e+01 2.517140e+01 2.366685e+01 1.964377e+01 1.771473e+01 1.668316e+01 8.811969e-01 1.897543e+00 1.485499e+00 1.704934e+00 1.593071e+00 1.769392e+00 1.715915e+00 1.659040e+00 1.614757e+00 1.490305e+00 1.287322e+00 1.257182e+00 1.985336e+00
<GCONST> 8.922695e+01
<STATE> 3
<MEAN> 25
 -2.661848e+00 -1.497703e+00 5.282218e-02 -3.497691e-01 -1.323973e+00 2.477841e+00 1.625346e+00 -2.516246e-01 1.776590e+00 1.439802e+00 5.119318e-01 3.112603e-01 3.591390e-01 -2.639185e+00 1.089064e+00 -1.295514e+00 3.863864e-02 -1.159161e+00 1.705076e-01 -5.860544e-01 -5.879141e-01 -1.566525e-01 -8.659262e-03 1.297800e-01 3.161201e+00
<VARIANCE> 25
 2.167913e+01 5.237593e+01 4.070385e+01 5.008830e+01 3.684749e+01 3.489187e+01 3.228013e+01 3.020567e+01 2.734658e+01 2.465602e+01 2.112542e+01 1.802548e+01 2.104158e+00 3.082623e+00 3.689658e+00 4.205109e+00 3.861122e+00 3.443296e+00 3.636282e+00 3.397777e+00 3.384237e+00 2.689384e+00 2.275631e+00 2.211970e+00 2.531482e+00
<GCONST> 1.015656e+02
<STATE> 4
<MEAN> 25
 6.725208e-02 -5.150090e+00 3.443682e+00 -2.513680e+00 -2.271353e-01 -2.479110e-01 1.068287e+00 -2.403555e+00 -1.349449e+00 3.935923e-02 2.190253e-01 7.620124e-01 2.674966e+00 -7.274120e-02 -3.204739e-01 3.668221e-01 1.818312e-01 -1.773539e+00 -1.494750e+00 -9.235156e-01 -1.947002e+00 -1.262686e+00 -4.662289e-01 5.305367e-02 2.229213e+00
<VARIANCE> 25
 3.678450e+01 4.006910e+01 4.787255e+01 5.576718e+01 5.168572e+01 4.239035e+01 4.381770e+01 4.481693e+01 4.380044e+01 3.419241e+01 2.507265e+01 1.988425e+01 2.029730e+00 4.721550e+00 4.108329e+00 5.850153e+00 5.617827e+00 4.736856e+00 4.321757e+00 4.812273e+00 4.380567e+00 4.659930e+00 3.916073e+00 3.285652e+00 3.656609e+00
<GCONST> 1.085535e+02
~t "T_t"
<ENDHMM>
~h "t+e"
<BEGINHMM>
<NUMSTATES> 5
<STATE> 2
<MEAN> 25
 -1.105155e+00 3.531708e+00 3.428654e-04 2.035812e+00 1.206108e-01 3.856581e+00 4.077179e-01 -5.965847e-01 8.127027e-01 7.627032e-01 3.199013e-01 6.893349e-02 -6.225701e-01 -2.968751e-01 -4.327019e-01 -2.591668e-01 -4.670320e-01 5.148919e-02 2.475624e-01 2.473967e-01 4.056443e-01 2.193291e-01 2.135402e-01 2.370846e-01 -4.553078e-01
<VARIANCE> 25
 1.757349e+01 1.922104e+01 3.467615e+01 3.267662e+01 2.919297e+01 2.473142e+01 2.491181e+01 2.517140e+01 2.366685e+01 1.964377e+01 1.771473e+01 1.668316e+01 8.811969e-01 1.897543e+00 1.485499e+00 1.704934e+00 1.593071e+00 1.769392e+00 1.715915e+00 1.659040e+00 1.614757e+00 1.490305e+00 1.287322e+00 1.257182e+00 1.985336e+00
<GCONST> 8.922695e+01
<STATE> 3
<MEAN> 25
 -2.661848e+00 -1.497703e+00 5.282218e-02 -3.497691e-01 -1.323973e+00 2.477841e+00 1.625346e+00 -2.516246e-01 1.776590e+00 1.439802e+00 5.119318e-01 3.112603e-01 3.591390e-01 -2.639185e+00 1.089064e+00 -1.295514e+00 3.863864e-02 -1.159161e+00 1.705076e-01 -5.860544e-01 -5.879141e-01 -1.566525e-01 -8.659262e-03 1.297800e-01 3.161201e+00
<VARIANCE> 25
 2.167913e+01 5.237593e+01 4.070385e+01 5.008830e+01 3.684749e+01 3.489187e+01 3.228013e+01 3.020567e+01 2.734658e+01 2.465602e+01 2.112542e+01 1.802548e+01 2.104158e+00 3.082623e+00 3.689658e+00 4.205109e+00 3.861122e+00 3.443296e+00 3.636282e+00 3.397777e+00 3.384237e+00 2.689384e+00 2.275631e+00 2.211970e+00 2.531482e+00
<GCONST> 1.015656e+02
<STATE> 4
<MEAN> 25
 6.725208e-02 -5.150090e+00 3.443682e+00 -2.513680e+00 -2.271353e-01 -2.479110e-01 1.068287e+00 -2.403555e+00 -1.349449e+00 3.935923e-02 2.190253e-01 7.620124e-01 2.674966e+00 -7.274120e-02 -3.204739e-01 3.668221e-01 1.818312e-01 -1.773539e+00 -1.494750e+00 -9.235156e-01 -1.947002e+00 -1.262686e+00 -4.662289e-01 5.305367e-02 2.229213e+00
<VARIANCE> 25
 3.678450e+01 4.006910e+01 4.787255e+01 5.576718e+01 5.168572e+01 4.239035e+01 4.381770e+01 4.481693e+01 4.380044e+01 3.419241e+01 2.507265e+01 1.988425e+01 2.029730e+00 4.721550e+00 4.108329e+00 5.850153e+00 5.617827e+00 4.736856e+00 4.321757e+00 4.812273e+00 4.380567e+00 4.659930e+00 3.916073e+00 3.285652e+00 3.656609e+00
<GCONST> 1.085535e+02
~t "T_t"
<ENDHMM>
~h "t+i"
<BEGINHMM>
<NUMSTATES> 5
<STATE> 2
<MEAN> 25
 -1.105155e+00 3.531708e+00 3.428654e-04 2.035812e+00 1.206108e-01 3.856581e+00 4.077179e-01 -5.965847e-01 8.127027e-01 7.627032e-01 3.199013e-01 6.893349e-02 -6.225701e-01 -2.968751e-01 -4.327019e-01 -2.591668e-01 -4.670320e-01 5.148919e-02 2.475624e-01 2.473967e-01 4.056443e-01 2.193291e-01 2.135402e-01 2.370846e-01 -4.553078e-01
<VARIANCE> 25
 1.757349e+01 1.922104e+01 3.467615e+01 3.267662e+01 2.919297e+01 2.473142e+01 2.491181e+01 2.517140e+01 2.366685e+01 1.964377e+01 1.771473e+01 1.668316e+01 8.811969e-01 1.897543e+00 1.485499e+00 1.704934e+00 1.593071e+00 1.769392e+00 1.715915e+00 1.659040e+00 1.614757e+00 1.490305e+00 1.287322e+00 1.257182e+00 1.985336e+00
<GCONST> 8.922695e+01
<STATE> 3
<MEAN> 25
 -2.661848e+00 -1.497703e+00 5.282218e-02 -3.497691e-01 -1.323973e+00 2.477841e+00 1.625346e+00 -2.516246e-01 1.776590e+00 1.439802e+00 5.119318e-01 3.112603e-01 3.591390e-01 -2.639185e+00 1.089064e+00 -1.295514e+00 3.863864e-02 -1.159161e+00 1.705076e-01 -5.860544e-01 -5.879141e-01 -1.566525e-01 -8.659262e-03 1.297800e-01 3.161201e+00
<VARIANCE> 25
 2.167913e+01 5.237593e+01 4.070385e+01 5.008830e+01 3.684749e+01 3.489187e+01 3.228013e+01 3.020567e+01 2.734658e+01 2.465602e+01 2.112542e+01 1.802548e+01 2.104158e+00 3.082623e+00 3.689658e+00 4.205109e+00 3.861122e+00 3.443296e+00 3.636282e+00 3.397777e+00 3.384237e+00 2.689384e+00 2.275631e+00 2.211970e+00 2.531482e+00
<GCONST> 1.015656e+02
<STATE> 4
<MEAN> 25
 6.725208e-02 -5.150090e+00 3.443682e+00 -2.513680e+00 -2.271353e-01 -2.479110e-01 1.068287e+00 -2.403555e+00 -1.349449e+00 3.935923e-02 2.190253e-01 7.620124e-01 2.674966e+00 -7.274120e-02 -3.204739e-01 3.668221e-01 1.818312e-01 -1.773539e+00 -1.494750e+00 -9.235156e-01 -1.947002e+00 -1.262686e+00 -4.662289e-01 5.305367e-02 2.229213e+00
<VARIANCE> 25
 3.678450e+01 4.006910e+01 4.787255e+01 5.576718e+01 5.168572e+01 4.239035e+01 4.381770e+01 4.481693e+01 4.380044e+01 3.419241e+01 2.507265e+01 1.988425e+01 2.029730e+00 4.721550e+00 4.108329e+00 5.850153e+00 5.617827e+00 4.736856e+00 4.321757e+00 4.812273e+00 4.380567e+00 4.659930e+00 3.916073e+00 3.285652e+00 3.656609e+00
<GCONST> 1.085535e+02
~t "T_t"
<ENDHMM>
~h "t+o"
<BEGINHMM>
<NUMSTATES> 5
<STATE> 2
<MEAN> 25
 -1.105155e+00 3.531708e+00 3.428654e-04 2.035812e+00 1.206108e-01 3.856581e+00 4.077179e-01 -5.965847e-01 8.127027e-01 7.627032e-01 3.199013e-01 6.893349e-02 -6.225701e-01 -2.968751e-01 -4.327019e-01 -2.591668e-01 -4.670320e-01 5.148919e-02 2.475624e-01 2.473967e-01 4.056443e-01 2.193291e-01 2.135402e-01 2.370846e-01 -4.553078e-01
<VARIANCE> 25
 1.757349e+01 1.922104e+01 3.467615e+01 3.267662e+01 2.919297e+01 2.473142e+01 2.491181e+01 2.517140e+01 2.366685e+01 1.964377e+01 1.771473e+01 1.668316e+01 8.811969e-01 1.897543e+00 1.485499e+00 1.704934e+00 1.593071e+00 1.769392e+00 1.715915e+00 1.659040e+00 1.614757e+00 1.490305e+00 1.287322e+00 1.257182e+00 1.985336e+00
<GCONST> 8.922695e+01
<STATE> 3
<MEAN> 25
 -2.661848e+00 -1.497703e+00 5.282218e-02 -3.497691e-01 -1.323973e+00 2.477841e+00 1.625346e+00 -2.516246e-01 1.776590e+00 1.439802e+00 5.119318e-01 3.112603e-01 3.591390e-01 -2.639185e+00 1.089064e+00 -1.295514e+00 3.863864e-02 -1.159161e+00 1.705076e-01 -5.860544e-01 -5.879141e-01 -1.566525e-01 -8.659262e-03 1.297800e-01 3.161201e+00
<VARIANCE> 25
 2.167913e+01 5.237593e+01 4.070385e+01 5.008830e+01 3.684749e+01 3.489187e+01 3.228013e+01 3.020567e+01 2.734658e+01 2.465602e+01 2.112542e+01 1.802548e+01 2.104158e+00 3.082623e+00 3.689658e+00 4.205109e+00 3.861122e+00 3.443296e+00 3.636282e+00 3.397777e+00 3.384237e+00 2.689384e+00 2.275631e+00 2.211970e+00 2.531482e+00
<GCONST> 1.015656e+02
<STATE> 4
<MEAN> 25
 6.725208e-02 -5.150090e+00 3.443682e+00 -2.513680e+00 -2.271353e-01 -2.479110e-01 1.068287e+00 -2.403555e+00 -1.349449e+00 3.935923e-02 2.190253e-01 7.620124e-01 2.674966e+00 -7.274120e-02 -3.204739e-01 3.668221e-01 1.818312e-01 -1.773539e+00 -1.494750e+00 -9.235156e-01 -1.947002e+00 -1.262686e+00 -4.662289e-01 5.305367e-02 2.229213e+00
<VARIANCE> 25
 3.678450e+01 4.006910e+01 4.787255e+01 5.576718e+01 5.168572e+01 4.239035e+01 4.381770e+01 4.481693e+01 4.380044e+01 3.419241e+01 2.507265e+01 1.988425e+01 2.029730e+00 4.721550e+00 4.108329e+00 5.850153e+00 5.617827e+00 4.736856e+00 4.321757e+00 4.812273e+00 4.380567e+00 4.659930e+00 3.916073e+00 3.285652e+00 3.656609e+00
<GCONST> 1.085535e+02
~t "T_t"
<ENDHMM>
~h "t+r"
<BEGINHMM>
<NUMSTATES> 5
<STATE> 2
<MEAN> 25
 -1.105155e+00 3.531708e+00 3.428654e-04 2.035812e+00 1.206108e-01 3.856581e+00 4.077179e-01 -5.965847e-01 8.127027e-01 7.627032e-01 3.199013e-01 6.893349e-02 -6.225701e-01 -2.968751e-01 -4.327019e-01 -2.591668e-01 -4.670320e-01 5.148919e-02 2.475624e-01 2.473967e-01 4.056443e-01 2.193291e-01 2.135402e-01 2.370846e-01 -4.553078e-01
<VARIANCE> 25
 1.757349e+01 1.922104e+01 3.467615e+01 3.267662e+01 2.919297e+01 2.473142e+01 2.491181e+01 2.517140e+01 2.366685e+01 1.964377e+01 1.771473e+01 1.668316e+01 8.811969e-01 1.897543e+00 1.485499e+00 1.704934e+00 1.593071e+00 1.769392e+00 1.715915e+00 1.659040e+00 1.614757e+00 1.490305e+00 1.287322e+00 1.257182e+00 1.985336e+00
<GCONST> 8.922695e+01
<STATE> 3
<MEAN> 25
 -2.661848e+00 -1.497703e+00 5.282218e-02 -3.497691e-01 -1.323973e+00 2.477841e+00 1.625346e+00 -2.516246e-01 1.776590e+00 1.439802e+00 5.119318e-01 3.112603e-01 3.591390e-01 -2.639185e+00 1.089064e+00 -1.295514e+00 3.863864e-02 -1.159161e+00 1.705076e-01 -5.860544e-01 -5.879141e-01 -1.566525e-01 -8.659262e-03 1.297800e-01 3.161201e+00
<VARIANCE> 25
 2.167913e+01 5.237593e+01 4.070385e+01 5.008830e+01 3.684749e+01 3.489187e+01 3.228013e+01 3.020567e+01 2.734658e+01 2.465602e+01 2.112542e+01 1.802548e+01 2.104158e+00 3.082623e+00 3.689658e+00 4.205109e+00 3.861122e+00 3.443296e+00 3.636282e+00 3.397777e+00 3.384237e+00 2.689384e+00 2.275631e+00 2.211970e+00 2.531482e+00
<GCONST> 1.015656e+02
<STATE> 4
<MEAN> 25
 6.725208e-02 -5.150090e+00 3.443682e+00 -2.513680e+00 -2.271353e-01 -2.479110e-01 1.068287e+00 -2.403555e+00 -1.349449e+00 3.935923e-02 2.190253e-01 7.620124e-01 2.674966e+00 -7.274120e-02 -3.204739e-01 3.668221e-01 1.818312e-01 -1.773539e+00 -1.494750e+00 -9.235156e-01 -1.947002e+00 -1.262686e+00 -4.662289e-01 5.305367e-02 2.229213e+00
<VARIANCE> 25
 3.678450e+01 4.006910e+01 4.787255e+01 5.576718e+01 5.168572e+01 4.239035e+01 4.381770e+01 4.481693e+01 4.380044e+01 3.419241e+01 2.507265e+01 1.988425e+01 2.029730e+00 4.721550e+00 4.108329e+00 5.850153e+00 5.617827e+00 4.736856e+00 4.321757e+00 4.812273e+00 4.380567e+00 4.659930e+00 3.916073e+00 3.285652e+00 3.656609e+00
<GCONST> 1.085535e+02
~t "T_t"
<ENDHMM>
~h "t+u"
<BEGINHMM>
<NUMSTATES> 5
<STATE> 2
<MEAN> 25
 -1.105155e+00 3.531708e+00 3.428654e-04 2.035812e+00 1.206108e-01 3.856581e+00 4.077179e-01 -5.965847e-01 8.127027e-01 7.627032e-01 3.199013e-01 6.893349e-02 -6.225701e-01 -2.968751e-01 -4.327019e-01 -2.591668e-01 -4.670320e-01 5.148919e-02 2.475624e-01 2.473967e-01 4.056443e-01 2.193291e-01 2.135402e-01 2.370846e-01 -4.553078e-01
<VARIANCE> 25
 1.757349e+01 1.922104e+01 3.467615e+01 3.267662e+01 2.919297e+01 2.473142e+01 2.491181e+01 2.517140e+01 2.366685e+01 1.964377e+01 1.771473e+01 1.668316e+01 8.811969e-01 1.897543e+00 1.485499e+00 1.704934e+00 1.593071e+00 1.769392e+00 1.715915e+00 1.659040e+00 1.614757e+00 1.490305e+00 1.287322e+00 1.257182e+00 1.985336e+00
<GCONST> 8.922695e+01
<STATE> 3
<MEAN> 25
 -2.661848e+00 -1.497703e+00 5.282218e-02 -3.497691e-01 -1.323973e+00 2.477841e+00 1.625346e+00 -2.516246e-01 1.776590e+00 1.439802e+00 5.119318e-01 3.112603e-01 3.591390e-01 -2.639185e+00 1.089064e+00 -1.295514e+00 3.863864e-02 -1.159161e+00 1.705076e-01 -5.860544e-01 -5.879141e-01 -1.566525e-01 -8.659262e-03 1.297800e-01 3.161201e+00
<VARIANCE> 25
 2.167913e+01 5.237593e+01 4.070385e+01 5.008830e+01 3.684749e+01 3.489187e+01 3.228013e+01 3.020567e+01 2.734658e+01 2.465602e+01 2.112542e+01 1.802548e+01 2.104158e+00 3.082623e+00 3.689658e+00 4.205109e+00 3.861122e+00 3.443296e+00 3.636282e+00 3.397777e+00 3.384237e+00 2.689384e+00 2.275631e+00 2.211970e+00 2.531482e+00
<GCONST> 1.015656e+02
<STATE> 4
<MEAN> 25
 6.725208e-02 -5.150090e+00 3.443682e+00 -2.513680e+00 -2.271353e-01 -2.479110e-01 1.068287e+00 -2.403555e+00 -1.349449e+00 3.935923e-02 2.190253e-01 7.620124e-01 2.674966e+00 -7.274120e-02 -3.204739e-01 3.668221e-01 1.818312e-01 -1.773539e+00 -1.494750e+00 -9.235156e-01 -1.947002e+00 -1.262686e+00 -4.662289e-01 5.305367e-02 2.229213e+00
<VARIANCE> 25
 3.678450e+01 4.006910e+01 4.787255e+01 5.576718e+01 5.168572e+01 4.239035e+01 4.381770e+01 4.481693e+01 4.380044e+01 3.419241e+01 2.507265e+01 1.988425e+01 2.029730e+00 4.721550e+00 4.108329e+00 5.850153e+00 5.617827e+00 4.736856e+00 4.321757e+00 4.812273e+00 4.380567e+00 4.659930e+00 3.916073e+00 3.285652e+00 3.656609e+00
<GCONST> 1.085535e+02
~t "T_t"
<ENDHMM>
~h "t-a"
<BEGINHMM>
<NUMSTATES> 5
<STATE> 2
<MEAN> 25
 8.084209e+00 -3.246555e+00 -4.886938e+00 -2.890126e+00 -1.922659e+00 -4.591505e+00 -1.062124e+00 -1.533606e+00 -3.011539e+00 -1.419097e+00 7.822737e-01 1.974153e+00 8.531939e-01 -1.219489e+00 -1.591901e+00 -1.511451e+00 -1.099942e+00 -1.081241e+00 3.296968e-01 2.435892e-01 2.131322e-01 7.433307e-01 1.096173e+00 1.076555e+00 1.531909e+00
<VARIANCE> 25
 3.102556e+01 3.982352e+01 4.648204e+01 6.052976e+01 4.865224e+01 5.364120e+01 4.957391e+01 5.206113e+01 4.994263e+01 4.377484e+01 3.566540e+01 3.010361e+01 2.105191e+00 2.133569e+00 2.607650e+00 3.361774e+00 2.917656e+00 3.954443e+00 3.398865e+00 3.319243e+00 3.668817e+00 4.076825e+00 3.093344e+00 2.673295e+00 1.675560e+00
<GCONST> 1.052759e+02
<STATE> 3
<MEAN> 25
 9.462610e+00 -6.897775e+00 -8.743549e+00 -6.083593e+00 -4.604442e+00 -5.470979e+00 1.397076e+00 -2.830499e-01 -1.629562e+00 7.007640e-01 2.659651e+00 3.340820e+00 3.290816e-02 -1.735238e-01 -3.625012e-01 -3.627358e-01 -1.769637e-01 2.254089e-01 4.766614e-01 2.827543e-01 2.371980e-01 1.767752e-01 8.445666e-02 6.974697e-02 8.193482e-02
<VARIANCE> 25
 2.840129e+01 3.570125e+01 4.138834e+01 4.038225e+01 4.118876e+01 4.148624e+01 4.739182e+01 4.747406e+01 4.473821e+01 4.189992e+01 3.449903e+01 2.805832e+01 3.302394e-01 8.424883e-01 9.393210e-01 1.242460e+00 1.324397e+00 1.496400e+00 1.901740e+00 1.780651e+00 1.803969e+00 1.726919e+00 1.430944e+00 1.179275e+00 3.783611e-01
<GCONST> 9.133002e+01
<STATE> 4
<MEAN> 25
 8.177530e+00 -2.680661e+00 -7.293503e+00 -5.932261e+00 -3.758124e+00 -2.794274e+00 1.176165e+00 -3.390664e-01 -1.368642e+00 2.573896e-01 2.133668e+00 3.287408e+00 -4.538044e-01 8.704351e-01 7.276899e-01 4.679444e-01 4.150407e-01 5.706517e-01 -1.937626e-01 -1.382255e-01 1.753797e-02 -1.629017e-01 -2.942949e-01 -3.140077e-01 -8.826797e-01
<VARIANCE> 25
 2.215926e+01 3.099335e+01 3.486272e+01 3.668752e+01 3.283007e+01 3.965223e+01 3.500597e+01 3.826480e+01 3.512437e+01 3.170736e+01 2.563973e+01 2.200531e+01 5.861269e-01 9.910762e-01 1.080531e+00 1.252255e+00 1.395680e+00 1.835312e+00 1.787168e+00 1.826652e+00 1.993582e+00 1.853269e+00 1.609923e+00 1.318195e+00 6.483233e-01
<GCONST> 9.086413e+01
~t "T_a"
<ENDHMM>
~h "t-e"
<BEGINHMM>
<NUMSTATES> 5
<STATE> 2
<MEAN> 25
 4.917822e+00 -3.046909e+00 -7.860230e-01 1.961976e+00 3.296882e+00 -3.095960e+00 -4.445966e+00 -4.378197e+00 -4.194638e+00 -1.446952e+00 1.146220e-01 1.648807e-01 1.062938e+00 -1.285595e+00 -6.981800e-01 4.423747e-01 5.001229e-01 -1.895295e+00 -1.787762e+00 -1.308817e+00 -1.084860e+00 1.344622e-01 6.617222e-01 3.701210e-01 1.670173e+00
<VARIANCE> 25
 3.577217e+01 3.706077e+01 4.774310e+01 6.015227e+01 4.925949e+01 6.036604e+01 5.010396e+01 4.977269e+01 4.858726e+01 3.950971e+01 3.013842e+01 2.473536e+01 2.384392e+00 2.958043e+00 2.685448e+00 3.858023e+00 3.340221e+00 5.064232e+00 4.063103e+00 3.681123e+00 4.037725e+00 4.174648e+00 3.332788e+00 2.898063e+00 2.226966e+00
<GCONST> 1.068105e+02
<STATE> 3
<MEAN> 25
 7.191195e+00 -7.001473e+00 -2.328277e+00 2.836691e+00 3.888689e+00 -7.911126e+00 -8.482172e+00 -6.657192e+00 -5.470276e+00 -1.285404e-01 1.987994e+00 7.147580e-01 8.514885e-02 -4.249433e-01 -1.496204e-01 2.818093e-01 1.203487e-01 -6.073316e-01 -4.420330e-01 -1.406531e-01 1.603031e-01 5.093133e-01 3.347531e-01 -4.041983e-02 2.952766e-01
<VARIANCE> 25
 2.837927e+01 3.550758e+01 4.376701e+01 6.339727e+01 5.782299e+01 6.153004e+01 4.445435e+01 4.665985e+01 4.438187e+01 4.603452e+01 3.686113e+01 3.249733e+01 5.579238e-01 9.633060e-01 1.396090e+00 1.826277e+00 1.583154e+00 2.003756e+00 1.982185e+00 1.856537e+00 2.013892e+00 2.006657e+00 1.751121e+00 1.508502e+00 5.828047e-01
<GCONST> 9.591582e+01
<STATE> 4
<MEAN> 25
 5.895019e+00 -4.724988e+00 -1.197292e+00 3.906052e+00 3.870449e+00 -6.545651e+00 -8.215060e+00 -6.679025e+00 -4.172563e+00 5.337154e-01 9.279272e-01 -6.742178e-01 -3.232698e-01 7.992764e-01 3.300467e-01 -6.339286e-02 7.912491e-02 1.004552e+00 6.088396e-01 3.772415e-01 3.436322e-01 -1.313366e-01 -2.720630e-01 -1.298955e-01 -7.956876e-01
<VARIANCE> 25
 2.029749e+01 3.066547e+01 3.368494e+01 5.057070e+01 4.296806e+01 5.593891e+01 3.659196e+01 3.710094e+01 4.034227e+01 3.575679e+01 3.262199e+01 2.925796e+01 5.569103e-01 1.011105e+00 1.171097e+00 1.448238e+00 1.440968e+00 2.011663e+00 1.814593e+00 1.739066e+00 1.905525e+00 1.867028e+00 1.539982e+00 1.274082e+00 7.538318e-01
<GCONST> 9.278246e+01
~t "T_e"
<ENDHMM>
~h "t-o"
<BEGINHMM>
<NUMSTATES> 5
<STATE> 2
<MEAN> 25
 8.202134e+00 8.756948e-01 -1.556870e+00 -2.412576e+00 -4.135490e+00 -5.283045e+00 -1.325630e+00 5.514442e-01 -3.256593e+00 -4.464030e+00 -3.179199e+00 -1.018459e+00 8.533680e-01 5.628624e-02 -4.272498e-01 -1.163086e+00 -1.742013e+00 -1.833407e+00 -1.006363e-01 8.327968e-01 2.565329e-01 -1.784475e-01 -2.551433e-01 1.000556e-01 7.841955e-01
<VARIANCE> 25
 2.727819e+01 4.614404e+01 4.546624e+01 5.624189e+01 6.257309e+01 6.102062e+01 4.518742e+01 4.939813e+01 5.469617e+01 4.219932e+01 3.056493e+01 2.847985e+01 1.604221e+00 2.714622e+00 2.414845e+00 3.306103e+00 3.399673e+00 4.293542e+00 4.410888e+00 3.910635e+00 3.812121e+00 3.509329e+00 2.851977e+00 2.694980e+00 1.552250e+00
<GCONST> 1.055529e+02
<STATE> 3
<MEAN> 25
 9.608891e+00 1.841884e+00 -1.624231e+00 -4.843653e+00 -1.056682e+01 -1.047259e+01 -3.275502e-01 4.228262e+00 -8.981493e-01 -3.707518e+00 -3.771726e+00 -1.847208e+00 -1.603226e-01 3.746803e-01 2.492852e-02 -5.283350e-02 -1.316152e-01 2.060792e-01 2.320018e-01 3.473101e-01 4.636069e-01 2.421327e-01 -1.011645e-03 -9.001540e-02 -4.208844e-01
<VARIANCE> 25
 2.191664e+01 3.832346e+01 3.536129e+01 4.552036e+01 5.146196e+01 5.402416e+01 4.532333e+01 4.316967e+01 5.194213e+01 3.791486e+01 2.724122e+01 2.477335e+01 5.759985e-01 1.296905e+00 1.329783e+00 1.436117e+00 2.015944e+00 2.854960e+00 1.984985e+00 2.227589e+00 2.343580e+00 2.045362e+00 1.638120e+00 1.449960e+00 1.066268e+00
<GCONST> 9.576168e+01
<STATE> 4
<MEAN> 25
 5.920141e+00 4.729104e+00 -6.619071e-01 -3.592440e+00 -6.668617e+00 -4.437122e+00 3.776827e-01 3.175261e+00 9.050462e-01 -1.454790e+00 -2.326509e+00 -1.249121e+00 -6.257654e-01 -3.906129e-02 1.678127e-01 4.218079e-01 7.039407e-01 9.980335e-01 2.885799e-01 -2.038472e-01 -1.773957e-02 1.877047e-01 2.155907e-01 8.154663e-02 -5.345345e-01
<VARIANCE> 25
 2.381943e+01 3.168683e+01 3.073319e+01 3.372535e+01 3.205265e+01 4.222814e+01 3.201194e+01 3.300840e+01 3.498757e+01 3.150789e+01 2.243595e+01 1.901501e+01 4.852379e-01 7.335701e-01 1.011674e+00 1.084659e+00 1.496157e+00 1.967000e+00 1.648281e+00 1.688958e+00 1.686677e+00 1.518985e+00 1.305284e+00 1.193857e+00 3.831035e-01
<GCONST> 8.833953e+01
~t "T_o"
<ENDHMM>
~h "t-u"
<BEGINHMM>
<NUMSTATES> 5
<STATE> 2
<MEAN> 25
 5.841117e+00 4.888117e+00 2.686566e+00 -7.820466e-01 -3.509169e+00 -4.456264e+00 -1.667651e+00 1.072235e+00 -1.711213e+00 -3.398537e+00 -2.842877e+00 -2.182095e+00 1.576147e+00 1.045471e+00 4.197832e-01 -3.047917e-01 -1.355020e+00 -2.229248e+00 -1.097899e+00 2.456878e-01 -2.158980e-01 -6.960759e-01 -8.961666e-01 -8.212398e-01 8.114035e-01
<VARIANCE> 25
 3.111406e+01 4.019774e+01 4.504975e+01 4.146431e+01 4.849731e+01 5.661042e+01 4.281160e+01 4.095763e+01 5.025994e+01 4.244762e+01 3.143690e+01 2.546618e+01 2.317891e+00 3.149550e+00 3.087908e+00 3.151040e+00 3.396149e+00 4.573932e+00 4.195843e+00 4.035922e+00 4.034451e+00 3.409064e+00 3.195040e+00 2.762604e+00 1.784756e+00
<GCONST> 1.055627e+02
<STATE> 3
<MEAN> 25
 8.658910e+00 5.000401e+00 2.954348e+00 -2.671335e+00 -7.457289e+00 -1.043769e+01 -3.682248e+00 2.342003e+00 -1.993913e+00 -4.053403e+00 -3.655970e+00 -3.858294e+00 3.619523e-01 -4.174033e-01 -5.004941e-01 -5.413764e-01 -3.661138e-01 -3.691237e-01 1.985084e-01 6.194838e-01 2.091379e-01 -3.094780e-01 -4.365371e-01 -2.890210e-01 4.863066e-01
<VARIANCE> 25
 1.982055e+01 3.754977e+01 4.485072e+01 4.602500e+01 4.835411e+01 5.230594e+01 4.533890e+01 4.689768e+01 6.356376e+01 4.307386e+01 3.556441e+01 3.444476e+01 5.694164e-01 2.171613e+00 2.316406e+00 1.907328e+00 2.369149e+00 3.386717e+00 2.927253e+00 3.053224e+00 2.962884e+00 2.837181e+00 2.662840e+00 2.209183e+00 9.819031e-01
<GCONST> 1.005687e+02
<STATE> 4
<MEAN> 25
 7.936549e+00 5.316041e+00 2.239468e+00 -2.040418e+00 -5.537446e+00 -6.998611e+00 -2.096663e+00 2.982105e+00 -1.124920e+00 -4.924550e+00 -4.786534e+00 -3.909861e+00 -1.936503e-01 -3.466140e-01 -3.004697e-01 2.804921e-01 7.471921e-01 1.043675e+00 4.173047e-01 -2.147343e-01 -1.894316e-01 -7.248510e-02 1.116081e-02 1.502710e-01 -1.055882e-01
<VARIANCE> 25
 1.968233e+01 3.080829e+01 3.984565e+01 3.763365e+01 3.553752e+01 4.067476e+01 4.069976e+01 3.915368e+01 5.144368e+01 3.819278e+01 3.066512e+01 2.631176e+01 3.753779e-01 1.220878e+00 1.362571e+00 1.493957e+00 2.004738e+00 2.727168e+00 2.026844e+00 2.105258e+00 2.403310e+00 2.200738e+00 1.975419e+00 1.823615e+00 5.097307e-01
<GCONST> 9.394715e+01
~t "T_u"
<ENDHMM>
~h "u+e"
<BEGINHMM>
<NUMSTATES> 5
<STATE> 2
<MEAN> 25
 5.841117e+00 4.888117e+00 2.686566e+00 -7.820466e-01 -3.509169e+00 -4.456264e+00 -1.667651e+00 1.072235e+00 -1.711213e+00 -3.398537e+00 -2.842877e+00 -2.182095e+00 1.576147e+00 1.045471e+00 4.197832e-01 -3.047917e-01 -1.355020e+00 -2.229248e+00 -1.097899e+00 2.456878e-01 -2.158980e-01 -6.960759e-01 -8.961666e-01 -8.212398e-01 8.114035e-01
<VARIANCE> 25
 3.111406e+01 4.019774e+01 4.504975e+01 4.146431e+01 4.849731e+01 5.661042e+01 4.281160e+01 4.095763e+01 5.025994e+01 4.244762e+01 3.143690e+01 2.546618e+01 2.317891e+00 3.149550e+00 3.087908e+00 3.151040e+00 3.396149e+00 4.573932e+00 4.195843e+00 4.035922e+00 4.034451e+00 3.409064e+00 3.195040e+00 2.762604e+00 1.784756e+00
<GCONST> 1.055627e+02
<STATE> 3
<MEAN> 25
 8.658910e+00 5.000401e+00 2.954348e+00 -2.671335e+00 -7.457289e+00 -1.043769e+01 -3.682248e+00 2.342003e+00 -1.993913e+00 -4.053403e+00 -3.655970e+00 -3.858294e+00 3.619523e-01 -4.174033e-01 -5.004941e-01 -5.413764e-01 -3.661138e-01 -3.691237e-01 1.985084e-01 6.194838e-01 2.091379e-01 -3.094780e-01 -4.365371e-01 -2.890210e-01 4.863066e-01
<VARIANCE> 25
 1.982055e+01 3.754977e+01 4.485072e+01 4.602500e+01 4.835411e+01 5.230594e+01 4.533890e+01 4.689768e+01 6.356376e+01 4.307386e+01 3.556441e+01 3.444476e+01 5.694164e-01 2.171613e+00 2.316406e+00 1.907328e+00 2.369149e+00 3.386717e+00 2.927253e+00 3.053224e+00 2.962884e+00 2.837181e+00 2.662840e+00 2.209183e+00 9.819031e-01
<GCONST> 1.005687e+02
<STATE> 4
<MEAN> 25
 7.936549e+00 5.316041e+00 2.239468e+00 -2.040418e+00 -5.537446e+00 -6.998611e+00 -2.096663e+00 2.982105e+00 -1.124920e+00 -4.924550e+00 -4.786534e+00 -3.909861e+00 -1.936503e-01 -3.466140e-01 -3.004697e-01 2.804921e-01 7.471921e-01 1.043675e+00 4.173047e-01 -2.147343e-01 -1.894316e-01 -7.248510e-02 1.116081e-02 1.502710e-01 -1.055882e-01
<VARIANCE> 25
 1.968233e+01 3.080829e+01 3.984565e+01 3.763365e+01 3.553752e+01 4.067476e+01 4.069976e+01 3.915368e+01 5.144368e+01 3.819278e+01 3.066512e+01 2.631176e+01 3.753779e-01 1.220878e+00 1.362571e+00 1.493957e+00 2.004738e+00 2.727168e+00 2.026844e+00 2.105258e+00 2.403310e+00 2.200738e+00 1.975419e+00 1.823615e+00 5.097307e-01
<GCONST> 9.394715e+01
~t "T_u"
<ENDHMM>
~h "u+i"
<BEGINHMM>
<NUMSTATES> 5
<STATE> 2
<MEAN> 25
 5.841117e+00 4.888117e+00 2.686566e+00 -7.820466e-01 -3.509169e+00 -4.456264e+00 -1.667651e+00 1.072235e+00 -1.711213e+00 -3.398537e+00 -2.842877e+00 -2.182095e+00 1.576147e+00 1.045471e+00 4.197832e-01 -3.047917e-01 -1.355020e+00 -2.229248e+00 -1.097899e+00 2.456878e-01 -2.158980e-01 -6.960759e-01 -8.961666e-01 -8.212398e-01 8.114035e-01
<VARIANCE> 25
 3.111406e+01 4.019774e+01 4.504975e+01 4.146431e+01 4.849731e+01 5.661042e+01 4.281160e+01 4.095763e+01 5.025994e+01 4.244762e+01 3.143690e+01 2.546618e+01 2.317891e+00 3.149550e+00 3.087908e+00 3.151040e+00 3.396149e+00 4.573932e+00 4.195843e+00 4.035922e+00 4.034451e+00 3.409064e+00 3.195040e+00 2.762604e+00 1.784756e+00
<GCONST> 1.055627e+02
<STATE> 3
<MEAN> 25
 8.658910e+00 5.000401e+00 2.954348e+00 -2.671335e+00 -7.457289e+00 -1.043769e+01 -3.682248e+00 2.342003e+00 -1.993913e+00 -4.053403e+00 -3.655970e+00 -3.858294e+00 3.619523e-01 -4.174033e-01 -5.004941e-01 -5.413764e-01 -3.661138e-01 -3.691237e-01 1.985084e-01 6.194838e-01 2.091379e-01 -3.094780e-01 -4.365371e-01 -2.890210e-01 4.863066e-01
<VARIANCE> 25
 1.982055e+01 3.754977e+01 4.485072e+01 4.602500e+01 4.835411e+01 5.230594e+01 4.533890e+01 4.689768e+01 6.356376e+01 4.307386e+01 3.556441e+01 3.444476e+01 5.694164e-01 2.171613e+00 2.316406e+00 1.907328e+00 2.369149e+00 3.386717e+00 2.927253e+00 3.053224e+00 2.962884e+00 2.837181e+00 2.662840e+00 2.209183e+00 9.819031e-01
<GCONST> 1.005687e+02
<STATE> 4
<MEAN> 25
 7.936549e+00 5.316041e+00 2.239468e+00 -2.040418e+00 -5.537446e+00 -6.998611e+00 -2.096663e+00 2.982105e+00 -1.124920e+00 -4.924550e+00 -4.786534e+00 -3.909861e+00 -1.936503e-01 -3.466140e-01 -3.004697e-01 2.804921e-01 7.471921e-01 1.043675e+00 4.173047e-01 -2.147343e-01 -1.894316e-01 -7.248510e-02 1.116081e-02 1.502710e-01 -1.055882e-01
<VARIANCE> 25
 1.968233e+01 3.080829e+01 3.984565e+01 3.763365e+01 3.553752e+01 4.067476e+01 4.069976e+01 3.915368e+01 5.144368e+01 3.819278e+01 3.066512e+01 2.631176e+01 3.753779e-01 1.220878e+00 1.362571e+00 1.493957e+00 2.004738e+00 2.727168e+00 2.026844e+00 2.105258e+00 2.403310e+00 2.200738e+00 1.975419e+00 1.823615e+00 5.097307e-01
<GCONST> 9.394715e+01
~t "T_u"
<ENDHMM>
~h "sil"
<BEGINHMM>
<NUMSTATES> 5
<STATE> 2
<MEAN> 25
 -1.290697e+01 6.416240e+00 -3.380004e+00 1.473772e+00 -2.016052e+00 5.610334e+00 2.489751e+00 2.645058e+00 4.172959e+00 1.795330e+00 1.752598e+00 1.576816e+00 2.322256e-02 -3.079810e-02 -3.912474e-03 -6.444783e-03 3.234671e-03 -1.814976e-02 -1.063263e-02 -1.395505e-03 1.430723e-02 -1.749562e-03 6.473747e-03 1.132266e-02 4.430389e-02
<VARIANCE> 25
 5.408358e+01 2.967518e+01 3.570902e+01 3.766762e+01 3.491549e+01 3.636467e+01 2.601507e+01 2.551949e+01 2.355772e+01 1.647422e+01 1.483048e+01 1.317162e+01 1.495896e-01 1.985653e-01 2.820030e-01 3.788459e-01 4.699408e-01 5.744539e-01 6.467112e-01 6.945593e-01 7.171138e-01 7.137535e-01 6.933885e-01 6.378788e-01 1.336560e-01
<GCONST> 7.405184e+01
<STATE> 3
~s "silst"
<STATE> 4
<MEAN> 25
 -5.487174e+00 1.510960e+00 7.324569e-01 5.465046e-01 1.070733e+00 5.361811e+00 3.429282e+00 2.999621e+00 4.112261e+00 3.049292e+00 9.059619e-01 6.570295e-01 -9.387615e-03 -6.160348e-04 6.033830e-03 -1.001772e-03 5.582634e-04 -4.152651e-05 -6.946727e-04 -2.556263e-03 2.419520e-03 1.062087e-03 6.145448e-04 -6.885906e-03 -4.862451e-03
<VARIANCE> 25
 4.723423e+00 4.249345e+00 5.362765e+00 7.116409e+00 9.226990e+00 1.103139e+01 7.084698e+00 8.308663e+00 1.031646e+01 8.539894e+00 6.798432e+00 7.370571e+00 3.162377e-02 7.692385e-02 1.100508e-01 1.595248e-01 2.081518e-01 2.582380e-01 2.963857e-01 3.172259e-01 3.374383e-01 3.364936e-01 3.195445e-01 2.926563e-01 1.851401e-02
<GCONST> 4.579576e+01
<TRANSP> 5
 0.000000e+00 1.000000e+00 0.000000e+00 0.000000e+00 0.000000e+00
 0.000000e+00 9.335418e-01 2.880887e-02 3.764934e-02 0.000000e+00
 0.000000e+00 0.000000e+00 9.139708e-01 8.602917e-02 0.000000e+00
 0.000000e+00 1.885323e-02 0.000000e+00 9.500437e-01 3.110312e-02
 0.000000e+00 0.000000e+00 0.000000e+00 0.000000e+00 0.000000e+00
<ENDHMM>
~h "u+l"
<BEGINHMM>
<NUMSTATES> 5
<STATE> 2
<MEAN> 25
 5.841117e+00 4.888117e+00 2.686566e+00 -7.820466e-01 -3.509169e+00 -4.456264e+00 -1.667651e+00 1.072235e+00 -1.711213e+00 -3.398537e+00 -2.842877e+00 -2.182095e+00 1.576147e+00 1.045471e+00 4.197832e-01 -3.047917e-01 -1.355020e+00 -2.229248e+00 -1.097899e+00 2.456878e-01 -2.158980e-01 -6.960759e-01 -8.961666e-01 -8.212398e-01 8.114035e-01
<VARIANCE> 25
 3.111406e+01 4.019774e+01 4.504975e+01 4.146431e+01 4.849731e+01 5.661042e+01 4.281160e+01 4.095763e+01 5.025994e+01 4.244762e+01 3.143690e+01 2.546618e+01 2.317891e+00 3.149550e+00 3.087908e+00 3.151040e+00 3.396149e+00 4.573932e+00 4.195843e+00 4.035922e+00 4.034451e+00 3.409064e+00 3.195040e+00 2.762604e+00 1.784756e+00
<GCONST> 1.055627e+02
<STATE> 3
<MEAN> 25
 8.658910e+00 5.000401e+00 2.954348e+00 -2.671335e+00 -7.457289e+00 -1.043769e+01 -3.682248e+00 2.342003e+00 -1.993913e+00 -4.053403e+00 -3.655970e+00 -3.858294e+00 3.619523e-01 -4.174033e-01 -5.004941e-01 -5.413764e-01 -3.661138e-01 -3.691237e-01 1.985084e-01 6.194838e-01 2.091379e-01 -3.094780e-01 -4.365371e-01 -2.890210e-01 4.863066e-01
<VARIANCE> 25
 1.982055e+01 3.754977e+01 4.485072e+01 4.602500e+01 4.835411e+01 5.230594e+01 4.533890e+01 4.689768e+01 6.356376e+01 4.307386e+01 3.556441e+01 3.444476e+01 5.694164e-01 2.171613e+00 2.316406e+00 1.907328e+00 2.369149e+00 3.386717e+00 2.927253e+00 3.053224e+00 2.962884e+00 2.837181e+00 2.662840e+00 2.209183e+00 9.819031e-01
<GCONST> 1.005687e+02
<STATE> 4
<MEAN> 25
 7.936549e+00 5.316041e+00 2.239468e+00 -2.040418e+00 -5.537446e+00 -6.998611e+00 -2.096663e+00 2.982105e+00 -1.124920e+00 -4.924550e+00 -4.786534e+00 -3.909861e+00 -1.936503e-01 -3.466140e-01 -3.004697e-01 2.804921e-01 7.471921e-01 1.043675e+00 4.173047e-01 -2.147343e-01 -1.894316e-01 -7.248510e-02 1.116081e-02 1.502710e-01 -1.055882e-01
<VARIANCE> 25
 1.968233e+01 3.080829e+01 3.984565e+01 3.763365e+01 3.553752e+01 4.067476e+01 4.069976e+01 3.915368e+01 5.144368e+01 3.819278e+01 3.066512e+01 2.631176e+01 3.753779e-01 1.220878e+00 1.362571e+00 1.493957e+00 2.004738e+00 2.727168e+00 2.026844e+00 2.105258e+00 2.403310e+00 2.200738e+00 1.975419e+00 1.823615e+00 5.097307e-01
<GCONST> 9.394715e+01
~t "T_u"
<ENDHMM>
~h "u+m"
<BEGINHMM>
<NUMSTATES> 5
<STATE> 2
<MEAN> 25
 5.841117e+00 4.888117e+00 2.686566e+00 -7.820466e-01 -3.509169e+00 -4.456264e+00 -1.667651e+00 1.072235e+00 -1.711213e+00 -3.398537e+00 -2.842877e+00 -2.182095e+00 1.576147e+00 1.045471e+00 4.197832e-01 -3.047917e-01 -1.355020e+00 -2.229248e+00 -1.097899e+00 2.456878e-01 -2.158980e-01 -6.960759e-01 -8.961666e-01 -8.212398e-01 8.114035e-01
<VARIANCE> 25
 3.111406e+01 4.019774e+01 4.504975e+01 4.146431e+01 4.849731e+01 5.661042e+01 4.281160e+01 4.095763e+01 5.025994e+01 4.244762e+01 3.143690e+01 2.546618e+01 2.317891e+00 3.149550e+00 3.087908e+00 3.151040e+00 3.396149e+00 4.573932e+00 4.195843e+00 4.035922e+00 4.034451e+00 3.409064e+00 3.195040e+00 2.762604e+00 1.784756e+00
<GCONST> 1.055627e+02
<STATE> 3
<MEAN> 25
 8.658910e+00 5.000401e+00 2.954348e+00 -2.671335e+00 -7.457289e+00 -1.043769e+01 -3.682248e+00 2.342003e+00 -1.993913e+00 -4.053403e+00 -3.655970e+00 -3.858294e+00 3.619523e-01 -4.174033e-01 -5.004941e-01 -5.413764e-01 -3.661138e-01 -3.691237e-01 1.985084e-01 6.194838e-01 2.091379e-01 -3.094780e-01 -4.365371e-01 -2.890210e-01 4.863066e-01
<VARIANCE> 25
 1.982055e+01 3.754977e+01 4.485072e+01 4.602500e+01 4.835411e+01 5.230594e+01 4.533890e+01 4.689768e+01 6.356376e+01 4.307386e+01 3.556441e+01 3.444476e+01 5.694164e-01 2.171613e+00 2.316406e+00 1.907328e+00 2.369149e+00 3.386717e+00 2.927253e+00 3.053224e+00 2.962884e+00 2.837181e+00 2.662840e+00 2.209183e+00 9.819031e-01
<GCONST> 1.005687e+02
<STATE> 4
<MEAN> 25
 7.936549e+00 5.316041e+00 2.239468e+00 -2.040418e+00 -5.537446e+00 -6.998611e+00 -2.096663e+00 2.982105e+00 -1.124920e+00 -4.924550e+00 -4.786534e+00 -3.909861e+00 -1.936503e-01 -3.466140e-01 -3.004697e-01 2.804921e-01 7.471921e-01 1.043675e+00 4.173047e-01 -2.147343e-01 -1.894316e-01 -7.248510e-02 1.116081e-02 1.502710e-01 -1.055882e-01
<VARIANCE> 25
 1.968233e+01 3.080829e+01 3.984565e+01 3.763365e+01 3.553752e+01 4.067476e+01 4.069976e+01 3.915368e+01 5.144368e+01 3.819278e+01 3.066512e+01 2.631176e+01 3.753779e-01 1.220878e+00 1.362571e+00 1.493957e+00 2.004738e+00 2.727168e+00 2.026844e+00 2.105258e+00 2.403310e+00 2.200738e+00 1.975419e+00 1.823615e+00 5.097307e-01
<GCONST> 9.394715e+01
~t "T_u"
<ENDHMM>
~h "u+n"
<BEGINHMM>
<NUMSTATES> 5
<STATE> 2
<MEAN> 25
 5.841117e+00 4.888117e+00 2.686566e+00 -7.820466e-01 -3.509169e+00 -4.456264e+00 -1.667651e+00 1.072235e+00 -1.711213e+00 -3.398537e+00 -2.842877e+00 -2.182095e+00 1.576147e+00 1.045471e+00 4.197832e-01 -3.047917e-01 -1.355020e+00 -2.229248e+00 -1.097899e+00 2.456878e-01 -2.158980e-01 -6.960759e-01 -8.961666e-01 -8.212398e-01 8.114035e-01
<VARIANCE> 25
 3.111406e+01 4.019774e+01 4.504975e+01 4.146431e+01 4.849731e+01 5.661042e+01 4.281160e+01 4.095763e+01 5.025994e+01 4.244762e+01 3.143690e+01 2.546618e+01 2.317891e+00 3.149550e+00 3.087908e+00 3.151040e+00 3.396149e+00 4.573932e+00 4.195843e+00 4.035922e+00 4.034451e+00 3.409064e+00 3.195040e+00 2.762604e+00 1.784756e+00
<GCONST> 1.055627e+02
<STATE> 3
<MEAN> 25
 8.658910e+00 5.000401e+00 2.954348e+00 -2.671335e+00 -7.457289e+00 -1.043769e+01 -3.682248e+00 2.342003e+00 -1.993913e+00 -4.053403e+00 -3.655970e+00 -3.858294e+00 3.619523e-01 -4.174033e-01 -5.004941e-01 -5.413764e-01 -3.661138e-01 -3.691237e-01 1.985084e-01 6.194838e-01 2.091379e-01 -3.094780e-01 -4.365371e-01 -2.890210e-01 4.863066e-01
<VARIANCE> 25
 1.982055e+01 3.754977e+01 4.485072e+01 4.602500e+01 4.835411e+01 5.230594e+01 4.533890e+01 4.689768e+01 6.356376e+01 4.307386e+01 3.556441e+01 3.444476e+01 5.694164e-01 2.171613e+00 2.316406e+00 1.907328e+00 2.369149e+00 3.386717e+00 2.927253e+00 3.053224e+00 2.962884e+00 2.837181e+00 2.662840e+00 2.209183e+00 9.819031e-01
<GCONST> 1.005687e+02
<STATE> 4
<MEAN> 25
 7.936549e+00 5.316041e+00 2.239468e+00 -2.040418e+00 -5.537446e+00 -6.998611e+00 -2.096663e+00 2.982105e+00 -1.124920e+00 -4.924550e+00 -4.786534e+00 -3.909861e+00 -1.936503e-01 -3.466140e-01 -3.004697e-01 2.804921e-01 7.471921e-01 1.043675e+00 4.173047e-01 -2.147343e-01 -1.894316e-01 -7.248510e-02 1.116081e-02 1.502710e-01 -1.055882e-01
<VARIANCE> 25
 1.968233e+01 3.080829e+01 3.984565e+01 3.763365e+01 3.553752e+01 4.067476e+01 4.069976e+01 3.915368e+01 5.144368e+01 3.819278e+01 3.066512e+01 2.631176e+01 3.753779e-01 1.220878e+00 1.362571e+00 1.493957e+00 2.004738e+00 2.727168e+00 2.026844e+00 2.105258e+00 2.403310e+00 2.200738e+00 1.975419e+00 1.823615e+00 5.097307e-01
<GCONST> 9.394715e+01
~t "T_u"
<ENDHMM>
~h "u+s"
<BEGINHMM>
<NUMSTATES> 5
<STATE> 2
<MEAN> 25
 5.841117e+00 4.888117e+00 2.686566e+00 -7.820466e-01 -3.509169e+00 -4.456264e+00 -1.667651e+00 1.072235e+00 -1.711213e+00 -3.398537e+00 -2.842877e+00 -2.182095e+00 1.576147e+00 1.045471e+00 4.197832e-01 -3.047917e-01 -1.355020e+00 -2.229248e+00 -1.097899e+00 2.456878e-01 -2.158980e-01 -6.960759e-01 -8.961666e-01 -8.212398e-01 8.114035e-01
<VARIANCE> 25
 3.111406e+01 4.019774e+01 4.504975e+01 4.146431e+01 4.849731e+01 5.661042e+01 4.281160e+01 4.095763e+01 5.025994e+01 4.244762e+01 3.143690e+01 2.546618e+01 2.317891e+00 3.149550e+00 3.087908e+00 3.151040e+00 3.396149e+00 4.573932e+00 4.195843e+00 4.035922e+00 4.034451e+00 3.409064e+00 3.195040e+00 2.762604e+00 1.784756e+00
<GCONST> 1.055627e+02
<STATE> 3
<MEAN> 25
 8.658910e+00 5.000401e+00 2.954348e+00 -2.671335e+00 -7.457289e+00 -1.043769e+01 -3.682248e+00 2.342003e+00 -1.993913e+00 -4.053403e+00 -3.655970e+00 -3.858294e+00 3.619523e-01 -4.174033e-01 -5.004941e-01 -5.413764e-01 -3.661138e-01 -3.691237e-01 1.985084e-01 6.194838e-01 2.091379e-01 -3.094780e-01 -4.365371e-01 -2.890210e-01 4.863066e-01
<VARIANCE> 25
 1.982055e+01 3.754977e+01 4.485072e+01 4.602500e+01 4.835411e+01 5.230594e+01 4.533890e+01 4.689768e+01 6.356376e+01 4.307386e+01 3.556441e+01 3.444476e+01 5.694164e-01 2.171613e+00 2.316406e+00 1.907328e+00 2.369149e+00 3.386717e+00 2.927253e+00 3.053224e+00 2.962884e+00 2.837181e+00 2.662840e+00 2.209183e+00 9.819031e-01
<GCONST> 1.005687e+02
<STATE> 4
<MEAN> 25
 7.936549e+00 5.316041e+00 2.239468e+00 -2.040418e+00 -5.537446e+00 -6.998611e+00 -2.096663e+00 2.982105e+00 -1.124920e+00 -4.924550e+00 -4.786534e+00 -3.909861e+00 -1.936503e-01 -3.466140e-01 -3.004697e-01 2.804921e-01 7.471921e-01 1.043675e+00 4.173047e-01 -2.147343e-01 -1.894316e-01 -7.248510e-02 1.116081e-02 1.502710e-01 -1.055882e-01
<VARIANCE> 25
 1.968233e+01 3.080829e+01 3.984565e+01 3.763365e+01 3.553752e+01 4.067476e+01 4.069976e+01 3.915368e+01 5.144368e+01 3.819278e+01 3.066512e+01 2.631176e+01 3.753779e-01 1.220878e+00 1.362571e+00 1.493957e+00 2.004738e+00 2.727168e+00 2.026844e+00 2.105258e+00 2.403310e+00 2.200738e+00 1.975419e+00 1.823615e+00 5.097307e-01
<GCONST> 9.394715e+01
~t "T_u"
<ENDHMM>
~h "u+t"
<BEGINHMM>
<NUMSTATES> 5
<STATE> 2
<MEAN> 25
 5.841117e+00 4.888117e+00 2.686566e+00 -7.820466e-01 -3.509169e+00 -4.456264e+00 -1.667651e+00 1.072235e+00 -1.711213e+00 -3.398537e+00 -2.842877e+00 -2.182095e+00 1.576147e+00 1.045471e+00 4.197832e-01 -3.047917e-01 -1.355020e+00 -2.229248e+00 -1.097899e+00 2.456878e-01 -2.158980e-01 -6.960759e-01 -8.961666e-01 -8.212398e-01 8.114035e-01
<VARIANCE> 25
 3.111406e+01 4.019774e+01 4.504975e+01 4.146431e+01 4.849731e+01 5.661042e+01 4.281160e+01 4.095763e+01 5.025994e+01 4.244762e+01 3.143690e+01 2.546618e+01 2.317891e+00 3.149550e+00 3.087908e+00 3.151040e+00 3.396149e+00 4.573932e+00 4.195843e+00 4.035922e+00 4.034451e+00 3.409064e+00 3.195040e+00 2.762604e+00 1.784756e+00
<GCONST> 1.055627e+02
<STATE> 3
<MEAN> 25
 8.658910e+00 5.000401e+00 2.954348e+00 -2.671335e+00 -7.457289e+00 -1.043769e+01 -3.682248e+00 2.342003e+00 -1.993913e+00 -4.053403e+00 -3.655970e+00 -3.858294e+00 3.619523e-01 -4.174033e-01 -5.004941e-01 -5.413764e-01 -3.661138e-01 -3.691237e-01 1.985084e-01 6.194838e-01 2.091379e-01 -3.094780e-01 -4.365371e-01 -2.890210e-01 4.863066e-01
<VARIANCE> 25
 1.982055e+01 3.754977e+01 4.485072e+01 4.602500e+01 4.835411e+01 5.230594e+01 4.533890e+01 4.689768e+01 6.356376e+01 4.307386e+01 3.556441e+01 3.444476e+01 5.694164e-01 2.171613e+00 2.316406e+00 1.907328e+00 2.369149e+00 3.386717e+00 2.927253e+00 3.053224e+00 2.962884e+00 2.837181e+00 2.662840e+00 2.209183e+00 9.819031e-01
<GCONST> 1.005687e+02
<STATE> 4
<MEAN> 25
 7.936549e+00 5.316041e+00 2.239468e+00 -2.040418e+00 -5.537446e+00 -6.998611e+00 -2.096663e+00 2.982105e+00 -1.124920e+00 -4.924550e+00 -4.786534e+00 -3.909861e+00 -1.936503e-01 -3.466140e-01 -3.004697e-01 2.804921e-01 7.471921e-01 1.043675e+00 4.173047e-01 -2.147343e-01 -1.894316e-01 -7.248510e-02 1.116081e-02 1.502710e-01 -1.055882e-01
<VARIANCE> 25
 1.968233e+01 3.080829e+01 3.984565e+01 3.763365e+01 3.553752e+01 4.067476e+01 4.069976e+01 3.915368e+01 5.144368e+01 3.819278e+01 3.066512e+01 2.631176e+01 3.753779e-01 1.220878e+00 1.362571e+00 1.493957e+00 2.004738e+00 2.727168e+00 2.026844e+00 2.105258e+00 2.403310e+00 2.200738e+00 1.975419e+00 1.823615e+00 5.097307e-01
<GCONST> 9.394715e+01
~t "T_u"
<ENDHMM>
~h "u-a"
<BEGINHMM>
<NUMSTATES> 5
<STATE> 2
<MEAN> 25
 8.084209e+00 -3.246555e+00 -4.886938e+00 -2.890126e+00 -1.922659e+00 -4.591505e+00 -1.062124e+00 -1.533606e+00 -3.011539e+00 -1.419097e+00 7.822737e-01 1.974153e+00 8.531939e-01 -1.219489e+00 -1.591901e+00 -1.511451e+00 -1.099942e+00 -1.081241e+00 3.296968e-01 2.435892e-01 2.131322e-01 7.433307e-01 1.096173e+00 1.076555e+00 1.531909e+00
<VARIANCE> 25
 3.102556e+01 3.982352e+01 4.648204e+01 6.052976e+01 4.865224e+01 5.364120e+01 4.957391e+01 5.206113e+01 4.994263e+01 4.377484e+01 3.566540e+01 3.010361e+01 2.105191e+00 2.133569e+00 2.607650e+00 3.361774e+00 2.917656e+00 3.954443e+00 3.398865e+00 3.319243e+00 3.668817e+00 4.076825e+00 3.093344e+00 2.673295e+00 1.675560e+00
<GCONST> 1.052759e+02
<STATE> 3
<MEAN> 25
 9.462610e+00 -6.897775e+00 -8.743549e+00 -6.083593e+00 -4.604442e+00 -5.470979e+00 1.397076e+00 -2.830499e-01 -1.629562e+00 7.007640e-01 2.659651e+00 3.340820e+00 3.290816e-02 -1.735238e-01 -3.625012e-01 -3.627358e-01 -1.769637e-01 2.254089e-01 4.766614e-01 2.827543e-01 2.371980e-01 1.767752e-01 8.445666e-02 6.974697e-02 8.193482e-02
<VARIANCE> 25
 2.840129e+01 3.570125e+01 4.138834e+01 4.038225e+01 4.118876e+01 4.148624e+01 4.739182e+01 4.747406e+01 4.473821e+01 4.189992e+01 3.449903e+01 2.805832e+01 3.302394e-01 8.424883e-01 9.393210e-01 1.242460e+00 1.324397e+00 1.496400e+00 1.901740e+00 1.780651e+00 1.803969e+00 1.726919e+00 1.430944e+00 1.179275e+00 3.783611e-01
<GCONST> 9.133002e+01
<STATE> 4
<MEAN> 25
 8.177530e+00 -2.680661e+00 -7.293503e+00 -5.932261e+00 -3.758124e+00 -2.794274e+00 1.176165e+00 -3.390664e-01 -1.368642e+00 2.573896e-01 2.133668e+00 3.287408e+00 -4.538044e-01 8.704351e-01 7.276899e-01 4.679444e-01 4.150407e-01 5.706517e-01 -1.937626e-01 -1.382255e-01 1.753797e-02 -1.629017e-01 -2.942949e-01 -3.140077e-01 -8.826797e-01
<VARIANCE> 25
 2.215926e+01 3.099335e+01 3.486272e+01 3.668752e+01 3.283007e+01 3.965223e+01 3.500597e+01 3.826480e+01 3.512437e+01 3.170736e+01 2.563973e+01 2.200531e+01 5.861269e-01 9.910762e-01 1.080531e+00 1.252255e+00 1.395680e+00 1.835312e+00 1.787168e+00 1.826652e+00 1.993582e+00 1.853269e+00 1.609923e+00 1.318195e+00 6.483233e-01
<GCONST> 9.086413e+01
~t "T_a"
<ENDHMM>
~h "u-d"
<BEGINHMM>
<NUMSTATES> 5
<STATE> 2
<MEAN> 25
 4.986747e+00 1.173107e+00 -3.532605e-03 -2.869664e-01 -8.792292e-01 -2.943893e-01 -1.157155e-01 -1.781017e+00 -2.767115e+00 -2.582419e+00 -1.706980e+00 -5.448081e-01 -2.492582e-01 7.052330e-01 5.542889e-01 4.937656e-01 3.336083e-01 7.560925e-01 3.487482e-01 9.874161e-02 5.457619e-02 -1.007866e-01 -2.741712e-01 -1.678351e-01 -6.813607e-01
<VARIANCE> 25
 3.575130e+01 4.199368e+01 4.126587e+01 5.860994e+01 5.800882e+01 5.540382e+01 4.170780e+01 4.906739e+01 4.723788e+01 3.940030e+01 2.930230e+01 2.850399e+01 1.251378e+00 1.493562e+00 1.629822e+00 2.081238e+00 2.239027e+00 2.528253e+00 2.284125e+00 2.485779e+00 2.461237e+00 2.372278e+00 2.008663e+00 1.836602e+00 1.659663e+00
<GCONST> 9.990127e+01
<STATE> 3
<MEAN> 25
 4.914427e+00 1.635913e+00 8.481176e-01 5.874320e-01 -1.860407e-01 2.406812e-01 -3.938809e-02 -1.716778e+00 -2.743559e+00 -2.302445e+00 -1.865128e+00 -5.342951e-01 -2.087076e-01 3.739429e-02 2.673025e-01 1.669757e-01 1.145322e-01 1.772111e-01 9.942254e-02 -5.373251e-02 -6.358257e-02 -4.126178e-02 1.807586e-02 1.027398e-01 -1.237136e-01
<VARIANCE> 25
 2.888018e+01 4.287783e+01 4.231509e+01 5.601795e+01 5.643327e+01 5.696796e+01 4.082035e+01 4.643125e+01 4.334551e+01 3.674223e+01 2.845123e+01 2.631162e+01 6.074597e-01 9.825633e-01 1.005929e+00 1.402578e+00 1.643439e+00 1.440409e+00 1.691248e+00 1.775282e+00 1.692227e+00 1.545876e+00 1.368715e+00 1.293374e+00 5.901869e-01
<GCONST> 9.324805e+01
<STATE> 4
<MEAN> 25
 4.336635e+00 1.898943e+00 1.592930e+00 1.054985e+00 7.405771e-02 9.789971e-01 5.451074e-02 -1.993555e+00 -2.809552e+00 -2.274028e+00 -1.686451e+00 -2.280605e-01 4.773585e-02 -5.405355e-01 -1.993422e-02 -3.128903e-02 -5.543578e-02 -4.109922e-01 -2.349472e-01 -2.260227e-01 -2.361541e-01 -3.670364e-05 2.079962e-01 2.329595e-01 4.070511e-01
<VARIANCE> 25
 2.717667e+01 4.477932e+01 4.206721e+01 5.259300e+01 5.149903e+01 5.344878e+01 3.844084e+01 4.642159e+01 4.322847e+01 3.436483e+01 2.569947e+01 2.370034e+01 4.915567e-01 1.268307e+00 9.630365e-01 1.468139e+00 1.692315e+00 1.473882e+00 1.775575e+00 2.010480e+00 1.839599e+00 1.618163e+00 1.409668e+00 1.328542e+00 7.107434e-01
<GCONST> 9.331273e+01
~t "T_d"
<ENDHMM>
~h "u-e"
<BEGINHMM>
<NUMSTATES> 5
<STATE> 2
<MEAN> 25
 4.917822e+00 -3.046909e+00 -7.860230e-01 1.961976e+00 3.296882e+00 -3.095960e+00 -4.445966e+00 -4.378197e+00 -4.194638e+00 -1.446952e+00 1.146220e-01 1.648807e-01 1.062938e+00 -1.285595e+00 -6.981800e-01 4.423747e-01 5.001229e-01 -1.895295e+00 -1.787762e+00 -1.308817e+00 -1.084860e+00 1.344622e-01 6.617222e-01 3.701210e-01 1.670173e+00
<VARIANCE> 25
 3.577217e+01 3.706077e+01 4.774310e+01 6.015227e+01 4.925949e+01 6.036604e+01 5.010396e+01 4.977269e+01 4.858726e+01 3.950971e+01 3.013842e+01 2.473536e+01 2.384392e+00 2.958043e+00 2.685448e+00 3.858023e+00 3.340221e+00 5.064232e+00 4.063103e+00 3.681123e+00 4.037725e+00 4.174648e+00 3.332788e+00 2.898063e+00 2.226966e+00
<GCONST> 1.068105e+02
<STATE> 3
<MEAN> 25
 7.191195e+00 -7.001473e+00 -2.328277e+00 2.836691e+00 3.888689e+00 -7.911126e+00 -8.482172e+00 -6.657192e+00 -5.470276e+00 -1.285404e-01 1.987994e+00 7.147580e-01 8.514885e-02 -4.249433e-01 -1.496204e-01 2.818093e-01 1.203487e-01 -6.073316e-01 -4.420330e-01 -1.406531e-01 1.603031e-01 5.093133e-01 3.347531e-01 -4.041983e-02 2.952766e-01
<VARIANCE> 25
 2.837927e+01 3.550758e+01 4.376701e+01 6.339727e+01 5.782299e+01 6.153004e+01 4.445435e+01 4.665985e+01 4.438187e+01 4.603452e+01 3.686113e+01 3.249733e+01 5.579238e-01 9.633060e-01 1.396090e+00 1.826277e+00 1.583154e+00 2.003756e+00 1.982185e+00 1.856537e+00 2.013892e+00 2.006657e+00 1.751121e+00 1.508502e+00 5.828047e-01
<GCONST> 9.591582e+01
<STATE> 4
<MEAN> 25
 5.895019e+00 -4.724988e+00 -1.197292e+00 3.906052e+00 3.870449e+00 -6.545651e+00 -8.215060e+00 -6.679025e+00 -4.172563e+00 5.337154e-01 9.279272e-01 -6.742178e-01 -3.232698e-01 7.992764e-01 3.300467e-01 -6.339286e-02 7.912491e-02 1.004552e+00 6.088396e-01 3.772415e-01 3.436322e-01 -1.313366e-01 -2.720630e-01 -1.298955e-01 -7.956876e-01
<VARIANCE> 25
 2.029749e+01 3.066547e+01 3.368494e+01 5.057070e+01 4.296806e+01 5.593891e+01 3.659196e+01 3.710094e+01 4.034227e+01 3.575679e+01 3.262199e+01 2.925796e+01 5.569103e-01 1.011105e+00 1.171097e+00 1.448238e+00 1.440968e+00 2.011663e+00 1.814593e+00 1.739066e+00 1.905525e+00 1.867028e+00 1.539982e+00 1.274082e+00 7.538318e-01
<GCONST> 9.278246e+01
~t "T_e"
<ENDHMM>
~h "u-i"
<BEGINHMM>
<NUMSTATES> 5
<STATE> 2
<MEAN> 25
 2.824880e+00 -2.961581e+00 4.292364e+00 7.499251e+00 7.346193e+00 -2.067250e+00 -5.297520e+00 -2.873806e+00 -2.378581e+00 -1.973293e+00 -2.520489e+00 -3.736685e+00 1.015099e+00 -9.724852e-01 2.479329e-01 2.179622e+00 1.426837e+00 -2.128228e+00 -2.309814e+00 -3.848035e-01 -7.270547e-01 -7.560874e-01 -6.794949e-01 -8.365397e-01 1.175898e+00
<VARIANCE> 25
 3.374600e+01 3.967356e+01 6.750194e+01 6.375350e+01 5.781096e+01 6.437442e+01 4.980933e+01 4.415491e+01 4.445846e+01 3.540117e+01 3.356274e+01 2.704606e+01 3.132528e+00 4.137255e+00 3.621446e+00 4.487921e+00 4.215056e+00 5.312013e+00 4.005538e+00 3.824685e+00 4.409300e+00 4.209664e+00 3.923692e+00 2.984154e+00 1.617640e+00
<GCONST> 1.086541e+02
<STATE> 3
<MEAN> 25
 3.691633e+00 -6.378765e+00 6.166086e+00 1.236009e+01 7.380941e+00 -9.047977e+00 -9.580333e+00 -1.629763e+00 -3.102339e+00 -4.599288e+00 -4.548250e+00 -5.048493e+00 8.359629e-02 -2.991736e-01 1.296623e-01 4.305927e-01 9.667514e-03 -8.290642e-01 -5.818837e-01 1.603395e-01 8.957740e-02 -1.876646e-01 -1.591199e-01 -1.092843e-01 2.681427e-01
<VARIANCE> 25
 2.149308e+01 3.103732e+01 4.970968e+01 5.873264e+01 7.158559e+01 6.920425e+01 3.966159e+01 4.495304e+01 4.204121e+01 4.275245e+01 4.102441e+01 2.954641e+01 6.639252e-01 9.264812e-01 1.883231e+00 1.858640e+00 1.558079e+00 2.146437e+00 1.929194e+00 2.097977e+00 1.840118e+00 1.884095e+00 1.595546e+00 1.333590e+00 5.259222e-01
<GCONST> 9.574519e+01
<STATE> 4
<MEAN> 25
 4.036044e+00 -4.218312e+00 4.209880e+00 1.037407e+01 7.996428e+00 -6.247262e+00 -9.419474e+00 -3.331409e+00 -2.663913e+00 -2.918104e+00 -3.142705e+00 -4.376024e+00 3.821991e-02 8.336469e-01 -6.000085e-01 -1.181883e+00 -5.675405e-01 1.117856e+00 8.718380e-01 -2.187419e-01 -3.897155e-02 3.511441e-01 4.869802e-01 5.886047e-01 -5.325214e-01
<VARIANCE> 25
 1.972391e+01 3.227742e+01 4.309776e+01 5.167957e+01 5.495691e+01 6.691110e+01 3.850472e+01 4.351723e+01 4.154246e+01 3.556070e+01 3.517086e+01 2.803684e+01 6.999541e-01 1.390189e+00 1.663853e+00 1.824908e+00 1.964548e+00 2.784639e+00 2.501812e+00 2.236512e+00 2.341234e+00 2.148965e+00 1.947036e+00 1.699689e+00 1.056007e+00
<GCONST> 9.730878e+01
~t "T_i"
<ENDHMM>
~h "u-l"
<BEGINHMM>
<NUMSTATES> 5
<STATE> 2
<MEAN> 25
 6.314451e+00 -2.836339e+00 -2.415431e+00 2.781851e+00 1.947059e+00 -2.800302e+00 -2.661815e+00 -2.324516e+00 -3.876258e+00 -3.683601e+00 -1.570764e+00 7.563966e-02 3.129438e-01 4.277349e-01 7.984434e-01 1.918523e+00 1.017305e+00 4.531452e-01 -1.293264e-01 2.709396e-01 -7.299022e-01 -1.606042e+00 -1.354267e+00 -7.730924e-01 -6.160657e-01
<VARIANCE> 25
 3.768519e+01 4.112976e+01 4.717404e+01 6.522243e+01 4.798243e+01 5.569359e+01 4.089912e+01 4.426613e+01 5.019736e+01 4.535135e+01 3.915966e+01 3.028901e+01 1.699836e+00 1.977105e+00 2.316171e+00 3.031282e+00 2.905935e+00 4.508301e+00 3.719640e+00 4.100824e+00 4.742221e+00 3.786747e+00 3.138241e+00 2.508972e+00 2.132987e+00
<GCONST> 1.056931e+02
<STATE> 3
<MEAN> 25
 7.308776e+00 -2.116291e+00 -5.915496e-01 8.047751e+00 4.512689e+00 -2.649817e+00 -3.380396e+00 -8.267048e-01 -5.005058e+00 -7.383716e+00 -4.765788e+00 -2.091391e+00 -2.042886e-01 4.120783e-01 5.339515e-01 7.017787e-01 3.444184e-01 2.565898e-01 1.210279e-01 4.571145e-01 1.694299e-01 -4.738842e-01 -6.538218e-01 -4.505804e-01 -4.639952e-01
<VARIANCE> 25
 2.202492e+01 3.481960e+01 3.887338e+01 6.391379e+01 4.331805e+01 4.796937e+01 4.158508e+01 4.477020e+01 4.591209e+01 3.888554e+01 3.268353e+01 2.532600e+01 8.968565e-01 1.265179e+00 1.520058e+00 2.136260e+00 1.615692e+00 2.971242e+00 2.029787e+00 2.106359e+00 2.521566e+00 2.456026e+00 1.921850e+00 1.679168e+00 9.447469e-01
<GCONST> 9.704557e+01
<STATE> 4
<MEAN> 25
 5.966500e+00 -3.820904e-01 3.151454e-01 7.105481e+00 4.340966e+00 -1.720254e+00 -3.097861e+00 -7.825651e-01 -3.803820e+00 -6.722578e+00 -5.169729e+00 -2.231982e+00 -1.248948e-01 3.641126e-02 -1.620759e-01 -8.538845e-01 -4.337227e-01 -1.165125e-01 1.175181e-01 -1.721042e-01 8.785849e-02 4.827425e-01 5.441091e-01 3.938914e-01 1.508765e-01
<VARIANCE> 25
 2.100273e+01 3.151579e+01 3.614806e+01 5.096074e+01 3.741170e+01 4.566805e+01 3.924998e+01 3.931923e+01 4.211623e+01 3.813666e+01 3.033226e+01 2.373476e+01 8.690925e-01 1.079303e+00 1.530230e+00 2.250370e+00 1.643832e+00 2.437176e+00 1.802907e+00 2.009850e+00 2.136790e+00 2.217616e+00 1.925478e+00 1.643911e+00 9.747648e-01
<GCONST> 9.523684e+01
~t "T_l"
<ENDHMM>
~h "u-n"
<BEGINHMM>
<NUMSTATES> 5
<STATE> 2
<MEAN> 25
 7.169885e+00 3.457295e-01 -9.706034e-01 1.822969e+00 2.203207e+00 -1.710077e+00 -1.541217e+00 -6.925409e-01 -3.499932e+00 -2.178467e+00 -7.829415e-01 -1.847775e+00 -1.776564e-01 1.685531e+00 6.899630e-01 1.139801e+00 6.890932e-01 2.057916e+00 4.165332e-01 -6.090450e-01 -1.683788e-01 -9.237592e-02 -7.342267e-01 -1.250047e+00 -1.560356e+00
<VARIANCE> 25
 2.165102e+01 3.528417e+01 4.496836e+01 6.788055e+01 4.849240e+01 5.297578e+01 4.589392e+01 4.388946e+01 4.575230e+01 3.900736e+01 3.414560e+01 3.704768e+01 9.116951e-01 1.700086e+00 1.786228e+00 4.035296e+00 3.243808e+00 3.321929e+00 3.851503e+00 3.338852e+00 3.444288e+00 2.962204e+00 2.780899e+00 2.558904e+00 1.011466e+00
<GCONST> 1.023394e+02
<STATE> 3
<MEAN> 25
 6.451331e+00 3.805457e+00 7.997720e-01 4.104099e+00 3.209973e+00 1.771652e+00 -1.687927e+00 -2.346424e+00 -2.799612e+00 -1.867672e+00 -2.654003e+00 -4.671466e+00 -4.288488e-01 8.661700e-01 6.104125e-01 6.183404e-01 3.940374e-01 1.045232e+00 2.131816e-01 -3.304687e-01 1.941549e-01 1.693209e-01 -3.405662e-01 -4.656930e-01 -8.459170e-01
<VARIANCE> 25
 1.605801e+01 2.327610e+01 3.427949e+01 4.943877e+01 3.551352e+01 4.001220e+01 3.662941e+01 3.266262e+01 4.372853e+01 3.314529e+01 2.653506e+01 2.688600e+01 4.240589e-01 7.692712e-01 1.020777e+00 1.824027e+00 1.598796e+00 1.636005e+00 1.955104e+00 1.795479e+00 2.067024e+00 1.608387e+00 1.611071e+00 1.827414e+00 4.028325e-01
<GCONST> 9.059154e+01
<STATE> 4
<MEAN> 25
 3.843240e+00 4.976631e+00 2.044346e+00 4.405276e+00 3.430595e+00 3.177998e+00 -7.137617e-01 -1.420924e+00 -8.184713e-01 -5.259312e-01 -2.154598e+00 -3.488309e+00 -4.377143e-01 -2.375585e-02 4.742600e-02 -6.740690e-02 -9.708463e-02 1.467522e-01 2.977267e-01 2.026634e-01 7.117245e-02 2.588364e-02 1.424470e-01 2.484765e-01 -3.065790e-01
<VARIANCE> 25
 1.843643e+01 1.784051e+01 2.607419e+01 3.130790e+01 2.558590e+01 2.868715e+01 2.686604e+01 2.596465e+01 3.096772e+01 2.389989e+01 1.980139e+01 1.923713e+01 4.635847e-01 5.872605e-01 8.780912e-01 9.187444e-01 9.726738e-01 1.154603e+00 1.138327e+00 1.124501e+00 1.193445e+00 1.121723e+00 1.058525e+00 1.099325e+00 4.008314e-01
<GCONST> 8.251925e+01
~t "T_n"
<ENDHMM>
~h "u-r"
<BEGINHMM>
<NUMSTATES> 5
<STATE> 2
<MEAN> 25
 8.643217e+00 -2.787229e+00 -6.224000e+00 -3.124852e+00 1.355937e+00 -3.755785e+00 -4.512966e+00 -3.933424e+00 -2.882520e+00 -2.216112e+00 -7.354643e-01 1.580987e+00 1.561792e-01 8.974332e-01 -3.782570e-01 5.168830e-01 1.252811e+00 1.208448e+00 -3.267309e-01 -2.546778e-01 -2.021774e-01 -5.815746e-01 -5.138835e-01 -2.330100e-02 -1.076871e+00
<VARIANCE> 25
 3.211975e+01 4.498290e+01 5.062462e+01 5.935705e+01 5.828969e+01 5.106108e+01 4.451467e+01 4.801496e+01 4.760433e+01 4.023750e+01 3.850442e+01 3.225385e+01 1.654517e+00 2.112823e+00 2.382579e+00 2.979533e+00 3.407424e+00 4.447104e+00 3.988335e+00 3.638894e+00 3.461148e+00 2.960581e+00 2.838124e+00 2.399935e+00 1.986631e+00
<GCONST> 1.051154e+02
<STATE> 3
<MEAN> 25
 7.898341e+00 6.769122e-01 -5.980435e+00 -1.402799e+00 3.525082e+00 4.491480e-01 -3.918551e+00 -3.587373e+00 -2.649347e+00 -2.842372e+00 -1.689278e+00 1.021962e+00 -7.756338e-01 7.563383e-01 5.502752e-01 8.270113e-01 2.798240e-01 1.325491e+00 7.032835e-01 3.596233e-01 3.082208e-01 -5.154090e-03 -2.048264e-01 -3.199293e-01 -1.361292e+00
<VARIANCE> 25
 2.876068e+01 3.251756e+01 4.847742e+01 5.875251e+01 4.849226e+01 4.357820e+01 4.282160e+01 3.805943e+01 3.575104e+01 3.216047e+01 2.785275e+01 2.531534e+01 1.549412e+00 2.112714e+00 2.763809e+00 3.039823e+00 3.358799e+00 3.590118e+00 3.448425e+00 3.136224e+00 3.408474e+00 2.967985e+00 2.623605e+00 2.237263e+00 1.636310e+00
<GCONST> 1.021613e+02
<STATE> 4
<MEAN> 25
 5.412677e+00 1.833103e+00 -4.028427e+00 -5.085419e-01 2.267809e+00 2.085018e+00 -1.665371e+00 -2.343382e+00 -1.808912e+00 -2.284674e+00 -1.413052e+00 3.313459e-01 -4.867756e-01 -6.988044e-02 4.821670e-01 3.639740e-01 -2.038538e-01 -1.353530e-01 2.935330e-01 3.202356e-01 4.707072e-02 1.700878e-01 1.382703e-01 -1.182176e-01 -2.790100e-01
<VARIANCE> 25
 2.738630e+01 3.117259e+01 4.332304e+01 4.824800e+01 3.927319e+01 3.631243e+01 3.395251e+01 3.381007e+01 3.105561e+01 2.732073e+01 2.547030e+01 2.190276e+01 1.094292e+00 1.505075e+00 2.021805e+00 2.286807e+00 2.216540e+00 2.356158e+00 2.429886e+00 2.174607e+00 2.300617e+00 2.008530e+00 1.813168e+00 1.681972e+00 1.042680e+00
<GCONST> 9.575272e+01
~t "T_r"
<ENDHMM>
~h "u-s"
<BEGINHMM>
<NUMSTATES> 5
<STATE> 2
<MEAN> 25
 -2.672227e+00 -3.270423e+00 1.004953e+01 -4.440532e+00 1.809237e-01 1.463706e+00 2.479738e+00 -8.504221e-01 -6.740083e-01 7.527752e-01 2.025366e-01 -1.215088e-01 -2.952475e+00 -1.081467e+00 2.472686e+00 -1.170398e+00 1.552520e-01 9.225060e-01 1.190610e+00 1.466946e-02 5.599615e-01 4.710526e-01 5.590721e-01 2.782978e-01 2.598815e-01
<VARIANCE> 25
 6.090248e+01 4.096783e+01 9.645750e+01 7.985217e+01 7.116714e+01 6.051644e+01 6.688841e+01 7.043929e+01 5.318323e+01 4.527814e+01 3.572353e+01 2.664364e+01 3.096100e+00 3.809794e+00 4.041855e+00 4.010174e+00 3.633645e+00 4.631847e+00 3.728845e+00 3.332037e+00 3.740141e+00 3.394577e+00 2.906559e+00 2.198195e+00 1.359681e+00
<GCONST> 1.094882e+02
<STATE> 3
<MEAN> 25
 -1.388278e+01 -7.547144e+00 1.724523e+01 -1.016027e+01 5.564176e-01 9.960555e-01 5.586256e+00 -1.188120e+00 5.186584e-01 1.813791e+00 1.467571e+00 5.005577e-01 -2.925702e-01 -1.122364e-01 -2.537486e-01 7.632152e-02 -1.322451e-02 7.181087e-02 4.822661e-02 6.459653e-02 8.100856e-02 3.569933e-02 1.088791e-01 9.543600e-02 -2.908385e-01
<VARIANCE> 25
 7.703424e+01 8.092426e+01 1.181283e+02 1.229016e+02 1.058419e+02 8.350800e+01 7.997587e+01 8.339116e+01 7.095995e+01 5.324371e+01 4.210551e+01 2.871686e+01 2.398076e+00 1.604921e+00 2.021634e+00 2.360392e+00 1.573115e+00 1.834233e+00 1.877151e+00 1.805621e+00 1.722814e+00 1.544063e+00 1.343992e+00 1.183776e+00 8.760858e-01
<GCONST> 1.039959e+02
<STATE> 4
<MEAN> 25
 -6.362659e+00 -4.423155e+00 9.820220e+00 -4.903218e+00 -3.681852e-01 2.570100e+00 3.167925e+00 -5.793936e-01 -8.759587e-02 1.059100e+00 1.291414e+00 8.679242e-01 2.306367e+00 1.451382e+00 -1.806829e+00 1.135726e+00 -1.512867e-01 -5.723754e-03 -1.025580e+00 -6.012088e-02 -4.432604e-01 -4.086378e-01 -5.183563e-01 -1.828476e-01 -1.028221e+00
<VARIANCE> 25
 5.843802e+01 5.417876e+01 7.380061e+01 6.748988e+01 5.934891e+01 5.204456e+01 5.172548e+01 5.419441e+01 4.946672e+01 4.243489e+01 3.060479e+01 2.467298e+01 5.810026e+00 3.654878e+00 3.590863e+00 3.486390e+00 3.299611e+00 3.667934e+00 3.647548e+00 3.210599e+00 3.578302e+00 3.155891e+00 2.695603e+00 2.113597e+00 1.871167e+00
<GCONST> 1.080983e+02
~t "T_s"
<ENDHMM>
~h "rr-u+b"
<BEGINHMM>
<NUMSTATES> 5
<STATE> 2
<MEAN> 25
 5.841117e+00 4.888117e+00 2.686566e+00 -7.820466e-01 -3.509169e+00 -4.456264e+00 -1.667651e+00 1.072235e+00 -1.711213e+00 -3.398537e+00 -2.842877e+00 -2.182095e+00 1.576147e+00 1.045471e+00 4.197832e-01 -3.047917e-01 -1.355020e+00 -2.229248e+00 -1.097899e+00 2.456878e-01 -2.158980e-01 -6.960759e-01 -8.961666e-01 -8.212398e-01 8.114035e-01
<VARIANCE> 25
 3.111406e+01 4.019774e+01 4.504975e+01 4.146431e+01 4.849731e+01 5.661042e+01 4.281160e+01 4.095763e+01 5.025994e+01 4.244762e+01 3.143690e+01 2.546618e+01 2.317891e+00 3.149550e+00 3.087908e+00 3.151040e+00 3.396149e+00 4.573932e+00 4.195843e+00 4.035922e+00 4.034451e+00 3.409064e+00 3.195040e+00 2.762604e+00 1.784756e+00
<GCONST> 1.055627e+02
<STATE> 3
<MEAN> 25
 8.658910e+00 5.000401e+00 2.954348e+00 -2.671335e+00 -7.457289e+00 -1.043769e+01 -3.682248e+00 2.342003e+00 -1.993913e+00 -4.053403e+00 -3.655970e+00 -3.858294e+00 3.619523e-01 -4.174033e-01 -5.004941e-01 -5.413764e-01 -3.661138e-01 -3.691237e-01 1.985084e-01 6.194838e-01 2.091379e-01 -3.094780e-01 -4.365371e-01 -2.890210e-01 4.863066e-01
<VARIANCE> 25
 1.982055e+01 3.754977e+01 4.485072e+01 4.602500e+01 4.835411e+01 5.230594e+01 4.533890e+01 4.689768e+01 6.356376e+01 4.307386e+01 3.556441e+01 3.444476e+01 5.694164e-01 2.171613e+00 2.316406e+00 1.907328e+00 2.369149e+00 3.386717e+00 2.927253e+00 3.053224e+00 2.962884e+00 2.837181e+00 2.662840e+00 2.209183e+00 9.819031e-01
<GCONST> 1.005687e+02
<STATE> 4
<MEAN> 25
 7.936549e+00 5.316041e+00 2.239468e+00 -2.040418e+00 -5.537446e+00 -6.998611e+00 -2.096663e+00 2.982105e+00 -1.124920e+00 -4.924550e+00 -4.786534e+00 -3.909861e+00 -1.936503e-01 -3.466140e-01 -3.004697e-01 2.804921e-01 7.471921e-01 1.043675e+00 4.173047e-01 -2.147343e-01 -1.894316e-01 -7.248510e-02 1.116081e-02 1.502710e-01 -1.055882e-01
<VARIANCE> 25
 1.968233e+01 3.080829e+01 3.984565e+01 3.763365e+01 3.553752e+01 4.067476e+01 4.069976e+01 3.915368e+01 5.144368e+01 3.819278e+01 3.066512e+01 2.631176e+01 3.753779e-01 1.220878e+00 1.362571e+00 1.493957e+00 2.004738e+00 2.727168e+00 2.026844e+00 2.105258e+00 2.403310e+00 2.200738e+00 1.975419e+00 1.823615e+00 5.097307e-01
<GCONST> 9.394715e+01
~t "T_u"
<ENDHMM>
~h "rr-u+i"
<BEGINHMM>
<NUMSTATES> 5
<STATE> 2
<MEAN> 25
 5.841117e+00 4.888117e+00 2.686566e+00 -7.820466e-01 -3.509169e+00 -4.456264e+00 -1.667651e+00 1.072235e+00 -1.711213e+00 -3.398537e+00 -2.842877e+00 -2.182095e+00 1.576147e+00 1.045471e+00 4.197832e-01 -3.047917e-01 -1.355020e+00 -2.229248e+00 -1.097899e+00 2.456878e-01 -2.158980e-01 -6.960759e-01 -8.961666e-01 -8.212398e-01 8.114035e-01
<VARIANCE> 25
 3.111406e+01 4.019774e+01 4.504975e+01 4.146431e+01 4.849731e+01 5.661042e+01 4.281160e+01 4.095763e+01 5.025994e+01 4.244762e+01 3.143690e+01 2.546618e+01 2.317891e+00 3.149550e+00 3.087908e+00 3.151040e+00 3.396149e+00 4.573932e+00 4.195843e+00 4.035922e+00 4.034451e+00 3.409064e+00 3.195040e+00 2.762604e+00 1.784756e+00
<GCONST> 1.055627e+02
<STATE> 3
<MEAN> 25
 8.658910e+00 5.000401e+00 2.954348e+00 -2.671335e+00 -7.457289e+00 -1.043769e+01 -3.682248e+00 2.342003e+00 -1.993913e+00 -4.053403e+00 -3.655970e+00 -3.858294e+00 3.619523e-01 -4.174033e-01 -5.004941e-01 -5.413764e-01 -3.661138e-01 -3.691237e-01 1.985084e-01 6.194838e-01 2.091379e-01 -3.094780e-01 -4.365371e-01 -2.890210e-01 4.863066e-01
<VARIANCE> 25
 1.982055e+01 3.754977e+01 4.485072e+01 4.602500e+01 4.835411e+01 5.230594e+01 4.533890e+01 4.689768e+01 6.356376e+01 4.307386e+01 3.556441e+01 3.444476e+01 5.694164e-01 2.171613e+00 2.316406e+00 1.907328e+00 2.369149e+00 3.386717e+00 2.927253e+00 3.053224e+00 2.962884e+00 2.837181e+00 2.662840e+00 2.209183e+00 9.819031e-01
<GCONST> 1.005687e+02
<STATE> 4
<MEAN> 25
 7.936549e+00 5.316041e+00 2.239468e+00 -2.040418e+00 -5.537446e+00 -6.998611e+00 -2.096663e+00 2.982105e+00 -1.124920e+00 -4.924550e+00 -4.786534e+00 -3.909861e+00 -1.936503e-01 -3.466140e-01 -3.004697e-01 2.804921e-01 7.471921e-01 1.043675e+00 4.173047e-01 -2.147343e-01 -1.894316e-01 -7.248510e-02 1.116081e-02 1.502710e-01 -1.055882e-01
<VARIANCE> 25
 1.968233e+01 3.080829e+01 3.984565e+01 3.763365e+01 3.553752e+01 4.067476e+01 4.069976e+01 3.915368e+01 5.144368e+01 3.819278e+01 3.066512e+01 2.631176e+01 3.753779e-01 1.220878e+00 1.362571e+00 1.493957e+00 2.004738e+00 2.727168e+00 2.026844e+00 2.105258e+00 2.403310e+00 2.200738e+00 1.975419e+00 1.823615e+00 5.097307e-01
<GCONST> 9.394715e+01
~t "T_u"
<ENDHMM>
~h "rr-u+m"
<BEGINHMM>
<NUMSTATES> 5
<STATE> 2
<MEAN> 25
 5.841117e+00 4.888117e+00 2.686566e+00 -7.820466e-01 -3.509169e+00 -4.456264e+00 -1.667651e+00 1.072235e+00 -1.711213e+00 -3.398537e+00 -2.842877e+00 -2.182095e+00 1.576147e+00 1.045471e+00 4.197832e-01 -3.047917e-01 -1.355020e+00 -2.229248e+00 -1.097899e+00 2.456878e-01 -2.158980e-01 -6.960759e-01 -8.961666e-01 -8.212398e-01 8.114035e-01
<VARIANCE> 25
 3.111406e+01 4.019774e+01 4.504975e+01 4.146431e+01 4.849731e+01 5.661042e+01 4.281160e+01 4.095763e+01 5.025994e+01 4.244762e+01 3.143690e+01 2.546618e+01 2.317891e+00 3.149550e+00 3.087908e+00 3.151040e+00 3.396149e+00 4.573932e+00 4.195843e+00 4.035922e+00 4.034451e+00 3.409064e+00 3.195040e+00 2.762604e+00 1.784756e+00
<GCONST> 1.055627e+02
<STATE> 3
<MEAN> 25
 8.658910e+00 5.000401e+00 2.954348e+00 -2.671335e+00 -7.457289e+00 -1.043769e+01 -3.682248e+00 2.342003e+00 -1.993913e+00 -4.053403e+00 -3.655970e+00 -3.858294e+00 3.619523e-01 -4.174033e-01 -5.004941e-01 -5.413764e-01 -3.661138e-01 -3.691237e-01 1.985084e-01 6.194838e-01 2.091379e-01 -3.094780e-01 -4.365371e-01 -2.890210e-01 4.863066e-01
<VARIANCE> 25
 1.982055e+01 3.754977e+01 4.485072e+01 4.602500e+01 4.835411e+01 5.230594e+01 4.533890e+01 4.689768e+01 6.356376e+01 4.307386e+01 3.556441e+01 3.444476e+01 5.694164e-01 2.171613e+00 2.316406e+00 1.907328e+00 2.369149e+00 3.386717e+00 2.927253e+00 3.053224e+00 2.962884e+00 2.837181e+00 2.662840e+00 2.209183e+00 9.819031e-01
<GCONST> 1.005687e+02
<STATE> 4
<MEAN> 25
 7.936549e+00 5.316041e+00 2.239468e+00 -2.040418e+00 -5.537446e+00 -6.998611e+00 -2.096663e+00 2.982105e+00 -1.124920e+00 -4.924550e+00 -4.786534e+00 -3.909861e+00 -1.936503e-01 -3.466140e-01 -3.004697e-01 2.804921e-01 7.471921e-01 1.043675e+00 4.173047e-01 -2.147343e-01 -1.894316e-01 -7.248510e-02 1.116081e-02 1.502710e-01 -1.055882e-01
<VARIANCE> 25
 1.968233e+01 3.080829e+01 3.984565e+01 3.763365e+01 3.553752e+01 4.067476e+01 4.069976e+01 3.915368e+01 5.144368e+01 3.819278e+01 3.066512e+01 2.631176e+01 3.753779e-01 1.220878e+00 1.362571e+00 1.493957e+00 2.004738e+00 2.727168e+00 2.026844e+00 2.105258e+00 2.403310e+00 2.200738e+00 1.975419e+00 1.823615e+00 5.097307e-01
<GCONST> 9.394715e+01
~t "T_u"
<ENDHMM>
~h "m-u+e"
<BEGINHMM>
<NUMSTATES> 5
<STATE> 2
<MEAN> 25
 5.841117e+00 4.888117e+00 2.686566e+00 -7.820466e-01 -3.509169e+00 -4.456264e+00 -1.667651e+00 1.072235e+00 -1.711213e+00 -3.398537e+00 -2.842877e+00 -2.182095e+00 1.576147e+00 1.045471e+00 4.197832e-01 -3.047917e-01 -1.355020e+00 -2.229248e+00 -1.097899e+00 2.456878e-01 -2.158980e-01 -6.960759e-01 -8.961666e-01 -8.212398e-01 8.114035e-01
<VARIANCE> 25
 3.111406e+01 4.019774e+01 4.504975e+01 4.146431e+01 4.849731e+01 5.661042e+01 4.281160e+01 4.095763e+01 5.025994e+01 4.244762e+01 3.143690e+01 2.546618e+01 2.317891e+00 3.149550e+00 3.087908e+00 3.151040e+00 3.396149e+00 4.573932e+00 4.195843e+00 4.035922e+00 4.034451e+00 3.409064e+00 3.195040e+00 2.762604e+00 1.784756e+00
<GCONST> 1.055627e+02
<STATE> 3
<MEAN> 25
 8.658910e+00 5.000401e+00 2.954348e+00 -2.671335e+00 -7.457289e+00 -1.043769e+01 -3.682248e+00 2.342003e+00 -1.993913e+00 -4.053403e+00 -3.655970e+00 -3.858294e+00 3.619523e-01 -4.174033e-01 -5.004941e-01 -5.413764e-01 -3.661138e-01 -3.691237e-01 1.985084e-01 6.194838e-01 2.091379e-01 -3.094780e-01 -4.365371e-01 -2.890210e-01 4.863066e-01
<VARIANCE> 25
 1.982055e+01 3.754977e+01 4.485072e+01 4.602500e+01 4.835411e+01 5.230594e+01 4.533890e+01 4.689768e+01 6.356376e+01 4.307386e+01 3.556441e+01 3.444476e+01 5.694164e-01 2.171613e+00 2.316406e+00 1.907328e+00 2.369149e+00 3.386717e+00 2.927253e+00 3.053224e+00 2.962884e+00 2.837181e+00 2.662840e+00 2.209183e+00 9.819031e-01
<GCONST> 1.005687e+02
<STATE> 4
<MEAN> 25
 7.936549e+00 5.316041e+00 2.239468e+00 -2.040418e+00 -5.537446e+00 -6.998611e+00 -2.096663e+00 2.982105e+00 -1.124920e+00 -4.924550e+00 -4.786534e+00 -3.909861e+00 -1.936503e-01 -3.466140e-01 -3.004697e-01 2.804921e-01 7.471921e-01 1.043675e+00 4.173047e-01 -2.147343e-01 -1.894316e-01 -7.248510e-02 1.116081e-02 1.502710e-01 -1.055882e-01
<VARIANCE> 25
 1.968233e+01 3.080829e+01 3.984565e+01 3.763365e+01 3.553752e+01 4.067476e+01 4.069976e+01 3.915368e+01 5.144368e+01 3.819278e+01 3.066512e+01 2.631176e+01 3.753779e-01 1.220878e+00 1.362571e+00 1.493957e+00 2.004738e+00 2.727168e+00 2.026844e+00 2.105258e+00 2.403310e+00 2.200738e+00 1.975419e+00 1.823615e+00 5.097307e-01
<GCONST> 9.394715e+01
~t "T_u"
<ENDHMM>
~h "m-u+i"
<BEGINHMM>
<NUMSTATES> 5
<STATE> 2
<MEAN> 25
 5.841117e+00 4.888117e+00 2.686566e+00 -7.820466e-01 -3.509169e+00 -4.456264e+00 -1.667651e+00 1.072235e+00 -1.711213e+00 -3.398537e+00 -2.842877e+00 -2.182095e+00 1.576147e+00 1.045471e+00 4.197832e-01 -3.047917e-01 -1.355020e+00 -2.229248e+00 -1.097899e+00 2.456878e-01 -2.158980e-01 -6.960759e-01 -8.961666e-01 -8.212398e-01 8.114035e-01
<VARIANCE> 25
 3.111406e+01 4.019774e+01 4.504975e+01 4.146431e+01 4.849731e+01 5.661042e+01 4.281160e+01 4.095763e+01 5.025994e+01 4.244762e+01 3.143690e+01 2.546618e+01 2.317891e+00 3.149550e+00 3.087908e+00 3.151040e+00 3.396149e+00 4.573932e+00 4.195843e+00 4.035922e+00 4.034451e+00 3.409064e+00 3.195040e+00 2.762604e+00 1.784756e+00
<GCONST> 1.055627e+02
<STATE> 3
<MEAN> 25
 8.658910e+00 5.000401e+00 2.954348e+00 -2.671335e+00 -7.457289e+00 -1.043769e+01 -3.682248e+00 2.342003e+00 -1.993913e+00 -4.053403e+00 -3.655970e+00 -3.858294e+00 3.619523e-01 -4.174033e-01 -5.004941e-01 -5.413764e-01 -3.661138e-01 -3.691237e-01 1.985084e-01 6.194838e-01 2.091379e-01 -3.094780e-01 -4.365371e-01 -2.890210e-01 4.863066e-01
<VARIANCE> 25
 1.982055e+01 3.754977e+01 4.485072e+01 4.602500e+01 4.835411e+01 5.230594e+01 4.533890e+01 4.689768e+01 6.356376e+01 4.307386e+01 3.556441e+01 3.444476e+01 5.694164e-01 2.171613e+00 2.316406e+00 1.907328e+00 2.369149e+00 3.386717e+00 2.927253e+00 3.053224e+00 2.962884e+00 2.837181e+00 2.662840e+00 2.209183e+00 9.819031e-01
<GCONST> 1.005687e+02
<STATE> 4
<MEAN> 25
 7.936549e+00 5.316041e+00 2.239468e+00 -2.040418e+00 -5.537446e+00 -6.998611e+00 -2.096663e+00 2.982105e+00 -1.124920e+00 -4.924550e+00 -4.786534e+00 -3.909861e+00 -1.936503e-01 -3.466140e-01 -3.004697e-01 2.804921e-01 7.471921e-01 1.043675e+00 4.173047e-01 -2.147343e-01 -1.894316e-01 -7.248510e-02 1.116081e-02 1.502710e-01 -1.055882e-01
<VARIANCE> 25
 1.968233e+01 3.080829e+01 3.984565e+01 3.763365e+01 3.553752e+01 4.067476e+01 4.069976e+01 3.915368e+01 5.144368e+01 3.819278e+01 3.066512e+01 2.631176e+01 3.753779e-01 1.220878e+00 1.362571e+00 1.493957e+00 2.004738e+00 2.727168e+00 2.026844e+00 2.105258e+00 2.403310e+00 2.200738e+00 1.975419e+00 1.823615e+00 5.097307e-01
<GCONST> 9.394715e+01
~t "T_u"
<ENDHMM>
~h "m-u+n"
<BEGINHMM>
<NUMSTATES> 5
<STATE> 2
<MEAN> 25
 5.841117e+00 4.888117e+00 2.686566e+00 -7.820466e-01 -3.509169e+00 -4.456264e+00 -1.667651e+00 1.072235e+00 -1.711213e+00 -3.398537e+00 -2.842877e+00 -2.182095e+00 1.576147e+00 1.045471e+00 4.197832e-01 -3.047917e-01 -1.355020e+00 -2.229248e+00 -1.097899e+00 2.456878e-01 -2.158980e-01 -6.960759e-01 -8.961666e-01 -8.212398e-01 8.114035e-01
<VARIANCE> 25
 3.111406e+01 4.019774e+01 4.504975e+01 4.146431e+01 4.849731e+01 5.661042e+01 4.281160e+01 4.095763e+01 5.025994e+01 4.244762e+01 3.143690e+01 2.546618e+01 2.317891e+00 3.149550e+00 3.087908e+00 3.151040e+00 3.396149e+00 4.573932e+00 4.195843e+00 4.035922e+00 4.034451e+00 3.409064e+00 3.195040e+00 2.762604e+00 1.784756e+00
<GCONST> 1.055627e+02
<STATE> 3
<MEAN> 25
 8.658910e+00 5.000401e+00 2.954348e+00 -2.671335e+00 -7.457289e+00 -1.043769e+01 -3.682248e+00 2.342003e+00 -1.993913e+00 -4.053403e+00 -3.655970e+00 -3.858294e+00 3.619523e-01 -4.174033e-01 -5.004941e-01 -5.413764e-01 -3.661138e-01 -3.691237e-01 1.985084e-01 6.194838e-01 2.091379e-01 -3.094780e-01 -4.365371e-01 -2.890210e-01 4.863066e-01
<VARIANCE> 25
 1.982055e+01 3.754977e+01 4.485072e+01 4.602500e+01 4.835411e+01 5.230594e+01 4.533890e+01 4.689768e+01 6.356376e+01 4.307386e+01 3.556441e+01 3.444476e+01 5.694164e-01 2.171613e+00 2.316406e+00 1.907328e+00 2.369149e+00 3.386717e+00 2.927253e+00 3.053224e+00 2.962884e+00 2.837181e+00 2.662840e+00 2.209183e+00 9.819031e-01
<GCONST> 1.005687e+02
<STATE> 4
<MEAN> 25
 7.936549e+00 5.316041e+00 2.239468e+00 -2.040418e+00 -5.537446e+00 -6.998611e+00 -2.096663e+00 2.982105e+00 -1.124920e+00 -4.924550e+00 -4.786534e+00 -3.909861e+00 -1.936503e-01 -3.466140e-01 -3.004697e-01 2.804921e-01 7.471921e-01 1.043675e+00 4.173047e-01 -2.147343e-01 -1.894316e-01 -7.248510e-02 1.116081e-02 1.502710e-01 -1.055882e-01
<VARIANCE> 25
 1.968233e+01 3.080829e+01 3.984565e+01 3.763365e+01 3.553752e+01 4.067476e+01 4.069976e+01 3.915368e+01 5.144368e+01 3.819278e+01 3.066512e+01 2.631176e+01 3.753779e-01 1.220878e+00 1.362571e+00 1.493957e+00 2.004738e+00 2.727168e+00 2.026844e+00 2.105258e+00 2.403310e+00 2.200738e+00 1.975419e+00 1.823615e+00 5.097307e-01
<GCONST> 9.394715e+01
~t "T_u"
<ENDHMM>
~h "m-u+r"
<BEGINHMM>
<NUMSTATES> 5
<STATE> 2
<MEAN> 25
 5.841117e+00 4.888117e+00 2.686566e+00 -7.820466e-01 -3.509169e+00 -4.456264e+00 -1.667651e+00 1.072235e+00 -1.711213e+00 -3.398537e+00 -2.842877e+00 -2.182095e+00 1.576147e+00 1.045471e+00 4.197832e-01 -3.047917e-01 -1.355020e+00 -2.229248e+00 -1.097899e+00 2.456878e-01 -2.158980e-01 -6.960759e-01 -8.961666e-01 -8.212398e-01 8.114035e-01
<VARIANCE> 25
 3.111406e+01 4.019774e+01 4.504975e+01 4.146431e+01 4.849731e+01 5.661042e+01 4.281160e+01 4.095763e+01 5.025994e+01 4.244762e+01 3.143690e+01 2.546618e+01 2.317891e+00 3.149550e+00 3.087908e+00 3.151040e+00 3.396149e+00 4.573932e+00 4.195843e+00 4.035922e+00 4.034451e+00 3.409064e+00 3.195040e+00 2.762604e+00 1.784756e+00
<GCONST> 1.055627e+02
<STATE> 3
<MEAN> 25
 8.658910e+00 5.000401e+00 2.954348e+00 -2.671335e+00 -7.457289e+00 -1.043769e+01 -3.682248e+00 2.342003e+00 -1.993913e+00 -4.053403e+00 -3.655970e+00 -3.858294e+00 3.619523e-01 -4.174033e-01 -5.004941e-01 -5.413764e-01 -3.661138e-01 -3.691237e-01 1.985084e-01 6.194838e-01 2.091379e-01 -3.094780e-01 -4.365371e-01 -2.890210e-01 4.863066e-01
<VARIANCE> 25
 1.982055e+01 3.754977e+01 4.485072e+01 4.602500e+01 4.835411e+01 5.230594e+01 4.533890e+01 4.689768e+01 6.356376e+01 4.307386e+01 3.556441e+01 3.444476e+01 5.694164e-01 2.171613e+00 2.316406e+00 1.907328e+00 2.369149e+00 3.386717e+00 2.927253e+00 3.053224e+00 2.962884e+00 2.837181e+00 2.662840e+00 2.209183e+00 9.819031e-01
<GCONST> 1.005687e+02
<STATE> 4
<MEAN> 25
 7.936549e+00 5.316041e+00 2.239468e+00 -2.040418e+00 -5.537446e+00 -6.998611e+00 -2.096663e+00 2.982105e+00 -1.124920e+00 -4.924550e+00 -4.786534e+00 -3.909861e+00 -1.936503e-01 -3.466140e-01 -3.004697e-01 2.804921e-01 7.471921e-01 1.043675e+00 4.173047e-01 -2.147343e-01 -1.894316e-01 -7.248510e-02 1.116081e-02 1.502710e-01 -1.055882e-01
<VARIANCE> 25
 1.968233e+01 3.080829e+01 3.984565e+01 3.763365e+01 3.553752e+01 4.067476e+01 4.069976e+01 3.915368e+01 5.144368e+01 3.819278e+01 3.066512e+01 2.631176e+01 3.753779e-01 1.220878e+00 1.362571e+00 1.493957e+00 2.004738e+00 2.727168e+00 2.026844e+00 2.105258e+00 2.403310e+00 2.200738e+00 1.975419e+00 1.823615e+00 5.097307e-01
<GCONST> 9.394715e+01
~t "T_u"
<ENDHMM>
~h "m-u+s"
<BEGINHMM>
<NUMSTATES> 5
<STATE> 2
<MEAN> 25
 5.841117e+00 4.888117e+00 2.686566e+00 -7.820466e-01 -3.509169e+00 -4.456264e+00 -1.667651e+00 1.072235e+00 -1.711213e+00 -3.398537e+00 -2.842877e+00 -2.182095e+00 1.576147e+00 1.045471e+00 4.197832e-01 -3.047917e-01 -1.355020e+00 -2.229248e+00 -1.097899e+00 2.456878e-01 -2.158980e-01 -6.960759e-01 -8.961666e-01 -8.212398e-01 8.114035e-01
<VARIANCE> 25
 3.111406e+01 4.019774e+01 4.504975e+01 4.146431e+01 4.849731e+01 5.661042e+01 4.281160e+01 4.095763e+01 5.025994e+01 4.244762e+01 3.143690e+01 2.546618e+01 2.317891e+00 3.149550e+00 3.087908e+00 3.151040e+00 3.396149e+00 4.573932e+00 4.195843e+00 4.035922e+00 4.034451e+00 3.409064e+00 3.195040e+00 2.762604e+00 1.784756e+00
<GCONST> 1.055627e+02
<STATE> 3
<MEAN> 25
 8.658910e+00 5.000401e+00 2.954348e+00 -2.671335e+00 -7.457289e+00 -1.043769e+01 -3.682248e+00 2.342003e+00 -1.993913e+00 -4.053403e+00 -3.655970e+00 -3.858294e+00 3.619523e-01 -4.174033e-01 -5.004941e-01 -5.413764e-01 -3.661138e-01 -3.691237e-01 1.985084e-01 6.194838e-01 2.091379e-01 -3.094780e-01 -4.365371e-01 -2.890210e-01 4.863066e-01
<VARIANCE> 25
 1.982055e+01 3.754977e+01 4.485072e+01 4.602500e+01 4.835411e+01 5.230594e+01 4.533890e+01 4.689768e+01 6.356376e+01 4.307386e+01 3.556441e+01 3.444476e+01 5.694164e-01 2.171613e+00 2.316406e+00 1.907328e+00 2.369149e+00 3.386717e+00 2.927253e+00 3.053224e+00 2.962884e+00 2.837181e+00 2.662840e+00 2.209183e+00 9.819031e-01
<GCONST> 1.005687e+02
<STATE> 4
<MEAN> 25
 7.936549e+00 5.316041e+00 2.239468e+00 -2.040418e+00 -5.537446e+00 -6.998611e+00 -2.096663e+00 2.982105e+00 -1.124920e+00 -4.924550e+00 -4.786534e+00 -3.909861e+00 -1.936503e-01 -3.466140e-01 -3.004697e-01 2.804921e-01 7.471921e-01 1.043675e+00 4.173047e-01 -2.147343e-01 -1.894316e-01 -7.248510e-02 1.116081e-02 1.502710e-01 -1.055882e-01
<VARIANCE> 25
 1.968233e+01 3.080829e+01 3.984565e+01 3.763365e+01 3.553752e+01 4.067476e+01 4.069976e+01 3.915368e+01 5.144368e+01 3.819278e+01 3.066512e+01 2.631176e+01 3.753779e-01 1.220878e+00 1.362571e+00 1.493957e+00 2.004738e+00 2.727168e+00 2.026844e+00 2.105258e+00 2.403310e+00 2.200738e+00 1.975419e+00 1.823615e+00 5.097307e-01
<GCONST> 9.394715e+01
~t "T_u"
<ENDHMM>
~h "m-u+x"
<BEGINHMM>
<NUMSTATES> 5
<STATE> 2
<MEAN> 25
 5.841117e+00 4.888117e+00 2.686566e+00 -7.820466e-01 -3.509169e+00 -4.456264e+00 -1.667651e+00 1.072235e+00 -1.711213e+00 -3.398537e+00 -2.842877e+00 -2.182095e+00 1.576147e+00 1.045471e+00 4.197832e-01 -3.047917e-01 -1.355020e+00 -2.229248e+00 -1.097899e+00 2.456878e-01 -2.158980e-01 -6.960759e-01 -8.961666e-01 -8.212398e-01 8.114035e-01
<VARIANCE> 25
 3.111406e+01 4.019774e+01 4.504975e+01 4.146431e+01 4.849731e+01 5.661042e+01 4.281160e+01 4.095763e+01 5.025994e+01 4.244762e+01 3.143690e+01 2.546618e+01 2.317891e+00 3.149550e+00 3.087908e+00 3.151040e+00 3.396149e+00 4.573932e+00 4.195843e+00 4.035922e+00 4.034451e+00 3.409064e+00 3.195040e+00 2.762604e+00 1.784756e+00
<GCONST> 1.055627e+02
<STATE> 3
<MEAN> 25
 8.658910e+00 5.000401e+00 2.954348e+00 -2.671335e+00 -7.457289e+00 -1.043769e+01 -3.682248e+00 2.342003e+00 -1.993913e+00 -4.053403e+00 -3.655970e+00 -3.858294e+00 3.619523e-01 -4.174033e-01 -5.004941e-01 -5.413764e-01 -3.661138e-01 -3.691237e-01 1.985084e-01 6.194838e-01 2.091379e-01 -3.094780e-01 -4.365371e-01 -2.890210e-01 4.863066e-01
<VARIANCE> 25
 1.982055e+01 3.754977e+01 4.485072e+01 4.602500e+01 4.835411e+01 5.230594e+01 4.533890e+01 4.689768e+01 6.356376e+01 4.307386e+01 3.556441e+01 3.444476e+01 5.694164e-01 2.171613e+00 2.316406e+00 1.907328e+00 2.369149e+00 3.386717e+00 2.927253e+00 3.053224e+00 2.962884e+00 2.837181e+00 2.662840e+00 2.209183e+00 9.819031e-01
<GCONST> 1.005687e+02
<STATE> 4
<MEAN> 25
 7.936549e+00 5.316041e+00 2.239468e+00 -2.040418e+00 -5.537446e+00 -6.998611e+00 -2.096663e+00 2.982105e+00 -1.124920e+00 -4.924550e+00 -4.786534e+00 -3.909861e+00 -1.936503e-01 -3.466140e-01 -3.004697e-01 2.804921e-01 7.471921e-01 1.043675e+00 4.173047e-01 -2.147343e-01 -1.894316e-01 -7.248510e-02 1.116081e-02 1.502710e-01 -1.055882e-01
<VARIANCE> 25
 1.968233e+01 3.080829e+01 3.984565e+01 3.763365e+01 3.553752e+01 4.067476e+01 4.069976e+01 3.915368e+01 5.144368e+01 3.819278e+01 3.066512e+01 2.631176e+01 3.753779e-01 1.220878e+00 1.362571e+00 1.493957e+00 2.004738e+00 2.727168e+00 2.026844e+00 2.105258e+00 2.403310e+00 2.200738e+00 1.975419e+00 1.823615e+00 5.097307e-01
<GCONST> 9.394715e+01
~t "T_u"
<ENDHMM>
~h "p-a+b"
<BEGINHMM>
<NUMSTATES> 5
<STATE> 2
<MEAN> 25
 8.084209e+00 -3.246555e+00 -4.886938e+00 -2.890126e+00 -1.922659e+00 -4.591505e+00 -1.062124e+00 -1.533606e+00 -3.011539e+00 -1.419097e+00 7.822737e-01 1.974153e+00 8.531939e-01 -1.219489e+00 -1.591901e+00 -1.511451e+00 -1.099942e+00 -1.081241e+00 3.296968e-01 2.435892e-01 2.131322e-01 7.433307e-01 1.096173e+00 1.076555e+00 1.531909e+00
<VARIANCE> 25
 3.102556e+01 3.982352e+01 4.648204e+01 6.052976e+01 4.865224e+01 5.364120e+01 4.957391e+01 5.206113e+01 4.994263e+01 4.377484e+01 3.566540e+01 3.010361e+01 2.105191e+00 2.133569e+00 2.607650e+00 3.361774e+00 2.917656e+00 3.954443e+00 3.398865e+00 3.319243e+00 3.668817e+00 4.076825e+00 3.093344e+00 2.673295e+00 1.675560e+00
<GCONST> 1.052759e+02
<STATE> 3
<MEAN> 25
 9.462610e+00 -6.897775e+00 -8.743549e+00 -6.083593e+00 -4.604442e+00 -5.470979e+00 1.397076e+00 -2.830499e-01 -1.629562e+00 7.007640e-01 2.659651e+00 3.340820e+00 3.290816e-02 -1.735238e-01 -3.625012e-01 -3.627358e-01 -1.769637e-01 2.254089e-01 4.766614e-01 2.827543e-01 2.371980e-01 1.767752e-01 8.445666e-02 6.974697e-02 8.193482e-02
<VARIANCE> 25
 2.840129e+01 3.570125e+01 4.138834e+01 4.038225e+01 4.118876e+01 4.148624e+01 4.739182e+01 4.747406e+01 4.473821e+01 4.189992e+01 3.449903e+01 2.805832e+01 3.302394e-01 8.424883e-01 9.393210e-01 1.242460e+00 1.324397e+00 1.496400e+00 1.901740e+00 1.780651e+00 1.803969e+00 1.726919e+00 1.430944e+00 1.179275e+00 3.783611e-01
<GCONST> 9.133002e+01
<STATE> 4
<MEAN> 25
 8.177530e+00 -2.680661e+00 -7.293503e+00 -5.932261e+00 -3.758124e+00 -2.794274e+00 1.176165e+00 -3.390664e-01 -1.368642e+00 2.573896e-01 2.133668e+00 3.287408e+00 -4.538044e-01 8.704351e-01 7.276899e-01 4.679444e-01 4.150407e-01 5.706517e-01 -1.937626e-01 -1.382255e-01 1.753797e-02 -1.629017e-01 -2.942949e-01 -3.140077e-01 -8.826797e-01
<VARIANCE> 25
 2.215926e+01 3.099335e+01 3.486272e+01 3.668752e+01 3.283007e+01 3.965223e+01 3.500597e+01 3.826480e+01 3.512437e+01 3.170736e+01 2.563973e+01 2.200531e+01 5.861269e-01 9.910762e-01 1.080531e+00 1.252255e+00 1.395680e+00 1.835312e+00 1.787168e+00 1.826652e+00 1.993582e+00 1.853269e+00 1.609923e+00 1.318195e+00 6.483233e-01
<GCONST> 9.086413e+01
~t "T_a"
<ENDHMM>
~h "p-a+d"
<BEGINHMM>
<NUMSTATES> 5
<STATE> 2
<MEAN> 25
 8.084209e+00 -3.246555e+00 -4.886938e+00 -2.890126e+00 -1.922659e+00 -4.591505e+00 -1.062124e+00 -1.533606e+00 -3.011539e+00 -1.419097e+00 7.822737e-01 1.974153e+00 8.531939e-01 -1.219489e+00 -1.591901e+00 -1.511451e+00 -1.099942e+00 -1.081241e+00 3.296968e-01 2.435892e-01 2.131322e-01 7.433307e-01 1.096173e+00 1.076555e+00 1.531909e+00
<VARIANCE> 25
 3.102556e+01 3.982352e+01 4.648204e+01 6.052976e+01 4.865224e+01 5.364120e+01 4.957391e+01 5.206113e+01 4.994263e+01 4.377484e+01 3.566540e+01 3.010361e+01 2.105191e+00 2.133569e+00 2.607650e+00 3.361774e+00 2.917656e+00 3.954443e+00 3.398865e+00 3.319243e+00 3.668817e+00 4.076825e+00 3.093344e+00 2.673295e+00 1.675560e+00
<GCONST> 1.052759e+02
<STATE> 3
<MEAN> 25
 9.462610e+00 -6.897775e+00 -8.743549e+00 -6.083593e+00 -4.604442e+00 -5.470979e+00 1.397076e+00 -2.830499e-01 -1.629562e+00 7.007640e-01 2.659651e+00 3.340820e+00 3.290816e-02 -1.735238e-01 -3.625012e-01 -3.627358e-01 -1.769637e-01 2.254089e-01 4.766614e-01 2.827543e-01 2.371980e-01 1.767752e-01 8.445666e-02 6.974697e-02 8.193482e-02
<VARIANCE> 25
 2.840129e+01 3.570125e+01 4.138834e+01 4.038225e+01 4.118876e+01 4.148624e+01 4.739182e+01 4.747406e+01 4.473821e+01 4.189992e+01 3.449903e+01 2.805832e+01 3.302394e-01 8.424883e-01 9.393210e-01 1.242460e+00 1.324397e+00 1.496400e+00 1.901740e+00 1.780651e+00 1.803969e+00 1.726919e+00 1.430944e+00 1.179275e+00 3.783611e-01
<GCONST> 9.133002e+01
<STATE> 4
<MEAN> 25
 8.177530e+00 -2.680661e+00 -7.293503e+00 -5.932261e+00 -3.758124e+00 -2.794274e+00 1.176165e+00 -3.390664e-01 -1.368642e+00 2.573896e-01 2.133668e+00 3.287408e+00 -4.538044e-01 8.704351e-01 7.276899e-01 4.679444e-01 4.150407e-01 5.706517e-01 -1.937626e-01 -1.382255e-01 1.753797e-02 -1.629017e-01 -2.942949e-01 -3.140077e-01 -8.826797e-01
<VARIANCE> 25
 2.215926e+01 3.099335e+01 3.486272e+01 3.668752e+01 3.283007e+01 3.965223e+01 3.500597e+01 3.826480e+01 3.512437e+01 3.170736e+01 2.563973e+01 2.200531e+01 5.861269e-01 9.910762e-01 1.080531e+00 1.252255e+00 1.395680e+00 1.835312e+00 1.787168e+00 1.826652e+00 1.993582e+00 1.853269e+00 1.609923e+00 1.318195e+00 6.483233e-01
<GCONST> 9.086413e+01
~t "T_a"
<ENDHMM>
~h "p-a+g"
<BEGINHMM>
<NUMSTATES> 5
<STATE> 2
<MEAN> 25
 8.084209e+00 -3.246555e+00 -4.886938e+00 -2.890126e+00 -1.922659e+00 -4.591505e+00 -1.062124e+00 -1.533606e+00 -3.011539e+00 -1.419097e+00 7.822737e-01 1.974153e+00 8.531939e-01 -1.219489e+00 -1.591901e+00 -1.511451e+00 -1.099942e+00 -1.081241e+00 3.296968e-01 2.435892e-01 2.131322e-01 7.433307e-01 1.096173e+00 1.076555e+00 1.531909e+00
<VARIANCE> 25
 3.102556e+01 3.982352e+01 4.648204e+01 6.052976e+01 4.865224e+01 5.364120e+01 4.957391e+01 5.206113e+01 4.994263e+01 4.377484e+01 3.566540e+01 3.010361e+01 2.105191e+00 2.133569e+00 2.607650e+00 3.361774e+00 2.917656e+00 3.954443e+00 3.398865e+00 3.319243e+00 3.668817e+00 4.076825e+00 3.093344e+00 2.673295e+00 1.675560e+00
<GCONST> 1.052759e+02
<STATE> 3
<MEAN> 25
 9.462610e+00 -6.897775e+00 -8.743549e+00 -6.083593e+00 -4.604442e+00 -5.470979e+00 1.397076e+00 -2.830499e-01 -1.629562e+00 7.007640e-01 2.659651e+00 3.340820e+00 3.290816e-02 -1.735238e-01 -3.625012e-01 -3.627358e-01 -1.769637e-01 2.254089e-01 4.766614e-01 2.827543e-01 2.371980e-01 1.767752e-01 8.445666e-02 6.974697e-02 8.193482e-02
<VARIANCE> 25
 2.840129e+01 3.570125e+01 4.138834e+01 4.038225e+01 4.118876e+01 4.148624e+01 4.739182e+01 4.747406e+01 4.473821e+01 4.189992e+01 3.449903e+01 2.805832e+01 3.302394e-01 8.424883e-01 9.393210e-01 1.242460e+00 1.324397e+00 1.496400e+00 1.901740e+00 1.780651e+00 1.803969e+00 1.726919e+00 1.430944e+00 1.179275e+00 3.783611e-01
<GCONST> 9.133002e+01
<STATE> 4
<MEAN> 25
 8.177530e+00 -2.680661e+00 -7.293503e+00 -5.932261e+00 -3.758124e+00 -2.794274e+00 1.176165e+00 -3.390664e-01 -1.368642e+00 2.573896e-01 2.133668e+00 3.287408e+00 -4.538044e-01 8.704351e-01 7.276899e-01 4.679444e-01 4.150407e-01 5.706517e-01 -1.937626e-01 -1.382255e-01 1.753797e-02 -1.629017e-01 -2.942949e-01 -3.140077e-01 -8.826797e-01
<VARIANCE> 25
 2.215926e+01 3.099335e+01 3.486272e+01 3.668752e+01 3.283007e+01 3.965223e+01 3.500597e+01 3.826480e+01 3.512437e+01 3.170736e+01 2.563973e+01 2.200531e+01 5.861269e-01 9.910762e-01 1.080531e+00 1.252255e+00 1.395680e+00 1.835312e+00 1.787168e+00 1.826652e+00 1.993582e+00 1.853269e+00 1.609923e+00 1.318195e+00 6.483233e-01
<GCONST> 9.086413e+01
~t "T_a"
<ENDHMM>
~h "p-a+i"
<BEGINHMM>
<NUMSTATES> 5
<STATE> 2
<MEAN> 25
 8.084209e+00 -3.246555e+00 -4.886938e+00 -2.890126e+00 -1.922659e+00 -4.591505e+00 -1.062124e+00 -1.533606e+00 -3.011539e+00 -1.419097e+00 7.822737e-01 1.974153e+00 8.531939e-01 -1.219489e+00 -1.591901e+00 -1.511451e+00 -1.099942e+00 -1.081241e+00 3.296968e-01 2.435892e-01 2.131322e-01 7.433307e-01 1.096173e+00 1.076555e+00 1.531909e+00
<VARIANCE> 25
 3.102556e+01 3.982352e+01 4.648204e+01 6.052976e+01 4.865224e+01 5.364120e+01 4.957391e+01 5.206113e+01 4.994263e+01 4.377484e+01 3.566540e+01 3.010361e+01 2.105191e+00 2.133569e+00 2.607650e+00 3.361774e+00 2.917656e+00 3.954443e+00 3.398865e+00 3.319243e+00 3.668817e+00 4.076825e+00 3.093344e+00 2.673295e+00 1.675560e+00
<GCONST> 1.052759e+02
<STATE> 3
<MEAN> 25
 9.462610e+00 -6.897775e+00 -8.743549e+00 -6.083593e+00 -4.604442e+00 -5.470979e+00 1.397076e+00 -2.830499e-01 -1.629562e+00 7.007640e-01 2.659651e+00 3.340820e+00 3.290816e-02 -1.735238e-01 -3.625012e-01 -3.627358e-01 -1.769637e-01 2.254089e-01 4.766614e-01 2.827543e-01 2.371980e-01 1.767752e-01 8.445666e-02 6.974697e-02 8.193482e-02
<VARIANCE> 25
 2.840129e+01 3.570125e+01 4.138834e+01 4.038225e+01 4.118876e+01 4.148624e+01 4.739182e+01 4.747406e+01 4.473821e+01 4.189992e+01 3.449903e+01 2.805832e+01 3.302394e-01 8.424883e-01 9.393210e-01 1.242460e+00 1.324397e+00 1.496400e+00 1.901740e+00 1.780651e+00 1.803969e+00 1.726919e+00 1.430944e+00 1.179275e+00 3.783611e-01
<GCONST> 9.133002e+01
<STATE> 4
<MEAN> 25
 8.177530e+00 -2.680661e+00 -7.293503e+00 -5.932261e+00 -3.758124e+00 -2.794274e+00 1.176165e+00 -3.390664e-01 -1.368642e+00 2.573896e-01 2.133668e+00 3.287408e+00 -4.538044e-01 8.704351e-01 7.276899e-01 4.679444e-01 4.150407e-01 5.706517e-01 -1.937626e-01 -1.382255e-01 1.753797e-02 -1.629017e-01 -2.942949e-01 -3.140077e-01 -8.826797e-01
<VARIANCE> 25
 2.215926e+01 3.099335e+01 3.486272e+01 3.668752e+01 3.283007e+01 3.965223e+01 3.500597e+01 3.826480e+01 3.512437e+01 3.170736e+01 2.563973e+01 2.200531e+01 5.861269e-01 9.910762e-01 1.080531e+00 1.252255e+00 1.395680e+00 1.835312e+00 1.787168e+00 1.826652e+00 1.993582e+00 1.853269e+00 1.609923e+00 1.318195e+00 6.483233e-01
<GCONST> 9.086413e+01
~t "T_a"
<ENDHMM>
~h "p-a+k"
<BEGINHMM>
<NUMSTATES> 5
<STATE> 2
<MEAN> 25
 8.084209e+00 -3.246555e+00 -4.886938e+00 -2.890126e+00 -1.922659e+00 -4.591505e+00 -1.062124e+00 -1.533606e+00 -3.011539e+00 -1.419097e+00 7.822737e-01 1.974153e+00 8.531939e-01 -1.219489e+00 -1.591901e+00 -1.511451e+00 -1.099942e+00 -1.081241e+00 3.296968e-01 2.435892e-01 2.131322e-01 7.433307e-01 1.096173e+00 1.076555e+00 1.531909e+00
<VARIANCE> 25
 3.102556e+01 3.982352e+01 4.648204e+01 6.052976e+01 4.865224e+01 5.364120e+01 4.957391e+01 5.206113e+01 4.994263e+01 4.377484e+01 3.566540e+01 3.010361e+01 2.105191e+00 2.133569e+00 2.607650e+00 3.361774e+00 2.917656e+00 3.954443e+00 3.398865e+00 3.319243e+00 3.668817e+00 4.076825e+00 3.093344e+00 2.673295e+00 1.675560e+00
<GCONST> 1.052759e+02
<STATE> 3
<MEAN> 25
 9.462610e+00 -6.897775e+00 -8.743549e+00 -6.083593e+00 -4.604442e+00 -5.470979e+00 1.397076e+00 -2.830499e-01 -1.629562e+00 7.007640e-01 2.659651e+00 3.340820e+00 3.290816e-02 -1.735238e-01 -3.625012e-01 -3.627358e-01 -1.769637e-01 2.254089e-01 4.766614e-01 2.827543e-01 2.371980e-01 1.767752e-01 8.445666e-02 6.974697e-02 8.193482e-02
<VARIANCE> 25
 2.840129e+01 3.570125e+01 4.138834e+01 4.038225e+01 4.118876e+01 4.148624e+01 4.739182e+01 4.747406e+01 4.473821e+01 4.189992e+01 3.449903e+01 2.805832e+01 3.302394e-01 8.424883e-01 9.393210e-01 1.242460e+00 1.324397e+00 1.496400e+00 1.901740e+00 1.780651e+00 1.803969e+00 1.726919e+00 1.430944e+00 1.179275e+00 3.783611e-01
<GCONST> 9.133002e+01
<STATE> 4
<MEAN> 25
 8.177530e+00 -2.680661e+00 -7.293503e+00 -5.932261e+00 -3.758124e+00 -2.794274e+00 1.176165e+00 -3.390664e-01 -1.368642e+00 2.573896e-01 2.133668e+00 3.287408e+00 -4.538044e-01 8.704351e-01 7.276899e-01 4.679444e-01 4.150407e-01 5.706517e-01 -1.937626e-01 -1.382255e-01 1.753797e-02 -1.629017e-01 -2.942949e-01 -3.140077e-01 -8.826797e-01
<VARIANCE> 25
 2.215926e+01 3.099335e+01 3.486272e+01 3.668752e+01 3.283007e+01 3.965223e+01 3.500597e+01 3.826480e+01 3.512437e+01 3.170736e+01 2.563973e+01 2.200531e+01 5.861269e-01 9.910762e-01 1.080531e+00 1.252255e+00 1.395680e+00 1.835312e+00 1.787168e+00 1.826652e+00 1.993582e+00 1.853269e+00 1.609923e+00 1.318195e+00 6.483233e-01
<GCONST> 9.086413e+01
~t "T_a"
<ENDHMM>
~h "p-a+l"
<BEGINHMM>
<NUMSTATES> 5
<STATE> 2
<MEAN> 25
 8.084209e+00 -3.246555e+00 -4.886938e+00 -2.890126e+00 -1.922659e+00 -4.591505e+00 -1.062124e+00 -1.533606e+00 -3.011539e+00 -1.419097e+00 7.822737e-01 1.974153e+00 8.531939e-01 -1.219489e+00 -1.591901e+00 -1.511451e+00 -1.099942e+00 -1.081241e+00 3.296968e-01 2.435892e-01 2.131322e-01 7.433307e-01 1.096173e+00 1.076555e+00 1.531909e+00
<VARIANCE> 25
 3.102556e+01 3.982352e+01 4.648204e+01 6.052976e+01 4.865224e+01 5.364120e+01 4.957391e+01 5.206113e+01 4.994263e+01 4.377484e+01 3.566540e+01 3.010361e+01 2.105191e+00 2.133569e+00 2.607650e+00 3.361774e+00 2.917656e+00 3.954443e+00 3.398865e+00 3.319243e+00 3.668817e+00 4.076825e+00 3.093344e+00 2.673295e+00 1.675560e+00
<GCONST> 1.052759e+02
<STATE> 3
<MEAN> 25
 9.462610e+00 -6.897775e+00 -8.743549e+00 -6.083593e+00 -4.604442e+00 -5.470979e+00 1.397076e+00 -2.830499e-01 -1.629562e+00 7.007640e-01 2.659651e+00 3.340820e+00 3.290816e-02 -1.735238e-01 -3.625012e-01 -3.627358e-01 -1.769637e-01 2.254089e-01 4.766614e-01 2.827543e-01 2.371980e-01 1.767752e-01 8.445666e-02 6.974697e-02 8.193482e-02
<VARIANCE> 25
 2.840129e+01 3.570125e+01 4.138834e+01 4.038225e+01 4.118876e+01 4.148624e+01 4.739182e+01 4.747406e+01 4.473821e+01 4.189992e+01 3.449903e+01 2.805832e+01 3.302394e-01 8.424883e-01 9.393210e-01 1.242460e+00 1.324397e+00 1.496400e+00 1.901740e+00 1.780651e+00 1.803969e+00 1.726919e+00 1.430944e+00 1.179275e+00 3.783611e-01
<GCONST> 9.133002e+01
<STATE> 4
<MEAN> 25
 8.177530e+00 -2.680661e+00 -7.293503e+00 -5.932261e+00 -3.758124e+00 -2.794274e+00 1.176165e+00 -3.390664e-01 -1.368642e+00 2.573896e-01 2.133668e+00 3.287408e+00 -4.538044e-01 8.704351e-01 7.276899e-01 4.679444e-01 4.150407e-01 5.706517e-01 -1.937626e-01 -1.382255e-01 1.753797e-02 -1.629017e-01 -2.942949e-01 -3.140077e-01 -8.826797e-01
<VARIANCE> 25
 2.215926e+01 3.099335e+01 3.486272e+01 3.668752e+01 3.283007e+01 3.965223e+01 3.500597e+01 3.826480e+01 3.512437e+01 3.170736e+01 2.563973e+01 2.200531e+01 5.861269e-01 9.910762e-01 1.080531e+00 1.252255e+00 1.395680e+00 1.835312e+00 1.787168e+00 1.826652e+00 1.993582e+00 1.853269e+00 1.609923e+00 1.318195e+00 6.483233e-01
<GCONST> 9.086413e+01
~t "T_a"
<ENDHMM>
~h "p-a+n"
<BEGINHMM>
<NUMSTATES> 5
<STATE> 2
<MEAN> 25
 8.084209e+00 -3.246555e+00 -4.886938e+00 -2.890126e+00 -1.922659e+00 -4.591505e+00 -1.062124e+00 -1.533606e+00 -3.011539e+00 -1.419097e+00 7.822737e-01 1.974153e+00 8.531939e-01 -1.219489e+00 -1.591901e+00 -1.511451e+00 -1.099942e+00 -1.081241e+00 3.296968e-01 2.435892e-01 2.131322e-01 7.433307e-01 1.096173e+00 1.076555e+00 1.531909e+00
<VARIANCE> 25
 3.102556e+01 3.982352e+01 4.648204e+01 6.052976e+01 4.865224e+01 5.364120e+01 4.957391e+01 5.206113e+01 4.994263e+01 4.377484e+01 3.566540e+01 3.010361e+01 2.105191e+00 2.133569e+00 2.607650e+00 3.361774e+00 2.917656e+00 3.954443e+00 3.398865e+00 3.319243e+00 3.668817e+00 4.076825e+00 3.093344e+00 2.673295e+00 1.675560e+00
<GCONST> 1.052759e+02
<STATE> 3
<MEAN> 25
 9.462610e+00 -6.897775e+00 -8.743549e+00 -6.083593e+00 -4.604442e+00 -5.470979e+00 1.397076e+00 -2.830499e-01 -1.629562e+00 7.007640e-01 2.659651e+00 3.340820e+00 3.290816e-02 -1.735238e-01 -3.625012e-01 -3.627358e-01 -1.769637e-01 2.254089e-01 4.766614e-01 2.827543e-01 2.371980e-01 1.767752e-01 8.445666e-02 6.974697e-02 8.193482e-02
<VARIANCE> 25
 2.840129e+01 3.570125e+01 4.138834e+01 4.038225e+01 4.118876e+01 4.148624e+01 4.739182e+01 4.747406e+01 4.473821e+01 4.189992e+01 3.449903e+01 2.805832e+01 3.302394e-01 8.424883e-01 9.393210e-01 1.242460e+00 1.324397e+00 1.496400e+00 1.901740e+00 1.780651e+00 1.803969e+00 1.726919e+00 1.430944e+00 1.179275e+00 3.783611e-01
<GCONST> 9.133002e+01
<STATE> 4
<MEAN> 25
 8.177530e+00 -2.680661e+00 -7.293503e+00 -5.932261e+00 -3.758124e+00 -2.794274e+00 1.176165e+00 -3.390664e-01 -1.368642e+00 2.573896e-01 2.133668e+00 3.287408e+00 -4.538044e-01 8.704351e-01 7.276899e-01 4.679444e-01 4.150407e-01 5.706517e-01 -1.937626e-01 -1.382255e-01 1.753797e-02 -1.629017e-01 -2.942949e-01 -3.140077e-01 -8.826797e-01
<VARIANCE> 25
 2.215926e+01 3.099335e+01 3.486272e+01 3.668752e+01 3.283007e+01 3.965223e+01 3.500597e+01 3.826480e+01 3.512437e+01 3.170736e+01 2.563973e+01 2.200531e+01 5.861269e-01 9.910762e-01 1.080531e+00 1.252255e+00 1.395680e+00 1.835312e+00 1.787168e+00 1.826652e+00 1.993582e+00 1.853269e+00 1.609923e+00 1.318195e+00 6.483233e-01
<GCONST> 9.086413e+01
~t "T_a"
<ENDHMM>
~h "p-a+p"
<BEGINHMM>
<NUMSTATES> 5
<STATE> 2
<MEAN> 25
 8.084209e+00 -3.246555e+00 -4.886938e+00 -2.890126e+00 -1.922659e+00 -4.591505e+00 -1.062124e+00 -1.533606e+00 -3.011539e+00 -1.419097e+00 7.822737e-01 1.974153e+00 8.531939e-01 -1.219489e+00 -1.591901e+00 -1.511451e+00 -1.099942e+00 -1.081241e+00 3.296968e-01 2.435892e-01 2.131322e-01 7.433307e-01 1.096173e+00 1.076555e+00 1.531909e+00
<VARIANCE> 25
 3.102556e+01 3.982352e+01 4.648204e+01 6.052976e+01 4.865224e+01 5.364120e+01 4.957391e+01 5.206113e+01 4.994263e+01 4.377484e+01 3.566540e+01 3.010361e+01 2.105191e+00 2.133569e+00 2.607650e+00 3.361774e+00 2.917656e+00 3.954443e+00 3.398865e+00 3.319243e+00 3.668817e+00 4.076825e+00 3.093344e+00 2.673295e+00 1.675560e+00
<GCONST> 1.052759e+02
<STATE> 3
<MEAN> 25
 9.462610e+00 -6.897775e+00 -8.743549e+00 -6.083593e+00 -4.604442e+00 -5.470979e+00 1.397076e+00 -2.830499e-01 -1.629562e+00 7.007640e-01 2.659651e+00 3.340820e+00 3.290816e-02 -1.735238e-01 -3.625012e-01 -3.627358e-01 -1.769637e-01 2.254089e-01 4.766614e-01 2.827543e-01 2.371980e-01 1.767752e-01 8.445666e-02 6.974697e-02 8.193482e-02
<VARIANCE> 25
 2.840129e+01 3.570125e+01 4.138834e+01 4.038225e+01 4.118876e+01 4.148624e+01 4.739182e+01 4.747406e+01 4.473821e+01 4.189992e+01 3.449903e+01 2.805832e+01 3.302394e-01 8.424883e-01 9.393210e-01 1.242460e+00 1.324397e+00 1.496400e+00 1.901740e+00 1.780651e+00 1.803969e+00 1.726919e+00 1.430944e+00 1.179275e+00 3.783611e-01
<GCONST> 9.133002e+01
<STATE> 4
<MEAN> 25
 8.177530e+00 -2.680661e+00 -7.293503e+00 -5.932261e+00 -3.758124e+00 -2.794274e+00 1.176165e+00 -3.390664e-01 -1.368642e+00 2.573896e-01 2.133668e+00 3.287408e+00 -4.538044e-01 8.704351e-01 7.276899e-01 4.679444e-01 4.150407e-01 5.706517e-01 -1.937626e-01 -1.382255e-01 1.753797e-02 -1.629017e-01 -2.942949e-01 -3.140077e-01 -8.826797e-01
<VARIANCE> 25
 2.215926e+01 3.099335e+01 3.486272e+01 3.668752e+01 3.283007e+01 3.965223e+01 3.500597e+01 3.826480e+01 3.512437e+01 3.170736e+01 2.563973e+01 2.200531e+01 5.861269e-01 9.910762e-01 1.080531e+00 1.252255e+00 1.395680e+00 1.835312e+00 1.787168e+00 1.826652e+00 1.993582e+00 1.853269e+00 1.609923e+00 1.318195e+00 6.483233e-01
<GCONST> 9.086413e+01
~t "T_a"
<ENDHMM>
~h "p-a+r"
<BEGINHMM>
<NUMSTATES> 5
<STATE> 2
<MEAN> 25
 8.084209e+00 -3.246555e+00 -4.886938e+00 -2.890126e+00 -1.922659e+00 -4.591505e+00 -1.062124e+00 -1.533606e+00 -3.011539e+00 -1.419097e+00 7.822737e-01 1.974153e+00 8.531939e-01 -1.219489e+00 -1.591901e+00 -1.511451e+00 -1.099942e+00 -1.081241e+00 3.296968e-01 2.435892e-01 2.131322e-01 7.433307e-01 1.096173e+00 1.076555e+00 1.531909e+00
<VARIANCE> 25
 3.102556e+01 3.982352e+01 4.648204e+01 6.052976e+01 4.865224e+01 5.364120e+01 4.957391e+01 5.206113e+01 4.994263e+01 4.377484e+01 3.566540e+01 3.010361e+01 2.105191e+00 2.133569e+00 2.607650e+00 3.361774e+00 2.917656e+00 3.954443e+00 3.398865e+00 3.319243e+00 3.668817e+00 4.076825e+00 3.093344e+00 2.673295e+00 1.675560e+00
<GCONST> 1.052759e+02
<STATE> 3
<MEAN> 25
 9.462610e+00 -6.897775e+00 -8.743549e+00 -6.083593e+00 -4.604442e+00 -5.470979e+00 1.397076e+00 -2.830499e-01 -1.629562e+00 7.007640e-01 2.659651e+00 3.340820e+00 3.290816e-02 -1.735238e-01 -3.625012e-01 -3.627358e-01 -1.769637e-01 2.254089e-01 4.766614e-01 2.827543e-01 2.371980e-01 1.767752e-01 8.445666e-02 6.974697e-02 8.193482e-02
<VARIANCE> 25
 2.840129e+01 3.570125e+01 4.138834e+01 4.038225e+01 4.118876e+01 4.148624e+01 4.739182e+01 4.747406e+01 4.473821e+01 4.189992e+01 3.449903e+01 2.805832e+01 3.302394e-01 8.424883e-01 9.393210e-01 1.242460e+00 1.324397e+00 1.496400e+00 1.901740e+00 1.780651e+00 1.803969e+00 1.726919e+00 1.430944e+00 1.179275e+00 3.783611e-01
<GCONST> 9.133002e+01
<STATE> 4
<MEAN> 25
 8.177530e+00 -2.680661e+00 -7.293503e+00 -5.932261e+00 -3.758124e+00 -2.794274e+00 1.176165e+00 -3.390664e-01 -1.368642e+00 2.573896e-01 2.133668e+00 3.287408e+00 -4.538044e-01 8.704351e-01 7.276899e-01 4.679444e-01 4.150407e-01 5.706517e-01 -1.937626e-01 -1.382255e-01 1.753797e-02 -1.629017e-01 -2.942949e-01 -3.140077e-01 -8.826797e-01
<VARIANCE> 25
 2.215926e+01 3.099335e+01 3.486272e+01 3.668752e+01 3.283007e+01 3.965223e+01 3.500597e+01 3.826480e+01 3.512437e+01 3.170736e+01 2.563973e+01 2.200531e+01 5.861269e-01 9.910762e-01 1.080531e+00 1.252255e+00 1.395680e+00 1.835312e+00 1.787168e+00 1.826652e+00 1.993582e+00 1.853269e+00 1.609923e+00 1.318195e+00 6.483233e-01
<GCONST> 9.086413e+01
~t "T_a"
<ENDHMM>
~h "p-a+s"
<BEGINHMM>
<NUMSTATES> 5
<STATE> 2
<MEAN> 25
 8.084209e+00 -3.246555e+00 -4.886938e+00 -2.890126e+00 -1.922659e+00 -4.591505e+00 -1.062124e+00 -1.533606e+00 -3.011539e+00 -1.419097e+00 7.822737e-01 1.974153e+00 8.531939e-01 -1.219489e+00 -1.591901e+00 -1.511451e+00 -1.099942e+00 -1.081241e+00 3.296968e-01 2.435892e-01 2.131322e-01 7.433307e-01 1.096173e+00 1.076555e+00 1.531909e+00
<VARIANCE> 25
 3.102556e+01 3.982352e+01 4.648204e+01 6.052976e+01 4.865224e+01 5.364120e+01 4.957391e+01 5.206113e+01 4.994263e+01 4.377484e+01 3.566540e+01 3.010361e+01 2.105191e+00 2.133569e+00 2.607650e+00 3.361774e+00 2.917656e+00 3.954443e+00 3.398865e+00 3.319243e+00 3.668817e+00 4.076825e+00 3.093344e+00 2.673295e+00 1.675560e+00
<GCONST> 1.052759e+02
<STATE> 3
<MEAN> 25
 9.462610e+00 -6.897775e+00 -8.743549e+00 -6.083593e+00 -4.604442e+00 -5.470979e+00 1.397076e+00 -2.830499e-01 -1.629562e+00 7.007640e-01 2.659651e+00 3.340820e+00 3.290816e-02 -1.735238e-01 -3.625012e-01 -3.627358e-01 -1.769637e-01 2.254089e-01 4.766614e-01 2.827543e-01 2.371980e-01 1.767752e-01 8.445666e-02 6.974697e-02 8.193482e-02
<VARIANCE> 25
 2.840129e+01 3.570125e+01 4.138834e+01 4.038225e+01 4.118876e+01 4.148624e+01 4.739182e+01 4.747406e+01 4.473821e+01 4.189992e+01 3.449903e+01 2.805832e+01 3.302394e-01 8.424883e-01 9.393210e-01 1.242460e+00 1.324397e+00 1.496400e+00 1.901740e+00 1.780651e+00 1.803969e+00 1.726919e+00 1.430944e+00 1.179275e+00 3.783611e-01
<GCONST> 9.133002e+01
<STATE> 4
<MEAN> 25
 8.177530e+00 -2.680661e+00 -7.293503e+00 -5.932261e+00 -3.758124e+00 -2.794274e+00 1.176165e+00 -3.390664e-01 -1.368642e+00 2.573896e-01 2.133668e+00 3.287408e+00 -4.538044e-01 8.704351e-01 7.276899e-01 4.679444e-01 4.150407e-01 5.706517e-01 -1.937626e-01 -1.382255e-01 1.753797e-02 -1.629017e-01 -2.942949e-01 -3.140077e-01 -8.826797e-01
<VARIANCE> 25
 2.215926e+01 3.099335e+01 3.486272e+01 3.668752e+01 3.283007e+01 3.965223e+01 3.500597e+01 3.826480e+01 3.512437e+01 3.170736e+01 2.563973e+01 2.200531e+01 5.861269e-01 9.910762e-01 1.080531e+00 1.252255e+00 1.395680e+00 1.835312e+00 1.787168e+00 1.826652e+00 1.993582e+00 1.853269e+00 1.609923e+00 1.318195e+00 6.483233e-01
<GCONST> 9.086413e+01
~t "T_a"
<ENDHMM>
~h "p-a+t"
<BEGINHMM>
<NUMSTATES> 5
<STATE> 2
<MEAN> 25
 8.084209e+00 -3.246555e+00 -4.886938e+00 -2.890126e+00 -1.922659e+00 -4.591505e+00 -1.062124e+00 -1.533606e+00 -3.011539e+00 -1.419097e+00 7.822737e-01 1.974153e+00 8.531939e-01 -1.219489e+00 -1.591901e+00 -1.511451e+00 -1.099942e+00 -1.081241e+00 3.296968e-01 2.435892e-01 2.131322e-01 7.433307e-01 1.096173e+00 1.076555e+00 1.531909e+00
<VARIANCE> 25
 3.102556e+01 3.982352e+01 4.648204e+01 6.052976e+01 4.865224e+01 5.364120e+01 4.957391e+01 5.206113e+01 4.994263e+01 4.377484e+01 3.566540e+01 3.010361e+01 2.105191e+00 2.133569e+00 2.607650e+00 3.361774e+00 2.917656e+00 3.954443e+00 3.398865e+00 3.319243e+00 3.668817e+00 4.076825e+00 3.093344e+00 2.673295e+00 1.675560e+00
<GCONST> 1.052759e+02
<STATE> 3
<MEAN> 25
 9.462610e+00 -6.897775e+00 -8.743549e+00 -6.083593e+00 -4.604442e+00 -5.470979e+00 1.397076e+00 -2.830499e-01 -1.629562e+00 7.007640e-01 2.659651e+00 3.340820e+00 3.290816e-02 -1.735238e-01 -3.625012e-01 -3.627358e-01 -1.769637e-01 2.254089e-01 4.766614e-01 2.827543e-01 2.371980e-01 1.767752e-01 8.445666e-02 6.974697e-02 8.193482e-02
<VARIANCE> 25
 2.840129e+01 3.570125e+01 4.138834e+01 4.038225e+01 4.118876e+01 4.148624e+01 4.739182e+01 4.747406e+01 4.473821e+01 4.189992e+01 3.449903e+01 2.805832e+01 3.302394e-01 8.424883e-01 9.393210e-01 1.242460e+00 1.324397e+00 1.496400e+00 1.901740e+00 1.780651e+00 1.803969e+00 1.726919e+00 1.430944e+00 1.179275e+00 3.783611e-01
<GCONST> 9.133002e+01
<STATE> 4
<MEAN> 25
 8.177530e+00 -2.680661e+00 -7.293503e+00 -5.932261e+00 -3.758124e+00 -2.794274e+00 1.176165e+00 -3.390664e-01 -1.368642e+00 2.573896e-01 2.133668e+00 3.287408e+00 -4.538044e-01 8.704351e-01 7.276899e-01 4.679444e-01 4.150407e-01 5.706517e-01 -1.937626e-01 -1.382255e-01 1.753797e-02 -1.629017e-01 -2.942949e-01 -3.140077e-01 -8.826797e-01
<VARIANCE> 25
 2.215926e+01 3.099335e+01 3.486272e+01 3.668752e+01 3.283007e+01 3.965223e+01 3.500597e+01 3.826480e+01 3.512437e+01 3.170736e+01 2.563973e+01 2.200531e+01 5.861269e-01 9.910762e-01 1.080531e+00 1.252255e+00 1.395680e+00 1.835312e+00 1.787168e+00 1.826652e+00 1.993582e+00 1.853269e+00 1.609923e+00 1.318195e+00 6.483233e-01
<GCONST> 9.086413e+01
~t "T_a"
<ENDHMM>
~h "p-a+u"
<BEGINHMM>
<NUMSTATES> 5
<STATE> 2
<MEAN> 25
 8.084209e+00 -3.246555e+00 -4.886938e+00 -2.890126e+00 -1.922659e+00 -4.591505e+00 -1.062124e+00 -1.533606e+00 -3.011539e+00 -1.419097e+00 7.822737e-01 1.974153e+00 8.531939e-01 -1.219489e+00 -1.591901e+00 -1.511451e+00 -1.099942e+00 -1.081241e+00 3.296968e-01 2.435892e-01 2.131322e-01 7.433307e-01 1.096173e+00 1.076555e+00 1.531909e+00
<VARIANCE> 25
 3.102556e+01 3.982352e+01 4.648204e+01 6.052976e+01 4.865224e+01 5.364120e+01 4.957391e+01 5.206113e+01 4.994263e+01 4.377484e+01 3.566540e+01 3.010361e+01 2.105191e+00 2.133569e+00 2.607650e+00 3.361774e+00 2.917656e+00 3.954443e+00 3.398865e+00 3.319243e+00 3.668817e+00 4.076825e+00 3.093344e+00 2.673295e+00 1.675560e+00
<GCONST> 1.052759e+02
<STATE> 3
<MEAN> 25
 9.462610e+00 -6.897775e+00 -8.743549e+00 -6.083593e+00 -4.604442e+00 -5.470979e+00 1.397076e+00 -2.830499e-01 -1.629562e+00 7.007640e-01 2.659651e+00 3.340820e+00 3.290816e-02 -1.735238e-01 -3.625012e-01 -3.627358e-01 -1.769637e-01 2.254089e-01 4.766614e-01 2.827543e-01 2.371980e-01 1.767752e-01 8.445666e-02 6.974697e-02 8.193482e-02
<VARIANCE> 25
 2.840129e+01 3.570125e+01 4.138834e+01 4.038225e+01 4.118876e+01 4.148624e+01 4.739182e+01 4.747406e+01 4.473821e+01 4.189992e+01 3.449903e+01 2.805832e+01 3.302394e-01 8.424883e-01 9.393210e-01 1.242460e+00 1.324397e+00 1.496400e+00 1.901740e+00 1.780651e+00 1.803969e+00 1.726919e+00 1.430944e+00 1.179275e+00 3.783611e-01
<GCONST> 9.133002e+01
<STATE> 4
<MEAN> 25
 8.177530e+00 -2.680661e+00 -7.293503e+00 -5.932261e+00 -3.758124e+00 -2.794274e+00 1.176165e+00 -3.390664e-01 -1.368642e+00 2.573896e-01 2.133668e+00 3.287408e+00 -4.538044e-01 8.704351e-01 7.276899e-01 4.679444e-01 4.150407e-01 5.706517e-01 -1.937626e-01 -1.382255e-01 1.753797e-02 -1.629017e-01 -2.942949e-01 -3.140077e-01 -8.826797e-01
<VARIANCE> 25
 2.215926e+01 3.099335e+01 3.486272e+01 3.668752e+01 3.283007e+01 3.965223e+01 3.500597e+01 3.826480e+01 3.512437e+01 3.170736e+01 2.563973e+01 2.200531e+01 5.861269e-01 9.910762e-01 1.080531e+00 1.252255e+00 1.395680e+00 1.835312e+00 1.787168e+00 1.826652e+00 1.993582e+00 1.853269e+00 1.609923e+00 1.318195e+00 6.483233e-01
<GCONST> 9.086413e+01
~t "T_a"
<ENDHMM>
~h "p-a+x"
<BEGINHMM>
<NUMSTATES> 5
<STATE> 2
<MEAN> 25
 8.084209e+00 -3.246555e+00 -4.886938e+00 -2.890126e+00 -1.922659e+00 -4.591505e+00 -1.062124e+00 -1.533606e+00 -3.011539e+00 -1.419097e+00 7.822737e-01 1.974153e+00 8.531939e-01 -1.219489e+00 -1.591901e+00 -1.511451e+00 -1.099942e+00 -1.081241e+00 3.296968e-01 2.435892e-01 2.131322e-01 7.433307e-01 1.096173e+00 1.076555e+00 1.531909e+00
<VARIANCE> 25
 3.102556e+01 3.982352e+01 4.648204e+01 6.052976e+01 4.865224e+01 5.364120e+01 4.957391e+01 5.206113e+01 4.994263e+01 4.377484e+01 3.566540e+01 3.010361e+01 2.105191e+00 2.133569e+00 2.607650e+00 3.361774e+00 2.917656e+00 3.954443e+00 3.398865e+00 3.319243e+00 3.668817e+00 4.076825e+00 3.093344e+00 2.673295e+00 1.675560e+00
<GCONST> 1.052759e+02
<STATE> 3
<MEAN> 25
 9.462610e+00 -6.897775e+00 -8.743549e+00 -6.083593e+00 -4.604442e+00 -5.470979e+00 1.397076e+00 -2.830499e-01 -1.629562e+00 7.007640e-01 2.659651e+00 3.340820e+00 3.290816e-02 -1.735238e-01 -3.625012e-01 -3.627358e-01 -1.769637e-01 2.254089e-01 4.766614e-01 2.827543e-01 2.371980e-01 1.767752e-01 8.445666e-02 6.974697e-02 8.193482e-02
<VARIANCE> 25
 2.840129e+01 3.570125e+01 4.138834e+01 4.038225e+01 4.118876e+01 4.148624e+01 4.739182e+01 4.747406e+01 4.473821e+01 4.189992e+01 3.449903e+01 2.805832e+01 3.302394e-01 8.424883e-01 9.393210e-01 1.242460e+00 1.324397e+00 1.496400e+00 1.901740e+00 1.780651e+00 1.803969e+00 1.726919e+00 1.430944e+00 1.179275e+00 3.783611e-01
<GCONST> 9.133002e+01
<STATE> 4
<MEAN> 25
 8.177530e+00 -2.680661e+00 -7.293503e+00 -5.932261e+00 -3.758124e+00 -2.794274e+00 1.176165e+00 -3.390664e-01 -1.368642e+00 2.573896e-01 2.133668e+00 3.287408e+00 -4.538044e-01 8.704351e-01 7.276899e-01 4.679444e-01 4.150407e-01 5.706517e-01 -1.937626e-01 -1.382255e-01 1.753797e-02 -1.629017e-01 -2.942949e-01 -3.140077e-01 -8.826797e-01
<VARIANCE> 25
 2.215926e+01 3.099335e+01 3.486272e+01 3.668752e+01 3.283007e+01 3.965223e+01 3.500597e+01 3.826480e+01 3.512437e+01 3.170736e+01 2.563973e+01 2.200531e+01 5.861269e-01 9.910762e-01 1.080531e+00 1.252255e+00 1.395680e+00 1.835312e+00 1.787168e+00 1.826652e+00 1.993582e+00 1.853269e+00 1.609923e+00 1.318195e+00 6.483233e-01
<GCONST> 9.086413e+01
~t "T_a"
<ENDHMM>
~h "x+a"
<BEGINHMM>
<NUMSTATES> 5
<STATE> 2
<MEAN> 25
 2.710263e+00 3.803773e-02 -6.907156e-01 -1.041780e+00 1.537239e-01 -1.162006e+00 2.299056e+00 2.109332e+00 2.205236e+00 1.629794e+00 5.215285e-01 -4.691647e-01 -8.456972e-01 -5.233524e-01 1.104425e-01 5.402460e-03 -4.407932e-02 9.621610e-01 1.198104e+00 8.795330e-01 4.561717e-01 2.352917e-01 2.905076e-01 1.189582e-01 -4.212725e-01
<VARIANCE> 25
 3.920304e+01 4.778421e+01 4.725491e+01 6.818762e+01 7.707585e+01 4.912231e+01 5.634499e+01 6.323063e+01 4.823575e+01 3.662822e+01 3.850797e+01 3.096796e+01 1.298015e+00 2.392860e+00 2.438280e+00 3.293631e+00 3.234163e+00 3.403000e+00 3.515903e+00 3.329362e+00 3.190387e+00 2.881794e+00 2.616669e+00 2.342538e+00 1.071782e+00
<GCONST> 1.047144e+02
<STATE> 3
<MEAN> 25
 2.389514e+00 -2.823177e+00 -2.314602e+00 -8.071315e-01 -2.019404e+00 5.773649e-01 5.416468e+00 4.644370e+00 2.860189e+00 2.649937e+00 1.474382e+00 2.542869e-01 -1.627480e-01 -5.520325e-02 -3.205924e-02 7.186043e-02 -6.453498e-02 1.446954e-01 8.186971e-02 8.117869e-02 1.478556e-01 8.997992e-02 -1.554686e-02 -1.325583e-02 -1.939255e-01
<VARIANCE> 25
 3.829348e+01 5.292737e+01 6.805369e+01 7.263561e+01 8.785237e+01 4.887428e+01 6.232245e+01 6.020101e+01 4.831543e+01 4.048973e+01 3.702037e+01 2.908707e+01 3.520617e-01 1.059087e+00 1.012969e+00 1.387481e+00 1.552394e+00 1.474724e+00 1.849917e+00 1.636128e+00 1.569952e+00 1.565971e+00 1.455773e+00 1.317901e+00 2.615884e-01
<GCONST> 9.472208e+01
<STATE> 4
<MEAN> 25
 1.113762e+00 -2.202637e-01 5.006220e-01 3.866129e-01 -2.374129e-02 1.004074e+00 2.361394e+00 3.804070e+00 2.446019e+00 2.536371e+00 8.760055e-01 6.529836e-02 2.448174e-01 2.729527e-01 1.612649e-01 -1.038634e-02 -1.484590e-01 -4.305932e-01 -4.565032e-01 -3.415658e-01 -1.851178e-01 -6.116746e-02 -1.175197e-01 -1.012859e-01 1.047176e-01
<VARIANCE> 25
 2.915019e+01 3.153456e+01 3.526095e+01 4.116573e+01 4.410101e+01 3.645945e+01 3.289407e+01 3.666290e+01 3.545974e+01 2.833711e+01 2.363544e+01 1.703545e+01 3.797781e-01 8.875240e-01 8.613486e-01 1.276177e+00 1.478250e+00 1.550803e+00 1.795061e+00 1.668326e+00 1.570326e+00 1.527764e+00 1.397692e+00 1.213788e+00 2.087996e-01
<GCONST> 8.821011e+01
~t "T_x"
<ENDHMM>
~h "x+e"
<BEGINHMM>
<NUMSTATES> 5
<STATE> 2
<MEAN> 25
 2.710263e+00 3.803773e-02 -6.907156e-01 -1.041780e+00 1.537239e-01 -1.162006e+00 2.299056e+00 2.109332e+00 2.205236e+00 1.629794e+00 5.215285e-01 -4.691647e-01 -8.456972e-01 -5.233524e-01 1.104425e-01 5.402460e-03 -4.407932e-02 9.621610e-01 1.198104e+00 8.795330e-01 4.561717e-01 2.352917e-01 2.905076e-01 1.189582e-01 -4.212725e-01
<VARIANCE> 25
 3.920304e+01 4.778421e+01 4.725491e+01 6.818762e+01 7.707585e+01 4.912231e+01 5.634499e+01 6.323063e+01 4.823575e+01 3.662822e+01 3.850797e+01 3.096796e+01 1.298015e+00 2.392860e+00 2.438280e+00 3.293631e+00 3.234163e+00 3.403000e+00 3.515903e+00 3.329362e+00 3.190387e+00 2.881794e+00 2.616669e+00 2.342538e+00 1.071782e+00
<GCONST> 1.047144e+02
<STATE> 3
<MEAN> 25
 2.389514e+00 -2.823177e+00 -2.314602e+00 -8.071315e-01 -2.019404e+00 5.773649e-01 5.416468e+00 4.644370e+00 2.860189e+00 2.649937e+00 1.474382e+00 2.542869e-01 -1.627480e-01 -5.520325e-02 -3.205924e-02 7.186043e-02 -6.453498e-02 1.446954e-01 8.186971e-02 8.117869e-02 1.478556e-01 8.997992e-02 -1.554686e-02 -1.325583e-02 -1.939255e-01
<VARIANCE> 25
 3.829348e+01 5.292737e+01 6.805369e+01 7.263561e+01 8.785237e+01 4.887428e+01 6.232245e+01 6.020101e+01 4.831543e+01 4.048973e+01 3.702037e+01 2.908707e+01 3.520617e-01 1.059087e+00 1.012969e+00 1.387481e+00 1.552394e+00 1.474724e+00 1.849917e+00 1.636128e+00 1.569952e+00 1.565971e+00 1.455773e+00 1.317901e+00 2.615884e-01
<GCONST> 9.472208e+01
<STATE> 4
<MEAN> 25
 1.113762e+00 -2.202637e-01 5.006220e-01 3.866129e-01 -2.374129e-02 1.004074e+00 2.361394e+00 3.804070e+00 2.446019e+00 2.536371e+00 8.760055e-01 6.529836e-02 2.448174e-01 2.729527e-01 1.612649e-01 -1.038634e-02 -1.484590e-01 -4.305932e-01 -4.565032e-01 -3.415658e-01 -1.851178e-01 -6.116746e-02 -1.175197e-01 -1.012859e-01 1.047176e-01
<VARIANCE> 25
 2.915019e+01 3.153456e+01 3.526095e+01 4.116573e+01 4.410101e+01 3.645945e+01 3.289407e+01 3.666290e+01 3.545974e+01 2.833711e+01 2.363544e+01 1.703545e+01 3.797781e-01 8.875240e-01 8.613486e-01 1.276177e+00 1.478250e+00 1.550803e+00 1.795061e+00 1.668326e+00 1.570326e+00 1.527764e+00 1.397692e+00 1.213788e+00 2.087996e-01
<GCONST> 8.821011e+01
~t "T_x"
<ENDHMM>
~h "x+o"
<BEGINHMM>
<NUMSTATES> 5
<STATE> 2
<MEAN> 25
 2.710263e+00 3.803773e-02 -6.907156e-01 -1.041780e+00 1.537239e-01 -1.162006e+00 2.299056e+00 2.109332e+00 2.205236e+00 1.629794e+00 5.215285e-01 -4.691647e-01 -8.456972e-01 -5.233524e-01 1.104425e-01 5.402460e-03 -4.407932e-02 9.621610e-01 1.198104e+00 8.795330e-01 4.561717e-01 2.352917e-01 2.905076e-01 1.189582e-01 -4.212725e-01
<VARIANCE> 25
 3.920304e+01 4.778421e+01 4.725491e+01 6.818762e+01 7.707585e+01 4.912231e+01 5.634499e+01 6.323063e+01 4.823575e+01 3.662822e+01 3.850797e+01 3.096796e+01 1.298015e+00 2.392860e+00 2.438280e+00 3.293631e+00 3.234163e+00 3.403000e+00 3.515903e+00 3.329362e+00 3.190387e+00 2.881794e+00 2.616669e+00 2.342538e+00 1.071782e+00
<GCONST> 1.047144e+02
<STATE> 3
<MEAN> 25
 2.389514e+00 -2.823177e+00 -2.314602e+00 -8.071315e-01 -2.019404e+00 5.773649e-01 5.416468e+00 4.644370e+00 2.860189e+00 2.649937e+00 1.474382e+00 2.542869e-01 -1.627480e-01 -5.520325e-02 -3.205924e-02 7.186043e-02 -6.453498e-02 1.446954e-01 8.186971e-02 8.117869e-02 1.478556e-01 8.997992e-02 -1.554686e-02 -1.325583e-02 -1.939255e-01
<VARIANCE> 25
 3.829348e+01 5.292737e+01 6.805369e+01 7.263561e+01 8.785237e+01 4.887428e+01 6.232245e+01 6.020101e+01 4.831543e+01 4.048973e+01 3.702037e+01 2.908707e+01 3.520617e-01 1.059087e+00 1.012969e+00 1.387481e+00 1.552394e+00 1.474724e+00 1.849917e+00 1.636128e+00 1.569952e+00 1.565971e+00 1.455773e+00 1.317901e+00 2.615884e-01
<GCONST> 9.472208e+01
<STATE> 4
<MEAN> 25
 1.113762e+00 -2.202637e-01 5.006220e-01 3.866129e-01 -2.374129e-02 1.004074e+00 2.361394e+00 3.804070e+00 2.446019e+00 2.536371e+00 8.760055e-01 6.529836e-02 2.448174e-01 2.729527e-01 1.612649e-01 -1.038634e-02 -1.484590e-01 -4.305932e-01 -4.565032e-01 -3.415658e-01 -1.851178e-01 -6.116746e-02 -1.175197e-01 -1.012859e-01 1.047176e-01
<VARIANCE> 25
 2.915019e+01 3.153456e+01 3.526095e+01 4.116573e+01 4.410101e+01 3.645945e+01 3.289407e+01 3.666290e+01 3.545974e+01 2.833711e+01 2.363544e+01 1.703545e+01 3.797781e-01 8.875240e-01 8.613486e-01 1.276177e+00 1.478250e+00 1.550803e+00 1.795061e+00 1.668326e+00 1.570326e+00 1.527764e+00 1.397692e+00 1.213788e+00 2.087996e-01
<GCONST> 8.821011e+01
~t "T_x"
<ENDHMM>
~h "x+u"
<BEGINHMM>
<NUMSTATES> 5
<STATE> 2
<MEAN> 25
 2.710263e+00 3.803773e-02 -6.907156e-01 -1.041780e+00 1.537239e-01 -1.162006e+00 2.299056e+00 2.109332e+00 2.205236e+00 1.629794e+00 5.215285e-01 -4.691647e-01 -8.456972e-01 -5.233524e-01 1.104425e-01 5.402460e-03 -4.407932e-02 9.621610e-01 1.198104e+00 8.795330e-01 4.561717e-01 2.352917e-01 2.905076e-01 1.189582e-01 -4.212725e-01
<VARIANCE> 25
 3.920304e+01 4.778421e+01 4.725491e+01 6.818762e+01 7.707585e+01 4.912231e+01 5.634499e+01 6.323063e+01 4.823575e+01 3.662822e+01 3.850797e+01 3.096796e+01 1.298015e+00 2.392860e+00 2.438280e+00 3.293631e+00 3.234163e+00 3.403000e+00 3.515903e+00 3.329362e+00 3.190387e+00 2.881794e+00 2.616669e+00 2.342538e+00 1.071782e+00
<GCONST> 1.047144e+02
<STATE> 3
<MEAN> 25
 2.389514e+00 -2.823177e+00 -2.314602e+00 -8.071315e-01 -2.019404e+00 5.773649e-01 5.416468e+00 4.644370e+00 2.860189e+00 2.649937e+00 1.474382e+00 2.542869e-01 -1.627480e-01 -5.520325e-02 -3.205924e-02 7.186043e-02 -6.453498e-02 1.446954e-01 8.186971e-02 8.117869e-02 1.478556e-01 8.997992e-02 -1.554686e-02 -1.325583e-02 -1.939255e-01
<VARIANCE> 25
 3.829348e+01 5.292737e+01 6.805369e+01 7.263561e+01 8.785237e+01 4.887428e+01 6.232245e+01 6.020101e+01 4.831543e+01 4.048973e+01 3.702037e+01 2.908707e+01 3.520617e-01 1.059087e+00 1.012969e+00 1.387481e+00 1.552394e+00 1.474724e+00 1.849917e+00 1.636128e+00 1.569952e+00 1.565971e+00 1.455773e+00 1.317901e+00 2.615884e-01
<GCONST> 9.472208e+01
<STATE> 4
<MEAN> 25
 1.113762e+00 -2.202637e-01 5.006220e-01 3.866129e-01 -2.374129e-02 1.004074e+00 2.361394e+00 3.804070e+00 2.446019e+00 2.536371e+00 8.760055e-01 6.529836e-02 2.448174e-01 2.729527e-01 1.612649e-01 -1.038634e-02 -1.484590e-01 -4.305932e-01 -4.565032e-01 -3.415658e-01 -1.851178e-01 -6.116746e-02 -1.175197e-01 -1.012859e-01 1.047176e-01
<VARIANCE> 25
 2.915019e+01 3.153456e+01 3.526095e+01 4.116573e+01 4.410101e+01 3.645945e+01 3.289407e+01 3.666290e+01 3.545974e+01 2.833711e+01 2.363544e+01 1.703545e+01 3.797781e-01 8.875240e-01 8.613486e-01 1.276177e+00 1.478250e+00 1.550803e+00 1.795061e+00 1.668326e+00 1.570326e+00 1.527764e+00 1.397692e+00 1.213788e+00 2.087996e-01
<GCONST> 8.821011e+01
~t "T_x"
<ENDHMM>
~h "x-a"
<BEGINHMM>
<NUMSTATES> 5
<STATE> 2
<MEAN> 25
 8.084209e+00 -3.246555e+00 -4.886938e+00 -2.890126e+00 -1.922659e+00 -4.591505e+00 -1.062124e+00 -1.533606e+00 -3.011539e+00 -1.419097e+00 7.822737e-01 1.974153e+00 8.531939e-01 -1.219489e+00 -1.591901e+00 -1.511451e+00 -1.099942e+00 -1.081241e+00 3.296968e-01 2.435892e-01 2.131322e-01 7.433307e-01 1.096173e+00 1.076555e+00 1.531909e+00
<VARIANCE> 25
 3.102556e+01 3.982352e+01 4.648204e+01 6.052976e+01 4.865224e+01 5.364120e+01 4.957391e+01 5.206113e+01 4.994263e+01 4.377484e+01 3.566540e+01 3.010361e+01 2.105191e+00 2.133569e+00 2.607650e+00 3.361774e+00 2.917656e+00 3.954443e+00 3.398865e+00 3.319243e+00 3.668817e+00 4.076825e+00 3.093344e+00 2.673295e+00 1.675560e+00
<GCONST> 1.052759e+02
<STATE> 3
<MEAN> 25
 9.462610e+00 -6.897775e+00 -8.743549e+00 -6.083593e+00 -4.604442e+00 -5.470979e+00 1.397076e+00 -2.830499e-01 -1.629562e+00 7.007640e-01 2.659651e+00 3.340820e+00 3.290816e-02 -1.735238e-01 -3.625012e-01 -3.627358e-01 -1.769637e-01 2.254089e-01 4.766614e-01 2.827543e-01 2.371980e-01 1.767752e-01 8.445666e-02 6.974697e-02 8.193482e-02
<VARIANCE> 25
 2.840129e+01 3.570125e+01 4.138834e+01 4.038225e+01 4.118876e+01 4.148624e+01 4.739182e+01 4.747406e+01 4.473821e+01 4.189992e+01 3.449903e+01 2.805832e+01 3.302394e-01 8.424883e-01 9.393210e-01 1.242460e+00 1.324397e+00 1.496400e+00 1.901740e+00 1.780651e+00 1.803969e+00 1.726919e+00 1.430944e+00 1.179275e+00 3.783611e-01
<GCONST> 9.133002e+01
<STATE> 4
<MEAN> 25
 8.177530e+00 -2.680661e+00 -7.293503e+00 -5.932261e+00 -3.758124e+00 -2.794274e+00 1.176165e+00 -3.390664e-01 -1.368642e+00 2.573896e-01 2.133668e+00 3.287408e+00 -4.538044e-01 8.704351e-01 7.276899e-01 4.679444e-01 4.150407e-01 5.706517e-01 -1.937626e-01 -1.382255e-01 1.753797e-02 -1.629017e-01 -2.942949e-01 -3.140077e-01 -8.826797e-01
<VARIANCE> 25
 2.215926e+01 3.099335e+01 3.486272e+01 3.668752e+01 3.283007e+01 3.965223e+01 3.500597e+01 3.826480e+01 3.512437e+01 3.170736e+01 2.563973e+01 2.200531e+01 5.861269e-01 9.910762e-01 1.080531e+00 1.252255e+00 1.395680e+00 1.835312e+00 1.787168e+00 1.826652e+00 1.993582e+00 1.853269e+00 1.609923e+00 1.318195e+00 6.483233e-01
<GCONST> 9.086413e+01
~t "T_a"
<ENDHMM>
~h "x-o"
<BEGINHMM>
<NUMSTATES> 5
<STATE> 2
<MEAN> 25
 8.202134e+00 8.756948e-01 -1.556870e+00 -2.412576e+00 -4.135490e+00 -5.283045e+00 -1.325630e+00 5.514442e-01 -3.256593e+00 -4.464030e+00 -3.179199e+00 -1.018459e+00 8.533680e-01 5.628624e-02 -4.272498e-01 -1.163086e+00 -1.742013e+00 -1.833407e+00 -1.006363e-01 8.327968e-01 2.565329e-01 -1.784475e-01 -2.551433e-01 1.000556e-01 7.841955e-01
<VARIANCE> 25
 2.727819e+01 4.614404e+01 4.546624e+01 5.624189e+01 6.257309e+01 6.102062e+01 4.518742e+01 4.939813e+01 5.469617e+01 4.219932e+01 3.056493e+01 2.847985e+01 1.604221e+00 2.714622e+00 2.414845e+00 3.306103e+00 3.399673e+00 4.293542e+00 4.410888e+00 3.910635e+00 3.812121e+00 3.509329e+00 2.851977e+00 2.694980e+00 1.552250e+00
<GCONST> 1.055529e+02
<STATE> 3
<MEAN> 25
 9.608891e+00 1.841884e+00 -1.624231e+00 -4.843653e+00 -1.056682e+01 -1.047259e+01 -3.275502e-01 4.228262e+00 -8.981493e-01 -3.707518e+00 -3.771726e+00 -1.847208e+00 -1.603226e-01 3.746803e-01 2.492852e-02 -5.283350e-02 -1.316152e-01 2.060792e-01 2.320018e-01 3.473101e-01 4.636069e-01 2.421327e-01 -1.011645e-03 -9.001540e-02 -4.208844e-01
<VARIANCE> 25
 2.191664e+01 3.832346e+01 3.536129e+01 4.552036e+01 5.146196e+01 5.402416e+01 4.532333e+01 4.316967e+01 5.194213e+01 3.791486e+01 2.724122e+01 2.477335e+01 5.759985e-01 1.296905e+00 1.329783e+00 1.436117e+00 2.015944e+00 2.854960e+00 1.984985e+00 2.227589e+00 2.343580e+00 2.045362e+00 1.638120e+00 1.449960e+00 1.066268e+00
<GCONST> 9.576168e+01
<STATE> 4
<MEAN> 25
 5.920141e+00 4.729104e+00 -6.619071e-01 -3.592440e+00 -6.668617e+00 -4.437122e+00 3.776827e-01 3.175261e+00 9.050462e-01 -1.454790e+00 -2.326509e+00 -1.249121e+00 -6.257654e-01 -3.906129e-02 1.678127e-01 4.218079e-01 7.039407e-01 9.980335e-01 2.885799e-01 -2.038472e-01 -1.773957e-02 1.877047e-01 2.155907e-01 8.154663e-02 -5.345345e-01
<VARIANCE> 25
 2.381943e+01 3.168683e+01 3.073319e+01 3.372535e+01 3.205265e+01 4.222814e+01 3.201194e+01 3.300840e+01 3.498757e+01 3.150789e+01 2.243595e+01 1.901501e+01 4.852379e-01 7.335701e-01 1.011674e+00 1.084659e+00 1.496157e+00 1.967000e+00 1.648281e+00 1.688958e+00 1.686677e+00 1.518985e+00 1.305284e+00 1.193857e+00 3.831035e-01
<GCONST> 8.833953e+01
~t "T_o"
<ENDHMM>
~h "p-a+ny"
<BEGINHMM>
<NUMSTATES> 5
<STATE> 2
<MEAN> 25
 8.084209e+00 -3.246555e+00 -4.886938e+00 -2.890126e+00 -1.922659e+00 -4.591505e+00 -1.062124e+00 -1.533606e+00 -3.011539e+00 -1.419097e+00 7.822737e-01 1.974153e+00 8.531939e-01 -1.219489e+00 -1.591901e+00 -1.511451e+00 -1.099942e+00 -1.081241e+00 3.296968e-01 2.435892e-01 2.131322e-01 7.433307e-01 1.096173e+00 1.076555e+00 1.531909e+00
<VARIANCE> 25
 3.102556e+01 3.982352e+01 4.648204e+01 6.052976e+01 4.865224e+01 5.364120e+01 4.957391e+01 5.206113e+01 4.994263e+01 4.377484e+01 3.566540e+01 3.010361e+01 2.105191e+00 2.133569e+00 2.607650e+00 3.361774e+00 2.917656e+00 3.954443e+00 3.398865e+00 3.319243e+00 3.668817e+00 4.076825e+00 3.093344e+00 2.673295e+00 1.675560e+00
<GCONST> 1.052759e+02
<STATE> 3
<MEAN> 25
 9.462610e+00 -6.897775e+00 -8.743549e+00 -6.083593e+00 -4.604442e+00 -5.470979e+00 1.397076e+00 -2.830499e-01 -1.629562e+00 7.007640e-01 2.659651e+00 3.340820e+00 3.290816e-02 -1.735238e-01 -3.625012e-01 -3.627358e-01 -1.769637e-01 2.254089e-01 4.766614e-01 2.827543e-01 2.371980e-01 1.767752e-01 8.445666e-02 6.974697e-02 8.193482e-02
<VARIANCE> 25
 2.840129e+01 3.570125e+01 4.138834e+01 4.038225e+01 4.118876e+01 4.148624e+01 4.739182e+01 4.747406e+01 4.473821e+01 4.189992e+01 3.449903e+01 2.805832e+01 3.302394e-01 8.424883e-01 9.393210e-01 1.242460e+00 1.324397e+00 1.496400e+00 1.901740e+00 1.780651e+00 1.803969e+00 1.726919e+00 1.430944e+00 1.179275e+00 3.783611e-01
<GCONST> 9.133002e+01
<STATE> 4
<MEAN> 25
 8.177530e+00 -2.680661e+00 -7.293503e+00 -5.932261e+00 -3.758124e+00 -2.794274e+00 1.176165e+00 -3.390664e-01 -1.368642e+00 2.573896e-01 2.133668e+00 3.287408e+00 -4.538044e-01 8.704351e-01 7.276899e-01 4.679444e-01 4.150407e-01 5.706517e-01 -1.937626e-01 -1.382255e-01 1.753797e-02 -1.629017e-01 -2.942949e-01 -3.140077e-01 -8.826797e-01
<VARIANCE> 25
 2.215926e+01 3.099335e+01 3.486272e+01 3.668752e+01 3.283007e+01 3.965223e+01 3.500597e+01 3.826480e+01 3.512437e+01 3.170736e+01 2.563973e+01 2.200531e+01 5.861269e-01 9.910762e-01 1.080531e+00 1.252255e+00 1.395680e+00 1.835312e+00 1.787168e+00 1.826652e+00 1.993582e+00 1.853269e+00 1.609923e+00 1.318195e+00 6.483233e-01
<GCONST> 9.086413e+01
~t "T_a"
<ENDHMM>
~h "p-a+rr"
<BEGINHMM>
<NUMSTATES> 5
<STATE> 2
<MEAN> 25
 8.084209e+00 -3.246555e+00 -4.886938e+00 -2.890126e+00 -1.922659e+00 -4.591505e+00 -1.062124e+00 -1.533606e+00 -3.011539e+00 -1.419097e+00 7.822737e-01 1.974153e+00 8.531939e-01 -1.219489e+00 -1.591901e+00 -1.511451e+00 -1.099942e+00 -1.081241e+00 3.296968e-01 2.435892e-01 2.131322e-01 7.433307e-01 1.096173e+00 1.076555e+00 1.531909e+00
<VARIANCE> 25
 3.102556e+01 3.982352e+01 4.648204e+01 6.052976e+01 4.865224e+01 5.364120e+01 4.957391e+01 5.206113e+01 4.994263e+01 4.377484e+01 3.566540e+01 3.010361e+01 2.105191e+00 2.133569e+00 2.607650e+00 3.361774e+00 2.917656e+00 3.954443e+00 3.398865e+00 3.319243e+00 3.668817e+00 4.076825e+00 3.093344e+00 2.673295e+00 1.675560e+00
<GCONST> 1.052759e+02
<STATE> 3
<MEAN> 25
 9.462610e+00 -6.897775e+00 -8.743549e+00 -6.083593e+00 -4.604442e+00 -5.470979e+00 1.397076e+00 -2.830499e-01 -1.629562e+00 7.007640e-01 2.659651e+00 3.340820e+00 3.290816e-02 -1.735238e-01 -3.625012e-01 -3.627358e-01 -1.769637e-01 2.254089e-01 4.766614e-01 2.827543e-01 2.371980e-01 1.767752e-01 8.445666e-02 6.974697e-02 8.193482e-02
<VARIANCE> 25
 2.840129e+01 3.570125e+01 4.138834e+01 4.038225e+01 4.118876e+01 4.148624e+01 4.739182e+01 4.747406e+01 4.473821e+01 4.189992e+01 3.449903e+01 2.805832e+01 3.302394e-01 8.424883e-01 9.393210e-01 1.242460e+00 1.324397e+00 1.496400e+00 1.901740e+00 1.780651e+00 1.803969e+00 1.726919e+00 1.430944e+00 1.179275e+00 3.783611e-01
<GCONST> 9.133002e+01
<STATE> 4
<MEAN> 25
 8.177530e+00 -2.680661e+00 -7.293503e+00 -5.932261e+00 -3.758124e+00 -2.794274e+00 1.176165e+00 -3.390664e-01 -1.368642e+00 2.573896e-01 2.133668e+00 3.287408e+00 -4.538044e-01 8.704351e-01 7.276899e-01 4.679444e-01 4.150407e-01 5.706517e-01 -1.937626e-01 -1.382255e-01 1.753797e-02 -1.629017e-01 -2.942949e-01 -3.140077e-01 -8.826797e-01
<VARIANCE> 25
 2.215926e+01 3.099335e+01 3.486272e+01 3.668752e+01 3.283007e+01 3.965223e+01 3.500597e+01 3.826480e+01 3.512437e+01 3.170736e+01 2.563973e+01 2.200531e+01 5.861269e-01 9.910762e-01 1.080531e+00 1.252255e+00 1.395680e+00 1.835312e+00 1.787168e+00 1.826652e+00 1.993582e+00 1.853269e+00 1.609923e+00 1.318195e+00 6.483233e-01
<GCONST> 9.086413e+01
~t "T_a"
<ENDHMM>
~h "p-a+th"
<BEGINHMM>
<NUMSTATES> 5
<STATE> 2
<MEAN> 25
 8.084209e+00 -3.246555e+00 -4.886938e+00 -2.890126e+00 -1.922659e+00 -4.591505e+00 -1.062124e+00 -1.533606e+00 -3.011539e+00 -1.419097e+00 7.822737e-01 1.974153e+00 8.531939e-01 -1.219489e+00 -1.591901e+00 -1.511451e+00 -1.099942e+00 -1.081241e+00 3.296968e-01 2.435892e-01 2.131322e-01 7.433307e-01 1.096173e+00 1.076555e+00 1.531909e+00
<VARIANCE> 25
 3.102556e+01 3.982352e+01 4.648204e+01 6.052976e+01 4.865224e+01 5.364120e+01 4.957391e+01 5.206113e+01 4.994263e+01 4.377484e+01 3.566540e+01 3.010361e+01 2.105191e+00 2.133569e+00 2.607650e+00 3.361774e+00 2.917656e+00 3.954443e+00 3.398865e+00 3.319243e+00 3.668817e+00 4.076825e+00 3.093344e+00 2.673295e+00 1.675560e+00
<GCONST> 1.052759e+02
<STATE> 3
<MEAN> 25
 9.462610e+00 -6.897775e+00 -8.743549e+00 -6.083593e+00 -4.604442e+00 -5.470979e+00 1.397076e+00 -2.830499e-01 -1.629562e+00 7.007640e-01 2.659651e+00 3.340820e+00 3.290816e-02 -1.735238e-01 -3.625012e-01 -3.627358e-01 -1.769637e-01 2.254089e-01 4.766614e-01 2.827543e-01 2.371980e-01 1.767752e-01 8.445666e-02 6.974697e-02 8.193482e-02
<VARIANCE> 25
 2.840129e+01 3.570125e+01 4.138834e+01 4.038225e+01 4.118876e+01 4.148624e+01 4.739182e+01 4.747406e+01 4.473821e+01 4.189992e+01 3.449903e+01 2.805832e+01 3.302394e-01 8.424883e-01 9.393210e-01 1.242460e+00 1.324397e+00 1.496400e+00 1.901740e+00 1.780651e+00 1.803969e+00 1.726919e+00 1.430944e+00 1.179275e+00 3.783611e-01
<GCONST> 9.133002e+01
<STATE> 4
<MEAN> 25
 8.177530e+00 -2.680661e+00 -7.293503e+00 -5.932261e+00 -3.758124e+00 -2.794274e+00 1.176165e+00 -3.390664e-01 -1.368642e+00 2.573896e-01 2.133668e+00 3.287408e+00 -4.538044e-01 8.704351e-01 7.276899e-01 4.679444e-01 4.150407e-01 5.706517e-01 -1.937626e-01 -1.382255e-01 1.753797e-02 -1.629017e-01 -2.942949e-01 -3.140077e-01 -8.826797e-01
<VARIANCE> 25
 2.215926e+01 3.099335e+01 3.486272e+01 3.668752e+01 3.283007e+01 3.965223e+01 3.500597e+01 3.826480e+01 3.512437e+01 3.170736e+01 2.563973e+01 2.200531e+01 5.861269e-01 9.910762e-01 1.080531e+00 1.252255e+00 1.395680e+00 1.835312e+00 1.787168e+00 1.826652e+00 1.993582e+00 1.853269e+00 1.609923e+00 1.318195e+00 6.483233e-01
<GCONST> 9.086413e+01
~t "T_a"
<ENDHMM>
~h "th-a+b"
<BEGINHMM>
<NUMSTATES> 5
<STATE> 2
<MEAN> 25
 8.084209e+00 -3.246555e+00 -4.886938e+00 -2.890126e+00 -1.922659e+00 -4.591505e+00 -1.062124e+00 -1.533606e+00 -3.011539e+00 -1.419097e+00 7.822737e-01 1.974153e+00 8.531939e-01 -1.219489e+00 -1.591901e+00 -1.511451e+00 -1.099942e+00 -1.081241e+00 3.296968e-01 2.435892e-01 2.131322e-01 7.433307e-01 1.096173e+00 1.076555e+00 1.531909e+00
<VARIANCE> 25
 3.102556e+01 3.982352e+01 4.648204e+01 6.052976e+01 4.865224e+01 5.364120e+01 4.957391e+01 5.206113e+01 4.994263e+01 4.377484e+01 3.566540e+01 3.010361e+01 2.105191e+00 2.133569e+00 2.607650e+00 3.361774e+00 2.917656e+00 3.954443e+00 3.398865e+00 3.319243e+00 3.668817e+00 4.076825e+00 3.093344e+00 2.673295e+00 1.675560e+00
<GCONST> 1.052759e+02
<STATE> 3
<MEAN> 25
 9.462610e+00 -6.897775e+00 -8.743549e+00 -6.083593e+00 -4.604442e+00 -5.470979e+00 1.397076e+00 -2.830499e-01 -1.629562e+00 7.007640e-01 2.659651e+00 3.340820e+00 3.290816e-02 -1.735238e-01 -3.625012e-01 -3.627358e-01 -1.769637e-01 2.254089e-01 4.766614e-01 2.827543e-01 2.371980e-01 1.767752e-01 8.445666e-02 6.974697e-02 8.193482e-02
<VARIANCE> 25
 2.840129e+01 3.570125e+01 4.138834e+01 4.038225e+01 4.118876e+01 4.148624e+01 4.739182e+01 4.747406e+01 4.473821e+01 4.189992e+01 3.449903e+01 2.805832e+01 3.302394e-01 8.424883e-01 9.393210e-01 1.242460e+00 1.324397e+00 1.496400e+00 1.901740e+00 1.780651e+00 1.803969e+00 1.726919e+00 1.430944e+00 1.179275e+00 3.783611e-01
<GCONST> 9.133002e+01
<STATE> 4
<MEAN> 25
 8.177530e+00 -2.680661e+00 -7.293503e+00 -5.932261e+00 -3.758124e+00 -2.794274e+00 1.176165e+00 -3.390664e-01 -1.368642e+00 2.573896e-01 2.133668e+00 3.287408e+00 -4.538044e-01 8.704351e-01 7.276899e-01 4.679444e-01 4.150407e-01 5.706517e-01 -1.937626e-01 -1.382255e-01 1.753797e-02 -1.629017e-01 -2.942949e-01 -3.140077e-01 -8.826797e-01
<VARIANCE> 25
 2.215926e+01 3.099335e+01 3.486272e+01 3.668752e+01 3.283007e+01 3.965223e+01 3.500597e+01 3.826480e+01 3.512437e+01 3.170736e+01 2.563973e+01 2.200531e+01 5.861269e-01 9.910762e-01 1.080531e+00 1.252255e+00 1.395680e+00 1.835312e+00 1.787168e+00 1.826652e+00 1.993582e+00 1.853269e+00 1.609923e+00 1.318195e+00 6.483233e-01
<GCONST> 9.086413e+01
~t "T_a"
<ENDHMM>
~h "th-a+d"
<BEGINHMM>
<NUMSTATES> 5
<STATE> 2
<MEAN> 25
 8.084209e+00 -3.246555e+00 -4.886938e+00 -2.890126e+00 -1.922659e+00 -4.591505e+00 -1.062124e+00 -1.533606e+00 -3.011539e+00 -1.419097e+00 7.822737e-01 1.974153e+00 8.531939e-01 -1.219489e+00 -1.591901e+00 -1.511451e+00 -1.099942e+00 -1.081241e+00 3.296968e-01 2.435892e-01 2.131322e-01 7.433307e-01 1.096173e+00 1.076555e+00 1.531909e+00
<VARIANCE> 25
 3.102556e+01 3.982352e+01 4.648204e+01 6.052976e+01 4.865224e+01 5.364120e+01 4.957391e+01 5.206113e+01 4.994263e+01 4.377484e+01 3.566540e+01 3.010361e+01 2.105191e+00 2.133569e+00 2.607650e+00 3.361774e+00 2.917656e+00 3.954443e+00 3.398865e+00 3.319243e+00 3.668817e+00 4.076825e+00 3.093344e+00 2.673295e+00 1.675560e+00
<GCONST> 1.052759e+02
<STATE> 3
<MEAN> 25
 9.462610e+00 -6.897775e+00 -8.743549e+00 -6.083593e+00 -4.604442e+00 -5.470979e+00 1.397076e+00 -2.830499e-01 -1.629562e+00 7.007640e-01 2.659651e+00 3.340820e+00 3.290816e-02 -1.735238e-01 -3.625012e-01 -3.627358e-01 -1.769637e-01 2.254089e-01 4.766614e-01 2.827543e-01 2.371980e-01 1.767752e-01 8.445666e-02 6.974697e-02 8.193482e-02
<VARIANCE> 25
 2.840129e+01 3.570125e+01 4.138834e+01 4.038225e+01 4.118876e+01 4.148624e+01 4.739182e+01 4.747406e+01 4.473821e+01 4.189992e+01 3.449903e+01 2.805832e+01 3.302394e-01 8.424883e-01 9.393210e-01 1.242460e+00 1.324397e+00 1.496400e+00 1.901740e+00 1.780651e+00 1.803969e+00 1.726919e+00 1.430944e+00 1.179275e+00 3.783611e-01
<GCONST> 9.133002e+01
<STATE> 4
<MEAN> 25
 8.177530e+00 -2.680661e+00 -7.293503e+00 -5.932261e+00 -3.758124e+00 -2.794274e+00 1.176165e+00 -3.390664e-01 -1.368642e+00 2.573896e-01 2.133668e+00 3.287408e+00 -4.538044e-01 8.704351e-01 7.276899e-01 4.679444e-01 4.150407e-01 5.706517e-01 -1.937626e-01 -1.382255e-01 1.753797e-02 -1.629017e-01 -2.942949e-01 -3.140077e-01 -8.826797e-01
<VARIANCE> 25
 2.215926e+01 3.099335e+01 3.486272e+01 3.668752e+01 3.283007e+01 3.965223e+01 3.500597e+01 3.826480e+01 3.512437e+01 3.170736e+01 2.563973e+01 2.200531e+01 5.861269e-01 9.910762e-01 1.080531e+00 1.252255e+00 1.395680e+00 1.835312e+00 1.787168e+00 1.826652e+00 1.993582e+00 1.853269e+00 1.609923e+00 1.318195e+00 6.483233e-01
<GCONST> 9.086413e+01
~t "T_a"
<ENDHMM>
~h "th-a+g"
<BEGINHMM>
<NUMSTATES> 5
<STATE> 2
<MEAN> 25
 8.084209e+00 -3.246555e+00 -4.886938e+00 -2.890126e+00 -1.922659e+00 -4.591505e+00 -1.062124e+00 -1.533606e+00 -3.011539e+00 -1.419097e+00 7.822737e-01 1.974153e+00 8.531939e-01 -1.219489e+00 -1.591901e+00 -1.511451e+00 -1.099942e+00 -1.081241e+00 3.296968e-01 2.435892e-01 2.131322e-01 7.433307e-01 1.096173e+00 1.076555e+00 1.531909e+00
<VARIANCE> 25
 3.102556e+01 3.982352e+01 4.648204e+01 6.052976e+01 4.865224e+01 5.364120e+01 4.957391e+01 5.206113e+01 4.994263e+01 4.377484e+01 3.566540e+01 3.010361e+01 2.105191e+00 2.133569e+00 2.607650e+00 3.361774e+00 2.917656e+00 3.954443e+00 3.398865e+00 3.319243e+00 3.668817e+00 4.076825e+00 3.093344e+00 2.673295e+00 1.675560e+00
<GCONST> 1.052759e+02
<STATE> 3
<MEAN> 25
 9.462610e+00 -6.897775e+00 -8.743549e+00 -6.083593e+00 -4.604442e+00 -5.470979e+00 1.397076e+00 -2.830499e-01 -1.629562e+00 7.007640e-01 2.659651e+00 3.340820e+00 3.290816e-02 -1.735238e-01 -3.625012e-01 -3.627358e-01 -1.769637e-01 2.254089e-01 4.766614e-01 2.827543e-01 2.371980e-01 1.767752e-01 8.445666e-02 6.974697e-02 8.193482e-02
<VARIANCE> 25
 2.840129e+01 3.570125e+01 4.138834e+01 4.038225e+01 4.118876e+01 4.148624e+01 4.739182e+01 4.747406e+01 4.473821e+01 4.189992e+01 3.449903e+01 2.805832e+01 3.302394e-01 8.424883e-01 9.393210e-01 1.242460e+00 1.324397e+00 1.496400e+00 1.901740e+00 1.780651e+00 1.803969e+00 1.726919e+00 1.430944e+00 1.179275e+00 3.783611e-01
<GCONST> 9.133002e+01
<STATE> 4
<MEAN> 25
 8.177530e+00 -2.680661e+00 -7.293503e+00 -5.932261e+00 -3.758124e+00 -2.794274e+00 1.176165e+00 -3.390664e-01 -1.368642e+00 2.573896e-01 2.133668e+00 3.287408e+00 -4.538044e-01 8.704351e-01 7.276899e-01 4.679444e-01 4.150407e-01 5.706517e-01 -1.937626e-01 -1.382255e-01 1.753797e-02 -1.629017e-01 -2.942949e-01 -3.140077e-01 -8.826797e-01
<VARIANCE> 25
 2.215926e+01 3.099335e+01 3.486272e+01 3.668752e+01 3.283007e+01 3.965223e+01 3.500597e+01 3.826480e+01 3.512437e+01 3.170736e+01 2.563973e+01 2.200531e+01 5.861269e-01 9.910762e-01 1.080531e+00 1.252255e+00 1.395680e+00 1.835312e+00 1.787168e+00 1.826652e+00 1.993582e+00 1.853269e+00 1.609923e+00 1.318195e+00 6.483233e-01
<GCONST> 9.086413e+01
~t "T_a"
<ENDHMM>
~h "th-a+n"
<BEGINHMM>
<NUMSTATES> 5
<STATE> 2
<MEAN> 25
 8.084209e+00 -3.246555e+00 -4.886938e+00 -2.890126e+00 -1.922659e+00 -4.591505e+00 -1.062124e+00 -1.533606e+00 -3.011539e+00 -1.419097e+00 7.822737e-01 1.974153e+00 8.531939e-01 -1.219489e+00 -1.591901e+00 -1.511451e+00 -1.099942e+00 -1.081241e+00 3.296968e-01 2.435892e-01 2.131322e-01 7.433307e-01 1.096173e+00 1.076555e+00 1.531909e+00
<VARIANCE> 25
 3.102556e+01 3.982352e+01 4.648204e+01 6.052976e+01 4.865224e+01 5.364120e+01 4.957391e+01 5.206113e+01 4.994263e+01 4.377484e+01 3.566540e+01 3.010361e+01 2.105191e+00 2.133569e+00 2.607650e+00 3.361774e+00 2.917656e+00 3.954443e+00 3.398865e+00 3.319243e+00 3.668817e+00 4.076825e+00 3.093344e+00 2.673295e+00 1.675560e+00
<GCONST> 1.052759e+02
<STATE> 3
<MEAN> 25
 9.462610e+00 -6.897775e+00 -8.743549e+00 -6.083593e+00 -4.604442e+00 -5.470979e+00 1.397076e+00 -2.830499e-01 -1.629562e+00 7.007640e-01 2.659651e+00 3.340820e+00 3.290816e-02 -1.735238e-01 -3.625012e-01 -3.627358e-01 -1.769637e-01 2.254089e-01 4.766614e-01 2.827543e-01 2.371980e-01 1.767752e-01 8.445666e-02 6.974697e-02 8.193482e-02
<VARIANCE> 25
 2.840129e+01 3.570125e+01 4.138834e+01 4.038225e+01 4.118876e+01 4.148624e+01 4.739182e+01 4.747406e+01 4.473821e+01 4.189992e+01 3.449903e+01 2.805832e+01 3.302394e-01 8.424883e-01 9.393210e-01 1.242460e+00 1.324397e+00 1.496400e+00 1.901740e+00 1.780651e+00 1.803969e+00 1.726919e+00 1.430944e+00 1.179275e+00 3.783611e-01
<GCONST> 9.133002e+01
<STATE> 4
<MEAN> 25
 8.177530e+00 -2.680661e+00 -7.293503e+00 -5.932261e+00 -3.758124e+00 -2.794274e+00 1.176165e+00 -3.390664e-01 -1.368642e+00 2.573896e-01 2.133668e+00 3.287408e+00 -4.538044e-01 8.704351e-01 7.276899e-01 4.679444e-01 4.150407e-01 5.706517e-01 -1.937626e-01 -1.382255e-01 1.753797e-02 -1.629017e-01 -2.942949e-01 -3.140077e-01 -8.826797e-01
<VARIANCE> 25
 2.215926e+01 3.099335e+01 3.486272e+01 3.668752e+01 3.283007e+01 3.965223e+01 3.500597e+01 3.826480e+01 3.512437e+01 3.170736e+01 2.563973e+01 2.200531e+01 5.861269e-01 9.910762e-01 1.080531e+00 1.252255e+00 1.395680e+00 1.835312e+00 1.787168e+00 1.826652e+00 1.993582e+00 1.853269e+00 1.609923e+00 1.318195e+00 6.483233e-01
<GCONST> 9.086413e+01
~t "T_a"
<ENDHMM>
~h "th-a+p"
<BEGINHMM>
<NUMSTATES> 5
<STATE> 2
<MEAN> 25
 8.084209e+00 -3.246555e+00 -4.886938e+00 -2.890126e+00 -1.922659e+00 -4.591505e+00 -1.062124e+00 -1.533606e+00 -3.011539e+00 -1.419097e+00 7.822737e-01 1.974153e+00 8.531939e-01 -1.219489e+00 -1.591901e+00 -1.511451e+00 -1.099942e+00 -1.081241e+00 3.296968e-01 2.435892e-01 2.131322e-01 7.433307e-01 1.096173e+00 1.076555e+00 1.531909e+00
<VARIANCE> 25
 3.102556e+01 3.982352e+01 4.648204e+01 6.052976e+01 4.865224e+01 5.364120e+01 4.957391e+01 5.206113e+01 4.994263e+01 4.377484e+01 3.566540e+01 3.010361e+01 2.105191e+00 2.133569e+00 2.607650e+00 3.361774e+00 2.917656e+00 3.954443e+00 3.398865e+00 3.319243e+00 3.668817e+00 4.076825e+00 3.093344e+00 2.673295e+00 1.675560e+00
<GCONST> 1.052759e+02
<STATE> 3
<MEAN> 25
 9.462610e+00 -6.897775e+00 -8.743549e+00 -6.083593e+00 -4.604442e+00 -5.470979e+00 1.397076e+00 -2.830499e-01 -1.629562e+00 7.007640e-01 2.659651e+00 3.340820e+00 3.290816e-02 -1.735238e-01 -3.625012e-01 -3.627358e-01 -1.769637e-01 2.254089e-01 4.766614e-01 2.827543e-01 2.371980e-01 1.767752e-01 8.445666e-02 6.974697e-02 8.193482e-02
<VARIANCE> 25
 2.840129e+01 3.570125e+01 4.138834e+01 4.038225e+01 4.118876e+01 4.148624e+01 4.739182e+01 4.747406e+01 4.473821e+01 4.189992e+01 3.449903e+01 2.805832e+01 3.302394e-01 8.424883e-01 9.393210e-01 1.242460e+00 1.324397e+00 1.496400e+00 1.901740e+00 1.780651e+00 1.803969e+00 1.726919e+00 1.430944e+00 1.179275e+00 3.783611e-01
<GCONST> 9.133002e+01
<STATE> 4
<MEAN> 25
 8.177530e+00 -2.680661e+00 -7.293503e+00 -5.932261e+00 -3.758124e+00 -2.794274e+00 1.176165e+00 -3.390664e-01 -1.368642e+00 2.573896e-01 2.133668e+00 3.287408e+00 -4.538044e-01 8.704351e-01 7.276899e-01 4.679444e-01 4.150407e-01 5.706517e-01 -1.937626e-01 -1.382255e-01 1.753797e-02 -1.629017e-01 -2.942949e-01 -3.140077e-01 -8.826797e-01
<VARIANCE> 25
 2.215926e+01 3.099335e+01 3.486272e+01 3.668752e+01 3.283007e+01 3.965223e+01 3.500597e+01 3.826480e+01 3.512437e+01 3.170736e+01 2.563973e+01 2.200531e+01 5.861269e-01 9.910762e-01 1.080531e+00 1.252255e+00 1.395680e+00 1.835312e+00 1.787168e+00 1.826652e+00 1.993582e+00 1.853269e+00 1.609923e+00 1.318195e+00 6.483233e-01
<GCONST> 9.086413e+01
~t "T_a"
<ENDHMM>
~h "th-a+r"
<BEGINHMM>
<NUMSTATES> 5
<STATE> 2
<MEAN> 25
 8.084209e+00 -3.246555e+00 -4.886938e+00 -2.890126e+00 -1.922659e+00 -4.591505e+00 -1.062124e+00 -1.533606e+00 -3.011539e+00 -1.419097e+00 7.822737e-01 1.974153e+00 8.531939e-01 -1.219489e+00 -1.591901e+00 -1.511451e+00 -1.099942e+00 -1.081241e+00 3.296968e-01 2.435892e-01 2.131322e-01 7.433307e-01 1.096173e+00 1.076555e+00 1.531909e+00
<VARIANCE> 25
 3.102556e+01 3.982352e+01 4.648204e+01 6.052976e+01 4.865224e+01 5.364120e+01 4.957391e+01 5.206113e+01 4.994263e+01 4.377484e+01 3.566540e+01 3.010361e+01 2.105191e+00 2.133569e+00 2.607650e+00 3.361774e+00 2.917656e+00 3.954443e+00 3.398865e+00 3.319243e+00 3.668817e+00 4.076825e+00 3.093344e+00 2.673295e+00 1.675560e+00
<GCONST> 1.052759e+02
<STATE> 3
<MEAN> 25
 9.462610e+00 -6.897775e+00 -8.743549e+00 -6.083593e+00 -4.604442e+00 -5.470979e+00 1.397076e+00 -2.830499e-01 -1.629562e+00 7.007640e-01 2.659651e+00 3.340820e+00 3.290816e-02 -1.735238e-01 -3.625012e-01 -3.627358e-01 -1.769637e-01 2.254089e-01 4.766614e-01 2.827543e-01 2.371980e-01 1.767752e-01 8.445666e-02 6.974697e-02 8.193482e-02
<VARIANCE> 25
 2.840129e+01 3.570125e+01 4.138834e+01 4.038225e+01 4.118876e+01 4.148624e+01 4.739182e+01 4.747406e+01 4.473821e+01 4.189992e+01 3.449903e+01 2.805832e+01 3.302394e-01 8.424883e-01 9.393210e-01 1.242460e+00 1.324397e+00 1.496400e+00 1.901740e+00 1.780651e+00 1.803969e+00 1.726919e+00 1.430944e+00 1.179275e+00 3.783611e-01
<GCONST> 9.133002e+01
<STATE> 4
<MEAN> 25
 8.177530e+00 -2.680661e+00 -7.293503e+00 -5.932261e+00 -3.758124e+00 -2.794274e+00 1.176165e+00 -3.390664e-01 -1.368642e+00 2.573896e-01 2.133668e+00 3.287408e+00 -4.538044e-01 8.704351e-01 7.276899e-01 4.679444e-01 4.150407e-01 5.706517e-01 -1.937626e-01 -1.382255e-01 1.753797e-02 -1.629017e-01 -2.942949e-01 -3.140077e-01 -8.826797e-01
<VARIANCE> 25
 2.215926e+01 3.099335e+01 3.486272e+01 3.668752e+01 3.283007e+01 3.965223e+01 3.500597e+01 3.826480e+01 3.512437e+01 3.170736e+01 2.563973e+01 2.200531e+01 5.861269e-01 9.910762e-01 1.080531e+00 1.252255e+00 1.395680e+00 1.835312e+00 1.787168e+00 1.826652e+00 1.993582e+00 1.853269e+00 1.609923e+00 1.318195e+00 6.483233e-01
<GCONST> 9.086413e+01
~t "T_a"
<ENDHMM>
~h "th-a+s"
<BEGINHMM>
<NUMSTATES> 5
<STATE> 2
<MEAN> 25
 8.084209e+00 -3.246555e+00 -4.886938e+00 -2.890126e+00 -1.922659e+00 -4.591505e+00 -1.062124e+00 -1.533606e+00 -3.011539e+00 -1.419097e+00 7.822737e-01 1.974153e+00 8.531939e-01 -1.219489e+00 -1.591901e+00 -1.511451e+00 -1.099942e+00 -1.081241e+00 3.296968e-01 2.435892e-01 2.131322e-01 7.433307e-01 1.096173e+00 1.076555e+00 1.531909e+00
<VARIANCE> 25
 3.102556e+01 3.982352e+01 4.648204e+01 6.052976e+01 4.865224e+01 5.364120e+01 4.957391e+01 5.206113e+01 4.994263e+01 4.377484e+01 3.566540e+01 3.010361e+01 2.105191e+00 2.133569e+00 2.607650e+00 3.361774e+00 2.917656e+00 3.954443e+00 3.398865e+00 3.319243e+00 3.668817e+00 4.076825e+00 3.093344e+00 2.673295e+00 1.675560e+00
<GCONST> 1.052759e+02
<STATE> 3
<MEAN> 25
 9.462610e+00 -6.897775e+00 -8.743549e+00 -6.083593e+00 -4.604442e+00 -5.470979e+00 1.397076e+00 -2.830499e-01 -1.629562e+00 7.007640e-01 2.659651e+00 3.340820e+00 3.290816e-02 -1.735238e-01 -3.625012e-01 -3.627358e-01 -1.769637e-01 2.254089e-01 4.766614e-01 2.827543e-01 2.371980e-01 1.767752e-01 8.445666e-02 6.974697e-02 8.193482e-02
<VARIANCE> 25
 2.840129e+01 3.570125e+01 4.138834e+01 4.038225e+01 4.118876e+01 4.148624e+01 4.739182e+01 4.747406e+01 4.473821e+01 4.189992e+01 3.449903e+01 2.805832e+01 3.302394e-01 8.424883e-01 9.393210e-01 1.242460e+00 1.324397e+00 1.496400e+00 1.901740e+00 1.780651e+00 1.803969e+00 1.726919e+00 1.430944e+00 1.179275e+00 3.783611e-01
<GCONST> 9.133002e+01
<STATE> 4
<MEAN> 25
 8.177530e+00 -2.680661e+00 -7.293503e+00 -5.932261e+00 -3.758124e+00 -2.794274e+00 1.176165e+00 -3.390664e-01 -1.368642e+00 2.573896e-01 2.133668e+00 3.287408e+00 -4.538044e-01 8.704351e-01 7.276899e-01 4.679444e-01 4.150407e-01 5.706517e-01 -1.937626e-01 -1.382255e-01 1.753797e-02 -1.629017e-01 -2.942949e-01 -3.140077e-01 -8.826797e-01
<VARIANCE> 25
 2.215926e+01 3.099335e+01 3.486272e+01 3.668752e+01 3.283007e+01 3.965223e+01 3.500597e+01 3.826480e+01 3.512437e+01 3.170736e+01 2.563973e+01 2.200531e+01 5.861269e-01 9.910762e-01 1.080531e+00 1.252255e+00 1.395680e+00 1.835312e+00 1.787168e+00 1.826652e+00 1.993582e+00 1.853269e+00 1.609923e+00 1.318195e+00 6.483233e-01
<GCONST> 9.086413e+01
~t "T_a"
<ENDHMM>
~h "t-i+ll"
<BEGINHMM>
<NUMSTATES> 5
<STATE> 2
<MEAN> 25
 2.824880e+00 -2.961581e+00 4.292364e+00 7.499251e+00 7.346193e+00 -2.067250e+00 -5.297520e+00 -2.873806e+00 -2.378581e+00 -1.973293e+00 -2.520489e+00 -3.736685e+00 1.015099e+00 -9.724852e-01 2.479329e-01 2.179622e+00 1.426837e+00 -2.128228e+00 -2.309814e+00 -3.848035e-01 -7.270547e-01 -7.560874e-01 -6.794949e-01 -8.365397e-01 1.175898e+00
<VARIANCE> 25
 3.374600e+01 3.967356e+01 6.750194e+01 6.375350e+01 5.781096e+01 6.437442e+01 4.980933e+01 4.415491e+01 4.445846e+01 3.540117e+01 3.356274e+01 2.704606e+01 3.132528e+00 4.137255e+00 3.621446e+00 4.487921e+00 4.215056e+00 5.312013e+00 4.005538e+00 3.824685e+00 4.409300e+00 4.209664e+00 3.923692e+00 2.984154e+00 1.617640e+00
<GCONST> 1.086541e+02
<STATE> 3
<MEAN> 25
 3.691633e+00 -6.378765e+00 6.166086e+00 1.236009e+01 7.380941e+00 -9.047977e+00 -9.580333e+00 -1.629763e+00 -3.102339e+00 -4.599288e+00 -4.548250e+00 -5.048493e+00 8.359629e-02 -2.991736e-01 1.296623e-01 4.305927e-01 9.667514e-03 -8.290642e-01 -5.818837e-01 1.603395e-01 8.957740e-02 -1.876646e-01 -1.591199e-01 -1.092843e-01 2.681427e-01
<VARIANCE> 25
 2.149308e+01 3.103732e+01 4.970968e+01 5.873264e+01 7.158559e+01 6.920425e+01 3.966159e+01 4.495304e+01 4.204121e+01 4.275245e+01 4.102441e+01 2.954641e+01 6.639252e-01 9.264812e-01 1.883231e+00 1.858640e+00 1.558079e+00 2.146437e+00 1.929194e+00 2.097977e+00 1.840118e+00 1.884095e+00 1.595546e+00 1.333590e+00 5.259222e-01
<GCONST> 9.574519e+01
<STATE> 4
<MEAN> 25
 4.036044e+00 -4.218312e+00 4.209880e+00 1.037407e+01 7.996428e+00 -6.247262e+00 -9.419474e+00 -3.331409e+00 -2.663913e+00 -2.918104e+00 -3.142705e+00 -4.376024e+00 3.821991e-02 8.336469e-01 -6.000085e-01 -1.181883e+00 -5.675405e-01 1.117856e+00 8.718380e-01 -2.187419e-01 -3.897155e-02 3.511441e-01 4.869802e-01 5.886047e-01 -5.325214e-01
<VARIANCE> 25
 1.972391e+01 3.227742e+01 4.309776e+01 5.167957e+01 5.495691e+01 6.691110e+01 3.850472e+01 4.351723e+01 4.154246e+01 3.556070e+01 3.517086e+01 2.803684e+01 6.999541e-01 1.390189e+00 1.663853e+00 1.824908e+00 1.964548e+00 2.784639e+00 2.501812e+00 2.236512e+00 2.341234e+00 2.148965e+00 1.947036e+00 1.699689e+00 1.056007e+00
<GCONST> 9.730878e+01
~t "T_i"
<ENDHMM>
~h "p-e+g"
<BEGINHMM>
<NUMSTATES> 5
<STATE> 2
<MEAN> 25
 4.917822e+00 -3.046909e+00 -7.860230e-01 1.961976e+00 3.296882e+00 -3.095960e+00 -4.445966e+00 -4.378197e+00 -4.194638e+00 -1.446952e+00 1.146220e-01 1.648807e-01 1.062938e+00 -1.285595e+00 -6.981800e-01 4.423747e-01 5.001229e-01 -1.895295e+00 -1.787762e+00 -1.308817e+00 -1.084860e+00 1.344622e-01 6.617222e-01 3.701210e-01 1.670173e+00
<VARIANCE> 25
 3.577217e+01 3.706077e+01 4.774310e+01 6.015227e+01 4.925949e+01 6.036604e+01 5.010396e+01 4.977269e+01 4.858726e+01 3.950971e+01 3.013842e+01 2.473536e+01 2.384392e+00 2.958043e+00 2.685448e+00 3.858023e+00 3.340221e+00 5.064232e+00 4.063103e+00 3.681123e+00 4.037725e+00 4.174648e+00 3.332788e+00 2.898063e+00 2.226966e+00
<GCONST> 1.068105e+02
<STATE> 3
<MEAN> 25
 7.191195e+00 -7.001473e+00 -2.328277e+00 2.836691e+00 3.888689e+00 -7.911126e+00 -8.482172e+00 -6.657192e+00 -5.470276e+00 -1.285404e-01 1.987994e+00 7.147580e-01 8.514885e-02 -4.249433e-01 -1.496204e-01 2.818093e-01 1.203487e-01 -6.073316e-01 -4.420330e-01 -1.406531e-01 1.603031e-01 5.093133e-01 3.347531e-01 -4.041983e-02 2.952766e-01
<VARIANCE> 25
 2.837927e+01 3.550758e+01 4.376701e+01 6.339727e+01 5.782299e+01 6.153004e+01 4.445435e+01 4.665985e+01 4.438187e+01 4.603452e+01 3.686113e+01 3.249733e+01 5.579238e-01 9.633060e-01 1.396090e+00 1.826277e+00 1.583154e+00 2.003756e+00 1.982185e+00 1.856537e+00 2.013892e+00 2.006657e+00 1.751121e+00 1.508502e+00 5.828047e-01
<GCONST> 9.591582e+01
<STATE> 4
<MEAN> 25
 5.895019e+00 -4.724988e+00 -1.197292e+00 3.906052e+00 3.870449e+00 -6.545651e+00 -8.215060e+00 -6.679025e+00 -4.172563e+00 5.337154e-01 9.279272e-01 -6.742178e-01 -3.232698e-01 7.992764e-01 3.300467e-01 -6.339286e-02 7.912491e-02 1.004552e+00 6.088396e-01 3.772415e-01 3.436322e-01 -1.313366e-01 -2.720630e-01 -1.298955e-01 -7.956876e-01
<VARIANCE> 25
 2.029749e+01 3.066547e+01 3.368494e+01 5.057070e+01 4.296806e+01 5.593891e+01 3.659196e+01 3.710094e+01 4.034227e+01 3.575679e+01 3.262199e+01 2.925796e+01 5.569103e-01 1.011105e+00 1.171097e+00 1.448238e+00 1.440968e+00 2.011663e+00 1.814593e+00 1.739066e+00 1.905525e+00 1.867028e+00 1.539982e+00 1.274082e+00 7.538318e-01
<GCONST> 9.278246e+01
~t "T_e"
<ENDHMM>
~h "p-e+k"
<BEGINHMM>
<NUMSTATES> 5
<STATE> 2
<MEAN> 25
 4.917822e+00 -3.046909e+00 -7.860230e-01 1.961976e+00 3.296882e+00 -3.095960e+00 -4.445966e+00 -4.378197e+00 -4.194638e+00 -1.446952e+00 1.146220e-01 1.648807e-01 1.062938e+00 -1.285595e+00 -6.981800e-01 4.423747e-01 5.001229e-01 -1.895295e+00 -1.787762e+00 -1.308817e+00 -1.084860e+00 1.344622e-01 6.617222e-01 3.701210e-01 1.670173e+00
<VARIANCE> 25
 3.577217e+01 3.706077e+01 4.774310e+01 6.015227e+01 4.925949e+01 6.036604e+01 5.010396e+01 4.977269e+01 4.858726e+01 3.950971e+01 3.013842e+01 2.473536e+01 2.384392e+00 2.958043e+00 2.685448e+00 3.858023e+00 3.340221e+00 5.064232e+00 4.063103e+00 3.681123e+00 4.037725e+00 4.174648e+00 3.332788e+00 2.898063e+00 2.226966e+00
<GCONST> 1.068105e+02
<STATE> 3
<MEAN> 25
 7.191195e+00 -7.001473e+00 -2.328277e+00 2.836691e+00 3.888689e+00 -7.911126e+00 -8.482172e+00 -6.657192e+00 -5.470276e+00 -1.285404e-01 1.987994e+00 7.147580e-01 8.514885e-02 -4.249433e-01 -1.496204e-01 2.818093e-01 1.203487e-01 -6.073316e-01 -4.420330e-01 -1.406531e-01 1.603031e-01 5.093133e-01 3.347531e-01 -4.041983e-02 2.952766e-01
<VARIANCE> 25
 2.837927e+01 3.550758e+01 4.376701e+01 6.339727e+01 5.782299e+01 6.153004e+01 4.445435e+01 4.665985e+01 4.438187e+01 4.603452e+01 3.686113e+01 3.249733e+01 5.579238e-01 9.633060e-01 1.396090e+00 1.826277e+00 1.583154e+00 2.003756e+00 1.982185e+00 1.856537e+00 2.013892e+00 2.006657e+00 1.751121e+00 1.508502e+00 5.828047e-01
<GCONST> 9.591582e+01
<STATE> 4
<MEAN> 25
 5.895019e+00 -4.724988e+00 -1.197292e+00 3.906052e+00 3.870449e+00 -6.545651e+00 -8.215060e+00 -6.679025e+00 -4.172563e+00 5.337154e-01 9.279272e-01 -6.742178e-01 -3.232698e-01 7.992764e-01 3.300467e-01 -6.339286e-02 7.912491e-02 1.004552e+00 6.088396e-01 3.772415e-01 3.436322e-01 -1.313366e-01 -2.720630e-01 -1.298955e-01 -7.956876e-01
<VARIANCE> 25
 2.029749e+01 3.066547e+01 3.368494e+01 5.057070e+01 4.296806e+01 5.593891e+01 3.659196e+01 3.710094e+01 4.034227e+01 3.575679e+01 3.262199e+01 2.925796e+01 5.569103e-01 1.011105e+00 1.171097e+00 1.448238e+00 1.440968e+00 2.011663e+00 1.814593e+00 1.739066e+00 1.905525e+00 1.867028e+00 1.539982e+00 1.274082e+00 7.538318e-01
<GCONST> 9.278246e+01
~t "T_e"
<ENDHMM>
~h "p-e+l"
<BEGINHMM>
<NUMSTATES> 5
<STATE> 2
<MEAN> 25
 4.917822e+00 -3.046909e+00 -7.860230e-01 1.961976e+00 3.296882e+00 -3.095960e+00 -4.445966e+00 -4.378197e+00 -4.194638e+00 -1.446952e+00 1.146220e-01 1.648807e-01 1.062938e+00 -1.285595e+00 -6.981800e-01 4.423747e-01 5.001229e-01 -1.895295e+00 -1.787762e+00 -1.308817e+00 -1.084860e+00 1.344622e-01 6.617222e-01 3.701210e-01 1.670173e+00
<VARIANCE> 25
 3.577217e+01 3.706077e+01 4.774310e+01 6.015227e+01 4.925949e+01 6.036604e+01 5.010396e+01 4.977269e+01 4.858726e+01 3.950971e+01 3.013842e+01 2.473536e+01 2.384392e+00 2.958043e+00 2.685448e+00 3.858023e+00 3.340221e+00 5.064232e+00 4.063103e+00 3.681123e+00 4.037725e+00 4.174648e+00 3.332788e+00 2.898063e+00 2.226966e+00
<GCONST> 1.068105e+02
<STATE> 3
<MEAN> 25
 7.191195e+00 -7.001473e+00 -2.328277e+00 2.836691e+00 3.888689e+00 -7.911126e+00 -8.482172e+00 -6.657192e+00 -5.470276e+00 -1.285404e-01 1.987994e+00 7.147580e-01 8.514885e-02 -4.249433e-01 -1.496204e-01 2.818093e-01 1.203487e-01 -6.073316e-01 -4.420330e-01 -1.406531e-01 1.603031e-01 5.093133e-01 3.347531e-01 -4.041983e-02 2.952766e-01
<VARIANCE> 25
 2.837927e+01 3.550758e+01 4.376701e+01 6.339727e+01 5.782299e+01 6.153004e+01 4.445435e+01 4.665985e+01 4.438187e+01 4.603452e+01 3.686113e+01 3.249733e+01 5.579238e-01 9.633060e-01 1.396090e+00 1.826277e+00 1.583154e+00 2.003756e+00 1.982185e+00 1.856537e+00 2.013892e+00 2.006657e+00 1.751121e+00 1.508502e+00 5.828047e-01
<GCONST> 9.591582e+01
<STATE> 4
<MEAN> 25
 5.895019e+00 -4.724988e+00 -1.197292e+00 3.906052e+00 3.870449e+00 -6.545651e+00 -8.215060e+00 -6.679025e+00 -4.172563e+00 5.337154e-01 9.279272e-01 -6.742178e-01 -3.232698e-01 7.992764e-01 3.300467e-01 -6.339286e-02 7.912491e-02 1.004552e+00 6.088396e-01 3.772415e-01 3.436322e-01 -1.313366e-01 -2.720630e-01 -1.298955e-01 -7.956876e-01
<VARIANCE> 25
 2.029749e+01 3.066547e+01 3.368494e+01 5.057070e+01 4.296806e+01 5.593891e+01 3.659196e+01 3.710094e+01 4.034227e+01 3.575679e+01 3.262199e+01 2.925796e+01 5.569103e-01 1.011105e+00 1.171097e+00 1.448238e+00 1.440968e+00 2.011663e+00 1.814593e+00 1.739066e+00 1.905525e+00 1.867028e+00 1.539982e+00 1.274082e+00 7.538318e-01
<GCONST> 9.278246e+01
~t "T_e"
<ENDHMM>
~h "p-e+n"
<BEGINHMM>
<NUMSTATES> 5
<STATE> 2
<MEAN> 25
 4.917822e+00 -3.046909e+00 -7.860230e-01 1.961976e+00 3.296882e+00 -3.095960e+00 -4.445966e+00 -4.378197e+00 -4.194638e+00 -1.446952e+00 1.146220e-01 1.648807e-01 1.062938e+00 -1.285595e+00 -6.981800e-01 4.423747e-01 5.001229e-01 -1.895295e+00 -1.787762e+00 -1.308817e+00 -1.084860e+00 1.344622e-01 6.617222e-01 3.701210e-01 1.670173e+00
<VARIANCE> 25
 3.577217e+01 3.706077e+01 4.774310e+01 6.015227e+01 4.925949e+01 6.036604e+01 5.010396e+01 4.977269e+01 4.858726e+01 3.950971e+01 3.013842e+01 2.473536e+01 2.384392e+00 2.958043e+00 2.685448e+00 3.858023e+00 3.340221e+00 5.064232e+00 4.063103e+00 3.681123e+00 4.037725e+00 4.174648e+00 3.332788e+00 2.898063e+00 2.226966e+00
<GCONST> 1.068105e+02
<STATE> 3
<MEAN> 25
 7.191195e+00 -7.001473e+00 -2.328277e+00 2.836691e+00 3.888689e+00 -7.911126e+00 -8.482172e+00 -6.657192e+00 -5.470276e+00 -1.285404e-01 1.987994e+00 7.147580e-01 8.514885e-02 -4.249433e-01 -1.496204e-01 2.818093e-01 1.203487e-01 -6.073316e-01 -4.420330e-01 -1.406531e-01 1.603031e-01 5.093133e-01 3.347531e-01 -4.041983e-02 2.952766e-01
<VARIANCE> 25
 2.837927e+01 3.550758e+01 4.376701e+01 6.339727e+01 5.782299e+01 6.153004e+01 4.445435e+01 4.665985e+01 4.438187e+01 4.603452e+01 3.686113e+01 3.249733e+01 5.579238e-01 9.633060e-01 1.396090e+00 1.826277e+00 1.583154e+00 2.003756e+00 1.982185e+00 1.856537e+00 2.013892e+00 2.006657e+00 1.751121e+00 1.508502e+00 5.828047e-01
<GCONST> 9.591582e+01
<STATE> 4
<MEAN> 25
 5.895019e+00 -4.724988e+00 -1.197292e+00 3.906052e+00 3.870449e+00 -6.545651e+00 -8.215060e+00 -6.679025e+00 -4.172563e+00 5.337154e-01 9.279272e-01 -6.742178e-01 -3.232698e-01 7.992764e-01 3.300467e-01 -6.339286e-02 7.912491e-02 1.004552e+00 6.088396e-01 3.772415e-01 3.436322e-01 -1.313366e-01 -2.720630e-01 -1.298955e-01 -7.956876e-01
<VARIANCE> 25
 2.029749e+01 3.066547e+01 3.368494e+01 5.057070e+01 4.296806e+01 5.593891e+01 3.659196e+01 3.710094e+01 4.034227e+01 3.575679e+01 3.262199e+01 2.925796e+01 5.569103e-01 1.011105e+00 1.171097e+00 1.448238e+00 1.440968e+00 2.011663e+00 1.814593e+00 1.739066e+00 1.905525e+00 1.867028e+00 1.539982e+00 1.274082e+00 7.538318e-01
<GCONST> 9.278246e+01
~t "T_e"
<ENDHMM>
~h "p-e+r"
<BEGINHMM>
<NUMSTATES> 5
<STATE> 2
<MEAN> 25
 4.917822e+00 -3.046909e+00 -7.860230e-01 1.961976e+00 3.296882e+00 -3.095960e+00 -4.445966e+00 -4.378197e+00 -4.194638e+00 -1.446952e+00 1.146220e-01 1.648807e-01 1.062938e+00 -1.285595e+00 -6.981800e-01 4.423747e-01 5.001229e-01 -1.895295e+00 -1.787762e+00 -1.308817e+00 -1.084860e+00 1.344622e-01 6.617222e-01 3.701210e-01 1.670173e+00
<VARIANCE> 25
 3.577217e+01 3.706077e+01 4.774310e+01 6.015227e+01 4.925949e+01 6.036604e+01 5.010396e+01 4.977269e+01 4.858726e+01 3.950971e+01 3.013842e+01 2.473536e+01 2.384392e+00 2.958043e+00 2.685448e+00 3.858023e+00 3.340221e+00 5.064232e+00 4.063103e+00 3.681123e+00 4.037725e+00 4.174648e+00 3.332788e+00 2.898063e+00 2.226966e+00
<GCONST> 1.068105e+02
<STATE> 3
<MEAN> 25
 7.191195e+00 -7.001473e+00 -2.328277e+00 2.836691e+00 3.888689e+00 -7.911126e+00 -8.482172e+00 -6.657192e+00 -5.470276e+00 -1.285404e-01 1.987994e+00 7.147580e-01 8.514885e-02 -4.249433e-01 -1.496204e-01 2.818093e-01 1.203487e-01 -6.073316e-01 -4.420330e-01 -1.406531e-01 1.603031e-01 5.093133e-01 3.347531e-01 -4.041983e-02 2.952766e-01
<VARIANCE> 25
 2.837927e+01 3.550758e+01 4.376701e+01 6.339727e+01 5.782299e+01 6.153004e+01 4.445435e+01 4.665985e+01 4.438187e+01 4.603452e+01 3.686113e+01 3.249733e+01 5.579238e-01 9.633060e-01 1.396090e+00 1.826277e+00 1.583154e+00 2.003756e+00 1.982185e+00 1.856537e+00 2.013892e+00 2.006657e+00 1.751121e+00 1.508502e+00 5.828047e-01
<GCONST> 9.591582e+01
<STATE> 4
<MEAN> 25
 5.895019e+00 -4.724988e+00 -1.197292e+00 3.906052e+00 3.870449e+00 -6.545651e+00 -8.215060e+00 -6.679025e+00 -4.172563e+00 5.337154e-01 9.279272e-01 -6.742178e-01 -3.232698e-01 7.992764e-01 3.300467e-01 -6.339286e-02 7.912491e-02 1.004552e+00 6.088396e-01 3.772415e-01 3.436322e-01 -1.313366e-01 -2.720630e-01 -1.298955e-01 -7.956876e-01
<VARIANCE> 25
 2.029749e+01 3.066547e+01 3.368494e+01 5.057070e+01 4.296806e+01 5.593891e+01 3.659196e+01 3.710094e+01 4.034227e+01 3.575679e+01 3.262199e+01 2.925796e+01 5.569103e-01 1.011105e+00 1.171097e+00 1.448238e+00 1.440968e+00 2.011663e+00 1.814593e+00 1.739066e+00 1.905525e+00 1.867028e+00 1.539982e+00 1.274082e+00 7.538318e-01
<GCONST> 9.278246e+01
~t "T_e"
<ENDHMM>
~h "p-e+s"
<BEGINHMM>
<NUMSTATES> 5
<STATE> 2
<MEAN> 25
 4.917822e+00 -3.046909e+00 -7.860230e-01 1.961976e+00 3.296882e+00 -3.095960e+00 -4.445966e+00 -4.378197e+00 -4.194638e+00 -1.446952e+00 1.146220e-01 1.648807e-01 1.062938e+00 -1.285595e+00 -6.981800e-01 4.423747e-01 5.001229e-01 -1.895295e+00 -1.787762e+00 -1.308817e+00 -1.084860e+00 1.344622e-01 6.617222e-01 3.701210e-01 1.670173e+00
<VARIANCE> 25
 3.577217e+01 3.706077e+01 4.774310e+01 6.015227e+01 4.925949e+01 6.036604e+01 5.010396e+01 4.977269e+01 4.858726e+01 3.950971e+01 3.013842e+01 2.473536e+01 2.384392e+00 2.958043e+00 2.685448e+00 3.858023e+00 3.340221e+00 5.064232e+00 4.063103e+00 3.681123e+00 4.037725e+00 4.174648e+00 3.332788e+00 2.898063e+00 2.226966e+00
<GCONST> 1.068105e+02
<STATE> 3
<MEAN> 25
 7.191195e+00 -7.001473e+00 -2.328277e+00 2.836691e+00 3.888689e+00 -7.911126e+00 -8.482172e+00 -6.657192e+00 -5.470276e+00 -1.285404e-01 1.987994e+00 7.147580e-01 8.514885e-02 -4.249433e-01 -1.496204e-01 2.818093e-01 1.203487e-01 -6.073316e-01 -4.420330e-01 -1.406531e-01 1.603031e-01 5.093133e-01 3.347531e-01 -4.041983e-02 2.952766e-01
<VARIANCE> 25
 2.837927e+01 3.550758e+01 4.376701e+01 6.339727e+01 5.782299e+01 6.153004e+01 4.445435e+01 4.665985e+01 4.438187e+01 4.603452e+01 3.686113e+01 3.249733e+01 5.579238e-01 9.633060e-01 1.396090e+00 1.826277e+00 1.583154e+00 2.003756e+00 1.982185e+00 1.856537e+00 2.013892e+00 2.006657e+00 1.751121e+00 1.508502e+00 5.828047e-01
<GCONST> 9.591582e+01
<STATE> 4
<MEAN> 25
 5.895019e+00 -4.724988e+00 -1.197292e+00 3.906052e+00 3.870449e+00 -6.545651e+00 -8.215060e+00 -6.679025e+00 -4.172563e+00 5.337154e-01 9.279272e-01 -6.742178e-01 -3.232698e-01 7.992764e-01 3.300467e-01 -6.339286e-02 7.912491e-02 1.004552e+00 6.088396e-01 3.772415e-01 3.436322e-01 -1.313366e-01 -2.720630e-01 -1.298955e-01 -7.956876e-01
<VARIANCE> 25
 2.029749e+01 3.066547e+01 3.368494e+01 5.057070e+01 4.296806e+01 5.593891e+01 3.659196e+01 3.710094e+01 4.034227e+01 3.575679e+01 3.262199e+01 2.925796e+01 5.569103e-01 1.011105e+00 1.171097e+00 1.448238e+00 1.440968e+00 2.011663e+00 1.814593e+00 1.739066e+00 1.905525e+00 1.867028e+00 1.539982e+00 1.274082e+00 7.538318e-01
<GCONST> 9.278246e+01
~t "T_e"
<ENDHMM>
~h "p-e+t"
<BEGINHMM>
<NUMSTATES> 5
<STATE> 2
<MEAN> 25
 4.917822e+00 -3.046909e+00 -7.860230e-01 1.961976e+00 3.296882e+00 -3.095960e+00 -4.445966e+00 -4.378197e+00 -4.194638e+00 -1.446952e+00 1.146220e-01 1.648807e-01 1.062938e+00 -1.285595e+00 -6.981800e-01 4.423747e-01 5.001229e-01 -1.895295e+00 -1.787762e+00 -1.308817e+00 -1.084860e+00 1.344622e-01 6.617222e-01 3.701210e-01 1.670173e+00
<VARIANCE> 25
 3.577217e+01 3.706077e+01 4.774310e+01 6.015227e+01 4.925949e+01 6.036604e+01 5.010396e+01 4.977269e+01 4.858726e+01 3.950971e+01 3.013842e+01 2.473536e+01 2.384392e+00 2.958043e+00 2.685448e+00 3.858023e+00 3.340221e+00 5.064232e+00 4.063103e+00 3.681123e+00 4.037725e+00 4.174648e+00 3.332788e+00 2.898063e+00 2.226966e+00
<GCONST> 1.068105e+02
<STATE> 3
<MEAN> 25
 7.191195e+00 -7.001473e+00 -2.328277e+00 2.836691e+00 3.888689e+00 -7.911126e+00 -8.482172e+00 -6.657192e+00 -5.470276e+00 -1.285404e-01 1.987994e+00 7.147580e-01 8.514885e-02 -4.249433e-01 -1.496204e-01 2.818093e-01 1.203487e-01 -6.073316e-01 -4.420330e-01 -1.406531e-01 1.603031e-01 5.093133e-01 3.347531e-01 -4.041983e-02 2.952766e-01
<VARIANCE> 25
 2.837927e+01 3.550758e+01 4.376701e+01 6.339727e+01 5.782299e+01 6.153004e+01 4.445435e+01 4.665985e+01 4.438187e+01 4.603452e+01 3.686113e+01 3.249733e+01 5.579238e-01 9.633060e-01 1.396090e+00 1.826277e+00 1.583154e+00 2.003756e+00 1.982185e+00 1.856537e+00 2.013892e+00 2.006657e+00 1.751121e+00 1.508502e+00 5.828047e-01
<GCONST> 9.591582e+01
<STATE> 4
<MEAN> 25
 5.895019e+00 -4.724988e+00 -1.197292e+00 3.906052e+00 3.870449e+00 -6.545651e+00 -8.215060e+00 -6.679025e+00 -4.172563e+00 5.337154e-01 9.279272e-01 -6.742178e-01 -3.232698e-01 7.992764e-01 3.300467e-01 -6.339286e-02 7.912491e-02 1.004552e+00 6.088396e-01 3.772415e-01 3.436322e-01 -1.313366e-01 -2.720630e-01 -1.298955e-01 -7.956876e-01
<VARIANCE> 25
 2.029749e+01 3.066547e+01 3.368494e+01 5.057070e+01 4.296806e+01 5.593891e+01 3.659196e+01 3.710094e+01 4.034227e+01 3.575679e+01 3.262199e+01 2.925796e+01 5.569103e-01 1.011105e+00 1.171097e+00 1.448238e+00 1.440968e+00 2.011663e+00 1.814593e+00 1.739066e+00 1.905525e+00 1.867028e+00 1.539982e+00 1.274082e+00 7.538318e-01
<GCONST> 9.278246e+01
~t "T_e"
<ENDHMM>
~h "s-e+ch"
<BEGINHMM>
<NUMSTATES> 5
<STATE> 2
<MEAN> 25
 4.917822e+00 -3.046909e+00 -7.860230e-01 1.961976e+00 3.296882e+00 -3.095960e+00 -4.445966e+00 -4.378197e+00 -4.194638e+00 -1.446952e+00 1.146220e-01 1.648807e-01 1.062938e+00 -1.285595e+00 -6.981800e-01 4.423747e-01 5.001229e-01 -1.895295e+00 -1.787762e+00 -1.308817e+00 -1.084860e+00 1.344622e-01 6.617222e-01 3.701210e-01 1.670173e+00
<VARIANCE> 25
 3.577217e+01 3.706077e+01 4.774310e+01 6.015227e+01 4.925949e+01 6.036604e+01 5.010396e+01 4.977269e+01 4.858726e+01 3.950971e+01 3.013842e+01 2.473536e+01 2.384392e+00 2.958043e+00 2.685448e+00 3.858023e+00 3.340221e+00 5.064232e+00 4.063103e+00 3.681123e+00 4.037725e+00 4.174648e+00 3.332788e+00 2.898063e+00 2.226966e+00
<GCONST> 1.068105e+02
<STATE> 3
<MEAN> 25
 7.191195e+00 -7.001473e+00 -2.328277e+00 2.836691e+00 3.888689e+00 -7.911126e+00 -8.482172e+00 -6.657192e+00 -5.470276e+00 -1.285404e-01 1.987994e+00 7.147580e-01 8.514885e-02 -4.249433e-01 -1.496204e-01 2.818093e-01 1.203487e-01 -6.073316e-01 -4.420330e-01 -1.406531e-01 1.603031e-01 5.093133e-01 3.347531e-01 -4.041983e-02 2.952766e-01
<VARIANCE> 25
 2.837927e+01 3.550758e+01 4.376701e+01 6.339727e+01 5.782299e+01 6.153004e+01 4.445435e+01 4.665985e+01 4.438187e+01 4.603452e+01 3.686113e+01 3.249733e+01 5.579238e-01 9.633060e-01 1.396090e+00 1.826277e+00 1.583154e+00 2.003756e+00 1.982185e+00 1.856537e+00 2.013892e+00 2.006657e+00 1.751121e+00 1.508502e+00 5.828047e-01
<GCONST> 9.591582e+01
<STATE> 4
<MEAN> 25
 5.895019e+00 -4.724988e+00 -1.197292e+00 3.906052e+00 3.870449e+00 -6.545651e+00 -8.215060e+00 -6.679025e+00 -4.172563e+00 5.337154e-01 9.279272e-01 -6.742178e-01 -3.232698e-01 7.992764e-01 3.300467e-01 -6.339286e-02 7.912491e-02 1.004552e+00 6.088396e-01 3.772415e-01 3.436322e-01 -1.313366e-01 -2.720630e-01 -1.298955e-01 -7.956876e-01
<VARIANCE> 25
 2.029749e+01 3.066547e+01 3.368494e+01 5.057070e+01 4.296806e+01 5.593891e+01 3.659196e+01 3.710094e+01 4.034227e+01 3.575679e+01 3.262199e+01 2.925796e+01 5.569103e-01 1.011105e+00 1.171097e+00 1.448238e+00 1.440968e+00 2.011663e+00 1.814593e+00 1.739066e+00 1.905525e+00 1.867028e+00 1.539982e+00 1.274082e+00 7.538318e-01
<GCONST> 9.278246e+01
~t "T_e"
<ENDHMM>
~h "s-e+ll"
<BEGINHMM>
<NUMSTATES> 5
<STATE> 2
<MEAN> 25
 4.917822e+00 -3.046909e+00 -7.860230e-01 1.961976e+00 3.296882e+00 -3.095960e+00 -4.445966e+00 -4.378197e+00 -4.194638e+00 -1.446952e+00 1.146220e-01 1.648807e-01 1.062938e+00 -1.285595e+00 -6.981800e-01 4.423747e-01 5.001229e-01 -1.895295e+00 -1.787762e+00 -1.308817e+00 -1.084860e+00 1.344622e-01 6.617222e-01 3.701210e-01 1.670173e+00
<VARIANCE> 25
 3.577217e+01 3.706077e+01 4.774310e+01 6.015227e+01 4.925949e+01 6.036604e+01 5.010396e+01 4.977269e+01 4.858726e+01 3.950971e+01 3.013842e+01 2.473536e+01 2.384392e+00 2.958043e+00 2.685448e+00 3.858023e+00 3.340221e+00 5.064232e+00 4.063103e+00 3.681123e+00 4.037725e+00 4.174648e+00 3.332788e+00 2.898063e+00 2.226966e+00
<GCONST> 1.068105e+02
<STATE> 3
<MEAN> 25
 7.191195e+00 -7.001473e+00 -2.328277e+00 2.836691e+00 3.888689e+00 -7.911126e+00 -8.482172e+00 -6.657192e+00 -5.470276e+00 -1.285404e-01 1.987994e+00 7.147580e-01 8.514885e-02 -4.249433e-01 -1.496204e-01 2.818093e-01 1.203487e-01 -6.073316e-01 -4.420330e-01 -1.406531e-01 1.603031e-01 5.093133e-01 3.347531e-01 -4.041983e-02 2.952766e-01
<VARIANCE> 25
 2.837927e+01 3.550758e+01 4.376701e+01 6.339727e+01 5.782299e+01 6.153004e+01 4.445435e+01 4.665985e+01 4.438187e+01 4.603452e+01 3.686113e+01 3.249733e+01 5.579238e-01 9.633060e-01 1.396090e+00 1.826277e+00 1.583154e+00 2.003756e+00 1.982185e+00 1.856537e+00 2.013892e+00 2.006657e+00 1.751121e+00 1.508502e+00 5.828047e-01
<GCONST> 9.591582e+01
<STATE> 4
<MEAN> 25
 5.895019e+00 -4.724988e+00 -1.197292e+00 3.906052e+00 3.870449e+00 -6.545651e+00 -8.215060e+00 -6.679025e+00 -4.172563e+00 5.337154e-01 9.279272e-01 -6.742178e-01 -3.232698e-01 7.992764e-01 3.300467e-01 -6.339286e-02 7.912491e-02 1.004552e+00 6.088396e-01 3.772415e-01 3.436322e-01 -1.313366e-01 -2.720630e-01 -1.298955e-01 -7.956876e-01
<VARIANCE> 25
 2.029749e+01 3.066547e+01 3.368494e+01 5.057070e+01 4.296806e+01 5.593891e+01 3.659196e+01 3.710094e+01 4.034227e+01 3.575679e+01 3.262199e+01 2.925796e+01 5.569103e-01 1.011105e+00 1.171097e+00 1.448238e+00 1.440968e+00 2.011663e+00 1.814593e+00 1.739066e+00 1.905525e+00 1.867028e+00 1.539982e+00 1.274082e+00 7.538318e-01
<GCONST> 9.278246e+01
~t "T_e"
<ENDHMM>
~h "th-e+d"
<BEGINHMM>
<NUMSTATES> 5
<STATE> 2
<MEAN> 25
 4.917822e+00 -3.046909e+00 -7.860230e-01 1.961976e+00 3.296882e+00 -3.095960e+00 -4.445966e+00 -4.378197e+00 -4.194638e+00 -1.446952e+00 1.146220e-01 1.648807e-01 1.062938e+00 -1.285595e+00 -6.981800e-01 4.423747e-01 5.001229e-01 -1.895295e+00 -1.787762e+00 -1.308817e+00 -1.084860e+00 1.344622e-01 6.617222e-01 3.701210e-01 1.670173e+00
<VARIANCE> 25
 3.577217e+01 3.706077e+01 4.774310e+01 6.015227e+01 4.925949e+01 6.036604e+01 5.010396e+01 4.977269e+01 4.858726e+01 3.950971e+01 3.013842e+01 2.473536e+01 2.384392e+00 2.958043e+00 2.685448e+00 3.858023e+00 3.340221e+00 5.064232e+00 4.063103e+00 3.681123e+00 4.037725e+00 4.174648e+00 3.332788e+00 2.898063e+00 2.226966e+00
<GCONST> 1.068105e+02
<STATE> 3
<MEAN> 25
 7.191195e+00 -7.001473e+00 -2.328277e+00 2.836691e+00 3.888689e+00 -7.911126e+00 -8.482172e+00 -6.657192e+00 -5.470276e+00 -1.285404e-01 1.987994e+00 7.147580e-01 8.514885e-02 -4.249433e-01 -1.496204e-01 2.818093e-01 1.203487e-01 -6.073316e-01 -4.420330e-01 -1.406531e-01 1.603031e-01 5.093133e-01 3.347531e-01 -4.041983e-02 2.952766e-01
<VARIANCE> 25
 2.837927e+01 3.550758e+01 4.376701e+01 6.339727e+01 5.782299e+01 6.153004e+01 4.445435e+01 4.665985e+01 4.438187e+01 4.603452e+01 3.686113e+01 3.249733e+01 5.579238e-01 9.633060e-01 1.396090e+00 1.826277e+00 1.583154e+00 2.003756e+00 1.982185e+00 1.856537e+00 2.013892e+00 2.006657e+00 1.751121e+00 1.508502e+00 5.828047e-01
<GCONST> 9.591582e+01
<STATE> 4
<MEAN> 25
 5.895019e+00 -4.724988e+00 -1.197292e+00 3.906052e+00 3.870449e+00 -6.545651e+00 -8.215060e+00 -6.679025e+00 -4.172563e+00 5.337154e-01 9.279272e-01 -6.742178e-01 -3.232698e-01 7.992764e-01 3.300467e-01 -6.339286e-02 7.912491e-02 1.004552e+00 6.088396e-01 3.772415e-01 3.436322e-01 -1.313366e-01 -2.720630e-01 -1.298955e-01 -7.956876e-01
<VARIANCE> 25
 2.029749e+01 3.066547e+01 3.368494e+01 5.057070e+01 4.296806e+01 5.593891e+01 3.659196e+01 3.710094e+01 4.034227e+01 3.575679e+01 3.262199e+01 2.925796e+01 5.569103e-01 1.011105e+00 1.171097e+00 1.448238e+00 1.440968e+00 2.011663e+00 1.814593e+00 1.739066e+00 1.905525e+00 1.867028e+00 1.539982e+00 1.274082e+00 7.538318e-01
<GCONST> 9.278246e+01
~t "T_e"
<ENDHMM>
~h "th-e+i"
<BEGINHMM>
<NUMSTATES> 5
<STATE> 2
<MEAN> 25
 4.917822e+00 -3.046909e+00 -7.860230e-01 1.961976e+00 3.296882e+00 -3.095960e+00 -4.445966e+00 -4.378197e+00 -4.194638e+00 -1.446952e+00 1.146220e-01 1.648807e-01 1.062938e+00 -1.285595e+00 -6.981800e-01 4.423747e-01 5.001229e-01 -1.895295e+00 -1.787762e+00 -1.308817e+00 -1.084860e+00 1.344622e-01 6.617222e-01 3.701210e-01 1.670173e+00
<VARIANCE> 25
 3.577217e+01 3.706077e+01 4.774310e+01 6.015227e+01 4.925949e+01 6.036604e+01 5.010396e+01 4.977269e+01 4.858726e+01 3.950971e+01 3.013842e+01 2.473536e+01 2.384392e+00 2.958043e+00 2.685448e+00 3.858023e+00 3.340221e+00 5.064232e+00 4.063103e+00 3.681123e+00 4.037725e+00 4.174648e+00 3.332788e+00 2.898063e+00 2.226966e+00
<GCONST> 1.068105e+02
<STATE> 3
<MEAN> 25
 7.191195e+00 -7.001473e+00 -2.328277e+00 2.836691e+00 3.888689e+00 -7.911126e+00 -8.482172e+00 -6.657192e+00 -5.470276e+00 -1.285404e-01 1.987994e+00 7.147580e-01 8.514885e-02 -4.249433e-01 -1.496204e-01 2.818093e-01 1.203487e-01 -6.073316e-01 -4.420330e-01 -1.406531e-01 1.603031e-01 5.093133e-01 3.347531e-01 -4.041983e-02 2.952766e-01
<VARIANCE> 25
 2.837927e+01 3.550758e+01 4.376701e+01 6.339727e+01 5.782299e+01 6.153004e+01 4.445435e+01 4.665985e+01 4.438187e+01 4.603452e+01 3.686113e+01 3.249733e+01 5.579238e-01 9.633060e-01 1.396090e+00 1.826277e+00 1.583154e+00 2.003756e+00 1.982185e+00 1.856537e+00 2.013892e+00 2.006657e+00 1.751121e+00 1.508502e+00 5.828047e-01
<GCONST> 9.591582e+01
<STATE> 4
<MEAN> 25
 5.895019e+00 -4.724988e+00 -1.197292e+00 3.906052e+00 3.870449e+00 -6.545651e+00 -8.215060e+00 -6.679025e+00 -4.172563e+00 5.337154e-01 9.279272e-01 -6.742178e-01 -3.232698e-01 7.992764e-01 3.300467e-01 -6.339286e-02 7.912491e-02 1.004552e+00 6.088396e-01 3.772415e-01 3.436322e-01 -1.313366e-01 -2.720630e-01 -1.298955e-01 -7.956876e-01
<VARIANCE> 25
 2.029749e+01 3.066547e+01 3.368494e+01 5.057070e+01 4.296806e+01 5.593891e+01 3.659196e+01 3.710094e+01 4.034227e+01 3.575679e+01 3.262199e+01 2.925796e+01 5.569103e-01 1.011105e+00 1.171097e+00 1.448238e+00 1.440968e+00 2.011663e+00 1.814593e+00 1.739066e+00 1.905525e+00 1.867028e+00 1.539982e+00 1.274082e+00 7.538318e-01
<GCONST> 9.278246e+01
~t "T_e"
<ENDHMM>
~h "th-e+k"
<BEGINHMM>
<NUMSTATES> 5
<STATE> 2
<MEAN> 25
 4.917822e+00 -3.046909e+00 -7.860230e-01 1.961976e+00 3.296882e+00 -3.095960e+00 -4.445966e+00 -4.378197e+00 -4.194638e+00 -1.446952e+00 1.146220e-01 1.648807e-01 1.062938e+00 -1.285595e+00 -6.981800e-01 4.423747e-01 5.001229e-01 -1.895295e+00 -1.787762e+00 -1.308817e+00 -1.084860e+00 1.344622e-01 6.617222e-01 3.701210e-01 1.670173e+00
<VARIANCE> 25
 3.577217e+01 3.706077e+01 4.774310e+01 6.015227e+01 4.925949e+01 6.036604e+01 5.010396e+01 4.977269e+01 4.858726e+01 3.950971e+01 3.013842e+01 2.473536e+01 2.384392e+00 2.958043e+00 2.685448e+00 3.858023e+00 3.340221e+00 5.064232e+00 4.063103e+00 3.681123e+00 4.037725e+00 4.174648e+00 3.332788e+00 2.898063e+00 2.226966e+00
<GCONST> 1.068105e+02
<STATE> 3
<MEAN> 25
 7.191195e+00 -7.001473e+00 -2.328277e+00 2.836691e+00 3.888689e+00 -7.911126e+00 -8.482172e+00 -6.657192e+00 -5.470276e+00 -1.285404e-01 1.987994e+00 7.147580e-01 8.514885e-02 -4.249433e-01 -1.496204e-01 2.818093e-01 1.203487e-01 -6.073316e-01 -4.420330e-01 -1.406531e-01 1.603031e-01 5.093133e-01 3.347531e-01 -4.041983e-02 2.952766e-01
<VARIANCE> 25
 2.837927e+01 3.550758e+01 4.376701e+01 6.339727e+01 5.782299e+01 6.153004e+01 4.445435e+01 4.665985e+01 4.438187e+01 4.603452e+01 3.686113e+01 3.249733e+01 5.579238e-01 9.633060e-01 1.396090e+00 1.826277e+00 1.583154e+00 2.003756e+00 1.982185e+00 1.856537e+00 2.013892e+00 2.006657e+00 1.751121e+00 1.508502e+00 5.828047e-01
<GCONST> 9.591582e+01
<STATE> 4
<MEAN> 25
 5.895019e+00 -4.724988e+00 -1.197292e+00 3.906052e+00 3.870449e+00 -6.545651e+00 -8.215060e+00 -6.679025e+00 -4.172563e+00 5.337154e-01 9.279272e-01 -6.742178e-01 -3.232698e-01 7.992764e-01 3.300467e-01 -6.339286e-02 7.912491e-02 1.004552e+00 6.088396e-01 3.772415e-01 3.436322e-01 -1.313366e-01 -2.720630e-01 -1.298955e-01 -7.956876e-01
<VARIANCE> 25
 2.029749e+01 3.066547e+01 3.368494e+01 5.057070e+01 4.296806e+01 5.593891e+01 3.659196e+01 3.710094e+01 4.034227e+01 3.575679e+01 3.262199e+01 2.925796e+01 5.569103e-01 1.011105e+00 1.171097e+00 1.448238e+00 1.440968e+00 2.011663e+00 1.814593e+00 1.739066e+00 1.905525e+00 1.867028e+00 1.539982e+00 1.274082e+00 7.538318e-01
<GCONST> 9.278246e+01
~t "T_e"
<ENDHMM>
~h "th-e+l"
<BEGINHMM>
<NUMSTATES> 5
<STATE> 2
<MEAN> 25
 4.917822e+00 -3.046909e+00 -7.860230e-01 1.961976e+00 3.296882e+00 -3.095960e+00 -4.445966e+00 -4.378197e+00 -4.194638e+00 -1.446952e+00 1.146220e-01 1.648807e-01 1.062938e+00 -1.285595e+00 -6.981800e-01 4.423747e-01 5.001229e-01 -1.895295e+00 -1.787762e+00 -1.308817e+00 -1.084860e+00 1.344622e-01 6.617222e-01 3.701210e-01 1.670173e+00
<VARIANCE> 25
 3.577217e+01 3.706077e+01 4.774310e+01 6.015227e+01 4.925949e+01 6.036604e+01 5.010396e+01 4.977269e+01 4.858726e+01 3.950971e+01 3.013842e+01 2.473536e+01 2.384392e+00 2.958043e+00 2.685448e+00 3.858023e+00 3.340221e+00 5.064232e+00 4.063103e+00 3.681123e+00 4.037725e+00 4.174648e+00 3.332788e+00 2.898063e+00 2.226966e+00
<GCONST> 1.068105e+02
<STATE> 3
<MEAN> 25
 7.191195e+00 -7.001473e+00 -2.328277e+00 2.836691e+00 3.888689e+00 -7.911126e+00 -8.482172e+00 -6.657192e+00 -5.470276e+00 -1.285404e-01 1.987994e+00 7.147580e-01 8.514885e-02 -4.249433e-01 -1.496204e-01 2.818093e-01 1.203487e-01 -6.073316e-01 -4.420330e-01 -1.406531e-01 1.603031e-01 5.093133e-01 3.347531e-01 -4.041983e-02 2.952766e-01
<VARIANCE> 25
 2.837927e+01 3.550758e+01 4.376701e+01 6.339727e+01 5.782299e+01 6.153004e+01 4.445435e+01 4.665985e+01 4.438187e+01 4.603452e+01 3.686113e+01 3.249733e+01 5.579238e-01 9.633060e-01 1.396090e+00 1.826277e+00 1.583154e+00 2.003756e+00 1.982185e+00 1.856537e+00 2.013892e+00 2.006657e+00 1.751121e+00 1.508502e+00 5.828047e-01
<GCONST> 9.591582e+01
<STATE> 4
<MEAN> 25
 5.895019e+00 -4.724988e+00 -1.197292e+00 3.906052e+00 3.870449e+00 -6.545651e+00 -8.215060e+00 -6.679025e+00 -4.172563e+00 5.337154e-01 9.279272e-01 -6.742178e-01 -3.232698e-01 7.992764e-01 3.300467e-01 -6.339286e-02 7.912491e-02 1.004552e+00 6.088396e-01 3.772415e-01 3.436322e-01 -1.313366e-01 -2.720630e-01 -1.298955e-01 -7.956876e-01
<VARIANCE> 25
 2.029749e+01 3.066547e+01 3.368494e+01 5.057070e+01 4.296806e+01 5.593891e+01 3.659196e+01 3.710094e+01 4.034227e+01 3.575679e+01 3.262199e+01 2.925796e+01 5.569103e-01 1.011105e+00 1.171097e+00 1.448238e+00 1.440968e+00 2.011663e+00 1.814593e+00 1.739066e+00 1.905525e+00 1.867028e+00 1.539982e+00 1.274082e+00 7.538318e-01
<GCONST> 9.278246e+01
~t "T_e"
<ENDHMM>
~h "th-e+n"
<BEGINHMM>
<NUMSTATES> 5
<STATE> 2
<MEAN> 25
 4.917822e+00 -3.046909e+00 -7.860230e-01 1.961976e+00 3.296882e+00 -3.095960e+00 -4.445966e+00 -4.378197e+00 -4.194638e+00 -1.446952e+00 1.146220e-01 1.648807e-01 1.062938e+00 -1.285595e+00 -6.981800e-01 4.423747e-01 5.001229e-01 -1.895295e+00 -1.787762e+00 -1.308817e+00 -1.084860e+00 1.344622e-01 6.617222e-01 3.701210e-01 1.670173e+00
<VARIANCE> 25
 3.577217e+01 3.706077e+01 4.774310e+01 6.015227e+01 4.925949e+01 6.036604e+01 5.010396e+01 4.977269e+01 4.858726e+01 3.950971e+01 3.013842e+01 2.473536e+01 2.384392e+00 2.958043e+00 2.685448e+00 3.858023e+00 3.340221e+00 5.064232e+00 4.063103e+00 3.681123e+00 4.037725e+00 4.174648e+00 3.332788e+00 2.898063e+00 2.226966e+00
<GCONST> 1.068105e+02
<STATE> 3
<MEAN> 25
 7.191195e+00 -7.001473e+00 -2.328277e+00 2.836691e+00 3.888689e+00 -7.911126e+00 -8.482172e+00 -6.657192e+00 -5.470276e+00 -1.285404e-01 1.987994e+00 7.147580e-01 8.514885e-02 -4.249433e-01 -1.496204e-01 2.818093e-01 1.203487e-01 -6.073316e-01 -4.420330e-01 -1.406531e-01 1.603031e-01 5.093133e-01 3.347531e-01 -4.041983e-02 2.952766e-01
<VARIANCE> 25
 2.837927e+01 3.550758e+01 4.376701e+01 6.339727e+01 5.782299e+01 6.153004e+01 4.445435e+01 4.665985e+01 4.438187e+01 4.603452e+01 3.686113e+01 3.249733e+01 5.579238e-01 9.633060e-01 1.396090e+00 1.826277e+00 1.583154e+00 2.003756e+00 1.982185e+00 1.856537e+00 2.013892e+00 2.006657e+00 1.751121e+00 1.508502e+00 5.828047e-01
<GCONST> 9.591582e+01
<STATE> 4
<MEAN> 25
 5.895019e+00 -4.724988e+00 -1.197292e+00 3.906052e+00 3.870449e+00 -6.545651e+00 -8.215060e+00 -6.679025e+00 -4.172563e+00 5.337154e-01 9.279272e-01 -6.742178e-01 -3.232698e-01 7.992764e-01 3.300467e-01 -6.339286e-02 7.912491e-02 1.004552e+00 6.088396e-01 3.772415e-01 3.436322e-01 -1.313366e-01 -2.720630e-01 -1.298955e-01 -7.956876e-01
<VARIANCE> 25
 2.029749e+01 3.066547e+01 3.368494e+01 5.057070e+01 4.296806e+01 5.593891e+01 3.659196e+01 3.710094e+01 4.034227e+01 3.575679e+01 3.262199e+01 2.925796e+01 5.569103e-01 1.011105e+00 1.171097e+00 1.448238e+00 1.440968e+00 2.011663e+00 1.814593e+00 1.739066e+00 1.905525e+00 1.867028e+00 1.539982e+00 1.274082e+00 7.538318e-01
<GCONST> 9.278246e+01
~t "T_e"
<ENDHMM>
~h "th-e+o"
<BEGINHMM>
<NUMSTATES> 5
<STATE> 2
<MEAN> 25
 4.917822e+00 -3.046909e+00 -7.860230e-01 1.961976e+00 3.296882e+00 -3.095960e+00 -4.445966e+00 -4.378197e+00 -4.194638e+00 -1.446952e+00 1.146220e-01 1.648807e-01 1.062938e+00 -1.285595e+00 -6.981800e-01 4.423747e-01 5.001229e-01 -1.895295e+00 -1.787762e+00 -1.308817e+00 -1.084860e+00 1.344622e-01 6.617222e-01 3.701210e-01 1.670173e+00
<VARIANCE> 25
 3.577217e+01 3.706077e+01 4.774310e+01 6.015227e+01 4.925949e+01 6.036604e+01 5.010396e+01 4.977269e+01 4.858726e+01 3.950971e+01 3.013842e+01 2.473536e+01 2.384392e+00 2.958043e+00 2.685448e+00 3.858023e+00 3.340221e+00 5.064232e+00 4.063103e+00 3.681123e+00 4.037725e+00 4.174648e+00 3.332788e+00 2.898063e+00 2.226966e+00
<GCONST> 1.068105e+02
<STATE> 3
<MEAN> 25
 7.191195e+00 -7.001473e+00 -2.328277e+00 2.836691e+00 3.888689e+00 -7.911126e+00 -8.482172e+00 -6.657192e+00 -5.470276e+00 -1.285404e-01 1.987994e+00 7.147580e-01 8.514885e-02 -4.249433e-01 -1.496204e-01 2.818093e-01 1.203487e-01 -6.073316e-01 -4.420330e-01 -1.406531e-01 1.603031e-01 5.093133e-01 3.347531e-01 -4.041983e-02 2.952766e-01
<VARIANCE> 25
 2.837927e+01 3.550758e+01 4.376701e+01 6.339727e+01 5.782299e+01 6.153004e+01 4.445435e+01 4.665985e+01 4.438187e+01 4.603452e+01 3.686113e+01 3.249733e+01 5.579238e-01 9.633060e-01 1.396090e+00 1.826277e+00 1.583154e+00 2.003756e+00 1.982185e+00 1.856537e+00 2.013892e+00 2.006657e+00 1.751121e+00 1.508502e+00 5.828047e-01
<GCONST> 9.591582e+01
<STATE> 4
<MEAN> 25
 5.895019e+00 -4.724988e+00 -1.197292e+00 3.906052e+00 3.870449e+00 -6.545651e+00 -8.215060e+00 -6.679025e+00 -4.172563e+00 5.337154e-01 9.279272e-01 -6.742178e-01 -3.232698e-01 7.992764e-01 3.300467e-01 -6.339286e-02 7.912491e-02 1.004552e+00 6.088396e-01 3.772415e-01 3.436322e-01 -1.313366e-01 -2.720630e-01 -1.298955e-01 -7.956876e-01
<VARIANCE> 25
 2.029749e+01 3.066547e+01 3.368494e+01 5.057070e+01 4.296806e+01 5.593891e+01 3.659196e+01 3.710094e+01 4.034227e+01 3.575679e+01 3.262199e+01 2.925796e+01 5.569103e-01 1.011105e+00 1.171097e+00 1.448238e+00 1.440968e+00 2.011663e+00 1.814593e+00 1.739066e+00 1.905525e+00 1.867028e+00 1.539982e+00 1.274082e+00 7.538318e-01
<GCONST> 9.278246e+01
~t "T_e"
<ENDHMM>
~h "th-e+p"
<BEGINHMM>
<NUMSTATES> 5
<STATE> 2
<MEAN> 25
 4.917822e+00 -3.046909e+00 -7.860230e-01 1.961976e+00 3.296882e+00 -3.095960e+00 -4.445966e+00 -4.378197e+00 -4.194638e+00 -1.446952e+00 1.146220e-01 1.648807e-01 1.062938e+00 -1.285595e+00 -6.981800e-01 4.423747e-01 5.001229e-01 -1.895295e+00 -1.787762e+00 -1.308817e+00 -1.084860e+00 1.344622e-01 6.617222e-01 3.701210e-01 1.670173e+00
<VARIANCE> 25
 3.577217e+01 3.706077e+01 4.774310e+01 6.015227e+01 4.925949e+01 6.036604e+01 5.010396e+01 4.977269e+01 4.858726e+01 3.950971e+01 3.013842e+01 2.473536e+01 2.384392e+00 2.958043e+00 2.685448e+00 3.858023e+00 3.340221e+00 5.064232e+00 4.063103e+00 3.681123e+00 4.037725e+00 4.174648e+00 3.332788e+00 2.898063e+00 2.226966e+00
<GCONST> 1.068105e+02
<STATE> 3
<MEAN> 25
 7.191195e+00 -7.001473e+00 -2.328277e+00 2.836691e+00 3.888689e+00 -7.911126e+00 -8.482172e+00 -6.657192e+00 -5.470276e+00 -1.285404e-01 1.987994e+00 7.147580e-01 8.514885e-02 -4.249433e-01 -1.496204e-01 2.818093e-01 1.203487e-01 -6.073316e-01 -4.420330e-01 -1.406531e-01 1.603031e-01 5.093133e-01 3.347531e-01 -4.041983e-02 2.952766e-01
<VARIANCE> 25
 2.837927e+01 3.550758e+01 4.376701e+01 6.339727e+01 5.782299e+01 6.153004e+01 4.445435e+01 4.665985e+01 4.438187e+01 4.603452e+01 3.686113e+01 3.249733e+01 5.579238e-01 9.633060e-01 1.396090e+00 1.826277e+00 1.583154e+00 2.003756e+00 1.982185e+00 1.856537e+00 2.013892e+00 2.006657e+00 1.751121e+00 1.508502e+00 5.828047e-01
<GCONST> 9.591582e+01
<STATE> 4
<MEAN> 25
 5.895019e+00 -4.724988e+00 -1.197292e+00 3.906052e+00 3.870449e+00 -6.545651e+00 -8.215060e+00 -6.679025e+00 -4.172563e+00 5.337154e-01 9.279272e-01 -6.742178e-01 -3.232698e-01 7.992764e-01 3.300467e-01 -6.339286e-02 7.912491e-02 1.004552e+00 6.088396e-01 3.772415e-01 3.436322e-01 -1.313366e-01 -2.720630e-01 -1.298955e-01 -7.956876e-01
<VARIANCE> 25
 2.029749e+01 3.066547e+01 3.368494e+01 5.057070e+01 4.296806e+01 5.593891e+01 3.659196e+01 3.710094e+01 4.034227e+01 3.575679e+01 3.262199e+01 2.925796e+01 5.569103e-01 1.011105e+00 1.171097e+00 1.448238e+00 1.440968e+00 2.011663e+00 1.814593e+00 1.739066e+00 1.905525e+00 1.867028e+00 1.539982e+00 1.274082e+00 7.538318e-01
<GCONST> 9.278246e+01
~t "T_e"
<ENDHMM>
~h "th-e+r"
<BEGINHMM>
<NUMSTATES> 5
<STATE> 2
<MEAN> 25
 4.917822e+00 -3.046909e+00 -7.860230e-01 1.961976e+00 3.296882e+00 -3.095960e+00 -4.445966e+00 -4.378197e+00 -4.194638e+00 -1.446952e+00 1.146220e-01 1.648807e-01 1.062938e+00 -1.285595e+00 -6.981800e-01 4.423747e-01 5.001229e-01 -1.895295e+00 -1.787762e+00 -1.308817e+00 -1.084860e+00 1.344622e-01 6.617222e-01 3.701210e-01 1.670173e+00
<VARIANCE> 25
 3.577217e+01 3.706077e+01 4.774310e+01 6.015227e+01 4.925949e+01 6.036604e+01 5.010396e+01 4.977269e+01 4.858726e+01 3.950971e+01 3.013842e+01 2.473536e+01 2.384392e+00 2.958043e+00 2.685448e+00 3.858023e+00 3.340221e+00 5.064232e+00 4.063103e+00 3.681123e+00 4.037725e+00 4.174648e+00 3.332788e+00 2.898063e+00 2.226966e+00
<GCONST> 1.068105e+02
<STATE> 3
<MEAN> 25
 7.191195e+00 -7.001473e+00 -2.328277e+00 2.836691e+00 3.888689e+00 -7.911126e+00 -8.482172e+00 -6.657192e+00 -5.470276e+00 -1.285404e-01 1.987994e+00 7.147580e-01 8.514885e-02 -4.249433e-01 -1.496204e-01 2.818093e-01 1.203487e-01 -6.073316e-01 -4.420330e-01 -1.406531e-01 1.603031e-01 5.093133e-01 3.347531e-01 -4.041983e-02 2.952766e-01
<VARIANCE> 25
 2.837927e+01 3.550758e+01 4.376701e+01 6.339727e+01 5.782299e+01 6.153004e+01 4.445435e+01 4.665985e+01 4.438187e+01 4.603452e+01 3.686113e+01 3.249733e+01 5.579238e-01 9.633060e-01 1.396090e+00 1.826277e+00 1.583154e+00 2.003756e+00 1.982185e+00 1.856537e+00 2.013892e+00 2.006657e+00 1.751121e+00 1.508502e+00 5.828047e-01
<GCONST> 9.591582e+01
<STATE> 4
<MEAN> 25
 5.895019e+00 -4.724988e+00 -1.197292e+00 3.906052e+00 3.870449e+00 -6.545651e+00 -8.215060e+00 -6.679025e+00 -4.172563e+00 5.337154e-01 9.279272e-01 -6.742178e-01 -3.232698e-01 7.992764e-01 3.300467e-01 -6.339286e-02 7.912491e-02 1.004552e+00 6.088396e-01 3.772415e-01 3.436322e-01 -1.313366e-01 -2.720630e-01 -1.298955e-01 -7.956876e-01
<VARIANCE> 25
 2.029749e+01 3.066547e+01 3.368494e+01 5.057070e+01 4.296806e+01 5.593891e+01 3.659196e+01 3.710094e+01 4.034227e+01 3.575679e+01 3.262199e+01 2.925796e+01 5.569103e-01 1.011105e+00 1.171097e+00 1.448238e+00 1.440968e+00 2.011663e+00 1.814593e+00 1.739066e+00 1.905525e+00 1.867028e+00 1.539982e+00 1.274082e+00 7.538318e-01
<GCONST> 9.278246e+01
~t "T_e"
<ENDHMM>
~h "th-e+s"
<BEGINHMM>
<NUMSTATES> 5
<STATE> 2
<MEAN> 25
 4.917822e+00 -3.046909e+00 -7.860230e-01 1.961976e+00 3.296882e+00 -3.095960e+00 -4.445966e+00 -4.378197e+00 -4.194638e+00 -1.446952e+00 1.146220e-01 1.648807e-01 1.062938e+00 -1.285595e+00 -6.981800e-01 4.423747e-01 5.001229e-01 -1.895295e+00 -1.787762e+00 -1.308817e+00 -1.084860e+00 1.344622e-01 6.617222e-01 3.701210e-01 1.670173e+00
<VARIANCE> 25
 3.577217e+01 3.706077e+01 4.774310e+01 6.015227e+01 4.925949e+01 6.036604e+01 5.010396e+01 4.977269e+01 4.858726e+01 3.950971e+01 3.013842e+01 2.473536e+01 2.384392e+00 2.958043e+00 2.685448e+00 3.858023e+00 3.340221e+00 5.064232e+00 4.063103e+00 3.681123e+00 4.037725e+00 4.174648e+00 3.332788e+00 2.898063e+00 2.226966e+00
<GCONST> 1.068105e+02
<STATE> 3
<MEAN> 25
 7.191195e+00 -7.001473e+00 -2.328277e+00 2.836691e+00 3.888689e+00 -7.911126e+00 -8.482172e+00 -6.657192e+00 -5.470276e+00 -1.285404e-01 1.987994e+00 7.147580e-01 8.514885e-02 -4.249433e-01 -1.496204e-01 2.818093e-01 1.203487e-01 -6.073316e-01 -4.420330e-01 -1.406531e-01 1.603031e-01 5.093133e-01 3.347531e-01 -4.041983e-02 2.952766e-01
<VARIANCE> 25
 2.837927e+01 3.550758e+01 4.376701e+01 6.339727e+01 5.782299e+01 6.153004e+01 4.445435e+01 4.665985e+01 4.438187e+01 4.603452e+01 3.686113e+01 3.249733e+01 5.579238e-01 9.633060e-01 1.396090e+00 1.826277e+00 1.583154e+00 2.003756e+00 1.982185e+00 1.856537e+00 2.013892e+00 2.006657e+00 1.751121e+00 1.508502e+00 5.828047e-01
<GCONST> 9.591582e+01
<STATE> 4
<MEAN> 25
 5.895019e+00 -4.724988e+00 -1.197292e+00 3.906052e+00 3.870449e+00 -6.545651e+00 -8.215060e+00 -6.679025e+00 -4.172563e+00 5.337154e-01 9.279272e-01 -6.742178e-01 -3.232698e-01 7.992764e-01 3.300467e-01 -6.339286e-02 7.912491e-02 1.004552e+00 6.088396e-01 3.772415e-01 3.436322e-01 -1.313366e-01 -2.720630e-01 -1.298955e-01 -7.956876e-01
<VARIANCE> 25
 2.029749e+01 3.066547e+01 3.368494e+01 5.057070e+01 4.296806e+01 5.593891e+01 3.659196e+01 3.710094e+01 4.034227e+01 3.575679e+01 3.262199e+01 2.925796e+01 5.569103e-01 1.011105e+00 1.171097e+00 1.448238e+00 1.440968e+00 2.011663e+00 1.814593e+00 1.739066e+00 1.905525e+00 1.867028e+00 1.539982e+00 1.274082e+00 7.538318e-01
<GCONST> 9.278246e+01
~t "T_e"
<ENDHMM>
~h "s-e+ny"
<BEGINHMM>
<NUMSTATES> 5
<STATE> 2
<MEAN> 25
 4.917822e+00 -3.046909e+00 -7.860230e-01 1.961976e+00 3.296882e+00 -3.095960e+00 -4.445966e+00 -4.378197e+00 -4.194638e+00 -1.446952e+00 1.146220e-01 1.648807e-01 1.062938e+00 -1.285595e+00 -6.981800e-01 4.423747e-01 5.001229e-01 -1.895295e+00 -1.787762e+00 -1.308817e+00 -1.084860e+00 1.344622e-01 6.617222e-01 3.701210e-01 1.670173e+00
<VARIANCE> 25
 3.577217e+01 3.706077e+01 4.774310e+01 6.015227e+01 4.925949e+01 6.036604e+01 5.010396e+01 4.977269e+01 4.858726e+01 3.950971e+01 3.013842e+01 2.473536e+01 2.384392e+00 2.958043e+00 2.685448e+00 3.858023e+00 3.340221e+00 5.064232e+00 4.063103e+00 3.681123e+00 4.037725e+00 4.174648e+00 3.332788e+00 2.898063e+00 2.226966e+00
<GCONST> 1.068105e+02
<STATE> 3
<MEAN> 25
 7.191195e+00 -7.001473e+00 -2.328277e+00 2.836691e+00 3.888689e+00 -7.911126e+00 -8.482172e+00 -6.657192e+00 -5.470276e+00 -1.285404e-01 1.987994e+00 7.147580e-01 8.514885e-02 -4.249433e-01 -1.496204e-01 2.818093e-01 1.203487e-01 -6.073316e-01 -4.420330e-01 -1.406531e-01 1.603031e-01 5.093133e-01 3.347531e-01 -4.041983e-02 2.952766e-01
<VARIANCE> 25
 2.837927e+01 3.550758e+01 4.376701e+01 6.339727e+01 5.782299e+01 6.153004e+01 4.445435e+01 4.665985e+01 4.438187e+01 4.603452e+01 3.686113e+01 3.249733e+01 5.579238e-01 9.633060e-01 1.396090e+00 1.826277e+00 1.583154e+00 2.003756e+00 1.982185e+00 1.856537e+00 2.013892e+00 2.006657e+00 1.751121e+00 1.508502e+00 5.828047e-01
<GCONST> 9.591582e+01
<STATE> 4
<MEAN> 25
 5.895019e+00 -4.724988e+00 -1.197292e+00 3.906052e+00 3.870449e+00 -6.545651e+00 -8.215060e+00 -6.679025e+00 -4.172563e+00 5.337154e-01 9.279272e-01 -6.742178e-01 -3.232698e-01 7.992764e-01 3.300467e-01 -6.339286e-02 7.912491e-02 1.004552e+00 6.088396e-01 3.772415e-01 3.436322e-01 -1.313366e-01 -2.720630e-01 -1.298955e-01 -7.956876e-01
<VARIANCE> 25
 2.029749e+01 3.066547e+01 3.368494e+01 5.057070e+01 4.296806e+01 5.593891e+01 3.659196e+01 3.710094e+01 4.034227e+01 3.575679e+01 3.262199e+01 2.925796e+01 5.569103e-01 1.011105e+00 1.171097e+00 1.448238e+00 1.440968e+00 2.011663e+00 1.814593e+00 1.739066e+00 1.905525e+00 1.867028e+00 1.539982e+00 1.274082e+00 7.538318e-01
<GCONST> 9.278246e+01
~t "T_e"
<ENDHMM>
~h "s-e+th"
<BEGINHMM>
<NUMSTATES> 5
<STATE> 2
<MEAN> 25
 4.917822e+00 -3.046909e+00 -7.860230e-01 1.961976e+00 3.296882e+00 -3.095960e+00 -4.445966e+00 -4.378197e+00 -4.194638e+00 -1.446952e+00 1.146220e-01 1.648807e-01 1.062938e+00 -1.285595e+00 -6.981800e-01 4.423747e-01 5.001229e-01 -1.895295e+00 -1.787762e+00 -1.308817e+00 -1.084860e+00 1.344622e-01 6.617222e-01 3.701210e-01 1.670173e+00
<VARIANCE> 25
 3.577217e+01 3.706077e+01 4.774310e+01 6.015227e+01 4.925949e+01 6.036604e+01 5.010396e+01 4.977269e+01 4.858726e+01 3.950971e+01 3.013842e+01 2.473536e+01 2.384392e+00 2.958043e+00 2.685448e+00 3.858023e+00 3.340221e+00 5.064232e+00 4.063103e+00 3.681123e+00 4.037725e+00 4.174648e+00 3.332788e+00 2.898063e+00 2.226966e+00
<GCONST> 1.068105e+02
<STATE> 3
<MEAN> 25
 7.191195e+00 -7.001473e+00 -2.328277e+00 2.836691e+00 3.888689e+00 -7.911126e+00 -8.482172e+00 -6.657192e+00 -5.470276e+00 -1.285404e-01 1.987994e+00 7.147580e-01 8.514885e-02 -4.249433e-01 -1.496204e-01 2.818093e-01 1.203487e-01 -6.073316e-01 -4.420330e-01 -1.406531e-01 1.603031e-01 5.093133e-01 3.347531e-01 -4.041983e-02 2.952766e-01
<VARIANCE> 25
 2.837927e+01 3.550758e+01 4.376701e+01 6.339727e+01 5.782299e+01 6.153004e+01 4.445435e+01 4.665985e+01 4.438187e+01 4.603452e+01 3.686113e+01 3.249733e+01 5.579238e-01 9.633060e-01 1.396090e+00 1.826277e+00 1.583154e+00 2.003756e+00 1.982185e+00 1.856537e+00 2.013892e+00 2.006657e+00 1.751121e+00 1.508502e+00 5.828047e-01
<GCONST> 9.591582e+01
<STATE> 4
<MEAN> 25
 5.895019e+00 -4.724988e+00 -1.197292e+00 3.906052e+00 3.870449e+00 -6.545651e+00 -8.215060e+00 -6.679025e+00 -4.172563e+00 5.337154e-01 9.279272e-01 -6.742178e-01 -3.232698e-01 7.992764e-01 3.300467e-01 -6.339286e-02 7.912491e-02 1.004552e+00 6.088396e-01 3.772415e-01 3.436322e-01 -1.313366e-01 -2.720630e-01 -1.298955e-01 -7.956876e-01
<VARIANCE> 25
 2.029749e+01 3.066547e+01 3.368494e+01 5.057070e+01 4.296806e+01 5.593891e+01 3.659196e+01 3.710094e+01 4.034227e+01 3.575679e+01 3.262199e+01 2.925796e+01 5.569103e-01 1.011105e+00 1.171097e+00 1.448238e+00 1.440968e+00 2.011663e+00 1.814593e+00 1.739066e+00 1.905525e+00 1.867028e+00 1.539982e+00 1.274082e+00 7.538318e-01
<GCONST> 9.278246e+01
~t "T_e"
<ENDHMM>
~h "r-a+ny"
<BEGINHMM>
<NUMSTATES> 5
<STATE> 2
<MEAN> 25
 8.084209e+00 -3.246555e+00 -4.886938e+00 -2.890126e+00 -1.922659e+00 -4.591505e+00 -1.062124e+00 -1.533606e+00 -3.011539e+00 -1.419097e+00 7.822737e-01 1.974153e+00 8.531939e-01 -1.219489e+00 -1.591901e+00 -1.511451e+00 -1.099942e+00 -1.081241e+00 3.296968e-01 2.435892e-01 2.131322e-01 7.433307e-01 1.096173e+00 1.076555e+00 1.531909e+00
<VARIANCE> 25
 3.102556e+01 3.982352e+01 4.648204e+01 6.052976e+01 4.865224e+01 5.364120e+01 4.957391e+01 5.206113e+01 4.994263e+01 4.377484e+01 3.566540e+01 3.010361e+01 2.105191e+00 2.133569e+00 2.607650e+00 3.361774e+00 2.917656e+00 3.954443e+00 3.398865e+00 3.319243e+00 3.668817e+00 4.076825e+00 3.093344e+00 2.673295e+00 1.675560e+00
<GCONST> 1.052759e+02
<STATE> 3
<MEAN> 25
 9.462610e+00 -6.897775e+00 -8.743549e+00 -6.083593e+00 -4.604442e+00 -5.470979e+00 1.397076e+00 -2.830499e-01 -1.629562e+00 7.007640e-01 2.659651e+00 3.340820e+00 3.290816e-02 -1.735238e-01 -3.625012e-01 -3.627358e-01 -1.769637e-01 2.254089e-01 4.766614e-01 2.827543e-01 2.371980e-01 1.767752e-01 8.445666e-02 6.974697e-02 8.193482e-02
<VARIANCE> 25
 2.840129e+01 3.570125e+01 4.138834e+01 4.038225e+01 4.118876e+01 4.148624e+01 4.739182e+01 4.747406e+01 4.473821e+01 4.189992e+01 3.449903e+01 2.805832e+01 3.302394e-01 8.424883e-01 9.393210e-01 1.242460e+00 1.324397e+00 1.496400e+00 1.901740e+00 1.780651e+00 1.803969e+00 1.726919e+00 1.430944e+00 1.179275e+00 3.783611e-01
<GCONST> 9.133002e+01
<STATE> 4
<MEAN> 25
 8.177530e+00 -2.680661e+00 -7.293503e+00 -5.932261e+00 -3.758124e+00 -2.794274e+00 1.176165e+00 -3.390664e-01 -1.368642e+00 2.573896e-01 2.133668e+00 3.287408e+00 -4.538044e-01 8.704351e-01 7.276899e-01 4.679444e-01 4.150407e-01 5.706517e-01 -1.937626e-01 -1.382255e-01 1.753797e-02 -1.629017e-01 -2.942949e-01 -3.140077e-01 -8.826797e-01
<VARIANCE> 25
 2.215926e+01 3.099335e+01 3.486272e+01 3.668752e+01 3.283007e+01 3.965223e+01 3.500597e+01 3.826480e+01 3.512437e+01 3.170736e+01 2.563973e+01 2.200531e+01 5.861269e-01 9.910762e-01 1.080531e+00 1.252255e+00 1.395680e+00 1.835312e+00 1.787168e+00 1.826652e+00 1.993582e+00 1.853269e+00 1.609923e+00 1.318195e+00 6.483233e-01
<GCONST> 9.086413e+01
~t "T_a"
<ENDHMM>
~h "r-a+th"
<BEGINHMM>
<NUMSTATES> 5
<STATE> 2
<MEAN> 25
 8.084209e+00 -3.246555e+00 -4.886938e+00 -2.890126e+00 -1.922659e+00 -4.591505e+00 -1.062124e+00 -1.533606e+00 -3.011539e+00 -1.419097e+00 7.822737e-01 1.974153e+00 8.531939e-01 -1.219489e+00 -1.591901e+00 -1.511451e+00 -1.099942e+00 -1.081241e+00 3.296968e-01 2.435892e-01 2.131322e-01 7.433307e-01 1.096173e+00 1.076555e+00 1.531909e+00
<VARIANCE> 25
 3.102556e+01 3.982352e+01 4.648204e+01 6.052976e+01 4.865224e+01 5.364120e+01 4.957391e+01 5.206113e+01 4.994263e+01 4.377484e+01 3.566540e+01 3.010361e+01 2.105191e+00 2.133569e+00 2.607650e+00 3.361774e+00 2.917656e+00 3.954443e+00 3.398865e+00 3.319243e+00 3.668817e+00 4.076825e+00 3.093344e+00 2.673295e+00 1.675560e+00
<GCONST> 1.052759e+02
<STATE> 3
<MEAN> 25
 9.462610e+00 -6.897775e+00 -8.743549e+00 -6.083593e+00 -4.604442e+00 -5.470979e+00 1.397076e+00 -2.830499e-01 -1.629562e+00 7.007640e-01 2.659651e+00 3.340820e+00 3.290816e-02 -1.735238e-01 -3.625012e-01 -3.627358e-01 -1.769637e-01 2.254089e-01 4.766614e-01 2.827543e-01 2.371980e-01 1.767752e-01 8.445666e-02 6.974697e-02 8.193482e-02
<VARIANCE> 25
 2.840129e+01 3.570125e+01 4.138834e+01 4.038225e+01 4.118876e+01 4.148624e+01 4.739182e+01 4.747406e+01 4.473821e+01 4.189992e+01 3.449903e+01 2.805832e+01 3.302394e-01 8.424883e-01 9.393210e-01 1.242460e+00 1.324397e+00 1.496400e+00 1.901740e+00 1.780651e+00 1.803969e+00 1.726919e+00 1.430944e+00 1.179275e+00 3.783611e-01
<GCONST> 9.133002e+01
<STATE> 4
<MEAN> 25
 8.177530e+00 -2.680661e+00 -7.293503e+00 -5.932261e+00 -3.758124e+00 -2.794274e+00 1.176165e+00 -3.390664e-01 -1.368642e+00 2.573896e-01 2.133668e+00 3.287408e+00 -4.538044e-01 8.704351e-01 7.276899e-01 4.679444e-01 4.150407e-01 5.706517e-01 -1.937626e-01 -1.382255e-01 1.753797e-02 -1.629017e-01 -2.942949e-01 -3.140077e-01 -8.826797e-01
<VARIANCE> 25
 2.215926e+01 3.099335e+01 3.486272e+01 3.668752e+01 3.283007e+01 3.965223e+01 3.500597e+01 3.826480e+01 3.512437e+01 3.170736e+01 2.563973e+01 2.200531e+01 5.861269e-01 9.910762e-01 1.080531e+00 1.252255e+00 1.395680e+00 1.835312e+00 1.787168e+00 1.826652e+00 1.993582e+00 1.853269e+00 1.609923e+00 1.318195e+00 6.483233e-01
<GCONST> 9.086413e+01
~t "T_a"
<ENDHMM>
~h "ch-o+th"
<BEGINHMM>
<NUMSTATES> 5
<STATE> 2
<MEAN> 25
 8.202134e+00 8.756948e-01 -1.556870e+00 -2.412576e+00 -4.135490e+00 -5.283045e+00 -1.325630e+00 5.514442e-01 -3.256593e+00 -4.464030e+00 -3.179199e+00 -1.018459e+00 8.533680e-01 5.628624e-02 -4.272498e-01 -1.163086e+00 -1.742013e+00 -1.833407e+00 -1.006363e-01 8.327968e-01 2.565329e-01 -1.784475e-01 -2.551433e-01 1.000556e-01 7.841955e-01
<VARIANCE> 25
 2.727819e+01 4.614404e+01 4.546624e+01 5.624189e+01 6.257309e+01 6.102062e+01 4.518742e+01 4.939813e+01 5.469617e+01 4.219932e+01 3.056493e+01 2.847985e+01 1.604221e+00 2.714622e+00 2.414845e+00 3.306103e+00 3.399673e+00 4.293542e+00 4.410888e+00 3.910635e+00 3.812121e+00 3.509329e+00 2.851977e+00 2.694980e+00 1.552250e+00
<GCONST> 1.055529e+02
<STATE> 3
<MEAN> 25
 9.608891e+00 1.841884e+00 -1.624231e+00 -4.843653e+00 -1.056682e+01 -1.047259e+01 -3.275502e-01 4.228262e+00 -8.981493e-01 -3.707518e+00 -3.771726e+00 -1.847208e+00 -1.603226e-01 3.746803e-01 2.492852e-02 -5.283350e-02 -1.316152e-01 2.060792e-01 2.320018e-01 3.473101e-01 4.636069e-01 2.421327e-01 -1.011645e-03 -9.001540e-02 -4.208844e-01
<VARIANCE> 25
 2.191664e+01 3.832346e+01 3.536129e+01 4.552036e+01 5.146196e+01 5.402416e+01 4.532333e+01 4.316967e+01 5.194213e+01 3.791486e+01 2.724122e+01 2.477335e+01 5.759985e-01 1.296905e+00 1.329783e+00 1.436117e+00 2.015944e+00 2.854960e+00 1.984985e+00 2.227589e+00 2.343580e+00 2.045362e+00 1.638120e+00 1.449960e+00 1.066268e+00
<GCONST> 9.576168e+01
<STATE> 4
<MEAN> 25
 5.920141e+00 4.729104e+00 -6.619071e-01 -3.592440e+00 -6.668617e+00 -4.437122e+00 3.776827e-01 3.175261e+00 9.050462e-01 -1.454790e+00 -2.326509e+00 -1.249121e+00 -6.257654e-01 -3.906129e-02 1.678127e-01 4.218079e-01 7.039407e-01 9.980335e-01 2.885799e-01 -2.038472e-01 -1.773957e-02 1.877047e-01 2.155907e-01 8.154663e-02 -5.345345e-01
<VARIANCE> 25
 2.381943e+01 3.168683e+01 3.073319e+01 3.372535e+01 3.205265e+01 4.222814e+01 3.201194e+01 3.300840e+01 3.498757e+01 3.150789e+01 2.243595e+01 1.901501e+01 4.852379e-01 7.335701e-01 1.011674e+00 1.084659e+00 1.496157e+00 1.967000e+00 1.648281e+00 1.688958e+00 1.686677e+00 1.518985e+00 1.305284e+00 1.193857e+00 3.831035e-01
<GCONST> 8.833953e+01
~t "T_o"
<ENDHMM>
~h "p-i+a"
<BEGINHMM>
<NUMSTATES> 5
<STATE> 2
<MEAN> 25
 2.824880e+00 -2.961581e+00 4.292364e+00 7.499251e+00 7.346193e+00 -2.067250e+00 -5.297520e+00 -2.873806e+00 -2.378581e+00 -1.973293e+00 -2.520489e+00 -3.736685e+00 1.015099e+00 -9.724852e-01 2.479329e-01 2.179622e+00 1.426837e+00 -2.128228e+00 -2.309814e+00 -3.848035e-01 -7.270547e-01 -7.560874e-01 -6.794949e-01 -8.365397e-01 1.175898e+00
<VARIANCE> 25
 3.374600e+01 3.967356e+01 6.750194e+01 6.375350e+01 5.781096e+01 6.437442e+01 4.980933e+01 4.415491e+01 4.445846e+01 3.540117e+01 3.356274e+01 2.704606e+01 3.132528e+00 4.137255e+00 3.621446e+00 4.487921e+00 4.215056e+00 5.312013e+00 4.005538e+00 3.824685e+00 4.409300e+00 4.209664e+00 3.923692e+00 2.984154e+00 1.617640e+00
<GCONST> 1.086541e+02
<STATE> 3
<MEAN> 25
 3.691633e+00 -6.378765e+00 6.166086e+00 1.236009e+01 7.380941e+00 -9.047977e+00 -9.580333e+00 -1.629763e+00 -3.102339e+00 -4.599288e+00 -4.548250e+00 -5.048493e+00 8.359629e-02 -2.991736e-01 1.296623e-01 4.305927e-01 9.667514e-03 -8.290642e-01 -5.818837e-01 1.603395e-01 8.957740e-02 -1.876646e-01 -1.591199e-01 -1.092843e-01 2.681427e-01
<VARIANCE> 25
 2.149308e+01 3.103732e+01 4.970968e+01 5.873264e+01 7.158559e+01 6.920425e+01 3.966159e+01 4.495304e+01 4.204121e+01 4.275245e+01 4.102441e+01 2.954641e+01 6.639252e-01 9.264812e-01 1.883231e+00 1.858640e+00 1.558079e+00 2.146437e+00 1.929194e+00 2.097977e+00 1.840118e+00 1.884095e+00 1.595546e+00 1.333590e+00 5.259222e-01
<GCONST> 9.574519e+01
<STATE> 4
<MEAN> 25
 4.036044e+00 -4.218312e+00 4.209880e+00 1.037407e+01 7.996428e+00 -6.247262e+00 -9.419474e+00 -3.331409e+00 -2.663913e+00 -2.918104e+00 -3.142705e+00 -4.376024e+00 3.821991e-02 8.336469e-01 -6.000085e-01 -1.181883e+00 -5.675405e-01 1.117856e+00 8.718380e-01 -2.187419e-01 -3.897155e-02 3.511441e-01 4.869802e-01 5.886047e-01 -5.325214e-01
<VARIANCE> 25
 1.972391e+01 3.227742e+01 4.309776e+01 5.167957e+01 5.495691e+01 6.691110e+01 3.850472e+01 4.351723e+01 4.154246e+01 3.556070e+01 3.517086e+01 2.803684e+01 6.999541e-01 1.390189e+00 1.663853e+00 1.824908e+00 1.964548e+00 2.784639e+00 2.501812e+00 2.236512e+00 2.341234e+00 2.148965e+00 1.947036e+00 1.699689e+00 1.056007e+00
<GCONST> 9.730878e+01
~t "T_i"
<ENDHMM>
~h "p-i+d"
<BEGINHMM>
<NUMSTATES> 5
<STATE> 2
<MEAN> 25
 2.824880e+00 -2.961581e+00 4.292364e+00 7.499251e+00 7.346193e+00 -2.067250e+00 -5.297520e+00 -2.873806e+00 -2.378581e+00 -1.973293e+00 -2.520489e+00 -3.736685e+00 1.015099e+00 -9.724852e-01 2.479329e-01 2.179622e+00 1.426837e+00 -2.128228e+00 -2.309814e+00 -3.848035e-01 -7.270547e-01 -7.560874e-01 -6.794949e-01 -8.365397e-01 1.175898e+00
<VARIANCE> 25
 3.374600e+01 3.967356e+01 6.750194e+01 6.375350e+01 5.781096e+01 6.437442e+01 4.980933e+01 4.415491e+01 4.445846e+01 3.540117e+01 3.356274e+01 2.704606e+01 3.132528e+00 4.137255e+00 3.621446e+00 4.487921e+00 4.215056e+00 5.312013e+00 4.005538e+00 3.824685e+00 4.409300e+00 4.209664e+00 3.923692e+00 2.984154e+00 1.617640e+00
<GCONST> 1.086541e+02
<STATE> 3
<MEAN> 25
 3.691633e+00 -6.378765e+00 6.166086e+00 1.236009e+01 7.380941e+00 -9.047977e+00 -9.580333e+00 -1.629763e+00 -3.102339e+00 -4.599288e+00 -4.548250e+00 -5.048493e+00 8.359629e-02 -2.991736e-01 1.296623e-01 4.305927e-01 9.667514e-03 -8.290642e-01 -5.818837e-01 1.603395e-01 8.957740e-02 -1.876646e-01 -1.591199e-01 -1.092843e-01 2.681427e-01
<VARIANCE> 25
 2.149308e+01 3.103732e+01 4.970968e+01 5.873264e+01 7.158559e+01 6.920425e+01 3.966159e+01 4.495304e+01 4.204121e+01 4.275245e+01 4.102441e+01 2.954641e+01 6.639252e-01 9.264812e-01 1.883231e+00 1.858640e+00 1.558079e+00 2.146437e+00 1.929194e+00 2.097977e+00 1.840118e+00 1.884095e+00 1.595546e+00 1.333590e+00 5.259222e-01
<GCONST> 9.574519e+01
<STATE> 4
<MEAN> 25
 4.036044e+00 -4.218312e+00 4.209880e+00 1.037407e+01 7.996428e+00 -6.247262e+00 -9.419474e+00 -3.331409e+00 -2.663913e+00 -2.918104e+00 -3.142705e+00 -4.376024e+00 3.821991e-02 8.336469e-01 -6.000085e-01 -1.181883e+00 -5.675405e-01 1.117856e+00 8.718380e-01 -2.187419e-01 -3.897155e-02 3.511441e-01 4.869802e-01 5.886047e-01 -5.325214e-01
<VARIANCE> 25
 1.972391e+01 3.227742e+01 4.309776e+01 5.167957e+01 5.495691e+01 6.691110e+01 3.850472e+01 4.351723e+01 4.154246e+01 3.556070e+01 3.517086e+01 2.803684e+01 6.999541e-01 1.390189e+00 1.663853e+00 1.824908e+00 1.964548e+00 2.784639e+00 2.501812e+00 2.236512e+00 2.341234e+00 2.148965e+00 1.947036e+00 1.699689e+00 1.056007e+00
<GCONST> 9.730878e+01
~t "T_i"
<ENDHMM>
~h "p-i+e"
<BEGINHMM>
<NUMSTATES> 5
<STATE> 2
<MEAN> 25
 2.824880e+00 -2.961581e+00 4.292364e+00 7.499251e+00 7.346193e+00 -2.067250e+00 -5.297520e+00 -2.873806e+00 -2.378581e+00 -1.973293e+00 -2.520489e+00 -3.736685e+00 1.015099e+00 -9.724852e-01 2.479329e-01 2.179622e+00 1.426837e+00 -2.128228e+00 -2.309814e+00 -3.848035e-01 -7.270547e-01 -7.560874e-01 -6.794949e-01 -8.365397e-01 1.175898e+00
<VARIANCE> 25
 3.374600e+01 3.967356e+01 6.750194e+01 6.375350e+01 5.781096e+01 6.437442e+01 4.980933e+01 4.415491e+01 4.445846e+01 3.540117e+01 3.356274e+01 2.704606e+01 3.132528e+00 4.137255e+00 3.621446e+00 4.487921e+00 4.215056e+00 5.312013e+00 4.005538e+00 3.824685e+00 4.409300e+00 4.209664e+00 3.923692e+00 2.984154e+00 1.617640e+00
<GCONST> 1.086541e+02
<STATE> 3
<MEAN> 25
 3.691633e+00 -6.378765e+00 6.166086e+00 1.236009e+01 7.380941e+00 -9.047977e+00 -9.580333e+00 -1.629763e+00 -3.102339e+00 -4.599288e+00 -4.548250e+00 -5.048493e+00 8.359629e-02 -2.991736e-01 1.296623e-01 4.305927e-01 9.667514e-03 -8.290642e-01 -5.818837e-01 1.603395e-01 8.957740e-02 -1.876646e-01 -1.591199e-01 -1.092843e-01 2.681427e-01
<VARIANCE> 25
 2.149308e+01 3.103732e+01 4.970968e+01 5.873264e+01 7.158559e+01 6.920425e+01 3.966159e+01 4.495304e+01 4.204121e+01 4.275245e+01 4.102441e+01 2.954641e+01 6.639252e-01 9.264812e-01 1.883231e+00 1.858640e+00 1.558079e+00 2.146437e+00 1.929194e+00 2.097977e+00 1.840118e+00 1.884095e+00 1.595546e+00 1.333590e+00 5.259222e-01
<GCONST> 9.574519e+01
<STATE> 4
<MEAN> 25
 4.036044e+00 -4.218312e+00 4.209880e+00 1.037407e+01 7.996428e+00 -6.247262e+00 -9.419474e+00 -3.331409e+00 -2.663913e+00 -2.918104e+00 -3.142705e+00 -4.376024e+00 3.821991e-02 8.336469e-01 -6.000085e-01 -1.181883e+00 -5.675405e-01 1.117856e+00 8.718380e-01 -2.187419e-01 -3.897155e-02 3.511441e-01 4.869802e-01 5.886047e-01 -5.325214e-01
<VARIANCE> 25
 1.972391e+01 3.227742e+01 4.309776e+01 5.167957e+01 5.495691e+01 6.691110e+01 3.850472e+01 4.351723e+01 4.154246e+01 3.556070e+01 3.517086e+01 2.803684e+01 6.999541e-01 1.390189e+00 1.663853e+00 1.824908e+00 1.964548e+00 2.784639e+00 2.501812e+00 2.236512e+00 2.341234e+00 2.148965e+00 1.947036e+00 1.699689e+00 1.056007e+00
<GCONST> 9.730878e+01
~t "T_i"
<ENDHMM>
~h "p-i+k"
<BEGINHMM>
<NUMSTATES> 5
<STATE> 2
<MEAN> 25
 2.824880e+00 -2.961581e+00 4.292364e+00 7.499251e+00 7.346193e+00 -2.067250e+00 -5.297520e+00 -2.873806e+00 -2.378581e+00 -1.973293e+00 -2.520489e+00 -3.736685e+00 1.015099e+00 -9.724852e-01 2.479329e-01 2.179622e+00 1.426837e+00 -2.128228e+00 -2.309814e+00 -3.848035e-01 -7.270547e-01 -7.560874e-01 -6.794949e-01 -8.365397e-01 1.175898e+00
<VARIANCE> 25
 3.374600e+01 3.967356e+01 6.750194e+01 6.375350e+01 5.781096e+01 6.437442e+01 4.980933e+01 4.415491e+01 4.445846e+01 3.540117e+01 3.356274e+01 2.704606e+01 3.132528e+00 4.137255e+00 3.621446e+00 4.487921e+00 4.215056e+00 5.312013e+00 4.005538e+00 3.824685e+00 4.409300e+00 4.209664e+00 3.923692e+00 2.984154e+00 1.617640e+00
<GCONST> 1.086541e+02
<STATE> 3
<MEAN> 25
 3.691633e+00 -6.378765e+00 6.166086e+00 1.236009e+01 7.380941e+00 -9.047977e+00 -9.580333e+00 -1.629763e+00 -3.102339e+00 -4.599288e+00 -4.548250e+00 -5.048493e+00 8.359629e-02 -2.991736e-01 1.296623e-01 4.305927e-01 9.667514e-03 -8.290642e-01 -5.818837e-01 1.603395e-01 8.957740e-02 -1.876646e-01 -1.591199e-01 -1.092843e-01 2.681427e-01
<VARIANCE> 25
 2.149308e+01 3.103732e+01 4.970968e+01 5.873264e+01 7.158559e+01 6.920425e+01 3.966159e+01 4.495304e+01 4.204121e+01 4.275245e+01 4.102441e+01 2.954641e+01 6.639252e-01 9.264812e-01 1.883231e+00 1.858640e+00 1.558079e+00 2.146437e+00 1.929194e+00 2.097977e+00 1.840118e+00 1.884095e+00 1.595546e+00 1.333590e+00 5.259222e-01
<GCONST> 9.574519e+01
<STATE> 4
<MEAN> 25
 4.036044e+00 -4.218312e+00 4.209880e+00 1.037407e+01 7.996428e+00 -6.247262e+00 -9.419474e+00 -3.331409e+00 -2.663913e+00 -2.918104e+00 -3.142705e+00 -4.376024e+00 3.821991e-02 8.336469e-01 -6.000085e-01 -1.181883e+00 -5.675405e-01 1.117856e+00 8.718380e-01 -2.187419e-01 -3.897155e-02 3.511441e-01 4.869802e-01 5.886047e-01 -5.325214e-01
<VARIANCE> 25
 1.972391e+01 3.227742e+01 4.309776e+01 5.167957e+01 5.495691e+01 6.691110e+01 3.850472e+01 4.351723e+01 4.154246e+01 3.556070e+01 3.517086e+01 2.803684e+01 6.999541e-01 1.390189e+00 1.663853e+00 1.824908e+00 1.964548e+00 2.784639e+00 2.501812e+00 2.236512e+00 2.341234e+00 2.148965e+00 1.947036e+00 1.699689e+00 1.056007e+00
<GCONST> 9.730878e+01
~t "T_i"
<ENDHMM>
~h "p-i+l"
<BEGINHMM>
<NUMSTATES> 5
<STATE> 2
<MEAN> 25
 2.824880e+00 -2.961581e+00 4.292364e+00 7.499251e+00 7.346193e+00 -2.067250e+00 -5.297520e+00 -2.873806e+00 -2.378581e+00 -1.973293e+00 -2.520489e+00 -3.736685e+00 1.015099e+00 -9.724852e-01 2.479329e-01 2.179622e+00 1.426837e+00 -2.128228e+00 -2.309814e+00 -3.848035e-01 -7.270547e-01 -7.560874e-01 -6.794949e-01 -8.365397e-01 1.175898e+00
<VARIANCE> 25
 3.374600e+01 3.967356e+01 6.750194e+01 6.375350e+01 5.781096e+01 6.437442e+01 4.980933e+01 4.415491e+01 4.445846e+01 3.540117e+01 3.356274e+01 2.704606e+01 3.132528e+00 4.137255e+00 3.621446e+00 4.487921e+00 4.215056e+00 5.312013e+00 4.005538e+00 3.824685e+00 4.409300e+00 4.209664e+00 3.923692e+00 2.984154e+00 1.617640e+00
<GCONST> 1.086541e+02
<STATE> 3
<MEAN> 25
 3.691633e+00 -6.378765e+00 6.166086e+00 1.236009e+01 7.380941e+00 -9.047977e+00 -9.580333e+00 -1.629763e+00 -3.102339e+00 -4.599288e+00 -4.548250e+00 -5.048493e+00 8.359629e-02 -2.991736e-01 1.296623e-01 4.305927e-01 9.667514e-03 -8.290642e-01 -5.818837e-01 1.603395e-01 8.957740e-02 -1.876646e-01 -1.591199e-01 -1.092843e-01 2.681427e-01
<VARIANCE> 25
 2.149308e+01 3.103732e+01 4.970968e+01 5.873264e+01 7.158559e+01 6.920425e+01 3.966159e+01 4.495304e+01 4.204121e+01 4.275245e+01 4.102441e+01 2.954641e+01 6.639252e-01 9.264812e-01 1.883231e+00 1.858640e+00 1.558079e+00 2.146437e+00 1.929194e+00 2.097977e+00 1.840118e+00 1.884095e+00 1.595546e+00 1.333590e+00 5.259222e-01
<GCONST> 9.574519e+01
<STATE> 4
<MEAN> 25
 4.036044e+00 -4.218312e+00 4.209880e+00 1.037407e+01 7.996428e+00 -6.247262e+00 -9.419474e+00 -3.331409e+00 -2.663913e+00 -2.918104e+00 -3.142705e+00 -4.376024e+00 3.821991e-02 8.336469e-01 -6.000085e-01 -1.181883e+00 -5.675405e-01 1.117856e+00 8.718380e-01 -2.187419e-01 -3.897155e-02 3.511441e-01 4.869802e-01 5.886047e-01 -5.325214e-01
<VARIANCE> 25
 1.972391e+01 3.227742e+01 4.309776e+01 5.167957e+01 5.495691e+01 6.691110e+01 3.850472e+01 4.351723e+01 4.154246e+01 3.556070e+01 3.517086e+01 2.803684e+01 6.999541e-01 1.390189e+00 1.663853e+00 1.824908e+00 1.964548e+00 2.784639e+00 2.501812e+00 2.236512e+00 2.341234e+00 2.148965e+00 1.947036e+00 1.699689e+00 1.056007e+00
<GCONST> 9.730878e+01
~t "T_i"
<ENDHMM>
~h "p-i+o"
<BEGINHMM>
<NUMSTATES> 5
<STATE> 2
<MEAN> 25
 2.824880e+00 -2.961581e+00 4.292364e+00 7.499251e+00 7.346193e+00 -2.067250e+00 -5.297520e+00 -2.873806e+00 -2.378581e+00 -1.973293e+00 -2.520489e+00 -3.736685e+00 1.015099e+00 -9.724852e-01 2.479329e-01 2.179622e+00 1.426837e+00 -2.128228e+00 -2.309814e+00 -3.848035e-01 -7.270547e-01 -7.560874e-01 -6.794949e-01 -8.365397e-01 1.175898e+00
<VARIANCE> 25
 3.374600e+01 3.967356e+01 6.750194e+01 6.375350e+01 5.781096e+01 6.437442e+01 4.980933e+01 4.415491e+01 4.445846e+01 3.540117e+01 3.356274e+01 2.704606e+01 3.132528e+00 4.137255e+00 3.621446e+00 4.487921e+00 4.215056e+00 5.312013e+00 4.005538e+00 3.824685e+00 4.409300e+00 4.209664e+00 3.923692e+00 2.984154e+00 1.617640e+00
<GCONST> 1.086541e+02
<STATE> 3
<MEAN> 25
 3.691633e+00 -6.378765e+00 6.166086e+00 1.236009e+01 7.380941e+00 -9.047977e+00 -9.580333e+00 -1.629763e+00 -3.102339e+00 -4.599288e+00 -4.548250e+00 -5.048493e+00 8.359629e-02 -2.991736e-01 1.296623e-01 4.305927e-01 9.667514e-03 -8.290642e-01 -5.818837e-01 1.603395e-01 8.957740e-02 -1.876646e-01 -1.591199e-01 -1.092843e-01 2.681427e-01
<VARIANCE> 25
 2.149308e+01 3.103732e+01 4.970968e+01 5.873264e+01 7.158559e+01 6.920425e+01 3.966159e+01 4.495304e+01 4.204121e+01 4.275245e+01 4.102441e+01 2.954641e+01 6.639252e-01 9.264812e-01 1.883231e+00 1.858640e+00 1.558079e+00 2.146437e+00 1.929194e+00 2.097977e+00 1.840118e+00 1.884095e+00 1.595546e+00 1.333590e+00 5.259222e-01
<GCONST> 9.574519e+01
<STATE> 4
<MEAN> 25
 4.036044e+00 -4.218312e+00 4.209880e+00 1.037407e+01 7.996428e+00 -6.247262e+00 -9.419474e+00 -3.331409e+00 -2.663913e+00 -2.918104e+00 -3.142705e+00 -4.376024e+00 3.821991e-02 8.336469e-01 -6.000085e-01 -1.181883e+00 -5.675405e-01 1.117856e+00 8.718380e-01 -2.187419e-01 -3.897155e-02 3.511441e-01 4.869802e-01 5.886047e-01 -5.325214e-01
<VARIANCE> 25
 1.972391e+01 3.227742e+01 4.309776e+01 5.167957e+01 5.495691e+01 6.691110e+01 3.850472e+01 4.351723e+01 4.154246e+01 3.556070e+01 3.517086e+01 2.803684e+01 6.999541e-01 1.390189e+00 1.663853e+00 1.824908e+00 1.964548e+00 2.784639e+00 2.501812e+00 2.236512e+00 2.341234e+00 2.148965e+00 1.947036e+00 1.699689e+00 1.056007e+00
<GCONST> 9.730878e+01
~t "T_i"
<ENDHMM>
~h "p-i+s"
<BEGINHMM>
<NUMSTATES> 5
<STATE> 2
<MEAN> 25
 2.824880e+00 -2.961581e+00 4.292364e+00 7.499251e+00 7.346193e+00 -2.067250e+00 -5.297520e+00 -2.873806e+00 -2.378581e+00 -1.973293e+00 -2.520489e+00 -3.736685e+00 1.015099e+00 -9.724852e-01 2.479329e-01 2.179622e+00 1.426837e+00 -2.128228e+00 -2.309814e+00 -3.848035e-01 -7.270547e-01 -7.560874e-01 -6.794949e-01 -8.365397e-01 1.175898e+00
<VARIANCE> 25
 3.374600e+01 3.967356e+01 6.750194e+01 6.375350e+01 5.781096e+01 6.437442e+01 4.980933e+01 4.415491e+01 4.445846e+01 3.540117e+01 3.356274e+01 2.704606e+01 3.132528e+00 4.137255e+00 3.621446e+00 4.487921e+00 4.215056e+00 5.312013e+00 4.005538e+00 3.824685e+00 4.409300e+00 4.209664e+00 3.923692e+00 2.984154e+00 1.617640e+00
<GCONST> 1.086541e+02
<STATE> 3
<MEAN> 25
 3.691633e+00 -6.378765e+00 6.166086e+00 1.236009e+01 7.380941e+00 -9.047977e+00 -9.580333e+00 -1.629763e+00 -3.102339e+00 -4.599288e+00 -4.548250e+00 -5.048493e+00 8.359629e-02 -2.991736e-01 1.296623e-01 4.305927e-01 9.667514e-03 -8.290642e-01 -5.818837e-01 1.603395e-01 8.957740e-02 -1.876646e-01 -1.591199e-01 -1.092843e-01 2.681427e-01
<VARIANCE> 25
 2.149308e+01 3.103732e+01 4.970968e+01 5.873264e+01 7.158559e+01 6.920425e+01 3.966159e+01 4.495304e+01 4.204121e+01 4.275245e+01 4.102441e+01 2.954641e+01 6.639252e-01 9.264812e-01 1.883231e+00 1.858640e+00 1.558079e+00 2.146437e+00 1.929194e+00 2.097977e+00 1.840118e+00 1.884095e+00 1.595546e+00 1.333590e+00 5.259222e-01
<GCONST> 9.574519e+01
<STATE> 4
<MEAN> 25
 4.036044e+00 -4.218312e+00 4.209880e+00 1.037407e+01 7.996428e+00 -6.247262e+00 -9.419474e+00 -3.331409e+00 -2.663913e+00 -2.918104e+00 -3.142705e+00 -4.376024e+00 3.821991e-02 8.336469e-01 -6.000085e-01 -1.181883e+00 -5.675405e-01 1.117856e+00 8.718380e-01 -2.187419e-01 -3.897155e-02 3.511441e-01 4.869802e-01 5.886047e-01 -5.325214e-01
<VARIANCE> 25
 1.972391e+01 3.227742e+01 4.309776e+01 5.167957e+01 5.495691e+01 6.691110e+01 3.850472e+01 4.351723e+01 4.154246e+01 3.556070e+01 3.517086e+01 2.803684e+01 6.999541e-01 1.390189e+00 1.663853e+00 1.824908e+00 1.964548e+00 2.784639e+00 2.501812e+00 2.236512e+00 2.341234e+00 2.148965e+00 1.947036e+00 1.699689e+00 1.056007e+00
<GCONST> 9.730878e+01
~t "T_i"
<ENDHMM>
~h "p-i+t"
<BEGINHMM>
<NUMSTATES> 5
<STATE> 2
<MEAN> 25
 2.824880e+00 -2.961581e+00 4.292364e+00 7.499251e+00 7.346193e+00 -2.067250e+00 -5.297520e+00 -2.873806e+00 -2.378581e+00 -1.973293e+00 -2.520489e+00 -3.736685e+00 1.015099e+00 -9.724852e-01 2.479329e-01 2.179622e+00 1.426837e+00 -2.128228e+00 -2.309814e+00 -3.848035e-01 -7.270547e-01 -7.560874e-01 -6.794949e-01 -8.365397e-01 1.175898e+00
<VARIANCE> 25
 3.374600e+01 3.967356e+01 6.750194e+01 6.375350e+01 5.781096e+01 6.437442e+01 4.980933e+01 4.415491e+01 4.445846e+01 3.540117e+01 3.356274e+01 2.704606e+01 3.132528e+00 4.137255e+00 3.621446e+00 4.487921e+00 4.215056e+00 5.312013e+00 4.005538e+00 3.824685e+00 4.409300e+00 4.209664e+00 3.923692e+00 2.984154e+00 1.617640e+00
<GCONST> 1.086541e+02
<STATE> 3
<MEAN> 25
 3.691633e+00 -6.378765e+00 6.166086e+00 1.236009e+01 7.380941e+00 -9.047977e+00 -9.580333e+00 -1.629763e+00 -3.102339e+00 -4.599288e+00 -4.548250e+00 -5.048493e+00 8.359629e-02 -2.991736e-01 1.296623e-01 4.305927e-01 9.667514e-03 -8.290642e-01 -5.818837e-01 1.603395e-01 8.957740e-02 -1.876646e-01 -1.591199e-01 -1.092843e-01 2.681427e-01
<VARIANCE> 25
 2.149308e+01 3.103732e+01 4.970968e+01 5.873264e+01 7.158559e+01 6.920425e+01 3.966159e+01 4.495304e+01 4.204121e+01 4.275245e+01 4.102441e+01 2.954641e+01 6.639252e-01 9.264812e-01 1.883231e+00 1.858640e+00 1.558079e+00 2.146437e+00 1.929194e+00 2.097977e+00 1.840118e+00 1.884095e+00 1.595546e+00 1.333590e+00 5.259222e-01
<GCONST> 9.574519e+01
<STATE> 4
<MEAN> 25
 4.036044e+00 -4.218312e+00 4.209880e+00 1.037407e+01 7.996428e+00 -6.247262e+00 -9.419474e+00 -3.331409e+00 -2.663913e+00 -2.918104e+00 -3.142705e+00 -4.376024e+00 3.821991e-02 8.336469e-01 -6.000085e-01 -1.181883e+00 -5.675405e-01 1.117856e+00 8.718380e-01 -2.187419e-01 -3.897155e-02 3.511441e-01 4.869802e-01 5.886047e-01 -5.325214e-01
<VARIANCE> 25
 1.972391e+01 3.227742e+01 4.309776e+01 5.167957e+01 5.495691e+01 6.691110e+01 3.850472e+01 4.351723e+01 4.154246e+01 3.556070e+01 3.517086e+01 2.803684e+01 6.999541e-01 1.390189e+00 1.663853e+00 1.824908e+00 1.964548e+00 2.784639e+00 2.501812e+00 2.236512e+00 2.341234e+00 2.148965e+00 1.947036e+00 1.699689e+00 1.056007e+00
<GCONST> 9.730878e+01
~t "T_i"
<ENDHMM>
~h "s-th+e"
<BEGINHMM>
<NUMSTATES> 5
<STATE> 2
<MEAN> 25
 -5.632880e+00 -3.854063e+00 1.516733e+01 -6.320058e+00 2.140140e+00 2.455597e+00 3.235808e+00 -2.117743e+00 -4.823162e-01 1.348089e+00 8.720768e-02 -2.654986e-01 -3.624942e+00 -1.473371e+00 2.833224e+00 -1.734421e+00 -1.021341e-01 6.912473e-01 1.388689e+00 -1.476209e-01 6.915943e-01 5.759441e-01 5.913332e-01 2.648686e-01 5.795045e-01
<VARIANCE> 25
 6.831219e+01 5.101052e+01 9.769680e+01 8.345584e+01 8.229661e+01 6.781025e+01 8.005181e+01 6.789198e+01 6.046149e+01 4.864940e+01 3.799240e+01 2.866057e+01 2.483551e+00 3.884926e+00 3.833339e+00 4.342094e+00 3.744481e+00 5.492457e+00 3.865437e+00 3.177013e+00 3.737395e+00 3.366478e+00 3.085365e+00 2.236720e+00 1.021638e+00
<GCONST> 1.104123e+02
<STATE> 3
<MEAN> 25
 -1.727112e+01 -8.257788e+00 1.949447e+01 -1.180675e+01 1.947106e+00 1.331353e+00 6.016316e+00 -2.654345e+00 1.263386e+00 2.144119e+00 1.879954e+00 3.925450e-01 -1.316139e-01 -5.102527e-01 -3.761988e-01 1.679360e-01 1.177314e-02 -9.135841e-02 -9.154829e-02 -1.859931e-02 1.217610e-01 1.754421e-01 1.592440e-01 1.295594e-02 -6.405007e-02
<VARIANCE> 25
 3.926363e+01 8.026629e+01 8.774121e+01 1.006794e+02 8.994701e+01 7.935870e+01 7.173088e+01 6.903039e+01 6.770055e+01 4.795404e+01 3.895676e+01 2.661696e+01 1.988035e+00 1.045411e+00 1.457392e+00 2.010195e+00 1.328030e+00 1.433358e+00 1.615375e+00 1.621984e+00 1.538399e+00 1.449418e+00 1.211479e+00 1.100959e+00 4.380694e-01
<GCONST> 9.917685e+01
<STATE> 4
<MEAN> 25
 -9.271607e+00 -9.057722e+00 1.468838e+01 -6.365356e+00 1.965114e+00 2.341074e+00 3.013284e+00 -2.966129e+00 2.363478e-03 3.011927e+00 1.883378e+00 8.863983e-02 4.015340e+00 1.801579e+00 -2.265525e+00 2.241422e+00 5.355793e-01 -2.967038e-01 -2.138270e+00 -4.493863e-01 -1.154973e+00 -7.945148e-01 -8.732439e-01 -3.801412e-01 -6.645188e-01
<VARIANCE> 25
 5.233046e+01 6.291172e+01 6.801148e+01 8.587710e+01 6.436635e+01 5.830358e+01 5.761609e+01 5.580789e+01 5.802547e+01 4.261039e+01 3.626220e+01 2.619216e+01 3.238315e+00 3.795416e+00 2.980920e+00 3.903574e+00 4.405891e+00 4.908393e+00 3.968453e+00 3.498078e+00 3.993294e+00 3.501172e+00 3.218621e+00 2.491385e+00 1.196708e+00
<GCONST> 1.092605e+02
~t "T_th"
<ENDHMM>
~h "s-th+i"
<BEGINHMM>
<NUMSTATES> 5
<STATE> 2
<MEAN> 25
 -5.632880e+00 -3.854063e+00 1.516733e+01 -6.320058e+00 2.140140e+00 2.455597e+00 3.235808e+00 -2.117743e+00 -4.823162e-01 1.348089e+00 8.720768e-02 -2.654986e-01 -3.624942e+00 -1.473371e+00 2.833224e+00 -1.734421e+00 -1.021341e-01 6.912473e-01 1.388689e+00 -1.476209e-01 6.915943e-01 5.759441e-01 5.913332e-01 2.648686e-01 5.795045e-01
<VARIANCE> 25
 6.831219e+01 5.101052e+01 9.769680e+01 8.345584e+01 8.229661e+01 6.781025e+01 8.005181e+01 6.789198e+01 6.046149e+01 4.864940e+01 3.799240e+01 2.866057e+01 2.483551e+00 3.884926e+00 3.833339e+00 4.342094e+00 3.744481e+00 5.492457e+00 3.865437e+00 3.177013e+00 3.737395e+00 3.366478e+00 3.085365e+00 2.236720e+00 1.021638e+00
<GCONST> 1.104123e+02
<STATE> 3
<MEAN> 25
 -1.727112e+01 -8.257788e+00 1.949447e+01 -1.180675e+01 1.947106e+00 1.331353e+00 6.016316e+00 -2.654345e+00 1.263386e+00 2.144119e+00 1.879954e+00 3.925450e-01 -1.316139e-01 -5.102527e-01 -3.761988e-01 1.679360e-01 1.177314e-02 -9.135841e-02 -9.154829e-02 -1.859931e-02 1.217610e-01 1.754421e-01 1.592440e-01 1.295594e-02 -6.405007e-02
<VARIANCE> 25
 3.926363e+01 8.026629e+01 8.774121e+01 1.006794e+02 8.994701e+01 7.935870e+01 7.173088e+01 6.903039e+01 6.770055e+01 4.795404e+01 3.895676e+01 2.661696e+01 1.988035e+00 1.045411e+00 1.457392e+00 2.010195e+00 1.328030e+00 1.433358e+00 1.615375e+00 1.621984e+00 1.538399e+00 1.449418e+00 1.211479e+00 1.100959e+00 4.380694e-01
<GCONST> 9.917685e+01
<STATE> 4
<MEAN> 25
 -9.271607e+00 -9.057722e+00 1.468838e+01 -6.365356e+00 1.965114e+00 2.341074e+00 3.013284e+00 -2.966129e+00 2.363478e-03 3.011927e+00 1.883378e+00 8.863983e-02 4.015340e+00 1.801579e+00 -2.265525e+00 2.241422e+00 5.355793e-01 -2.967038e-01 -2.138270e+00 -4.493863e-01 -1.154973e+00 -7.945148e-01 -8.732439e-01 -3.801412e-01 -6.645188e-01
<VARIANCE> 25
 5.233046e+01 6.291172e+01 6.801148e+01 8.587710e+01 6.436635e+01 5.830358e+01 5.761609e+01 5.580789e+01 5.802547e+01 4.261039e+01 3.626220e+01 2.619216e+01 3.238315e+00 3.795416e+00 2.980920e+00 3.903574e+00 4.405891e+00 4.908393e+00 3.968453e+00 3.498078e+00 3.993294e+00 3.501172e+00 3.218621e+00 2.491385e+00 1.196708e+00
<GCONST> 1.092605e+02
~t "T_th"
<ENDHMM>
~h "u-ch+a"
<BEGINHMM>
<NUMSTATES> 5
<STATE> 2
<MEAN> 25
 -3.515305e+00 -5.826408e+00 6.770669e+00 1.690331e+00 -1.433543e+00 1.311194e+00 -8.473504e-01 -1.564756e-02 1.486803e+00 -1.773934e+00 -4.531376e-01 4.916118e-02 -1.929486e+00 -2.286035e+00 1.432176e+00 -1.023099e-01 -2.989334e-01 3.851319e-02 2.564107e-01 1.889517e-01 9.482999e-01 1.769091e-01 2.801395e-01 3.219435e-01 8.950387e-01
<VARIANCE> 25
 4.331898e+01 7.936980e+01 6.833836e+01 4.999400e+01 4.801806e+01 4.844822e+01 4.646045e+01 4.836494e+01 4.783947e+01 3.791654e+01 3.232258e+01 2.454547e+01 1.851286e+00 7.669931e+00 6.159750e+00 3.452475e+00 3.472772e+00 4.140024e+00 3.523978e+00 3.569549e+00 3.155254e+00 2.976944e+00 2.255540e+00 2.050224e+00 6.671400e+00
<GCONST> 1.084521e+02
<STATE> 3
<MEAN> 25
 -1.108798e+01 -1.948901e+01 1.376653e+01 1.118908e+00 -4.445756e-01 -1.846460e-01 -1.224519e+00 -4.334573e-01 5.340496e+00 -8.536438e-02 1.277094e+00 2.056511e+00 1.302766e+00 6.569036e-01 -9.409735e-01 5.642725e-01 8.434920e-01 6.904846e-01 -3.385284e-01 -7.616201e-01 -4.334902e-01 4.428429e-01 1.827114e-01 1.404145e-01 -3.099542e-01
<VARIANCE> 25
 3.591089e+01 5.767048e+01 9.091859e+01 8.055508e+01 6.350099e+01 7.100402e+01 7.317664e+01 6.533994e+01 4.447422e+01 4.331369e+01 3.181114e+01 2.763056e+01 3.482492e+00 4.879806e+00 3.392511e+00 2.994451e+00 2.214943e+00 3.134732e+00 3.190136e+00 2.739042e+00 2.630057e+00 2.111520e+00 1.913656e+00 1.603518e+00 1.794401e+00
<GCONST> 1.063869e+02
<STATE> 4
<MEAN> 25
 -1.721438e+00 -1.021468e+01 6.895911e+00 2.611857e+00 7.177784e-01 3.217569e+00 -1.804813e+00 -2.833560e+00 1.391455e+00 -1.063743e+00 1.320703e-01 1.758912e+00 3.473007e+00 3.063818e+00 -1.771192e+00 -1.458062e-01 -3.454653e-01 -6.482190e-01 -8.350406e-01 -3.921632e-01 -1.795598e+00 -9.135399e-01 -9.172798e-01 -5.811502e-01 -6.058986e-01
<VARIANCE> 25
 3.350431e+01 3.652498e+01 5.543996e+01 4.107544e+01 3.849805e+01 4.208282e+01 4.809691e+01 4.542126e+01 3.864191e+01 3.712645e+01 2.983387e+01 2.518701e+01 2.997148e+00 2.974293e+00 3.189521e+00 4.118366e+00 3.599472e+00 4.296028e+00 4.654088e+00 4.965402e+00 3.636896e+00 3.091180e+00 2.790794e+00 2.614336e+00 1.042577e+00
<GCONST> 1.048478e+02
~t "T_ch"
<ENDHMM>
~h "u-ch+o"
<BEGINHMM>
<NUMSTATES> 5
<STATE> 2
<MEAN> 25
 -3.515305e+00 -5.826408e+00 6.770669e+00 1.690331e+00 -1.433543e+00 1.311194e+00 -8.473504e-01 -1.564756e-02 1.486803e+00 -1.773934e+00 -4.531376e-01 4.916118e-02 -1.929486e+00 -2.286035e+00 1.432176e+00 -1.023099e-01 -2.989334e-01 3.851319e-02 2.564107e-01 1.889517e-01 9.482999e-01 1.769091e-01 2.801395e-01 3.219435e-01 8.950387e-01
<VARIANCE> 25
 4.331898e+01 7.936980e+01 6.833836e+01 4.999400e+01 4.801806e+01 4.844822e+01 4.646045e+01 4.836494e+01 4.783947e+01 3.791654e+01 3.232258e+01 2.454547e+01 1.851286e+00 7.669931e+00 6.159750e+00 3.452475e+00 3.472772e+00 4.140024e+00 3.523978e+00 3.569549e+00 3.155254e+00 2.976944e+00 2.255540e+00 2.050224e+00 6.671400e+00
<GCONST> 1.084521e+02
<STATE> 3
<MEAN> 25
 -1.108798e+01 -1.948901e+01 1.376653e+01 1.118908e+00 -4.445756e-01 -1.846460e-01 -1.224519e+00 -4.334573e-01 5.340496e+00 -8.536438e-02 1.277094e+00 2.056511e+00 1.302766e+00 6.569036e-01 -9.409735e-01 5.642725e-01 8.434920e-01 6.904846e-01 -3.385284e-01 -7.616201e-01 -4.334902e-01 4.428429e-01 1.827114e-01 1.404145e-01 -3.099542e-01
<VARIANCE> 25
 3.591089e+01 5.767048e+01 9.091859e+01 8.055508e+01 6.350099e+01 7.100402e+01 7.317664e+01 6.533994e+01 4.447422e+01 4.331369e+01 3.181114e+01 2.763056e+01 3.482492e+00 4.879806e+00 3.392511e+00 2.994451e+00 2.214943e+00 3.134732e+00 3.190136e+00 2.739042e+00 2.630057e+00 2.111520e+00 1.913656e+00 1.603518e+00 1.794401e+00
<GCONST> 1.063869e+02
<STATE> 4
<MEAN> 25
 -1.721438e+00 -1.021468e+01 6.895911e+00 2.611857e+00 7.177784e-01 3.217569e+00 -1.804813e+00 -2.833560e+00 1.391455e+00 -1.063743e+00 1.320703e-01 1.758912e+00 3.473007e+00 3.063818e+00 -1.771192e+00 -1.458062e-01 -3.454653e-01 -6.482190e-01 -8.350406e-01 -3.921632e-01 -1.795598e+00 -9.135399e-01 -9.172798e-01 -5.811502e-01 -6.058986e-01
<VARIANCE> 25
 3.350431e+01 3.652498e+01 5.543996e+01 4.107544e+01 3.849805e+01 4.208282e+01 4.809691e+01 4.542126e+01 3.864191e+01 3.712645e+01 2.983387e+01 2.518701e+01 2.997148e+00 2.974293e+00 3.189521e+00 4.118366e+00 3.599472e+00 4.296028e+00 4.654088e+00 4.965402e+00 3.636896e+00 3.091180e+00 2.790794e+00 2.614336e+00 1.042577e+00
<GCONST> 1.048478e+02
~t "T_ch"
<ENDHMM>
~h "th-i+a"
<BEGINHMM>
<NUMSTATES> 5
<STATE> 2
<MEAN> 25
 2.824880e+00 -2.961581e+00 4.292364e+00 7.499251e+00 7.346193e+00 -2.067250e+00 -5.297520e+00 -2.873806e+00 -2.378581e+00 -1.973293e+00 -2.520489e+00 -3.736685e+00 1.015099e+00 -9.724852e-01 2.479329e-01 2.179622e+00 1.426837e+00 -2.128228e+00 -2.309814e+00 -3.848035e-01 -7.270547e-01 -7.560874e-01 -6.794949e-01 -8.365397e-01 1.175898e+00
<VARIANCE> 25
 3.374600e+01 3.967356e+01 6.750194e+01 6.375350e+01 5.781096e+01 6.437442e+01 4.980933e+01 4.415491e+01 4.445846e+01 3.540117e+01 3.356274e+01 2.704606e+01 3.132528e+00 4.137255e+00 3.621446e+00 4.487921e+00 4.215056e+00 5.312013e+00 4.005538e+00 3.824685e+00 4.409300e+00 4.209664e+00 3.923692e+00 2.984154e+00 1.617640e+00
<GCONST> 1.086541e+02
<STATE> 3
<MEAN> 25
 3.691633e+00 -6.378765e+00 6.166086e+00 1.236009e+01 7.380941e+00 -9.047977e+00 -9.580333e+00 -1.629763e+00 -3.102339e+00 -4.599288e+00 -4.548250e+00 -5.048493e+00 8.359629e-02 -2.991736e-01 1.296623e-01 4.305927e-01 9.667514e-03 -8.290642e-01 -5.818837e-01 1.603395e-01 8.957740e-02 -1.876646e-01 -1.591199e-01 -1.092843e-01 2.681427e-01
<VARIANCE> 25
 2.149308e+01 3.103732e+01 4.970968e+01 5.873264e+01 7.158559e+01 6.920425e+01 3.966159e+01 4.495304e+01 4.204121e+01 4.275245e+01 4.102441e+01 2.954641e+01 6.639252e-01 9.264812e-01 1.883231e+00 1.858640e+00 1.558079e+00 2.146437e+00 1.929194e+00 2.097977e+00 1.840118e+00 1.884095e+00 1.595546e+00 1.333590e+00 5.259222e-01
<GCONST> 9.574519e+01
<STATE> 4
<MEAN> 25
 4.036044e+00 -4.218312e+00 4.209880e+00 1.037407e+01 7.996428e+00 -6.247262e+00 -9.419474e+00 -3.331409e+00 -2.663913e+00 -2.918104e+00 -3.142705e+00 -4.376024e+00 3.821991e-02 8.336469e-01 -6.000085e-01 -1.181883e+00 -5.675405e-01 1.117856e+00 8.718380e-01 -2.187419e-01 -3.897155e-02 3.511441e-01 4.869802e-01 5.886047e-01 -5.325214e-01
<VARIANCE> 25
 1.972391e+01 3.227742e+01 4.309776e+01 5.167957e+01 5.495691e+01 6.691110e+01 3.850472e+01 4.351723e+01 4.154246e+01 3.556070e+01 3.517086e+01 2.803684e+01 6.999541e-01 1.390189e+00 1.663853e+00 1.824908e+00 1.964548e+00 2.784639e+00 2.501812e+00 2.236512e+00 2.341234e+00 2.148965e+00 1.947036e+00 1.699689e+00 1.056007e+00
<GCONST> 9.730878e+01
~t "T_i"
<ENDHMM>
~h "th-i+d"
<BEGINHMM>
<NUMSTATES> 5
<STATE> 2
<MEAN> 25
 2.824880e+00 -2.961581e+00 4.292364e+00 7.499251e+00 7.346193e+00 -2.067250e+00 -5.297520e+00 -2.873806e+00 -2.378581e+00 -1.973293e+00 -2.520489e+00 -3.736685e+00 1.015099e+00 -9.724852e-01 2.479329e-01 2.179622e+00 1.426837e+00 -2.128228e+00 -2.309814e+00 -3.848035e-01 -7.270547e-01 -7.560874e-01 -6.794949e-01 -8.365397e-01 1.175898e+00
<VARIANCE> 25
 3.374600e+01 3.967356e+01 6.750194e+01 6.375350e+01 5.781096e+01 6.437442e+01 4.980933e+01 4.415491e+01 4.445846e+01 3.540117e+01 3.356274e+01 2.704606e+01 3.132528e+00 4.137255e+00 3.621446e+00 4.487921e+00 4.215056e+00 5.312013e+00 4.005538e+00 3.824685e+00 4.409300e+00 4.209664e+00 3.923692e+00 2.984154e+00 1.617640e+00
<GCONST> 1.086541e+02
<STATE> 3
<MEAN> 25
 3.691633e+00 -6.378765e+00 6.166086e+00 1.236009e+01 7.380941e+00 -9.047977e+00 -9.580333e+00 -1.629763e+00 -3.102339e+00 -4.599288e+00 -4.548250e+00 -5.048493e+00 8.359629e-02 -2.991736e-01 1.296623e-01 4.305927e-01 9.667514e-03 -8.290642e-01 -5.818837e-01 1.603395e-01 8.957740e-02 -1.876646e-01 -1.591199e-01 -1.092843e-01 2.681427e-01
<VARIANCE> 25
 2.149308e+01 3.103732e+01 4.970968e+01 5.873264e+01 7.158559e+01 6.920425e+01 3.966159e+01 4.495304e+01 4.204121e+01 4.275245e+01 4.102441e+01 2.954641e+01 6.639252e-01 9.264812e-01 1.883231e+00 1.858640e+00 1.558079e+00 2.146437e+00 1.929194e+00 2.097977e+00 1.840118e+00 1.884095e+00 1.595546e+00 1.333590e+00 5.259222e-01
<GCONST> 9.574519e+01
<STATE> 4
<MEAN> 25
 4.036044e+00 -4.218312e+00 4.209880e+00 1.037407e+01 7.996428e+00 -6.247262e+00 -9.419474e+00 -3.331409e+00 -2.663913e+00 -2.918104e+00 -3.142705e+00 -4.376024e+00 3.821991e-02 8.336469e-01 -6.000085e-01 -1.181883e+00 -5.675405e-01 1.117856e+00 8.718380e-01 -2.187419e-01 -3.897155e-02 3.511441e-01 4.869802e-01 5.886047e-01 -5.325214e-01
<VARIANCE> 25
 1.972391e+01 3.227742e+01 4.309776e+01 5.167957e+01 5.495691e+01 6.691110e+01 3.850472e+01 4.351723e+01 4.154246e+01 3.556070e+01 3.517086e+01 2.803684e+01 6.999541e-01 1.390189e+00 1.663853e+00 1.824908e+00 1.964548e+00 2.784639e+00 2.501812e+00 2.236512e+00 2.341234e+00 2.148965e+00 1.947036e+00 1.699689e+00 1.056007e+00
<GCONST> 9.730878e+01
~t "T_i"
<ENDHMM>
~h "th-i+e"
<BEGINHMM>
<NUMSTATES> 5
<STATE> 2
<MEAN> 25
 2.824880e+00 -2.961581e+00 4.292364e+00 7.499251e+00 7.346193e+00 -2.067250e+00 -5.297520e+00 -2.873806e+00 -2.378581e+00 -1.973293e+00 -2.520489e+00 -3.736685e+00 1.015099e+00 -9.724852e-01 2.479329e-01 2.179622e+00 1.426837e+00 -2.128228e+00 -2.309814e+00 -3.848035e-01 -7.270547e-01 -7.560874e-01 -6.794949e-01 -8.365397e-01 1.175898e+00
<VARIANCE> 25
 3.374600e+01 3.967356e+01 6.750194e+01 6.375350e+01 5.781096e+01 6.437442e+01 4.980933e+01 4.415491e+01 4.445846e+01 3.540117e+01 3.356274e+01 2.704606e+01 3.132528e+00 4.137255e+00 3.621446e+00 4.487921e+00 4.215056e+00 5.312013e+00 4.005538e+00 3.824685e+00 4.409300e+00 4.209664e+00 3.923692e+00 2.984154e+00 1.617640e+00
<GCONST> 1.086541e+02
<STATE> 3
<MEAN> 25
 3.691633e+00 -6.378765e+00 6.166086e+00 1.236009e+01 7.380941e+00 -9.047977e+00 -9.580333e+00 -1.629763e+00 -3.102339e+00 -4.599288e+00 -4.548250e+00 -5.048493e+00 8.359629e-02 -2.991736e-01 1.296623e-01 4.305927e-01 9.667514e-03 -8.290642e-01 -5.818837e-01 1.603395e-01 8.957740e-02 -1.876646e-01 -1.591199e-01 -1.092843e-01 2.681427e-01
<VARIANCE> 25
 2.149308e+01 3.103732e+01 4.970968e+01 5.873264e+01 7.158559e+01 6.920425e+01 3.966159e+01 4.495304e+01 4.204121e+01 4.275245e+01 4.102441e+01 2.954641e+01 6.639252e-01 9.264812e-01 1.883231e+00 1.858640e+00 1.558079e+00 2.146437e+00 1.929194e+00 2.097977e+00 1.840118e+00 1.884095e+00 1.595546e+00 1.333590e+00 5.259222e-01
<GCONST> 9.574519e+01
<STATE> 4
<MEAN> 25
 4.036044e+00 -4.218312e+00 4.209880e+00 1.037407e+01 7.996428e+00 -6.247262e+00 -9.419474e+00 -3.331409e+00 -2.663913e+00 -2.918104e+00 -3.142705e+00 -4.376024e+00 3.821991e-02 8.336469e-01 -6.000085e-01 -1.181883e+00 -5.675405e-01 1.117856e+00 8.718380e-01 -2.187419e-01 -3.897155e-02 3.511441e-01 4.869802e-01 5.886047e-01 -5.325214e-01
<VARIANCE> 25
 1.972391e+01 3.227742e+01 4.309776e+01 5.167957e+01 5.495691e+01 6.691110e+01 3.850472e+01 4.351723e+01 4.154246e+01 3.556070e+01 3.517086e+01 2.803684e+01 6.999541e-01 1.390189e+00 1.663853e+00 1.824908e+00 1.964548e+00 2.784639e+00 2.501812e+00 2.236512e+00 2.341234e+00 2.148965e+00 1.947036e+00 1.699689e+00 1.056007e+00
<GCONST> 9.730878e+01
~t "T_i"
<ENDHMM>
~h "th-i+g"
<BEGINHMM>
<NUMSTATES> 5
<STATE> 2
<MEAN> 25
 2.824880e+00 -2.961581e+00 4.292364e+00 7.499251e+00 7.346193e+00 -2.067250e+00 -5.297520e+00 -2.873806e+00 -2.378581e+00 -1.973293e+00 -2.520489e+00 -3.736685e+00 1.015099e+00 -9.724852e-01 2.479329e-01 2.179622e+00 1.426837e+00 -2.128228e+00 -2.309814e+00 -3.848035e-01 -7.270547e-01 -7.560874e-01 -6.794949e-01 -8.365397e-01 1.175898e+00
<VARIANCE> 25
 3.374600e+01 3.967356e+01 6.750194e+01 6.375350e+01 5.781096e+01 6.437442e+01 4.980933e+01 4.415491e+01 4.445846e+01 3.540117e+01 3.356274e+01 2.704606e+01 3.132528e+00 4.137255e+00 3.621446e+00 4.487921e+00 4.215056e+00 5.312013e+00 4.005538e+00 3.824685e+00 4.409300e+00 4.209664e+00 3.923692e+00 2.984154e+00 1.617640e+00
<GCONST> 1.086541e+02
<STATE> 3
<MEAN> 25
 3.691633e+00 -6.378765e+00 6.166086e+00 1.236009e+01 7.380941e+00 -9.047977e+00 -9.580333e+00 -1.629763e+00 -3.102339e+00 -4.599288e+00 -4.548250e+00 -5.048493e+00 8.359629e-02 -2.991736e-01 1.296623e-01 4.305927e-01 9.667514e-03 -8.290642e-01 -5.818837e-01 1.603395e-01 8.957740e-02 -1.876646e-01 -1.591199e-01 -1.092843e-01 2.681427e-01
<VARIANCE> 25
 2.149308e+01 3.103732e+01 4.970968e+01 5.873264e+01 7.158559e+01 6.920425e+01 3.966159e+01 4.495304e+01 4.204121e+01 4.275245e+01 4.102441e+01 2.954641e+01 6.639252e-01 9.264812e-01 1.883231e+00 1.858640e+00 1.558079e+00 2.146437e+00 1.929194e+00 2.097977e+00 1.840118e+00 1.884095e+00 1.595546e+00 1.333590e+00 5.259222e-01
<GCONST> 9.574519e+01
<STATE> 4
<MEAN> 25
 4.036044e+00 -4.218312e+00 4.209880e+00 1.037407e+01 7.996428e+00 -6.247262e+00 -9.419474e+00 -3.331409e+00 -2.663913e+00 -2.918104e+00 -3.142705e+00 -4.376024e+00 3.821991e-02 8.336469e-01 -6.000085e-01 -1.181883e+00 -5.675405e-01 1.117856e+00 8.718380e-01 -2.187419e-01 -3.897155e-02 3.511441e-01 4.869802e-01 5.886047e-01 -5.325214e-01
<VARIANCE> 25
 1.972391e+01 3.227742e+01 4.309776e+01 5.167957e+01 5.495691e+01 6.691110e+01 3.850472e+01 4.351723e+01 4.154246e+01 3.556070e+01 3.517086e+01 2.803684e+01 6.999541e-01 1.390189e+00 1.663853e+00 1.824908e+00 1.964548e+00 2.784639e+00 2.501812e+00 2.236512e+00 2.341234e+00 2.148965e+00 1.947036e+00 1.699689e+00 1.056007e+00
<GCONST> 9.730878e+01
~t "T_i"
<ENDHMM>
~h "th-i+k"
<BEGINHMM>
<NUMSTATES> 5
<STATE> 2
<MEAN> 25
 2.824880e+00 -2.961581e+00 4.292364e+00 7.499251e+00 7.346193e+00 -2.067250e+00 -5.297520e+00 -2.873806e+00 -2.378581e+00 -1.973293e+00 -2.520489e+00 -3.736685e+00 1.015099e+00 -9.724852e-01 2.479329e-01 2.179622e+00 1.426837e+00 -2.128228e+00 -2.309814e+00 -3.848035e-01 -7.270547e-01 -7.560874e-01 -6.794949e-01 -8.365397e-01 1.175898e+00
<VARIANCE> 25
 3.374600e+01 3.967356e+01 6.750194e+01 6.375350e+01 5.781096e+01 6.437442e+01 4.980933e+01 4.415491e+01 4.445846e+01 3.540117e+01 3.356274e+01 2.704606e+01 3.132528e+00 4.137255e+00 3.621446e+00 4.487921e+00 4.215056e+00 5.312013e+00 4.005538e+00 3.824685e+00 4.409300e+00 4.209664e+00 3.923692e+00 2.984154e+00 1.617640e+00
<GCONST> 1.086541e+02
<STATE> 3
<MEAN> 25
 3.691633e+00 -6.378765e+00 6.166086e+00 1.236009e+01 7.380941e+00 -9.047977e+00 -9.580333e+00 -1.629763e+00 -3.102339e+00 -4.599288e+00 -4.548250e+00 -5.048493e+00 8.359629e-02 -2.991736e-01 1.296623e-01 4.305927e-01 9.667514e-03 -8.290642e-01 -5.818837e-01 1.603395e-01 8.957740e-02 -1.876646e-01 -1.591199e-01 -1.092843e-01 2.681427e-01
<VARIANCE> 25
 2.149308e+01 3.103732e+01 4.970968e+01 5.873264e+01 7.158559e+01 6.920425e+01 3.966159e+01 4.495304e+01 4.204121e+01 4.275245e+01 4.102441e+01 2.954641e+01 6.639252e-01 9.264812e-01 1.883231e+00 1.858640e+00 1.558079e+00 2.146437e+00 1.929194e+00 2.097977e+00 1.840118e+00 1.884095e+00 1.595546e+00 1.333590e+00 5.259222e-01
<GCONST> 9.574519e+01
<STATE> 4
<MEAN> 25
 4.036044e+00 -4.218312e+00 4.209880e+00 1.037407e+01 7.996428e+00 -6.247262e+00 -9.419474e+00 -3.331409e+00 -2.663913e+00 -2.918104e+00 -3.142705e+00 -4.376024e+00 3.821991e-02 8.336469e-01 -6.000085e-01 -1.181883e+00 -5.675405e-01 1.117856e+00 8.718380e-01 -2.187419e-01 -3.897155e-02 3.511441e-01 4.869802e-01 5.886047e-01 -5.325214e-01
<VARIANCE> 25
 1.972391e+01 3.227742e+01 4.309776e+01 5.167957e+01 5.495691e+01 6.691110e+01 3.850472e+01 4.351723e+01 4.154246e+01 3.556070e+01 3.517086e+01 2.803684e+01 6.999541e-01 1.390189e+00 1.663853e+00 1.824908e+00 1.964548e+00 2.784639e+00 2.501812e+00 2.236512e+00 2.341234e+00 2.148965e+00 1.947036e+00 1.699689e+00 1.056007e+00
<GCONST> 9.730878e+01
~t "T_i"
<ENDHMM>
~h "th-i+m"
<BEGINHMM>
<NUMSTATES> 5
<STATE> 2
<MEAN> 25
 2.824880e+00 -2.961581e+00 4.292364e+00 7.499251e+00 7.346193e+00 -2.067250e+00 -5.297520e+00 -2.873806e+00 -2.378581e+00 -1.973293e+00 -2.520489e+00 -3.736685e+00 1.015099e+00 -9.724852e-01 2.479329e-01 2.179622e+00 1.426837e+00 -2.128228e+00 -2.309814e+00 -3.848035e-01 -7.270547e-01 -7.560874e-01 -6.794949e-01 -8.365397e-01 1.175898e+00
<VARIANCE> 25
 3.374600e+01 3.967356e+01 6.750194e+01 6.375350e+01 5.781096e+01 6.437442e+01 4.980933e+01 4.415491e+01 4.445846e+01 3.540117e+01 3.356274e+01 2.704606e+01 3.132528e+00 4.137255e+00 3.621446e+00 4.487921e+00 4.215056e+00 5.312013e+00 4.005538e+00 3.824685e+00 4.409300e+00 4.209664e+00 3.923692e+00 2.984154e+00 1.617640e+00
<GCONST> 1.086541e+02
<STATE> 3
<MEAN> 25
 3.691633e+00 -6.378765e+00 6.166086e+00 1.236009e+01 7.380941e+00 -9.047977e+00 -9.580333e+00 -1.629763e+00 -3.102339e+00 -4.599288e+00 -4.548250e+00 -5.048493e+00 8.359629e-02 -2.991736e-01 1.296623e-01 4.305927e-01 9.667514e-03 -8.290642e-01 -5.818837e-01 1.603395e-01 8.957740e-02 -1.876646e-01 -1.591199e-01 -1.092843e-01 2.681427e-01
<VARIANCE> 25
 2.149308e+01 3.103732e+01 4.970968e+01 5.873264e+01 7.158559e+01 6.920425e+01 3.966159e+01 4.495304e+01 4.204121e+01 4.275245e+01 4.102441e+01 2.954641e+01 6.639252e-01 9.264812e-01 1.883231e+00 1.858640e+00 1.558079e+00 2.146437e+00 1.929194e+00 2.097977e+00 1.840118e+00 1.884095e+00 1.595546e+00 1.333590e+00 5.259222e-01
<GCONST> 9.574519e+01
<STATE> 4
<MEAN> 25
 4.036044e+00 -4.218312e+00 4.209880e+00 1.037407e+01 7.996428e+00 -6.247262e+00 -9.419474e+00 -3.331409e+00 -2.663913e+00 -2.918104e+00 -3.142705e+00 -4.376024e+00 3.821991e-02 8.336469e-01 -6.000085e-01 -1.181883e+00 -5.675405e-01 1.117856e+00 8.718380e-01 -2.187419e-01 -3.897155e-02 3.511441e-01 4.869802e-01 5.886047e-01 -5.325214e-01
<VARIANCE> 25
 1.972391e+01 3.227742e+01 4.309776e+01 5.167957e+01 5.495691e+01 6.691110e+01 3.850472e+01 4.351723e+01 4.154246e+01 3.556070e+01 3.517086e+01 2.803684e+01 6.999541e-01 1.390189e+00 1.663853e+00 1.824908e+00 1.964548e+00 2.784639e+00 2.501812e+00 2.236512e+00 2.341234e+00 2.148965e+00 1.947036e+00 1.699689e+00 1.056007e+00
<GCONST> 9.730878e+01
~t "T_i"
<ENDHMM>
~h "th-i+n"
<BEGINHMM>
<NUMSTATES> 5
<STATE> 2
<MEAN> 25
 2.824880e+00 -2.961581e+00 4.292364e+00 7.499251e+00 7.346193e+00 -2.067250e+00 -5.297520e+00 -2.873806e+00 -2.378581e+00 -1.973293e+00 -2.520489e+00 -3.736685e+00 1.015099e+00 -9.724852e-01 2.479329e-01 2.179622e+00 1.426837e+00 -2.128228e+00 -2.309814e+00 -3.848035e-01 -7.270547e-01 -7.560874e-01 -6.794949e-01 -8.365397e-01 1.175898e+00
<VARIANCE> 25
 3.374600e+01 3.967356e+01 6.750194e+01 6.375350e+01 5.781096e+01 6.437442e+01 4.980933e+01 4.415491e+01 4.445846e+01 3.540117e+01 3.356274e+01 2.704606e+01 3.132528e+00 4.137255e+00 3.621446e+00 4.487921e+00 4.215056e+00 5.312013e+00 4.005538e+00 3.824685e+00 4.409300e+00 4.209664e+00 3.923692e+00 2.984154e+00 1.617640e+00
<GCONST> 1.086541e+02
<STATE> 3
<MEAN> 25
 3.691633e+00 -6.378765e+00 6.166086e+00 1.236009e+01 7.380941e+00 -9.047977e+00 -9.580333e+00 -1.629763e+00 -3.102339e+00 -4.599288e+00 -4.548250e+00 -5.048493e+00 8.359629e-02 -2.991736e-01 1.296623e-01 4.305927e-01 9.667514e-03 -8.290642e-01 -5.818837e-01 1.603395e-01 8.957740e-02 -1.876646e-01 -1.591199e-01 -1.092843e-01 2.681427e-01
<VARIANCE> 25
 2.149308e+01 3.103732e+01 4.970968e+01 5.873264e+01 7.158559e+01 6.920425e+01 3.966159e+01 4.495304e+01 4.204121e+01 4.275245e+01 4.102441e+01 2.954641e+01 6.639252e-01 9.264812e-01 1.883231e+00 1.858640e+00 1.558079e+00 2.146437e+00 1.929194e+00 2.097977e+00 1.840118e+00 1.884095e+00 1.595546e+00 1.333590e+00 5.259222e-01
<GCONST> 9.574519e+01
<STATE> 4
<MEAN> 25
 4.036044e+00 -4.218312e+00 4.209880e+00 1.037407e+01 7.996428e+00 -6.247262e+00 -9.419474e+00 -3.331409e+00 -2.663913e+00 -2.918104e+00 -3.142705e+00 -4.376024e+00 3.821991e-02 8.336469e-01 -6.000085e-01 -1.181883e+00 -5.675405e-01 1.117856e+00 8.718380e-01 -2.187419e-01 -3.897155e-02 3.511441e-01 4.869802e-01 5.886047e-01 -5.325214e-01
<VARIANCE> 25
